<unk>	0
<s>	0
</s>	0
▁t	-0
▁th	-1
▁a	-2
in	-3
▁w	-4
▁the	-5
re	-6
▁o	-7
▁s	-8
at	-9
er	-10
nd	-11
ou	-12
▁c	-13
is	-14
it	-15
▁b	-16
ing	-17
▁m	-18
en	-19
▁h	-20
on	-21
▁to	-22
▁p	-23
es	-24
an	-25
▁f	-26
al	-27
or	-28
▁of	-29
▁d	-30
▁in	-31
▁I	-32
▁and	-33
▁l	-34
ed	-35
ar	-36
▁y	-37
▁that	-38
om	-39
▁g	-40
as	-41
ic	-42
le	-43
▁you	-44
ve	-45
ll	-46
▁n	-47
▁we	-48
▁wh	-49
ow	-50
▁A	-51
▁is	-52
▁e	-53
ly	-54
us	-55
▁be	-56
ut	-57
▁it	-58
ion	-59
▁T	-60
ot	-61
et	-62
▁re	-63
ent	-64
ct	-65
▁on	-66
▁ha	-67
ld	-68
ver	-69
ay	-70
id	-71
▁And	-72
▁Th	-73
se	-74
▁S	-75
▁this	-76
im	-77
st	-78
ig	-79
ro	-80
ur	-81
ch	-82
ere	-83
▁st	-84
ke	-85
ce	-86
▁for	-87
if	-88
ra	-89
▁was	-90
▁W	-91
ir	-92
▁an	-93
▁do	-94
ith	-95
oo	-96
▁are	-97
op	-98
ally	-99
th	-100
am	-101
▁with	-102
▁-	-103
▁--	-104
▁ab	-105
▁have	-106
▁u	-107
▁k	-108
▁se	-109
▁they	-110
▁can	-111
▁B	-112
ol	-113
ation	-114
▁as	-115
out	-116
▁mo	-117
ht	-118
▁li	-119
▁he	-120
▁what	-121
▁wor	-122
▁go	-123
ad	-124
▁So	-125
▁com	-126
▁sh	-127
very	-128
▁at	-129
ill	-130
ould	-131
▁me	-132
▁about	-133
▁ne	-134
il	-135
ter	-136
ge	-137
ant	-138
▁so	-139
▁not	-140
ul	-141
▁all	-142
ust	-143
▁The	-144
▁fr	-145
ers	-146
▁ex	-147
▁j	-148
▁pro	-149
ight	-150
use	-151
▁ch	-152
▁som	-153
▁de	-154
▁r	-155
▁or	-156
▁"	-157
▁there	-158
▁pe	-159
ear	-160
um	-161
▁my	-162
art	-163
ck	-164
pp	-165
ess	-166
ople	-167
▁con	-168
ure	-169
ate	-170
▁It	-171
ies	-172
▁like	-173
▁one	-174
▁We	-175
ive	-176
▁people	-177
▁N	-178
est	-179
▁from	-180
ity	-181
ist	-182
▁ma	-183
nt	-184
▁kn	-185
ble	-186
ind	-187
qu	-188
ca	-189
▁H	-190
▁M	-191
pe	-192
▁our	-193
ink	-194
▁us	-195
▁but	-196
▁te	-197
▁out	-198
▁int	-199
all	-200
▁v	-201
▁al	-202
ook	-203
▁know	-204
▁C	-205
rou	-206
un	-207
▁just	-208
▁thing	-209
ri	-210
ide	-211
and	-212
cause	-213
os	-214
▁them	-215
ort	-216
▁see	-217
▁these	-218
▁But	-219
▁very	-220
▁if	-221
her	-222
▁up	-223
ie	-224
▁think	-225
▁who	-226
ich	-227
▁pl	-228
▁get	-229
el	-230
▁by	-231
ci	-232
▁going	-233
▁Y	-234
ain	-235
ect	-236
▁act	-237
one	-238
▁1	-239
▁some	-240
og	-241
▁when	-242
▁your	-243
em	-244
▁more	-245
▁because	-246
▁tr	-247
▁year	-248
▁had	-249
ans	-250
our	-251
▁im	-252
ine	-253
ast	-254
▁sa	-255
▁tim	-256
▁which	-257
▁how	-258
▁were	-259
▁would	-260
▁look	-261
od	-262
alk	-263
▁their	-264
ame	-265
ment	-266
▁really	-267
▁want	-268
ard	-269
▁work	-270
▁su	-271
▁comp	-272
▁Wh	-273
ually	-274
▁ta	-275
pt	-276
ous	-277
ood	-278
."	-279
gh	-280
reat	-281
▁O	-282
▁E	-283
ack	-284
▁en	-285
act	-286
iv	-287
iz	-288
▁way	-289
hing	-290
are	-291
▁le	-292
ore	-293
▁world	-294
ose	-295
▁here	-296
per	-297
▁has	-298
▁P	-299
ab	-300
▁time	-301
▁You	-302
▁D	-303
▁then	-304
ther	-305
ag	-306
ong	-307
▁This	-308
▁per	-309
▁qu	-310
▁G	-311
▁into	-312
▁say	-313
▁every	-314
▁L	-315
▁don	-316
▁actually	-317
ild	-318
ud	-319
ace	-320
res	-321
▁ev	-322
ence	-323
▁will	-324
▁man	-325
▁could	-326
age	-327
ions	-328
▁fe	-329
itt	-330
▁now	-331
▁things	-332
▁where	-333
▁years	-334
pl	-335
▁ag	-336
▁other	-337
▁Now	-338
▁did	-339
ff	-340
▁In	-341
00	-342
▁F	-343
ach	-344
▁somet	-345
nder	-346
ical	-347
iff	-348
▁sp	-349
▁They	-350
▁no	-351
▁cl	-352
▁any	-353
▁make	-354
▁been	-355
▁un	-356
▁R	-357
▁happ	-358
ice	-359
▁diff	-360
▁than	-361
▁tw	-362
ap	-363
red	-364
so	-365
▁start	-366
▁need	-367
▁said	-368
▁2	-369
ory	-370
ign	-371
irst	-372
ree	-373
▁right	-374
ry	-375
▁part	-376
▁bu	-377
own	-378
▁over	-379
▁dis	-380
ia	-381
▁something	-382
▁ar	-383
▁po	-384
ome	-385
olog	-386
▁back	-387
orm	-388
ite	-389
▁co	-390
uch	-391
ife	-392
round	-393
ang	-394
ount	-395
▁kind	-396
▁two	-397
ens	-398
ass	-399
▁much	-400
▁call	-401
▁got	-402
▁new	-403
▁talk	-404
▁first	-405
▁spe	-406
ittle	-407
ple	-408
ater	-409
ound	-410
▁differe	-411
▁those	-412
▁little	-413
ue	-414
sel	-415
▁ro	-416
ving	-417
▁imp	-418
ber	-419
cent	-420
ves	-421
▁also	-422
▁lo	-423
ell	-424
▁lot	-425
ght	-426
ces	-427
ult	-428
▁cont	-429
▁his	-430
▁J	-431
ub	-432
king	-433
▁pr	-434
▁she	-435
▁ph	-436
way	-437
▁ac	-438
rain	-439
▁That	-440
▁des	-441
▁most	-442
▁bet	-443
vel	-444
▁life	-445
▁under	-446
les	-447
▁only	-448
able	-449
ated	-450
ody	-451
co	-452
ip	-453
▁res	-454
ations	-455
▁ad	-456
▁sy	-457
ru	-458
▁hum	-459
ep	-460
▁even	-461
▁day	-462
ms	-463
rough	-464
ick	-465
ish	-466
▁am	-467
ict	-468
▁take	-469
▁different	-470
▁her	-471
int	-472
▁many	-473
▁good	-474
other	-475
du	-476
ob	-477
▁ide	-478
▁bl	-479
▁through	-480
▁real	-481
ph	-482
ance	-483
▁show	-484
▁does	-485
▁down	-486
▁There	-487
▁around	-488
ire	-489
ase	-490
▁What	-491
▁put	-492
ents	-493
▁He	-494
ank	-495
ark	-496
▁U	-497
als	-498
ning	-499
▁comm	-500
ak	-501
▁pre	-502
ange	-503
cess	-504
▁use	-505
form	-506
▁tell	-507
▁off	-508
▁being	-509
ade	-510
ath	-511
ors	-512
chn	-513
ress	-514
ary	-515
▁proble	-516
▁♫	-517
▁thou	-518
ject	-519
▁too	-520
ful	-521
▁happen	-522
▁same	-523
▁em	-524
ric	-525
wn	-526
ys	-527
▁inc	-528
xt	-529
▁try	-530
▁sm	-531
lect	-532
▁fact	-533
stem	-534
ether	-535
▁come	-536
▁fl	-537
▁techn	-538
▁sc	-539
▁Ch	-540
row	-541
urn	-542
tern	-543
ars	-544
▁may	-545
▁big	-546
ool	-547
ved	-548
▁doing	-549
ne	-550
day	-551
▁count	-552
▁great	-553
▁gen	-554
ons	-555
▁three	-556
▁wr	-557
▁ra	-558
ting	-559
ically	-560
ac	-561
ible	-562
iver	-563
he	-564
▁sur	-565
▁find	-566
ile	-567
▁human	-568
ord	-569
▁pers	-570
ower	-571
ology	-572
te	-573
▁tra	-574
▁K	-575
▁bec	-576
▁build	-577
▁If	-578
▁well	-579
▁system	-580
ED	-581
▁br	-582
▁percent	-583
fter	-584
fore	-585
ib	-586
▁dec	-587
illion	-588
nds	-589
thing	-590
be	-591
▁gu	-592
▁stud	-593
self	-594
▁let	-595
▁called	-596
▁app	-597
ating	-598
igh	-599
ics	-600
▁TED	-601
ious	-602
▁sim	-603
▁child	-604
▁again	-605
▁exper	-606
▁quest	-607
ian	-608
ual	-609
▁lear	-610
ition	-611
▁inv	-612
we	-613
▁made	-614
mer	-615
body	-616
▁ind	-617
▁own	-618
ial	-619
av	-620
▁long	-621
▁Well	-622
▁rem	-623
▁bel	-624
olut	-625
oc	-626
▁why	-627
cial	-628
oss	-629
▁should	-630
ren	-631
▁import	-632
▁wom	-633
▁design	-634
▁hel	-635
erest	-636
▁col	-637
ft	-638
ities	-639
ates	-640
▁creat	-641
▁underst	-642
▁brain	-643
▁end	-644
ew	-645
▁mean	-646
000	-647
▁ob	-648
▁thought	-649
con	-650
▁idea	-651
ty	-652
▁change	-653
▁ask	-654
▁after	-655
▁play	-656
▁cour	-657
▁car	-658
▁its	-659
▁person	-660
▁gl	-661
▁didn	-662
▁feel	-663
▁today	-664
▁Be	-665
ize	-666
▁bas	-667
old	-668
▁interest	-669
▁sci	-670
cri	-671
▁important	-672
ail	-673
▁inst	-674
▁ins	-675
▁him	-676
▁last	-677
▁rel	-678
ull	-679
?"	-680
▁sch	-681
ven	-682
▁started	-683
ise	-684
,000	-685
▁trans	-686
▁help	-687
▁Thank	-688
▁exam	-689
gan	-690
ough	-691
▁story	-692
▁3	-693
▁turn	-694
kes	-695
▁St	-696
▁went	-697
▁before	-698
▁understand	-699
▁gra	-700
▁course	-701
▁bit	-702
▁might	-703
ese	-704
▁point	-705
▁produ	-706
▁give	-707
▁ke	-708
▁cons	-709
▁problem	-710
ility	-711
▁better	-712
ost	-713
ular	-714
ists	-715
▁another	-716
▁never	-717
▁power	-718
ave	-719
ros	-720
ction	-721
▁sl	-722
▁inter	-723
ily	-724
▁belie	-725
ert	-726
▁kid	-727
▁few	-728
▁sort	-729
▁able	-730
▁found	-731
oth	-732
▁bo	-733
▁la	-734
und	-735
▁next	-736
▁ent	-737
▁art	-738
▁still	-739
▁plan	-740
erg	-741
▁school	-742
▁ago	-743
▁fam	-744
ense	-745
▁tog	-746
▁mod	-747
▁pol	-748
▁together	-749
▁water	-750
uc	-751
ix	-752
ng	-753
pect	-754
▁19	-755
ience	-756
▁imag	-757
▁learn	-758
▁num	-759
▁comple	-760
▁high	-761
▁came	-762
velop	-763
atch	-764
▁place	-765
ward	-766
▁mon	-767
▁technology	-768
▁cr	-769
ather	-770
alth	-771
▁Af	-772
▁commun	-773
ween	-774
▁How	-775
ata	-776
ited	-777
▁each	-778
read	-779
ness	-780
▁used	-781
▁10	-782
meric	-783
,"	-784
▁rec	-785
▁ter	-786
iss	-787
ures	-788
▁between	-789
▁When	-790
▁question	-791
ized	-792
▁pat	-793
▁20	-794
ram	-795
lic	-796
▁ext	-797
▁develop	-798
▁ser	-799
ork	-800
arch	-801
az	-802
▁love	-803
▁small	-804
▁cre	-805
▁att	-806
▁looking	-807
▁expl	-808
iness	-809
ific	-810
▁data	-811
▁med	-812
▁Americ	-813
▁done	-814
▁V	-815
cript	-816
▁light	-817
▁op	-818
ways	-819
▁min	-820
▁four	-821
▁example	-822
ered	-823
▁women	-824
▁Because	-825
cond	-826
▁old	-827
▁met	-828
ings	-829
▁comput	-830
ative	-831
▁word	-832
▁eff	-833
cept	-834
▁partic	-835
▁Tr	-836
▁grow	-837
ced	-838
ied	-839
▁doesn	-840
▁mom	-841
ets	-842
ably	-843
▁fin	-844
▁care	-845
▁cell	-846
cy	-847
▁cent	-848
▁beh	-849
conom	-850
▁stu	-851
▁nat	-852
▁wanted	-853
▁whole	-854
ger	-855
ah	-856
▁read	-857
ale	-858
formation	-859
▁str	-860
▁live	-861
▁Talk	-862
▁ever	-863
▁move	-864
▁far	-865
▁lar	-866
here	-867
▁ca	-868
▁Afric	-869
▁giv	-870
▁ed	-871
▁poss	-872
ands	-873
selves	-874
▁working	-875
tit	-876
olution	-877
ross	-878
▁ear	-879
▁bi	-880
▁million	-881
▁mus	-882
▁hard	-883
ational	-884
ote	-885
oney	-886
▁trying	-887
▁Trans	-888
▁less	-889
▁book	-890
▁reas	-891
▁chang	-892
▁always	-893
▁econom	-894
▁el	-895
▁sk	-896
cer	-897
▁children	-898
ird	-899
▁exp	-900
▁5	-901
▁bus	-902
▁gener	-903
ope	-904
▁tri	-905
▁Sub	-906
ps	-907
ural	-908
gin	-909
▁away	-910
titles	-911
vers	-912
▁believe	-913
▁fo	-914
▁Subtitles	-915
▁Transcript	-916
ont	-917
ments	-918
▁anim	-919
ism	-920
▁country	-921
▁Un	-922
▁using	-923
▁vis	-924
▁supp	-925
ract	-926
▁cor	-927
▁pict	-928
▁rep	-929
ock	-930
nect	-931
▁kids	-932
▁health	-933
▁project	-934
▁sub	-935
ries	-936
▁lead	-937
▁open	-938
▁means	-939
▁As	-940
hip	-941
▁five	-942
nce	-943
ruct	-944
▁teach	-945
gg	-946
▁frie	-947
▁information	-948
▁4	-949
▁space	-950
▁run	-951
atter	-952
▁hand	-953
▁Ind	-954
▁maybe	-955
▁thinking	-956
led	-957
▁create	-958
its	-959
▁took	-960
oy	-961
▁money	-962
air	-963
▁inf	-964
iron	-965
ond	-966
iew	-967
▁prob	-968
▁elect	-969
▁home	-970
▁food	-971
▁everything	-972
▁fun	-973
aut	-974
aces	-975
alf	-976
ories	-977
▁mind	-978
▁fut	-979
▁spec	-980
▁doll	-981
ues	-982
▁cou	-983
▁process	-984
vern	-985
▁One	-986
ks	-987
▁organ	-988
▁become	-989
ergy	-990
ention	-991
▁sing	-992
▁second	-993
▁war	-994
▁number	-995
▁eng	-996
▁left	-997
▁pres	-998
▁dem	-999
ident	-1000
▁compan	-1001
▁future	-1002
sw	-1003
▁pub	-1004
▁acc	-1005
ten	-1006
ines	-1007
▁form	-1008
▁quite	-1009
▁enough	-1010
▁univer	-1011
▁best	-1012
▁walk	-1013
▁sense	-1014
▁head	-1015
▁prog	-1016
▁sol	-1017
▁interesting	-1018
ital	-1019
▁conf	-1020
▁reg	-1021
▁comes	-1022
ever	-1023
ouse	-1024
▁mark	-1025
▁These	-1026
▁energy	-1027
iting	-1028
▁says	-1029
▁answ	-1030
▁getting	-1031
ogra	-1032
▁cle	-1033
▁set	-1034
▁My	-1035
▁govern	-1036
▁times	-1037
▁making	-1038
▁contro	-1039
ts	-1040
▁stuff	-1041
▁glob	-1042
▁happened	-1043
ertain	-1044
▁probably	-1045
▁building	-1046
▁She	-1047
▁cur	-1048
▁connect	-1049
▁talking	-1050
▁share	-1051
▁social	-1052
▁An	-1053
▁beaut	-1054
▁begin	-1055
▁grou	-1056
ety	-1057
▁env	-1058
▁dr	-1059
▁pie	-1060
▁Is	-1061
reen	-1062
▁add	-1063
▁month	-1064
▁room	-1065
ner	-1066
▁makes	-1067
▁moment	-1068
▁Here	-1069
▁dist	-1070
▁pop	-1071
ices	-1072
▁without	-1073
▁else	-1074
▁business	-1075
▁sign	-1076
▁hist	-1077
tty	-1078
▁phys	-1079
▁body	-1080
▁Africa	-1081
▁half	-1082
ient	-1083
imes	-1084
▁told	-1085
ake	-1086
▁job	-1087
▁keep	-1088
▁lives	-1089
▁top	-1090
▁soci	-1091
ately	-1092
▁val	-1093
▁wo	-1094
▁sound	-1095
▁coming	-1096
▁side	-1097
idd	-1098
▁For	-1099
▁wee	-1100
▁dollars	-1101
pr	-1102
li	-1103
▁Se	-1104
▁allow	-1105
▁environ	-1106
▁model	-1107
▁anything	-1108
▁countries	-1109
▁200	-1110
▁young	-1111
me	-1112
▁science	-1113
man	-1114
▁def	-1115
▁reason	-1116
▁bad	-1117
▁such	-1118
▁opp	-1119
▁pretty	-1120
▁phot	-1121
▁bring	-1122
▁resp	-1123
▁across	-1124
▁pass	-1125
▁cap	-1126
irl	-1127
ortun	-1128
▁simple	-1129
ying	-1130
▁gr	-1131
▁rese	-1132
▁cult	-1133
ember	-1134
ef	-1135
io	-1136
▁stand	-1137
▁Let	-1138
ash	-1139
▁ey	-1140
▁educ	-1141
▁stop	-1142
▁men	-1143
ead	-1144
▁aut	-1145
▁hope	-1146
▁prot	-1147
uring	-1148
▁ways	-1149
▁matter	-1150
der	-1151
ime	-1152
▁goes	-1153
angu	-1154
ince	-1155
▁scient	-1156
▁saw	-1157
▁experience	-1158
▁living	-1159
kay	-1160
ins	-1161
▁seen	-1162
▁All	-1163
▁ty	-1164
▁char	-1165
▁music	-1166
▁fig	-1167
where	-1168
▁New	-1169
▁minut	-1170
▁global	-1171
▁eas	-1172
ograph	-1173
▁air	-1174
▁wonder	-1175
▁particular	-1176
ided	-1177
▁cam	-1178
▁happens	-1179
most	-1180
▁sit	-1181
ught	-1182
ization	-1183
gs	-1184
ots	-1185
ott	-1186
ality	-1187
▁case	-1188
▁research	-1189
▁bre	-1190
lf	-1191
▁problems	-1192
▁asked	-1193
▁Chin	-1194
▁later	-1195
llow	-1196
▁hour	-1197
▁picture	-1198
arth	-1199
▁mem	-1200
▁langu	-1201
ken	-1202
▁effect	-1203
▁det	-1204
▁having	-1205
ilt	-1206
▁prof	-1207
▁complete	-1208
▁family	-1209
▁vide	-1210
▁No	-1211
▁six	-1212
▁days	-1213
▁environment	-1214
▁rest	-1215
▁computer	-1216
iter	-1217
aps	-1218
▁ref	-1219
▁list	-1220
arent	-1221
▁planet	-1222
▁thous	-1223
▁single	-1224
▁mach	-1225
ream	-1226
▁fore	-1227
▁inside	-1228
▁level	-1229
▁equ	-1230
▁loc	-1231
ov	-1232
▁Why	-1233
▁amaz	-1234
▁pain	-1235
▁ideas	-1236
orn	-1237
▁pa	-1238
▁basically	-1239
▁both	-1240
▁while	-1241
▁answer	-1242
▁yet	-1243
▁rob	-1244
▁self	-1245
▁disco	-1246
▁watch	-1247
less	-1248
▁saying	-1249
itive	-1250
▁polit	-1251
▁mor	-1252
▁suc	-1253
▁Earth	-1254
▁once	-1255
▁test	-1256
▁possible	-1257
▁hu	-1258
▁hear	-1259
ulation	-1260
rop	-1261
▁almost	-1262
▁certain	-1263
ants	-1264
allen	-1265
ready	-1266
unch	-1267
▁age	-1268
lish	-1269
▁looks	-1270
▁wrong	-1271
▁sure	-1272
ior	-1273
▁Al	-1274
▁guy	-1275
▁contin	-1276
med	-1277
osed	-1278
▁billion	-1279
▁product	-1280
iful	-1281
▁dise	-1282
ivid	-1283
▁city	-1284
▁true	-1285
▁treat	-1286
ury	-1287
▁dev	-1288
▁par	-1289
▁incred	-1290
▁public	-1291
▁history	-1292
▁unt	-1293
▁within	-1294
▁whether	-1295
side	-1296
▁control	-1297
ling	-1298
▁already	-1299
ield	-1300
▁amazing	-1301
▁di	-1302
▁exact	-1303
work	-1304
ivity	-1305
▁heart	-1306
▁someone	-1307
▁lab	-1308
▁looked	-1309
▁exc	-1310
▁kill	-1311
▁mil	-1312
▁dire	-1313
▁works	-1314
imate	-1315
aster	-1316
▁often	-1317
▁nothing	-1318
▁large	-1319
▁sw	-1320
oice	-1321
▁remember	-1322
▁.	-1323
ware	-1324
▁cost	-1325
▁heard	-1326
▁mag	-1327
▁class	-1328
ages	-1329
land	-1330
▁girl	-1331
▁challen	-1332
▁adv	-1333
▁beautiful	-1334
▁words	-1335
ases	-1336
▁fil	-1337
▁news	-1338
▁myself	-1339
▁mater	-1340
cle	-1341
▁cond	-1342
▁wa	-1343
▁cancer	-1344
▁Intern	-1345
Wh	-1346
ering	-1347
undred	-1348
▁community	-1349
▁video	-1350
▁language	-1351
▁15	-1352
▁iss	-1353
▁cells	-1354
▁imagine	-1355
▁built	-1356
▁figure	-1357
iddle	-1358
ex	-1359
▁30	-1360
ier	-1361
▁piece	-1362
vious	-1363
▁full	-1364
▁trad	-1365
▁ass	-1366
▁che	-1367
▁vir	-1368
bers	-1369
▁tre	-1370
▁stories	-1371
up	-1372
▁aff	-1373
ional	-1374
▁individ	-1375
▁Or	-1376
▁face	-1377
▁result	-1378
▁market	-1379
▁50	-1380
▁hundred	-1381
▁100	-1382
▁night	-1383
▁species	-1384
ians	-1385
▁follow	-1386
atic	-1387
▁universe	-1388
line	-1389
uro	-1390
▁sec	-1391
▁United	-1392
▁couple	-1393
▁months	-1394
get	-1395
▁net	-1396
uck	-1397
ron	-1398
▁pay	-1399
▁view	-1400
▁At	-1401
▁nature	-1402
▁dra	-1403
▁government	-1404
▁group	-1405
▁entire	-1406
▁incre	-1407
bs	-1408
ator	-1409
▁inn	-1410
▁front	-1411
▁friends	-1412
ane	-1413
▁order	-1414
ired	-1415
▁education	-1416
▁6	-1417
▁'	-1418
▁line	-1419
rib	-1420
▁everybody	-1421
▁must	-1422
▁past	-1423
▁until	-1424
▁..	-1425
cing	-1426
▁object	-1427
▁state	-1428
▁pri	-1429
▁isn	-1430
outh	-1431
▁experim	-1432
▁tool	-1433
▁India	-1434
▁places	-1435
▁wasn	-1436
ien	-1437
ush	-1438
▁mar	-1439
▁ret	-1440
▁engine	-1441
▁quick	-1442
▁train	-1443
▁completely	-1444
▁const	-1445
▁cra	-1446
ats	-1447
▁taking	-1448
br	-1449
to	-1450
▁behav	-1451
ivers	-1452
▁free	-1453
▁Internet	-1454
▁9	-1455
▁dri	-1456
▁deal	-1457
▁decided	-1458
▁Fr	-1459
▁exactly	-1460
▁abs	-1461
▁oce	-1462
▁itself	-1463
▁animals	-1464
omes	-1465
ters	-1466
▁pos	-1467
aw	-1468
dd	-1469
▁...	-1470
acter	-1471
ret	-1472
▁game	-1473
▁complex	-1474
▁happening	-1475
ined	-1476
▁huge	-1477
▁land	-1478
▁success	-1479
▁OK	-1480
▁became	-1481
▁students	-1482
eah	-1483
▁kinds	-1484
▁ourselves	-1485
ee	-1486
ogn	-1487
▁law	-1488
▁learned	-1489
▁Sh	-1490
▁name	-1491
▁Every	-1492
sy	-1493
itut	-1494
▁mess	-1495
▁America	-1496
ames	-1497
etic	-1498
gest	-1499
▁though	-1500
▁society	-1501
▁themselves	-1502
▁minutes	-1503
ctor	-1504
▁house	-1505
▁since	-1506
▁States	-1507
ision	-1508
▁collect	-1509
▁gets	-1510
▁questions	-1511
▁av	-1512
▁ones	-1513
▁study	-1514
ructure	-1515
▁arch	-1516
▁woman	-1517
ability	-1518
ocus	-1519
▁close	-1520
▁mass	-1521
▁against	-1522
▁z	-1523
pend	-1524
▁cut	-1525
▁fly	-1526
▁knew	-1527
▁spend	-1528
▁rather	-1529
urs	-1530
▁Do	-1531
ones	-1532
▁company	-1533
ental	-1534
▁fund	-1535
▁meet	-1536
▁prov	-1537
▁wind	-1538
▁along	-1539
cc	-1540
ming	-1541
aking	-1542
▁somebody	-1543
lud	-1544
▁ris	-1545
thers	-1546
▁God	-1547
omet	-1548
itting	-1549
▁parent	-1550
▁created	-1551
▁opportun	-1552
▁Can	-1553
▁math	-1554
icult	-1555
▁focus	-1556
▁turns	-1557
▁relations	-1558
haps	-1559
ature	-1560
▁aud	-1561
▁hours	-1562
▁Br	-1563
ibly	-1564
▁bott	-1565
▁clear	-1566
▁shows	-1567
▁expect	-1568
▁program	-1569
▁7	-1570
▁guys	-1571
▁indust	-1572
▁mother	-1573
▁Then	-1574
ives	-1575
▁8	-1576
ral	-1577
istic	-1578
▁team	-1579
▁invest	-1580
▁worked	-1581
▁pred	-1582
▁ele	-1583
▁innov	-1584
▁sometimes	-1585
att	-1586
▁deep	-1587
▁speak	-1588
▁third	-1589
app	-1590
▁disease	-1591
▁meas	-1592
▁couldn	-1593
▁others	-1594
▁explain	-1595
▁systems	-1596
face	-1597
▁least	-1598
▁everyone	-1599
ples	-1600
▁red	-1601
▁rev	-1602
▁won	-1603
cul	-1604
erv	-1605
▁var	-1606
▁coll	-1607
▁Some	-1608
▁learning	-1609
▁oil	-1610
▁difficult	-1611
▁gave	-1612
▁hold	-1613
ider	-1614
▁rad	-1615
wards	-1616
▁American	-1617
▁amount	-1618
▁protect	-1619
iol	-1620
▁happy	-1621
uss	-1622
▁Eng	-1623
▁Ar	-1624
ented	-1625
▁early	-1626
▁thousands	-1627
▁death	-1628
▁ve	-1629
▁cir	-1630
▁appro	-1631
▁bab	-1632
vered	-1633
▁liter	-1634
▁short	-1635
▁natural	-1636
▁interact	-1637
iqu	-1638
▁mic	-1639
▁listen	-1640
ribut	-1641
ination	-1642
▁oper	-1643
▁sens	-1644
▁hy	-1645
illions	-1646
gen	-1647
▁mot	-1648
▁miss	-1649
▁instead	-1650
▁bro	-1651
olved	-1652
▁dep	-1653
▁behavior	-1654
not	-1655
▁field	-1656
▁lots	-1657
▁norm	-1658
ern	-1659
sych	-1660
▁step	-1661
▁surpr	-1662
▁record	-1663
oh	-1664
▁fail	-1665
▁moving	-1666
fect	-1667
▁machine	-1668
▁takes	-1669
▁network	-1670
▁outside	-1671
The	-1672
▁Pe	-1673
▁extra	-1674
▁difference	-1675
ared	-1676
▁Euro	-1677
ides	-1678
▁dru	-1679
ients	-1680
ising	-1681
▁York	-1682
ological	-1683
▁da	-1684
ither	-1685
▁seven	-1686
▁relationship	-1687
ential	-1688
▁dig	-1689
▁China	-1690
▁leg	-1691
▁black	-1692
▁pot	-1693
▁recent	-1694
▁powerful	-1695
ror	-1696
▁green	-1697
▁taken	-1698
▁common	-1699
ially	-1700
▁Chr	-1701
▁non	-1702
▁stre	-1703
aring	-1704
ift	-1705
▁changed	-1706
astic	-1707
▁hands	-1708
▁Europe	-1709
▁pattern	-1710
orth	-1711
▁middle	-1712
ully	-1713
▁area	-1714
▁exist	-1715
▁eyes	-1716
itect	-1717
▁century	-1718
▁behind	-1719
▁culture	-1720
▁perform	-1721
cl	-1722
▁beginning	-1723
▁Okay	-1724
▁jour	-1725
ges	-1726
ased	-1727
▁typ	-1728
▁local	-1729
ove	-1730
▁pract	-1731
▁wonderful	-1732
▁break	-1733
▁arg	-1734
rew	-1735
itch	-1736
▁paper	-1737
▁psych	-1738
era	-1739
▁ant	-1740
▁given	-1741
inary	-1742
▁sex	-1743
▁colle	-1744
▁sym	-1745
▁turned	-1746
▁squ	-1747
▁needs	-1748
▁super	-1749
▁es	-1750
▁perhaps	-1751
▁12	-1752
▁easy	-1753
ump	-1754
▁leave	-1755
▁ocean	-1756
▁communic	-1757
▁yourself	-1758
▁low	-1759
▁terms	-1760
▁support	-1761
ium	-1762
▁Man	-1763
olute	-1764
▁population	-1765
ster	-1766
▁seeing	-1767
▁obvious	-1768
ption	-1769
▁began	-1770
▁parts	-1771
jor	-1772
▁occ	-1773
itions	-1774
verage	-1775
cious	-1776
▁chem	-1777
▁personal	-1778
els	-1779
elt	-1780
▁image	-1781
▁18	-1782
▁On	-1783
▁impro	-1784
year	-1785
▁reach	-1786
▁finally	-1787
▁sent	-1788
▁Re	-1789
▁Not	-1790
▁lim	-1791
▁architect	-1792
NA	-1793
▁tem	-1794
▁blue	-1795
▁eight	-1796
ply	-1797
▁ident	-1798
▁jo	-1799
▁fre	-1800
▁ill	-1801
▁dream	-1802
▁during	-1803
▁sun	-1804
▁viol	-1805
▁ben	-1806
de	-1807
▁cannot	-1808
▁emot	-1809
▁friend	-1810
lt	-1811
▁extre	-1812
▁perfect	-1813
▁present	-1814
Well	-1815
▁tot	-1816
idence	-1817
▁includ	-1818
▁needed	-1819
▁realized	-1820
ax	-1821
▁whatever	-1822
▁To	-1823
▁saf	-1824
▁major	-1825
port	-1826
▁access	-1827
▁fall	-1828
▁event	-1829
▁serv	-1830
▁consum	-1831
▁longer	-1832
▁simply	-1833
bo	-1834
rodu	-1835
ledge	-1836
▁famil	-1837
fully	-1838
▁dark	-1839
ton	-1840
ison	-1841
▁size	-1842
hor	-1843
▁40	-1844
▁ess	-1845
rought	-1846
▁robot	-1847
▁repres	-1848
▁parents	-1849
ource	-1850
▁interested	-1851
bed	-1852
▁pick	-1853
▁economic	-1854
orld	-1855
▁key	-1856
ources	-1857
▁companies	-1858
ged	-1859
▁eat	-1860
▁buy	-1861
▁poor	-1862
▁media	-1863
oph	-1864
▁week	-1865
▁humans	-1866
▁absolute	-1867
▁surv	-1868
▁situ	-1869
▁ground	-1870
▁ple	-1871
▁stay	-1872
ills	-1873
pped	-1874
▁tried	-1875
ony	-1876
ilar	-1877
▁conv	-1878
▁grand	-1879
▁disc	-1880
▁quickly	-1881
▁ge	-1882
▁fight	-1883
▁People	-1884
▁cities	-1885
ann	-1886
▁feed	-1887
▁mult	-1888
iversity	-1889
▁leaders	-1890
▁photograph	-1891
ards	-1892
▁cal	-1893
▁vers	-1894
ney	-1895
ument	-1896
▁gone	-1897
▁wall	-1898
▁press	-1899
▁spent	-1900
▁approach	-1901
▁yes	-1902
osp	-1903
avor	-1904
▁cool	-1905
▁value	-1906
▁father	-1907
▁Just	-1908
▁orig	-1909
▁scale	-1910
ibility	-1911
ators	-1912
▁felt	-1913
▁recogn	-1914
▁enc	-1915
▁draw	-1916
▁inde	-1917
▁reality	-1918
sh	-1919
hood	-1920
izing	-1921
▁special	-1922
arr	-1923
ised	-1924
▁fish	-1925
▁insp	-1926
▁direct	-1927
ape	-1928
▁DNA	-1929
▁ability	-1930
gle	-1931
▁obs	-1932
▁phone	-1933
▁weeks	-1934
▁technolog	-1935
▁civ	-1936
ze	-1937
ler	-1938
rent	-1939
ule	-1940
▁feet	-1941
▁democ	-1942
▁strong	-1943
amp	-1944
ouch	-1945
▁sum	-1946
▁evolution	-1947
▁requ	-1948
▁growth	-1949
▁opportunity	-1950
end	-1951
room	-1952
▁Right	-1953
▁known	-1954
▁travel	-1955
▁predict	-1956
▁foot	-1957
▁lost	-1958
vent	-1959
▁Tw	-1960
inal	-1961
▁del	-1962
▁priv	-1963
uses	-1964
▁economy	-1965
▁sitting	-1966
ike	-1967
▁ur	-1968
▁slow	-1969
iny	-1970
▁near	-1971
ains	-1972
▁areas	-1973
▁dest	-1974
▁either	-1975
▁May	-1976
▁fast	-1977
▁intern	-1978
▁political	-1979
You	-1980
uth	-1981
▁har	-1982
▁structure	-1983
ole	-1984
▁film	-1985
ression	-1986
▁measure	-1987
eng	-1988
▁fear	-1989
▁animal	-1990
▁25	-1991
ustain	-1992
▁write	-1993
▁extreme	-1994
▁incredible	-1995
eg	-1996
dden	-1997
com	-1998
▁cy	-1999
▁changes	-2000
▁attention	-2001
What	-2002
ggest	-2003
▁based	-2004
▁sudden	-2005
▁brought	-2006
ales	-2007
ials	-2008
▁box	-2009
▁soft	-2010
ively	-2011
▁bottom	-2012
▁suggest	-2013
of	-2014
ried	-2015
▁win	-2016
▁images	-2017
ery	-2018
anger	-2019
▁impact	-2020
▁challenge	-2021
▁books	-2022
▁wouldn	-2023
▁gives	-2024
▁English	-2025
▁numbers	-2026
▁individual	-2027
zy	-2028
▁nice	-2029
▁experiment	-2030
▁ste	-2031
▁redu	-2032
▁profess	-2033
▁realize	-2034
ug	-2035
▁pull	-2036
▁respons	-2037
▁surface	-2038
▁knowledge	-2039
▁World	-2040
ateg	-2041
bor	-2042
▁ap	-2043
▁comb	-2044
▁crit	-2045
▁technologies	-2046
ero	-2047
cially	-2048
▁electric	-2049
▁pur	-2050
▁born	-2051
▁mole	-2052
assion	-2053
▁meaning	-2054
▁mov	-2055
ances	-2056
▁send	-2057
▁force	-2058
ging	-2059
▁die	-2060
▁opt	-2061
▁anal	-2062
▁theory	-2063
ode	-2064
▁giving	-2065
▁growing	-2066
▁audience	-2067
▁physical	-2068
▁blood	-2069
▁climate	-2070
▁developed	-2071
ellig	-2072
▁flow	-2073
ored	-2074
plic	-2075
▁vill	-2076
▁circ	-2077
▁forward	-2078
▁spread	-2079
▁feeling	-2080
▁bar	-2081
▁wrote	-2082
entially	-2083
▁morning	-2084
bon	-2085
▁stra	-2086
▁average	-2087
lu	-2088
▁understanding	-2089
▁map	-2090
▁stage	-2091
▁tools	-2092
▁modern	-2093
▁univers	-2094
▁scientists	-2095
▁deg	-2096
▁fac	-2097
▁material	-2098
ext	-2099
▁risk	-2100
▁rock	-2101
omen	-2102
▁hor	-2103
▁tele	-2104
▁seems	-2105
▁institut	-2106
▁starting	-2107
▁main	-2108
▁worth	-2109
▁serious	-2110
chie	-2111
▁civil	-2112
▁tradition	-2113
▁descri	-2114
▁patients	-2115
ai	-2116
▁Ph	-2117
▁color	-2118
▁With	-2119
▁running	-2120
▁anyone	-2121
oll	-2122
▁ice	-2123
▁miles	-2124
▁creating	-2125
▁vol	-2126
▁relig	-2127
▁white	-2128
▁dead	-2129
acy	-2130
▁rul	-2131
▁compet	-2132
▁literally	-2133
ploy	-2134
▁stat	-2135
▁favor	-2136
por	-2137
▁emb	-2138
ified	-2139
▁text	-2140
ades	-2141
racy	-2142
▁sil	-2143
ensive	-2144
oon	-2145
ites	-2146
▁hot	-2147
▁playing	-2148
▁hosp	-2149
▁path	-2150
▁telling	-2151
▁prin	-2152
▁avail	-2153
▁thank	-2154
ted	-2155
▁road	-2156
ban	-2157
par	-2158
ped	-2159
▁prom	-2160
▁rele	-2161
▁hundreds	-2162
▁discovered	-2163
▁sea	-2164
▁sho	-2165
▁sustain	-2166
asc	-2167
▁post	-2168
▁guess	-2169
▁center	-2170
▁millions	-2171
oud	-2172
▁sn	-2173
▁Our	-2174
▁aren	-2175
▁touch	-2176
▁proper	-2177
▁visual	-2178
ev	-2179
aged	-2180
iant	-2181
▁CA	-2182
▁medic	-2183
▁neigh	-2184
▁similar	-2185
ny	-2186
head	-2187
▁flo	-2188
▁micro	-2189
uals	-2190
▁cop	-2191
▁mathem	-2192
▁concept	-2193
yn	-2194
ley	-2195
imens	-2196
icy	-2197
▁South	-2198
ilities	-2199
▁intellig	-2200
by	-2201
asing	-2202
▁solution	-2203
bit	-2204
amed	-2205
▁poll	-2206
▁sell	-2207
▁soon	-2208
▁track	-2209
▁current	-2210
▁ball	-2211
erence	-2212
▁movement	-2213
lear	-2214
▁hon	-2215
▁benef	-2216
erm	-2217
iet	-2218
oid	-2219
▁eye	-2220
▁issue	-2221
▁truth	-2222
▁affect	-2223
▁development	-2224
ique	-2225
▁arm	-2226
▁cars	-2227
▁seem	-2228
▁alone	-2229
▁fundam	-2230
▁transform	-2231
▁lay	-2232
▁experien	-2233
▁absolutely	-2234
iod	-2235
▁By	-2236
urity	-2237
▁shape	-2238
▁online	-2239
▁developing	-2240
abor	-2241
like	-2242
▁solve	-2243
▁est	-2244
▁showed	-2245
pecially	-2246
▁compassion	-2247
▁wish	-2248
▁smart	-2249
▁innovation	-2250
ung	-2251
▁suff	-2252
▁talked	-2253
ik	-2254
yond	-2255
▁fur	-2256
▁type	-2257
▁among	-2258
▁knows	-2259
▁fu	-2260
▁neur	-2261
ration	-2262
▁achie	-2263
ences	-2264
▁normal	-2265
▁available	-2266
▁incredibly	-2267
put	-2268
▁er	-2269
▁voice	-2270
rand	-2271
▁bur	-2272
▁patient	-2273
ister	-2274
▁camp	-2275
▁react	-2276
▁produce	-2277
▁industry	-2278
▁Am	-2279
▁flu	-2280
▁recently	-2281
Th	-2282
▁tiny	-2283
▁designed	-2284
▁resources	-2285
chan	-2286
▁fire	-2287
▁sold	-2288
▁chance	-2289
▁subject	-2290
▁Goo	-2291
▁rate	-2292
lict	-2293
▁Joh	-2294
▁ce	-2295
▁div	-2296
▁asking	-2297
▁situation	-2298
pan	-2299
▁drive	-2300
▁period	-2301
▁street	-2302
▁convers	-2303
oose	-2304
▁lif	-2305
▁save	-2306
▁beyond	-2307
▁bigger	-2308
▁changing	-2309
▁neg	-2310
▁trust	-2311
▁issues	-2312
▁generation	-2313
ency	-2314
▁ult	-2315
light	-2316
▁Yeah	-2317
▁bird	-2318
iction	-2319
▁pictures	-2320
▁dou	-2321
▁nuc	-2322
▁prop	-2323
ishing	-2324
eth	-2325
let	-2326
▁evidence	-2327
▁computers	-2328
pre	-2329
▁peace	-2330
▁sever	-2331
▁vision	-2332
▁message	-2333
▁search	-2334
▁becomes	-2335
▁putting	-2336
▁emp	-2337
▁attack	-2338
▁carbon	-2339
▁reasons	-2340
▁revolution	-2341
ival	-2342
▁clos	-2343
▁tells	-2344
ify	-2345
osph	-2346
oring	-2347
▁rules	-2348
▁especially	-2349
▁ec	-2350
▁199	-2351
▁din	-2352
▁haven	-2353
▁solar	-2354
▁writing	-2355
unt	-2356
▁medical	-2357
▁dom	-2358
▁fair	-2359
▁song	-2360
50	-2361
ude	-2362
▁Chinese	-2363
ana	-2364
ned	-2365
▁imm	-2366
▁except	-2367
▁conscious	-2368
▁emerg	-2369
▁forest	-2370
▁sounds	-2371
▁Ge	-2372
▁ast	-2373
▁lea	-2374
▁rain	-2375
▁bacter	-2376
▁several	-2377
▁fa	-2378
▁Mar	-2379
▁aw	-2380
view	-2381
oices	-2382
▁function	-2383
istan	-2384
usion	-2385
▁action	-2386
▁danger	-2387
▁involved	-2388
▁unf	-2389
▁Inst	-2390
▁device	-2391
eter	-2392
▁sat	-2393
pping	-2394
▁John	-2395
▁lived	-2396
▁Google	-2397
▁groups	-2398
▁software	-2399
rest	-2400
▁girls	-2401
▁general	-2402
cient	-2403
ores	-2404
ished	-2405
arily	-2406
▁mount	-2407
▁plant	-2408
▁mechan	-2409
▁Com	-2410
▁died	-2411
▁table	-2412
▁choice	-2413
▁likely	-2414
▁60	-2415
▁defin	-2416
▁towards	-2417
▁baby	-2418
▁basic	-2419
▁games	-2420
▁materials	-2421
▁schools	-2422
▁speed	-2423
▁necess	-2424
ows	-2425
pid	-2426
umb	-2427
▁sle	-2428
▁digital	-2429
Oh	-2430
wh	-2431
vert	-2432
▁Yes	-2433
▁bed	-2434
▁link	-2435
▁Where	-2436
ma	-2437
▁prim	-2438
▁extraord	-2439
▁teachers	-2440
▁potential	-2441
▁Im	-2442
▁nine	-2443
▁tend	-2444
ran	-2445
ously	-2446
lo	-2447
book	-2448
rast	-2449
▁moved	-2450
irth	-2451
used	-2452
▁rich	-2453
▁office	-2454
▁projects	-2455
▁particularly	-2456
une	-2457
▁Of	-2458
▁log	-2459
▁journey	-2460
▁character	-2461
▁scientific	-2462
fort	-2463
▁safe	-2464
▁activ	-2465
▁examples	-2466
idge	-2467
ressed	-2468
▁breat	-2469
come	-2470
ived	-2471
▁First	-2472
▁encou	-2473
▁starts	-2474
ires	-2475
▁gas	-2476
▁hit	-2477
▁wants	-2478
▁biggest	-2479
▁further	-2480
▁national	-2481
▁cris	-2482
ask	-2483
how	-2484
oms	-2485
uly	-2486
▁virt	-2487
ground	-2488
▁detail	-2489
▁obviously	-2490
xy	-2491
oke	-2492
▁af	-2493
ctors	-2494
▁block	-2495
▁anybody	-2496
▁creative	-2497
▁violence	-2498
▁De	-2499
▁ep	-2500
▁gal	-2501
▁screen	-2502
aur	-2503
rate	-2504
itary	-2505
▁onto	-2506
▁stru	-2507
▁After	-2508
the	-2509
▁adm	-2510
▁syn	-2511
▁princi	-2512
▁quality	-2513
▁results	-2514
iar	-2515
▁carry	-2516
▁camera	-2517
▁walking	-2518
ray	-2519
isions	-2520
▁showing	-2521
▁totally	-2522
▁certainly	-2523
▁rece	-2524
▁Maybe	-2525
▁graph	-2526
▁Any	-2527
▁farm	-2528
▁jobs	-2529
▁clean	-2530
▁passion	-2531
▁conflict	-2532
▁son	-2533
verty	-2534
▁North	-2535
IV	-2536
ey	-2537
medi	-2538
tend	-2539
▁aware	-2540
▁memory	-2541
▁report	-2542
uit	-2543
▁Pro	-2544
▁notice	-2545
▁threat	-2546
▁complic	-2547
▁largest	-2548
▁Oh	-2549
▁pu	-2550
▁context	-2551
▁chemical	-2552
apt	-2553
▁Car	-2554
antly	-2555
▁effic	-2556
▁represent	-2557
icle	-2558
▁HIV	-2559
rible	-2560
▁okay	-2561
▁exciting	-2562
rial	-2563
▁transl	-2564
▁account	-2565
▁capital	-2566
▁student	-2567
▁everywhere	-2568
▁Brit	-2569
▁skin	-2570
▁happiness	-2571
apan	-2572
▁fix	-2573
▁led	-2574
▁door	-2575
pective	-2576
▁introdu	-2577
▁collabor	-2578
▁bal	-2579
▁cross	-2580
ina	-2581
iger	-2582
more	-2583
▁birth	-2584
▁trees	-2585
▁brains	-2586
▁nobody	-2587
▁particip	-2588
▁positive	-2589
pture	-2590
▁spir	-2591
▁security	-2592
▁democracy	-2593
ene	-2594
itiz	-2595
ought	-2596
▁conc	-2597
rad	-2598
ners	-2599
▁fem	-2600
▁sequ	-2601
▁blind	-2602
▁extremely	-2603
onse	-2604
▁drug	-2605
ughter	-2606
▁Japan	-2607
▁discover	-2608
▁dro	-2609
▁meant	-2610
▁plants	-2611
▁nuclear	-2612
place	-2613
▁Most	-2614
▁objects	-2615
▁village	-2616
▁thousand	-2617
▁Le	-2618
▁tur	-2619
▁fant	-2620
▁Chris	-2621
▁poverty	-2622
▁strateg	-2623
▁mathemat	-2624
for	-2625
▁role	-2626
▁depend	-2627
▁remark	-2628
▁activity	-2629
▁favorite	-2630
▁watching	-2631
akes	-2632
▁Dav	-2633
▁mob	-2634
itten	-2635
oming	-2636
▁fasc	-2637
▁finding	-2638
▁teacher	-2639
▁cart	-2640
▁stick	-2641
▁African	-2642
▁discuss	-2643
▁suddenly	-2644
▁boy	-2645
▁vac	-2646
▁fill	-2647
▁grew	-2648
▁meth	-2649
▁lands	-2650
▁phil	-2651
▁minds	-2652
▁movie	-2653
ossible	-2654
ruction	-2655
nal	-2656
onst	-2657
▁apart	-2658
▁cause	-2659
▁named	-2660
▁neighbor	-2661
▁supposed	-2662
▁buildings	-2663
▁80	-2664
cape	-2665
erve	-2666
others	-2667
osphere	-2668
▁models	-2669
▁improve	-2670
bes	-2671
▁diag	-2672
▁vari	-2673
▁galax	-2674
▁terror	-2675
olutions	-2676
▁hospital	-2677
▁products	-2678
▁response	-2679
▁individuals	-2680
ech	-2681
▁Ste	-2682
igher	-2683
▁adult	-2684
▁author	-2685
▁consider	-2686
▁connected	-2687
lex	-2688
mend	-2689
▁West	-2690
▁lose	-2691
▁citiz	-2692
▁crazy	-2693
▁ready	-2694
▁waste	-2695
▁Cal	-2696
▁moral	-2697
▁appear	-2698
▁disapp	-2699
▁launch	-2700
▁eventually	-2701
▁16	-2702
odies	-2703
▁separ	-2704
▁faster	-2705
▁higher	-2706
▁taught	-2707
▁continue	-2708
enn	-2709
▁11	-2710
▁Don	-2711
▁tar	-2712
conds	-2713
▁magn	-2714
▁forms	-2715
▁extraordinary	-2716
.,	-2717
▁Ag	-2718
▁War	-2719
▁Even	-2720
▁mine	-2721
▁accept	-2722
▁including	-2723
anc	-2724
ett	-2725
▁Cl	-2726
inct	-2727
▁bom	-2728
▁somewhere	-2729
joy	-2730
▁201	-2731
estern	-2732
▁crisis	-2733
ulate	-2734
▁check	-2735
▁doctor	-2736
▁traditional	-2737
rage	-2738
sect	-2739
▁ann	-2740
▁Look	-2741
▁source	-2742
▁communities	-2743
mb	-2744
▁14	-2745
▁17	-2746
rated	-2747
▁phen	-2748
▁push	-2749
▁labor	-2750
▁worse	-2751
▁allowed	-2752
▁progress	-2753
▁mis	-2754
▁goal	-2755
▁webs	-2756
▁earth	-2757
▁multi	-2758
▁sorts	-2759
▁larger	-2760
▁series	-2761
▁impossible	-2762
▁complicated	-2763
▁sand	-2764
▁influ	-2765
▁shown	-2766
▁studies	-2767
▁essentially	-2768
▁fundamental	-2769
po	-2770
ims	-2771
▁Tod	-2772
▁immedi	-2773
▁indeed	-2774
▁publish	-2775
▁medicine	-2776
rab	-2777
ued	-2778
ute	-2779
▁wife	-2780
▁bunch	-2781
▁drugs	-2782
▁detect	-2783
▁colleag	-2784
ortunately	-2785
ugh	-2786
ring	-2787
▁pack	-2788
▁above	-2789
▁points	-2790
izations	-2791
ky	-2792
cise	-2793
nces	-2794
▁deb	-2795
useum	-2796
▁allows	-2797
▁concer	-2798
We	-2799
▁rid	-2800
atory	-2801
ining	-2802
▁fing	-2803
▁heav	-2804
▁wild	-2805
ission	-2806
▁ended	-2807
inating	-2808
▁afford	-2809
▁signific	-2810
▁architecture	-2811
▁fine	-2812
▁late	-2813
▁mist	-2814
▁David	-2815
▁enjoy	-2816
ologist	-2817
▁minute	-2818
▁perspective	-2819
go	-2820
rap	-2821
▁cook	-2822
▁site	-2823
▁truly	-2824
▁Christ	-2825
▁position	-2826
ips	-2827
▁dam	-2828
▁sky	-2829
▁temper	-2830
▁families	-2831
▁electricity	-2832
▁bacteria	-2833
▁training	-2834
▁distribut	-2835
▁conditions	-2836
▁Har	-2837
erson	-2838
▁cases	-2839
▁magic	-2840
▁phenomen	-2841
ube	-2842
iced	-2843
ounds	-2844
▁bank	-2845
▁older	-2846
▁decision	-2847
▁surprising	-2848
▁doc	-2849
▁pen	-2850
▁fram	-2851
▁trick	-2852
▁pieces	-2853
▁square	-2854
▁reading	-2855
▁Ad	-2856
ffic	-2857
▁East	-2858
inated	-2859
▁choose	-2860
▁prison	-2861
▁neurons	-2862
▁standing	-2863
▁treatment	-2864
▁successful	-2865
▁oxy	-2866
▁purp	-2867
▁talks	-2868
▁straight	-2869
men	-2870
▁TV	-2871
▁198	-2872
ellow	-2873
though	-2874
▁patterns	-2875
dom	-2876
▁tree	-2877
▁finan	-2878
▁infect	-2879
▁killed	-2880
▁manage	-2881
▁return	-2882
▁excited	-2883
▁international	-2884
▁Sch	-2885
▁Who	-2886
▁cat	-2887
▁kil	-2888
▁swe	-2889
▁Like	-2890
▁kept	-2891
▁assum	-2892
▁prote	-2893
▁urban	-2894
▁provide	-2895
▁critical	-2896
lier	-2897
▁alive	-2898
▁freed	-2899
▁sleep	-2900
▁effort	-2901
▁somehow	-2902
zz	-2903
lebr	-2904
▁hop	-2905
▁ign	-2906
▁town	-2907
▁calcul	-2908
▁robots	-2909
▁usually	-2910
▁increase	-2911
▁painting	-2912
amm	-2913
▁Sw	-2914
▁clim	-2915
▁clin	-2916
▁luck	-2917
▁wait	-2918
▁Which	-2919
▁print	-2920
▁content	-2921
▁reflect	-2922
▁organization	-2923
▁Bl	-2924
nter	-2925
▁trou	-2926
▁corre	-2927
▁occur	-2928
▁policy	-2929
▁mention	-2930
▁physics	-2931
▁version	-2932
▁machines	-2933
▁military	-2934
▁decisions	-2935
▁increasing	-2936
No	-2937
▁fra	-2938
uments	-2939
▁beings	-2940
▁skills	-2941
▁college	-2942
▁himself	-2943
▁smaller	-2944
iti	-2945
▁eth	-2946
▁upon	-2947
▁Those	-2948
▁explore	-2949
met	-2950
isms	-2951
aging	-2952
▁employ	-2953
▁conversation	-2954
ping	-2955
lling	-2956
▁stri	-2957
▁uses	-2958
▁lines	-2959
▁beauty	-2960
▁achieve	-2961
▁strange	-2962
ops	-2963
fact	-2964
▁Are	-2965
▁whe	-2966
▁Today	-2967
▁throw	-2968
▁engage	-2969
▁respect	-2970
back	-2971
▁Act	-2972
iling	-2973
▁actual	-2974
▁region	-2975
▁seconds	-2976
off	-2977
oles	-2978
▁veh	-2979
▁cold	-2980
▁slight	-2981
▁web	-2982
▁card	-2983
▁port	-2984
▁lower	-2985
▁stars	-2986
itation	-2987
▁celebr	-2988
▁remind	-2989
▁recognize	-2990
▁Sp	-2991
ises	-2992
▁sou	-2993
▁anywhere	-2994
▁expensive	-2995
agine	-2996
ently	-2997
▁page	-2998
▁term	-2999
▁rights	-3000
▁unique	-3001
▁anymore	-3002
▁written	-3003
▁humanity	-3004
ulf	-3005
sequ	-3006
time	-3007
▁Isl	-3008
▁code	-3009
▁Somet	-3010
▁genes	-3011
▁biology	-3012
▁greater	-3013
▁plastic	-3014
lled	-3015
▁hero	-3016
▁molec	-3017
▁price	-3018
▁secret	-3019
▁weight	-3020
▁listening	-3021
▁solutions	-3022
urt	-3023
iest	-3024
erman	-3025
▁enorm	-3026
▁glass	-3027
▁spect	-3028
▁specific	-3029
aly	-3030
ils	-3031
pro	-3032
▁13	-3033
▁21	-3034
soci	-3035
▁surger	-3036
▁service	-3037
▁becoming	-3038
▁Ex	-3039
▁star	-3040
▁cloud	-3041
▁performance	-3042
▁alg	-3043
ystem	-3044
▁legs	-3045
▁rise	-3046
▁weap	-3047
▁demonst	-3048
▁contribut	-3049
▁production	-3050
▁driving	-3051
▁Americans	-3052
rom	-3053
▁board	-3054
▁loved	-3055
▁shark	-3056
▁bodies	-3057
▁famous	-3058
▁healthy	-3059
ama	-3060
bert	-3061
eless	-3062
▁drink	-3063
▁laugh	-3064
▁societ	-3065
▁clearly	-3066
▁practice	-3067
▁dangerous	-3068
▁transport	-3069
▁environmental	-3070
la	-3071
cies	-3072
▁Afgh	-3073
▁please	-3074
▁earlier	-3075
▁fantastic	-3076
▁throughout	-3077
ables	-3078
▁autom	-3079
▁greatest	-3080
▁intelligence	-3081
acity	-3082
▁funny	-3083
▁private	-3084
▁familiar	-3085
mic	-3086
▁Go	-3087
▁cover	-3088
▁store	-3089
▁babies	-3090
▁career	-3091
▁massive	-3092
fer	-3093
▁Ro	-3094
rams	-3095
▁sal	-3096
▁crow	-3097
▁zero	-3098
▁costs	-3099
▁waiting	-3100
▁teaching	-3101
▁90	-3102
play	-3103
▁exh	-3104
orrow	-3105
▁prep	-3106
istics	-3107
▁police	-3108
▁walked	-3109
▁willing	-3110
ceed	-3111
resh	-3112
▁Ken	-3113
▁dog	-3114
iding	-3115
thern	-3116
▁desp	-3117
ologists	-3118
▁i	-3119
amic	-3120
▁mal	-3121
ained	-3122
prene	-3123
right	-3124
▁rand	-3125
▁optim	-3126
reprene	-3127
▁strugg	-3128
▁Another	-3129
▁address	-3130
▁doctors	-3131
▁shot	-3132
ashing	-3133
▁therefore	-3134
bol	-3135
ids	-3136
rees	-3137
▁Bra	-3138
▁cry	-3139
aries	-3140
▁Char	-3141
▁range	-3142
▁spirit	-3143
▁Imagine	-3144
▁invented	-3145
▁remarkable	-3146
0,	-3147
iles	-3148
▁sam	-3149
▁Mars	-3150
▁Afghan	-3151
▁comfort	-3152
▁freedom	-3153
▁respond	-3154
▁citizens	-3155
▁effective	-3156
▁Ab	-3157
▁Per	-3158
▁lad	-3159
osing	-3160
▁catch	-3161
▁instr	-3162
▁weren	-3163
imately	-3164
▁determ	-3165
▁flying	-3166
▁meeting	-3167
▁Pl	-3168
bing	-3169
▁ord	-3170
atives	-3171
▁insect	-3172
▁random	-3173
▁genetic	-3174
▁website	-3175
▁direction	-3176
▁University	-3177
aul	-3178
▁Mus	-3179
▁fuel	-3180
▁jump	-3181
▁yeah	-3182
▁ahead	-3183
▁types	-3184
▁artist	-3185
▁values	-3186
▁wealth	-3187
▁services	-3188
▁institutions	-3189
af	-3190
yl	-3191
▁shap	-3192
vision	-3193
▁income	-3194
▁mental	-3195
▁method	-3196
atically	-3197
▁pan	-3198
board	-3199
ondon	-3200
▁floor	-3201
▁forth	-3202
▁worry	-3203
▁following	-3204
SA	-3205
pes	-3206
▁jud	-3207
ricult	-3208
▁final	-3209
▁decade	-3210
▁various	-3211
cut	-3212
itor	-3213
▁His	-3214
▁Two	-3215
attle	-3216
▁tiss	-3217
▁German	-3218
▁London	-3219
▁Western	-3220
▁politics	-3221
▁engineering	-3222
▁Cong	-3223
▁email	-3224
▁levels	-3225
▁useful	-3226
▁governments	-3227
▁Mc	-3228
eral	-3229
iring	-3230
▁Arab	-3231
▁Aust	-3232
▁Mich	-3233
▁Your	-3234
▁select	-3235
▁Cent	-3236
▁invent	-3237
▁instance	-3238
▁interview	-3239
airs	-3240
▁laws	-3241
▁broad	-3242
▁trade	-3243
▁honest	-3244
▁Ha	-3245
▁atm	-3246
▁decide	-3247
▁nation	-3248
▁shared	-3249
▁electron	-3250
▁connection	-3251
▁creativity	-3252
ya	-3253
ches	-3254
orry	-3255
▁adapt	-3256
▁apply	-3257
▁whose	-3258
▁philos	-3259
▁saving	-3260
▁decades	-3261
▁entreprene	-3262
▁dyn	-3263
antic	-3264
▁gradu	-3265
▁match	-3266
▁raise	-3267
▁consequ	-3268
▁popular	-3269
▁standard	-3270
oty	-3271
▁fit	-3272
▁From	-3273
▁immediately	-3274
▁sus	-3275
ooper	-3276
▁hair	-3277
▁motiv	-3278
▁slide	-3279
▁virus	-3280
uct	-3281
yle	-3282
▁24	-3283
aper	-3284
anced	-3285
▁dram	-3286
▁helped	-3287
▁physic	-3288
▁supply	-3289
▁express	-3290
win	-3291
▁Dr	-3292
▁Mort	-3293
▁integ	-3294
▁although	-3295
▁condition	-3296
▁societies	-3297
oun	-3298
udd	-3299
anda	-3300
▁Col	-3301
ustom	-3302
▁park	-3303
▁infrast	-3304
▁prevent	-3305
▁cultural	-3306
ille	-3307
uing	-3308
▁aid	-3309
▁hyd	-3310
▁pig	-3311
▁blog	-3312
▁Second	-3313
▁forces	-3314
▁speech	-3315
ervation	-3316
▁survive	-3317
▁possibly	-3318
▁challenges	-3319
▁television	-3320
ball	-3321
▁196	-3322
aling	-3323
▁summer	-3324
▁purpose	-3325
▁agricult	-3326
▁directly	-3327
▁financial	-3328
▁neighborhood	-3329
key	-3330
▁197	-3331
▁thr	-3332
▁Bast	-3333
▁shift	-3334
▁struct	-3335
▁diseases	-3336
▁relative	-3337
▁surround	-3338
▁terrible	-3339
wood	-3340
▁nut	-3341
▁wood	-3342
▁forget	-3343
▁stress	-3344
▁slightly	-3345
ID	-3346
▁ir	-3347
▁500	-3348
▁ran	-3349
ening	-3350
▁switch	-3351
▁experiments	-3352
sc	-3353
aign	-3354
▁drop	-3355
cience	-3356
iation	-3357
▁worst	-3358
▁Morton	-3359
▁profound	-3360
▁understood	-3361
wise	-3362
▁mut	-3363
▁base	-3364
▁rule	-3365
▁oppos	-3366
now	-3367
unk	-3368
▁Pr	-3369
▁et	-3370
rael	-3371
itted	-3372
▁hous	-3373
▁paid	-3374
▁below	-3375
▁dimens	-3376
▁mobile	-3377
▁states	-3378
▁surgery	-3379
▁capacity	-3380
▁enormous	-3381
▁networks	-3382
ste	-3383
▁Iran	-3384
▁vict	-3385
▁dance	-3386
▁quant	-3387
▁shock	-3388
▁associ	-3389
▁effects	-3390
▁National	-3391
How	-3392
ened	-3393
iforn	-3394
ufact	-3395
▁City	-3396
▁boys	-3397
▁Think	-3398
▁surve	-3399
▁Indian	-3400
▁commer	-3401
▁destro	-3402
▁Californ	-3403
0.	-3404
ios	-3405
▁Sc	-3406
ashion	-3407
▁anyway	-3408
▁belief	-3409
▁closer	-3410
▁central	-3411
▁tremend	-3412
▁atmosphere	-3413
▁temperature	-3414
ancy	-3415
▁sad	-3416
inate	-3417
▁causes	-3418
▁original	-3419
▁speaking	-3420
▁published	-3421
▁colleagues	-3422
ked	-3423
cles	-3424
rical	-3425
▁expand	-3426
▁mostly	-3427
▁journal	-3428
▁workers	-3429
ira	-3430
rim	-3431
edia	-3432
vest	-3433
▁dad	-3434
arian	-3435
▁task	-3436
▁played	-3437
▁symbol	-3438
▁answers	-3439
▁mountain	-3440
▁classroom	-3441
reg	-3442
orge	-3443
▁mid	-3444
water	-3445
▁Many	-3446
▁Rich	-3447
▁mamm	-3448
▁tens	-3449
▁calls	-3450
▁evolved	-3451
▁noticed	-3452
▁programs	-3453
▁California	-3454
ipp	-3455
▁oh	-3456
▁bri	-3457
ement	-3458
rench	-3459
▁hole	-3460
▁loss	-3461
▁histor	-3462
▁oxygen	-3463
▁trouble	-3464
▁pressure	-3465
▁Afghanistan	-3466
▁organizations	-3467
5,	-3468
cks	-3469
load	-3470
raid	-3471
▁sca	-3472
icles	-3473
▁heat	-3474
▁dying	-3475
▁capture	-3476
▁helping	-3477
▁experiences	-3478
▁relationships	-3479
▁infrastructure	-3480
iers	-3481
▁hus	-3482
atell	-3483
phone	-3484
▁doub	-3485
▁reve	-3486
▁choices	-3487
▁independ	-3488
▁emotional	-3489
▁conference	-3490
arm	-3491
▁iP	-3492
exic	-3493
olve	-3494
orith	-3495
▁Russ	-3496
▁copy	-3497
▁birds	-3498
▁offic	-3499
▁radio	-3500
ception	-3501
▁flight	-3502
▁Instead	-3503
▁creates	-3504
▁markets	-3505
▁industrial	-3506
It	-3507
iber	-3508
▁Face	-3509
▁smell	-3510
▁twice	-3511
▁afraid	-3512
▁applic	-3513
▁produced	-3514
▁communicate	-3515
▁sustainable	-3516
aced	-3517
empt	-3518
esis	-3519
▁300	-3520
idden	-3521
iving	-3522
▁coff	-3523
▁male	-3524
▁active	-3525
▁highly	-3526
▁algorith	-3527
▁bringing	-3528
▁scientist	-3529
raq	-3530
▁70	-3531
rupt	-3532
▁ang	-3533
▁mix	-3534
▁hall	-3535
▁wire	-3536
▁Again	-3537
▁diagn	-3538
▁legal	-3539
▁shoot	-3540
▁manufact	-3541
▁complexity	-3542
▁consciousness	-3543
na	-3544
▁Ne	-3545
▁Te	-3546
itter	-3547
▁bees	-3548
▁lack	-3549
▁Mexic	-3550
▁rough	-3551
▁corner	-3552
▁custom	-3553
▁ancient	-3554
▁studying	-3555
▁communication	-3556
zil	-3557
▁El	-3558
▁Gu	-3559
▁Par	-3560
cules	-3561
order	-3562
ulner	-3563
▁Will	-3564
▁metap	-3565
▁total	-3566
▁Israel	-3567
▁broken	-3568
▁degrees	-3569
▁streets	-3570
▁campaign	-3571
▁differently	-3572
hy	-3573
amb	-3574
son	-3575
adem	-3576
icon	-3577
▁fort	-3578
▁bought	-3579
▁reduce	-3580
▁satell	-3581
▁diversity	-3582
band	-3583
▁San	-3584
▁Web	-3585
▁fat	-3586
▁reb	-3587
▁tun	-3588
itude	-3589
▁gold	-3590
▁airpl	-3591
osystem	-3592
▁Brazil	-3593
▁altern	-3594
▁inspired	-3595
val	-3596
▁En	-3597
cope	-3598
▁hom	-3599
▁chim	-3600
▁race	-3601
anging	-3602
▁biological	-3603
▁differences	-3604
do	-3605
ears	-3606
ured	-3607
▁bra	-3608
▁tum	-3609
▁Iraq	-3610
▁brill	-3611
▁genome	-3612
▁missing	-3613
▁stopped	-3614
Why	-3615
cell	-3616
▁Dar	-3617
▁cru	-3618
▁fro	-3619
▁rare	-3620
▁vast	-3621
▁habit	-3622
▁eating	-3623
▁female	-3624
▁deliver	-3625
▁daughter	-3626
IDS	-3627
term	-3628
▁bub	-3629
▁beat	-3630
▁fold	-3631
▁swim	-3632
▁terr	-3633
▁Middle	-3634
▁compon	-3635
▁cooper	-3636
▁spaces	-3637
▁window	-3638
▁devices	-3639
▁ecosystem	-3640
▁landscape	-3641
ays	-3642
▁etc	-3643
▁tax	-3644
▁gent	-3645
▁seas	-3646
▁teen	-3647
▁lights	-3648
▁significant	-3649
gy	-3650
ees	-3651
gth	-3652
▁ut	-3653
▁Dan	-3654
▁Nob	-3655
▁ban	-3656
istry	-3657
▁poet	-3658
▁sick	-3659
rength	-3660
▁cheap	-3661
▁crowd	-3662
▁seemed	-3663
▁molecules	-3664
au	-3665
▁Aud	-3666
▁ske	-3667
▁Great	-3668
▁analy	-3669
▁photo	-3670
▁10,000	-3671
▁breast	-3672
▁master	-3673
▁argument	-3674
▁religion	-3675
▁spending	-3676
▁creatures	-3677
▁fully	-3678
▁photos	-3679
▁vulner	-3680
▁artists	-3681
▁attract	-3682
▁Facebook	-3683
▁designers	-3684
▁Paul	-3685
aining	-3686
▁basis	-3687
▁brand	-3688
▁rapid	-3689
▁sharing	-3690
▁strength	-3691
▁efficient	-3692
rel	-3693
▁bul	-3694
arter	-3695
based	-3696
▁bread	-3697
▁pleas	-3698
▁easily	-3699
▁therap	-3700
▁members	-3701
▁tremendous	-3702
▁Des	-3703
▁ver	-3704
▁cogn	-3705
▁reco	-3706
▁agree	-3707
▁liber	-3708
▁trial	-3709
▁desert	-3710
▁background	-3711
▁opportunities	-3712
tle	-3713
reci	-3714
▁inj	-3715
ratic	-3716
rogen	-3717
▁coffee	-3718
▁gotten	-3719
▁passed	-3720
▁hearing	-3721
cop	-3722
edic	-3723
isco	-3724
▁wis	-3725
ander	-3726
▁accom	-3727
▁Thanks	-3728
▁shares	-3729
▁farmers	-3730
▁focused	-3731
▁moments	-3732
▁fascinating	-3733
▁imagination	-3734
▁responsibility	-3735
ami	-3736
▁Ben	-3737
▁feels	-3738
▁weird	-3739
▁museum	-3740
▁sexual	-3741
irt	-3742
zen	-3743
▁ing	-3744
▁Good	-3745
▁arri	-3746
▁none	-3747
▁wide	-3748
icking	-3749
▁1,000	-3750
▁avoid	-3751
▁parad	-3752
▁visit	-3753
▁leadership	-3754
lim	-3755
hand	-3756
uild	-3757
▁harm	-3758
▁join	-3759
▁repe	-3760
▁scul	-3761
▁target	-3762
▁identity	-3763
▁Niger	-3764
ography	-3765
▁nearly	-3766
▁failure	-3767
ada	-3768
izes	-3769
stein	-3770
▁More	-3771
ording	-3772
▁Richard	-3773
▁contact	-3774
▁correct	-3775
▁knowing	-3776
▁turning	-3777
▁benefits	-3778
▁possibility	-3779
pher	-3780
▁Gen	-3781
▁joy	-3782
▁host	-3783
▁rout	-3784
▁seed	-3785
orders	-3786
▁giant	-3787
▁gentle	-3788
▁myster	-3789
▁mission	-3790
▁phenomenon	-3791
8,	-3792
mp	-3793
▁Ed	-3794
mark	-3795
▁Nor	-3796
▁burn	-3797
▁mort	-3798
▁tour	-3799
▁dinos	-3800
▁enter	-3801
▁tissue	-3802
▁yellow	-3803
▁religious	-3804
1,	-3805
ha	-3806
▁1.	-3807
▁Ob	-3808
▁ble	-3809
▁tom	-3810
▁ship	-3811
ifying	-3812
▁mouth	-3813
▁advant	-3814
▁aspect	-3815
▁Austral	-3816
▁balance	-3817
▁foreign	-3818
▁forever	-3819
▁virtual	-3820
▁accident	-3821
▁opposite	-3822
fl	-3823
▁Su	-3824
aker	-3825
isible	-3826
connect	-3827
▁consid	-3828
▁fairly	-3829
▁insight	-3830
▁planets	-3831
ification	-3832
▁Actually	-3833
▁addition	-3834
uros	-3835
house	-3836
▁core	-3837
▁vacc	-3838
▁helps	-3839
▁lucky	-3840
▁demand	-3841
▁fashion	-3842
▁weapons	-3843
▁negative	-3844
▁particles	-3845
▁philosoph	-3846
mar	-3847
▁Me	-3848
cest	-3849
▁den	-3850
▁gun	-3851
eness	-3852
itely	-3853
print	-3854
▁Bill	-3855
▁Over	-3856
▁exer	-3857
▁hell	-3858
▁narr	-3859
▁puzz	-3860
▁magaz	-3861
▁resist	-3862
▁volunt	-3863
▁emotion	-3864
▁restaur	-3865
▁brilliant	-3866
cra	-3867
ief	-3868
ront	-3869
▁Take	-3870
▁scan	-3871
atures	-3872
dimens	-3873
▁coast	-3874
▁party	-3875
▁tough	-3876
▁notion	-3877
▁leading	-3878
▁traffic	-3879
7,	-3880
9,	-3881
mon	-3882
▁Mr	-3883
ford	-3884
reet	-3885
▁Asia	-3886
▁note	-3887
▁roll	-3888
▁faith	-3889
▁ancest	-3890
▁batter	-3891
▁bright	-3892
▁brings	-3893
▁colors	-3894
▁events	-3895
▁stream	-3896
▁partners	-3897
▁competition	-3898
inc	-3899
ino	-3900
roud	-3901
urch	-3902
celer	-3903
▁cand	-3904
▁forg	-3905
▁plat	-3906
▁shop	-3907
▁epide	-3908
▁subst	-3909
▁corpor	-3910
▁attempt	-3911
▁Her	-3912
▁bud	-3913
using	-3914
▁gene	-3915
▁stem	-3916
▁charge	-3917
▁inform	-3918
▁remote	-3919
ifically	-3920
▁describe	-3921
aria	-3922
▁Big	-3923
▁See	-3924
▁fol	-3925
▁Life	-3926
▁cred	-3927
▁bound	-3928
▁French	-3929
▁Fe	-3930
vity	-3931
▁400	-3932
▁iron	-3933
▁north	-3934
▁bridge	-3935
▁double	-3936
▁dreams	-3937
▁sector	-3938
▁concent	-3939
▁despite	-3940
▁metaphor	-3941
▁childhood	-3942
▁suffering	-3943
equ	-3944
mit	-3945
cked	-3946
▁Audience	-3947
▁European	-3948
▁distance	-3949
▁elements	-3950
▁importantly	-3951
▁CO	-3952
▁Gl	-3953
ager	-3954
vere	-3955
▁nor	-3956
plant	-3957
▁Bang	-3958
▁held	-3959
ellect	-3960
▁proud	-3961
▁wheel	-3962
▁easier	-3963
▁lesson	-3964
▁meters	-3965
▁unlike	-3966
▁brother	-3967
▁counter	-3968
▁husband	-3969
▁regular	-3970
dimensional	-3971
▁structures	-3972
ica	-3973
ysis	-3974
▁egg	-3975
eared	-3976
▁edge	-3977
▁shel	-3978
▁tast	-3979
idents	-3980
▁accur	-3981
▁maint	-3982
▁prost	-3983
ographic	-3984
▁appreci	-3985
▁figured	-3986
▁insects	-3987
▁previous	-3988
IT	-3989
ties	-3990
vant	-3991
▁Red	-3992
▁leads	-3993
▁noise	-3994
▁deeply	-3995
▁dollar	-3996
▁pollut	-3997
▁raised	-3998
▁succeed	-3999
▁billions	-4000
▁designer	-4001
▁document	-4002
▁fighting	-4003
▁necessarily	-4004
▁responsible	-4005
2,	-4006
my	-4007
ses	-4008
▁Sun	-4009
iable	-4010
▁appl	-4011
icians	-4012
itable	-4013
▁indic	-4014
▁lunch	-4015
▁quote	-4016
▁river	-4017
▁sorry	-4018
▁truck	-4019
▁grandm	-4020
▁oceans	-4021
▁discovery	-4022
▁commercial	-4023
▁definition	-4024
▁ultimately	-4025
kn	-4026
lin	-4027
oses	-4028
▁Did	-4029
▁boat	-4030
▁purs	-4031
▁crash	-4032
▁fresh	-4033
▁convin	-4034
▁opened	-4035
▁transp	-4036
▁kilomet	-4037
▁shouldn	-4038
▁necessary	-4039
▁mathematics	-4040
aff	-4041
▁Jo	-4042
reed	-4043
illed	-4044
▁chick	-4045
▁embra	-4046
▁moves	-4047
▁newsp	-4048
▁paint	-4049
▁walls	-4050
▁signal	-4051
▁destroy	-4052
▁holding	-4053
▁related	-4054
▁require	-4055
▁sequence	-4056
▁intellect	-4057
▁president	-4058
ij	-4059
ius	-4060
oop	-4061
This	-4062
esth	-4063
inist	-4064
verse	-4065
ulated	-4066
▁frequ	-4067
▁grass	-4068
▁mouse	-4069
▁offer	-4070
ruption	-4071
▁wisdom	-4072
▁British	-4073
▁However	-4074
▁display	-4075
▁leaving	-4076
▁typical	-4077
▁entirely	-4078
▁strategy	-4079
▁Sometimes	-4080
▁cognitive	-4081
▁influence	-4082
▁depression	-4083
ads	-4084
pper	-4085
▁cla	-4086
▁fab	-4087
▁unc	-4088
throp	-4089
▁band	-4090
▁click	-4091
▁stuck	-4092
artment	-4093
▁hidden	-4094
▁install	-4095
▁matters	-4096
ibilities	-4097
▁platform	-4098
▁surprise	-4099
▁civilization	-4100
ela	-4101
otic	-4102
▁amb	-4103
▁rot	-4104
ropri	-4105
▁grad	-4106
▁mill	-4107
inally	-4108
▁motor	-4109
▁caught	-4110
ulations	-4111
▁benefit	-4112
▁element	-4113
▁invisible	-4114
▁operating	-4115
oted	-4116
▁mos	-4117
agers	-4118
▁Once	-4119
▁Very	-4120
▁moon	-4121
▁adults	-4122
▁closed	-4123
▁acceler	-4124
▁creation	-4125
▁disaster	-4126
▁investment	-4127
▁1,	-4128
▁Fl	-4129
▁Sm	-4130
athy	-4131
enty	-4132
oman	-4133
sing	-4134
wide	-4135
▁und	-4136
▁ants	-4137
▁exch	-4138
▁frag	-4139
▁seat	-4140
▁exhib	-4141
▁pounds	-4142
▁slowly	-4143
▁studied	-4144
▁believed	-4145
▁construct	-4146
▁university	-4147
▁professional	-4148
▁Bar	-4149
▁bag	-4150
▁smo	-4151
uries	-4152
▁roof	-4153
owered	-4154
▁novel	-4155
▁begins	-4156
▁letter	-4157
▁engineers	-4158
▁collective	-4159
▁Co	-4160
▁Con	-4161
▁gar	-4162
▁tal	-4163
▁spot	-4164
ancing	-4165
ctions	-4166
urally	-4167
vention	-4168
▁degree	-4169
▁trained	-4170
▁organisms	-4171
▁constantly	-4172
set	-4173
▁ju	-4174
oint	-4175
▁tit	-4176
▁equal	-4177
▁names	-4178
▁simpl	-4179
▁Mexico	-4180
▁failed	-4181
▁phones	-4182
▁everyday	-4183
▁concerned	-4184
▁unfortunately	-4185
apse	-4186
hold	-4187
▁fle	-4188
▁lat	-4189
▁odd	-4190
▁pun	-4191
▁tor	-4192
apers	-4193
▁bone	-4194
▁soil	-4195
▁argue	-4196
▁thinks	-4197
▁factory	-4198
▁advantage	-4199
gal	-4200
oom	-4201
eper	-4202
gypt	-4203
onom	-4204
▁hyp	-4205
craft	-4206
itute	-4207
▁empt	-4208
▁gard	-4209
▁hate	-4210
▁brief	-4211
▁chair	-4212
▁prior	-4213
▁implic	-4214
▁leader	-4215
▁obsess	-4216
▁capable	-4217
▁equival	-4218
▁managed	-4219
▁emotions	-4220
▁galaxies	-4221
▁businesses	-4222
cil	-4223
cket	-4224
▁Hum	-4225
▁era	-4226
ength	-4227
riage	-4228
▁chann	-4229
▁coral	-4230
▁expert	-4231
▁finger	-4232
▁reward	-4233
▁artific	-4234
▁finished	-4235
▁languages	-4236
▁interaction	-4237
ae	-4238
▁NA	-4239
▁mig	-4240
▁sac	-4241
▁ton	-4242
lands	-4243
▁Park	-4244
▁meat	-4245
▁faces	-4246
▁grown	-4247
▁surge	-4248
iration	-4249
▁Twitter	-4250
▁Washing	-4251
▁prototy	-4252
▁compared	-4253
▁seriously	-4254
▁consumption	-4255
care	-4256
▁mir	-4257
▁adop	-4258
▁opin	-4259
forest	-4260
▁Egypt	-4261
mission	-4262
▁attach	-4263
▁circle	-4264
▁toward	-4265
▁mothers	-4266
▁precise	-4267
▁feedback	-4268
▁agriculture	-4269
gar	-4270
▁Res	-4271
▁Val	-4272
▁cos	-4273
organ	-4274
ublic	-4275
▁king	-4276
▁myth	-4277
▁whom	-4278
terday	-4279
▁Green	-4280
oration	-4281
▁sister	-4282
▁invited	-4283
▁replace	-4284
▁followed	-4285
▁Everybody	-4286
▁economics	-4287
▁perfectly	-4288
▁surprised	-4289
▁Washington	-4290
▁Pal	-4291
known	-4292
ulous	-4293
▁anti	-4294
▁nerv	-4295
▁equip	-4296
▁south	-4297
▁driver	-4298
▁galaxy	-4299
▁symmet	-4300
▁married	-4301
▁vehicle	-4302
▁majority	-4303
▁described	-4304
▁otherwise	-4305
▁principles	-4306
ara	-4307
iat	-4308
▁150	-4309
▁Min	-4310
▁dol	-4311
▁pet	-4312
▁AIDS	-4313
▁Have	-4314
▁lapt	-4315
▁puts	-4316
▁Franc	-4317
▁diver	-4318
▁quiet	-4319
▁extend	-4320
▁paying	-4321
▁versus	-4322
▁curious	-4323
▁protein	-4324
▁contract	-4325
▁statistics	-4326
▁Je	-4327
anes	-4328
▁org	-4329
rating	-4330
▁eleph	-4331
▁users	-4332
▁exists	-4333
▁shapes	-4334
▁wearing	-4335
▁launched	-4336
▁molecule	-4337
▁equivalent	-4338
▁consequences	-4339
If	-4340
ls	-4341
engu	-4342
iors	-4343
▁cro	-4344
▁dry	-4345
olves	-4346
▁Does	-4347
▁Each	-4348
▁bomb	-4349
▁intu	-4350
▁peak	-4351
pected	-4352
▁crime	-4353
▁Darwin	-4354
▁breath	-4355
▁warming	-4356
▁weather	-4357
▁increasingly	-4358
add	-4359
ipe	-4360
uge	-4361
urd	-4362
▁App	-4363
▁MIT	-4364
▁hun	-4365
ipped	-4366
▁diet	-4367
▁wond	-4368
▁Child	-4369
▁cycle	-4370
▁commit	-4371
▁dinner	-4372
▁illust	-4373
▁incent	-4374
▁drawing	-4375
▁ordinary	-4376
▁planning	-4377
▁separate	-4378
ael	-4379
▁Mo	-4380
▁ax	-4381
etti	-4382
rict	-4383
roph	-4384
▁Rob	-4385
▁due	-4386
▁hasn	-4387
▁wear	-4388
encies	-4389
▁Three	-4390
▁dolph	-4391
▁homes	-4392
▁George	-4393
▁England	-4394
▁compare	-4395
▁highest	-4396
▁investig	-4397
▁multiple	-4398
▁survival	-4399
▁mentioned	-4400
min	-4401
que	-4402
▁Sim	-4403
▁arr	-4404
▁poo	-4405
estic	-4406
▁King	-4407
▁Phil	-4408
▁foss	-4409
▁weak	-4410
▁pages	-4411
▁rural	-4412
▁sport	-4413
entally	-4414
▁debate	-4415
▁unless	-4416
▁limited	-4417
▁nervous	-4418
▁airplane	-4419
▁normally	-4420
▁equipment	-4421
RI	-4422
ns	-4423
ox	-4424
oot	-4425
rum	-4426
ume	-4427
▁Seb	-4428
▁fed	-4429
▁gift	-4430
▁reef	-4431
▁inner	-4432
▁plane	-4433
▁round	-4434
▁veget	-4435
instein	-4436
▁belong	-4437
▁generations	-4438
4,	-4439
bles	-4440
▁arms	-4441
▁unex	-4442
▁wave	-4443
ensity	-4444
▁Times	-4445
▁daily	-4446
▁lifet	-4447
▁steps	-4448
▁School	-4449
▁astron	-4450
▁circum	-4451
▁fellow	-4452
▁harder	-4453
▁neuros	-4454
▁justice	-4455
▁organic	-4456
▁theater	-4457
▁treated	-4458
▁Japanese	-4459
▁magazine	-4460
▁received	-4461
▁continent	-4462
▁distribution	-4463
▁transformation	-4464
bl	-4465
gl	-4466
irm	-4467
uff	-4468
▁Rep	-4469
▁tow	-4470
owers	-4471
▁abst	-4472
▁flat	-4473
▁rein	-4474
▁warm	-4475
▁heads	-4476
▁synth	-4477
▁academ	-4478
▁fields	-4479
▁Germany	-4480
▁article	-4481
▁station	-4482
▁Einstein	-4483
▁engineer	-4484
▁soldiers	-4485
olf	-4486
pet	-4487
▁Mil	-4488
▁pal	-4489
asion	-4490
▁Pres	-4491
▁fell	-4492
▁James	-4493
▁Kenya	-4494
▁Would	-4495
▁toile	-4496
▁Sebast	-4497
▁voices	-4498
▁Charles	-4499
▁covered	-4500
▁letters	-4501
▁volunte	-4502
▁hopefully	-4503
ald	-4504
gra	-4505
▁35	-4506
▁spl	-4507
ortex	-4508
▁Kore	-4509
▁intr	-4510
▁pian	-4511
▁tick	-4512
▁chain	-4513
▁facts	-4514
▁pengu	-4515
issions	-4516
▁battle	-4517
▁interp	-4518
▁leaves	-4519
▁motion	-4520
▁conduct	-4521
▁killing	-4522
▁setting	-4523
▁suggests	-4524
▁Australia	-4525
▁electrical	-4526
bel	-4527
hab	-4528
life	-4529
ogen	-4530
▁Bas	-4531
▁row	-4532
icing	-4533
isher	-4534
▁dial	-4535
▁tail	-4536
▁colon	-4537
▁gather	-4538
▁movies	-4539
▁100,000	-4540
▁watched	-4541
▁entertain	-4542
▁principle	-4543
▁technical	-4544
▁dimensions	-4545
ok	-4546
oes	-4547
▁coal	-4548
▁soph	-4549
▁valu	-4550
ipping	-4551
▁2,000	-4552
▁scene	-4553
▁losing	-4554
▁replic	-4555
▁stupid	-4556
▁testing	-4557
▁property	-4558
▁sentence	-4559
▁Sebastian	-4560
▁universal	-4561
Yes	-4562
odes	-4563
▁gap	-4564
▁bear	-4565
▁date	-4566
▁trip	-4567
▁limit	-4568
▁caused	-4569
▁damage	-4570
▁island	-4571
▁according	-4572
Hey	-4573
aked	-4574
ocol	-4575
semb	-4576
zing	-4577
▁nan	-4578
▁enem	-4579
▁stim	-4580
▁surf	-4581
▁categ	-4582
▁concl	-4583
▁grade	-4584
▁grain	-4585
▁heavy	-4586
▁filled	-4587
▁fourth	-4588
▁nations	-4589
▁worried	-4590
▁Everything	-4591
▁artificial	-4592
▁experienced	-4593
▁intelligent	-4594
cast	-4595
fish	-4596
▁Rem	-4597
▁ves	-4598
force	-4599
lines	-4600
▁recy	-4601
▁Could	-4602
▁Their	-4603
▁cloth	-4604
▁signs	-4605
▁sites	-4606
ressive	-4607
▁explan	-4608
▁signals	-4609
▁cultures	-4610
▁identify	-4611
▁resource	-4612
▁struggle	-4613
▁designing	-4614
▁processes	-4615
▁associated	-4616
▁kilometers	-4617
▁researchers	-4618
▁Gh	-4619
▁Tom	-4620
▁hack	-4621
▁scen	-4622
▁scri	-4623
▁shut	-4624
ushing	-4625
▁awful	-4626
▁holes	-4627
▁manip	-4628
▁negot	-4629
▁neuro	-4630
▁shoes	-4631
▁micros	-4632
▁arrived	-4633
▁continu	-4634
▁players	-4635
▁appropri	-4636
▁tomorrow	-4637
▁essential	-4638
▁considered	-4639
▁importance	-4640
▁alternative	-4641
▁connections	-4642
ding	-4643
hyth	-4644
▁alt	-4645
▁rat	-4646
lease	-4647
▁bits	-4648
▁camer	-4649
▁folks	-4650
▁infin	-4651
▁stock	-4652
▁advert	-4653
▁Michael	-4654
▁dealing	-4655
▁illness	-4656
▁sources	-4657
▁feelings	-4658
▁currently	-4659
▁comfortable	-4660
▁grandmother	-4661
cend	-4662
rete	-4663
▁Cam	-4664
▁agg	-4665
▁bee	-4666
▁pil	-4667
▁Amaz	-4668
▁gang	-4669
▁libr	-4670
▁poem	-4671
▁vote	-4672
▁frust	-4673
▁liked	-4674
▁stood	-4675
▁reform	-4676
▁review	-4677
▁keeping	-4678
▁lessons	-4679
▁convinced	-4680
▁satellite	-4681
▁yesterday	-4682
▁corruption	-4683
▁management	-4684
▁entrepreneurs	-4685
car	-4686
rian	-4687
▁cow	-4688
▁lie	-4689
erves	-4690
iency	-4691
▁disp	-4692
▁gall	-4693
▁user	-4694
▁empty	-4695
▁layer	-4696
▁perce	-4697
▁recon	-4698
▁saved	-4699
▁spoke	-4700
▁waves	-4701
▁deeper	-4702
▁finish	-4703
▁vessel	-4704
▁Britain	-4705
▁opening	-4706
▁viruses	-4707
▁Anderson	-4708
▁interface	-4709
▁professor	-4710
hi	-4711
ux	-4712
zed	-4713
cipl	-4714
gged	-4715
▁exe	-4716
▁god	-4717
▁evil	-4718
▁hadn	-4719
ension	-4720
akistan	-4721
▁sharks	-4722
▁cartoon	-4723
▁chimpan	-4724
▁experts	-4725
▁analysis	-4726
▁expected	-4727
▁reaction	-4728
▁sophistic	-4729
2.	-4730
3,	-4731
eal	-4732
lly	-4733
That	-4734
vard	-4735
lying	-4736
neath	-4737
▁hide	-4738
▁init	-4739
▁maps	-4740
▁tall	-4741
itness	-4742
▁chart	-4743
▁flies	-4744
▁prove	-4745
▁Canada	-4746
▁muscle	-4747
▁picked	-4748
▁calling	-4749
▁cutting	-4750
▁details	-4751
▁radical	-4752
▁variety	-4753
▁independent	-4754
rs	-4755
new	-4756
▁Ma	-4757
▁Art	-4758
▁Jul	-4759
▁tox	-4760
iques	-4761
▁Swed	-4762
▁crim	-4763
▁grab	-4764
▁hurt	-4765
▁pray	-4766
▁repl	-4767
▁sight	-4768
▁teeth	-4769
▁Robert	-4770
▁member	-4771
▁safety	-4772
▁videos	-4773
▁battery	-4774
▁thoughts	-4775
▁valuable	-4776
▁worldwide	-4777
▁properties	-4778
▁construction	-4779
6,	-4780
iot	-4781
▁CE	-4782
itan	-4783
▁Gree	-4784
▁asks	-4785
▁dots	-4786
▁ends	-4787
▁flex	-4788
▁spin	-4789
▁Islam	-4790
▁fortun	-4791
▁houses	-4792
▁trials	-4793
▁Nigeria	-4794
▁Pakistan	-4795
▁epidemic	-4796
▁invention	-4797
ym	-4798
mas	-4799
gets	-4800
mber	-4801
▁Sat	-4802
▁Wik	-4803
▁nar	-4804
▁Mont	-4805
▁auth	-4806
▁desk	-4807
▁kick	-4808
▁pros	-4809
▁Frank	-4810
▁broke	-4811
▁cards	-4812
▁estab	-4813
▁ideal	-4814
▁budget	-4815
▁gender	-4816
▁status	-4817
▁advanced	-4818
▁marriage	-4819
▁chemistry	-4820
▁wondering	-4821
▁underneath	-4822
▁specifically	-4823
aurs	-4824
▁2000	-4825
▁YouT	-4826
▁arts	-4827
▁lawy	-4828
▁lies	-4829
osition	-4830
▁Anyway	-4831
▁Street	-4832
▁define	-4833
▁facing	-4834
▁cameras	-4835
▁roughly	-4836
▁consumer	-4837
▁emerging	-4838
▁requires	-4839
▁President	-4840
▁existence	-4841
▁expression	-4842
▁instrument	-4843
▁effectively	-4844
▁possibilities	-4845
20	-4846
30	-4847
ago	-4848
eed	-4849
spe	-4850
▁Bro	-4851
▁sla	-4852
▁ten	-4853
usual	-4854
▁blow	-4855
▁isol	-4856
▁qual	-4857
acters	-4858
▁Center	-4859
▁forced	-4860
▁player	-4861
▁YouTube	-4862
▁dynamic	-4863
▁convince	-4864
▁exchange	-4865
▁lifetime	-4866
▁messages	-4867
▁carefully	-4868
▁chemicals	-4869
▁organized	-4870
▁practical	-4871
▁characters	-4872
▁vulnerable	-4873
ham	-4874
down	-4875
icip	-4876
▁gay	-4877
▁Last	-4878
▁Thom	-4879
▁ille	-4880
▁lady	-4881
▁fewer	-4882
▁sugar	-4883
▁poetry	-4884
ographer	-4885
▁extract	-4886
▁malaria	-4887
▁musical	-4888
▁carrying	-4889
▁exercise	-4890
▁generate	-4891
▁hydrogen	-4892
▁encourage	-4893
▁interpret	-4894
▁producing	-4895
▁intellectual	-4896
bal	-4897
▁Ke	-4898
▁gain	-4899
▁grid	-4900
▁hang	-4901
▁pure	-4902
▁snow	-4903
▁smile	-4904
▁solid	-4905
ulating	-4906
▁buying	-4907
▁height	-4908
▁script	-4909
▁Harvard	-4910
▁contain	-4911
▁encoura	-4912
▁location	-4913
▁behaviors	-4914
▁mortality	-4915
▁discussion	-4916
▁situations	-4917
▁transition	-4918
▁45	-4919
▁GP	-4920
abet	-4921
cont	-4922
mers	-4923
▁Ant	-4924
▁Int	-4925
▁Pri	-4926
▁fal	-4927
▁lic	-4928
▁spo	-4929
pends	-4930
riend	-4931
▁Mart	-4932
▁rates	-4933
▁shall	-4934
▁former	-4935
chnology	-4936
▁consist	-4937
▁privile	-4938
▁selling	-4939
▁circumst	-4940
▁explains	-4941
▁collection	-4942
▁restaurant	-4943
▁collaboration	-4944
Don	-4945
▁II	-4946
ests	-4947
▁Tur	-4948
▁bran	-4949
▁cure	-4950
▁drag	-4951
▁liqu	-4952
lation	-4953
▁honor	-4954
▁humor	-4955
▁minim	-4956
▁paral	-4957
▁partner	-4958
▁reprodu	-4959
▁sending	-4960
▁unusual	-4961
▁victims	-4962
▁clinical	-4963
▁Institute	-4964
▁relatively	-4965
▁represents	-4966
▁photographs	-4967
bre	-4968
ola	-4969
osh	-4970
berg	-4971
elly	-4972
irty	-4973
olly	-4974
over	-4975
prof	-4976
rary	-4977
▁Pac	-4978
umber	-4979
▁bill	-4980
▁ride	-4981
▁tumor	-4982
▁bottle	-4983
▁desire	-4984
▁depends	-4985
▁promise	-4986
▁pleasure	-4987
▁whenever	-4988
▁movements	-4989
▁convention	-4990
▁healthcare	-4991
▁psychology	-4992
▁mathematical	-4993
1.	-4994
gn	-4995
▁Ber	-4996
▁bow	-4997
▁vib	-4998
point	-4999
▁Adam	-5000
▁inev	-5001
▁lect	-5002
▁tons	-5003
▁wake	-5004
olving	-5005
▁Steve	-5006
▁kitch	-5007
itarian	-5008
▁credit	-5009
▁winter	-5010
▁autonom	-5011
▁disappear	-5012
▁employees	-5013
▁algorithms	-5014
▁techniques	-5015
.'	-5016
bur	-5017
iam	-5018
igm	-5019
▁99	-5020
▁Gal	-5021
▁san	-5022
▁acqu	-5023
▁deli	-5024
▁runs	-5025
porary	-5026
▁goods	-5027
▁piano	-5028
▁risks	-5029
▁serve	-5030
▁fossil	-5031
▁length	-5032
▁prefer	-5033
▁sphere	-5034
▁include	-5035
▁rapidly	-5036
▁Congress	-5037
▁abstract	-5038
▁graduate	-5039
▁prepared	-5040
bi	-5041
olds	-5042
▁Atl	-5043
▁Jew	-5044
aters	-5045
erved	-5046
etics	-5047
▁NASA	-5048
▁ring	-5049
▁tank	-5050
▁added	-5051
▁goals	-5052
▁analog	-5053
▁factor	-5054
▁hypoth	-5055
▁mirror	-5056
▁remain	-5057
▁primary	-5058
abilities	-5059
▁trillion	-5060
▁emissions	-5061
▁interests	-5062
▁newspaper	-5063
▁typically	-5064
▁profession	-5065
▁environments	-5066
▁evolutionary	-5067
DP	-5068
rat	-5069
bors	-5070
plom	-5071
▁Mal	-5072
▁iPh	-5073
itals	-5074
▁Alex	-5075
illing	-5076
▁aging	-5077
▁beach	-5078
▁compl	-5079
▁horse	-5080
▁hyper	-5081
▁skill	-5082
▁steel	-5083
▁sympt	-5084
▁bubble	-5085
▁forgot	-5086
▁organs	-5087
▁affected	-5088
▁generally	-5089
▁definitely	-5090
▁perception	-5091
itz	-5092
oly	-5093
▁Yet	-5094
▁que	-5095
▁uns	-5096
oting	-5097
▁unit	-5098
▁claim	-5099
▁reven	-5100
▁sides	-5101
▁clever	-5102
▁worlds	-5103
▁spectrum	-5104
▁radiation	-5105
▁introduced	-5106
▁protection	-5107
▁unexpected	-5108
▁sophisticated	-5109
60	-5110
Look	-5111
aled	-5112
aren	-5113
ingu	-5114
osis	-5115
tell	-5116
what	-5117
▁ped	-5118
▁rom	-5119
▁dish	-5120
▁initi	-5121
▁metal	-5122
▁notes	-5123
▁occup	-5124
▁staff	-5125
▁Thomas	-5126
▁rocket	-5127
▁feature	-5128
▁harvest	-5129
▁mistakes	-5130
▁recorded	-5131
▁Francisco	-5132
▁dinosaurs	-5133
▁politicians	-5134
rog	-5135
▁'9	-5136
▁cha	-5137
▁rub	-5138
▁scr	-5139
alled	-5140
▁cast	-5141
▁chap	-5142
▁mira	-5143
▁resc	-5144
▁sees	-5145
▁thin	-5146
ession	-5147
▁pitch	-5148
▁sweet	-5149
▁theme	-5150
▁compar	-5151
▁conver	-5152
▁execut	-5153
▁release	-5154
▁vehicles	-5155
▁establish	-5156
▁introduce	-5157
▁molecular	-5158
▁passionate	-5159
can	-5160
ded	-5161
aser	-5162
erge	-5163
▁Dem	-5164
▁ens	-5165
▁rig	-5166
▁glam	-5167
▁plus	-5168
▁shad	-5169
making	-5170
mented	-5171
▁dedic	-5172
▁input	-5173
▁mosqu	-5174
▁polic	-5175
▁topic	-5176
▁Russia	-5177
▁advice	-5178
▁assign	-5179
▁liquid	-5180
▁medium	-5181
▁season	-5182
▁centers	-5183
▁courage	-5184
▁gravity	-5185
▁marketing	-5186
▁technological	-5187
rey	-5188
▁US	-5189
atin	-5190
▁GDP	-5191
▁eld	-5192
ament	-5193
scale	-5194
usive	-5195
vable	-5196
▁Mark	-5197
▁soul	-5198
urance	-5199
▁ought	-5200
▁teles	-5201
▁Amazon	-5202
▁driven	-5203
▁ingred	-5204
▁applied	-5205
▁dropped	-5206
▁factors	-5207
▁kitchen	-5208
▁opinion	-5209
▁memories	-5210
▁relevant	-5211
▁mountains	-5212
▁neighbors	-5213
▁Ac	-5214
▁Sa	-5215
uary	-5216
▁dat	-5217
▁rit	-5218
▁Gold	-5219
▁wars	-5220
ternal	-5221
▁clock	-5222
▁estim	-5223
▁storm	-5224
▁blocks	-5225
▁garden	-5226
▁hoping	-5227
▁refuge	-5228
▁regard	-5229
▁sample	-5230
▁spring	-5231
▁string	-5232
▁thanks	-5233
▁Project	-5234
▁engaged	-5235
▁mistake	-5236
▁ultimate	-5237
▁ancestors	-5238
▁pollution	-5239
▁terrorism	-5240
▁components	-5241
▁efficiency	-5242
▁underwater	-5243
▁combination	-5244
▁inspiration	-5245
ait	-5246
▁mak	-5247
▁van	-5248
enced	-5249
▁Bank	-5250
▁Port	-5251
▁clip	-5252
▁hunt	-5253
▁lift	-5254
▁reci	-5255
▁vent	-5256
▁wine	-5257
▁atoms	-5258
▁grant	-5259
▁prime	-5260
▁satis	-5261
▁cortex	-5262
▁pulled	-5263
▁senses	-5264
▁solved	-5265
▁studio	-5266
▁Pacific	-5267
▁accompl	-5268
▁actions	-5269
▁figures	-5270
▁however	-5271
▁reached	-5272
▁silence	-5273
▁occurred	-5274
▁rational	-5275
▁traveling	-5276
▁foundation	-5277
▁sustainability	-5278
oved	-5279
▁Mon	-5280
▁adj	-5281
▁bare	-5282
▁biom	-5283
▁eggs	-5284
▁hits	-5285
▁tape	-5286
▁3,000	-5287
▁Other	-5288
▁Since	-5289
▁keeps	-5290
▁aftern	-5291
▁drives	-5292
▁amounts	-5293
▁chicken	-5294
▁illegal	-5295
▁therapy	-5296
▁astronom	-5297
▁features	-5298
▁activities	-5299
uls	-5300
ums	-5301
asks	-5302
tech	-5303
uits	-5304
▁Mic	-5305
▁Pat	-5306
▁nav	-5307
abled	-5308
amics	-5309
▁cere	-5310
▁orch	-5311
▁silk	-5312
▁While	-5313
▁aston	-5314
▁films	-5315
▁inequ	-5316
▁tests	-5317
▁acting	-5318
▁severe	-5319
▁burning	-5320
▁cooking	-5321
▁extinct	-5322
▁operate	-5323
▁quantum	-5324
▁singing	-5325
▁witness	-5326
▁naturally	-5327
▁meaningful	-5328
▁destruction	-5329
▁presentation	-5330
80	-5331
Do	-5332
yr	-5333
ita	-5334
xim	-5335
▁Em	-5336
▁La	-5337
iate	-5338
umps	-5339
▁Eth	-5340
▁Law	-5341
orous	-5342
▁Stan	-5343
▁dogs	-5344
▁pair	-5345
▁wash	-5346
arrass	-5347
▁Women	-5348
▁coord	-5349
▁false	-5350
▁refer	-5351
▁roads	-5352
▁trend	-5353
eration	-5354
▁Valley	-5355
▁assist	-5356
▁iPhone	-5357
▁records	-5358
▁awareness	-5359
▁hospitals	-5360
In	-5361
ih	-5362
za	-5363
▁194	-5364
▁Jan	-5365
▁Lad	-5366
▁pin	-5367
akers	-5368
child	-5369
retch	-5370
▁Ange	-5371
▁Four	-5372
▁capt	-5373
▁cave	-5374
▁lens	-5375
▁load	-5376
▁trig	-5377
▁State	-5378
▁horiz	-5379
▁pregn	-5380
▁advent	-5381
▁boring	-5382
▁formed	-5383
▁empathy	-5384
▁visible	-5385
▁confront	-5386
▁dramatic	-5387
▁proteins	-5388
▁computing	-5389
▁mechanism	-5390
▁democratic	-5391
▁percentage	-5392
▁manufacturing	-5393
▁transportation	-5394
ifth	-5395
oons	-5396
▁Bab	-5397
▁Day	-5398
▁Los	-5399
▁mel	-5400
esome	-5401
ework	-5402
gment	-5403
stand	-5404
▁Also	-5405
▁decl	-5406
▁fert	-5407
▁obst	-5408
▁suit	-5409
angers	-5410
▁Betti	-5411
▁frame	-5412
▁resil	-5413
▁shame	-5414
▁contem	-5415
▁fisher	-5416
▁laptop	-5417
▁perman	-5418
volution	-5419
▁Science	-5420
▁diction	-5421
▁empower	-5422
▁forests	-5423
▁largely	-5424
▁birthday	-5425
▁concrete	-5426
▁villages	-5427
▁afternoon	-5428
▁collected	-5429
▁embarrass	-5430
▁framework	-5431
▁increased	-5432
▁narrative	-5433
▁conclusion	-5434
▁controlled	-5435
▁innovative	-5436
▁personally	-5437
▁participate	-5438
▁fundamentally	-5439
▁psychological	-5440
8.	-5441
den	-5442
han	-5443
top	-5444
▁75	-5445
▁ru	-5446
bits	-5447
foot	-5448
rant	-5449
well	-5450
whel	-5451
▁Pol	-5452
▁mad	-5453
▁toy	-5454
ended	-5455
icago	-5456
▁Jack	-5457
▁club	-5458
▁diss	-5459
▁joke	-5460
estyle	-5461
▁5,000	-5462
▁Peter	-5463
▁domin	-5464
▁France	-5465
▁Muslim	-5466
▁scared	-5467
▁Chicago	-5468
▁Perhaps	-5469
▁suppose	-5470
▁creature	-5471
▁internal	-5472
▁required	-5473
▁sunlight	-5474
▁tracking	-5475
▁protected	-5476
▁providing	-5477
▁applications	-5478
▁conservation	-5479
▁implications	-5480
▁circumstances	-5481
log	-5482
rit	-5483
adic	-5484
xide	-5485
clear	-5486
iture	-5487
oston	-5488
rates	-5489
friend	-5490
ifting	-5491
▁Wikip	-5492
▁absor	-5493
▁doubt	-5494
inction	-5495
▁Nobody	-5496
▁church	-5497
▁critic	-5498
▁option	-5499
▁survey	-5500
inations	-5501
▁closely	-5502
▁nowhere	-5503
▁outcome	-5504
▁physically	-5505
▁processing	-5506
▁institution	-5507
war	-5508
▁Ah	-5509
obal	-5510
▁Dep	-5511
▁GPS	-5512
▁Unf	-5513
▁tap	-5514
▁Five	-5515
▁hook	-5516
▁hung	-5517
▁icon	-5518
▁pump	-5519
iosity	-5520
▁renew	-5521
▁Museum	-5522
▁autism	-5523
▁deaths	-5524
▁whales	-5525
▁clothes	-5526
▁command	-5527
▁decline	-5528
▁falling	-5529
▁tonight	-5530
▁apparent	-5531
▁combined	-5532
▁constant	-5533
▁existing	-5534
▁overwhel	-5535
▁presence	-5536
▁released	-5537
▁centuries	-5538
▁operation	-5539
▁literature	-5540
▁appropriate	-5541
▁potentially	-5542
ss	-5543
ta	-5544
ris	-5545
amin	-5546
keys	-5547
ogue	-5548
▁Air	-5549
▁Sam	-5550
▁gri	-5551
▁disg	-5552
▁flew	-5553
▁furn	-5554
▁ment	-5555
▁vert	-5556
▁score	-5557
▁clouds	-5558
▁flower	-5559
aneously	-5560
▁defined	-5561
▁discipl	-5562
▁unknown	-5563
▁administ	-5564
▁director	-5565
▁infected	-5566
▁wireless	-5567
▁electronic	-5568
▁mathematic	-5569
▁productive	-5570
▁explanation	-5571
▁transformed	-5572
▁Unfortunately	-5573
bul	-5574
imp	-5575
uel	-5576
Okay	-5577
cers	-5578
▁asp	-5579
icide	-5580
▁bath	-5581
▁fake	-5582
▁gras	-5583
▁pill	-5584
▁subs	-5585
isters	-5586
▁Union	-5587
▁curve	-5588
▁depth	-5589
▁frank	-5590
▁logic	-5591
▁recom	-5592
▁songs	-5593
▁taste	-5594
▁thick	-5595
▁upper	-5596
▁whist	-5597
plicity	-5598
▁Boston	-5599
▁diplom	-5600
▁papers	-5601
▁pollen	-5602
▁reject	-5603
▁sculpt	-5604
cription	-5605
▁circuit	-5606
▁electro	-5607
▁flowers	-5608
▁intense	-5609
▁mosquit	-5610
▁quarter	-5611
▁reverse	-5612
▁robotic	-5613
▁Republic	-5614
▁accurate	-5615
▁collapse	-5616
▁subjects	-5617
▁Wikipedia	-5618
▁functions	-5619
▁storytell	-5620
▁technique	-5621
▁exploration	-5622
▁instruments	-5623
Is	-5624
aks	-5625
alu	-5626
hal	-5627
mal	-5628
uce	-5629
▁2.	-5630
▁Haw	-5631
▁phr	-5632
itors	-5633
▁Only	-5634
▁diam	-5635
▁ears	-5636
▁elev	-5637
▁item	-5638
▁jail	-5639
▁loud	-5640
▁mere	-5641
▁sets	-5642
▁Found	-5643
▁Paris	-5644
▁chose	-5645
▁embed	-5646
▁lying	-5647
▁ridic	-5648
▁desper	-5649
▁divide	-5650
▁latest	-5651
▁monkey	-5652
▁writer	-5653
▁fishing	-5654
▁allowing	-5655
▁contrast	-5656
▁horrible	-5657
▁microbes	-5658
▁gentlemen	-5659
▁economists	-5660
▁surrounded	-5661
▁entrepreneur	-5662
500	-5663
nda	-5664
ras	-5665
van	-5666
▁Gi	-5667
iggs	-5668
olic	-5669
night	-5670
▁Step	-5671
▁bike	-5672
▁nest	-5673
▁scar	-5674
▁zoom	-5675
athers	-5676
▁error	-5677
▁falls	-5678
▁hotel	-5679
▁navig	-5680
▁plans	-5681
▁split	-5682
steroid	-5683
▁Design	-5684
▁corres	-5685
▁slides	-5686
▁fingers	-5687
▁options	-5688
▁wondered	-5689
▁explained	-5690
▁sensitive	-5691
▁laboratory	-5692
▁challenging	-5693
azz	-5694
box	-5695
isc	-5696
ota	-5697
vey	-5698
vis	-5699
anta	-5700
roso	-5701
tail	-5702
▁Nat	-5703
▁Sil	-5704
▁bes	-5705
▁sen	-5706
▁wel	-5707
being	-5708
sters	-5709
▁bicy	-5710
▁busy	-5711
ateful	-5712
herent	-5713
stream	-5714
▁Ghana	-5715
▁Higgs	-5716
▁admit	-5717
▁antib	-5718
▁guide	-5719
▁stone	-5720
▁uncom	-5721
▁Health	-5722
▁explos	-5723
▁profit	-5724
▁channel	-5725
▁combine	-5726
▁comment	-5727
connected	-5728
▁somewhat	-5729
▁stronger	-5730
▁authority	-5731
▁spiritual	-5732
5.	-5733
Os	-5734
ka	-5735
agn	-5736
▁mush	-5737
▁nurs	-5738
source	-5739
▁bones	-5740
▁cyber	-5741
▁button	-5742
▁spider	-5743
▁stayed	-5744
▁advance	-5745
▁attacks	-5746
▁classes	-5747
▁embrace	-5748
▁evening	-5749
▁paralle	-5750
▁remains	-5751
▁vaccine	-5752
▁election	-5753
▁measured	-5754
▁Christmas	-5755
▁Something	-5756
My	-5757
etch	-5758
gent	-5759
hour	-5760
onym	-5761
▁600	-5762
▁Ari	-5763
athan	-5764
▁Gulf	-5765
▁clus	-5766
▁cock	-5767
▁mile	-5768
▁poly	-5769
▁memor	-5770
▁rooms	-5771
▁inject	-5772
▁linked	-5773
▁remove	-5774
▁stands	-5775
▁suffer	-5776
▁volume	-5777
▁designs	-5778
▁regions	-5779
▁instruct	-5780
▁paradigm	-5781
▁provided	-5782
▁Basically	-5783
▁reference	-5784
▁conversations	-5785
oe	-5786
nel	-5787
ria	-5788
look	-5789
▁anx	-5790
entic	-5791
gging	-5792
opher	-5793
▁acts	-5794
▁biod	-5795
▁horm	-5796
▁milk	-5797
▁outc	-5798
ounced	-5799
▁Count	-5800
▁Mount	-5801
▁breed	-5802
▁ignor	-5803
▁imple	-5804
▁plate	-5805
▁prize	-5806
ptember	-5807
▁border	-5808
▁deploy	-5809
▁fright	-5810
▁relate	-5811
▁careful	-5812
▁samples	-5813
▁surgeon	-5814
▁drinking	-5815
▁penguins	-5816
▁footprint	-5817
▁telephone	-5818
▁behavioral	-5819
▁confidence	-5820
wr	-5821
▁Hy	-5822
▁py	-5823
aret	-5824
bage	-5825
ctic	-5826
rors	-5827
▁Lib	-5828
▁sem	-5829
acing	-5830
nding	-5831
▁army	-5832
▁gest	-5833
apping	-5834
profit	-5835
▁Congo	-5836
▁Obama	-5837
▁angry	-5838
▁boxes	-5839
▁climb	-5840
▁dress	-5841
▁expon	-5842
▁knock	-5843
▁shell	-5844
▁walks	-5845
▁Please	-5846
▁handle	-5847
▁puzzle	-5848
onscious	-5849
▁conclud	-5850
▁overall	-5851
▁poorest	-5852
▁swimming	-5853
▁September	-5854
▁continued	-5855
▁statement	-5856
▁mechanical	-5857
▁interactive	-5858
70	-5859
ato	-5860
ena	-5861
nic	-5862
och	-5863
ups	-5864
Yeah	-5865
lymp	-5866
otes	-5867
▁Eve	-5868
▁dot	-5869
▁mat	-5870
hythm	-5871
icted	-5872
think	-5873
▁Come	-5874
▁elim	-5875
▁nose	-5876
▁pool	-5877
▁root	-5878
▁bombs	-5879
▁label	-5880
▁style	-5881
▁weigh	-5882
▁attend	-5883
▁enable	-5884
▁traged	-5885
▁classic	-5886
▁dancing	-5887
▁equally	-5888
▁monkeys	-5889
▁offered	-5890
▁solving	-5891
▁violent	-5892
▁windows	-5893
▁distinct	-5894
▁engaging	-5895
▁overcome	-5896
▁wherever	-5897
▁exploring	-5898
▁lifestyle	-5899
▁practices	-5900
▁recording	-5901
▁spreading	-5902
▁appreciate	-5903
▁architects	-5904
▁cooperation	-5905
PA	-5906
mm	-5907
alt	-5908
sem	-5909
sum	-5910
▁23	-5911
east	-5912
rets	-5913
▁Leg	-5914
▁ack	-5915
▁hur	-5916
▁mer	-5917
▁flag	-5918
▁gray	-5919
▁About	-5920
▁Korea	-5921
▁Latin	-5922
▁Nobel	-5923
▁Woman	-5924
▁anger	-5925
▁datab	-5926
▁dozen	-5927
▁plays	-5928
▁recyc	-5929
▁tight	-5930
▁toxic	-5931
▁interf	-5932
▁joined	-5933
▁limits	-5934
▁toilet	-5935
▁conserv	-5936
▁feeding	-5937
▁library	-5938
▁sensors	-5939
▁younger	-5940
▁domestic	-5941
▁instinct	-5942
▁occasion	-5943
▁organism	-5944
▁arguments	-5945
▁consumers	-5946
▁determine	-5947
▁disorders	-5948
▁educational	-5949
ec	-5950
ula	-5951
hips	-5952
lock	-5953
omic	-5954
rous	-5955
▁250	-5956
▁Lar	-5957
▁Mac	-5958
▁Med	-5959
▁Spe	-5960
aving	-5961
itory	-5962
▁stro	-5963
▁tube	-5964
astern	-5965
▁Olymp	-5966
▁cents	-5967
▁faced	-5968
▁honey	-5969
▁chocol	-5970
▁narrow	-5971
▁obstac	-5972
▁anticip	-5973
▁carried	-5974
▁frankly	-5975
▁funding	-5976
▁Remember	-5977
▁grateful	-5978
▁illusion	-5979
▁infinite	-5980
▁obsessed	-5981
▁breathing	-5982
▁corporate	-5983
▁paintings	-5984
▁selection	-5985
▁standards	-5986
▁philosophy	-5987
▁application	-5988
▁automatically	-5989
ek	-5990
des	-5991
hen	-5992
iop	-5993
aint	-5994
iled	-5995
illy	-5996
▁Get	-5997
▁gut	-5998
belie	-5999
iform	-6000
ingly	-6001
leton	-6002
▁cash	-6003
▁dign	-6004
rition	-6005
▁Haiti	-6006
▁barri	-6007
▁colum	-6008
▁decre	-6009
▁dense	-6010
▁fixed	-6011
▁globe	-6012
▁agreed	-6013
▁arrest	-6014
▁owners	-6015
▁earthqu	-6016
▁privacy	-6017
▁pushing	-6018
▁concepts	-6019
▁download	-6020
▁printing	-6021
▁symptoms	-6022
▁transfer	-6023
▁economies	-6024
▁identical	-6025
▁Foundation	-6026
▁connecting	-6027
▁directions	-6028
▁journalist	-6029
▁conventional	-6030
ua	-6031
hol	-6032
▁NG	-6033
▁Rw	-6034
appy	-6035
ardo	-6036
heim	-6037
icit	-6038
▁Tor	-6039
▁pul	-6040
▁tea	-6041
ounce	-6042
▁Jeff	-6043
▁lets	-6044
▁prem	-6045
▁tent	-6046
imeter	-6047
▁Apple	-6048
▁Human	-6049
▁Inter	-6050
▁Prize	-6051
▁compe	-6052
▁flood	-6053
▁grows	-6054
▁phase	-6055
▁polio	-6056
▁scary	-6057
▁stack	-6058
▁Before	-6059
▁assume	-6060
▁candid	-6061
▁fabric	-6062
▁geomet	-6063
▁offers	-6064
▁placed	-6065
▁pocket	-6066
▁struck	-6067
▁tested	-6068
etically	-6069
▁breathe	-6070
▁causing	-6071
▁concert	-6072
▁fiction	-6073
▁parking	-6074
▁Everyone	-6075
▁asteroid	-6076
▁brothers	-6077
▁equation	-6078
▁floating	-6079
▁involves	-6080
▁mushroom	-6081
▁animation	-6082
▁celebrate	-6083
▁constrain	-6084
▁rainforest	-6085
▁astonishing	-6086
▁distributed	-6087
▁recognition	-6088
▁represented	-6089
iel	-6090
ocal	-6091
▁raw	-6092
▁shr	-6093
arant	-6094
cence	-6095
▁Budd	-6096
▁bold	-6097
▁cosm	-6098
▁writ	-6099
▁enemy	-6100
▁smoke	-6101
▁title	-6102
▁Sweden	-6103
▁colony	-6104
▁hunger	-6105
▁mainly	-6106
▁spoken	-6107
ollywood	-6108
▁Finally	-6109
▁awesome	-6110
▁borders	-6111
▁delight	-6112
▁divided	-6113
▁stretch	-6114
▁elephant	-6115
▁outcomes	-6116
▁particle	-6117
▁component	-6118
▁presented	-6119
▁controvers	-6120
▁fascinated	-6121
▁inequality	-6122
▁controlling	-6123
▁productivity	-6124
▁entertainment	-6125
ari	-6126
gly	-6127
vas	-6128
lete	-6129
ubes	-6130
▁10,	-6131
▁Bob	-6132
▁Cop	-6133
▁Del	-6134
▁Gra	-6135
▁Pre	-6136
▁Sec	-6137
▁fan	-6138
▁mim	-6139
▁tro	-6140
▁vag	-6141
earch	-6142
pring	-6143
▁1950	-6144
▁Arch	-6145
▁June	-6146
▁Sing	-6147
▁cord	-6148
▁dict	-6149
▁pipe	-6150
▁tack	-6151
▁ther	-6152
▁zone	-6153
arency	-6154
rosoft	-6155
▁Grand	-6156
▁crack	-6157
▁explo	-6158
▁persu	-6159
▁pharm	-6160
▁polar	-6161
▁pyram	-6162
▁teams	-6163
anthrop	-6164
rations	-6165
▁Martin	-6166
▁acknow	-6167
▁devast	-6168
▁extent	-6169
▁filter	-6170
▁marine	-6171
▁prices	-6172
▁secure	-6173
▁worker	-6174
▁Nothing	-6175
▁habitat	-6176
▁orchest	-6177
▁painful	-6178
▁proport	-6179
▁rebuild	-6180
▁spectac	-6181
▁vessels	-6182
▁maintain	-6183
▁policies	-6184
▁romantic	-6185
▁Microsoft	-6186
▁conflicts	-6187
▁furniture	-6188
▁household	-6189
▁increases	-6190
▁sculpture	-6191
▁translate	-6192
▁uncertain	-6193
▁exhibition	-6194
▁greenhouse	-6195
▁interactions	-6196
4.	-6197
emb	-6198
org	-6199
gers	-6200
rect	-6201
thal	-6202
▁Jer	-6203
▁Jim	-6204
▁gla	-6205
eline	-6206
▁loop	-6207
▁ours	-6208
▁pour	-6209
▁till	-6210
▁metab	-6211
▁sales	-6212
▁tasks	-6213
▁vital	-6214
iveness	-6215
through	-6216
▁Island	-6217
▁behave	-6218
▁proced	-6219
▁collaps	-6220
▁housing	-6221
▁license	-6222
▁insurance	-6223
▁measuring	-6224
▁prototype	-6225
▁resistance	-6226
▁transplant	-6227
▁dramatically	-6228
AR	-6229
uh	-6230
▁Sy	-6231
ault	-6232
cean	-6233
ione	-6234
olar	-6235
uous	-6236
zees	-6237
▁Hom	-6238
▁Jon	-6239
▁Mad	-6240
▁sed	-6241
▁Part	-6242
▁corn	-6243
▁firm	-6244
Americ	-6245
called	-6246
orking	-6247
▁Democ	-6248
▁House	-6249
▁tries	-6250
▁agenda	-6251
▁genius	-6252
▁hearts	-6253
▁heroes	-6254
▁lovely	-6255
▁Angeles	-6256
▁disgust	-6257
▁efforts	-6258
▁herself	-6259
▁breaking	-6260
▁recovery	-6261
▁traveled	-6262
ologically	-6263
▁Revolution	-6264
▁commitment	-6265
▁performing	-6266
7.	-6267
But	-6268
gic	-6269
oca	-6270
oir	-6271
▁AB	-6272
▁DH	-6273
oned	-6274
rade	-6275
▁Bon	-6276
▁Boy	-6277
▁Tal	-6278
angle	-6279
esity	-6280
iders	-6281
orter	-6282
under	-6283
▁neut	-6284
▁pace	-6285
father	-6286
▁River	-6287
▁delic	-6288
▁judge	-6289
▁whale	-6290
▁yield	-6291
▁Ethiop	-6292
▁Number	-6293
▁eradic	-6294
▁ladies	-6295
▁portra	-6296
▁Islamic	-6297
▁distant	-6298
▁existed	-6299
▁finance	-6300
▁lecture	-6301
▁mystery	-6302
▁receive	-6303
▁savings	-6304
▁achieved	-6305
▁embedded	-6306
▁laughing	-6307
▁treating	-6308
▁curiosity	-6309
▁inspiring	-6310
▁precisely	-6311
▁interacting	-6312
Be	-6313
arp	-6314
asm	-6315
ida	-6316
tes	-6317
▁Ug	-6318
anny	-6319
ello	-6320
ifts	-6321
lims	-6322
wich	-6323
▁Sur	-6324
▁dio	-6325
andem	-6326
inals	-6327
power	-6328
usions	-6329
▁accum	-6330
▁imper	-6331
raction	-6332
unclear	-6333
▁clinic	-6334
▁conven	-6335
▁escape	-6336
▁plenty	-6337
▁repair	-6338
▁surely	-6339
▁Central	-6340
▁William	-6341
▁appears	-6342
▁ceiling	-6343
▁density	-6344
▁monitor	-6345
▁pretend	-6346
▁raising	-6347
▁Africans	-6348
▁appeared	-6349
▁dolphins	-6350
▁parallel	-6351
▁destroyed	-6352
▁expectations	-6353
Talk	-6354
doll	-6355
exas	-6356
osen	-6357
quar	-6358
▁irr	-6359
level	-6360
▁Bush	-6361
▁Cons	-6362
▁Stud	-6363
▁axis	-6364
▁emph	-6365
phones	-6366
▁White	-6367
▁abuse	-6368
▁alien	-6369
▁flash	-6370
▁legis	-6371
▁shake	-6372
▁stere	-6373
▁toler	-6374
▁wings	-6375
▁frozen	-6376
▁ignore	-6377
▁immune	-6378
▁phrase	-6379
▁scream	-6380
▁sports	-6381
▁talent	-6382
▁thrown	-6383
▁opposed	-6384
▁suicide	-6385
▁academic	-6386
▁attached	-6387
▁imagined	-6388
▁magnetic	-6389
▁meetings	-6390
▁properly	-6391
▁psychiat	-6392
▁reaching	-6393
▁chocolate	-6394
▁permanent	-6395
▁recommend	-6396
▁department	-6397
▁motivation	-6398
▁optimistic	-6399
▁simplicity	-6400
▁innovations	-6401
▁personality	-6402
▁populations	-6403
nam	-6404
pox	-6405
▁BG	-6406
ener	-6407
▁Bur	-6408
▁Ice	-6409
▁aim	-6410
▁bat	-6411
▁bon	-6412
▁der	-6413
▁tag	-6414
eters	-6415
state	-6416
▁flip	-6417
▁mold	-6418
▁ugly	-6419
abetes	-6420
▁Texas	-6421
▁likes	-6422
▁spark	-6423
▁usual	-6424
▁facial	-6425
▁prosth	-6426
▁rating	-6427
▁repeat	-6428
▁signed	-6429
▁balloon	-6430
▁dignity	-6431
▁dioxide	-6432
▁entered	-6433
▁obesity	-6434
▁captured	-6435
▁disorder	-6436
▁shooting	-6437
▁shoulder	-6438
▁reduction	-6439
▁disappeared	-6440
Ch	-6441
imb	-6442
▁Ox	-6443
utch	-6444
walk	-6445
▁Les	-6446
▁Sov	-6447
▁Ten	-6448
▁unp	-6449
class	-6450
going	-6451
oster	-6452
owing	-6453
while	-6454
▁boom	-6455
▁lung	-6456
lessly	-6457
▁abund	-6458
▁laser	-6459
▁liver	-6460
▁maxim	-6461
▁orbit	-6462
▁reput	-6463
▁route	-6464
▁seeds	-6465
▁sheep	-6466
▁units	-6467
forward	-6468
ishment	-6469
▁patent	-6470
▁scenar	-6471
▁tricks	-6472
▁weapon	-6473
▁TEDTalk	-6474
▁guarant	-6475
▁inspire	-6476
▁muscles	-6477
▁neither	-6478
▁whereas	-6479
▁aircraft	-6480
▁estimate	-6481
▁authentic	-6482
▁customers	-6483
▁dedicated	-6484
▁depending	-6485
▁describes	-6486
▁elsewhere	-6487
▁encounter	-6488
▁accessible	-6489
▁incentives	-6490
▁microscope	-6491
▁recognized	-6492
▁manufacture	-6493
▁photographer	-6494
St	-6495
uk	-6496
anz	-6497
esh	-6498
▁Op	-6499
fall	-6500
▁Vir	-6501
▁cup	-6502
▁gig	-6503
▁tip	-6504
▁wet	-6505
archy	-6506
quare	-6507
▁Dere	-6508
▁Long	-6509
▁Play	-6510
▁pink	-6511
▁plot	-6512
▁quad	-6513
▁rely	-6514
▁rush	-6515
▁sacr	-6516
▁Brown	-6517
▁adopt	-6518
▁brown	-6519
▁finds	-6520
▁paras	-6521
astroph	-6522
century	-6523
uration	-6524
▁Really	-6525
▁adjust	-6526
▁chosen	-6527
▁legacy	-6528
▁neuron	-6529
▁oldest	-6530
▁rising	-6531
▁scales	-6532
▁trends	-6533
▁January	-6534
▁Muslims	-6535
▁aspects	-6536
▁beliefs	-6537
▁charity	-6538
▁footage	-6539
▁letting	-6540
▁methods	-6541
▁origami	-6542
▁scratch	-6543
▁suspect	-6544
▁touched	-6545
▁Stanford	-6546
▁criminal	-6547
▁backwards	-6548
▁committed	-6549
▁intention	-6550
▁musicians	-6551
▁collecting	-6552
▁governance	-6553
▁strategies	-6554
▁advertising	-6555
▁photography	-6556
tery	-6557
udes	-6558
▁Sar	-6559
▁Ven	-6560
▁ath	-6561
▁enh	-6562
▁lin	-6563
▁meg	-6564
agger	-6565
inder	-6566
▁Pole	-6567
▁beer	-6568
▁cute	-6569
▁fulf	-6570
▁lock	-6571
▁Smith	-6572
▁angle	-6573
▁chest	-6574
▁drove	-6575
▁purch	-6576
▁youth	-6577
erences	-6578
▁20,000	-6579
▁50,000	-6580
▁Palest	-6581
▁Uganda	-6582
▁crying	-6583
▁excell	-6584
▁paraly	-6585
▁tribes	-6586
▁crucial	-6587
▁mammals	-6588
▁section	-6589
▁darkness	-6590
▁provides	-6591
▁stations	-6592
▁vertical	-6593
▁colleague	-6594
▁emergency	-6595
▁boundaries	-6596
▁historical	-6597
▁protecting	-6598
▁transparent	-6599
▁International	-6600
3.	-6601
aj	-6602
ani	-6603
asy	-6604
edy	-6605
pass	-6606
rows	-6607
▁Cor	-6608
▁Jes	-6609
▁Tim	-6610
▁ate	-6611
▁jun	-6612
▁nit	-6613
aming	-6614
inson	-6615
▁Comm	-6616
▁cens	-6617
▁limb	-6618
▁toys	-6619
dollar	-6620
▁Black	-6621
▁Carol	-6622
▁Super	-6623
▁aband	-6624
▁aside	-6625
▁crops	-6626
▁males	-6627
▁meter	-6628
▁reefs	-6629
▁rocks	-6630
▁skull	-6631
▁traum	-6632
▁utter	-6633
▁actors	-6634
▁assemb	-6635
▁borrow	-6636
▁defend	-6637
▁expans	-6638
▁heaven	-6639
▁powers	-6640
▁retire	-6641
▁Eastern	-6642
▁cheaper	-6643
▁instant	-6644
▁tragedy	-6645
▁wanting	-6646
▁hardware	-6647
▁minister	-6648
▁organize	-6649
▁symmetry	-6650
▁continues	-6651
▁privilege	-6652
▁searching	-6653
▁virtually	-6654
▁capitalism	-6655
▁catastroph	-6656
▁functional	-6657
▁transparency	-6658
▁communications	-6659
6.	-6660
nov	-6661
oor	-6662
rid	-6663
▁22	-6664
▁27	-6665
ideo	-6666
irds	-6667
oust	-6668
roll	-6669
▁Ros	-6670
▁Sea	-6671
▁aer	-6672
attan	-6673
▁Mary	-6674
▁boss	-6675
▁choo	-6676
▁eleg	-6677
▁golf	-6678
▁hire	-6679
▁Space	-6680
▁chief	-6681
▁elder	-6682
▁fluid	-6683
▁links	-6684
▁pione	-6685
▁stops	-6686
▁subur	-6687
illance	-6688
▁intent	-6689
▁intrig	-6690
▁missed	-6691
▁pandem	-6692
▁satisf	-6693
▁Nations	-6694
▁airport	-6695
▁amongst	-6696
▁concern	-6697
▁diverse	-6698
▁unbelie	-6699
▁diabetes	-6700
▁equality	-6701
▁laughter	-6702
▁lighting	-6703
▁northern	-6704
▁produces	-6705
▁unlikely	-6706
▁generated	-6707
▁contribute	-6708
▁chimpanzees	-6709
▁electronics	-6710
▁spectacular	-6711
ams	-6712
hib	-6713
lyn	-6714
obs	-6715
rol	-6716
▁id	-6717
oded	-6718
▁Bel	-6719
▁Fin	-6720
▁Net	-6721
▁Ser	-6722
▁beg	-6723
▁gon	-6724
▁obl	-6725
There	-6726
ckets	-6727
stage	-6728
▁Girl	-6729
▁Hans	-6730
▁Next	-6731
▁dump	-6732
▁pref	-6733
▁seek	-6734
▁wing	-6735
▁Bible	-6736
▁digit	-6737
▁evalu	-6738
▁manif	-6739
▁tears	-6740
▁views	-6741
▁adding	-6742
▁emphas	-6743
▁hardly	-6744
▁hungry	-6745
▁margin	-6746
▁orange	-6747
▁reveal	-6748
▁stable	-6749
▁bicycle	-6750
▁exposed	-6751
▁graphic	-6752
▁accepted	-6753
▁attribut	-6754
▁dynamics	-6755
▁sandwich	-6756
▁surfaces	-6757
▁strangers	-6758
▁affordable	-6759
▁earthquake	-6760
▁ecosystems	-6761
▁engagement	-6762
▁demonstrate	-6763
fin	-6764
oli	-6765
iday	-6766
▁cab	-6767
▁hat	-6768
▁pra	-6769
▁unh	-6770
capes	-6771
▁1990	-6772
▁Mand	-6773
▁ages	-6774
▁enth	-6775
▁leap	-6776
▁peer	-6777
▁tech	-6778
hattan	-6779
ietnam	-6780
▁Never	-6781
▁Voice	-6782
▁champ	-6783
▁conce	-6784
▁fiber	-6785
▁fruit	-6786
▁veter	-6787
▁yours	-6788
▁Indeed	-6789
▁Rwanda	-6790
▁fertil	-6791
▁output	-6792
▁poison	-6793
▁smooth	-6794
children	-6795
▁reconst	-6796
▁session	-6797
▁speaker	-6798
▁football	-6799
▁textbook	-6800
▁apartment	-6801
▁physicist	-6802
▁apparently	-6803
▁resolution	-6804
▁volunteers	-6805
▁universities	-6806
ye	-6807
Let	-6808
ura	-6809
usi	-6810
erer	-6811
icop	-6812
iety	-6813
keep	-6814
ocin	-6815
▁10-	-6816
▁Dis	-6817
▁Lab	-6818
▁Mod	-6819
▁fib	-6820
▁hip	-6821
▁lit	-6822
▁1960	-6823
▁Flor	-6824
▁bias	-6825
▁dust	-6826
▁glad	-6827
▁knee	-6828
▁mice	-6829
▁nets	-6830
othing	-6831
▁blank	-6832
▁bless	-6833
▁dirty	-6834
▁fifth	-6835
▁genoc	-6836
▁jelly	-6837
▁pilot	-6838
▁spots	-6839
▁ultra	-6840
▁upset	-6841
▁commod	-6842
▁evolve	-6843
▁farmer	-6844
▁locked	-6845
▁defense	-6846
▁essence	-6847
▁initial	-6848
▁pointed	-6849
▁wheelch	-6850
▁Atlantic	-6851
▁agencies	-6852
▁contains	-6853
▁dominant	-6854
▁globally	-6855
▁includes	-6856
▁pregnant	-6857
▁smallpox	-6858
▁Manhattan	-6859
▁accidents	-6860
▁copyright	-6861
▁depressed	-6862
▁intuitive	-6863
▁afterwards	-6864
▁ingredients	-6865
▁surveillance	-6866
▁neighborhoods	-6867
9.	-6868
BI	-6869
cal	-6870
erd	-6871
ixt	-6872
nes	-6873
omb	-6874
▁BF	-6875
▁Hi	-6876
case	-6877
izar	-6878
lies	-6879
pled	-6880
rich	-6881
▁Pan	-6882
▁Six	-6883
▁ink	-6884
▁lob	-6885
alian	-6886
ician	-6887
▁Cont	-6888
▁Gand	-6889
▁pile	-6890
▁soap	-6891
▁wise	-6892
arents	-6893
erving	-6894
▁Gates	-6895
▁Ocean	-6896
▁Scott	-6897
▁cryst	-6898
▁disag	-6899
▁glaci	-6900
▁opens	-6901
▁realm	-6902
▁seats	-6903
▁thumb	-6904
▁Arabic	-6905
▁Saturn	-6906
▁Virgin	-6907
▁adoles	-6908
▁barely	-6909
▁emerge	-6910
▁origin	-6911
▁rescue	-6912
▁shadow	-6913
▁silent	-6914
▁Vietnam	-6915
▁circles	-6916
▁ethical	-6917
▁granted	-6918
▁passing	-6919
▁pyramid	-6920
▁removed	-6921
▁traject	-6922
▁Research	-6923
▁Hollywood	-6924
▁algorithm	-6925
▁announced	-6926
▁calculate	-6927
▁dimension	-6928
▁variation	-6929
▁terrorists	-6930
▁consequence	-6931
▁philanthrop	-6932
▁underground	-6933
▁neuroscience	-6934
▁globalization	-6935
All	-6936
eda	-6937
hum	-6938
uba	-6939
▁Sl	-6940
▁gh	-6941
atts	-6942
emen	-6943
lets	-6944
onic	-6945
west	-6946
zero	-6947
▁Mor	-6948
▁gro	-6949
▁hol	-6950
▁spr	-6951
▁twe	-6952
▁wid	-6953
amine	-6954
iated	-6955
maker	-6956
▁1980	-6957
▁Narr	-6958
▁Wall	-6959
▁east	-6960
▁hier	-6961
▁mate	-6962
▁rent	-6963
icious	-6964
unning	-6965
▁Derek	-6966
▁flour	-6967
▁recru	-6968
▁roots	-6969
▁Jewish	-6970
▁Oxford	-6971
▁Soviet	-6972
▁distur	-6973
▁extrem	-6974
▁poster	-6975
▁stores	-6976
▁subtle	-6977
▁Through	-6978
▁briefly	-6979
▁chapter	-6980
▁consume	-6981
▁diagram	-6982
▁disrupt	-6983
▁painted	-6984
▁pulling	-6985
▁symbols	-6986
▁visited	-6987
▁controls	-6988
▁isolated	-6989
▁returned	-6990
▁speakers	-6991
▁theories	-6992
▁elections	-6993
▁separated	-6994
▁uncomfort	-6995
▁capability	-6996
▁integrated	-6997
▁discoveries	-6998
▁breakthrough	-6999
▁collaborative	-7000
..	-7001
MS	-7002
▁x	-7003
aws	-7004
uum	-7005
zes	-7006
▁Bo	-7007
▁na	-7008
ifer	-7009
rons	-7010
▁Bay	-7011
▁Hel	-7012
▁Mah	-7013
▁bio	-7014
Where	-7015
abeth	-7016
enger	-7017
isted	-7018
itate	-7019
opard	-7020
tical	-7021
tocin	-7022
▁1970	-7023
▁beet	-7024
▁coun	-7025
▁debt	-7026
▁earn	-7027
▁fool	-7028
▁neat	-7029
▁tied	-7030
▁trop	-7031
heimer	-7032
▁Antar	-7033
▁Video	-7034
▁Watch	-7035
▁aesth	-7036
▁banks	-7037
▁burst	-7038
▁cliff	-7039
▁craft	-7040
▁drill	-7041
igation	-7042
ughters	-7043
▁layers	-7044
▁observ	-7045
▁rarely	-7046
▁stages	-7047
▁Florida	-7048
▁General	-7049
▁bubbles	-7050
▁implant	-7051
▁recover	-7052
▁external	-7053
▁official	-7054
▁dependent	-7055
▁ignorance	-7056
▁autonomous	-7057
▁dictionary	-7058
▁satellites	-7059
▁underlying	-7060
▁agricultural	-7061
▁participants	-7062
▁surprisingly	-7063
-1	-7064
So	-7065
dri	-7066
ini	-7067
ason	-7068
fold	-7069
icks	-7070
kins	-7071
▁195	-7072
▁Sal	-7073
ested	-7074
obile	-7075
▁Gore	-7076
▁High	-7077
▁bars	-7078
▁caps	-7079
▁laid	-7080
▁pupp	-7081
▁rail	-7082
▁sulf	-7083
bridge	-7084
engine	-7085
ivered	-7086
▁Titan	-7087
▁balls	-7088
▁blame	-7089
▁chaos	-7090
▁fuels	-7091
▁legit	-7092
▁march	-7093
▁nutri	-7094
▁proof	-7095
▁reson	-7096
▁sheet	-7097
▁stunt	-7098
▁tired	-7099
▁trash	-7100
▁wound	-7101
onymous	-7102
ustrial	-7103
▁corals	-7104
▁clients	-7105
▁imagery	-7106
▁prosper	-7107
▁Children	-7108
▁Ethiopia	-7109
▁dialogue	-7110
▁incident	-7111
▁highlight	-7112
▁mysterious	-7113
▁reputation	-7114
▁grandfather	-7115
▁probability	-7116
▁characteristics	-7117
200	-7118
And	-7119
elf	-7120
▁65	-7121
illa	-7122
osal	-7123
pond	-7124
uity	-7125
zens	-7126
▁700	-7127
▁Joe	-7128
▁Oct	-7129
▁Wal	-7130
▁Was	-7131
▁sav	-7132
iance	-7133
oding	-7134
otion	-7135
▁Eric	-7136
▁bull	-7137
▁chip	-7138
▁clar	-7139
▁kiss	-7140
▁quit	-7141
▁rice	-7142
▁salt	-7143
esthes	-7144
izarre	-7145
market	-7146
▁Italy	-7147
▁chrom	-7148
▁fract	-7149
▁minor	-7150
▁punch	-7151
▁relax	-7152
▁Nature	-7153
▁branch	-7154
▁compos	-7155
▁curren	-7156
▁invite	-7157
▁panels	-7158
▁simult	-7159
▁transm	-7160
▁volcan	-7161
▁waters	-7162
▁Whether	-7163
▁consult	-7164
▁hanging	-7165
▁happier	-7166
▁picking	-7167
▁artistic	-7168
▁facility	-7169
▁focusing	-7170
▁reminded	-7171
▁repeated	-7172
▁reported	-7173
▁documents	-7174
▁expanding	-7175
▁sentences	-7176
▁industries	-7177
▁researcher	-7178
▁biodiversity	-7179
▁experimental	-7180
▁intervention	-7181
tw	-7182
auc	-7183
bru	-7184
che	-7185
opy	-7186
raw	-7187
▁2,	-7188
▁26	-7189
▁Bu	-7190
▁Di	-7191
▁ub	-7192
part	-7193
ulum	-7194
viol	-7195
yard	-7196
▁Alz	-7197
▁Lou	-7198
ffect	-7199
itous	-7200
izoph	-7201
ribly	-7202
▁Back	-7203
▁Jose	-7204
▁Star	-7205
▁acid	-7206
▁prev	-7207
erable	-7208
makers	-7209
ptions	-7210
semble	-7211
▁actor	-7212
▁apple	-7213
▁drawn	-7214
▁exped	-7215
▁holds	-7216
▁naked	-7217
▁sharp	-7218
▁Should	-7219
▁agency	-7220
▁capita	-7221
▁caring	-7222
▁injury	-7223
▁landed	-7224
▁pursue	-7225
▁served	-7226
▁settle	-7227
▁spinal	-7228
▁trucks	-7229
▁drivers	-7230
▁federal	-7231
▁helicop	-7232
▁reduced	-7233
▁sensory	-7234
▁colonies	-7235
▁conclude	-7236
▁dinosaur	-7237
▁flexible	-7238
▁keyboard	-7239
▁southern	-7240
▁Alzheimer	-7241
▁delivered	-7242
▁frequency	-7243
▁predicted	-7244
▁teenagers	-7245
▁Department	-7246
▁determined	-7247
▁disappoint	-7248
▁identified	-7249
▁resilience	-7250
▁ridiculous	-7251
▁translated	-7252
▁wheelchair	-7253
▁improvement	-7254
▁predictions	-7255
▁uncomfortable	-7256
ET	-7257
...	-7258
err	-7259
kin	-7260
omy	-7261
ora	-7262
rix	-7263
sec	-7264
udi	-7265
▁32	-7266
agon	-7267
apor	-7268
aran	-7269
ober	-7270
▁'60	-7271
▁Hey	-7272
▁LED	-7273
▁Mag	-7274
▁Sen	-7275
▁hey	-7276
▁lon	-7277
copes	-7278
gency	-7279
liest	-7280
riger	-7281
worth	-7282
▁Blue	-7283
▁Comp	-7284
▁Move	-7285
▁mail	-7286
aching	-7287
▁shrim	-7288
▁threw	-7289
uilding	-7290
viously	-7291
▁curric	-7292
▁degrad	-7293
▁ethnic	-7294
▁killer	-7295
▁lawyer	-7296
▁linear	-7297
▁neural	-7298
▁regret	-7299
▁shaped	-7300
▁vacuum	-7301
▁Russian	-7302
▁bizarre	-7303
▁comprom	-7304
▁impacts	-7305
▁liberal	-7306
▁prepare	-7307
▁shelter	-7308
▁Narrator	-7309
▁attitude	-7310
▁climbing	-7311
▁district	-7312
▁inherent	-7313
▁manifest	-7314
▁refriger	-7315
▁abilities	-7316
▁objective	-7317
▁positions	-7318
▁primarily	-7319
▁compelling	-7320
▁explaining	-7321
▁inevitable	-7322
▁mechanisms	-7323
▁suggesting	-7324
▁treatments	-7325
▁constructed	-7326
▁observation	-7327
▁programming	-7328
EC	-7329
Can	-7330
▁Up	-7331
evin	-7332
free	-7333
rome	-7334
wart	-7335
▁'70	-7336
▁MRI	-7337
▁Moo	-7338
▁gee	-7339
▁hem	-7340
▁mur	-7341
icher	-7342
ocent	-7343
osure	-7344
▁Time	-7345
▁grat	-7346
▁sits	-7347
▁stom	-7348
▁array	-7349
▁audio	-7350
▁cable	-7351
▁court	-7352
▁gonna	-7353
▁plain	-7354
▁tribe	-7355
▁unpre	-7356
attered	-7357
▁Howard	-7358
▁addict	-7359
▁breaks	-7360
▁buried	-7361
▁cheese	-7362
▁domain	-7363
▁dozens	-7364
▁fought	-7365
▁garage	-7366
▁inches	-7367
▁rivers	-7368
▁robust	-7369
▁theore	-7370
▁thresh	-7371
▁tumors	-7372
American	-7373
▁emerged	-7374
▁founded	-7375
▁magical	-7376
▁parties	-7377
▁reports	-7378
▁restore	-7379
▁slavery	-7380
▁targets	-7381
▁Somebody	-7382
▁answered	-7383
▁database	-7384
▁oxytocin	-7385
▁proposed	-7386
▁Cambridge	-7387
▁confident	-7388
▁daughters	-7389
▁expansion	-7390
▁struggling	-7391
▁translation	-7392
▁photographed	-7393
11	-7394
LA	-7395
aze	-7396
rof	-7397
sey	-7398
▁PM	-7399
▁nu	-7400
eart	-7401
kind	-7402
urse	-7403
usal	-7404
▁120	-7405
▁CEO	-7406
▁Det	-7407
▁ham	-7408
▁lun	-7409
▁lux	-7410
▁wed	-7411
▁wra	-7412
igned	-7413
iment	-7414
▁Give	-7415
▁None	-7416
▁Tell	-7417
▁Turn	-7418
▁melt	-7419
▁mode	-7420
▁mood	-7421
bruary	-7422
iology	-7423
mingly	-7424
minute	-7425
▁flows	-7426
▁joint	-7427
▁nucle	-7428
▁spray	-7429
related	-7430
▁Steven	-7431
▁Within	-7432
▁assess	-7433
▁partly	-7434
▁phosph	-7435
▁sticks	-7436
izophren	-7437
▁October	-7438
▁analyze	-7439
▁chromos	-7440
▁dolphin	-7441
▁revenue	-7442
▁washing	-7443
▁welcome	-7444
▁February	-7445
▁activist	-7446
▁baseball	-7447
▁cartoons	-7448
▁crossing	-7449
▁insights	-7450
▁skeleton	-7451
▁sleeping	-7452
▁adventure	-7453
▁forgotten	-7454
▁radically	-7455
▁supported	-7456
▁biologists	-7457
▁correspond	-7458
▁expectancy	-7459
▁operations	-7460
▁originally	-7461
▁grandchildren	-7462
MA	-7463
agh	-7464
aid	-7465
bra	-7466
hop	-7467
▁95	-7468
born	-7469
eath	-7470
ette	-7471
iban	-7472
▁Hen	-7473
▁Isn	-7474
▁boo	-7475
▁sew	-7476
▁upd	-7477
bling	-7478
essor	-7479
field	-7480
olars	-7481
puter	-7482
ronic	-7483
▁Bron	-7484
▁Hill	-7485
▁Sund	-7486
▁Walk	-7487
▁alco	-7488
▁cott	-7489
▁dear	-7490
▁dive	-7491
▁frog	-7492
▁publ	-7493
mental	-7494
▁4,000	-7495
▁Jesus	-7496
▁Third	-7497
▁begun	-7498
▁drone	-7499
▁wider	-7500
▁wired	-7501
unction	-7502
▁Global	-7503
▁barrel	-7504
▁chairs	-7505
▁mining	-7506
▁nurses	-7507
▁perpet	-7508
▁pushed	-7509
▁sacred	-7510
▁shrimp	-7511
▁skelet	-7512
fficient	-7513
interest	-7514
▁anxiety	-7515
▁convert	-7516
▁failing	-7517
▁fragile	-7518
▁involve	-7519
▁leather	-7520
▁reminds	-7521
▁smarter	-7522
▁soldier	-7523
▁threats	-7524
▁writers	-7525
▁category	-7526
▁extended	-7527
▁fabulous	-7528
▁figuring	-7529
▁genocide	-7530
▁homeless	-7531
▁perceive	-7532
▁Christian	-7533
▁completed	-7534
▁exception	-7535
▁fortunate	-7536
▁gathering	-7537
▁immediate	-7538
▁suggested	-7539
▁synthetic	-7540
▁difficulty	-7541
▁uncertainty	-7542
▁instructions	-7543
▁architectural	-7544
▁demonstration	-7545
yan	-7546
▁0.	-7547
▁KB	-7548
▁Ty	-7549
ache	-7550
agos	-7551
aves	-7552
eday	-7553
fast	-7554
izer	-7555
oran	-7556
ords	-7557
orus	-7558
road	-7559
yrus	-7560
▁191	-7561
▁Aut	-7562
▁Che	-7563
▁Inc	-7564
▁Put	-7565
▁Tes	-7566
aches	-7567
▁Leon	-7568
▁Prof	-7569
▁alph	-7570
▁cert	-7571
▁hill	-7572
▁meal	-7573
▁orph	-7574
▁plug	-7575
▁tong	-7576
utical	-7577
vation	-7578
▁edges	-7579
▁mixed	-7580
▁nerve	-7581
▁skept	-7582
▁tempt	-7583
athered	-7584
▁Arctic	-7585
▁Things	-7586
▁combat	-7587
▁ending	-7588
▁ensure	-7589
▁golden	-7590
▁merely	-7591
▁needle	-7592
▁richer	-7593
▁senior	-7594
▁closing	-7595
▁enterpr	-7596
▁enthusi	-7597
▁immense	-7598
▁millenn	-7599
▁miracle	-7600
▁smoking	-7601
▁warning	-7602
▁Minister	-7603
▁choosing	-7604
▁homework	-7605
▁leverage	-7606
▁measures	-7607
▁neurolog	-7608
▁openness	-7609
▁Obviously	-7610
▁diagnosed	-7611
▁paralyzed	-7612
▁telescope	-7613
▁transcend	-7614
▁hypothesis	-7615
▁schizophren	-7616
▁capabilities	-7617
▁successfully	-7618
▁vulnerability	-7619
▁representation	-7620
jo	-7621
100	-7622
col	-7623
mod	-7624
sun	-7625
uan	-7626
▁ah	-7627
conf	-7628
gend	-7629
▁Aug	-7630
▁Out	-7631
▁ain	-7632
ading	-7633
allow	-7634
anned	-7635
flies	-7636
ville	-7637
▁Josh	-7638
▁defe	-7639
▁lamp	-7640
▁leaf	-7641
▁nurt	-7642
▁rats	-7643
▁sink	-7644
▁suck	-7645
▁tone	-7646
rained	-7647
soever	-7648
▁agent	-7649
▁doors	-7650
▁foods	-7651
▁monit	-7652
▁outer	-7653
▁schem	-7654
▁silly	-7655
▁spont	-7656
▁ubiqu	-7657
liament	-7658
ogether	-7659
otherap	-7660
parents	-7661
reement	-7662
▁Fellow	-7663
▁Square	-7664
▁regime	-7665
▁scores	-7666
▁anthrop	-7667
▁charges	-7668
▁deliber	-7669
▁distort	-7670
▁elderly	-7671
▁helpful	-7672
▁hitting	-7673
▁methane	-7674
▁promote	-7675
▁reveals	-7676
▁selfish	-7677
▁sisters	-7678
▁statist	-7679
aceutical	-7680
▁optimism	-7681
▁restrict	-7682
▁shopping	-7683
▁elephants	-7684
▁curriculum	-7685
▁permission	-7686
▁proportion	-7687
▁simulation	-7688
▁whatsoever	-7689
BM	-7690
sp	-7691
Sah	-7692
Who	-7693
cap	-7694
enh	-7695
iac	-7696
▁3.	-7697
When	-7698
ares	-7699
arsh	-7700
atar	-7701
enly	-7702
iens	-7703
onds	-7704
▁'80	-7705
▁800	-7706
▁Mom	-7707
▁cas	-7708
▁sin	-7709
ifice	-7710
isten	-7711
▁TEDx	-7712
▁brut	-7713
▁cham	-7714
▁duck	-7715
▁tort	-7716
▁tuna	-7717
▁urge	-7718
ardino	-7719
encing	-7720
itudes	-7721
▁Brian	-7722
▁Bronx	-7723
▁advoc	-7724
▁bears	-7725
▁bucks	-7726
▁loves	-7727
▁nurse	-7728
▁owned	-7729
powered	-7730
working	-7731
▁Andrew	-7732
▁drones	-7733
▁endang	-7734
▁funded	-7735
▁habits	-7736
▁headed	-7737
▁Johnson	-7738
▁Stephen	-7739
▁Taliban	-7740
▁bottles	-7741
▁citizen	-7742
▁lawyers	-7743
▁articles	-7744
▁believes	-7745
▁confused	-7746
▁preserve	-7747
▁stranger	-7748
▁economist	-7749
▁gradually	-7750
▁intuition	-7751
▁nutrition	-7752
▁realizing	-7753
▁terrorist	-7754
▁attractive	-7755
▁traditions	-7756
▁trajectory	-7757
▁unbelievable	-7758
▁interestingly	-7759
DA	-7760
fe	-7761
Wow	-7762
ali	-7763
str	-7764
cost	-7765
umin	-7766
▁Acc	-7767
▁Den	-7768
▁Rio	-7769
▁Som	-7770
otted	-7771
stone	-7772
▁cake	-7773
▁cats	-7774
▁dung	-7775
▁gaps	-7776
▁odds	-7777
▁prec	-7778
▁soup	-7779
▁tear	-7780
▁tsun	-7781
▁whis	-7782
iences	-7783
lusive	-7784
▁Moore	-7785
▁Saudi	-7786
▁altru	-7787
▁bored	-7788
▁crick	-7789
▁owner	-7790
▁ships	-7791
▁shore	-7792
▁steal	-7793
▁tooth	-7794
▁weeke	-7795
embered	-7796
▁30,000	-7797
▁arrive	-7798
▁decent	-7799
▁halluc	-7800
▁victim	-7801
▁elected	-7802
▁enables	-7803
▁secrets	-7804
▁drawings	-7805
▁educated	-7806
▁entering	-7807
▁informed	-7808
▁innocent	-7809
▁pandemic	-7810
▁robotics	-7811
▁tendency	-7812
▁conducted	-7813
▁extension	-7814
▁factories	-7815
▁instantly	-7816
▁magnitude	-7817
▁obstacles	-7818
▁replicate	-7819
▁profoundly	-7820
▁description	-7821
▁institutional	-7822
▁MT	-7823
abil	-7824
half	-7825
long	-7826
▁Edu	-7827
▁Ray	-7828
▁cig	-7829
▁cub	-7830
▁dop	-7831
▁rab	-7832
anged	-7833
gence	-7834
iogen	-7835
opath	-7836
ostic	-7837
▁Coun	-7838
▁Cour	-7839
▁Span	-7840
▁bask	-7841
▁bell	-7842
▁butt	-7843
▁crew	-7844
▁neck	-7845
▁pigs	-7846
orious	-7847
▁Dutch	-7848
▁Power	-7849
▁caves	-7850
▁civic	-7851
▁indig	-7852
▁kills	-7853
▁Church	-7854
▁Norway	-7855
▁Turkey	-7856
▁convey	-7857
▁occurs	-7858
▁tracks	-7859
otherapy	-7860
▁arrange	-7861
▁beneath	-7862
▁chances	-7863
▁fastest	-7864
▁forming	-7865
▁fortune	-7866
▁garbage	-7867
▁persist	-7868
▁rethink	-7869
▁channels	-7870
▁clothing	-7871
▁connects	-7872
▁detailed	-7873
▁fraction	-7874
▁friendly	-7875
▁graphics	-7876
▁included	-7877
▁musician	-7878
▁reducing	-7879
▁throwing	-7880
▁classical	-7881
▁improving	-7882
▁physician	-7883
▁primitive	-7884
▁qualities	-7885
▁endangered	-7886
▁influenced	-7887
▁remembered	-7888
▁contemporary	-7889
▁experiencing	-7890
▁participation	-7891
▁pharmaceutical	-7892
bar	-7893
rie	-7894
see	-7895
ugo	-7896
zee	-7897
agen	-7898
imal	-7899
onia	-7900
thur	-7901
▁'90	-7902
▁20,	-7903
▁Amy	-7904
▁Cra	-7905
▁FBI	-7906
▁Gis	-7907
▁Unt	-7908
▁dim	-7909
▁nom	-7910
gines	-7911
omics	-7912
oples	-7913
rence	-7914
umble	-7915
▁Beij	-7916
▁Camp	-7917
▁Jane	-7918
▁clay	-7919
▁craw	-7920
▁demo	-7921
▁dies	-7922
▁dile	-7923
▁iPod	-7924
▁nerd	-7925
▁susp	-7926
active	-7927
atever	-7928
iotics	-7929
ournal	-7930
umines	-7931
▁2009,	-7932
▁Greek	-7933
▁Henry	-7934
▁March	-7935
▁Organ	-7936
▁Under	-7937
▁energ	-7938
▁lions	-7939
▁opera	-7940
▁panel	-7941
▁queen	-7942
▁shout	-7943
▁squee	-7944
▁stake	-7945
▁viral	-7946
Saharan	-7947
angible	-7948
inarily	-7949
itution	-7950
▁Econom	-7951
▁Gisela	-7952
▁Mother	-7953
▁Newton	-7954
▁acoust	-7955
▁burned	-7956
▁negoti	-7957
▁sensor	-7958
▁tackle	-7959
▁unable	-7960
▁upside	-7961
▁widely	-7962
esthesia	-7963
▁Without	-7964
▁adopted	-7965
▁alcohol	-7966
▁besides	-7967
▁courses	-7968
▁engines	-7969
▁flowing	-7970
▁imaging	-7971
▁peoples	-7972
▁percept	-7973
▁printed	-7974
▁routine	-7975
▁uniform	-7976
▁wealthy	-7977
▁Giardino	-7978
▁distingu	-7979
▁invested	-7980
▁remained	-7981
▁shocking	-7982
▁biologist	-7983
▁expecting	-7984
▁glamorous	-7985
▁implement	-7986
▁investing	-7987
▁strategic	-7988
▁substance	-7989
▁threshold	-7990
▁facilities	-7991
▁supporting	-7992
▁threatened	-7993
▁assumptions	-7994
▁simultaneously	-7995
He	-7996
py	-7997
aby	-7998
eds	-7999
isy	-8000
▁28	-8001
▁SS	-8002
▁rh	-8003
ague	-8004
bled	-8005
gram	-8006
▁Cur	-8007
▁Met	-8008
▁Sus	-8009
▁lap	-8010
adays	-8011
asses	-8012
copic	-8013
human	-8014
mates	-8015
pless	-8016
uther	-8017
▁Brun	-8018
▁Dece	-8019
▁Hall	-8020
▁Homo	-8021
▁bats	-8022
▁bend	-8023
▁coca	-8024
▁irre	-8025
▁jazz	-8026
aneous	-8027
employ	-8028
titude	-8029
▁2000,	-8030
▁Delhi	-8031
▁Koran	-8032
▁Peace	-8033
▁Spain	-8034
▁Yemen	-8035
▁amate	-8036
▁blogs	-8037
▁dilem	-8038
▁gotta	-8039
▁pride	-8040
▁proto	-8041
▁slums	-8042
▁synch	-8043
section	-8044
▁August	-8045
▁aggreg	-8046
▁builds	-8047
▁errors	-8048
▁improv	-8049
▁shrink	-8050
▁sketch	-8051
▁subway	-8052
orescent	-8053
▁Council	-8054
▁affects	-8055
▁analogy	-8056
▁demands	-8057
▁deserve	-8058
▁hunting	-8059
▁observe	-8060
▁ongoing	-8061
▁portion	-8062
▁printer	-8063
▁profile	-8064
▁pursuit	-8065
▁rituals	-8066
▁rolling	-8067
▁shocked	-8068
▁spreads	-8069
▁staying	-8070
▁suspend	-8071
▁tissues	-8072
▁trigger	-8073
▁winning	-8074
▁December	-8075
▁covering	-8076
▁currency	-8077
▁earliest	-8078
▁morality	-8079
▁reinvent	-8080
▁shipping	-8081
▁strongly	-8082
▁suffered	-8083
▁wildlife	-8084
▁airplanes	-8085
▁detection	-8086
▁healthier	-8087
▁investors	-8088
▁remaining	-8089
▁landscapes	-8090
▁authorities	-8091
▁computation	-8092
▁exponential	-8093
▁restaurants	-8094
▁compassionate	-8095
▁professionals	-8096
▁significantly	-8097
CA	-8098
ati	-8099
ctu	-8100
pie	-8101
uke	-8102
vit	-8103
hist	-8104
omin	-8105
ship	-8106
▁Ann	-8107
▁Ble	-8108
▁Jud	-8109
▁alb	-8110
▁awk	-8111
▁tie	-8112
attoo	-8113
elson	-8114
usted	-8115
▁Benj	-8116
▁Coll	-8117
▁Hist	-8118
▁Phot	-8119
▁bush	-8120
▁cous	-8121
▁deck	-8122
▁dumb	-8123
▁lake	-8124
▁outs	-8125
urable	-8126
▁2010,	-8127
▁Geoff	-8128
▁Medic	-8129
▁camps	-8130
▁elite	-8131
▁items	-8132
▁sauce	-8133
▁spons	-8134
▁tubes	-8135
looking	-8136
ounding	-8137
▁Scient	-8138
▁column	-8139
▁formal	-8140
▁freely	-8141
▁fusion	-8142
▁native	-8143
▁preval	-8144
▁recept	-8145
▁rubber	-8146
▁speaks	-8147
▁strike	-8148
▁stroke	-8149
▁trains	-8150
cedented	-8151
▁Indians	-8152
▁Italian	-8153
▁awkward	-8154
▁contrad	-8155
▁farming	-8156
▁harness	-8157
▁paradox	-8158
▁profits	-8159
▁regener	-8160
▁serving	-8161
▁someday	-8162
▁delivery	-8163
▁dopamine	-8164
▁gathered	-8165
▁pointing	-8166
▁shifting	-8167
▁substant	-8168
▁survived	-8169
▁expertise	-8170
▁explosion	-8171
▁mechanics	-8172
▁nutrients	-8173
▁passenger	-8174
▁approaches	-8175
▁chimpanzee	-8176
▁comparison	-8177
▁consistent	-8178
▁ecological	-8179
▁impression	-8180
▁ubiquitous	-8181
▁genetically	-8182
▁conservative	-8183
▁corporations	-8184
▁transforming	-8185
▁interpretation	-8186
ao	-8187
gu	-8188
ava	-8189
bow	-8190
cro	-8191
dig	-8192
exp	-8193
▁85	-8194
aded	-8195
ails	-8196
away	-8197
ropy	-8198
seen	-8199
wind	-8200
▁Bet	-8201
▁Far	-8202
▁Mat	-8203
▁Sky	-8204
▁Sud	-8205
▁Tas	-8206
▁gam	-8207
▁ski	-8208
anges	-8209
antom	-8210
ctica	-8211
eries	-8212
icked	-8213
lings	-8214
ogram	-8215
oning	-8216
press	-8217
reens	-8218
uctor	-8219
▁Abra	-8220
▁Miss	-8221
▁Rock	-8222
▁Sand	-8223
▁cath	-8224
▁dism	-8225
▁fits	-8226
▁gear	-8227
▁heal	-8228
▁triv	-8229
▁west	-8230
astics	-8231
ounder	-8232
▁2007,	-8233
▁Brook	-8234
▁cruel	-8235
▁devil	-8236
▁excit	-8237
▁farms	-8238
▁fears	-8239
▁gorge	-8240
▁intim	-8241
▁marry	-8242
▁redef	-8243
▁sixth	-8244
▁slime	-8245
▁spell	-8246
▁tends	-8247
▁tower	-8248
▁winds	-8249
reating	-8250
usiness	-8251
▁Daniel	-8252
▁System	-8253
▁athlet	-8254
▁canopy	-8255
▁cosmic	-8256
▁dragon	-8257
▁editor	-8258
▁export	-8259
▁jumped	-8260
▁recess	-8261
▁tongue	-8262
quarters	-8263
▁Whereas	-8264
▁compete	-8265
▁located	-8266
▁metabol	-8267
▁mindset	-8268
▁package	-8269
▁Northern	-8270
▁comments	-8271
▁counting	-8272
▁distract	-8273
▁genetics	-8274
▁judgment	-8275
▁navigate	-8276
▁socially	-8277
▁versions	-8278
▁initially	-8279
▁jellyfish	-8280
▁nonprofit	-8281
▁orchestra	-8282
▁ownership	-8283
▁Antarctica	-8284
▁aggressive	-8285
▁classrooms	-8286
▁commission	-8287
▁continuing	-8288
▁vegetables	-8289
▁competitive	-8290
▁demographic	-8291
▁established	-8292
▁unprecedented	-8293
▁straightforward	-8294
eps	-8295
oug	-8296
sch	-8297
yal	-8298
▁Bi	-8299
▁CD	-8300
▁Po	-8301
▁RB	-8302
asty	-8303
eady	-8304
mony	-8305
oral	-8306
ownt	-8307
quis	-8308
rics	-8309
umes	-8310
▁Bre	-8311
▁Fre	-8312
▁Moz	-8313
▁Rom	-8314
▁aug	-8315
▁bug	-8316
▁tut	-8317
burgh	-8318
clock	-8319
orage	-8320
ormal	-8321
▁Both	-8322
▁Same	-8323
▁cong	-8324
▁file	-8325
▁guns	-8326
▁lone	-8327
▁tune	-8328
▁Kevin	-8329
▁armed	-8330
▁badly	-8331
▁brave	-8332
▁fancy	-8333
▁incor	-8334
▁inhab	-8335
▁overl	-8336
▁pairs	-8337
▁pause	-8338
▁shots	-8339
▁Nelson	-8340
▁hiding	-8341
▁inevit	-8342
▁makers	-8343
▁matrix	-8344
▁orient	-8345
▁planes	-8346
▁static	-8347
▁tattoo	-8348
▁ticket	-8349
▁tragic	-8350
▁traits	-8351
▁upload	-8352
changing	-8353
▁Spanish	-8354
▁despair	-8355
▁hardest	-8356
▁offices	-8357
▁origins	-8358
▁tsunami	-8359
▁generous	-8360
▁purposes	-8361
▁refugees	-8362
▁reliable	-8363
▁scenario	-8364
▁scholars	-8365
▁teenager	-8366
▁addiction	-8367
▁gentleman	-8368
▁incentive	-8369
▁infection	-8370
▁miserable	-8371
▁procedure	-8372
▁signature	-8373
▁workforce	-8374
otechnology	-8375
▁discipline	-8376
▁excitement	-8377
▁extinction	-8378
▁impressive	-8379
▁phosphorus	-8380
▁prediction	-8381
▁prevention	-8382
▁previously	-8383
▁neuroscient	-8384
▁philosopher	-8385
▁reconstruct	-8386
▁occasionally	-8387
▁psychologist	-8388
▁storytelling	-8389
▁interconnected	-8390
ala	-8391
har	-8392
hea	-8393
lie	-8394
oln	-8395
▁33	-8396
▁IM	-8397
cycl	-8398
erry	-8399
four	-8400
grow	-8401
izza	-8402
made	-8403
real	-8404
xual	-8405
▁Mur	-8406
▁Sir	-8407
▁Sou	-8408
anzan	-8409
apped	-8410
impse	-8411
inter	-8412
irect	-8413
lades	-8414
venth	-8415
▁Bell	-8416
▁Ford	-8417
▁Lear	-8418
▁Mike	-8419
▁Mill	-8420
▁NGOs	-8421
▁bind	-8422
▁dawn	-8423
▁fung	-8424
▁gate	-8425
▁gods	-8426
▁gram	-8427
▁rape	-8428
▁shit	-8429
▁woke	-8430
ifully	-8431
incoln	-8432
▁2008,	-8433
▁Eight	-8434
▁Jones	-8435
▁Santa	-8436
▁eaten	-8437
▁exerc	-8438
▁incom	-8439
▁redes	-8440
▁valid	-8441
▁wires	-8442
itative	-8443
▁Govern	-8444
▁Tanzan	-8445
▁Yorker	-8446
▁burden	-8447
▁client	-8448
▁cycles	-8449
▁dating	-8450
▁excess	-8451
▁gained	-8452
▁marvel	-8453
▁nearby	-8454
▁relief	-8455
▁stored	-8456
▁surviv	-8457
▁tunnel	-8458
andering	-8459
▁Mandela	-8460
▁Neander	-8461
▁beating	-8462
▁glasses	-8463
▁glimpse	-8464
▁mapping	-8465
▁officer	-8466
▁puzzles	-8467
▁Benjamin	-8468
▁Palestin	-8469
▁Whatever	-8470
▁accounts	-8471
▁arrested	-8472
▁gorgeous	-8473
▁improved	-8474
▁interior	-8475
▁magnific	-8476
▁managers	-8477
▁precious	-8478
▁synchron	-8479
▁terribly	-8480
▁Alexander	-8481
▁Banglades	-8482
▁audiences	-8483
▁broadcast	-8484
▁excellent	-8485
▁headlines	-8486
▁perceived	-8487
▁performed	-8488
▁stability	-8489
▁temporary	-8490
▁additional	-8491
▁appearance	-8492
▁categories	-8493
▁continents	-8494
▁encouraged	-8495
▁frustrated	-8496
▁approaching	-8497
▁encouraging	-8498
▁grandparents	-8499
▁mathematicians	-8500
ado	-8501
bye	-8502
cip	-8503
oma	-8504
pat	-8505
▁36	-8506
▁ho	-8507
bial	-8508
edge	-8509
ghai	-8510
ifty	-8511
ihad	-8512
ilty	-8513
leep	-8514
list	-8515
rist	-8516
ueen	-8517
ynth	-8518
▁202	-8519
▁Age	-8520
▁Ext	-8521
▁Roy	-8522
▁Tre	-8523
▁aqu	-8524
▁bin	-8525
▁dys	-8526
▁ine	-8527
▁jew	-8528
aning	-8529
eling	-8530
phere	-8531
produ	-8532
world	-8533
▁2050	-8534
▁Chen	-8535
▁Mach	-8536
▁Make	-8537
▁Math	-8538
▁Open	-8539
▁Rick	-8540
▁Shan	-8541
▁Tony	-8542
▁drum	-8543
▁genu	-8544
▁hors	-8545
▁hybr	-8546
ndrome	-8547
rolled	-8548
▁Asian	-8549
▁comic	-8550
▁grasp	-8551
▁ingen	-8552
▁membr	-8553
▁numer	-8554
▁shirt	-8555
▁spill	-8556
▁uncle	-8557
izabeth	-8558
▁agents	-8559
▁annual	-8560
▁cotton	-8561
▁covers	-8562
▁lowest	-8563
▁propag	-8564
▁rhythm	-8565
▁ritual	-8566
▁200,000	-8567
▁Islands	-8568
▁closest	-8569
▁cluster	-8570
▁destiny	-8571
▁dressed	-8572
▁drought	-8573
▁entropy	-8574
▁phantom	-8575
▁storage	-8576
▁Leonardo	-8577
▁Secondly	-8578
▁advances	-8579
▁branches	-8580
▁geometry	-8581
▁interven	-8582
▁offering	-8583
▁smallest	-8584
▁stereoty	-8585
▁transmit	-8586
▁unemploy	-8587
▁cooperate	-8588
▁interrupt	-8589
▁phenomena	-8590
▁prisoners	-8591
▁religions	-8592
▁sacrifice	-8593
▁sensation	-8594
▁Technology	-8595
▁assumption	-8596
▁disability	-8597
▁illustrate	-8598
▁physicists	-8599
▁terrifying	-8600
▁discovering	-8601
▁limitations	-8602
▁unconscious	-8603
▁administration	-8604
OK	-8605
leg	-8606
▁Da	-8607
▁LG	-8608
airo	-8609
iped	-8610
lege	-8611
neys	-8612
ulin	-8613
▁Def	-8614
▁Tel	-8615
▁ash	-8616
▁ven	-8617
▁via	-8618
icial	-8619
izers	-8620
▁Conf	-8621
▁Lake	-8622
▁Sudd	-8623
▁Vict	-8624
▁bags	-8625
▁biol	-8626
▁brid	-8627
▁crop	-8628
▁damn	-8629
▁fate	-8630
▁horr	-8631
▁keys	-8632
▁nuts	-8633
▁rope	-8634
▁tale	-8635
cyclop	-8636
iberia	-8637
icient	-8638
ureauc	-8639
weight	-8640
▁Court	-8641
▁Leban	-8642
▁Stone	-8643
▁annoy	-8644
▁anten	-8645
▁award	-8646
▁divor	-8647
▁fault	-8648
▁fires	-8649
▁gases	-8650
▁hired	-8651
▁hydro	-8652
▁lifes	-8653
▁memes	-8654
▁ratio	-8655
▁rehab	-8656
▁wheat	-8657
▁Michel	-8658
▁Sunday	-8659
▁estate	-8660
▁fibers	-8661
▁multip	-8662
▁nights	-8663
▁scenes	-8664
▁sheets	-8665
▁valley	-8666
standing	-8667
▁Beijing	-8668
▁Lincoln	-8669
▁Redwood	-8670
▁arguing	-8671
▁cancers	-8672
▁cigaret	-8673
▁cocaine	-8674
▁cricket	-8675
▁ecology	-8676
▁fathers	-8677
▁genuine	-8678
▁horizon	-8679
▁minimum	-8680
▁passive	-8681
▁protest	-8682
▁synthes	-8683
▁teenage	-8684
▁tension	-8685
▁unhappy	-8686
▁Although	-8687
▁applying	-8688
▁circuits	-8689
▁replaced	-8690
▁blindness	-8691
▁breakfast	-8692
▁collapsed	-8693
▁distances	-8694
▁succeeded	-8695
▁challenged	-8696
▁convenient	-8697
▁elementary	-8698
▁infections	-8699
▁interviews	-8700
▁prosthetic	-8701
▁yourselves	-8702
▁achievement	-8703
▁consciously	-8704
▁fortunately	-8705
▁supermarket	-8706
▁surrounding	-8707
ki	-8708
For	-8709
ete	-8710
ona	-8711
rot	-8712
itar	-8713
mill	-8714
outs	-8715
▁20-	-8716
▁Cap	-8717
▁Had	-8718
▁Ire	-8719
▁Its	-8720
▁Tib	-8721
▁cyl	-8722
▁jet	-8723
▁les	-8724
▁ooh	-8725
▁sir	-8726
ifact	-8727
phony	-8728
ushed	-8729
ynman	-8730
▁Fore	-8731
▁Hong	-8732
▁July	-8733
▁Sure	-8734
▁airl	-8735
▁ange	-8736
▁labs	-8737
▁palm	-8738
▁rose	-8739
▁summ	-8740
▁wrap	-8741
arians	-8742
iverse	-8743
▁Arist	-8744
▁Clint	-8745
▁Sorry	-8746
▁Until	-8747
▁Using	-8748
▁coinc	-8749
▁donor	-8750
▁funds	-8751
▁mines	-8752
▁patch	-8753
▁raped	-8754
▁remix	-8755
▁safer	-8756
▁worms	-8757
▁Arthur	-8758
▁During	-8759
▁Except	-8760
▁basket	-8761
▁comedy	-8762
▁crimes	-8763
▁loving	-8764
▁luxury	-8765
▁orphan	-8766
▁pedest	-8767
▁proven	-8768
▁silver	-8769
▁subsid	-8770
▁Abraham	-8771
▁Feynman	-8772
▁Indones	-8773
▁Stewart	-8774
▁absence	-8775
▁follows	-8776
▁glamour	-8777
▁healing	-8778
▁ignored	-8779
▁intrins	-8780
▁pockets	-8781
▁resolve	-8782
▁seeking	-8783
▁stepped	-8784
▁stomach	-8785
▁toilets	-8786
▁Shanghai	-8787
▁Southern	-8788
▁Suddenly	-8789
▁findings	-8790
▁intended	-8791
▁listened	-8792
▁mosquito	-8793
▁peaceful	-8794
▁prostate	-8795
▁relation	-8796
▁empowered	-8797
▁estimates	-8798
▁preparing	-8799
▁reproduce	-8800
▁responses	-8801
▁initiative	-8802
▁reflection	-8803
▁devastating	-8804
▁interviewed	-8805
▁predictable	-8806
"?	-8807
,'	-8808
hr	-8809
.'"	-8810
ema	-8811
▁Ap	-8812
▁DV	-8813
▁SW	-8814
▁od	-8815
aeda	-8816
char	-8817
grad	-8818
inth	-8819
pers	-8820
rame	-8821
reme	-8822
roit	-8823
▁30-	-8824
▁Dra	-8825
▁Lin	-8826
▁Nic	-8827
▁Way	-8828
▁hal	-8829
▁vit	-8830
atson	-8831
enous	-8832
enter	-8833
isons	-8834
itage	-8835
itzer	-8836
rance	-8837
▁Coke	-8838
▁ampl	-8839
▁clue	-8840
▁coat	-8841
▁impl	-8842
▁jugg	-8843
assemb	-8844
inging	-8845
person	-8846
▁6,000	-8847
▁Stage	-8848
▁ambig	-8849
▁cabin	-8850
▁embod	-8851
▁hopes	-8852
▁lever	-8853
▁meals	-8854
▁nodes	-8855
▁pizza	-8856
▁prope	-8857
▁screw	-8858
▁shine	-8859
▁warri	-8860
ativity	-8861
perform	-8862
▁Tasman	-8863
▁Twenty	-8864
▁amazed	-8865
▁appeal	-8866
▁bother	-8867
▁murder	-8868
▁stones	-8869
▁strict	-8870
▁tempor	-8871
▁troops	-8872
▁wooden	-8873
▁Aristot	-8874
▁Detroit	-8875
▁Silicon	-8876
▁bedroom	-8877
▁colored	-8878
▁elegant	-8879
▁enemies	-8880
▁females	-8881
▁hormone	-8882
▁insulin	-8883
▁logical	-8884
▁propose	-8885
▁terrain	-8886
▁whistle	-8887
▁Carolina	-8888
▁artifact	-8889
▁bathroom	-8890
▁customer	-8891
▁decrease	-8892
▁failures	-8893
▁presents	-8894
▁worrying	-8895
▁Professor	-8896
▁competing	-8897
▁locations	-8898
▁protocell	-8899
▁volunteer	-8900
▁workplace	-8901
▁biolumines	-8902
▁continuous	-8903
▁expedition	-8904
▁helicopter	-8905
▁manipulate	-8906
▁newspapers	-8907
▁retirement	-8908
▁telescopes	-8909
▁acknowledge	-8910
▁constraints	-8911
▁contributed	-8912
▁expressions	-8913
▁civilizations	-8914
▁extraordinarily	-8915
SP	-8916
bie	-8917
law	-8918
mun	-8919
uty	-8920
▁Os	-8921
▁Us	-8922
eren	-8923
plus	-8924
rats	-8925
▁15-	-8926
▁350	-8927
▁Str	-8928
ademy	-8929
arest	-8930
ashed	-8931
asure	-8932
bably	-8933
grade	-8934
▁Carl	-8935
▁Fort	-8936
▁News	-8937
▁Nove	-8938
▁Prot	-8939
▁Rand	-8940
▁chop	-8941
▁meme	-8942
▁pige	-8943
▁sail	-8944
gments	-8945
▁Coast	-8946
▁Sarah	-8947
▁bills	-8948
▁chips	-8949
▁downt	-8950
▁encry	-8951
▁jihad	-8952
▁lungs	-8953
▁maker	-8954
▁proph	-8955
▁sched	-8956
▁zones	-8957
▁Anyone	-8958
▁Watson	-8959
▁assets	-8960
▁bullet	-8961
▁campus	-8962
▁compre	-8963
▁contam	-8964
▁epidem	-8965
▁fallen	-8966
▁insane	-8967
▁orders	-8968
▁recipe	-8969
▁thread	-8970
▁topics	-8971
▁vagina	-8972
▁wheels	-8973
▁College	-8974
▁Develop	-8975
▁Iceland	-8976
▁gesture	-8977
▁harmony	-8978
▁refugee	-8979
▁request	-8980
▁scanner	-8981
▁wedding	-8982
criptions	-8983
▁Geoffrey	-8984
▁accompan	-8985
▁historic	-8986
▁inventor	-8987
▁sciences	-8988
▁Elizabeth	-8989
▁affecting	-8990
▁believing	-8991
▁equations	-8992
▁graduated	-8993
▁guarantee	-8994
▁reactions	-8995
▁residents	-8996
▁territory	-8997
▁Industrial	-8998
▁assignment	-8999
▁indigenous	-9000
▁inevitably	-9001
▁mainstream	-9002
▁narratives	-9003
▁sanitation	-9004
▁antibiotics	-9005
▁beautifully	-9006
▁foundations	-9007
▁journalists	-9008
▁marketplace	-9009
▁technically	-9010
▁concentrated	-9011
▁humanitarian	-9012
▁personalized	-9013
▁transmission	-9014
▁concentration	-9015
▁controversial	-9016
▁mathematician	-9017
▁visualization	-9018
OL	-9019
gt	-9020
ETI	-9021
cel	-9022
osn	-9023
ugg	-9024
upp	-9025
▁42	-9026
▁55	-9027
▁JH	-9028
aped	-9029
erey	-9030
irts	-9031
lers	-9032
olas	-9033
take	-9034
utan	-9035
▁Ear	-9036
▁Off	-9037
▁Pop	-9038
▁pit	-9039
▁shy	-9040
▁tin	-9041
ansas	-9042
break	-9043
cking	-9044
inent	-9045
oline	-9046
▁Less	-9047
▁Love	-9048
▁Lugo	-9049
▁Snow	-9050
▁anat	-9051
▁cree	-9052
▁dent	-9053
▁glue	-9054
▁junk	-9055
▁mall	-9056
▁mesh	-9057
▁murd	-9058
▁sake	-9059
▁sale	-9060
▁sexy	-9061
▁sons	-9062
▁toes	-9063
▁2005,	-9064
▁Being	-9065
▁Bleau	-9066
▁Chile	-9067
▁Hawai	-9068
▁Hello	-9069
▁McDon	-9070
▁Swiss	-9071
▁delay	-9072
▁dough	-9073
▁drops	-9074
▁immun	-9075
▁impul	-9076
▁knife	-9077
▁loads	-9078
▁loose	-9079
▁pills	-9080
▁shelf	-9081
▁stays	-9082
▁steam	-9083
▁trace	-9084
keepers	-9085
ometown	-9086
▁Almost	-9087
▁Ariana	-9088
▁Friday	-9089
▁Joseph	-9090
▁Julian	-9091
▁Victor	-9092
▁atomic	-9093
▁beaten	-9094
▁behalf	-9095
▁config	-9096
▁immers	-9097
▁nerves	-9098
▁parach	-9099
▁proved	-9100
▁recall	-9101
▁stimul	-9102
▁summar	-9103
▁viewer	-9104
▁Anybody	-9105
▁Ireland	-9106
▁adapted	-9107
▁barrier	-9108
▁clinics	-9109
▁corrupt	-9110
▁enforce	-9111
▁halfway	-9112
▁highway	-9113
▁onstage	-9114
▁penguin	-9115
▁proceed	-9116
▁reactor	-9117
▁teaches	-9118
▁trivial	-9119
▁Monterey	-9120
▁attacked	-9121
▁cellular	-9122
▁stopping	-9123
▁attitudes	-9124
▁diagnosis	-9125
▁dominated	-9126
▁Bangladesh	-9127
▁Geographic	-9128
▁assistance	-9129
▁electrodes	-9130
▁monitoring	-9131
▁prosperity	-9132
▁structural	-9133
▁legislation	-9134
▁calculations	-9135
▁connectivity	-9136
▁demonstrated	-9137
▁historically	-9138
▁installation	-9139
ima	-9140
yon	-9141
▁2:	-9142
anna	-9143
cher	-9144
door	-9145
oric	-9146
oves	-9147
perm	-9148
rane	-9149
▁Ele	-9150
▁Ham	-9151
▁Kir	-9152
▁Lee	-9153
▁Mer	-9154
▁Rad	-9155
▁Ram	-9156
▁Try	-9157
▁Wow	-9158
▁dil	-9159
▁obt	-9160
▁oct	-9161
▁pir	-9162
enses	-9163
ester	-9164
ighth	-9165
inery	-9166
orden	-9167
▁1900	-9168
▁Bern	-9169
▁Lord	-9170
▁Moon	-9171
▁Supp	-9172
▁Wolf	-9173
▁apps	-9174
▁blah	-9175
▁calm	-9176
▁forb	-9177
▁infl	-9178
▁sett	-9179
ealand	-9180
ulsion	-9181
▁Elect	-9182
▁Media	-9183
▁ambit	-9184
▁boats	-9185
▁deals	-9186
▁drown	-9187
▁embry	-9188
▁grace	-9189
▁guard	-9190
▁illum	-9191
▁immig	-9192
▁inher	-9193
▁irony	-9194
▁lanes	-9195
▁norms	-9196
▁roles	-9197
▁stair	-9198
▁tiles	-9199
▁trail	-9200
▁Berlin	-9201
▁Portug	-9202
▁binary	-9203
▁carpet	-9204
▁chains	-9205
▁comics	-9206
▁correl	-9207
▁guilty	-9208
▁motors	-9209
▁packed	-9210
▁pencil	-9211
▁posted	-9212
▁shifts	-9213
▁Israeli	-9214
▁bureauc	-9215
▁educate	-9216
▁formula	-9217
▁kingdom	-9218
▁laptops	-9219
▁locally	-9220
▁manager	-9221
▁powered	-9222
▁readers	-9223
▁simpler	-9224
▁useless	-9225
▁Brooklyn	-9226
▁Security	-9227
▁altitude	-9228
▁breeding	-9229
▁concerns	-9230
▁contrary	-9231
▁coverage	-9232
▁disabled	-9233
▁enjoying	-9234
▁explicit	-9235
▁exposure	-9236
▁honestly	-9237
▁horizont	-9238
▁internet	-9239
▁plastics	-9240
▁predator	-9241
▁randomly	-9242
▁recycled	-9243
▁selected	-9244
▁spinning	-9245
▁striking	-9246
▁supplies	-9247
▁syndrome	-9248
▁Indonesia	-9249
▁Parkinson	-9250
▁batteries	-9251
▁correctly	-9252
▁hierarchy	-9253
▁intensive	-9254
▁recycling	-9255
▁seemingly	-9256
forestation	-9257
▁accomplish	-9258
▁calculated	-9259
▁engineered	-9260
▁legitimate	-9261
▁medication	-9262
▁physicians	-9263
▁reasonable	-9264
▁desperately	-9265
▁magnificent	-9266
▁proposition	-9267
▁schizophrenia	-9268
IS	-9269
eu	-9270
Are	-9271
ker	-9272
lla	-9273
two	-9274
▁AK	-9275
▁Es	-9276
▁PC	-9277
Here	-9278
▁10.	-9279
▁Bol	-9280
▁Dad	-9281
▁Pot	-9282
▁Ron	-9283
▁USA	-9284
▁hub	-9285
▁jar	-9286
▁loo	-9287
▁sel	-9288
gradu	-9289
peare	-9290
pling	-9291
sized	-9292
▁Cath	-9293
▁Lego	-9294
▁SETI	-9295
▁biof	-9296
▁cows	-9297
▁dece	-9298
▁drew	-9299
▁hint	-9300
▁hipp	-9301
▁inch	-9302
▁lawn	-9303
▁mask	-9304
▁pole	-9305
▁rect	-9306
▁tact	-9307
coming	-9308
orient	-9309
thirds	-9310
unting	-9311
▁Force	-9312
▁Larry	-9313
▁algae	-9314
▁conqu	-9315
▁jewel	-9316
▁lobby	-9317
▁mayor	-9318
▁minus	-9319
▁param	-9320
▁plank	-9321
▁taxes	-9322
▁twist	-9323
ascular	-9324
ocation	-9325
umented	-9326
▁40,000	-9327
▁Albert	-9328
▁Columb	-9329
▁Joshua	-9330
▁Social	-9331
▁butter	-9332
▁curves	-9333
▁deadly	-9334
▁excuse	-9335
▁grocer	-9336
▁iconic	-9337
▁infant	-9338
▁magnet	-9339
▁manner	-9340
▁purple	-9341
▁safely	-9342
▁voting	-9343
▁winner	-9344
▁worthy	-9345
▁Journal	-9346
▁broader	-9347
▁dilemma	-9348
▁doubled	-9349
▁enabled	-9350
▁glacier	-9351
▁islands	-9352
▁smiling	-9353
akespeare	-9354
▁November	-9355
▁Tanzania	-9356
▁ceremony	-9357
▁disagree	-9358
▁helpless	-9359
▁kindness	-9360
▁mobility	-9361
▁overhead	-9362
▁portrait	-9363
▁proposal	-9364
▁reserves	-9365
▁stunning	-9366
▁visually	-9367
▁agreement	-9368
▁ambitious	-9369
▁estimated	-9370
▁installed	-9371
▁officials	-9372
▁overnight	-9373
▁predators	-9374
▁reflected	-9375
▁relatives	-9376
▁renewable	-9377
▁suspended	-9378
▁approached	-9379
▁automobile	-9380
▁generating	-9381
▁publishing	-9382
▁punishment	-9383
▁spacecraft	-9384
▁collectively	-9385
▁independence	-9386
▁communicating	-9387
▁transformative	-9388
dy	-9389
mo	-9390
aus	-9391
dis	-9392
lor	-9393
tra	-9394
▁ED	-9395
▁du	-9396
acqu	-9397
alog	-9398
igma	-9399
pack	-9400
▁DVD	-9401
▁Gar	-9402
▁Hol	-9403
▁IBM	-9404
▁Tam	-9405
▁Tun	-9406
▁ads	-9407
adian	-9408
apore	-9409
▁Half	-9410
▁Marc	-9411
▁Plan	-9412
▁Rome	-9413
▁Ross	-9414
▁bang	-9415
▁batt	-9416
▁bite	-9417
▁bond	-9418
▁cuts	-9419
▁dirt	-9420
▁dose	-9421
▁exha	-9422
▁unst	-9423
driven	-9424
racies	-9425
uction	-9426
▁Harry	-9427
▁Seven	-9428
▁boost	-9429
▁clues	-9430
▁fatal	-9431
▁grave	-9432
▁lingu	-9433
▁mimic	-9434
▁rings	-9435
essions	-9436
▁County	-9437
▁approx	-9438
▁chimps	-9439
▁claims	-9440
▁criter	-9441
▁cultiv	-9442
▁diving	-9443
▁namely	-9444
▁render	-9445
▁selves	-9446
▁unlock	-9447
▁Someone	-9448
▁artwork	-9449
▁discrim	-9450
▁enhance	-9451
▁enjoyed	-9452
▁genomes	-9453
▁neutral	-9454
▁nonviol	-9455
▁reaches	-9456
▁strings	-9457
▁trapped	-9458
▁backyard	-9459
▁catching	-9460
▁clusters	-9461
▁complain	-9462
▁downtown	-9463
▁intimate	-9464
▁observed	-9465
▁simplest	-9466
▁skeletal	-9467
▁touching	-9468
▁tropical	-9469
▁Brazilian	-9470
▁Singapore	-9471
▁activists	-9472
▁amazingly	-9473
▁planetary	-9474
▁anticipate	-9475
▁compromise	-9476
▁frequently	-9477
▁intriguing	-9478
▁irrational	-9479
▁regardless	-9480
▁remarkably	-9481
▁suggestion	-9482
▁Shakespeare	-9483
▁instruction	-9484
▁philanthropy	-9485
BC	-9486
dam	-9487
eem	-9488
ias	-9489
rin	-9490
uts	-9491
▁AM	-9492
▁JA	-9493
▁RS	-9494
▁UC	-9495
They	-9496
aken	-9497
aste	-9498
mind	-9499
pril	-9500
▁Civ	-9501
▁Has	-9502
▁Kat	-9503
▁Mos	-9504
▁Ver	-9505
▁ech	-9506
arten	-9507
ensus	-9508
erent	-9509
ilson	-9510
inger	-9511
▁Camb	-9512
▁Educ	-9513
▁Phys	-9514
▁Sher	-9515
▁Soci	-9516
▁athe	-9517
▁bulb	-9518
▁chef	-9519
▁crap	-9520
▁deaf	-9521
▁loan	-9522
▁mand	-9523
▁mant	-9524
▁shoe	-9525
▁span	-9526
▁util	-9527
▁vary	-9528
awater	-9529
lihood	-9530
romagn	-9531
▁April	-9532
▁Still	-9533
▁bench	-9534
▁camel	-9535
▁clubs	-9536
▁entry	-9537
▁inhib	-9538
▁juice	-9539
▁lifel	-9540
▁maneu	-9541
▁peers	-9542
▁penet	-9543
▁perip	-9544
▁sends	-9545
▁vocal	-9546
▁Compan	-9547
▁Little	-9548
▁Wright	-9549
▁apolog	-9550
▁cyberc	-9551
▁emails	-9552
▁intact	-9553
▁integr	-9554
▁lonely	-9555
▁manual	-9556
▁unseen	-9557
▁Clinton	-9558
▁Iranian	-9559
▁Similar	-9560
▁Switzer	-9561
▁bridges	-9562
▁chronic	-9563
▁corners	-9564
▁deepest	-9565
▁default	-9566
▁enlight	-9567
▁heading	-9568
▁hopeful	-9569
▁mankind	-9570
▁patents	-9571
▁staring	-9572
▁Virginia	-9573
▁approved	-9574
▁barriers	-9575
▁boundary	-9576
▁calories	-9577
▁charming	-9578
▁compound	-9579
▁consumed	-9580
▁diameter	-9581
▁hometown	-9582
▁informal	-9583
▁literacy	-9584
▁nitrogen	-9585
▁nowadays	-9586
▁scanning	-9587
▁sidewalk	-9588
▁surgeons	-9589
▁abundance	-9590
▁aesthetic	-9591
▁bacterial	-9592
▁criminals	-9593
▁electrons	-9594
▁medicines	-9595
▁microbial	-9596
▁motivated	-9597
▁occurring	-9598
▁realistic	-9599
▁receiving	-9600
▁likelihood	-9601
▁psychopath	-9602
▁sufficient	-9603
▁Switzerland	-9604
▁composition	-9605
▁electromagn	-9606
▁fluorescent	-9607
▁frightening	-9608
▁partnership	-9609
▁politically	-9610
▁programmers	-9611
▁theoretical	-9612
▁accomplished	-9613
▁continuously	-9614
▁observations	-9615
▁psychologists	-9616
da	-9617
tt	-9618
ano	-9619
fly	-9620
nat	-9621
net	-9622
oto	-9623
via	-9624
▁AI	-9625
▁Ev	-9626
▁Ol	-9627
▁Wi	-9628
city	-9629
cons	-9630
ipes	-9631
ller	-9632
ules	-9633
▁192	-9634
▁193	-9635
▁Emp	-9636
▁Kam	-9637
▁Lev	-9638
▁Sah	-9639
▁awe	-9640
▁rib	-9641
▁sne	-9642
▁unw	-9643
achel	-9644
asive	-9645
aware	-9646
cover	-9647
eding	-9648
eping	-9649
erals	-9650
ifies	-9651
lfare	-9652
raine	-9653
storm	-9654
▁Brad	-9655
▁Ever	-9656
▁Hope	-9657
▁Mass	-9658
▁Norm	-9659
▁Penn	-9660
▁Scot	-9661
▁Wind	-9662
▁atom	-9663
▁ende	-9664
▁enzy	-9665
▁offs	-9666
▁prol	-9667
▁quar	-9668
▁semi	-9669
▁stad	-9670
▁subt	-9671
▁thus	-9672
arrhea	-9673
iously	-9674
orough	-9675
▁Bruno	-9676
▁Water	-9677
▁Young	-9678
▁appla	-9679
▁aspir	-9680
▁depos	-9681
▁drift	-9682
▁drunk	-9683
▁erect	-9684
▁flock	-9685
▁lists	-9686
▁messy	-9687
▁pulls	-9688
▁spare	-9689
▁sperm	-9690
▁stamp	-9691
▁straw	-9692
▁sweat	-9693
isphere	-9694
ressing	-9695
theless	-9696
▁Gandhi	-9697
▁absorb	-9698
▁cockro	-9699
▁denial	-9700
▁elabor	-9701
▁grades	-9702
▁hybrid	-9703
▁nightm	-9704
▁strain	-9705
▁tables	-9706
▁unfold	-9707
etheless	-9708
ventions	-9709
▁authors	-9710
▁chamber	-9711
▁cooling	-9712
▁descend	-9713
▁maximum	-9714
▁princip	-9715
▁rewards	-9716
▁strands	-9717
▁texture	-9718
▁Business	-9719
▁Nigerian	-9720
▁Probably	-9721
▁activate	-9722
▁announce	-9723
▁hopeless	-9724
▁incorpor	-9725
▁injuries	-9726
▁opinions	-9727
▁redesign	-9728
▁vaccines	-9729
cyclopedia	-9730
▁Aristotle	-9731
▁asteroids	-9732
▁candidate	-9733
▁formation	-9734
▁intensity	-9735
▁regularly	-9736
▁surgeries	-9737
▁textbooks	-9738
▁therapies	-9739
▁phenomenal	-9740
▁sculptures	-9741
▁variations	-9742
▁distinction	-9743
▁realization	-9744
▁accelerating	-9745
▁measurements	-9746
▁overwhelming	-9747
▁temperatures	-9748
▁computational	-9749
As	-9750
gr	-9751
God	-9752
She	-9753
ila	-9754
mat	-9755
neg	-9756
pos	-9757
vir	-9758
▁Ky	-9759
▁Ok	-9760
ador	-9761
agan	-9762
esty	-9763
fare	-9764
five	-9765
hear	-9766
imed	-9767
rier	-9768
uber	-9769
unks	-9770
▁12,	-9771
▁Jay	-9772
▁Lew	-9773
▁Men	-9774
▁Tem	-9775
▁ego	-9776
▁orb	-9777
▁tab	-9778
acher	-9779
aired	-9780
cribe	-9781
gener	-9782
ierra	-9783
olera	-9784
▁Kong	-9785
▁bump	-9786
▁chew	-9787
▁mast	-9788
▁spat	-9789
▁verb	-9790
▁wins	-9791
▁yell	-9792
gevity	-9793
▁2004,	-9794
▁Craig	-9795
▁Cyrus	-9796
▁arrow	-9797
▁blend	-9798
▁blink	-9799
▁cared	-9800
▁cheat	-9801
▁coach	-9802
▁decor	-9803
▁ethic	-9804
▁freak	-9805
▁hated	-9806
▁meets	-9807
▁naive	-9808
▁parks	-9809
▁pulse	-9810
▁vivid	-9811
▁wrist	-9812
vestock	-9813
▁Arabia	-9814
▁Greece	-9815
▁Philip	-9816
▁Spring	-9817
▁advers	-9818
▁harbor	-9819
▁horror	-9820
▁masses	-9821
▁mentor	-9822
▁prepar	-9823
▁racing	-9824
▁riding	-9825
▁sensit	-9826
▁trauma	-9827
▁wishes	-9828
breaking	-9829
function	-9830
▁belongs	-9831
▁biomass	-9832
▁carries	-9833
▁congest	-9834
▁creator	-9835
▁crossed	-9836
▁filling	-9837
▁hacking	-9838
▁handful	-9839
▁landing	-9840
▁nearest	-9841
▁planted	-9842
▁sectors	-9843
▁venture	-9844
▁McDonald	-9845
▁contempl	-9846
▁cylinder	-9847
▁deployed	-9848
▁division	-9849
▁dropping	-9850
▁evolving	-9851
▁expanded	-9852
▁pleasant	-9853
▁websites	-9854
▁abandoned	-9855
▁attracted	-9856
▁comparing	-9857
▁convicted	-9858
▁deception	-9859
▁favorites	-9860
▁livestock	-9861
▁recession	-9862
▁resistant	-9863
▁responded	-9864
▁statistic	-9865
▁terrified	-9866
▁universes	-9867
▁discussing	-9868
▁privileged	-9869
▁emotionally	-9870
▁alternatives	-9871
▁embarrassing	-9872
▁introduction	-9873
▁interventions	-9874
▁philosophical	-9875
▁systematically	-9876
40	-9877
Sh	-9878
aza	-9879
def	-9880
oen	-9881
▁29	-9882
▁Id	-9883
▁je	-9884
alia	-9885
bees	-9886
inci	-9887
offs	-9888
rick	-9889
▁Mid	-9890
▁Tar	-9891
▁Van	-9892
▁ger	-9893
digit	-9894
elect	-9895
secut	-9896
three	-9897
viron	-9898
▁2008	-9899
▁Bosn	-9900
▁Cape	-9901
▁Lead	-9902
▁Pitt	-9903
▁Turk	-9904
▁blew	-9905
▁brow	-9906
▁buff	-9907
▁fier	-9908
▁herd	-9909
▁pale	-9910
▁radi	-9911
▁seal	-9912
▁shed	-9913
▁sole	-9914
▁subm	-9915
▁ties	-9916
▁unle	-9917
iances	-9918
income	-9919
normal	-9920
urning	-9921
▁Civil	-9922
▁Laden	-9923
▁album	-9924
▁alter	-9925
▁arbit	-9926
▁belly	-9927
▁brush	-9928
▁bulbs	-9929
▁cream	-9930
▁demos	-9931
▁fence	-9932
▁gains	-9933
▁gross	-9934
▁guerr	-9935
▁index	-9936
▁infer	-9937
▁mobil	-9938
▁obese	-9939
▁reass	-9940
▁recre	-9941
▁rhyth	-9942
▁risky	-9943
▁scans	-9944
▁sheer	-9945
▁texts	-9946
▁watts	-9947
bsolute	-9948
faction	-9949
itating	-9950
▁Argent	-9951
▁Nathan	-9952
▁Pretty	-9953
▁Rather	-9954
▁copies	-9955
▁flavor	-9956
▁fluctu	-9957
▁frames	-9958
▁guitar	-9959
▁helium	-9960
▁horses	-9961
▁immort	-9962
▁intric	-9963
▁mating	-9964
▁pestic	-9965
▁raises	-9966
▁revers	-9967
▁rotate	-9968
▁sovere	-9969
computer	-9970
ergarten	-9971
▁History	-9972
▁antenna	-9973
▁banking	-9974
▁coastal	-9975
▁condoms	-9976
▁endless	-9977
▁exploit	-9978
▁gallery	-9979
▁hackers	-9980
▁happily	-9981
▁heavily	-9982
▁hostile	-9983
▁outrage	-9984
▁playful	-9985
▁retreat	-9986
▁screens	-9987
▁streams	-9988
▁talents	-9989
▁texting	-9990
▁welfare	-9991
▁Interest	-9992
▁Olympics	-9993
▁adoption	-9994
▁criteria	-9995
▁forecast	-9996
▁hormones	-9997
▁momentum	-9998
▁promised	-9999
▁revealed	-10000
▁switched	-10001
▁transist	-10002
▁underest	-10003
▁Greenland	-10004
▁answering	-10005
▁delicious	-10006
▁machinery	-10007
▁reasoning	-10008
▁screaming	-10009
▁sequences	-10010
▁shoulders	-10011
▁visualize	-10012
▁adolescent	-10013
▁destroying	-10014
▁documented	-10015
▁exceptions	-10016
▁microphone	-10017
▁cooperative	-10018
▁overwhelmed	-10019
▁contribution	-10020
▁accountability	-10021
Man	-10022
bag	-10023
hot	-10024
lar	-10025
nik	-10026
▁BM	-10027
Come	-10028
anas	-10029
chem	-10030
fire	-10031
ieve	-10032
olen	-10033
page	-10034
rans	-10035
rine	-10036
star	-10037
uana	-10038
uong	-10039
ylac	-10040
ylon	-10041
▁Kar	-10042
▁McC	-10043
▁hob	-10044
▁mud	-10045
▁pad	-10046
athon	-10047
atoes	-10048
iolet	-10049
matic	-10050
osity	-10051
owder	-10052
proof	-10053
rator	-10054
speed	-10055
umbai	-10056
▁Hosp	-10057
▁Jord	-10058
▁Kids	-10059
▁Mond	-10060
▁Nick	-10061
▁Shir	-10062
▁dood	-10063
▁fest	-10064
▁logo	-10065
▁mini	-10066
▁mixt	-10067
▁prey	-10068
▁surg	-10069
▁tags	-10070
▁worm	-10071
culiar	-10072
enance	-10073
istine	-10074
▁Indus	-10075
▁Simon	-10076
▁Story	-10077
▁Trade	-10078
▁Tunis	-10079
▁Turns	-10080
▁artic	-10081
▁blown	-10082
▁chess	-10083
▁clips	-10084
▁consp	-10085
▁crows	-10086
▁facil	-10087
▁marks	-10088
▁panic	-10089
▁penal	-10090
▁picks	-10091
▁shops	-10092
▁strip	-10093
▁unint	-10094
▁voted	-10095
percent	-10096
▁Disney	-10097
▁Ladies	-10098
▁Mozart	-10099
▁Mumbai	-10100
▁Norden	-10101
▁cables	-10102
▁canvas	-10103
▁cattle	-10104
▁divers	-10105
▁donors	-10106
▁kicked	-10107
▁kidney	-10108
▁lethal	-10109
▁passes	-10110
▁shower	-10111
▁summit	-10112
▁virgin	-10113
ffective	-10114
ortunate	-10115
▁Everest	-10116
▁Medical	-10117
▁Seattle	-10118
▁Society	-10119
▁cholera	-10120
▁earning	-10121
▁eastern	-10122
▁fantasy	-10123
▁folding	-10124
▁kidding	-10125
▁laughed	-10126
▁periods	-10127
▁planned	-10128
▁scaling	-10129
▁spiders	-10130
▁travels	-10131
▁utterly	-10132
▁western	-10133
▁Catholic	-10134
▁accuracy	-10135
▁alphabet	-10136
▁angiogen	-10137
▁calculus	-10138
▁indicate	-10139
▁multiply	-10140
▁peculiar	-10141
▁prisoner	-10142
▁eliminate	-10143
▁embracing	-10144
▁expressed	-10145
▁fisheries	-10146
▁illusions	-10147
▁parenting	-10148
▁tolerance	-10149
▁determines	-10150
▁enterprise	-10151
▁households	-10152
▁ingredient	-10153
▁prototypes	-10154
▁sequencing	-10155
▁systematic	-10156
▁undergradu	-10157
▁concentrate	-10158
▁discussions	-10159
▁documentary	-10160
▁preparation	-10161
▁recognizing	-10162
▁specialized	-10163
▁understands	-10164
RA	-10165
ga	-10166
tz	-10167
ecd	-10168
isa	-10169
low	-10170
nut	-10171
▁37	-10172
▁DP	-10173
▁EM	-10174
▁Kh	-10175
▁SP	-10176
aver	-10177
enth	-10178
iots	-10179
plet	-10180
▁190	-10181
▁Dub	-10182
▁Kos	-10183
▁Pen	-10184
▁Thu	-10185
▁Tra	-10186
▁nud	-10187
▁rap	-10188
▁vel	-10189
▁wow	-10190
Huong	-10191
ennis	-10192
inity	-10193
keley	-10194
month	-10195
piece	-10196
▁Abed	-10197
▁Army	-10198
▁Hind	-10199
▁blur	-10200
▁coin	-10201
▁cube	-10202
▁dare	-10203
▁impr	-10204
▁lion	-10205
▁porn	-10206
▁scal	-10207
▁symp	-10208
▁torn	-10209
▁toss	-10210
▁voca	-10211
▁ward	-10212
ancers	-10213
ijuana	-10214
inding	-10215
olitan	-10216
ometer	-10217
umbled	-10218
vasive	-10219
▁Louis	-10220
▁Tibet	-10221
▁alarm	-10222
▁anecd	-10223
▁careg	-10224
▁crude	-10225
▁float	-10226
▁loses	-10227
▁resur	-10228
▁scaff	-10229
▁sizes	-10230
▁squid	-10231
▁Sierra	-10232
▁Wilson	-10233
▁depart	-10234
▁dispar	-10235
▁evapor	-10236
▁format	-10237
▁gravit	-10238
▁lifted	-10239
▁retail	-10240
▁themes	-10241
▁Lebanon	-10242
▁Olympic	-10243
▁acquire	-10244
▁climbed	-10245
▁compreh	-10246
▁founder	-10247
▁fulfill	-10248
▁inhabit	-10249
▁injured	-10250
▁labeled	-10251
▁logging	-10252
▁matched	-10253
▁optical	-10254
▁pouring	-10255
▁rehabil	-10256
▁swallow	-10257
▁trading	-10258
mentation	-10259
▁Jonathan	-10260
▁actively	-10261
▁analyzed	-10262
▁diarrhea	-10263
▁gasoline	-10264
▁mentally	-10265
▁mutation	-10266
▁pathways	-10267
▁seawater	-10268
▁sexually	-10269
▁sometime	-10270
▁youngest	-10271
ographical	-10272
ustainable	-10273
▁acknowled	-10274
▁alongside	-10275
▁anonymous	-10276
▁diplomacy	-10277
▁emergence	-10278
▁filmmaker	-10279
▁imagining	-10280
▁mosquitos	-10281
▁mutations	-10282
▁negotiate	-10283
▁obsession	-10284
▁accelerate	-10285
▁candidates	-10286
▁infectious	-10287
▁inventions	-10288
▁organizing	-10289
▁practicing	-10290
▁professors	-10291
▁projection	-10292
▁separation	-10293
▁translator	-10294
▁destination	-10295
▁distinguish	-10296
▁Organization	-10297
▁catastrophic	-10298
▁coordination	-10299
▁kindergarten	-10300
▁approximately	-10301
afe	-10302
asa	-10303
bou	-10304
psy	-10305
▁Bh	-10306
▁DR	-10307
▁ID	-10308
AIDS	-10309
aire	-10310
burg	-10311
ibri	-10312
mass	-10313
pres	-10314
ruce	-10315
teen	-10316
▁203	-10317
▁Fed	-10318
▁jaw	-10319
▁nap	-10320
▁sib	-10321
▁zoo	-10322
berry	-10323
brush	-10324
front	-10325
iracy	-10326
oenix	-10327
ogens	-10328
ouses	-10329
plete	-10330
▁..."	-10331
▁Cold	-10332
▁Dean	-10333
▁Desp	-10334
▁Fred	-10335
▁asth	-10336
▁calc	-10337
▁carc	-10338
▁carp	-10339
▁foie	-10340
▁jack	-10341
▁lean	-10342
▁neoc	-10343
▁odor	-10344
▁pays	-10345
▁solo	-10346
Please	-10347
violet	-10348
▁2003,	-10349
▁Lewis	-10350
▁acids	-10351
▁align	-10352
▁amput	-10353
▁buses	-10354
▁candy	-10355
▁couch	-10356
▁insec	-10357
▁juven	-10358
▁nasty	-10359
▁obser	-10360
▁poems	-10361
▁probe	-10362
▁rains	-10363
▁recla	-10364
▁reper	-10365
▁revel	-10366
▁slice	-10367
▁usage	-10368
▁25,000	-10369
▁allies	-10370
▁argued	-10371
▁counts	-10372
▁grains	-10373
▁legend	-10374
▁modest	-10375
▁pigeon	-10376
▁plates	-10377
▁potent	-10378
▁preced	-10379
▁slower	-10380
▁smells	-10381
▁stabil	-10382
▁stolen	-10383
▁triang	-10384
▁Academy	-10385
▁Charlie	-10386
▁Kingdom	-10387
▁Mexican	-10388
▁Rosling	-10389
▁blowing	-10390
▁envelop	-10391
▁exagger	-10392
▁grocery	-10393
▁heating	-10394
▁melting	-10395
▁pleased	-10396
▁returns	-10397
▁shaking	-10398
▁shining	-10399
▁strikes	-10400
▁telecom	-10401
▁visions	-10402
▁wrapped	-10403
bsolutely	-10404
▁Berkeley	-10405
▁Building	-10406
▁TEDTalks	-10407
▁freezing	-10408
▁innovate	-10409
▁priority	-10410
▁publicly	-10411
▁rejected	-10412
▁talented	-10413
▁thinkers	-10414
▁thrilled	-10415
▁astronomy	-10416
▁celebrity	-10417
▁commodity	-10418
▁desperate	-10419
▁dictators	-10420
▁disasters	-10421
▁geography	-10422
▁longevity	-10423
▁mushrooms	-10424
▁parachute	-10425
▁portraits	-10426
▁vegetable	-10427
▁witnessed	-10428
▁Christians	-10429
▁conceptual	-10430
▁critically	-10431
▁delivering	-10432
▁disturbing	-10433
▁girlfriend	-10434
▁preventing	-10435
▁priorities	-10436
▁renewables	-10437
▁Palestinian	-10438
▁collaborate	-10439
▁enforcement	-10440
▁ultraviolet	-10441
▁unfortunate	-10442
▁chemotherapy	-10443
▁economically	-10444
▁significance	-10445
▁authoritarian	-10446
▁deforestation	-10447
▁representative	-10448
10	-10449
Ah	-10450
Gl	-10451
bu	-10452
no	-10453
zu	-10454
Now	-10455
afa	-10456
idi	-10457
kyo	-10458
wan	-10459
▁48	-10460
▁72	-10461
▁Av	-10462
▁Gr	-10463
▁Sk	-10464
▁UN	-10465
▁dy	-10466
▁oy	-10467
acre	-10468
beat	-10469
eyed	-10470
held	-10471
intu	-10472
irms	-10473
iven	-10474
oked	-10475
orse	-10476
pace	-10477
step	-10478
unes	-10479
▁'50	-10480
▁11,	-10481
▁12-	-10482
▁130	-10483
▁Ast	-10484
▁Beh	-10485
▁Nam	-10486
▁Sol	-10487
▁Syl	-10488
▁cin	-10489
▁nic	-10490
▁voy	-10491
alend	-10492
ching	-10493
eting	-10494
oured	-10495
ubble	-10496
▁1930	-10497
▁2007	-10498
▁Free	-10499
▁Fund	-10500
▁Jews	-10501
▁Khal	-10502
▁Know	-10503
▁Mall	-10504
▁Rose	-10505
▁Wood	-10506
▁adds	-10507
▁bust	-10508
▁cope	-10509
▁indu	-10510
▁obsc	-10511
▁obso	-10512
▁panc	-10513
▁piss	-10514
▁wore	-10515
▁1,500	-10516
▁Alask	-10517
▁Broad	-10518
▁Heart	-10519
▁Keith	-10520
▁advis	-10521
▁cares	-10522
▁displ	-10523
▁favel	-10524
▁feeds	-10525
▁manus	-10526
▁roofs	-10527
▁trips	-10528
atories	-10529
enhagen	-10530
ilation	-10531
umbling	-10532
▁60,000	-10533
▁Cambod	-10534
▁Golden	-10535
▁Hawaii	-10536
▁Korean	-10537
▁Nether	-10538
▁Office	-10539
▁absurd	-10540
▁brands	-10541
▁contag	-10542
▁empath	-10543
▁exquis	-10544
▁famine	-10545
▁graphs	-10546
▁insert	-10547
▁mapped	-10548
▁precip	-10549
▁sooner	-10550
▁temple	-10551
▁thylac	-10552
▁traces	-10553
▁violin	-10554
▁weighs	-10555
▁Atlanta	-10556
▁Library	-10557
▁airline	-10558
▁archive	-10559
▁assumed	-10560
▁charged	-10561
▁compute	-10562
▁couples	-10563
▁damaged	-10564
▁devoted	-10565
▁digging	-10566
▁dreamed	-10567
▁longest	-10568
▁lottery	-10569
▁neglect	-10570
▁shepher	-10571
▁shorter	-10572
▁squares	-10573
▁stadium	-10574
▁trusted	-10575
▁whoever	-10576
▁Canadian	-10577
▁Egyptian	-10578
▁Whenever	-10579
▁assemble	-10580
▁assembly	-10581
▁autistic	-10582
▁cheating	-10583
▁detector	-10584
▁explores	-10585
▁gestures	-10586
▁glorious	-10587
▁habitats	-10588
▁lifespan	-10589
▁minority	-10590
▁parasite	-10591
▁targeted	-10592
▁terrific	-10593
▁variable	-10594
▁visiting	-10595
controlled	-10596
▁According	-10597
▁Architect	-10598
▁associate	-10599
▁collision	-10600
▁converted	-10601
▁elaborate	-10602
▁exercises	-10603
▁integrate	-10604
▁platforms	-10605
▁precision	-10606
▁Copenhagen	-10607
▁celebrated	-10608
▁employment	-10609
▁enormously	-10610
▁horizontal	-10611
▁manuscript	-10612
▁metabolism	-10613
▁networking	-10614
▁smartphone	-10615
▁Netherlands	-10616
▁democracies	-10617
▁integration	-10618
▁transported	-10619
▁angiogenesis	-10620
▁appreciation	-10621
▁representing	-10622
NC	-10623
TC	-10624
▁,	-10625
gon	-10626
▁4.	-10627
▁MO	-10628
▁ow	-10629
agra	-10630
amie	-10631
amps	-10632
bean	-10633
celi	-10634
igan	-10635
imag	-10636
oton	-10637
ucks	-10638
umph	-10639
usse	-10640
word	-10641
zone	-10642
▁30,	-10643
▁Arm	-10644
▁Jup	-10645
▁Mel	-10646
▁Nep	-10647
▁Nin	-10648
▁Pet	-10649
▁Sad	-10650
▁Ted	-10651
▁cul	-10652
▁kit	-10653
▁lex	-10654
▁rac	-10655
anium	-10656
arded	-10657
ctive	-10658
illas	-10659
lined	-10660
▁Bert	-10661
▁Buff	-10662
▁Dian	-10663
▁Gene	-10664
▁Gord	-10665
▁Jill	-10666
▁Matt	-10667
▁Tues	-10668
▁beam	-10669
▁beef	-10670
▁bugs	-10671
▁cups	-10672
▁disk	-10673
▁epip	-10674
▁epis	-10675
▁fles	-10676
▁folk	-10677
▁hamb	-10678
▁holy	-10679
▁mild	-10680
▁myst	-10681
▁rank	-10682
▁sque	-10683
▁ster	-10684
▁stew	-10685
▁tips	-10686
action	-10687
ailand	-10688
boards	-10689
celium	-10690
escope	-10691
estone	-10692
itated	-10693
minded	-10694
redict	-10695
ricane	-10696
shaped	-10697
▁2011,	-10698
▁Alice	-10699
▁Apoll	-10700
▁Bruce	-10701
▁Danny	-10702
▁Kosov	-10703
▁Light	-10704
▁Matth	-10705
▁Start	-10706
▁Sudan	-10707
▁Tokyo	-10708
▁acres	-10709
▁choir	-10710
▁drain	-10711
▁draws	-10712
▁dread	-10713
▁escal	-10714
▁frogs	-10715
▁knees	-10716
▁octop	-10717
▁woods	-10718
aghetti	-10719
onsense	-10720
▁12,000	-10721
▁Khalid	-10722
▁Luther	-10723
▁Secret	-10724
▁accent	-10725
▁aliens	-10726
▁boards	-10727
▁cataly	-10728
▁copied	-10729
▁corrid	-10730
▁digest	-10731
▁eighth	-10732
▁exotic	-10733
▁jungle	-10734
▁legisl	-10735
▁losses	-10736
▁marrow	-10737
▁presum	-10738
▁regist	-10739
▁rolled	-10740
▁unfair	-10741
▁wasted	-10742
▁150,000	-10743
▁Despite	-10744
▁Environ	-10745
▁Jupiter	-10746
▁Tuesday	-10747
▁altered	-10748
▁counted	-10749
▁desktop	-10750
▁filters	-10751
▁flights	-10752
▁impress	-10753
▁reserve	-10754
▁richest	-10755
▁sensing	-10756
▁seventh	-10757
▁weekend	-10758
ationally	-10759
▁Hospital	-10760
▁Thailand	-10761
▁abundant	-10762
▁acquired	-10763
▁attempts	-10764
▁colorful	-10765
▁deciding	-10766
▁explored	-10767
▁frontier	-10768
▁heritage	-10769
▁ideology	-10770
▁magician	-10771
▁maneuver	-10772
▁membrane	-10773
▁mycelium	-10774
▁obsolete	-10775
▁reflects	-10776
▁remotely	-10777
▁sticking	-10778
▁supernov	-10779
▁vacation	-10780
▁Similarly	-10781
▁achieving	-10782
▁artifacts	-10783
▁astronaut	-10784
▁bacterium	-10785
▁blueprint	-10786
▁generates	-10787
▁involving	-10788
▁magazines	-10789
▁migration	-10790
▁millennia	-10791
▁offspring	-10792
▁producers	-10793
▁reporting	-10794
▁screening	-10795
engineering	-10796
▁addressing	-10797
▁apartments	-10798
▁confronted	-10799
▁describing	-10800
▁hemisphere	-10801
▁meditation	-10802
▁symmetries	-10803
▁celebration	-10804
▁embarrassed	-10805
▁investments	-10806
▁maintenance	-10807
▁sensitivity	-10808
▁statistical	-10809
▁symmetrical	-10810
▁contributing	-10811
▁hallucinations	-10812
▁entrepreneurial	-10813
300	-10814
cod	-10815
lli	-10816
mes	-10817
▁31	-10818
▁Ec	-10819
▁Ja	-10820
▁Na	-10821
Cola	-10822
asha	-10823
eron	-10824
eses	-10825
hors	-10826
nedy	-10827
ptic	-10828
▁Add	-10829
▁Ell	-10830
▁Hon	-10831
▁Kle	-10832
▁Mas	-10833
▁Old	-10834
▁Say	-10835
▁eru	-10836
▁jam	-10837
▁yog	-10838
Would	-10839
ancer	-10840
idesp	-10841
oters	-10842
ponds	-10843
thood	-10844
urday	-10845
uster	-10846
▁Band	-10847
▁Coca	-10848
▁Marg	-10849
▁Show	-10850
▁alle	-10851
▁beds	-10852
▁bowl	-10853
▁cage	-10854
▁curt	-10855
▁fuck	-10856
▁kidn	-10857
▁larv	-10858
▁merg	-10859
▁oven	-10860
▁thri	-10861
▁unac	-10862
▁vice	-10863
bulary	-10864
ements	-10865
formed	-10866
imalay	-10867
ograms	-10868
orters	-10869
rators	-10870
usalem	-10871
ustice	-10872
▁2006,	-10873
▁alert	-10874
▁blast	-10875
▁divid	-10876
▁drama	-10877
▁femin	-10878
▁fired	-10879
▁flesh	-10880
▁harsh	-10881
▁hills	-10882
▁hoped	-10883
▁loans	-10884
▁myths	-10885
▁noisy	-10886
▁pound	-10887
▁rigid	-10888
▁taboo	-10889
▁tanks	-10890
▁towns	-10891
▁wiped	-10892
▁wrest	-10893
▁yeast	-10894
ictions	-10895
imeters	-10896
issance	-10897
ologies	-10898
osexual	-10899
quality	-10900
raising	-10901
▁Marbou	-10902
▁Monday	-10903
▁Sylvia	-10904
▁abroad	-10905
▁asleep	-10906
▁beetle	-10907
▁brutal	-10908
▁calend	-10909
▁casual	-10910
▁cathed	-10911
▁crowds	-10912
▁equals	-10913
▁firing	-10914
▁foster	-10915
▁guards	-10916
▁insist	-10917
▁mammal	-10918
▁marker	-10919
▁mature	-10920
▁metals	-10921
▁punish	-10922
▁refuse	-10923
▁scheme	-10924
▁speeds	-10925
▁submar	-10926
▁viewed	-10927
▁viscer	-10928
▁warmer	-10929
▁Country	-10930
▁Francis	-10931
▁Himalay	-10932
▁Kennedy	-10933
▁Montana	-10934
▁budgets	-10935
▁cardiac	-10936
▁clarity	-10937
▁columns	-10938
▁dancers	-10939
▁decides	-10940
▁exhibit	-10941
▁farther	-10942
▁grabbed	-10943
▁penalty	-10944
▁priorit	-10945
▁segment	-10946
▁shelves	-10947
▁shifted	-10948
▁sulfide	-10949
▁surveys	-10950
▁tightly	-10951
▁warrior	-10952
idespread	-10953
▁Saturday	-10954
▁annivers	-10955
▁cocktail	-10956
▁defining	-10957
▁entities	-10958
▁envision	-10959
▁improvis	-10960
▁managing	-10961
▁motivate	-10962
▁passions	-10963
▁pipeline	-10964
▁promises	-10965
▁protocol	-10966
▁regional	-10967
▁scaffold	-10968
▁surgical	-10969
▁Jerusalem	-10970
▁Telescope	-10971
▁indicates	-10972
▁integrity	-10973
▁observing	-10974
▁pressures	-10975
▁promoting	-10976
▁resilient	-10977
▁spaghetti	-10978
▁unpredict	-10979
▁acceptance	-10980
▁intentions	-10981
▁interfaces	-10982
▁politician	-10983
▁predicting	-10984
▁profitable	-10985
▁responding	-10986
▁vocabulary	-10987
▁Fortunately	-10988
▁Republicans	-10989
▁considering	-10990
▁correlation	-10991
▁corresponds	-10992
▁frustration	-10993
▁investigate	-10994
▁microscopic	-10995
▁practically	-10996
▁psychiatric	-10997
▁researching	-10998
▁revolutions	-10999
▁storyteller	-11000
▁dictionaries	-11001
▁headquarters	-11002
▁philosophers	-11003
▁satisfaction	-11004
▁scientifically	-11005
Go	-11006
Le	-11007
11,	-11008
itu	-11009
run	-11010
sea	-11011
▁46	-11012
▁eB	-11013
▁gy	-11014
▁ly	-11015
,500	-11016
abwe	-11017
aman	-11018
ccer	-11019
eros	-11020
idal	-11021
mile	-11022
odyn	-11023
ogan	-11024
oter	-11025
rove	-11026
size	-11027
▁1.2	-11028
▁DAR	-11029
▁FDA	-11030
▁Hot	-11031
▁McK	-11032
▁Top	-11033
▁Vol	-11034
▁fog	-11035
▁mas	-11036
▁rod	-11037
▁wre	-11038
allet	-11039
etary	-11040
graph	-11041
pound	-11042
thals	-11043
ution	-11044
▁2005	-11045
▁Book	-11046
▁Gall	-11047
▁Jenn	-11048
▁Lind	-11049
▁Mean	-11050
▁apes	-11051
▁appe	-11052
▁belt	-11053
▁dens	-11054
▁edit	-11055
▁hump	-11056
▁nano	-11057
▁node	-11058
▁rays	-11059
▁reck	-11060
▁toll	-11061
▁unve	-11062
ankind	-11063
asters	-11064
iments	-11065
itutes	-11066
lethal	-11067
oliath	-11068
rhythm	-11069
stairs	-11070
uminum	-11071
▁Beach	-11072
▁Creat	-11073
▁Fried	-11074
▁Jacqu	-11075
▁brick	-11076
▁discl	-11077
▁entit	-11078
▁fails	-11079
▁greet	-11080
▁infra	-11081
▁paste	-11082
▁posed	-11083
▁slave	-11084
▁slope	-11085
▁suits	-11086
▁tiger	-11087
▁toast	-11088
imbabwe	-11089
inished	-11090
iscover	-11091
iterate	-11092
pendent	-11093
▁Alaska	-11094
▁Notice	-11095
▁Recent	-11096
▁angles	-11097
▁behold	-11098
▁beside	-11099
▁courts	-11100
▁dishes	-11101
▁enrich	-11102
▁filmed	-11103
▁handed	-11104
▁server	-11105
▁serves	-11106
▁stairs	-11107
▁steady	-11108
▁storms	-11109
▁submit	-11110
▁tagged	-11111
▁tomato	-11112
▁virtue	-11113
▁waited	-11114
ountered	-11115
pectives	-11116
▁Natural	-11117
▁amateur	-11118
▁beetles	-11119
▁beloved	-11120
▁counsel	-11121
▁eternal	-11122
▁honesty	-11123
▁honored	-11124
▁luckily	-11125
▁ordered	-11126
▁passage	-11127
▁ratings	-11128
▁reforms	-11129
▁refused	-11130
▁reviews	-11131
▁shortly	-11132
▁spatial	-11133
▁thereby	-11134
conscious	-11135
inational	-11136
▁Together	-11137
▁altruism	-11138
▁autonomy	-11139
▁basement	-11140
▁democrat	-11141
▁displays	-11142
▁elevator	-11143
▁embodied	-11144
▁entrance	-11145
▁friction	-11146
▁humility	-11147
▁intimacy	-11148
▁memorial	-11149
▁peripher	-11150
▁receptor	-11151
▁resident	-11152
▁revenues	-11153
▁shepherd	-11154
▁simulate	-11155
▁symbolic	-11156
▁tangible	-11157
▁triangle	-11158
ifications	-11159
▁Tasmanian	-11160
▁analyzing	-11161
▁biosphere	-11162
▁bombsight	-11163
▁cardboard	-11164
▁consuming	-11165
▁contained	-11166
▁countless	-11167
▁emphasize	-11168
▁isolation	-11169
▁judgments	-11170
▁principal	-11171
▁realities	-11172
▁replacing	-11173
▁secondary	-11174
▁chromosome	-11175
▁disappears	-11176
▁disconnect	-11177
▁disruptive	-11178
▁friendship	-11179
▁millimeter	-11180
▁parliament	-11181
▁relativity	-11182
▁calculation	-11183
▁empowerment	-11184
▁encountered	-11185
▁frequencies	-11186
▁functioning	-11187
▁implemented	-11188
▁replacement	-11189
▁Neanderthals	-11190
▁authenticity	-11191
▁demonstrates	-11192
▁disappointed	-11193
▁improvements	-11194
▁partnerships	-11195
▁prescription	-11196
▁collaborators	-11197
▁exponentially	-11198
▁participating	-11199
?'	-11200
Af	-11201
An	-11202
Fi	-11203
HA	-11204
ja	-11205
sm	-11206
Did	-11207
hes	-11208
orr	-11209
wid	-11210
zzy	-11211
▁Ba	-11212
▁CP	-11213
▁Ir	-11214
▁Lo	-11215
▁MA	-11216
▁Ra	-11217
acks	-11218
addy	-11219
adel	-11220
enny	-11221
ican	-11222
isan	-11223
plan	-11224
pted	-11225
rett	-11226
umen	-11227
utes	-11228
▁15,	-11229
▁Ang	-11230
▁Fil	-11231
▁Luc	-11232
▁NSA	-11233
▁Naz	-11234
▁RNA	-11235
▁arc	-11236
▁caf	-11237
▁cum	-11238
▁eco	-11239
▁gad	-11240
▁gel	-11241
▁hut	-11242
▁owe	-11243
▁pix	-11244
Point	-11245
actic	-11246
ccoli	-11247
grand	-11248
heads	-11249
inker	-11250
phing	-11251
roots	-11252
urger	-11253
▁Data	-11254
▁Dave	-11255
▁Dick	-11256
▁Full	-11257
▁Hung	-11258
▁Milo	-11259
▁Post	-11260
▁Stop	-11261
▁alar	-11262
▁cycl	-11263
▁enab	-11264
▁font	-11265
▁glow	-11266
▁puff	-11267
▁trib	-11268
Global	-11269
handed	-11270
ieties	-11271
ilated	-11272
ounded	-11273
school	-11274
verted	-11275
▁8,000	-11276
▁Color	-11277
▁Georg	-11278
▁Kelly	-11279
▁Milky	-11280
▁Namib	-11281
▁Prime	-11282
▁Psych	-11283
▁Roman	-11284
▁Small	-11285
▁Syria	-11286
▁Venus	-11287
▁acute	-11288
▁asset	-11289
▁bonds	-11290
▁bribe	-11291
▁fever	-11292
▁heter	-11293
▁laund	-11294
▁macro	-11295
▁pants	-11296
▁pipes	-11297
▁rises	-11298
▁seals	-11299
▁spite	-11300
▁stare	-11301
▁steep	-11302
▁yards	-11303
natural	-11304
ructive	-11305
ulative	-11306
▁Around	-11307
▁Buddha	-11308
▁Edward	-11309
▁Rachel	-11310
▁apples	-11311
▁argues	-11312
▁assure	-11313
▁candle	-11314
▁cosmos	-11315
▁cracks	-11316
▁exceed	-11317
▁floors	-11318
▁folded	-11319
▁fruits	-11320
▁hunter	-11321
▁imagin	-11322
▁intend	-11323
▁ironic	-11324
▁lately	-11325
▁noises	-11326
▁occupy	-11327
▁resemb	-11328
▁salary	-11329
▁soccer	-11330
▁spiral	-11331
▁stigma	-11332
▁timing	-11333
▁tricky	-11334
▁truths	-11335
▁viable	-11336
ifferent	-11337
▁Defense	-11338
▁Philipp	-11339
▁Phoenix	-11340
▁applies	-11341
▁blessed	-11342
▁chemist	-11343
▁consent	-11344
▁crashes	-11345
▁curator	-11346
▁gardens	-11347
▁greatly	-11348
▁jumping	-11349
▁liberty	-11350
▁markers	-11351
▁mirrors	-11352
▁mixture	-11353
▁praying	-11354
▁premise	-11355
▁primate	-11356
▁silicon	-11357
▁squeeze	-11358
▁thermal	-11359
▁touches	-11360
▁triumph	-11361
▁wonders	-11362
istically	-11363
▁Brothers	-11364
▁Buddhist	-11365
▁Consider	-11366
▁Portugal	-11367
▁TEDsters	-11368
▁accommod	-11369
▁ambition	-11370
▁chapters	-11371
▁checking	-11372
▁consists	-11373
▁deserves	-11374
▁lectures	-11375
▁minerals	-11376
▁misunder	-11377
▁modeling	-11378
▁stressed	-11379
▁thorough	-11380
▁uniquely	-11381
▁weakness	-11382
▁Jefferson	-11383
▁Meanwhile	-11384
▁Therefore	-11385
▁cybercrim	-11386
▁demograph	-11387
▁fishermen	-11388
▁injustice	-11389
▁lightning	-11390
▁massively	-11391
▁nightmare	-11392
▁preserved	-11393
▁processed	-11394
▁staircase	-11395
▁surviving	-11396
▁worldview	-11397
▁beneficial	-11398
▁congestion	-11399
▁convincing	-11400
▁dependence	-11401
▁empowering	-11402
▁frightened	-11403
▁inherently	-11404
▁invitation	-11405
▁pedestrian	-11406
▁programmed	-11407
▁widespread	-11408
▁Development	-11409
▁anniversary	-11410
▁disciplines	-11411
▁perceptions	-11412
▁progression	-11413
▁rainforests	-11414
▁substantial	-11415
▁disappearing	-11416
▁presidential	-11417
▁configuration	-11418
▁gravitational	-11419
▁independently	-11420
▁investigation	-11421
▁multinational	-11422
▁spontaneously	-11423
ES	-11424
ili	-11425
urf	-11426
vin	-11427
▁44	-11428
▁AG	-11429
▁MS	-11430
▁PI	-11431
▁ol	-11432
▁vo	-11433
adow	-11434
amas	-11435
bian	-11436
bird	-11437
bral	-11438
bris	-11439
copy	-11440
core	-11441
food	-11442
inch	-11443
mate	-11444
rose	-11445
ucky	-11446
▁185	-11447
▁450	-11448
▁Bor	-11449
▁Bot	-11450
▁Dev	-11451
▁Lak	-11452
▁Nov	-11453
▁Rog	-11454
▁Tri	-11455
▁bay	-11456
▁bos	-11457
Every	-11458
cycle	-11459
ffiti	-11460
fight	-11461
ittee	-11462
oking	-11463
ourse	-11464
sight	-11465
story	-11466
▁Cuba	-11467
▁Food	-11468
▁Gard	-11469
▁Nike	-11470
▁Oper	-11471
▁Pers	-11472
▁Such	-11473
▁Vene	-11474
▁buzz	-11475
▁conj	-11476
▁goat	-11477
▁heck	-11478
▁hurd	-11479
▁lips	-11480
▁narc	-11481
▁sang	-11482
▁stir	-11483
▁yard	-11484
cribed	-11485
istant	-11486
ocracy	-11487
opardy	-11488
ortion	-11489
reedom	-11490
strong	-11491
ulator	-11492
▁Guard	-11493
▁Julia	-11494
▁Large	-11495
▁Tesla	-11496
▁alike	-11497
▁brows	-11498
▁chase	-11499
▁ghost	-11500
▁jumps	-11501
▁limbs	-11502
▁midst	-11503
▁recur	-11504
▁shred	-11505
▁slept	-11506
▁towel	-11507
▁tuned	-11508
alities	-11509
million	-11510
ourcing	-11511
▁Canyon	-11512
▁Gordon	-11513
▁Having	-11514
▁Invest	-11515
▁Kansas	-11516
▁Sahara	-11517
▁Yellow	-11518
▁cinema	-11519
▁dancer	-11520
▁debris	-11521
▁depths	-11522
▁disput	-11523
▁equity	-11524
▁hugely	-11525
▁metric	-11526
▁mouths	-11527
▁powder	-11528
▁prayer	-11529
▁psycho	-11530
▁underm	-11531
▁underp	-11532
▁update	-11533
aggering	-11534
oriented	-11535
restrial	-11536
▁Certain	-11537
▁Suppose	-11538
▁anatomy	-11539
▁appoint	-11540
▁buttons	-11541
▁chasing	-11542
▁forgive	-11543
▁generic	-11544
▁goodbye	-11545
▁impulse	-11546
▁mammoth	-11547
▁matches	-11548
▁octopus	-11549
▁pricing	-11550
▁rockets	-11551
▁viewing	-11552
intuitive	-11553
izational	-11554
▁Columbia	-11555
▁aluminum	-11556
▁ancestor	-11557
▁champion	-11558
▁circular	-11559
▁commonly	-11560
▁composed	-11561
▁endeavor	-11562
▁feminist	-11563
▁flourish	-11564
▁numerous	-11565
▁obstacle	-11566
▁outbreak	-11567
▁petition	-11568
▁producer	-11569
▁stepping	-11570
▁TEDGlobal	-11571
▁activated	-11572
▁breakdown	-11573
▁compounds	-11574
▁container	-11575
▁executive	-11576
▁finishing	-11577
▁galleries	-11578
▁kilometer	-11579
▁metabolic	-11580
▁mysteries	-11581
▁processor	-11582
▁sexuality	-11583
▁struggled	-11584
▁therapist	-11585
▁Absolutely	-11586
▁PowerPoint	-11587
▁accumulate	-11588
▁accurately	-11589
▁anesthesia	-11590
▁connectome	-11591
▁diagnostic	-11592
▁imperative	-11593
▁journalism	-11594
▁playground	-11595
▁prevalence	-11596
▁propaganda	-11597
▁reflective	-11598
▁regulation	-11599
▁adolescence	-11600
▁documenting	-11601
▁nonetheless	-11602
▁orientation	-11603
▁questioning	-11604
▁regulations	-11605
▁disabilities	-11606
▁manipulation	-11607
▁electromagnetic	-11608
Ex	-11609
HC	-11610
vy	-11611
Mom	-11612
arn	-11613
bee	-11614
but	-11615
fig	-11616
iva	-11617
lad	-11618
una	-11619
weg	-11620
you	-11621
▁'8	-11622
▁BJ	-11623
▁Mi	-11624
▁WK	-11625
▁Wr	-11626
anch	-11627
anol	-11628
eman	-11629
iper	-11630
orph	-11631
roup	-11632
umbs	-11633
zler	-11634
▁1.5	-11635
▁24-	-11636
▁50-	-11637
▁Ara	-11638
▁Ask	-11639
▁Bud	-11640
▁Dal	-11641
▁Die	-11642
▁Est	-11643
▁Fur	-11644
▁Han	-11645
▁Kim	-11646
▁Sel	-11647
▁Sum	-11648
▁ape	-11649
▁lou	-11650
▁sty	-11651
Thank	-11652
acent	-11653
alore	-11654
ivals	-11655
ocity	-11656
osaur	-11657
rants	-11658
rella	-11659
rovir	-11660
▁Alan	-11661
▁Expl	-11662
▁Keep	-11663
▁Year	-11664
▁aunt	-11665
▁chat	-11666
▁duty	-11667
▁eBay	-11668
▁eats	-11669
▁esca	-11670
▁extr	-11671
▁lays	-11672
▁lump	-11673
▁pean	-11674
▁perm	-11675
▁seam	-11676
▁twin	-11677
▁unre	-11678
apagos	-11679
ibrium	-11680
ndered	-11681
obiles	-11682
putnik	-11683
rowing	-11684
ulates	-11685
▁2010.	-11686
▁Leone	-11687
▁beast	-11688
▁chore	-11689
▁dwell	-11690
▁empir	-11691
▁faint	-11692
▁fungi	-11693
▁loyal	-11694
▁morph	-11695
▁newly	-11696
▁paths	-11697
▁ridge	-11698
▁sells	-11699
▁snake	-11700
▁twins	-11701
anguage	-11702
aterial	-11703
conomic	-11704
fulness	-11705
genesis	-11706
holders	-11707
itional	-11708
ocratic	-11709
ouncing	-11710
▁Apollo	-11711
▁Colomb	-11712
▁Empire	-11713
▁Greeks	-11714
▁Humans	-11715
▁Johnny	-11716
▁Mathem	-11717
▁Native	-11718
▁Norweg	-11719
▁Public	-11720
▁admire	-11721
▁banned	-11722
▁checks	-11723
▁circul	-11724
▁earned	-11725
▁ethics	-11726
▁expose	-11727
▁hatred	-11728
▁helmet	-11729
▁heroic	-11730
▁mixing	-11731
▁mutual	-11732
▁nicely	-11733
▁purely	-11734
▁reserv	-11735
▁singer	-11736
▁tribal	-11737
▁upward	-11738
▁washed	-11739
appiness	-11740
friendly	-11741
ilibrium	-11742
▁Alright	-11743
▁Denmark	-11744
▁Looking	-11745
▁Natasha	-11746
▁Swedish	-11747
▁Teszler	-11748
▁bananas	-11749
▁dismiss	-11750
▁editors	-11751
▁emerges	-11752
▁grammar	-11753
▁iceberg	-11754
▁joining	-11755
▁leopard	-11756
▁lighter	-11757
▁linking	-11758
▁mastery	-11759
▁minimal	-11760
▁posters	-11761
▁relates	-11762
▁rescued	-11763
▁rhythms	-11764
▁slowing	-11765
▁submers	-11766
▁transit	-11767
▁upright	-11768
ventually	-11769
▁Jennifer	-11770
▁Margaret	-11771
▁advocate	-11772
▁broccoli	-11773
▁chickens	-11774
▁detected	-11775
▁dreaming	-11776
▁famously	-11777
▁goodness	-11778
▁juvenile	-11779
▁marathon	-11780
▁nonsense	-11781
▁operates	-11782
▁patience	-11783
▁persuade	-11784
▁plankton	-11785
▁planting	-11786
▁purchase	-11787
▁regulate	-11788
▁siblings	-11789
▁singular	-11790
▁Bangalore	-11791
▁Education	-11792
▁Galapagos	-11793
▁attacking	-11794
▁fragments	-11795
▁humankind	-11796
▁institute	-11797
▁projected	-11798
▁respected	-11799
▁returning	-11800
▁skeptical	-11801
▁successes	-11802
▁summarize	-11803
▁sustained	-11804
▁voluntary	-11805
▁attributes	-11806
▁disgusting	-11807
▁fertilizer	-11808
▁grassroots	-11809
▁physiology	-11810
▁procedures	-11811
▁staggering	-11812
▁subjective	-11813
▁supportive	-11814
▁Christopher	-11815
▁calculating	-11816
▁chromosomes	-11817
▁dysfunction	-11818
▁frustrating	-11819
▁stimulation	-11820
▁willingness	-11821
▁wonderfully	-11822
▁encyclopedia	-11823
▁explanations	-11824
▁laboratories	-11825
▁perspectives	-11826
▁refrigerator	-11827
▁reproduction	-11828
▁Interestingly	-11829
▁consideration	-11830
▁rehabilitation	-11831
-2	-11832
Ar	-11833
mn	-11834
wa	-11835
Cor	-11836
One	-11837
bat	-11838
bec	-11839
cko	-11840
iza	-11841
oof	-11842
pay	-11843
whe	-11844
▁43	-11845
▁AT	-11846
▁Ig	-11847
▁PR	-11848
▁TB	-11849
▁Vi	-11850
▁Wo	-11851
▁ic	-11852
aque	-11853
ctar	-11854
egas	-11855
flow	-11856
isha	-11857
ocks	-11858
pest	-11859
pons	-11860
rays	-11861
roat	-11862
shah	-11863
soon	-11864
uest	-11865
uite	-11866
urop	-11867
uten	-11868
wall	-11869
▁Abu	-11870
▁Dig	-11871
▁LHC	-11872
▁Mot	-11873
▁Muh	-11874
▁Nav	-11875
▁Pic	-11876
▁Pur	-11877
▁SMS	-11878
▁Tai	-11879
▁Ter	-11880
▁Too	-11881
▁Ult	-11882
▁Win	-11883
▁cod	-11884
▁gor	-11885
▁jan	-11886
ached	-11887
ammad	-11888
asant	-11889
azine	-11890
berty	-11891
cture	-11892
lical	-11893
shine	-11894
vance	-11895
width	-11896
▁2006	-11897
▁Beck	-11898
▁CEOs	-11899
▁Clay	-11900
▁Doug	-11901
▁Fire	-11902
▁Nich	-11903
▁Poll	-11904
▁Real	-11905
▁Serv	-11906
▁Slow	-11907
▁Tele	-11908
▁Wait	-11909
▁bore	-11910
▁crab	-11911
▁cram	-11912
▁deci	-11913
▁excl	-11914
▁inqu	-11915
▁lane	-11916
▁moms	-11917
▁mund	-11918
▁pose	-11919
▁pron	-11920
▁slip	-11921
▁tide	-11922
▁trap	-11923
▁ware	-11924
achers	-11925
angelo	-11926
health	-11927
iatric	-11928
rontal	-11929
weeney	-11930
▁2008.	-11931
▁Emily	-11932
▁Radio	-11933
▁Royal	-11934
▁Susan	-11935
▁Ushah	-11936
▁arena	-11937
▁bonus	-11938
▁boots	-11939
▁codes	-11940
▁crank	-11941
▁depri	-11942
▁dynam	-11943
▁folds	-11944
▁fuzzy	-11945
▁greed	-11946
▁hatch	-11947
▁occas	-11948
▁piles	-11949
▁pumps	-11950
▁repet	-11951
▁wives	-11952
Because	-11953
acities	-11954
inators	-11955
lection	-11956
ocative	-11957
umental	-11958
version	-11959
▁15,000	-11960
▁Cancer	-11961
▁Engine	-11962
▁Jordan	-11963
▁Kosovo	-11964
▁Nicole	-11965
▁Thirty	-11966
▁angels	-11967
▁benign	-11968
▁bloody	-11969
▁copper	-11970
▁cousin	-11971
▁elders	-11972
▁empire	-11973
▁fixing	-11974
▁heroin	-11975
▁humble	-11976
▁improb	-11977
▁insult	-11978
▁laying	-11979
▁marked	-11980
▁nectar	-11981
▁reader	-11982
▁snakes	-11983
▁strand	-11984
▁triple	-11985
▁urgent	-11986
▁wished	-11987
assembly	-11988
building	-11989
vascular	-11990
velength	-11991
▁Babbage	-11992
▁Wolfram	-11993
▁affairs	-11994
▁ashamed	-11995
▁basking	-11996
▁browser	-11997
▁chaotic	-11998
▁checked	-11999
▁commons	-12000
▁copying	-12001
▁cracked	-12002
▁dispers	-12003
▁easiest	-12004
▁examine	-12005
▁expense	-12006
▁explode	-12007
▁frontal	-12008
▁masters	-12009
▁morally	-12010
▁museums	-12011
▁newborn	-12012
▁notions	-12013
▁nucleus	-12014
▁outdoor	-12015
▁painter	-12016
▁pathway	-12017
▁prisons	-12018
▁quietly	-12019
▁reclaim	-12020
▁recruit	-12021
▁sadness	-12022
▁singers	-12023
▁squared	-12024
▁vitamin	-12025
▁warfare	-12026
sociation	-12027
▁adaptive	-12028
▁admitted	-12029
▁athletes	-12030
▁balanced	-12031
▁baseline	-12032
▁cerebral	-12033
▁cleaning	-12034
▁confined	-12035
▁diamonds	-12036
▁gigantic	-12037
▁graffiti	-12038
▁infrared	-12039
▁miracles	-12040
▁operated	-12041
▁operator	-12042
▁pressing	-12043
▁stealing	-12044
▁temporal	-12045
▁Democrats	-12046
▁Secretary	-12047
▁delighted	-12048
▁discussed	-12049
▁distorted	-12050
▁exclusive	-12051
▁geometric	-12052
▁illnesses	-12053
▁impressed	-12054
▁pervasive	-12055
▁practiced	-12056
▁promising	-12057
▁releasing	-12058
▁sequenced	-12059
▁stimulate	-12060
▁strengths	-12061
▁variables	-12062
▁Compassion	-12063
▁Eventually	-12064
▁adaptation	-12065
▁enthusiasm	-12066
▁generosity	-12067
▁multiverse	-12068
▁nonviolent	-12069
▁prefrontal	-12070
▁presenting	-12071
▁quantities	-12072
▁recognizes	-12073
▁repeatedly	-12074
▁statements	-12075
▁thoughtful	-12076
▁astronomers	-12077
▁controversy	-12078
▁dragonflies	-12079
▁equilibrium	-12080
▁flexibility	-12081
▁transmitted	-12082
▁Michelangelo	-12083
▁biologically	-12084
▁consistently	-12085
▁deliberately	-12086
▁individually	-12087
▁intersection	-12088
▁personalities	-12089
▁revolutionary	-12090
▁characteristic	-12091
▁neuroscientist	-12092
NG	-12093
Pe	-12094
fi	-12095
uj	-12096
ECD	-12097
Not	-12098
SPR	-12099
hed	-12100
jud	-12101
oub	-12102
oul	-12103
pol	-12104
zer	-12105
▁38	-12106
▁Cy	-12107
▁Od	-12108
Good	-12109
amil	-12110
bery	-12111
bone	-12112
cult	-12113
fund	-12114
inas	-12115
inea	-12116
itra	-12117
neum	-12118
otal	-12119
stal	-12120
them	-12121
umor	-12122
▁1.3	-12123
▁140	-12124
▁16,	-12125
▁CRI	-12126
▁Got	-12127
▁Ide	-12128
▁Moh	-12129
▁Ooh	-12130
▁Pra	-12131
▁Rub	-12132
▁Sup	-12133
▁dum	-12134
▁ted	-12135
,000.	-12136
arial	-12137
avors	-12138
cials	-12139
erers	-12140
essed	-12141
frame	-12142
▁2010	-12143
▁Cars	-12144
▁Case	-12145
▁Down	-12146
▁Edin	-12147
▁Jobs	-12148
▁Lama	-12149
▁Main	-12150
▁OECD	-12151
▁Pent	-12152
▁Peru	-12153
▁Rule	-12154
▁Vill	-12155
▁Yves	-12156
▁cort	-12157
▁dome	-12158
▁fame	-12159
▁fans	-12160
▁grim	-12161
▁menu	-12162
▁slum	-12163
enment	-12164
ibbean	-12165
ignant	-12166
irling	-12167
lights	-12168
ogenic	-12169
riends	-12170
second	-12171
▁Barry	-12172
▁Clear	-12173
▁Diego	-12174
▁Fifty	-12175
▁Lagos	-12176
▁Libya	-12177
▁Nepal	-12178
▁Solar	-12179
▁adequ	-12180
▁arise	-12181
▁boson	-12182
▁cried	-12183
▁deter	-12184
▁gifts	-12185
▁glory	-12186
▁hairs	-12187
▁halls	-12188
▁incub	-12189
▁inexp	-12190
▁jokes	-12191
▁swamp	-12192
▁tuber	-12193
culosis	-12194
▁Bosnia	-12195
▁CRISPR	-12196
▁Listen	-12197
▁Others	-12198
▁Venice	-12199
▁asthma	-12200
▁biases	-12201
▁cement	-12202
▁coined	-12203
▁cookie	-12204
▁defect	-12205
▁facult	-12206
▁fights	-12207
▁hooked	-12208
▁incons	-12209
▁judges	-12210
▁louder	-12211
▁spends	-12212
▁sticky	-12213
▁strang	-12214
▁supple	-12215
ceptable	-12216
▁250,000	-12217
▁Babylon	-12218
▁Cameron	-12219
▁Hawking	-12220
▁Jackson	-12221
▁captain	-12222
▁censors	-12223
▁confirm	-12224
▁contest	-12225
▁deficit	-12226
▁divorce	-12227
▁donated	-12228
▁ethanol	-12229
▁jewelry	-12230
▁knocked	-12231
▁monster	-12232
▁mundane	-12233
▁needles	-12234
▁puberty	-12235
▁regrets	-12236
▁shadows	-12237
▁shipped	-12238
▁subsequ	-12239
▁summary	-12240
▁surplus	-12241
▁victory	-12242
ographing	-12243
ropolitan	-12244
▁Cambodia	-12245
▁Learning	-12246
▁Michigan	-12247
▁Ministry	-12248
▁Mountain	-12249
▁Ushahidi	-12250
▁acoustic	-12251
▁advertis	-12252
▁blogging	-12253
▁delivers	-12254
▁diagnose	-12255
▁doubling	-12256
▁equipped	-12257
▁evaluate	-12258
▁exploded	-12259
▁headline	-12260
▁marginal	-12261
▁observer	-12262
▁primates	-12263
▁prospect	-12264
▁sections	-12265
▁societal	-12266
▁suburban	-12267
▁superior	-12268
▁supports	-12269
generation	-12270
▁Argentina	-12271
▁Caribbean	-12272
▁Edinburgh	-12273
▁accepting	-12274
▁aggregate	-12275
▁apologize	-12276
▁arbitrary	-12277
▁assembled	-12278
▁champions	-12279
▁conductor	-12280
▁consensus	-12281
▁displaced	-12282
▁graduates	-12283
▁gratitude	-12284
▁inflation	-12285
▁ingenuity	-12286
▁intervene	-12287
▁marijuana	-12288
▁recovered	-12289
▁supercond	-12290
▁Democratic	-12291
▁Parliament	-12292
▁acceptable	-12293
▁conscience	-12294
▁culturally	-12295
▁globalized	-12296
▁harvesting	-12297
▁regenerate	-12298
▁standpoint	-12299
▁wavelength	-12300
▁accompanied	-12301
▁celebrating	-12302
▁complaining	-12303
▁countryside	-12304
▁expectation	-12305
▁illustrates	-12306
▁remembering	-12307
▁spontaneous	-12308
▁nevertheless	-12309
▁undergraduate	-12310
▁environmentally	-12311
IA	-12312
Me	-12313
SE	-12314
To	-12315
▁:	-12316
awa	-12317
ben	-12318
ffe	-12319
fur	-12320
nie	-12321
omp	-12322
ulu	-12323
▁52	-12324
▁CC	-12325
▁Hu	-12326
▁Ka	-12327
abel	-12328
axis	-12329
cium	-12330
cuse	-12331
educ	-12332
eton	-12333
imic	-12334
iner	-12335
obic	-12336
oven	-12337
phia	-12338
rust	-12339
scar	-12340
spec	-12341
uper	-12342
wing	-12343
▁125	-12344
▁50,	-12345
▁Ach	-12346
▁Bul	-12347
▁Mem	-12348
▁NGO	-12349
▁Rod	-12350
▁Sav	-12351
▁Tit	-12352
▁geo	-12353
▁los	-12354
▁mit	-12355
▁mum	-12356
▁pel	-12357
▁plu	-12358
adequ	-12359
amous	-12360
apses	-12361
ensed	-12362
essim	-12363
gered	-12364
munic	-12365
third	-12366
ucked	-12367
venue	-12368
zuela	-12369
▁Alph	-12370
▁Cost	-12371
▁Lang	-12372
▁Mind	-12373
▁Pass	-12374
▁Read	-12375
▁Stat	-12376
▁Wars	-12377
▁Whit	-12378
▁Work	-12379
▁brib	-12380
▁cues	-12381
▁dorm	-12382
▁iPad	-12383
▁leak	-12384
▁orth	-12385
▁plum	-12386
▁rept	-12387
▁skip	-12388
▁unin	-12389
irable	-12390
levant	-12391
▁2001,	-12392
▁Dalai	-12393
▁Later	-12394
▁Laure	-12395
▁Mitch	-12396
▁Music	-12397
▁Pitts	-12398
▁Princ	-12399
▁Rover	-12400
▁Tower	-12401
▁Vegas	-12402
▁arose	-12403
▁arous	-12404
▁banjo	-12405
▁crust	-12406
▁dates	-12407
▁doses	-12408
▁eager	-12409
▁firms	-12410
▁handy	-12411
▁hobby	-12412
▁oblig	-12413
▁physi	-12414
▁pneum	-12415
▁remem	-12416
▁scope	-12417
▁spike	-12418
▁spine	-12419
▁steer	-12420
▁swing	-12421
▁tales	-12422
▁tenth	-12423
fashion	-12424
▁Cooper	-12425
▁Desert	-12426
▁Evergl	-12427
▁Inside	-12428
▁Marine	-12429
▁Morgan	-12430
▁Rights	-12431
▁Warren	-12432
▁avatar	-12433
▁banana	-12434
▁bypass	-12435
▁crocod	-12436
▁differ	-12437
▁entity	-12438
▁fierce	-12439
▁gallon	-12440
▁larvae	-12441
▁pessim	-12442
▁pilots	-12443
▁prohib	-12444
▁retina	-12445
▁scarce	-12446
▁sought	-12447
▁undert	-12448
▁voters	-12449
▁writes	-12450
adelphia	-12451
specific	-12452
▁Clearly	-12453
▁Finland	-12454
▁Georgia	-12455
▁Goliath	-12456
▁Namibia	-12457
▁aquatic	-12458
▁bankers	-12459
▁blocked	-12460
▁careers	-12461
▁crushed	-12462
▁crystal	-12463
▁desires	-12464
▁fossils	-12465
▁harmful	-12466
▁inadequ	-12467
▁inmates	-12468
▁legally	-12469
▁literal	-12470
▁migrate	-12471
▁persons	-12472
▁posture	-12473
▁reinfor	-12474
▁sailing	-12475
▁scanned	-12476
▁secular	-12477
▁skilled	-12478
▁symptom	-12479
▁tickets	-12480
▁tracked	-12481
▁winners	-12482
▁worship	-12483
▁Muhammad	-12484
▁Williams	-12485
▁abnormal	-12486
▁assuming	-12487
▁blocking	-12488
▁calendar	-12489
▁civilian	-12490
▁climbers	-12491
▁composer	-12492
▁contents	-12493
▁daylight	-12494
▁delicate	-12495
▁drilling	-12496
▁emergent	-12497
▁founding	-12498
▁impaired	-12499
▁mustache	-12500
▁passport	-12501
▁pinpoint	-12502
▁pursuing	-12503
▁rainfall	-12504
▁reactors	-12505
▁register	-12506
▁releases	-12507
▁sacrific	-12508
▁secondly	-12509
▁shouting	-12510
▁superher	-12511
▁visitors	-12512
▁Princeton	-12513
▁Venezuela	-12514
▁afterward	-12515
▁cathedral	-12516
▁certainty	-12517
▁educators	-12518
▁epidemics	-12519
▁improvise	-12520
▁inclusive	-12521
▁launching	-12522
▁libraries	-12523
▁limestone	-12524
▁pregnancy	-12525
▁similarly	-12526
▁varieties	-12527
▁Conference	-12528
▁Republican	-12529
▁accounting	-12530
▁attraction	-12531
▁basketball	-12532
▁brainstorm	-12533
▁coordinate	-12534
▁parameters	-12535
▁randomness	-12536
▁temptation	-12537
▁unintended	-12538
▁accountable	-12539
▁catastrophe	-12540
▁circulation	-12541
▁commodities	-12542
▁conferences	-12543
▁introducing	-12544
▁maintaining	-12545
▁Philadelphia	-12546
▁tuberculosis	-12547
▁manufacturers	-12548
▁mathematically	-12549
Am	-12550
Hi	-12551
600	-12552
ARS	-12553
cav	-12554
cup	-12555
obo	-12556
▁86	-12557
▁98	-12558
▁AD	-12559
▁DM	-12560
▁Fa	-12561
▁NO	-12562
▁SB	-12563
▁SO	-12564
▁ov	-12565
acle	-12566
arks	-12567
aven	-12568
bine	-12569
emon	-12570
kers	-12571
know	-12572
lend	-12573
leys	-12574
mala	-12575
ocke	-12576
oids	-12577
ousy	-12578
uled	-12579
zard	-12580
▁13,	-12581
▁160	-12582
▁180	-12583
▁187	-12584
▁40-	-12585
▁EDI	-12586
▁Gam	-12587
▁Oft	-12588
▁Vis	-12589
▁dug	-12590
▁fee	-12591
▁hij	-12592
▁obe	-12593
▁reh	-12594
▁sap	-12595
Corps	-12596
backs	-12597
cular	-12598
ilage	-12599
illes	-12600
imony	-12601
ipcar	-12602
liers	-12603
metic	-12604
negie	-12605
opoly	-12606
otive	-12607
stick	-12608
vania	-12609
wheel	-12610
ymmet	-12611
▁100,	-12612
▁200-	-12613
▁Beat	-12614
▁Cart	-12615
▁Cult	-12616
▁Home	-12617
▁Laur	-12618
▁Luck	-12619
▁MoMA	-12620
▁Mull	-12621
▁Neil	-12622
▁Virt	-12623
▁nail	-12624
▁numb	-12625
▁pity	-12626
▁pops	-12627
▁sket	-12628
▁skys	-12629
advant	-12630
airobi	-12631
asking	-12632
erness	-12633
imicry	-12634
inates	-12635
ourced	-12636
rative	-12637
reatic	-12638
tering	-12639
▁2000.	-12640
▁2012,	-12641
▁7,000	-12642
▁Death	-12643
▁Field	-12644
▁Guate	-12645
▁Point	-12646
▁backs	-12647
▁booth	-12648
▁chalk	-12649
▁comed	-12650
▁desal	-12651
▁elbow	-12652
▁excer	-12653
▁fairy	-12654
▁guilt	-12655
▁hurts	-12656
▁inert	-12657
▁insur	-12658
▁irres	-12659
▁loops	-12660
▁moder	-12661
▁moist	-12662
▁mortg	-12663
▁orang	-12664
▁peaks	-12665
▁recip	-12666
▁resid	-12667
▁rolls	-12668
▁ruins	-12669
▁sands	-12670
▁shuff	-12671
▁skies	-12672
▁snaps	-12673
▁sucks	-12674
▁tread	-12675
▁wells	-12676
▁wrink	-12677
eliness	-12678
iratory	-12679
itorium	-12680
writing	-12681
▁Bhutan	-12682
▁Graham	-12683
▁Lester	-12684
▁Modern	-12685
▁Murray	-12686
▁agrees	-12687
▁biased	-12688
▁bitter	-12689
▁bucket	-12690
▁census	-12691
▁charts	-12692
▁condom	-12693
▁cooler	-12694
▁defeat	-12695
▁digits	-12696
▁firmly	-12697
▁hollow	-12698
▁hotter	-12699
▁ladder	-12700
▁lasted	-12701
▁learns	-12702
▁listed	-12703
▁overse	-12704
▁radius	-12705
▁retrof	-12706
▁routes	-12707
▁scaled	-12708
▁slowed	-12709
▁spouse	-12710
▁sulfur	-12711
▁tastes	-12712
▁tender	-12713
▁thrive	-12714
▁towers	-12715
▁typing	-12716
▁valued	-12717
▁voyage	-12718
osterone	-12719
▁Connect	-12720
▁Liberia	-12721
▁Nairobi	-12722
▁Somalia	-12723
▁Sputnik	-12724
▁Supreme	-12725
▁abandon	-12726
▁addicts	-12727
▁anytime	-12728
▁calcium	-12729
▁council	-12730
▁cousins	-12731
▁editing	-12732
▁humming	-12733
▁monsoon	-12734
▁recycle	-12735
▁reduces	-12736
▁refined	-12737
▁reperto	-12738
▁settled	-12739
▁spheres	-12740
▁suburbs	-12741
▁torture	-12742
▁Carnegie	-12743
▁Lawrence	-12744
▁Recently	-12745
▁backpack	-12746
▁certific	-12747
▁commands	-12748
▁declared	-12749
▁enabling	-12750
▁envelope	-12751
▁executed	-12752
▁fighters	-12753
▁glaciers	-12754
▁happiest	-12755
▁imprison	-12756
▁inviting	-12757
▁midnight	-12758
▁missions	-12759
▁modified	-12760
▁optimize	-12761
▁performs	-12762
▁portable	-12763
▁receiver	-12764
▁sensible	-12765
▁sketches	-12766
▁unstable	-12767
▁velocity	-12768
▁visceral	-12769
▁workshop	-12770
▁Darwinian	-12771
▁Egyptians	-12772
▁addressed	-12773
▁augmented	-12774
▁automatic	-12775
▁bandwidth	-12776
▁cartilage	-12777
▁cigarette	-12778
▁declining	-12779
▁disadvant	-12780
▁explorers	-12781
▁instances	-12782
▁instincts	-12783
▁intersect	-12784
▁intrinsic	-12785
▁mythology	-12786
▁nurturing	-12787
▁parasites	-12788
▁relevance	-12789
▁resonance	-12790
▁scenarios	-12791
▁surprises	-12792
▁vibrating	-12793
▁StoryCorps	-12794
▁animations	-12795
▁comparable	-12796
▁contagious	-12797
▁courageous	-12798
▁identities	-12799
▁opposition	-12800
▁pesticides	-12801
▁programmer	-12802
▁reasonably	-12803
▁satisfying	-12804
▁suspicious	-12805
▁unemployed	-12806
▁vegetation	-12807
▁Association	-12808
▁Information	-12809
▁battlefield	-12810
▁coincidence	-12811
▁corporation	-12812
▁destructive	-12813
▁eradication	-12814
▁existential	-12815
▁initiatives	-12816
▁negotiating	-12817
▁preventable	-12818
▁problematic	-12819
▁reinventing	-12820
▁requirement	-12821
▁acceleration	-12822
▁demographics	-12823
▁testosterone	-12824
▁unacceptable	-12825
▁contradiction	-12826
▁statistically	-12827
▁unpredictable	-12828
▁cybercriminals	-12829
BA	-12830
Cl	-12831
Re	-12832
ko	-12833
800	-12834
PTC	-12835
bia	-12836
bot	-12837
cam	-12838
dog	-12839
flu	-12840
fts	-12841
jan	-12842
lem	-12843
mia	-12844
non	-12845
obe	-12846
ogy	-12847
ois	-12848
pit	-12849
pot	-12850
raz	-12851
rug	-12852
syl	-12853
▁Aw	-12854
▁IP	-12855
▁Py	-12856
▁Rh	-12857
▁SA	-12858
▁Sn	-12859
▁Ur	-12860
asso	-12861
bons	-12862
cale	-12863
dest	-12864
itty	-12865
onto	-12866
pler	-12867
race	-12868
stan	-12869
stop	-12870
ylan	-12871
▁12.	-12872
▁18-	-12873
▁900	-12874
▁BMW	-12875
▁Cou	-12876
▁Cup	-12877
▁Emb	-12878
▁Fal	-12879
▁Hop	-12880
▁Las	-12881
▁Map	-12882
▁Nev	-12883
▁Nik	-12884
▁Toy	-12885
▁agn	-12886
▁bol	-12887
▁rip	-12888
▁tid	-12889
▁ups	-12890
▁wax	-12891
These	-12892
amboo	-12893
arcer	-12894
bands	-12895
chant	-12896
ected	-12897
ibera	-12898
ibles	-12899
ieval	-12900
integ	-12901
kings	-12902
ocamp	-12903
osion	-12904
shore	-12905
tends	-12906
wired	-12907
▁Cass	-12908
▁Deep	-12909
▁Didn	-12910
▁Fall	-12911
▁Germ	-12912
▁Jean	-12913
▁Joel	-12914
▁Juan	-12915
▁Meet	-12916
▁Pear	-12917
▁Poet	-12918
▁adul	-12919
▁argu	-12920
▁bent	-12921
▁budd	-12922
▁doct	-12923
▁gaze	-12924
▁germ	-12925
▁keen	-12926
▁lith	-12927
▁lobe	-12928
▁padd	-12929
▁pear	-12930
▁prag	-12931
▁rhin	-12932
▁slam	-12933
▁snap	-12934
▁sums	-12935
▁wage	-12936
Listen	-12937
energy	-12938
riages	-12939
saving	-12940
worthy	-12941
writer	-12942
▁1990,	-12943
▁Alpha	-12944
▁Beeth	-12945
▁Brand	-12946
▁Const	-12947
▁DARPA	-12948
▁Doesn	-12949
▁Dylan	-12950
▁Exact	-12951
▁Going	-12952
▁Kyoto	-12953
▁Marco	-12954
▁Stand	-12955
▁Techn	-12956
▁arter	-12957
▁beats	-12958
▁blade	-12959
▁gecko	-12960
▁lasts	-12961
▁noble	-12962
▁oppon	-12963
▁patri	-12964
▁radar	-12965
▁reads	-12966
▁riots	-12967
▁swell	-12968
▁templ	-12969
▁withd	-12970
balance	-12971
massive	-12972
sterdam	-12973
ulators	-12974
▁Agency	-12975
▁Darfur	-12976
▁Either	-12977
▁Forget	-12978
▁Jersey	-12979
▁Marcus	-12980
▁Norman	-12981
▁Person	-12982
▁Taiwan	-12983
▁Wonder	-12984
▁balcon	-12985
▁bamboo	-12986
▁bounce	-12987
▁divine	-12988
▁expend	-12989
▁freeze	-12990
▁harass	-12991
▁indoor	-12992
▁issued	-12993
▁joyful	-12994
▁labels	-12995
▁loaded	-12996
▁melody	-12997
▁poured	-12998
▁shield	-12999
▁slaves	-13000
▁taller	-13001
▁thirds	-13002
▁titles	-13003
▁toxins	-13004
▁treaty	-13005
cellular	-13006
conflict	-13007
ensitive	-13008
lessness	-13009
sylvania	-13010
▁300,000	-13011
▁Freedom	-13012
▁Sweeney	-13013
▁Toronto	-13014
▁Usually	-13015
▁beaches	-13016
▁broadly	-13017
▁catalog	-13018
▁dragged	-13019
▁episode	-13020
▁equator	-13021
▁erectus	-13022
▁fingert	-13023
▁focuses	-13024
▁forcing	-13025
▁funeral	-13026
▁gaining	-13027
▁heavens	-13028
▁heights	-13029
▁hunters	-13030
▁laundry	-13031
▁margins	-13032
▁millise	-13033
▁needing	-13034
▁placebo	-13035
▁portray	-13036
▁satisfy	-13037
▁shaping	-13038
▁utility	-13039
▁veterin	-13040
▁volumes	-13041
fashioned	-13042
▁Franklin	-13043
▁Movement	-13044
▁Russians	-13045
▁Scotland	-13046
▁Speaking	-13047
▁annoying	-13048
▁applause	-13049
▁degraded	-13050
▁develops	-13051
▁duration	-13052
▁incarcer	-13053
▁indirect	-13054
▁juggling	-13055
▁liberals	-13056
▁lifelong	-13057
▁meanings	-13058
▁noticing	-13059
▁redefine	-13060
▁referred	-13061
▁sessions	-13062
▁shortcut	-13063
▁stumbled	-13064
▁survivor	-13065
▁symphony	-13066
▁volcanic	-13067
organizing	-13068
▁Armstrong	-13069
▁Beethoven	-13070
▁Guatemala	-13071
▁Interview	-13072
▁Palestine	-13073
▁affection	-13074
▁assistant	-13075
▁campaigns	-13076
▁cellphone	-13077
▁charities	-13078
▁confusion	-13079
▁eradicate	-13080
▁historian	-13081
▁inconsist	-13082
▁intricate	-13083
▁kilograms	-13084
▁marvelous	-13085
▁paralysis	-13086
▁schooling	-13087
▁simulated	-13088
▁submitted	-13089
▁survivors	-13090
▁synthesis	-13091
▁Everglades	-13092
▁Pittsburgh	-13093
▁assessment	-13094
▁beginnings	-13095
▁cartoonist	-13096
▁distribute	-13097
▁geographic	-13098
▁infinitely	-13099
▁influences	-13100
▁pancreatic	-13101
▁pollutants	-13102
▁repertoire	-13103
▁specialist	-13104
▁appreciated	-13105
▁aspirations	-13106
▁conclusions	-13107
▁continually	-13108
▁efficiently	-13109
▁negotiation	-13110
▁specialists	-13111
▁suggestions	-13112
▁Pennsylvania	-13113
▁disconnected	-13114
▁entertaining	-13115
▁incidentally	-13116
▁interconnect	-13117
▁quantitative	-13118
▁appropriately	-13119
▁breakthroughs	-13120
▁comprehensive	-13121
▁conservatives	-13122
▁developmental	-13123
.7	-13124
EA	-13125
Je	-13126
On	-13127
yd	-13128
zo	-13129
400	-13130
gue	-13131
kel	-13132
oft	-13133
ols	-13134
rus	-13135
sis	-13136
▁4:	-13137
▁74	-13138
▁Ju	-13139
▁Ku	-13140
alie	-13141
arer	-13142
bell	-13143
ched	-13144
eres	-13145
etts	-13146
gien	-13147
mail	-13148
mble	-13149
omed	-13150
omon	-13151
text	-13152
▁14,	-13153
▁17,	-13154
▁360	-13155
▁Ash	-13156
▁Cub	-13157
▁Isa	-13158
▁Rel	-13159
▁Ric	-13160
▁Sty	-13161
▁Tay	-13162
▁Use	-13163
▁Wel	-13164
▁hug	-13165
▁pup	-13166
Great	-13167
achus	-13168
ambia	-13169
annah	-13170
ashes	-13171
borne	-13172
built	-13173
erend	-13174
gebra	-13175
icism	-13176
leans	-13177
ppers	-13178
style	-13179
▁2001	-13180
▁Andy	-13181
▁Diam	-13182
▁Gary	-13183
▁Greg	-13184
▁Ivan	-13185
▁Peps	-13186
▁Pier	-13187
▁Pope	-13188
▁Rena	-13189
▁Ryan	-13190
▁Type	-13191
▁UCLA	-13192
▁Wild	-13193
▁bulk	-13194
▁cafe	-13195
▁deny	-13196
▁ease	-13197
▁fict	-13198
▁inex	-13199
▁lure	-13200
▁pets	-13201
▁plut	-13202
▁tect	-13203
acious	-13204
carbon	-13205
engers	-13206
ennett	-13207
esteem	-13208
etical	-13209
imagin	-13210
inator	-13211
ocaust	-13212
ortune	-13213
resses	-13214
verbal	-13215
▁2002,	-13216
▁Build	-13217
▁Freud	-13218
▁Jerry	-13219
▁Labor	-13220
▁Linux	-13221
▁Marsh	-13222
▁Often	-13223
▁Short	-13224
▁Skype	-13225
▁Vinci	-13226
▁awake	-13227
▁bumps	-13228
▁chunk	-13229
▁dealt	-13230
▁epile	-13231
▁grabs	-13232
▁hilar	-13233
▁incon	-13234
▁kilos	-13235
▁locom	-13236
▁penis	-13237
▁poses	-13238
▁races	-13239
▁sober	-13240
▁tweet	-13241
▁unequ	-13242
▁unity	-13243
▁votes	-13244
centric	-13245
keeping	-13246
rection	-13247
sharing	-13248
▁Copern	-13249
▁Easter	-13250
▁Eighty	-13251
▁Kibera	-13252
▁Samuel	-13253
▁Wouldn	-13254
▁acquis	-13255
▁aerial	-13256
▁arrows	-13257
▁bookst	-13258
▁camels	-13259
▁coding	-13260
▁enters	-13261
▁exclud	-13262
▁finite	-13263
▁forbid	-13264
▁hammer	-13265
▁misery	-13266
▁mosque	-13267
▁multim	-13268
▁nuclei	-13269
▁orgasm	-13270
▁potato	-13271
▁prizes	-13272
▁quotes	-13273
▁rebell	-13274
▁resort	-13275
▁slogan	-13276
▁syring	-13277
▁theirs	-13278
▁throws	-13279
▁underw	-13280
▁verbal	-13281
▁wallet	-13282
aterials	-13283
attering	-13284
ensively	-13285
▁Austria	-13286
▁Climate	-13287
▁Exactly	-13288
▁Luckily	-13289
▁Orleans	-13290
▁Siberia	-13291
▁Snowden	-13292
▁Tempest	-13293
▁Tunisia	-13294
▁anxious	-13295
▁barrels	-13296
▁bluefin	-13297
▁cleaned	-13298
▁defines	-13299
▁diamond	-13300
▁epiphan	-13301
▁excerpt	-13302
▁justify	-13303
▁manages	-13304
▁mentors	-13305
▁nurture	-13306
▁pioneer	-13307
▁prevail	-13308
▁ranging	-13309
▁rehears	-13310
▁ringing	-13311
▁scholar	-13312
▁seafood	-13313
▁seasons	-13314
▁shuttle	-13315
▁sounded	-13316
▁tropics	-13317
▁unified	-13318
▁volcano	-13319
achusetts	-13320
efficient	-13321
nutrition	-13322
organized	-13323
resistant	-13324
▁Magazine	-13325
▁Medicine	-13326
▁animated	-13327
▁avoiding	-13328
▁creators	-13329
▁crystall	-13330
▁embraced	-13331
▁horrific	-13332
▁ignorant	-13333
▁insisted	-13334
▁notebook	-13335
▁obtained	-13336
▁potatoes	-13337
▁resolved	-13338
▁settings	-13339
▁strictly	-13340
▁synapses	-13341
▁threaten	-13342
▁unimagin	-13343
▁weekends	-13344
iovascular	-13345
▁Amsterdam	-13346
▁Certainly	-13347
▁Hopefully	-13348
▁Mountains	-13349
▁Norwegian	-13350
▁ambiguity	-13351
▁cockroach	-13352
▁combining	-13353
▁confusing	-13354
▁decentral	-13355
▁demanding	-13356
▁developer	-13357
▁directors	-13358
▁donations	-13359
▁educating	-13360
▁exquisite	-13361
▁hamburger	-13362
▁hippocamp	-13363
▁histories	-13364
▁imaginary	-13365
▁implanted	-13366
▁inherited	-13367
▁metaphors	-13368
▁neocortex	-13369
▁revealing	-13370
▁routinely	-13371
▁selective	-13372
▁sovereign	-13373
▁streaming	-13374
▁stressful	-13375
▁visionary	-13376
▁wandering	-13377
▁Throughout	-13378
▁altogether	-13379
▁antibodies	-13380
▁appliances	-13381
▁attachment	-13382
▁auditorium	-13383
▁cigarettes	-13384
▁compressed	-13385
▁explicitly	-13386
▁guaranteed	-13387
▁humanities	-13388
▁indication	-13389
▁innovators	-13390
▁irrelevant	-13391
▁irrigation	-13392
▁protective	-13393
▁registered	-13394
▁worthwhile	-13395
▁Interviewer	-13396
▁accelerated	-13397
▁association	-13398
▁citizenship	-13399
▁competitors	-13400
▁fundraising	-13401
▁ideological	-13402
▁inefficient	-13403
▁meaningless	-13404
▁operational	-13405
▁projections	-13406
▁stereotypes	-13407
▁threatening	-13408
▁developments	-13409
▁neurogenesis	-13410
▁surroundings	-13411
▁tremendously	-13412
▁urbanization	-13413
▁Massachusetts	-13414
▁biotechnology	-13415
▁experimenting	-13416
▁improvisation	-13417
▁investigating	-13418
▁manifestation	-13419
▁photographers	-13420
▁traditionally	-13421
▁discrimination	-13422
▁organizational	-13423
▁bioluminescence	-13424
99	-13425
RN	-13426
ni	-13427
ISD	-13428
aba	-13429
adp	-13430
aim	-13431
boy	-13432
dad	-13433
dle	-13434
gel	-13435
nob	-13436
tic	-13437
uci	-13438
urb	-13439
▁34	-13440
▁53	-13441
▁AO	-13442
▁BL	-13443
▁DI	-13444
▁DJ	-13445
▁FG	-13446
▁HG	-13447
▁KA	-13448
▁MP	-13449
▁RL	-13450
▁RO	-13451
▁ST	-13452
▁TR	-13453
▁UV	-13454
▁Uk	-13455
▁VC	-13456
▁ze	-13457
Mart	-13458
acon	-13459
alin	-13460
arat	-13461
cock	-13462
fill	-13463
hops	-13464
iler	-13465
lder	-13466
mart	-13467
onal	-13468
otto	-13469
phal	-13470
plex	-13471
udge	-13472
urge	-13473
zona	-13474
▁18,	-13475
▁Bah	-13476
▁Cir	-13477
▁Dam	-13478
▁Dur	-13479
▁End	-13480
▁Lyn	-13481
▁Max	-13482
▁Oak	-13483
▁Ott	-13484
▁Rec	-13485
▁Syd	-13486
▁Tro	-13487
▁aph	-13488
▁bot	-13489
▁cer	-13490
▁cue	-13491
▁fer	-13492
▁gur	-13493
▁gym	-13494
▁jur	-13495
▁kin	-13496
▁ove	-13497
▁quo	-13498
▁soy	-13499
▁vig	-13500
Women	-13501
acted	-13502
allas	-13503
brain	-13504
fting	-13505
ibati	-13506
idity	-13507
iping	-13508
irmed	-13509
meter	-13510
pical	-13511
regon	-13512
rians	-13513
ucose	-13514
▁AIMS	-13515
▁Barb	-13516
▁CERN	-13517
▁Cher	-13518
▁Fair	-13519
▁Geor	-13520
▁Hard	-13521
▁Harr	-13522
▁Help	-13523
▁Hold	-13524
▁Inde	-13525
▁Khan	-13526
▁Lady	-13527
▁Nine	-13528
▁Palm	-13529
▁RISD	-13530
▁Yale	-13531
▁amph	-13532
▁axes	-13533
▁blob	-13534
▁bron	-13535
▁cass	-13536
▁cher	-13537
▁dodo	-13538
▁ecst	-13539
▁epic	-13540
▁exit	-13541
▁gira	-13542
▁gosh	-13543
▁grip	-13544
▁guid	-13545
▁indo	-13546
▁mite	-13547
▁moth	-13548
▁pond	-13549
▁quiz	-13550
▁rhet	-13551
▁ruin	-13552
▁scra	-13553
▁sync	-13554
▁tadp	-13555
▁taxi	-13556
▁tilt	-13557
astery	-13558
asting	-13559
esters	-13560
giving	-13561
izable	-13562
linear	-13563
ospher	-13564
ranean	-13565
▁1998,	-13566
▁2050,	-13567
▁Allen	-13568
▁Anwar	-13569
▁Given	-13570
▁Glass	-13571
▁Intel	-13572
▁Jason	-13573
▁Moses	-13574
▁Roger	-13575
▁Stock	-13576
▁Truth	-13577
▁amino	-13578
▁arrog	-13579
▁bands	-13580
▁bikes	-13581
▁blows	-13582
▁compr	-13583
▁dunes	-13584
▁flown	-13585
▁germs	-13586
▁icons	-13587
▁innoc	-13588
▁lakes	-13589
▁laure	-13590
▁marsh	-13591
▁merit	-13592
▁ozone	-13593
▁petro	-13594
▁pools	-13595
▁rooft	-13596
▁skate	-13597
▁strat	-13598
▁traff	-13599
▁trait	-13600
▁vapor	-13601
▁verge	-13602
▁wreck	-13603
assador	-13604
develop	-13605
discipl	-13606
ometers	-13607
rasound	-13608
▁Commun	-13609
▁Doctor	-13610
▁Garden	-13611
▁Incred	-13612
▁Oregon	-13613
▁Poland	-13614
▁antide	-13615
▁archae	-13616
▁collar	-13617
▁compat	-13618
▁cooked	-13619
▁costly	-13620
▁denied	-13621
▁edited	-13622
▁hotels	-13623
▁ideals	-13624
▁lenses	-13625
▁poorly	-13626
▁popped	-13627
▁praise	-13628
▁prejud	-13629
▁primal	-13630
▁reflex	-13631
▁regain	-13632
▁reluct	-13633
▁rooted	-13634
▁salmon	-13635
▁shells	-13636
▁spades	-13637
▁stocks	-13638
▁stunts	-13639
▁tennis	-13640
▁thumbs	-13641
▁turbul	-13642
▁varied	-13643
▁wander	-13644
▁wiring	-13645
▁wolves	-13646
▁wounds	-13647
Jeopardy	-13648
appropri	-13649
ithmetic	-13650
positive	-13651
▁400,000	-13652
▁Already	-13653
▁Arizona	-13654
▁Believe	-13655
▁Germans	-13656
▁Hundred	-13657
▁Justice	-13658
▁Perfect	-13659
▁Windows	-13660
▁algebra	-13661
▁athlete	-13662
▁boiling	-13663
▁cabinet	-13664
▁compens	-13665
▁complim	-13666
▁crowded	-13667
▁deserts	-13668
▁exhilar	-13669
▁expands	-13670
▁favelas	-13671
▁fractal	-13672
▁gallons	-13673
▁glowing	-13674
▁glucose	-13675
▁hallway	-13676
▁inspect	-13677
▁interde	-13678
▁lesbian	-13679
▁optimal	-13680
▁partial	-13681
▁placing	-13682
▁regimes	-13683
▁sapiens	-13684
▁scripts	-13685
▁sterile	-13686
▁tourist	-13687
▁untouch	-13688
▁wasting	-13689
▁whisper	-13690
wandering	-13691
▁Computer	-13692
▁Kiribati	-13693
▁Language	-13694
▁Scottish	-13695
▁Students	-13696
▁addicted	-13697
▁amateurs	-13698
▁approval	-13699
▁assigned	-13700
▁balloons	-13701
▁constitu	-13702
▁crashing	-13703
▁crawling	-13704
▁donation	-13705
▁employed	-13706
▁employee	-13707
▁entitled	-13708
▁guidance	-13709
▁interrog	-13710
▁minimize	-13711
▁officers	-13712
▁overlook	-13713
▁prevents	-13714
▁pristine	-13715
▁prosecut	-13716
▁requests	-13717
▁schedule	-13718
▁stimulus	-13719
▁Economist	-13720
▁Himalayas	-13721
▁academics	-13722
▁appealing	-13723
▁appearing	-13724
▁attempted	-13725
▁certified	-13726
▁checklist	-13727
▁cognition	-13728
▁contracts	-13729
▁corridors	-13730
▁criticism	-13731
▁cultivate	-13732
▁detectors	-13733
▁execution	-13734
▁extensive	-13735
▁imperfect	-13736
▁injection	-13737
▁intrigued	-13738
▁inventors	-13739
▁ministers	-13740
▁packaging	-13741
▁pneumonia	-13742
▁preferred	-13743
▁qualified	-13744
▁satisfied	-13745
▁startling	-13746
▁swallowed	-13747
▁triangles	-13748
▁triggered	-13749
▁waterfall	-13750
▁Australian	-13751
▁Especially	-13752
▁Government	-13753
▁advantages	-13754
▁aesthetics	-13755
▁censorship	-13756
▁encryption	-13757
▁executives	-13758
▁expressing	-13759
▁inadequate	-13760
▁incomplete	-13761
▁intangible	-13762
▁limitation	-13763
▁motorcycle	-13764
▁photosynth	-13765
▁restricted	-13766
▁antidepress	-13767
▁arrangement	-13768
▁automobiles	-13769
▁departments	-13770
▁inexpensive	-13771
▁instability	-13772
▁mammography	-13773
▁medications	-13774
▁prototyping	-13775
▁publication	-13776
▁scholarship	-13777
▁astronomical	-13778
▁collaborator	-13779
▁combinations	-13780
▁illustration	-13781
▁interviewing	-13782
▁malnutrition	-13783
▁manufacturer	-13784
▁neurological	-13785
▁reproductive	-13786
▁unemployment	-13787
▁intrinsically	-13788
▁photographing	-13789
▁supercomputer	-13790
▁bioluminescent	-13791
▁cardiovascular	-13792
▁groundbreaking	-13793
▁industrialized	-13794
▁nanotechnology	-13795
Bl	-13796
ER	-13797
IP	-13798
NN	-13799
fu	-13800
uf	-13801
Get	-13802
Spe	-13803
aic	-13804
aki	-13805
aph	-13806
awn	-13807
bro	-13808
cur	-13809
eur	-13810
ieu	-13811
mah	-13812
obi	-13813
odd	-13814
rer	-13815
sex	-13816
sor	-13817
▁3,	-13818
▁57	-13819
▁AR	-13820
▁AS	-13821
▁BC	-13822
▁BR	-13823
▁FO	-13824
▁PH	-13825
▁Si	-13826
▁TM	-13827
▁uh	-13828
Alla	-13829
Just	-13830
abad	-13831
anor	-13832
arin	-13833
arms	-13834
aron	-13835
avil	-13836
coal	-13837
fell	-13838
hill	-13839
ickr	-13840
iflu	-13841
ingo	-13842
itis	-13843
mann	-13844
ohen	-13845
rina	-13846
rock	-13847
rosh	-13848
weet	-13849
wire	-13850
with	-13851
worm	-13852
▁25,	-13853
▁Adm	-13854
▁Ark	-13855
▁Aur	-13856
▁Bat	-13857
▁Bow	-13858
▁Cat	-13859
▁Dun	-13860
▁Fem	-13861
▁Fib	-13862
▁Gab	-13863
▁Heb	-13864
▁Hem	-13865
▁Hit	-13866
▁Hud	-13867
▁Len	-13868
▁Rab	-13869
▁Sin	-13870
▁Tah	-13871
▁Wil	-13872
▁bip	-13873
▁cav	-13874
▁dub	-13875
▁hay	-13876
▁piv	-13877
▁upl	-13878
▁woo	-13879
Afric	-13880
aptop	-13881
atics	-13882
bucks	-13883
great	-13884
green	-13885
iscal	-13886
olith	-13887
otent	-13888
uting	-13889
▁1800	-13890
▁Bono	-13891
▁Capt	-13892
▁Chim	-13893
▁Club	-13894
▁Dafa	-13895
▁LEDs	-13896
▁Land	-13897
▁Lots	-13898
▁Mald	-13899
▁Saul	-13900
▁True	-13901
▁auto	-13902
▁buck	-13903
▁bunk	-13904
▁buys	-13905
▁coch	-13906
▁coma	-13907
▁cust	-13908
▁feas	-13909
▁flop	-13910
▁hats	-13911
▁lied	-13912
▁mism	-13913
▁nick	-13914
▁owns	-13915
▁peel	-13916
▁plun	-13917
▁ramp	-13918
▁reli	-13919
▁swap	-13920
▁unne	-13921
abytes	-13922
acking	-13923
ateral	-13924
change	-13925
charge	-13926
consum	-13927
earing	-13928
ermaid	-13929
growth	-13930
igrade	-13931
ocated	-13932
ostics	-13933
people	-13934
rogram	-13935
uclear	-13936
ulsive	-13937
▁1995,	-13938
▁Agnes	-13939
▁Brain	-13940
▁Cairo	-13941
▁Cross	-13942
▁Diana	-13943
▁Pepsi	-13944
▁Sever	-13945
▁Wired	-13946
▁armor	-13947
▁biote	-13948
▁centr	-13949
▁chord	-13950
▁clich	-13951
▁cubic	-13952
▁fatty	-13953
▁flick	-13954
▁fraud	-13955
▁geese	-13956
▁goats	-13957
▁grief	-13958
▁homin	-13959
▁hunch	-13960
▁lined	-13961
▁overd	-13962
▁parap	-13963
▁pries	-13964
▁rides	-13965
▁royal	-13966
▁sadly	-13967
▁scare	-13968
▁tutor	-13969
▁unite	-13970
▁unple	-13971
▁wages	-13972
agement	-13973
growing	-13974
ignific	-13975
quarium	-13976
▁Barack	-13977
▁Behind	-13978
▁Carter	-13979
▁Energy	-13980
▁Ground	-13981
▁Hadron	-13982
▁Oliver	-13983
▁Potter	-13984
▁Reagan	-13985
▁Simple	-13986
▁Sydney	-13987
▁Unlike	-13988
▁anonym	-13989
▁brakes	-13990
▁carcin	-13991
▁clicks	-13992
▁county	-13993
▁crafts	-13994
▁creepy	-13995
▁crises	-13996
▁drinks	-13997
▁dumped	-13998
▁enzyme	-13999
▁hacker	-14000
▁impose	-14001
▁inputs	-14002
▁oyster	-14003
▁parked	-14004
▁pirate	-14005
▁precon	-14006
▁priest	-14007
▁proves	-14008
▁puppet	-14009
▁scroll	-14010
▁sealed	-14011
▁sewage	-14012
▁smiles	-14013
▁spills	-14014
▁stated	-14015
▁statue	-14016
▁stereo	-14017
▁stockp	-14018
▁thrust	-14019
▁timber	-14020
▁transf	-14021
▁twenty	-14022
▁unexpl	-14023
▁united	-14024
▁waking	-14025
ospheric	-14026
pendence	-14027
▁Between	-14028
▁Cassini	-14029
▁Company	-14030
▁Digital	-14031
▁Matthew	-14032
▁Network	-14033
▁Program	-14034
▁Tamiflu	-14035
▁Village	-14036
▁Welcome	-14037
▁assault	-14038
▁charter	-14039
▁cleaner	-14040
▁erosion	-14041
▁evident	-14042
▁faculty	-14043
▁fission	-14044
▁holiday	-14045
▁indoors	-14046
▁kidneys	-14047
▁learner	-14048
▁monthly	-14049
▁mustard	-14050
▁overlap	-14051
▁relaxed	-14052
▁replied	-14053
▁retired	-14054
▁romance	-14055
▁shallow	-14056
▁thirdly	-14057
▁thunder	-14058
▁worries	-14059
astically	-14060
▁Collider	-14061
▁Guardian	-14062
▁Nicholas	-14063
▁absorbed	-14064
▁adjacent	-14065
▁auditory	-14066
▁backward	-14067
▁bleeding	-14068
▁clapping	-14069
▁contexts	-14070
▁currents	-14071
▁dictator	-14072
▁distress	-14073
▁drowning	-14074
▁emphasis	-14075
▁flooding	-14076
▁grounded	-14077
▁invasive	-14078
▁literary	-14079
▁maximize	-14080
▁medieval	-14081
▁migraine	-14082
▁occupied	-14083
▁overseas	-14084
▁reacting	-14085
▁respects	-14086
▁responds	-14087
▁rotating	-14088
▁scalable	-14089
▁smartest	-14090
▁stewards	-14091
▁sweeping	-14092
▁switches	-14093
▁sympathy	-14094
▁unnecess	-14095
▁uploaded	-14096
▁veterans	-14097
performing	-14098
▁Otherwise	-14099
▁Starbucks	-14100
▁balancing	-14101
▁databases	-14102
▁exhausted	-14103
▁fictional	-14104
▁firsthand	-14105
▁honeybees	-14106
▁ingenious	-14107
▁inventing	-14108
▁marriages	-14109
▁meanwhile	-14110
▁northeast	-14111
▁orphanage	-14112
▁performer	-14113
▁prevalent	-14114
▁remembers	-14115
▁slaughter	-14116
▁Depression	-14117
▁Scientists	-14118
▁capacities	-14119
▁commentary	-14120
▁complained	-14121
▁conspiracy	-14122
▁depressing	-14123
▁developers	-14124
▁eradicated	-14125
▁excellence	-14126
▁foreground	-14127
▁guerrillas	-14128
▁improbable	-14129
▁introduces	-14130
▁loneliness	-14131
▁prioritize	-14132
▁reflecting	-14133
▁unpleasant	-14134
▁Renaissance	-14135
▁adolescents	-14136
▁convenience	-14137
▁counterpart	-14138
▁eliminating	-14139
▁financially	-14140
▁hippocampus	-14141
▁imaginative	-14142
▁respiratory	-14143
▁translating	-14144
▁achievements	-14145
▁availability	-14146
▁descriptions	-14147
▁fluctuations	-14148
▁hypothetical	-14149
▁negotiations	-14150
▁similarities	-14151
▁contributions	-14152
▁installations	-14153
▁unsustainable	-14154
▁desertification	-14155
-'	-14156
.5	-14157
15	-14158
HO	-14159
agu	-14160
aka	-14161
deg	-14162
eve	-14163
lan	-14164
las	-14165
ods	-14166
ohn	-14167
vol	-14168
▁1:	-14169
▁3:	-14170
▁47	-14171
▁64	-14172
▁BP	-14173
▁Er	-14174
▁IT	-14175
▁JC	-14176
▁SJ	-14177
▁SR	-14178
▁UK	-14179
Give	-14180
acci	-14181
anth	-14182
assy	-14183
ause	-14184
bags	-14185
cuss	-14186
feed	-14187
home	-14188
hran	-14189
ikes	-14190
lene	-14191
obos	-14192
rill	-14193
shot	-14194
tent	-14195
tles	-14196
your	-14197
▁110	-14198
▁14-	-14199
▁188	-14200
▁189	-14201
▁19,	-14202
▁2.5	-14203
▁ELA	-14204
▁Ess	-14205
▁Fox	-14206
▁Gil	-14207
▁IMF	-14208
▁Jar	-14209
▁LOL	-14210
▁Non	-14211
▁Reg	-14212
▁Row	-14213
▁ais	-14214
▁bru	-14215
▁hoo	-14216
▁lam	-14217
▁onc	-14218
▁ray	-14219
▁umb	-14220
▁wig	-14221
Hello	-14222
annel	-14223
artic	-14224
berto	-14225
geria	-14226
imore	-14227
ladus	-14228
lapse	-14229
ocate	-14230
ochem	-14231
owned	-14232
ravel	-14233
shirt	-14234
unter	-14235
uture	-14236
▁Ages	-14237
▁Anas	-14238
▁Bond	-14239
▁Bulg	-14240
▁Dead	-14241
▁Ence	-14242
▁Fast	-14243
▁Gaza	-14244
▁Left	-14245
▁Orch	-14246
▁Reed	-14247
▁SARS	-14248
▁Self	-14249
▁Soon	-14250
▁Stay	-14251
▁Text	-14252
▁Wide	-14253
▁bass	-14254
▁dash	-14255
▁envy	-14256
▁heel	-14257
▁jury	-14258
▁lazy	-14259
▁lett	-14260
▁mash	-14261
▁proc	-14262
▁seiz	-14263
▁veil	-14264
▁watt	-14265
▁wipe	-14266
People	-14267
alling	-14268
anting	-14269
ection	-14270
funded	-14271
gender	-14272
ologic	-14273
ougher	-14274
places	-14275
puters	-14276
razine	-14277
screen	-14278
social	-14279
ussani	-14280
▁1997,	-14281
▁2020.	-14282
▁Among	-14283
▁Beaut	-14284
▁Brill	-14285
▁Cuban	-14286
▁Exper	-14287
▁Forty	-14288
▁Honey	-14289
▁Jamie	-14290
▁Jonas	-14291
▁Paulo	-14292
▁agile	-14293
▁ambul	-14294
▁appet	-14295
▁geeks	-14296
▁guest	-14297
▁humil	-14298
▁jeans	-14299
▁lemon	-14300
▁livel	-14301
▁moons	-14302
▁nests	-14303
▁ninth	-14304
▁oxide	-14305
▁poets	-14306
▁postc	-14307
▁relie	-14308
▁sanct	-14309
▁saves	-14310
▁smugg	-14311
▁spraw	-14312
▁stagn	-14313
▁surre	-14314
▁tails	-14315
▁therm	-14316
▁trunk	-14317
▁urine	-14318
amiliar	-14319
healthy	-14320
markets	-14321
opening	-14322
osaurus	-14323
product	-14324
▁Author	-14325
▁Cities	-14326
▁Flickr	-14327
▁Guinea	-14328
▁Hitler	-14329
▁Hubble	-14330
▁Hudson	-14331
▁Lakota	-14332
▁Nevada	-14333
▁Ninety	-14334
▁Senate	-14335
▁Taylor	-14336
▁Venter	-14337
▁abused	-14338
▁backed	-14339
▁banker	-14340
▁carrot	-14341
▁cliffs	-14342
▁decept	-14343
▁decomp	-14344
▁dining	-14345
▁elites	-14346
▁feared	-14347
▁fiscal	-14348
▁fungus	-14349
▁intest	-14350
▁invade	-14351
▁makeup	-14352
▁microw	-14353
▁phthal	-14354
▁poorer	-14355
▁racial	-14356
▁redund	-14357
▁slices	-14358
▁thesis	-14359
▁uncont	-14360
▁vastly	-14361
▁weekly	-14362
ceptible	-14363
▁Command	-14364
▁Katrina	-14365
▁Lesters	-14366
▁Mediter	-14367
▁Millenn	-14368
▁Somehow	-14369
▁Station	-14370
▁Virtual	-14371
▁abusive	-14372
▁aerodyn	-14373
▁battles	-14374
▁cafeter	-14375
▁categor	-14376
▁compact	-14377
▁crashed	-14378
▁crosses	-14379
▁excuses	-14380
▁exhaust	-14381
▁flipped	-14382
▁invaded	-14383
▁lasting	-14384
▁lithium	-14385
▁mineral	-14386
▁miracul	-14387
▁modular	-14388
▁outward	-14389
▁payload	-14390
▁plotted	-14391
▁rightly	-14392
▁seroton	-14393
▁strains	-14394
▁trailer	-14395
▁tribute	-14396
▁unthink	-14397
▁vicious	-14398
▁virtues	-14399
▁Anything	-14400
▁Colombia	-14401
▁Giussani	-14402
▁Intellig	-14403
▁Iranians	-14404
▁Marshall	-14405
▁Moreover	-14406
▁Movember	-14407
▁Pentagon	-14408
▁agnostic	-14409
▁alarming	-14410
▁ancestry	-14411
▁atrazine	-14412
▁catalyst	-14413
▁charcoal	-14414
▁coherent	-14415
▁contacts	-14416
▁depended	-14417
▁doodling	-14418
▁estrogen	-14419
▁explorer	-14420
▁foraging	-14421
▁frequent	-14422
▁genomics	-14423
▁husbands	-14424
▁improves	-14425
▁insecure	-14426
▁matching	-14427
▁meantime	-14428
▁notation	-14429
▁offshore	-14430
▁periodic	-14431
▁policing	-14432
▁protects	-14433
▁protests	-14434
▁quantity	-14435
▁realizes	-14436
▁reminder	-14437
▁reporter	-14438
▁richness	-14439
▁rigorous	-14440
▁searches	-14441
▁steering	-14442
▁terminal	-14443
▁trusting	-14444
▁underway	-14445
industrial	-14446
▁Brilliant	-14447
▁Enceladus	-14448
▁attribute	-14449
▁civilians	-14450
▁digitally	-14451
▁energetic	-14452
▁followers	-14453
▁hilarious	-14454
▁hurricane	-14455
▁legendary	-14456
▁messaging	-14457
▁pediatric	-14458
▁personnel	-14459
▁promotion	-14460
▁reconnect	-14461
▁recruited	-14462
▁spaceship	-14463
▁stabilize	-14464
▁strangely	-14465
▁stretched	-14466
▁thylacine	-14467
▁viewpoint	-14468
▁whistling	-14469
▁Commission	-14470
▁aspiration	-14471
▁automotive	-14472
▁beekeepers	-14473
▁calculator	-14474
▁caregivers	-14475
▁centimeter	-14476
▁devastated	-14477
▁eliminated	-14478
▁fingertips	-14479
▁footprints	-14480
▁outrageous	-14481
▁overweight	-14482
▁perceptual	-14483
▁telephones	-14484
▁translates	-14485
▁anticipated	-14486
▁backgrounds	-14487
▁commercials	-14488
▁constrained	-14489
▁fingerprint	-14490
▁immortality	-14491
▁implication	-14492
▁incorporate	-14493
▁integrating	-14494
▁involvement	-14495
▁lightweight	-14496
▁manipulated	-14497
▁measurement	-14498
▁methodology	-14499
▁permanently	-14500
▁pollinators	-14501
▁progressive	-14502
▁variability	-14503
▁visualizing	-14504
▁acknowledged	-14505
▁announcement	-14506
▁conditioning	-14507
▁performances	-14508
▁standardized	-14509
▁Mediterranean	-14510
▁corresponding	-14511
▁determination	-14512
▁participatory	-14513
▁presentations	-14514
▁internationally	-14515
▁neuroscientists	-14516
Of	-14517
ju	-14518
MED	-14519
Our	-14520
abe	-14521
cia	-14522
cor	-14523
hel	-14524
hou	-14525
iro	-14526
iry	-14527
oko	-14528
pen	-14529
pop	-14530
rah	-14531
rik	-14532
uns	-14533
uri	-14534
urp	-14535
▁54	-14536
▁58	-14537
▁AV	-14538
▁DD	-14539
▁RG	-14540
▁ft	-14541
Stop	-14542
Wait	-14543
Your	-14544
apel	-14545
atma	-14546
bule	-14547
cils	-14548
gath	-14549
gery	-14550
hole	-14551
ieth	-14552
insp	-14553
kill	-14554
nels	-14555
olia	-14556
onte	-14557
opol	-14558
opsy	-14559
oura	-14560
quez	-14561
rost	-14562
type	-14563
uced	-14564
▁11-	-14565
▁99.	-14566
▁Ali	-14567
▁Bio	-14568
▁Bir	-14569
▁CNN	-14570
▁Daw	-14571
▁Dou	-14572
▁Gay	-14573
▁Hur	-14574
▁IDE	-14575
▁Ill	-14576
▁Imp	-14577
▁McG	-14578
▁Neg	-14579
▁Pay	-14580
▁Ple	-14581
▁Scr	-14582
▁Sho	-14583
▁blo	-14584
▁huh	-14585
▁mun	-14586
▁rud	-14587
▁sha	-14588
▁une	-14589
PTCHA	-14590
agina	-14591
akery	-14592
arity	-14593
eland	-14594
icken	-14595
igate	-14596
ihood	-14597
isive	-14598
lived	-14599
named	-14600
oshop	-14601
pable	-14602
stood	-14603
uropa	-14604
▁2003	-14605
▁2009	-14606
▁Balt	-14607
▁Bart	-14608
▁Best	-14609
▁Coch	-14610
▁Evan	-14611
▁Find	-14612
▁Form	-14613
▁Grey	-14614
▁Hand	-14615
▁Jess	-14616
▁Kind	-14617
▁Marx	-14618
▁Much	-14619
▁Near	-14620
▁Noah	-14621
▁Page	-14622
▁Save	-14623
▁Sony	-14624
▁Stef	-14625
▁Trad	-14626
▁aged	-14627
▁anom	-14628
▁boil	-14629
▁cane	-14630
▁clap	-14631
▁dazz	-14632
▁deer	-14633
▁dove	-14634
▁encl	-14635
▁flaw	-14636
▁fuse	-14637
▁geek	-14638
▁goss	-14639
▁hect	-14640
▁hind	-14641
▁hood	-14642
▁horn	-14643
▁pist	-14644
▁rear	-14645
▁ripp	-14646
agging	-14647
agraph	-14648
arring	-14649
atized	-14650
belief	-14651
degree	-14652
govern	-14653
icides	-14654
liance	-14655
ogging	-14656
[...]
