<unk>	0
<s>	0
</s>	0
▁,	-2.92958
▁.	-3.16568
s	-3.64409
▁the	-3.90895
;	-4.07723
▁&	-4.08045
▁and	-4.39011
▁in	-4.43551
▁	-4.48737
▁to	-4.53403
n	-4.54486
▁und	-4.5549
apos	-4.56667
▁die	-4.57936
▁of	-4.65289
▁a	-4.66136
en	-4.7153
▁that	-4.87813
▁I	-4.9806
▁it	-5.0552
▁das	-5.05688
quot	-5.08374
▁der	-5.08456
y	-5.11596
▁ich	-5.12451
▁you	-5.13791
▁we	-5.19394
t	-5.21172
▁is	-5.22054
▁ist	-5.22429
▁wir	-5.25062
▁es	-5.27636
▁zu	-5.33067
▁so	-5.33824
ing	-5.36255
ed	-5.41471
▁sie	-5.43291
▁was	-5.46781
e	-5.48664
▁this	-5.50137
-	-5.55661
▁?	-5.61042
▁:	-5.63449
▁ein	-5.64966
d	-5.66136
▁eine	-5.69982
▁an	-5.73809
ly	-5.75262
▁nicht	-5.82195
▁von	-5.82438
▁--	-5.84925
m	-5.8698
▁den	-5.90701
▁dass	-5.9171
▁mit	-5.99229
▁for	-5.99531
▁diese	-6.00818
▁auf	-6.04507
▁are	-6.08081
▁wie	-6.08464
▁have	-6.10675
▁what	-6.11615
▁Sie	-6.12865
▁on	-6.145
▁but	-6.15112
▁with	-6.15346
▁be	-6.15876
▁man	-6.18678
▁can	-6.24362
▁sich	-6.24674
re	-6.25598
▁war	-6.26242
▁all	-6.26842
er	-6.28649
▁sind	-6.28701
▁aber	-6.30564
▁für	-6.30937
▁haben	-6.33567
▁wenn	-6.35109
▁about	-6.35403
▁there	-6.38175
▁also	-6.41087
▁als	-6.41456
r	-6.46868
▁er	-6.47579
▁do	-6.48072
▁at	-6.48172
▁not	-6.4932
▁um	-6.49832
▁one	-6.50989
▁im	-6.56312
▁as	-6.59844
▁my	-6.59939
▁like	-6.60048
▁people	-6.62051
▁-	-6.6497
▁from	-6.66343
▁if	-6.66644
▁dem	-6.6675
▁he	-6.67281
▁aus	-6.71626
▁now	-6.72365
▁uns	-6.74035
▁these	-6.77441
▁just	-6.79169
▁or	-6.79957
▁our	-6.8006
▁können	-6.80258
▁über	-6.80855
▁einen	-6.80882
▁oder	-6.81996
▁hier	-6.84325
▁werden	-6.84747
▁when	-6.85343
es	-6.85757
▁des	-6.85835
▁hat	-6.86726
▁because	-6.87436
▁think	-6.89335
▁know	-6.90215
▁out	-6.90962
▁how	-6.91095
▁me	-6.91502
▁get	-6.92749
▁by	-6.93902
▁auch	-6.94897
▁up	-6.95019
▁kann	-6.95632
▁einer	-6.96807
▁going	-6.97804
.	-6.99611
ve	-7.0157
▁einem	-7.01927
▁them	-7.02936
▁nur	-7.03451
▁more	-7.03761
▁see	-7.04574
▁us	-7.04947
▁dann	-7.05324
▁sehr	-7.05499
▁etwa	-7.05772
▁had	-7.0675
▁who	-7.07517
▁which	-7.08131
▁here	-7.08598
▁wird	-7.09339
very	-7.09603
▁your	-7.10238
▁some	-7.10333
▁would	-7.10471
▁Menschen	-7.12197
▁were	-7.12944
▁their	-7.13032
▁sein	-7.13576
▁nach	-7.13586
▁will	-7.13847
▁want	-7.14565
▁gibt	-7.15865
▁mich	-7.1647
▁meine	-7.19359
▁vor	-7.19405
▁look	-7.19771
▁da	-7.20462
▁go	-7.21893
▁time	-7.24201
▁has	-7.246
▁sehen	-7.26154
▁dieser	-7.26366
▁actual	-7.26431
▁world	-7.272
▁noch	-7.27247
▁other	-7.29283
▁bei	-7.304
▁habe	-7.31245
▁into	-7.32529
▁way	-7.33754
▁don	-7.34006
▁mir	-7.34504
▁could	-7.34651
▁ihre	-7.34887
▁where	-7.34912
▁no	-7.35232
▁alle	-7.36937
▁did	-7.39561
▁mehr	-7.40048
▁things	-7.40374
▁Welt	-7.40883
▁years	-7.40985
▁unsere	-7.43603
▁make	-7.4587
▁right	-7.48653
▁viele	-7.49157
▁say	-7.49481
▁am	-7.49538
um	-7.4992
▁reall	-7.51212
▁viel	-7.51434
▁durch	-7.5165
▁well	-7.51974
▁then	-7.52899
▁zum	-7.5351
▁start	-7.53562
▁every	-7.53653
▁been	-7.54107
▁weil	-7.54557
▁wurde	-7.54734
▁keine	-7.54841
▁sai	-7.55527
▁würde	-7.57034
ll	-7.57187
▁Ihnen	-7.57357
▁she	-7.57391
▁something	-7.57695
▁machen	-7.58489
▁wirklich	-7.5872
in	-7.5876
▁first	-7.59288
▁two	-7.59571
▁ihn	-7.61245
▁immer	-7.61756
▁wo	-7.62024
▁T	-7.62706
▁those	-7.62803
st	-7.62955
▁nun	-7.6377
▁over	-7.64394
▁much	-7.64811
▁call	-7.65085
▁kind	-7.65457
▁than	-7.65728
▁andere	-7.66149
▁got	-7.66318
▁thing	-7.67163
▁take	-7.67368
▁need	-7.67492
▁tun	-7.67704
a	-7.67946
▁little	-7.68049
▁ihr	-7.68474
▁back	-7.69262
▁come	-7.69931
▁his	-7.70246
▁most	-7.70579
▁jetzt	-7.70754
▁real	-7.70936
▁talk	-7.72169
▁TED	-7.72659
▁work	-7.73019
▁her	-7.73651
▁sagte	-7.73784
▁Dinge	-7.74002
▁hatte	-7.74501
▁ver	-7.74671
▁Zeit	-7.76235
▁bis	-7.76848
▁life	-7.76938
▁wissen	-7.78092
▁only	-7.79271
▁even	-7.79616
al	-7.79889
▁Leben	-7.80639
▁zwei	-7.80779
▁Leute	-7.8078
▁einfach	-7.80989
l	-7.82754
▁new	-7.83932
▁good	-7.85262
▁müssen	-7.86418
▁lot	-7.86914
▁many	-7.87148
▁sagen	-7.87335
▁does	-7.88104
▁du	-7.88367
▁different	-7.88739
▁bin	-7.89385
▁Art	-7.90806
▁through	-7.91231
▁;	-7.91282
▁Jahren	-7.92216
be	-7.92285
▁waren	-7.92879
around	-7.92925
▁denn	-7.93046
▁why	-7.9319
te	-7.9347
▁change	-7.93486
▁alles	-7.94507
▁mein	-7.94984
▁diesen	-7.95008
▁down	-7.95229
▁let	-7.95643
▁seine	-7.95756
▁damit	-7.96511
▁gut	-7.97553
ies	-7.98261
h	-7.98344
▁anderen	-7.99578
▁give	-7.99957
▁may	-8.00177
▁selbst	-8.00302
▁vielleicht	-8.00366
▁use	-8.00434
▁zur	-8.00734
▁any	-8.01156
▁un	-8.0153
day	-8.01773
▁ob	-8.02444
▁show	-8.02614
▁being	-8.03446
▁same	-8.03629
▁ganz	-8.04196
▁put	-8.05463
▁try	-8.05487
▁Jahre	-8.06489
▁wieder	-8.06758
▁geht	-8.07543
▁three	-8.07562
▁great	-8.08035
o	-8.08918
▁doing	-8.11294
▁tell	-8.11441
ung	-8.12641
ten	-8.13142
▁muss	-8.13146
▁einige	-8.14372
▁kleine	-8.1509
▁ge	-8.15445
▁part	-8.15806
▁10	-8.16112
▁schon	-8.16702
k	-8.1741
▁20	-8.17692
▁day	-8.18873
▁Talk	-8.19406
▁human	-8.19407
▁möchte	-8.19637
▁ab	-8.20812
▁konnte	-8.21452
▁Kinder	-8.21945
▁percent	-8.22013
▁A	-8.22419
▁tatsächlich	-8.22477
heute	-8.22949
tles	-8.22993
ranscript	-8.23273
▁Subti	-8.23714
▁find	-8.24013
▁after	-8.24076
▁made	-8.24094
▁fact	-8.24552
▁Geschichte	-8.25221
▁ja	-8.25965
▁davon	-8.26608
▁welche	-8.27423
▁drei	-8.27552
▁year	-8.2811
▁thank	-8.28402
▁own	-8.28695
S	-8.29405
▁should	-8.29454
▁turn	-8.2947
▁genau	-8.29527
▁dort	-8.29842
▁idea	-8.29927
▁happen	-8.30089
▁unter	-8.30371
other	-8.30524
▁Ihre	-8.31707
▁ask	-8.32072
▁könnte	-8.32438
▁last	-8.32907
▁zurück	-8.33181
w	-8.33721
▁create	-8.34427
▁thought	-8.34564
▁end	-8.34691
us	-8.35543
▁hatten	-8.36352
▁important	-8.36442
▁big	-8.36671
▁kein	-8.36793
▁S	-8.36841
▁him	-8.37137
▁darüber	-8.37381
dem	-8.37487
▁Jahr	-8.38006
▁before	-8.38299
▁B	-8.39208
▁werde	-8.39383
▁course	-8.39719
▁wollen	-8.40025
▁design	-8.40026
▁again	-8.40264
g	-8.4032
▁paar	-8.40351
body	-8.40445
▁gehen	-8.40617
▁Problem	-8.40749
▁live	-8.41103
▁ganze	-8.41403
▁bit	-8.41668
▁problem	-8.41865
▁gab	-8.41959
on	-8.42302
▁never	-8.4253
▁je	-8.42615
c	-8.42783
▁denken	-8.42786
▁point	-8.43043
▁might	-8.43154
▁meiner	-8.43358
▁still	-8.43474
▁better	-8.43594
▁help	-8.43982
▁weiter	-8.4408
▁neue	-8.44471
▁love	-8.44576
▁wollte	-8.44777
ion	-8.44907
▁wurden	-8.45017
i	-8.45207
▁brain	-8.45236
▁lassen	-8.45512
▁story	-8.45869
▁nie	-8.45968
▁off	-8.46037
ally	-8.4652
▁weiß	-8.47091
▁...	-8.471
▁Beispiel	-8.4712
▁sondern	-8.47235
▁million	-8.47571
▁sort	-8.47823
▁system	-8.47854
▁next	-8.47949
▁natürlich	-8.47963
▁dazu	-8.47972
▁jeder	-8.48141
▁während	-8.48668
▁place	-8.48711
▁few	-8.49031
▁able	-8.49153
▁Teil	-8.49529
▁play	-8.49963
▁doch	-8.50147
▁each	-8.50227
▁mean	-8.50337
▁unserer	-8.50445
▁ago	-8.50494
▁water	-8.50685
ther	-8.50772
▁long	-8.50881
▁wäre	-8.51066
▁zusammen	-8.5112
▁vom	-8.51491
ic	-8.5168
▁macht	-8.52436
▁unser	-8.52475
▁sogar	-8.52703
▁together	-8.52733
went	-8.53472
▁technology	-8.53904
▁große	-8.54103
an	-8.54468
▁learn	-8.54573
▁kommen	-8.55185
▁denke	-8.55255
ation	-8.55455
▁kam	-8.55784
▁came	-8.56247
▁gerade	-8.56267
ge	-8.56612
b	-8.57047
▁finden	-8.57366
▁ersten	-8.57493
▁einmal	-8.57556
▁question	-8.57938
▁ohne	-8.57951
▁zwischen	-8.58232
▁gemacht	-8.58649
▁found	-8.59173
▁eigene	-8.59296
▁E	-8.597
▁Wasser	-8.59723
▁between	-8.59833
▁ging	-8.59843
▁Tag	-8.60075
▁Frage	-8.60392
ok	-8.60433
▁dafür	-8.60536
f	-8.60671
▁data	-8.60672
▁Arbeit	-8.61135
▁geben	-8.61283
▁Internet	-8.61349
de	-8.61477
able	-8.61565
▁New	-8.61618
▁glaube	-8.61636
▁jede	-8.61677
▁used	-8.61903
▁kommt	-8.61964
▁example	-8.61964
▁women	-8.62113
▁believe	-8.62245
or	-8.62392
ting	-8.62406
ity	-8.62448
▁okay	-8.62519
▁second	-8.62592
▁erste	-8.62652
▁too	-8.6295
▁per	-8.63048
▁Frauen	-8.63582
▁become	-8.63619
▁mal	-8.63801
▁zeigen	-8.64118
▁sagt	-8.65269
▁done	-8.65434
th	-8.65604
▁understand	-8.65975
▁passiert	-8.66539
▁light	-8.67332
▁Prozent	-8.67494
le	-8.6799
▁Land	-8.68505
▁30	-8.68929
▁verstehen	-8.69167
▁meisten	-8.69312
▁whole	-8.69722
▁sollte	-8.70334
▁four	-8.70358
▁50	-8.70616
▁school	-8.7071
▁jemand	-8.70737
▁daran	-8.7119
▁U	-8.72212
▁dabei	-8.72619
▁working	-8.72625
▁Millionen	-8.72644
▁re	-8.72725
▁person	-8.72809
▁besser	-8.7317
▁ever	-8.73485
▁Gehirn	-8.73705
▁dachte	-8.73775
▁always	-8.74183
▁building	-8.74361
▁children	-8.74451
▁nehmen	-8.74485
▁fast	-8.74986
▁Idee	-8.75139
z	-8.75404
▁power	-8.75416
▁Mal	-8.756
▁G	-8.75996
▁sollten	-8.76054
▁Daten	-8.76305
▁feel	-8.76379
▁wichtig	-8.77044
▁letzten	-8.77321
▁reason	-8.77702
▁Bild	-8.78069
▁könnten	-8.78103
▁everything	-8.78464
▁ziemlich	-8.78672
▁five	-8.78779
u	-8.78986
▁away	-8.79182
▁Geld	-8.792
▁small	-8.79605
▁möglich	-8.79697
▁stellen	-8.79738
▁darauf	-8.79869
▁Weg	-8.79938
▁kids	-8.80237
▁country	-8.80506
▁basic	-8.8065
▁leben	-8.81091
▁number	-8.81753
▁picture	-8.81852
▁high	-8.81897
▁sprechen	-8.82059
ie	-8.82092
▁al	-8.82241
▁100	-8.82251
▁experience	-8.82849
▁information	-8.83418
▁eigentlich	-8.83485
▁bekommen	-8.83575
▁Ende	-8.84146
▁OK	-8.84256
▁ihrer	-8.84261
▁home	-8.84336
▁C	-8.84548
▁space	-8.84715
▁old	-8.8523
▁open	-8.85489
▁verschiedene	-8.85652
ld	-8.85829
▁heraus	-8.8611
▁project	-8.86319
▁pro	-8.86393
▁arbeiten	-8.8641
▁food	-8.86682
making	-8.86806
den	-8.87013
▁money	-8.87086
91	-8.87193
▁seit	-8.87324
D	-8.87513
▁200	-8.87548
▁half	-8.88015
▁means	-8.88067
▁best	-8.88222
▁hin	-8.88464
▁Grund	-8.88508
▁meinen	-8.88706
▁D	-8.888
▁K	-8.88846
▁moment	-8.88943
▁car	-8.89286
▁case	-8.89347
▁vier	-8.89516
▁hand	-8.89561
▁interesting	-8.89575
▁left	-8.89615
ever	-8.89873
▁sense	-8.90071
▁future	-8.90237
▁global	-8.90261
93;	-8.90472
▁Raum	-8.90575
▁health	-8.90864
ers	-8.90876
el	-8.90943
▁Technologie	-8.90969
as	-8.90974
▁weniger	-8.91136
▁15	-8.91406
quite	-8.91815
▁China	-8.9221
▁enough	-8.92529
▁Dollar	-8.92781
ce	-8.92809
sten	-8.92867
ch	-8.93039
▁hard	-8.93454
▁Information	-8.93706
▁bedeutet	-8.93777
▁probabl	-8.93896
▁move	-8.93899
▁develop	-8.94215
▁normal	-8.94795
em	-8.9515
▁Sache	-8.95154
▁danke	-8.95318
▁begann	-8.9547
▁stand	-8.95834
▁zeigt	-8.95837
▁ihm	-8.95942
▁energy	-8.9596
ness	-8.96203
▁Dank	-8.96226
▁social	-8.96307
▁musste	-8.96526
est	-8.97072
▁large	-8.9714
▁richtig	-8.97686
schen	-8.97844
▁simple	-8.97946
▁stuff	-8.97946
▁Oh	-8.97957
▁without	-8.97967
▁less	-8.9798
▁Mann	-8.98148
erweise	-8.98239
▁bringen	-8.98306
▁build	-8.98578
ment	-8.98641
▁such	-8.98869
▁science	-8.98895
▁gesehen	-8.99027
ä	-8.99273
▁group	-8.99407
▁Weise	-8.99483
▁Africa	-8.99611
▁Möglichkeit	-8.99905
▁brauchen	-9.00298
▁bring	-9.00382
▁imagine	-9.00512
▁unseren	-9.00601
▁business	-9.00769
▁process	-9.0096
▁Seite	-9.01227
▁sicher	-9.01271
▁Computer	-9.01331
ork	-9.01343
ht	-9.01565
to	-9.01638
▁keep	-9.0164
one	-9.0195
▁prett	-9.01992
▁else	-9.02256
zu	-9.02311
▁jedes	-9.02375
▁room	-9.02425
ig	-9.02906
▁grow	-9.03266
▁coming	-9.0332
▁anything	-9.03496
ern	-9.03725
▁beide	-9.03734
▁lange	-9.03735
▁heiß	-9.03921
▁piece	-9.04065
▁The	-9.04075
▁jeden	-9.04121
▁sei	-9.04124
▁student	-9.04428
A	-9.0451
▁beim	-9.0459
der	-9.04667
▁allow	-9.04766
▁versuchen	-9.05125
▁dollars	-9.05163
▁Zukunft	-9.05204
▁body	-9.05457
ü	-9.05483
▁R	-9.05546
▁side	-9.05765
▁Frau	-9.05854
▁später	-9.06059
▁Körper	-9.06121
▁wenig	-9.06288
▁H	-9.06306
▁countries	-9.06574
▁gegen	-9.06646
▁line	-9.06767
▁wer	-9.06805
▁bad	-9.06966
▁seem	-9.07153
▁System	-9.07205
▁großen	-9.07212
▁hätte	-9.07454
▁gleich	-9.07703
▁Menge	-9.07732
ver	-9.07734
▁glauben	-9.07825
▁across	-9.07963
▁Ver	-9.0813
▁face	-9.08137
▁form	-9.08385
▁once	-9.08594
▁billion	-9.08639
▁lernen	-9.08921
▁far	-9.08969
▁gute	-9.09133
▁government	-9.09491
▁set	-9.09617
▁lives	-9.09706
▁hav	-9.09899
ste	-9.10063
▁close	-9.1007
wohl	-9.1034
▁computer	-9.10437
▁gesagt	-9.1045
▁living	-9.10513
▁later	-9.10677
▁test	-9.10769
▁fünf	-9.108
la	-9.10956
▁saw	-9.10999
▁yet	-9.1109
▁funktioniert	-9.11428
▁weg	-9.11469
▁Energie	-9.11779
▁Stadt	-9.11781
▁Person	-9.11801
▁wahrscheinlich	-9.11986
▁remember	-9.12055
▁Ort	-9.12259
▁answer	-9.12261
▁40	-9.12382
▁particular	-9.12738
▁while	-9.12812
▁lang	-9.12815
▁care	-9.12882
▁language	-9.13227
▁times	-9.13309
▁Erde	-9.138
▁mind	-9.13814
p	-9.13939
▁b	-9.14004
▁M	-9.14195
▁Kind	-9.14514
▁book	-9.14662
▁Probleme	-9.14747
▁makes	-9.14758
▁Ihr	-9.14933
ur	-9.15052
▁six	-9.15095
ar	-9.15202
▁nein	-9.15322
lich	-9.15521
▁schnell	-9.15531
▁seiner	-9.15676
▁schaffen	-9.15677
mals	-9.15701
▁young	-9.15842
▁Männer	-9.16119
▁inside	-9.16227
▁einzige	-9.16232
K	-9.16403
▁thousand	-9.16639
▁watch	-9.16651
einander	-9.16651
▁Moment	-9.16878
▁family	-9.17136
▁top	-9.17154
B	-9.17264
▁single	-9.17653
▁Earth	-9.17854
▁almost	-9.17854
▁nichts	-9.17961
▁happens	-9.17979
▁F	-9.18036
til	-9.18223
▁Fall	-9.1856
▁ra	-9.187
▁both	-9.18731
▁walk	-9.18877
▁whe	-9.18961
▁Licht	-9.19002
▁sure	-9.19105
▁interest	-9.19336
sch	-9.19383
▁American	-9.19437
▁certain	-9.19514
ieren	-9.19768
▁Natur	-9.19847
▁planet	-9.1985
▁video	-9.1998
▁anders	-9.20036
▁level	-9.20055
▁Be	-9.20131
▁helfen	-9.20401
▁nothing	-9.20569
▁seen	-9.20616
▁guy	-9.21143
▁nutzen	-9.21197
▁under	-9.21357
▁Buch	-9.21656
▁problems	-9.21769
▁study	-9.22058
it	-9.22198
▁land	-9.22198
▁men	-9.22229
▁schauen	-9.22257
▁erzählen	-9.22621
▁Mutter	-9.22705
▁hope	-9.22749
▁realize	-9.22813
▁wrong	-9.23029
▁entwickelt	-9.23156
▁matter	-9.23237
▁possible	-9.23347
▁figure	-9.23362
ready	-9.23465
▁ungefähr	-9.23573
▁An	-9.23689
▁share	-9.2388
▁cancer	-9.23921
▁Hand	-9.23959
▁P	-9.2414
▁exact	-9.24229
▁final	-9.24242
2	-9.24308
▁read	-9.24328
▁neuen	-9.24615
▁child	-9.24634
▁amazing	-9.24779
▁ideas	-9.25014
▁days	-9.25034
ro	-9.25103
▁history	-9.2511
▁true	-9.25134
▁run	-9.25384
▁music	-9.25585
▁DNA	-9.25803
▁saying	-9.25839
▁USA	-9.25893
▁sah	-9.25897
▁beautiful	-9.26
▁Lebens	-9.26012
ter	-9.26015
▁disease	-9.26447
▁control	-9.26523
▁head	-9.26609
▁city	-9.26767
▁State	-9.26795
▁self	-9.26869
▁Bilder	-9.26887
▁genug	-9.27236
▁age	-9.27263
▁someone	-9.27456
▁ways	-9.2794
chmal	-9.28006
▁nächsten	-9.28278
▁Projekt	-9.2833
▁order	-9.28637
▁hoch	-9.28741
▁universe	-9.28814
▁public	-9.28841
▁Ideen	-9.28944
▁couple	-9.29408
▁überall	-9.29786
▁erst	-9.30288
▁market	-9.30334
▁often	-9.30482
▁patient	-9.30706
▁kennen	-9.3074
▁3	-9.30758
▁klar	-9.30764
▁art	-9.30781
▁gehört	-9.30789
man	-9.3084
▁since	-9.30922
▁bauen	-9.30926
▁de	-9.30935
▁stop	-9.31099
▁heard	-9.31279
5	-9.31421
▁2	-9.31572
▁solche	-9.31707
▁stories	-9.31986
▁looked	-9.32277
▁L	-9.3242
▁myself	-9.32526
▁instead	-9.32815
▁Schule	-9.32947
rum	-9.33031
▁Ich	-9.33099
▁liegt	-9.33207
▁built	-9.33328
▁Design	-9.33381
ra	-9.33436
▁weit	-9.33533
▁sometimes	-9.33546
▁Planeten	-9.33568
▁Afrika	-9.33585
▁Punkt	-9.33623
▁verändern	-9.33665
▁c	-9.33683
▁individual	-9.33776
▁bevor	-9.33864
ist	-9.33984
▁Form	-9.34098
▁follow	-9.34139
▁community	-9.34236
▁Fähigkeit	-9.3426
▁nature	-9.34282
▁issue	-9.34387
land	-9.34392
▁hundred	-9.34503
▁model	-9.34717
▁Wissenschaft	-9.34929
▁difference	-9.34991
▁environment	-9.35001
▁80	-9.35015
▁words	-9.35133
▁Auto	-9.35314
▁species	-9.35382
▁Augen	-9.35431
▁mov	-9.35546
▁deshalb	-9.35618
▁term	-9.35678
▁Unite	-9.35731
▁job	-9.35736
▁Erfahrung	-9.3574
▁education	-9.35765
taking	-9.35774
▁cells	-9.3583
▁besonder	-9.35838
▁word	-9.35866
▁research	-9.36064
▁niemand	-9.36099
▁60	-9.36358
▁herum	-9.36594
▁Ab	-9.36776
▁force	-9.36975
ber	-9.36994
▁nennen	-9.37146
▁game	-9.37274
▁months	-9.37292
▁bitte	-9.37352
▁entire	-9.37465
▁Antwort	-9.37532
iert	-9.37552
x	-9.37572
▁Musik	-9.37619
▁woman	-9.37643
▁12	-9.37852
▁CA	-9.37875
up	-9.38037
▁letzte	-9.38122
▁sieh	-9.3843
▁India	-9.38449
▁sound	-9.38629
ische	-9.38835
▁past	-9.38981
▁stehen	-9.39035
▁Kunst	-9.39451
P	-9.39533
▁America	-9.39695
▁natural	-9.3971
▁spend	-9.39775
▁braucht	-9.39943
▁completely	-9.3999
▁gleiche	-9.40056
▁reden	-9.401
▁Gebäude	-9.40278
▁Milliarden	-9.405
▁name	-9.40537
ou	-9.40566
▁Fragen	-9.40582
▁Spiel	-9.40618
▁sechs	-9.40905
▁quick	-9.41035
▁alt	-9.41035
▁hören	-9.41454
▁Mädchen	-9.41685
▁Film	-9.41766
▁nächste	-9.41814
▁hear	-9.41928
▁spielen	-9.42192
▁house	-9.42337
▁heart	-9.42572
came	-9.42658
▁25	-9.42687
▁decided	-9.4275
▁gar	-9.42843
▁euch	-9.43267
ive	-9.43327
▁Leuten	-9.43363
▁huge	-9.43421
▁Google	-9.43531
▁though	-9.43542
▁Re	-9.43559
▁Lösung	-9.43695
▁yes	-9.43751
amp	-9.4386
▁night	-9.43946
▁Geschichten	-9.43947
▁Arten	-9.44097
▁animals	-9.44235
▁God	-9.44341
▁friends	-9.44364
▁halten	-9.44455
▁itself	-9.44561
▁darin	-9.44589
▁bereits	-9.44881
▁Kopf	-9.44954
▁soziale	-9.44976
M	-9.44993
is	-9.45139
▁clear	-9.45143
▁Indien	-9.45179
7	-9.4564
▁steht	-9.4564
▁pay	-9.4567
▁leave	-9.45683
▁Haus	-9.45723
▁benutzen	-9.45826
▁O	-9.45878
▁Minuten	-9.45918
▁ourselves	-9.45962
ol	-9.46122
3	-9.46205
▁happening	-9.4636
▁must	-9.46572
▁plant	-9.46631
▁schwer	-9.46685
▁unglaublich	-9.47107
▁experiment	-9.47264
▁erreichen	-9.47491
▁along	-9.47588
▁kurz	-9.47758
▁machte	-9.4779
▁hätten	-9.4781
▁places	-9.47984
▁third	-9.47989
▁Gesellschaft	-9.48114
▁fragen	-9.48145
▁themselves	-9.48167
▁Z	-9.48213
▁oben	-9.48236
▁kne	-9.48384
▁weitere	-9.48394
▁society	-9.48463
▁dich	-9.48524
▁minutes	-9.48563
▁erkennen	-9.4864
▁mother	-9.48793
▁namens	-9.48893
▁front	-9.48914
▁program	-9.48982
▁company	-9.49
ance	-9.49005
▁Familie	-9.49108
R	-9.4936
gen	-9.49401
▁cool	-9.49465
▁stellt	-9.49559
▁Gefühl	-9.49646
lt	-9.49666
▁Freunde	-9.4967
▁Sprache	-9.49708
ability	-9.49721
▁discover	-9.49923
▁works	-9.49984
nach	-9.49997
heit	-9.50002
▁free	-9.50129
▁machine	-9.50398
ri	-9.50761
▁state	-9.50782
▁object	-9.5098
F	-9.50999
▁innerhalb	-9.51276
▁18	-9.51354
▁bigge	-9.51412
▁Unternehmen	-9.51438
▁focus	-9.51446
▁paper	-9.51563
haps	-9.51582
▁buy	-9.51709
▁soll	-9.52309
ö	-9.52534
▁Vater	-9.52724
dessen	-9.52765
▁irgendwie	-9.5287
▁J	-9.53164
▁cell	-9.53192
▁hours	-9.53242
li	-9.53258
▁audience	-9.53323
▁Krankheit	-9.53329
▁Gruppe	-9.5334
▁teacher	-9.53462
4	-9.53561
▁questions	-9.53634
▁local	-9.5375
▁cause	-9.53904
▁versucht	-9.5402
C	-9.54141
▁seven	-9.54175
ta	-9.54199
▁wahr	-9.5424
▁p	-9.54249
▁listen	-9.54315
▁team	-9.5439
▁learning	-9.54427
▁absolute	-9.54435
▁Entwicklung	-9.54564
geben	-9.54647
▁einzelne	-9.54651
▁menschliche	-9.54803
▁air	-9.54808
▁guys	-9.54871
▁gesamte	-9.55005
less	-9.55063
▁base	-9.55168
▁Chris	-9.55234
▁statt	-9.55304
▁entwickeln	-9.55384
▁oil	-9.55456
▁na	-9.55518
▁least	-9.55534
▁Wort	-9.55547
▁early	-9.55583
▁neu	-9.55717
eher	-9.55724
▁90	-9.55763
ja	-9.55821
▁difficult	-9.55985
▁happy	-9.55985
▁color	-9.56025
▁explain	-9.56136
8	-9.56235
▁short	-9.56279
▁HIV	-9.56438
▁Angst	-9.56447
▁Gott	-9.56626
▁worked	-9.56664
ant	-9.56943
▁Video	-9.57047
▁poor	-9.57062
chen	-9.57106
▁yea	-9.57242
▁vorstellen	-9.57243
▁daher	-9.57264
▁Roboter	-9.57409
▁Hause	-9.57431
▁schön	-9.57645
▁fest	-9.57676
▁structure	-9.57689
▁Macht	-9.57742
▁z	-9.57798
▁beginnen	-9.5782
ab	-9.57904
age	-9.57961
▁common	-9.57964
▁outside	-9.58004
▁obvious	-9.58118
▁deal	-9.58174
▁verändert	-9.5831
isch	-9.58461
▁bewegen	-9.58518
▁death	-9.58586
▁interessant	-9.58663
▁Dr	-9.58669
▁Ein	-9.58794
9	-9.58895
ischen	-9.58954
▁Stunden	-9.59015
▁erhalten	-9.59038
▁Verbindung	-9.59077
▁view	-9.59094
▁amount	-9.59402
mal	-9.59514
▁dar	-9.59614
▁wonderful	-9.59673
▁full	-9.59864
ämlich	-9.59982
▁Eltern	-9.60124
▁won	-9.60354
▁gav	-9.60466
▁modern	-9.60557
▁pick	-9.60817
▁David	-9.60944
T	-9.61117
either	-9.61503
▁Vorstellung	-9.61565
▁Glück	-9.61728
▁Luft	-9.61884
▁culture	-9.6205
▁ändern	-9.62056
ha	-9.62136
gehen	-9.62183
▁black	-9.62204
▁act	-9.62363
zustellen	-9.62456
▁damals	-9.62485
▁exist	-9.62568
▁powerful	-9.62696
▁manche	-9.6271
E	-9.62735
▁fragte	-9.62806
▁nahm	-9.62838
▁sage	-9.62859
▁produce	-9.62881
▁scale	-9.62996
▁g	-9.63219
▁behind	-9.63245
▁ent	-9.63246
▁drive	-9.63287
▁Patienten	-9.63366
▁pattern	-9.63518
▁Regierung	-9.6354
▁fish	-9.63569
il	-9.63648
▁during	-9.63661
▁verwenden	-9.63742
nimmt	-9.63765
▁Sachen	-9.63878
▁image	-9.63895
▁online	-9.63924
▁personal	-9.64057
▁area	-9.64137
▁Al	-9.6417
▁systems	-9.64183
▁send	-9.64296
N	-9.6441
▁menschlichen	-9.64413
▁falsch	-9.64454
▁cost	-9.64629
ous	-9.64715
▁Krebs	-9.64771
▁middle	-9.64803
▁Lehrer	-9.64981
▁einigen	-9.65004
▁Stück	-9.65107
▁Vor	-9.65132
▁century	-9.65284
▁unterschiedlich	-9.65298
keit	-9.6536
▁eight	-9.6543
▁wait	-9.65465
▁aller	-9.65557
▁Universum	-9.65668
▁beginning	-9.65816
▁rest	-9.65844
▁riesige	-9.65892
ry	-9.65984
00	-9.65992
▁support	-9.66128
▁besten	-9.66279
▁hinter	-9.66372
▁population	-9.66427
▁news	-9.66429
▁Sinn	-9.66448
▁fand	-9.66471
▁Beziehung	-9.6649
▁Kindern	-9.66819
▁11	-9.67037
▁überhaupt	-9.67142
▁groß	-9.67167
▁economic	-9.6727
ate	-9.67307
▁70	-9.67437
at	-9.6758
▁getan	-9.67835
▁began	-9.67959
▁führen	-9.67974
▁ocean	-9.68055
▁notice	-9.68059
▁media	-9.68224
so	-9.68265
old	-9.6827
▁easy	-9.68321
▁Du	-9.6843
ik	-9.68446
▁Länder	-9.68452
doch	-9.68477
▁total	-9.68512
▁eyes	-9.68535
▁Mo	-9.68628
▁perfect	-9.68662
out	-9.68741
▁shows	-9.68764
▁size	-9.68883
▁Ziel	-9.68944
▁N	-9.69079
▁friend	-9.69109
▁extreme	-9.69196
▁feeling	-9.69333
year	-9.69383
▁heut	-9.69602
▁dir	-9.69648
▁choice	-9.69694
▁doctor	-9.69694
▁begin	-9.69706
▁zwa	-9.70037
▁physical	-9.7004
ma	-9.70394
▁eat	-9.70403
▁lots	-9.70446
ir	-9.70612
fangen	-9.70639
▁Lage	-9.70692
▁yourself	-9.70798
ul	-9.70917
▁W	-9.71071
bar	-9.7108
▁Wirtschaft	-9.71113
▁Vortrag	-9.71136
▁La	-9.71226
▁Er	-9.71227
▁auszu	-9.71257
▁hands	-9.71287
her	-9.71297
▁tut	-9.71373
▁wohl	-9.71391
▁führt	-9.71523
▁treffen	-9.71541
▁present	-9.71624
▁1	-9.71707
▁Publikum	-9.71815
▁value	-9.72071
▁liebe	-9.72078
▁Regel	-9.72197
▁deine	-9.72214
▁Tiere	-9.72222
▁Well	-9.72238
▁John	-9.7231
▁father	-9.72323
▁rate	-9.72428
▁taken	-9.72429
gebracht	-9.72528
▁film	-9.72632
▁add	-9.7266
▁Herausforderung	-9.72677
▁Anfang	-9.72682
ut	-9.7329
H	-9.73298
▁green	-9.73324
▁major	-9.73392
▁völlig	-9.73571
▁oft	-9.73754
▁Hilfe	-9.73931
▁Wissenschaftler	-9.7412
▁behavior	-9.74297
mit	-9.74337
gerne	-9.74369
▁direkt	-9.74644
▁center	-9.74725
felt	-9.74815
▁falls	-9.74823
▁companies	-9.74837
▁surface	-9.74837
▁stay	-9.7484
▁save	-9.74877
▁week	-9.74882
▁blue	-9.74988
▁near	-9.75024
▁befinde	-9.75039
▁mag	-9.7504
▁treat	-9.7519
▁allem	-9.75248
erst	-9.75263
▁anzu	-9.75359
▁Liebe	-9.75386
ier	-9.75656
▁acht	-9.75671
▁positive	-9.75687
▁zweite	-9.75707
▁lässt	-9.75717
▁complex	-9.75733
▁fühlen	-9.75774
▁movement	-9.75779
▁parents	-9.75837
ß	-9.7598
against	-9.75996
▁safe	-9.75996
▁Kultur	-9.76
▁reach	-9.76033
id	-9.7608
▁seeing	-9.76208
▁longer	-9.76216
ne	-9.76286
▁World	-9.76303
▁genauso	-9.76335
▁slow	-9.76494
▁access	-9.76674
▁digital	-9.76722
▁simpl	-9.76746
schließlich	-9.76873
▁bereit	-9.76963
▁jene	-9.77022
▁Essen	-9.77037
▁los	-9.7721
▁phone	-9.77221
▁Situation	-9.77275
▁glücklich	-9.77338
▁bringt	-9.77583
zeit	-9.77643
ler	-9.77683
▁Unterschied	-9.7771
▁resource	-9.77796
▁Gemeinschaft	-9.77859
▁14	-9.77906
▁sudden	-9.7798
▁cities	-9.77985
▁unten	-9.77992
6	-9.78001
▁political	-9.78046
▁speak	-9.782
▁stage	-9.78336
▁So	-9.78346
▁tried	-9.78426
▁16	-9.78645
▁bekannt	-9.78692
▁Selbst	-9.78741
▁betrachten	-9.7883
▁Bewegung	-9.78862
▁d	-9.78876
▁erinnern	-9.78923
ungen	-9.78939
▁eben	-9.78949
▁canno	-9.79068
aught	-9.79123
▁plötzlich	-9.79303
▁challenge	-9.79331
▁anderer	-9.79555
▁wusste	-9.79573
▁red	-9.79613
▁artist	-9.79702
pe	-9.799
▁ground	-9.79948
▁record	-9.79998
where	-9.80042
credible	-9.80259
ia	-9.80329
▁Reihe	-9.80644
▁low	-9.8066
▁step	-9.80744
▁Grunde	-9.80843
▁recht	-9.8094
▁toward	-9.81033
▁wonder	-9.81042
▁condition	-9.81076
▁Markt	-9.81086
▁junge	-9.81141
▁Gedanken	-9.81159
▁reality	-9.8118
▁spen	-9.81537
▁organization	-9.81618
▁nice	-9.81682
▁Verhalten	-9.81818
▁Typ	-9.81865
ian	-9.81882
▁Krieg	-9.81949
▁Richtung	-9.82004
▁key	-9.82008
▁Tage	-9.82036
▁write	-9.82054
▁hold	-9.82067
setzen	-9.82247
▁War	-9.82273
▁expect	-9.82375
▁cut	-9.82472
L	-9.82505
co	-9.82544
▁feet	-9.82639
▁Thema	-9.82661
am	-9.82729
▁animal	-9.82735
▁result	-9.82776
▁opportunity	-9.82985
▁girl	-9.83168
▁worden	-9.83246
▁lead	-9.83306
▁travel	-9.83381
▁service	-9.83446
▁De	-9.83458
▁growth	-9.8346
▁schreiben	-9.83551
▁größte	-9.83553
▁lösen	-9.83583
ton	-9.83629
▁product	-9.83717
▁sieben	-9.83737
▁fear	-9.83782
▁bestimmte	-9.84085
▁Aus	-9.8409
▁alte	-9.84106
au	-9.84138
kaufen	-9.84144
▁sollen	-9.84149
▁Ge	-9.84171
ought	-9.84182
▁No	-9.84304
▁br	-9.84433
▁We	-9.84614
▁fun	-9.84744
▁field	-9.84853
▁5	-9.84896
▁solve	-9.84928
▁gern	-9.84943
▁South	-9.84978
▁teilen	-9.85006
▁Wochen	-9.85152
▁fight	-9.85164
▁humans	-9.85169
▁einfache	-9.85184
▁Boden	-9.85195
▁wären	-9.8549
▁bestimmt	-9.85741
▁Staaten	-9.85749
▁shape	-9.85751
▁pass	-9.85752
▁English	-9.85788
▁lost	-9.85795
▁bleiben	-9.85826
▁weeks	-9.85873
▁innovation	-9.85992
▁Erfolg	-9.86009
▁schwierig	-9.86088
,000	-9.86158
▁Woche	-9.86356
▁attention	-9.86399
▁economy	-9.86399
▁voice	-9.86436
wegen	-9.86469
▁impact	-9.86604
▁general	-9.86678
un	-9.86802
▁bottom	-9.86809
▁train	-9.86831
▁besteht	-9.87044
▁Tages	-9.87125
▁Prozess	-9.87197
▁zweiten	-9.87239
▁Muster	-9.87252
▁Umwelt	-9.87515
tage	-9.87633
▁San	-9.87643
▁suchen	-9.87706
▁anyone	-9.87717
▁schlecht	-9.87939
▁stark	-9.87954
▁Modell	-9.88017
▁Chinese	-9.88047
▁approach	-9.88056
▁bewusst	-9.8814
▁f	-9.88224
▁memor	-9.8839
▁Mensch	-9.88474
▁action	-9.88494
▁stellte	-9.88517
▁Jahrhundert	-9.88583
▁Monate	-9.88596
▁pull	-9.88689
▁größer	-9.88702
ling	-9.88728
pp	-9.88824
1	-9.8903
▁sea	-9.89086
G	-9.89105
▁climate	-9.89111
▁material	-9.89124
▁hohe	-9.89155
gone	-9.89282
▁sch	-9.8932
▁zuvor	-9.89331
▁risk	-9.89335
▁Mars	-9.89351
▁klein	-9.89377
ft	-9.89415
▁sitt	-9.89627
▁Namen	-9.89645
▁ca	-9.89732
▁weltweit	-9.89747
▁Gesundheit	-9.89861
▁Wissen	-9.8992
▁17	-9.89922
▁increase	-9.89934
▁average	-9.89934
▁knowledge	-9.89934
giving	-9.89937
▁V	-9.90014
▁schrieb	-9.90068
▁London	-9.90146
▁needs	-9.90153
▁erzählt	-9.90254
▁map	-9.90314
▁dark	-9.90436
ige	-9.90472
▁amerikanische	-9.90527
op	-9.9053
▁Tier	-9.90541
son	-9.90571
▁Haupt	-9.90572
▁benutzt	-9.90646
▁forward	-9.90676
▁verbunden	-9.90784
▁Labor	-9.90788
▁fly	-9.90793
▁Meinung	-9.90795
▁areas	-9.90823
▁gefunden	-9.91123
ism	-9.91147
▁connect	-9.91171
▁entfernt	-9.91181
▁fair	-9.91213
▁born	-9.91228
▁fall	-9.91317
▁fundamental	-9.9133
▁deep	-9.9134
tra	-9.91403
▁similar	-9.91452
he	-9.91461
▁lesen	-9.91488
▁fire	-9.91561
▁Amerika	-9.91674
▁books	-9.91707
▁genannt	-9.91857
▁technologies	-9.91864
▁theory	-9.91876
▁Freund	-9.91891
▁measure	-9.91928
▁frei	-9.9195
▁Umgebung	-9.92074
▁images	-9.92089
▁white	-9.92107
▁camera	-9.92336
▁potential	-9.92338
▁hit	-9.92344
durch	-9.92462
▁Ländern	-9.92562
▁scientists	-9.92666
▁Tatsache	-9.92724
▁gelernt	-9.92797
▁National	-9.92832
▁consider	-9.92859
ily	-9.92937
▁darau	-9.92938
▁blood	-9.92975
▁bessere	-9.93013
▁stimmt	-9.93018
▁größten	-9.93022
igen	-9.93084
▁What	-9.93165
▁Schritt	-9.93253
▁runn	-9.93292
▁Nacht	-9.93297
▁Wahrheit	-9.9338
▁essential	-9.9338
▁Innovation	-9.93405
ci	-9.93458
▁somebod	-9.936
▁raise	-9.93613
tion	-9.93723
▁Wert	-9.93798
▁cover	-9.93825
▁continue	-9.93877
▁sterben	-9.93884
▁arm	-9.93926
▁Mittel	-9.93993
▁Sch	-9.94036
▁Un	-9.941
halten	-9.9411
▁neben	-9.94262
ized	-9.94273
▁Revolution	-9.94329
▁Herz	-9.94389
▁strong	-9.94826
▁zehn	-9.94834
▁verwendet	-9.94985
raußen	-9.95148
ka	-9.95162
▁understanding	-9.95295
com	-9.95384
▁network	-9.95437
▁beginn	-9.9549
▁aufzu	-9.95511
▁wrote	-9.95594
▁Medien	-9.95595
▁scheint	-9.95596
▁Zellen	-9.95672
▁movie	-9.95673
iv	-9.9568
▁sit	-9.95777
▁erschaffen	-9.95866
▁literally	-9.96063
▁Bedeutung	-9.96269
▁morning	-9.96269
▁national	-9.96284
▁miles	-9.96353
▁4	-9.96357
▁Technik	-9.96439
kt	-9.96502
▁Organisation	-9.96536
▁tools	-9.96603
▁blind	-9.96628
▁break	-9.967
▁egal	-9.9672
▁Autos	-9.96772
▁gemeinsam	-9.96886
▁village	-9.96947
▁chance	-9.96947
ated	-9.96983
ful	-9.97232
.000	-9.97277
▁hast	-9.97365
▁guess	-9.97402
▁offensichtlich	-9.97403
▁international	-9.97413
▁Hände	-9.9742
▁St	-9.97439
▁source	-9.9751
▁late	-9.97511
▁großartige	-9.97558
ti	-9.9763
▁creating	-9.9763
▁funktionieren	-9.97634
me	-9.9766
▁erklären	-9.97742
▁leicht	-9.97763
▁West	-9.97792
▁Kraft	-9.97838
ine	-9.97917
▁gebaut	-9.97951
▁numbers	-9.97959
▁Zahl	-9.98013
▁Team	-9.98105
▁meet	-9.98177
▁passier	-9.98273
▁met	-9.98441
▁kid	-9.98545
▁gewesen	-9.98558
go	-9.98589
selbe	-9.98814
▁law	-9.98883
▁CO	-9.98903
▁sehe	-9.99105
hand	-9.9929
▁sun	-9.99385
▁Bildung	-9.99409
ho	-9.99441
tic	-9.99455
▁gas	-9.99523
▁eye	-9.99656
▁solution	-9.99658
▁500	-9.99704
▁protect	-9.99705
▁richtige	-9.99778
▁activit	-9.99895
O	-10.0006
▁robot	-10.0007
ko	-10.0011
▁kleiner	-10.0012
▁current	-10.0018
▁Familien	-10.0027
▁mache	-10.0032
▁Ja	-10.004
▁Bücher	-10.0041
▁einzu	-10.0044
▁touch	-10.0049
▁Foto	-10.0058
▁geworden	-10.0065
▁Web	-10.0074
self	-10.0076
▁möchten	-10.008
▁page	-10.0081
hin	-10.0082
und	-10.0082
▁main	-10.009
▁solar	-10.0099
▁Technologien	-10.0101
▁co	-10.0107
▁hospital	-10.0112
▁among	-10.0115
▁Europe	-10.0134
W	-10.0135
▁mass	-10.014
▁recently	-10.0153
▁essen	-10.0165
▁soon	-10.0173
I	-10.018
jährige	-10.0183
▁wish	-10.0183
▁relationship	-10.0184
pecial	-10.0184
▁provide	-10.019
▁fanden	-10.0193
▁politische	-10.0198
ende	-10.0202
bi	-10.0203
▁Studenten	-10.0206
▁Afghanistan	-10.0207
▁Anzahl	-10.0207
▁telling	-10.0212
▁aussehen	-10.0215
▁erreicht	-10.0229
▁ähnlich	-10.0232
▁13	-10.0235
▁Gründe	-10.0246
▁sell	-10.0256
nstatt	-10.0256
▁Platz	-10.0259
▁Reise	-10.0272
▁Stimme	-10.0272
▁private	-10.0278
▁truth	-10.0305
▁lab	-10.0306
▁wind	-10.0317
▁wichtige	-10.0319
ster	-10.0322
▁office	-10.0336
▁ice	-10.0355
the	-10.0362
▁special	-10.0364
▁worth	-10.0366
▁track	-10.0368
▁Ka	-10.0382
▁specific	-10.0383
▁situation	-10.0391
lo	-10.0395
▁gezeigt	-10.0404
▁non	-10.0431
▁Forschung	-10.0436
▁Bevölkerung	-10.0441
▁dead	-10.0449
▁rich	-10.0454
▁Man	-10.0463
▁bekommt	-10.0466
▁represent	-10.0471
▁smart	-10.0472
ger	-10.0472
incredibly	-10.0473
▁verloren	-10.0473
▁gegenüber	-10.0477
▁öffentliche	-10.0478
▁Aufgabe	-10.049
▁tat	-10.0506
ac	-10.052
▁evolution	-10.0521
▁success	-10.0522
▁Material	-10.0526
▁generation	-10.0528
▁Rest	-10.0531
ien	-10.0532
▁Bo	-10.0534
▁Größe	-10.0538
▁alone	-10.0552
available	-10.0559
cy	-10.0564
▁Rolle	-10.0565
▁street	-10.0567
▁k	-10.0572
▁300	-10.0579
bo	-10.058
▁teach	-10.0588
▁Gewalt	-10.0593
▁findet	-10.0593
▁Sa	-10.0594
▁post	-10.0597
▁Tat	-10.06
▁easi	-10.0624
bei	-10.0633
▁früher	-10.0642
▁vision	-10.0649
▁type	-10.0657
▁effective	-10.0659
ary	-10.0661
▁development	-10.0662
▁table	-10.0663
how	-10.0681
▁Teile	-10.0689
ap	-10.0691
▁allein	-10.0696
weise	-10.0698
▁known	-10.0706
▁Veränderung	-10.0707
tiny	-10.0729
▁guten	-10.0733
▁sign	-10.0738
▁Papier	-10.0741
▁suggest	-10.0745
▁industry	-10.0747
▁Eis	-10.0753
▁komplett	-10.0754
aus	-10.0757
▁Wahl	-10.0758
os	-10.0765
▁attack	-10.0773
ga	-10.0794
los	-10.0799
▁please	-10.0801
▁Universität	-10.0806
▁African	-10.0808
▁links	-10.0821
▁beste	-10.0821
▁Do	-10.0839
▁Sicherheit	-10.084
▁kurze	-10.0847
▁box	-10.0847
▁several	-10.0848
▁search	-10.0848
▁writing	-10.0858
▁message	-10.0869
▁beyond	-10.0874
▁direct	-10.0876
▁absolut	-10.0883
▁changing	-10.0885
stellen	-10.089
▁tend	-10.0891
▁super	-10.0896
▁massive	-10.0898
▁Hälfte	-10.09
▁evidence	-10.09
▁Europa	-10.09
▁Auf	-10.0904
▁nine	-10.0927
▁sonst	-10.093
ad	-10.094
▁cars	-10.0943
▁pre	-10.0948
spricht	-10.0948
▁push	-10.0951
▁usual	-10.0956
mögen	-10.0965
▁Generation	-10.0969
ke	-10.097
▁Tod	-10.0985
▁effect	-10.0999
▁Hoffnung	-10.1002
ei	-10.1004
▁vorher	-10.1015
▁Mitgefühl	-10.1028
▁scientific	-10.1029
▁affect	-10.1037
per	-10.1041
▁interessiert	-10.1051
▁asking	-10.1053
▁dream	-10.1081
▁draw	-10.1086
time	-10.1108
ben	-10.1111
▁versuchte	-10.1113
▁Fehler	-10.1115
▁door	-10.1126
▁Experiment	-10.1128
▁Ha	-10.113
▁Ma	-10.1139
▁screen	-10.1139
führen	-10.1144
▁arbeitete	-10.1152
▁bekam	-10.1154
▁medical	-10.1159
▁zeige	-10.116
▁rules	-10.1162
▁City	-10.1173
▁putting	-10.1175
▁sofort	-10.1179
▁hinein	-10.1182
▁größere	-10.1182
▁setzen	-10.1187
▁bist	-10.1191
▁Ozean	-10.1199
▁link	-10.12
▁Bereich	-10.1209
▁Japan	-10.1211
▁Facebook	-10.1212
▁Realität	-10.1212
▁st	-10.1214
▁nenn	-10.1216
▁Co	-10.1218
▁Künstler	-10.122
▁24	-10.1232
▁Straße	-10.1235
▁period	-10.1235
▁Richard	-10.1238
▁Bill	-10.1241
and	-10.1254
im	-10.1261
▁hoffe	-10.1264
▁Blick	-10.1265
▁revolution	-10.1273
▁ziehen	-10.1273
▁involve	-10.1279
hi	-10.1279
art	-10.1283
▁gre	-10.1287
▁Ding	-10.1295
▁arbeitet	-10.1301
▁Theorie	-10.1302
deed	-10.1307
▁traf	-10.1308
▁Mitte	-10.1318
▁software	-10.1324
uch	-10.1343
▁compassion	-10.1344
▁describe	-10.135
▁forest	-10.1352
▁rein	-10.1352
▁practice	-10.1356
head	-10.1361
▁Maschine	-10.1363
▁21	-10.1365
▁position	-10.1365
▁brachte	-10.1368
▁199	-10.137
▁Straßen	-10.1375
▁concept	-10.1376
▁hinaus	-10.1379
▁region	-10.1396
▁baby	-10.1398
▁Schüler	-10.1401
▁function	-10.1405
▁lieben	-10.1405
▁conversation	-10.1425
▁gleichzeitig	-10.1425
▁Städte	-10.1429
▁schneller	-10.1432
▁langsam	-10.1434
▁computers	-10.1435
▁Preis	-10.1446
▁invent	-10.1453
▁laufen	-10.1458
▁19	-10.1461
▁trust	-10.1461
▁fing	-10.1475
ein	-10.1476
▁Gebiet	-10.1479
▁device	-10.1489
▁fahren	-10.1495
▁month	-10.1502
▁connection	-10.1509
▁list	-10.1511
▁price	-10.1516
▁finding	-10.1524
▁visual	-10.153
▁wall	-10.1532
ug	-10.1532
▁Kosten	-10.1535
▁degree	-10.154
▁mine	-10.154
ize	-10.1541
▁carbon	-10.1555
ish	-10.1556
▁ständig	-10.1558
▁AIDS	-10.1561
▁creative	-10.1589
▁nation	-10.1606
▁El	-10.1613
▁role	-10.1616
▁lose	-10.1616
▁ho	-10.1618
▁Entscheidungen	-10.1641
▁subject	-10.1643
▁Ebene	-10.1644
▁hole	-10.1666
▁geschieht	-10.1671
▁favorite	-10.1671
▁further	-10.1671
▁recognize	-10.1672
▁liegen	-10.1672
▁raus	-10.1676
▁selbe	-10.1677
na	-10.1684
▁Versuch	-10.1684
▁speed	-10.1684
▁transform	-10.1693
▁geboren	-10.1693
ah	-10.1693
stand	-10.1695
▁länger	-10.1706
▁genommen	-10.1708
▁Studie	-10.1715
▁store	-10.1715
▁US	-10.1721
bringen	-10.1725
▁Vereinigte	-10.1727
▁Bau	-10.1737
ierte	-10.175
▁Evolution	-10.1756
▁wann	-10.1756
▁übrigen	-10.1762
▁moral	-10.1773
▁response	-10.1782
rry	-10.1788
▁gegeben	-10.179
▁journey	-10.181
▁Demokratie	-10.1811
▁benefit	-10.1813
▁sub	-10.1819
▁boy	-10.1819
▁Nachrichten	-10.1832
▁equal	-10.1835
▁Gesicht	-10.1843
▁song	-10.1846
▁molecule	-10.1867
▁Hey	-10.1867
▁offen	-10.1882
▁bewegt	-10.1892
▁meaning	-10.1893
▁Firma	-10.1901
▁block	-10.1903
ziehen	-10.1904
▁hab	-10.1907
▁Wind	-10.1914
▁collect	-10.1915
▁Produkt	-10.192
▁North	-10.1923
▁Struktur	-10.1923
▁kill	-10.1931
▁Zahlen	-10.195
do	-10.195
▁extraordinar	-10.1952
▁plan	-10.1961
ak	-10.1971
▁wichtiger	-10.1974
system	-10.1984
▁Karte	-10.2004
▁Paul	-10.2006
▁sounds	-10.2009
▁anyway	-10.2012
▁fliegen	-10.2015
▁institution	-10.2022
▁TV	-10.2025
di	-10.2027
▁Sonne	-10.2033
▁Ergebnis	-10.2035
teil	-10.2037
▁großartig	-10.2057
▁spread	-10.2058
▁University	-10.2066
▁Auswirkung	-10.2066
▁treatment	-10.2068
▁girls	-10.2073
▁skin	-10.2074
▁materials	-10.2081
▁games	-10.2093
▁000	-10.2095
more	-10.2098
▁wichtigste	-10.2099
▁require	-10.2103
ley	-10.2111
▁mehrere	-10.2113
▁bald	-10.2121
▁Aufmerksamkeit	-10.2124
▁herauszufinden	-10.2124
▁successful	-10.2124
▁count	-10.213
▁geschrieben	-10.2144
▁6	-10.2153
▁Oberfläche	-10.2155
▁road	-10.2158
▁außer	-10.2158
pa	-10.2163
▁mental	-10.2171
▁Ch	-10.2179
▁character	-10.2198
▁Pflanzen	-10.2205
▁Alter	-10.221
▁adult	-10.2211
▁warm	-10.2212
▁Job	-10.2218
▁predict	-10.2221
▁voll	-10.2225
bald	-10.2227
▁Strom	-10.224
▁vergessen	-10.2249
ze	-10.225
▁wild	-10.2261
▁trotzde	-10.2263
ismus	-10.2265
ff	-10.2266
▁medicine	-10.227
▁throw	-10.227
▁carry	-10.2273
▁dis	-10.2281
▁gesprochen	-10.2285
▁onto	-10.2285
▁quality	-10.2292
▁198	-10.2297
▁necessar	-10.2299
by	-10.2309
▁tragen	-10.2317
▁Sh	-10.2321
▁class	-10.2326
▁violence	-10.2329
▁außerdem	-10.2331
▁Kontrolle	-10.2331
rzte	-10.2332
▁everywhere	-10.2337
▁globale	-10.2346
▁traditional	-10.2353
▁tru	-10.2369
ierung	-10.2386
▁zumindest	-10.2388
▁lebt	-10.2391
▁happiness	-10.2392
▁Gruppen	-10.2396
▁Programm	-10.241
▁betrachtet	-10.2412
▁Iran	-10.2414
▁Gegen	-10.2419
▁extra	-10.2424
▁photograph	-10.2425
▁Pro	-10.2435
▁sprach	-10.2447
▁secret	-10.2452
▁sex	-10.2455
mp	-10.247
▁version	-10.2477
▁context	-10.2477
▁Einfluss	-10.2477
legen	-10.2478
▁fit	-10.2478
▁Na	-10.2478
▁join	-10.2483
▁security	-10.2486
▁remain	-10.2507
▁democracy	-10.2514
ex	-10.2522
liche	-10.2524
▁East	-10.2536
▁Ergebnisse	-10.2542
▁direction	-10.2542
if	-10.2545
▁Konzept	-10.2548
tro	-10.2552
kl	-10.2556
pi	-10.2559
▁großer	-10.2567
▁leaders	-10.2576
▁flow	-10.2578
bel	-10.258
▁He	-10.2581
▁Gemeinde	-10.2582
▁finde	-10.2586
▁führte	-10.2589
▁Zeug	-10.2595
▁eventually	-10.2598
▁exciting	-10.2598
▁nuclear	-10.2598
▁waste	-10.2598
▁Orte	-10.2608
▁näher	-10.2609
▁foot	-10.2611
om	-10.2619
▁led	-10.2619
▁toll	-10.2626
▁neues	-10.2636
▁Pa	-10.2637
▁gearbeitet	-10.2644
▁Worte	-10.2673
▁Schulen	-10.268
▁Meter	-10.2681
▁account	-10.2689
▁Menschheit	-10.2691
▁roll	-10.2693
▁urban	-10.2693
▁dein	-10.2693
▁verlassen	-10.27
▁hour	-10.2705
▁machten	-10.2707
▁unglaubliche	-10.2708
är	-10.2719
▁Behandlung	-10.272
▁etc	-10.2724
▁beobachten	-10.2728
▁Medizin	-10.2734
▁sp	-10.2735
▁diejenige	-10.2736
▁Objekt	-10.274
▁trees	-10.2742
▁appear	-10.275
▁plastic	-10.2751
▁Region	-10.2752
▁trial	-10.2752
▁Entscheidung	-10.2753
ip	-10.2755
▁offer	-10.2758
▁finish	-10.2759
▁Park	-10.2764
▁fail	-10.2765
▁wussten	-10.2769
▁wachsen	-10.2778
▁perspective	-10.2782
▁results	-10.279
▁schools	-10.2803
▁interview	-10.2813
▁passierte	-10.2818
▁depend	-10.284
▁Ko	-10.2841
▁Reaktion	-10.2844
▁earlie	-10.2846
▁fund	-10.2851
▁shift	-10.2856
▁publish	-10.2866
ub	-10.2884
kommen	-10.2885
geht	-10.2887
▁Wh	-10.2898
po	-10.2898
▁unseres	-10.2899
▁poverty	-10.2906
▁sitzen	-10.2909
▁echte	-10.2912
▁drug	-10.2927
▁content	-10.2938
▁spielt	-10.2941
▁Monat	-10.2955
▁card	-10.2955
▁abzu	-10.2968
▁2000	-10.2975
▁standard	-10.2992
wissenschaftlich	-10.2998
falls	-10.3005
▁Gene	-10.3012
leben	-10.3019
pf	-10.303
▁verbesser	-10.3032
▁impossibl	-10.3032
▁früh	-10.3033
▁Software	-10.3042
▁fine	-10.3069
▁tool	-10.307
▁jobs	-10.3072
▁square	-10.3074
▁critical	-10.3078
▁Mr	-10.3084
▁crazy	-10.3096
▁Grenzen	-10.3096
▁Dorf	-10.3096
▁Eigenschaft	-10.3097
▁cap	-10.3099
satz	-10.3116
▁Twitter	-10.3128
▁return	-10.3128
▁sahen	-10.313
▁lesson	-10.3136
▁8	-10.3139
▁supposed	-10.3143
▁Washington	-10.316
▁possibilit	-10.316
▁worse	-10.316
▁Fälle	-10.3161
▁Seiten	-10.3168
▁hot	-10.3182
▁Gen	-10.3189
▁extrem	-10.3191
ach	-10.3194
▁Sicht	-10.3198
▁400	-10.3198
har	-10.3198
▁connected	-10.3201
▁strange	-10.3208
▁clean	-10.3219
▁Politik	-10.3219
▁Erinnerung	-10.3224
▁immediate	-10.3224
▁Spaß	-10.3224
▁Dan	-10.3225
▁bleibt	-10.3232
▁erlaubt	-10.3235
▁9	-10.3243
▁o	-10.3246
▁35	-10.325
▁architecture	-10.3257
ard	-10.3261
▁Schul	-10.3267
ial	-10.3271
ood	-10.3271
▁Blut	-10.3274
▁higher	-10.3276
▁Zugang	-10.3289
▁series	-10.3289
ca	-10.3291
▁rise	-10.3292
▁fertig	-10.3293
▁Museum	-10.3293
▁wear	-10.3297
ator	-10.3298
▁Amerikaner	-10.3305
▁Stelle	-10.3313
▁Ra	-10.3314
▁unmöglich	-10.3322
▁Bühne	-10.3329
▁Tür	-10.3332
▁examples	-10.3335
▁dieselbe	-10.3337
▁code	-10.3348
▁interact	-10.3351
▁interessante	-10.3355
▁Sohn	-10.3355
▁Uhr	-10.3362
▁ex	-10.3366
▁check	-10.3368
▁bacteria	-10.3372
▁hörte	-10.3378
▁ready	-10.3381
▁enjoy	-10.3387
▁fuel	-10.3388
▁sent	-10.3393
▁verlieren	-10.3393
▁Beispiele	-10.3396
▁named	-10.341
ität	-10.3415
form	-10.3416
▁Mathematik	-10.3416
we	-10.3417
▁Monaten	-10.3419
▁launch	-10.342
▁kau	-10.3423
▁aufgrund	-10.3429
▁emotional	-10.3434
▁letter	-10.3442
▁hielt	-10.3448
▁schaut	-10.3449
▁includ	-10.3452
▁Sinne	-10.3452
▁Büro	-10.3453
▁bilden	-10.3454
▁stick	-10.3456
▁Telefon	-10.3457
schaft	-10.3457
▁deliver	-10.3459
▁original	-10.3465
▁Gerät	-10.3477
▁George	-10.3486
▁Englisch	-10.3486
▁choose	-10.3486
▁communit	-10.3493
▁win	-10.35
welt	-10.3508
ru	-10.3511
▁Fisch	-10.3513
ale	-10.3519
▁England	-10.3519
▁unfortunate	-10.3519
▁task	-10.3519
V	-10.3519
▁rund	-10.352
▁minute	-10.3521
▁serious	-10.3521
▁schlechte	-10.3537
▁Studien	-10.3547
▁goal	-10.3549
▁hilf	-10.355
▁Vergangenheit	-10.3553
▁James	-10.3553
▁negative	-10.3561
▁Spezies	-10.3565
che	-10.3565
▁Arm	-10.3568
sp	-10.357
▁voller	-10.3578
▁faster	-10.3578
▁larger	-10.3582
▁irgendwo	-10.3586
▁manage	-10.3596
▁schöne	-10.3608
lichen	-10.3608
▁dritte	-10.3616
ities	-10.3617
▁Flugzeug	-10.3618
▁Wirklichkeit	-10.362
▁principle	-10.362
▁aussieh	-10.362
▁vorbei	-10.3624
ek	-10.3627
▁relative	-10.3632
▁models	-10.3636
sitzt	-10.3636
▁anschaue	-10.3646
▁Bakterien	-10.3653
▁crisis	-10.3653
▁ehrlich	-10.3653
▁Armut	-10.3654
▁Finger	-10.3654
▁150	-10.3659
denkt	-10.3663
▁enter	-10.367
rought	-10.3682
▁studies	-10.3686
▁ultimate	-10.3687
▁wife	-10.3687
habt	-10.3689
▁path	-10.3695
▁Hi	-10.3695
lin	-10.3696
▁site	-10.3701
▁star	-10.3704
▁tree	-10.3709
▁colleague	-10.3721
▁complicated	-10.3721
▁produzieren	-10.3721
▁above	-10.3721
▁leider	-10.373
▁drugs	-10.3733
▁sleep	-10.3734
▁explore	-10.3739
▁gewinnen	-10.3751
▁Go	-10.3752
▁electricity	-10.3756
▁peace	-10.376
▁products	-10.3761
▁mo	-10.3765
da	-10.3771
▁shot	-10.3775
line	-10.3789
▁bunch	-10.3789
▁nachzudenken	-10.3789
▁MIT	-10.3789
▁tolle	-10.3801
▁writ	-10.3814
way	-10.3825
kept	-10.3832
▁none	-10.3836
▁Nachricht	-10.3836
fer	-10.384
▁argument	-10.3845
ot	-10.3851
▁college	-10.3858
▁fill	-10.3858
▁Personen	-10.3868
gt	-10.3874
▁Unter	-10.3882
▁except	-10.389
▁versuche	-10.389
▁lower	-10.3892
▁fantastic	-10.3892
▁medizinische	-10.3896
▁famous	-10.3898
▁neurons	-10.3901
▁decision	-10.3907
que	-10.3921
▁environmental	-10.3924
▁expert	-10.3927
▁Morgen	-10.3927
▁concern	-10.3927
▁Firmen	-10.3931
though	-10.3933
▁erstaunlich	-10.3933
▁reading	-10.3937
▁board	-10.3937
▁entscheiden	-10.3945
▁invest	-10.3952
▁Ba	-10.3954
▁tief	-10.3956
▁Orten	-10.3956
▁male	-10.396
▁communication	-10.3962
▁afford	-10.3971
▁pain	-10.3973
▁Das	-10.3979
▁See	-10.3983
▁Kamera	-10.3989
▁genetic	-10.3989
▁Bürger	-10.3995
lassen	-10.3995
▁Leistung	-10.3996
▁website	-10.3996
refore	-10.3998
▁ebenso	-10.3998
▁erzeugen	-10.4006
▁police	-10.4008
▁complete	-10.401
▁nenne	-10.4013
▁folgen	-10.4014
▁math	-10.4016
▁visit	-10.4022
▁legal	-10.4028
▁Designer	-10.403
▁echt	-10.4031
▁Bäume	-10.4031
▁families	-10.4032
U	-10.4035
▁ermöglicht	-10.4037
▁zero	-10.4069
▁Architektur	-10.4071
▁Times	-10.4072
▁performance	-10.4074
▁Sex	-10.4079
bau	-10.408
ud	-10.4087
bild	-10.4088
▁komplexe	-10.4092
tor	-10.4092
▁increasing	-10.4102
▁Einstein	-10.4102
▁wave	-10.412
▁Kern	-10.4131
▁Linie	-10.4137
▁meant	-10.4155
▁eure	-10.4164
▁Bank	-10.4166
▁Charles	-10.4172
▁physics	-10.4172
▁surprising	-10.4172
▁military	-10.4172
▁verbinden	-10.4174
▁lag	-10.4174
▁robots	-10.4177
▁training	-10.4183
▁reduce	-10.4192
▁press	-10.4193
▁Wand	-10.4199
▁ha	-10.4204
▁erklärt	-10.4205
▁Michael	-10.4208
▁purpose	-10.4208
▁oh	-10.4219
▁Systeme	-10.422
sehen	-10.4226
▁killed	-10.4229
▁Bewusstsein	-10.4231
▁7	-10.424
ging	-10.4241
▁Israel	-10.4242
▁Die	-10.4244
ntweder	-10.4247
▁Ben	-10.4249
nehmen	-10.4251
ken	-10.4254
▁erfahren	-10.4254
▁Gesundheits	-10.4256
▁erzählte	-10.4277
▁accept	-10.4278
▁beauty	-10.428
▁charge	-10.428
▁Kampf	-10.428
▁Freiheit	-10.428
▁geschehe	-10.4282
▁sing	-10.4282
▁neun	-10.4283
▁verrückt	-10.4291
▁zeigte	-10.4296
▁Ent	-10.4299
ble	-10.4309
nächst	-10.431
▁floor	-10.4316
▁address	-10.4316
▁entdecken	-10.4316
▁Fotos	-10.4318
▁excited	-10.4318
▁alive	-10.432
▁wirtschaftliche	-10.4323
▁entdeckt	-10.4326
▁career	-10.4331
▁Ressourcen	-10.4331
▁bat	-10.4333
▁cheap	-10.4352
▁sodas	-10.4354
▁range	-10.4355
▁Projekte	-10.4358
▁policy	-10.436
▁smaller	-10.4375
▁Wörter	-10.4379
▁Landes	-10.4383
▁bank	-10.4385
▁terribl	-10.4388
▁Aktivität	-10.4388
▁Anderson	-10.4388
▁Sekunden	-10.4388
▁perform	-10.4397
▁stopp	-10.4398
▁Me	-10.4398
▁biolog	-10.441
▁bar	-10.4416
ise	-10.4419
▁Sp	-10.442
▁Vi	-10.4421
▁mobile	-10.4424
▁effort	-10.4424
▁erfolgreich	-10.4434
▁anfange	-10.4437
▁Se	-10.4439
▁zufällig	-10.4443
▁older	-10.4443
▁Million	-10.4444
ph	-10.4447
ating	-10.4451
eck	-10.4451
▁drop	-10.4454
▁herausfinde	-10.4456
ical	-10.4456
▁particle	-10.4461
▁town	-10.4472
▁amp	-10.4473
▁feed	-10.4474
▁Baby	-10.4478
▁nahe	-10.4491
▁hört	-10.4492
▁hell	-10.4493
▁rule	-10.4494
▁expensive	-10.4497
▁forms	-10.4499
rie	-10.4504
ide	-10.4505
▁handelt	-10.4506
treten	-10.4515
▁rechts	-10.4519
▁heat	-10.4524
▁mom	-10.4527
▁progress	-10.4531
▁brains	-10.4536
fall	-10.4544
▁prevent	-10.4544
ran	-10.4547
▁decide	-10.4548
▁irgendwa	-10.4555
▁Druck	-10.4557
▁compare	-10.4561
▁gekommen	-10.4569
▁respond	-10.4571
▁unique	-10.4571
▁virtual	-10.4571
▁retten	-10.4571
▁dangerous	-10.4571
▁Bezug	-10.4572
▁persönliche	-10.4582
▁remind	-10.4582
sche	-10.4583
▁Regierungen	-10.4592
▁hält	-10.4595
▁schwarze	-10.4596
▁gestellt	-10.4604
▁vehicle	-10.4608
▁lernte	-10.4609
▁bodi	-10.4614
ina	-10.4615
▁läuf	-10.4617
▁wunderbare	-10.4617
▁Wachstum	-10.4618
▁achieve	-10.4622
▁Si	-10.4623
io	-10.4629
▁rain	-10.463
aid	-10.4635
▁teaching	-10.4641
auf	-10.4645
▁Ordnung	-10.4645
▁Robert	-10.4645
▁Fuß	-10.4646
▁sat	-10.4646
▁Himmel	-10.465
▁sand	-10.465
▁anywhere	-10.4652
▁skills	-10.4653
▁45	-10.4653
rin	-10.4661
▁photo	-10.4663
gi	-10.4673
▁scar	-10.4674
▁report	-10.4675
▁arbeite	-10.4677
▁constant	-10.4683
▁freedom	-10.4683
▁slight	-10.4684
▁Tagen	-10.4685
▁wenige	-10.4686
▁messen	-10.4692
▁Formen	-10.4699
▁Recht	-10.4701
▁Ton	-10.4713
▁instance	-10.472
▁Prinzip	-10.4724
▁decisions	-10.4741
tin	-10.4745
▁Kollegen	-10.4745
▁jungen	-10.4746
▁zer	-10.475
▁runter	-10.4754
▁gefragt	-10.4758
▁Nummer	-10.4758
▁School	-10.4761
▁cold	-10.4762
▁Es	-10.4765
▁untersuchen	-10.4767
▁keiner	-10.4767
▁Bast	-10.4771
fa	-10.4772
▁trotz	-10.4775
▁unit	-10.4783
▁daughter	-10.4795
▁Botschaft	-10.4795
▁protein	-10.4802
▁Interesse	-10.4802
▁weight	-10.4805
▁fühlte	-10.4808
▁Bienen	-10.4809
▁Punkte	-10.481
ck	-10.4812
vi	-10.4812
▁improve	-10.4813
▁flu	-10.4813
▁humanity	-10.4813
▁income	-10.4813
▁stress	-10.4818
▁entschieden	-10.4826
▁German	-10.4834
▁saß	-10.4836
▁production	-10.4838
▁Chance	-10.4841
ib	-10.4845
▁Netzwerk	-10.4849
▁Methode	-10.4851
▁stars	-10.4856
▁Nahrung	-10.4859
▁verstanden	-10.4869
▁Artikel	-10.4871
▁babies	-10.4871
▁außerhalb	-10.4871
▁Haut	-10.4872
punkt	-10.4881
▁Indian	-10.4882
ack	-10.4887
▁becom	-10.4889
▁sammeln	-10.4892
▁Schlüssel	-10.4903
▁Verständnis	-10.4909
▁convince	-10.4909
▁leisten	-10.491
▁temperature	-10.491
fe	-10.4912
▁ansehe	-10.4915
igkeit	-10.4916
▁Wege	-10.4916
▁Nigeria	-10.4917
zen	-10.4923
▁con	-10.4928
stein	-10.4938
▁web	-10.4941
▁sky	-10.4945
▁legs	-10.4951
▁Bio	-10.4971
▁text	-10.4973
▁cross	-10.4977
▁transport	-10.4979
▁leg	-10.4981
like	-10.4983
ba	-10.4988
▁Arzt	-10.4991
berg	-10.4991
▁All	-10.4998
▁nachdenk	-10.501
▁fix	-10.5011
▁shark	-10.5025
▁Krankenhaus	-10.5025
▁trade	-10.5026
ure	-10.5028
▁Le	-10.5032
▁driving	-10.5033
▁Ganze	-10.5036
▁Gesetz	-10.5037
▁organism	-10.5039
▁warten	-10.5047
▁bone	-10.505
▁Plan	-10.5052
▁schützen	-10.5064
▁cultural	-10.507
▁spot	-10.5072
▁abge	-10.5073
▁Los	-10.5075
▁Netz	-10.5079
▁park	-10.5088
▁female	-10.5102
▁respect	-10.5103
▁enormous	-10.5103
▁familiar	-10.5111
▁machines	-10.5117
▁Bi	-10.5119
isierung	-10.5121
▁starb	-10.5123
▁Schönheit	-10.5142
▁financial	-10.5142
▁Feuer	-10.5142
▁dog	-10.5144
▁hundert	-10.5145
▁genes	-10.515
enden	-10.5156
off	-10.5158
▁Grad	-10.5161
plan	-10.5161
dimensional	-10.5161
▁conflict	-10.5165
▁Gelegenheit	-10.5181
▁Religion	-10.5181
▁intelligence	-10.5181
▁influence	-10.5181
▁forget	-10.5182
▁Wesen	-10.5185
▁wohin	-10.5189
▁drink	-10.519
▁bed	-10.5199
▁irgendeine	-10.5205
▁magic	-10.5211
▁geschaffen	-10.5216
▁unterstützen	-10.522
durchschnittlich	-10.5221
▁2008	-10.5224
▁Har	-10.5226
▁Herr	-10.5228
▁Tisch	-10.5228
▁Farbe	-10.523
▁hervor	-10.5231
▁umzu	-10.5239
▁active	-10.5242
▁Zu	-10.5251
▁miss	-10.5257
▁Geist	-10.5258
▁Darwin	-10.5259
▁Beginn	-10.526
▁Western	-10.5263
▁remarkable	-10.5268
▁solutions	-10.5268
zunehmen	-10.5274
▁separate	-10.5275
▁fallen	-10.5296
▁target	-10.5299
tragen	-10.5303
v	-10.5308
▁significant	-10.5312
▁Meer	-10.5313
▁Auge	-10.5314
▁müsste	-10.5323
▁inter	-10.5333
▁erzeugt	-10.5339
▁wealth	-10.5339
▁funny	-10.534
arbeit	-10.5352
▁meeting	-10.5356
▁cook	-10.5371
ör	-10.5374
▁getroffen	-10.5379
des	-10.5384
▁Version	-10.5393
side	-10.54
bare	-10.5409
▁September	-10.5419
▁verursacht	-10.5419
▁breath	-10.5422
▁corner	-10.5429
▁Cha	-10.5434
▁politic	-10.5445
▁Ca	-10.5447
ualität	-10.5459
▁taten	-10.546
▁herstellen	-10.5467
▁Adam	-10.5468
▁hart	-10.5472
▁catch	-10.5474
▁bisher	-10.548
kommt	-10.5488
J	-10.5496
▁pressure	-10.55
▁Leidenschaft	-10.5501
▁My	-10.5501
▁gain	-10.5503
▁dance	-10.5506
▁Name	-10.5517
ow	-10.5524
▁meter	-10.5527
▁Freude	-10.5531
▁Denken	-10.5533
ible	-10.5543
▁km	-10.555
▁ran	-10.5551
▁erwarten	-10.5556
spiel	-10.5558
▁brand	-10.5559
▁aid	-10.5561
▁jemande	-10.557
▁finger	-10.5571
ani	-10.5572
▁Ne	-10.5579
▁Maschinen	-10.5581
eath	-10.5582
▁trouble	-10.5582
triff	-10.5593
▁instrument	-10.5595
▁Werkzeuge	-10.5596
▁Zeitpunkt	-10.5596
▁Industrie	-10.5598
▁survive	-10.5599
▁Sand	-10.5616
▁Harvard	-10.5623
▁genome	-10.5623
▁insect	-10.5623
▁Herzen	-10.5626
▁useful	-10.5629
▁flying	-10.5631
▁Abend	-10.5633
▁walked	-10.5635
▁laut	-10.5638
▁Berg	-10.5638
▁demand	-10.5643
noch	-10.5648
oc	-10.5651
▁creativity	-10.5664
▁Fluss	-10.5664
▁hair	-10.5665
▁saving	-10.5665
▁Wald	-10.5665
zi	-10.5666
▁interaction	-10.5666
▁passion	-10.5668
▁Gold	-10.5677
▁Produkte	-10.5679
▁brauchte	-10.5683
▁Mit	-10.5689
▁decade	-10.5691
▁Band	-10.5694
▁email	-10.5705
▁various	-10.5705
▁Operation	-10.5706
▁196	-10.5706
▁hinzu	-10.5735
▁Mar	-10.5737
▁nannte	-10.5747
▁race	-10.5754
▁dritten	-10.5754
▁slide	-10.5754
richten	-10.5755
raum	-10.576
▁costs	-10.5786
▁tissue	-10.5788
▁fällt	-10.5789
len	-10.5794
▁Thom	-10.5795
zubringen	-10.5795
uck	-10.5796
▁Lernen	-10.5798
ob	-10.5807
▁Po	-10.5808
▁lokale	-10.5822
▁honest	-10.583
▁erinnere	-10.583
▁produziert	-10.583
▁geschah	-10.583
▁Geschäft	-10.584
iger	-10.5841
▁Stunde	-10.585
▁rot	-10.5852
▁fühlt	-10.5858
▁speaking	-10.5858
▁ideal	-10.5862
▁anti	-10.5867
▁disappear	-10.5872
▁television	-10.5872
▁99	-10.5873
▁Test	-10.5874
▁wide	-10.5883
ich	-10.5892
skraft	-10.5895
▁circle	-10.59
▁popular	-10.5914
▁failure	-10.5915
▁Arbeits	-10.5915
fi	-10.5918
▁forth	-10.592
vor	-10.5929
▁virus	-10.5929
▁Steve	-10.5935
▁Ed	-10.5936
▁nochmal	-10.5937
wa	-10.5939
▁intelligent	-10.5943
▁starke	-10.5948
▁Ni	-10.5948
▁Flug	-10.5952
▁California	-10.5957
▁Polizei	-10.5957
▁fossil	-10.5957
▁central	-10.5957
▁heutigen	-10.5959
▁Mond	-10.5964
all	-10.597
▁rock	-10.5977
▁engine	-10.598
▁apply	-10.5982
▁types	-10.5985
▁NASA	-10.5999
▁konzentriere	-10.5999
▁supply	-10.5999
▁conference	-10.5999
▁erfunden	-10.5999
▁Wunder	-10.6003
▁ship	-10.6005
▁verkaufen	-10.6008
▁Jungen	-10.6013
▁alter	-10.6018
▁sequence	-10.6021
laden	-10.6022
▁Um	-10.6023
▁Veränderungen	-10.6024
▁Tom	-10.603
hält	-10.6031
▁ausge	-10.6033
org	-10.604
▁außergewöhnlich	-10.6042
▁iPhone	-10.6042
▁Werte	-10.6042
▁coral	-10.6043
▁schafft	-10.6045
▁edge	-10.6046
▁summer	-10.6046
▁shared	-10.605
▁document	-10.6054
▁kostet	-10.6055
▁engineering	-10.6057
▁paint	-10.608
▁Partner	-10.6082
▁behandeln	-10.6085
▁Vergleich	-10.6088
▁Su	-10.6103
▁aktiv	-10.6107
wissenschaft	-10.6108
▁fragt	-10.6114
▁Kon	-10.6115
▁Klima	-10.6125
▁Glas	-10.6128
▁Sommer	-10.6128
▁sexual	-10.6128
▁Islam	-10.6133
izing	-10.6155
stehen	-10.6163
▁beat	-10.6168
▁Karriere	-10.6171
▁beeinflusst	-10.6171
▁Vision	-10.6171
▁197	-10.6171
▁Morton	-10.6171
▁Peter	-10.618
▁Car	-10.6181
▁seat	-10.6185
▁consumer	-10.619
▁Osten	-10.62
▁infrastructure	-10.6215
▁double	-10.6215
sharing	-10.6218
zusag	-10.6233
lichkeit	-10.6233
wise	-10.6236
▁schicken	-10.6239
▁sad	-10.6245
▁Suche	-10.625
ouTube	-10.6258
▁alternative	-10.6258
▁Ahnung	-10.6258
▁gedacht	-10.626
▁factor	-10.626
▁Anwendung	-10.6261
▁distance	-10.6264
▁brilliant	-10.6267
ors	-10.6268
▁legen	-10.6277
▁Jo	-10.6278
▁bear	-10.6286
▁sowie	-10.6287
▁Werkzeug	-10.6292
▁values	-10.6294
▁Traum	-10.6297
▁straight	-10.6302
▁speech	-10.6302
▁Fenster	-10.6302
▁Francisco	-10.6302
▁angefangen	-10.6303
▁Risiko	-10.6304
▁possibl	-10.6305
▁biological	-10.6307
▁surgery	-10.6314
▁Verantwortung	-10.6317
of	-10.6324
▁höher	-10.6327
▁gehe	-10.6332
▁triff	-10.6335
▁Liste	-10.6337
▁Drogen	-10.6339
▁endlich	-10.6345
▁jump	-10.6345
▁Position	-10.6346
▁Kilometer	-10.6346
▁feature	-10.6346
▁Westen	-10.6347
▁belief	-10.6349
▁detail	-10.6349
▁radio	-10.6351
▁Rede	-10.6354
▁tausende	-10.6358
▁überleben	-10.6362
▁balance	-10.6366
▁halbe	-10.6369
▁professional	-10.637
▁sample	-10.6371
▁communicate	-10.6371
▁underst	-10.6372
innen	-10.6376
▁mountain	-10.6381
▁station	-10.6385
▁Kreativität	-10.6391
▁Vertrauen	-10.6391
▁accident	-10.6394
▁existiert	-10.64
▁decades	-10.6405
▁prison	-10.6431
rat	-10.6434
▁Forscher	-10.6435
▁neighborhood	-10.6435
▁öffnen	-10.6435
▁Institution	-10.6436
schreibt	-10.6436
▁aware	-10.6437
▁Zustand	-10.6442
▁wood	-10.6443
▁perfekt	-10.6445
▁recent	-10.6449
▁capital	-10.6456
▁grundlegende	-10.6457
▁Jahrhunderts	-10.6459
hal	-10.6461
▁layer	-10.6464
▁blaue	-10.6472
eh	-10.6475
▁dynamic	-10.648
▁chair	-10.648
▁societies	-10.648
▁komme	-10.6508
▁release	-10.6512
▁define	-10.6524
▁em	-10.6524
▁Kontakt	-10.6525
▁worst	-10.6525
▁2010	-10.6525
▁Materialien	-10.6525
war	-10.6525
▁below	-10.6534
▁Gefängnis	-10.6539
▁verkauft	-10.6554
▁dunkle	-10.6558
werk	-10.6559
▁natürliche	-10.656
▁Plastik	-10.657
▁sentence	-10.657
▁switch	-10.657
▁Verfügung	-10.657
▁Nähe	-10.657
▁Biologie	-10.657
▁thanks	-10.6574
▁introduce	-10.6579
▁genutzt	-10.6585
ization	-10.6592
▁wählen	-10.6594
▁la	-10.6602
akt	-10.6603
rufen	-10.6605
▁glass	-10.6608
cher	-10.6614
▁identit	-10.6615
▁profound	-10.6615
▁Motor	-10.6616
▁careful	-10.6617
▁birth	-10.6621
▁agree	-10.6624
▁afr	-10.6626
▁ball	-10.6632
▁Objekte	-10.6633
▁lief	-10.6639
ng	-10.6642
▁Spitze	-10.6643
▁event	-10.6647
▁Per	-10.6651
▁advance	-10.6652
▁Neuro	-10.6657
▁responsibilit	-10.666
▁technique	-10.666
▁destroy	-10.666
▁civilization	-10.666
▁Lebensmittel	-10.6661
▁capacity	-10.6664
▁Physik	-10.6669
▁scientist	-10.6672
▁paid	-10.6673
▁gelang	-10.6678
▁Gas	-10.6678
gel	-10.6695
▁glaubt	-10.6696
▁deutlich	-10.6706
▁oxygen	-10.6706
▁tremendous	-10.6706
▁kontrollieren	-10.6706
▁micro	-10.6706
▁atmosphere	-10.6711
▁erlaub	-10.6719
▁sustainabl	-10.672
▁ließ	-10.6722
▁To	-10.6722
▁gebe	-10.6723
▁Worten	-10.6727
▁aufgenommen	-10.6728
▁mach	-10.6737
▁Fl	-10.6742
▁gewisse	-10.6742
▁Opfer	-10.6752
▁behandelt	-10.6752
▁Professor	-10.6758
▁Ar	-10.6767
▁method	-10.677
▁elektrische	-10.6773
▁serve	-10.6782
recht	-10.6791
ang	-10.6797
▁Bedingung	-10.6798
▁sister	-10.6798
▁flight	-10.6798
▁nachdenke	-10.6798
ong	-10.6801
▁w	-10.6803
▁Gehirns	-10.6805
▁random	-10.6812
▁kling	-10.6813
▁minds	-10.6819
▁75	-10.682
▁rid	-10.6822
▁spreche	-10.6824
▁h	-10.6828
▁fold	-10.6828
▁argue	-10.6829
▁wahre	-10.6837
▁capture	-10.6841
▁Street	-10.6844
▁bridge	-10.6845
▁allerding	-10.6845
▁option	-10.6846
▁23	-10.6855
▁citizens	-10.6856
▁researcher	-10.6856
▁chemical	-10.6861
▁veröffentlicht	-10.6868
ivity	-10.687
▁normale	-10.687
▁controll	-10.6877
▁Bar	-10.6883
für	-10.6888
▁Geschwindigkeit	-10.6891
▁Sauerstoff	-10.6891
▁muscle	-10.6891
▁twice	-10.6891
▁consciousness	-10.6892
▁rapid	-10.6892
▁Wow	-10.6893
▁Stein	-10.6899
▁lautet	-10.6899
▁boat	-10.6903
mittel	-10.6904
▁sick	-10.6912
▁Center	-10.6914
stern	-10.6919
▁Tieren	-10.6923
▁rough	-10.6926
▁workers	-10.6935
▁Tochter	-10.6937
▁ancient	-10.6937
▁begonne	-10.6938
▁Gi	-10.6938
▁Ausdruck	-10.6938
▁entlang	-10.6938
▁How	-10.6941
ett	-10.6941
▁falsche	-10.6943
▁willing	-10.6943
▁sicherlich	-10.6944
▁Wi	-10.6947
▁Ansatz	-10.6948
▁folgende	-10.695
▁traditionelle	-10.6955
schlag	-10.6956
▁highly	-10.6958
▁Konferenz	-10.696
gang	-10.6969
▁Ah	-10.6973
▁Kommunikation	-10.6976
gebaut	-10.6979
▁smell	-10.6984
▁überzeugt	-10.6984
▁rational	-10.6985
▁threat	-10.6988
▁benötigt	-10.6989
▁erstaunliche	-10.6996
weisen	-10.6998
än	-10.7001
▁Zelle	-10.7001
▁gegangen	-10.702
▁Jung	-10.7023
▁challenges	-10.7026
▁Schutz	-10.7031
▁Neuronen	-10.7033
▁grüne	-10.7037
▁10,000	-10.7039
buch	-10.7051
▁Beine	-10.706
▁Wikipedia	-10.7079
▁classroom	-10.7079
▁ändert	-10.7083
▁Infrastruktur	-10.7084
▁Mikro	-10.7087
▁nutzt	-10.7088
▁grosse	-10.7096
▁Green	-10.7103
▁noise	-10.7104
▁birds	-10.7107
ierten	-10.7108
▁rote	-10.7114
▁Hu	-10.7114
ssystem	-10.7118
tel	-10.7125
▁notwendig	-10.7127
▁sector	-10.7127
▁Großbritannien	-10.7127
▁letztendlich	-10.7127
▁lack	-10.7127
▁Ansicht	-10.7127
▁dying	-10.7128
▁täglich	-10.7135
▁ähnliche	-10.7139
▁einfacher	-10.714
▁Gefühle	-10.7147
pite	-10.7151
▁net	-10.7155
▁networks	-10.716
▁geschaff	-10.7168
▁Chicago	-10.7174
▁article	-10.7174
▁collective	-10.7176
▁Wandel	-10.7176
▁effects	-10.718
ki	-10.7182
▁gil	-10.7195
▁generate	-10.7196
▁Pakistan	-10.721
▁drawing	-10.7213
▁setzt	-10.7216
▁rare	-10.722
▁architect	-10.7222
▁ermöglichen	-10.7223
▁hopeful	-10.7225
od	-10.7225
▁inspired	-10.7238
ick	-10.724
▁weiss	-10.7241
▁broken	-10.7244
▁landscape	-10.7249
▁Antworten	-10.725
▁Ecke	-10.7252
trägt	-10.7253
▁Geräte	-10.7255
▁trick	-10.7259
▁Waffen	-10.7262
▁beeinflussen	-10.7271
▁campaign	-10.7271
▁Ausbildung	-10.7271
▁imagination	-10.7272
▁dagegen	-10.7275
▁complexity	-10.7276
▁relevant	-10.7276
▁Strategie	-10.728
▁apart	-10.7281
▁Bett	-10.7286
▁Mu	-10.7286
▁Nach	-10.7293
nden	-10.7295
▁erinnert	-10.73
▁spät	-10.7301
bt	-10.7303
erstellen	-10.7306
genommen	-10.7311
▁Materie	-10.7319
▁dorthin	-10.7325
▁Spiele	-10.7329
▁Big	-10.7335
▁notion	-10.7336
▁bestehen	-10.7337
▁states	-10.7338
▁Gesetze	-10.734
▁Unterschiede	-10.7341
▁Medikamente	-10.7341
▁Farben	-10.7342
▁wider	-10.7344
voll	-10.7351
▁halb	-10.7354
▁eating	-10.7354
▁gutes	-10.7357
▁bio	-10.7357
▁cycle	-10.7359
▁moralische	-10.7363
▁illegal	-10.7364
fin	-10.7367
▁commercial	-10.7368
▁reagiere	-10.7368
▁handeln	-10.737
ists	-10.7374
▁mark	-10.7375
▁Fortschritt	-10.7376
▁laws	-10.738
▁boys	-10.7385
▁Li	-10.739
▁praktisch	-10.7393
seite	-10.7395
▁operat	-10.7398
qui	-10.7398
press	-10.7399
▁Wir	-10.7402
board	-10.7402
sam	-10.741
▁algorithm	-10.7413
▁prove	-10.7416
▁Identität	-10.7417
▁Komplexität	-10.7417
▁continent	-10.7417
▁Middle	-10.7417
▁investment	-10.7419
▁darf	-10.7423
▁Baum	-10.7426
▁afrikanische	-10.7427
▁Gegend	-10.7429
▁And	-10.7431
tig	-10.7435
▁wert	-10.7436
tz	-10.7441
▁farm	-10.7448
▁entstehen	-10.745
▁metaphor	-10.7453
▁Klasse	-10.7457
▁entsteh	-10.746
▁express	-10.7464
ue	-10.7466
▁satellite	-10.7466
▁giant	-10.7466
▁divide	-10.7467
▁Neu	-10.7469
▁Lieblings	-10.7496
▁Teilen	-10.7496
▁Muslim	-10.7497
▁grade	-10.7498
▁Zeitung	-10.7503
▁graph	-10.7505
▁King	-10.7509
va	-10.7513
▁College	-10.7516
▁universal	-10.7516
▁airplane	-10.7516
▁monkey	-10.7516
▁yellow	-10.7516
▁GPS	-10.7516
▁1,000	-10.7517
▁tough	-10.7518
▁westliche	-10.752
▁mission	-10.7523
iz	-10.7524
▁contain	-10.7527
▁Vielfa	-10.7528
▁Norden	-10.7533
▁Jobs	-10.7542
▁22	-10.7545
▁religion	-10.7551
▁window	-10.7553
▁engage	-10.7554
▁Lo	-10.7564
▁nehme	-10.7565
▁sogenannte	-10.7566
▁überrascht	-10.7566
▁whale	-10.7566
▁reveal	-10.7566
▁ecosystem	-10.7566
▁Bildschirm	-10.7566
▁Ph	-10.7569
▁Frieden	-10.757
diversity	-10.7574
▁multi	-10.7579
▁Thi	-10.7588
▁Insekten	-10.7591
▁frühe	-10.7602
▁lass	-10.7604
▁Am	-10.7604
▁gap	-10.7605
▁verbreitet	-10.7608
base	-10.7613
▁relationships	-10.7615
▁Temperatur	-10.7616
▁Zeichen	-10.7616
▁coffee	-10.7616
▁Boston	-10.7616
▁reward	-10.7616
▁Loch	-10.7619
term	-10.7622
▁Wunsch	-10.7626
▁entschied	-10.7626
▁correct	-10.7627
zahl	-10.7631
▁engineer	-10.7649
industrie	-10.7651
▁bomb	-10.7659
▁lebte	-10.7661
ping	-10.7661
▁Super	-10.7664
▁encourage	-10.7666
▁bread	-10.7666
▁vast	-10.7669
ative	-10.7673
▁di	-10.7675
▁missing	-10.7676
▁definition	-10.7677
erleben	-10.7681
▁avoid	-10.7684
well	-10.7686
▁chinesische	-10.769
▁weiterhi	-10.7693
▁drin	-10.7694
par	-10.7695
▁inner	-10.7696
▁moderne	-10.7697
▁älter	-10.7699
▁Hirn	-10.7702
▁wunderbar	-10.7711
▁Mütter	-10.7716
▁kämpfen	-10.7717
▁Zusammenarbeit	-10.7717
▁earth	-10.7717
▁clever	-10.7717
▁kenne	-10.7723
ffentlich	-10.7724
ite	-10.7727
▁gene	-10.7727
▁basis	-10.7731
▁pack	-10.7734
j	-10.7734
led	-10.7735
▁designers	-10.7736
▁evolve	-10.7737
▁neighbor	-10.7767
▁Gewebe	-10.7767
▁Intelligenz	-10.7767
▁component	-10.7767
▁application	-10.7767
▁Golf	-10.7768
pt	-10.777
▁Präsident	-10.7781
▁erwartet	-10.7785
ship	-10.7786
▁Feld	-10.7795
▁fühle	-10.7796
▁enable	-10.7801
▁ernst	-10.7806
▁sh	-10.7809
▁High	-10.7818
▁Higgs	-10.7818
▁Obama	-10.7818
▁crime	-10.7818
▁radical	-10.7818
▁grand	-10.7819
▁Paris	-10.7819
▁Zeiten	-10.7819
▁loss	-10.7821
▁investieren	-10.7824
▁Junge	-10.7824
▁Reich	-10.7827
▁davor	-10.7827
▁Zentrum	-10.7833
▁Genom	-10.7837
les	-10.7845
▁fuhr	-10.7846
▁Klimawandel	-10.7863
▁Pu	-10.7866
▁benötige	-10.7869
▁president	-10.7869
▁leadership	-10.787
▁Gang	-10.7874
▁European	-10.7879
▁Virus	-10.7884
▁hearing	-10.79
band	-10.7914
▁Asia	-10.7918
wächst	-10.7921
▁Gewicht	-10.7921
▁breast	-10.7921
▁interessiere	-10.7921
▁opportunities	-10.7921
▁vermutlich	-10.7921
▁technical	-10.7921
▁dramatic	-10.7921
▁Satz	-10.7921
▁Einsatz	-10.7922
▁unlike	-10.7925
▁surprise	-10.7938
▁devices	-10.7954
DP	-10.7958
▁labor	-10.7958
▁creatures	-10.7964
▁Zusammenhang	-10.7973
▁competition	-10.7973
▁Holz	-10.7974
▁background	-10.7976
schaftliche	-10.7978
▁desert	-10.7978
▁blieb	-10.798
rüber	-10.7982
▁Kunden	-10.7993
▁hunderte	-10.7996
▁neuer	-10.7998
▁Ga	-10.8005
12	-10.8013
▁mid	-10.8016
▁farmers	-10.8021
▁lernt	-10.8024
▁Ho	-10.8024
▁Unterstützung	-10.8025
▁husband	-10.8025
▁Great	-10.8025
▁British	-10.8025
▁Life	-10.8025
▁recover	-10.8025
▁Titel	-10.8025
▁1990	-10.8025
▁outcome	-10.8025
zug	-10.8026
▁scene	-10.8026
▁dreht	-10.803
▁painting	-10.803
our	-10.8039
▁tumor	-10.8041
▁vote	-10.8043
▁Brot	-10.8047
▁dahin	-10.8051
▁efficient	-10.8056
▁gift	-10.8058
▁ring	-10.8069
▁bloß	-10.8071
▁motor	-10.8075
▁1960	-10.8078
▁strength	-10.8078
▁weird	-10.8078
▁solch	-10.8079
▁Sekunde	-10.8085
▁Perspektive	-10.8086
▁erforschen	-10.8089
▁bubble	-10.809
▁worry	-10.8092
▁Handy	-10.8093
▁Institute	-10.8096
▁core	-10.8097
▁persönlich	-10.8101
▁designer	-10.8105
eg	-10.8106
▁musst	-10.8113
▁zog	-10.8114
fahren	-10.8121
▁trip	-10.8125
▁Was	-10.8125
▁gewonnen	-10.813
▁nötig	-10.813
▁verfügbar	-10.813
▁Atmosphäre	-10.813
▁expand	-10.8135
▁beschäftigt	-10.8139
▁kümmer	-10.8141
▁schaute	-10.8147
▁600	-10.8147
▁museum	-10.8151
▁studie	-10.8155
isten	-10.8156
▁voraus	-10.8159
▁invite	-10.8164
arten	-10.8165
▁Sun	-10.817
▁steckt	-10.8172
▁reflect	-10.8174
▁bees	-10.8179
▁Finanz	-10.8182
▁Sozial	-10.8183
▁Wahrscheinlich	-10.8183
▁Martin	-10.8183
▁click	-10.8184
▁damage	-10.8184
▁Städten	-10.8184
▁Mission	-10.8189
▁gemeinsame	-10.8197
▁fashion	-10.8199
▁industrial	-10.8202
▁Ru	-10.8215
▁relativ	-10.8216
▁plann	-10.8227
▁fully	-10.8227
▁Höhe	-10.8234
▁Fernsehen	-10.8234
ana	-10.8234
▁Häuser	-10.8236
▁Ghana	-10.8236
▁Kenya	-10.8236
▁Irak	-10.8238
▁halte	-10.8244
▁Basis	-10.8245
▁streets	-10.8246
gegeben	-10.8253
▁Aufgaben	-10.8254
haft	-10.8258
▁mess	-10.8259
ight	-10.8261
▁Affen	-10.8264
▁werfen	-10.8272
▁Fische	-10.8274
▁graduate	-10.8276
▁Universums	-10.8277
ari	-10.8278
con	-10.8279
▁digitale	-10.8289
▁Frank	-10.8289
▁Müll	-10.8289
▁contact	-10.8289
▁fascinating	-10.8289
▁include	-10.829
▁enorme	-10.8291
▁durchgeführt	-10.8292
▁stem	-10.8294
▁2009	-10.8294
▁beschreiben	-10.83
▁Di	-10.8304
▁quote	-10.8305
▁produc	-10.831
kraft	-10.8312
▁Gesellschaften	-10.8315
ill	-10.8324
test	-10.8325
▁surviv	-10.833
tally	-10.8337
sta	-10.834
▁phenomeno	-10.8343
▁Knochen	-10.8343
▁Hintergrund	-10.8343
del	-10.8344
▁Haiti	-10.8344
du	-10.8345
▁alleine	-10.8347
▁Phänomen	-10.8353
▁lustig	-10.8355
▁professor	-10.8356
▁übertragen	-10.8358
lon	-10.836
▁Soldaten	-10.8361
val	-10.8367
night	-10.8371
▁signal	-10.8382
ade	-10.8386
▁Diskussion	-10.8397
▁Valley	-10.8397
▁begeistert	-10.8397
▁opposite	-10.8397
▁chain	-10.8397
▁Filme	-10.8408
▁bezahlt	-10.8409
▁bottle	-10.8409
▁verdienen	-10.8411
▁Funktion	-10.8415
▁unbe	-10.8418
▁Konflikt	-10.8419
▁promise	-10.8428
ändern	-10.8431
rausgefunden	-10.8436
haus	-10.8445
▁Ad	-10.845
▁Kräfte	-10.8452
▁Online	-10.8452
▁unbedingt	-10.8453
▁geführt	-10.8454
▁herunter	-10.8455
▁app	-10.8461
bereich	-10.8465
▁Ameisen	-10.8488
▁behaupte	-10.8488
▁lay	-10.8493
▁Karten	-10.8496
▁drehen	-10.8498
▁Modelle	-10.8502
ank	-10.8503
▁umgehen	-10.8503
▁adapt	-10.8505
▁Depression	-10.8506
▁Kontinent	-10.8506
▁Untersuchung	-10.8506
▁buchstäblich	-10.8506
▁kommunizieren	-10.8506
▁coast	-10.8506
▁Kontext	-10.8506
steigt	-10.8507
▁vollkommen	-10.8507
▁Sport	-10.8509
arm	-10.8516
▁plus	-10.8519
▁Sterne	-10.8523
▁involv	-10.8524
▁receive	-10.8525
▁lucky	-10.8527
▁versu	-10.8529
▁Fa	-10.8531
▁Her	-10.8542
▁Gute	-10.8545
▁combine	-10.8554
hilfe	-10.856
▁answers	-10.8561
zeichen	-10.8561
▁hauptsächlich	-10.8561
▁stolz	-10.8561
▁foreign	-10.8561
▁magazine	-10.8561
▁French	-10.8561
▁chose	-10.8562
▁Drittel	-10.8562
▁moon	-10.8565
▁entwickelte	-10.8566
▁erhielt	-10.8568
▁Babys	-10.857
kel	-10.8571
▁mouth	-10.8573
▁gefährlich	-10.8575
▁Politiker	-10.8577
▁bemerkt	-10.8579
▁Ro	-10.8581
▁dad	-10.8583
▁kulturelle	-10.8585
▁Or	-10.8586
ür	-10.8587
▁Rand	-10.859
wo	-10.8603
50	-10.8605
▁blow	-10.8606
struktur	-10.8616
▁Zivilisation	-10.8616
▁advantage	-10.8616
▁religious	-10.8616
▁Apple	-10.8618
▁hinweg	-10.8618
▁kreative	-10.8618
▁fantastisch	-10.862
stoff	-10.8629
▁Lu	-10.8646
▁pop	-10.8646
▁Begriff	-10.8652
▁Jahrzehnt	-10.8652
0	-10.8653
▁date	-10.8658
▁aspect	-10.866
▁Iraq	-10.8662
Z	-10.8669
▁civil	-10.8671
▁Science	-10.8672
ew	-10.8674
▁Faktor	-10.868
▁Inhalt	-10.8681
seits	-10.8682
▁Code	-10.8684
folge	-10.8685
▁forever	-10.8685
weg	-10.8686
▁TEDx	-10.8692
▁27	-10.8692
▁verbracht	-10.8693
▁Masse	-10.8698
lose	-10.8702
▁baute	-10.8705
▁responsibl	-10.8728
▁bright	-10.8729
▁spin	-10.8739
▁krank	-10.8744
▁stecken	-10.8758
▁sold	-10.877
▁suffering	-10.8772
▁perfekte	-10.8772
isiert	-10.8774
▁members	-10.8774
▁vollständig	-10.8776
▁untersucht	-10.8782
▁ba	-10.8783
heben	-10.8784
▁Sebastian	-10.8784
▁associate	-10.8784
▁gestalten	-10.8785
▁erstellt	-10.8785
▁Themen	-10.8786
▁Geschäfts	-10.8789
▁Grafik	-10.879
▁besitzen	-10.8799
▁lebende	-10.8801
▁Island	-10.8811
cken	-10.8812
▁wesentlich	-10.8819
▁passt	-10.8822
▁crowd	-10.8832
pro	-10.8836
▁zerstört	-10.8841
▁Fleisch	-10.8841
▁score	-10.8841
▁reaction	-10.8842
▁Angeles	-10.8845
▁Milliarde	-10.8847
▁Mark	-10.8854
▁location	-10.8857
▁Krise	-10.8859
▁electric	-10.8866
port	-10.8867
▁photos	-10.887
▁schließen	-10.8881
▁stream	-10.8882
▁Con	-10.889
sie	-10.8891
tag	-10.8891
▁soil	-10.8892
▁bi	-10.8895
▁Erklärung	-10.8897
▁Kaffee	-10.8897
▁Rat	-10.8899
▁unge	-10.89
▁Kindheit	-10.8902
▁Sea	-10.8904
▁Beste	-10.8905
ray	-10.8906
▁häufig	-10.8911
leg	-10.8916
▁dr	-10.8919
▁bird	-10.8921
▁20.	-10.8922
ped	-10.8923
▁island	-10.8923
wand	-10.8929
▁Träume	-10.8937
markt	-10.8945
▁Mexic	-10.8945
▁Wirtschafts	-10.8946
▁Microsoft	-10.8955
▁1980	-10.8955
▁scheinen	-10.8956
nis	-10.8957
▁according	-10.8959
▁Fabrik	-10.8959
▁creation	-10.8963
▁expression	-10.8967
▁po	-10.8973
▁leading	-10.8976
ep	-10.8976
▁Experimente	-10.8982
▁biologische	-10.8984
▁einge	-10.8985
▁brother	-10.8986
▁Groß	-10.8992
▁internationale	-10.9009
▁detect	-10.901
▁Wahrnehmung	-10.9012
▁mathematics	-10.9012
▁töten	-10.9012
▁kürzlich	-10.9012
▁cognitive	-10.9013
▁schien	-10.9014
▁Radio	-10.9017
unt	-10.902
▁related	-10.902
▁hängt	-10.9021
▁laugh	-10.9021
▁held	-10.9029
▁sa	-10.9032
▁dollar	-10.9035
▁erkannte	-10.9035
▁Tumor	-10.9044
gleich	-10.9045
11	-10.9059
tisch	-10.9061
▁Geburt	-10.9068
▁Tim	-10.9069
▁attempt	-10.907
▁childhood	-10.907
▁insight	-10.9073
▁Laptop	-10.9081
▁Regen	-10.9082
teilen	-10.9084
▁Tausende	-10.9087
▁wuchs	-10.9088
▁extend	-10.909
▁bezahle	-10.9091
▁las	-10.9094
▁typical	-10.9096
eil	-10.9098
▁vi	-10.9102
▁verbringe	-10.9103
▁filter	-10.9105
▁rechten	-10.9105
▁Spielen	-10.9109
▁Ball	-10.9117
▁selten	-10.9118
▁Can	-10.9121
▁faith	-10.9128
▁interagieren	-10.9128
▁lunch	-10.9128
▁verantwortlich	-10.9128
▁poll	-10.9131
rate	-10.9131
▁weapons	-10.9134
▁Forschungs	-10.9136
▁gesund	-10.9137
tech	-10.9138
gh	-10.9148
alität	-10.9151
▁cloud	-10.9158
▁Mi	-10.9158
uelle	-10.916
log	-10.9161
▁Jim	-10.9167
▁bus	-10.9169
▁mittler	-10.917
▁spezielle	-10.9176
▁Erd	-10.9178
▁Bob	-10.918
▁author	-10.9181
▁dran	-10.9181
▁fantastische	-10.9183
▁Australia	-10.9186
▁fresh	-10.9186
▁leaving	-10.9186
▁Rahmen	-10.9187
▁exercise	-10.9187
▁Lektion	-10.9188
schw	-10.9188
▁Schw	-10.9189
▁solid	-10.9189
▁Hoch	-10.9194
fährt	-10.9197
▁elements	-10.9199
▁Spieler	-10.921
▁überzeugen	-10.9211
▁reicht	-10.9213
▁pump	-10.9217
▁th	-10.9218
kon	-10.9223
ney	-10.9224
▁Gespräch	-10.923
▁genauer	-10.9237
▁morgen	-10.9238
▁öffentlich	-10.9242
▁newspaper	-10.9245
▁dürfe	-10.9246
▁fiel	-10.9246
▁verhindern	-10.9246
▁depression	-10.9247
0,000	-10.9247
▁tausend	-10.9252
▁conscious	-10.9252
▁v	-10.9257
▁kilometer	-10.926
▁emerg	-10.9261
▁operation	-10.9266
▁Einkommen	-10.9271
▁seltsam	-10.9271
▁aufge	-10.9282
gestellt	-10.9287
▁Ju	-10.9302
bu	-10.9302
▁regular	-10.9304
▁horse	-10.9304
▁interface	-10.9305
▁display	-10.9305
▁Großteil	-10.9305
▁stuck	-10.9305
▁lachen	-10.9305
▁proud	-10.9307
▁entwerfen	-10.9312
▁Militär	-10.9313
▁gegenseitig	-10.9315
▁Nicht	-10.9317
▁verfolgen	-10.932
▁überraschend	-10.9324
▁invisible	-10.9328
▁heran	-10.9332
▁talks	-10.9339
▁Da	-10.9345
▁Staat	-10.9353
▁vergleichen	-10.9355
▁innovative	-10.9357
▁strategy	-10.9364
▁Schluss	-10.9364
▁mouse	-10.9364
▁sorgen	-10.9364
▁hidden	-10.9365
sicht	-10.9365
▁Landwirtschaft	-10.9365
▁bestimmen	-10.9368
orker	-10.9377
▁discovery	-10.9378
desto	-10.9381
▁events	-10.9384
▁independent	-10.9384
▁copy	-10.9389
▁Hund	-10.9391
▁tens	-10.9392
▁deeply	-10.9393
▁Gefahr	-10.9393
mann	-10.9398
▁Fe	-10.9398
▁Moleküle	-10.9401
▁traffic	-10.9405
▁harm	-10.9406
▁Lern	-10.9417
▁Beweis	-10.9418
▁spirit	-10.9419
▁usw	-10.9423
pri	-10.9423
▁platform	-10.9424
▁succeed	-10.9424
▁pair	-10.9424
▁odd	-10.9425
▁election	-10.9425
▁Boot	-10.9426
▁Verstand	-10.9426
stellung	-10.9427
▁genetische	-10.9428
▁schrecklich	-10.943
▁könnt	-10.9433
▁era	-10.9439
▁basiert	-10.944
▁folgt	-10.9453
▁Schmerz	-10.9454
▁occur	-10.9458
over	-10.9459
▁robotic	-10.9461
▁debate	-10.9467
▁Laden	-10.9468
▁einsetzen	-10.9471
▁aktuelle	-10.9476
▁dot	-10.9477
▁writer	-10.948
▁seriously	-10.9482
▁International	-10.9484
▁economist	-10.9484
▁hurt	-10.9484
▁honor	-10.9484
▁That	-10.9484
▁mindesten	-10.9484
▁stammt	-10.9485
ffentlichkeit	-10.9485
▁verwandeln	-10.9486
▁invention	-10.9489
▁geh	-10.949
▁Ziele	-10.9491
▁party	-10.9492
▁Joe	-10.9495
▁river	-10.9497
▁suffer	-10.9498
▁band	-10.9499
▁holding	-10.9509
▁university	-10.9511
▁Interaktion	-10.9514
▁match	-10.9521
schalten	-10.9533
▁talent	-10.9536
▁roof	-10.9545
qua	-10.9545
leistung	-10.9545
▁Schwierigkeit	-10.9545
▁Vögel	-10.9545
▁General	-10.9545
▁Zimmer	-10.9545
▁struggle	-10.9545
▁Klang	-10.9546
▁curve	-10.9548
▁Unternehmer	-10.9551
▁BG	-10.9551
▁Strukturen	-10.9556
▁claim	-10.9559
lange	-10.9567
▁Nutzen	-10.9569
fach	-10.957
▁arrive	-10.9571
▁baut	-10.9578
▁verbessert	-10.958
▁row	-10.958
▁Red	-10.9589
▁250	-10.9589
▁Nation	-10.9591
wir	-10.9592
▁Sprachen	-10.9592
gekommen	-10.9594
▁tie	-10.9599
▁Rätsel	-10.9606
▁Zucker	-10.9606
▁empower	-10.9606
▁Handlung	-10.9606
▁Bruder	-10.9606
▁irgendetw	-10.9607
▁Absicht	-10.9607
▁suit	-10.9607
▁tail	-10.9611
▁hop	-10.9612
▁setzte	-10.9614
▁Und	-10.9615
▁desire	-10.9617
cht	-10.9619
▁lie	-10.9623
maßen	-10.9634
▁Kreis	-10.9637
▁Entdeckung	-10.9638
▁zurückzu	-10.9644
▁mitten	-10.965
▁replace	-10.9659
▁topic	-10.9663
▁wisdom	-10.9667
▁getötet	-10.9667
▁ordinar	-10.9667
▁vorhanden	-10.9667
▁crash	-10.9668
▁stärker	-10.9669
▁disaster	-10.967
▁Bush	-10.9671
▁multiple	-10.9679
zellen	-10.9682
▁Minute	-10.9684
feld	-10.9685
▁tue	-10.9687
▁foundation	-10.9688
ris	-10.9688
ag	-10.9688
ov	-10.9697
life	-10.9698
▁Ex	-10.9703
▁metal	-10.9704
▁meat	-10.9705
▁Mad	-10.9707
berleben	-10.9709
▁practical	-10.9711
fish	-10.9715
▁Maus	-10.9718
lage	-10.9719
▁offene	-10.9722
isieren	-10.9727
▁Kalifornien	-10.9729
bewegung	-10.9729
▁Augenblick	-10.9729
▁galaxie	-10.9729
▁Tanz	-10.9735
▁unabhängig	-10.9735
▁truck	-10.9736
▁remove	-10.9738
▁motion	-10.9743
▁eingesetzt	-10.9743
▁Folgende	-10.9746
▁lies	-10.9753
▁II	-10.9754
▁translate	-10.9763
▁closed	-10.977
oo	-10.9773
▁schlimmer	-10.9783
lei	-10.9785
▁cry	-10.9785
ual	-10.9785
20	-10.9785
▁Individu	-10.9785
▁Amazon	-10.9789
▁Uganda	-10.9791
▁beschäftige	-10.9791
▁round	-10.9791
▁discussion	-10.9793
▁Kohle	-10.9794
▁transformation	-10.9795
▁Charakter	-10.9796
▁budget	-10.9803
▁engineers	-10.9807
▁Schimpansen	-10.9808
▁names	-10.9809
▁Kerl	-10.9815
▁erzähle	-10.982
▁Air	-10.9824
erung	-10.9833
ischer	-10.9833
▁leader	-10.9836
▁fac	-10.9837
▁Rück	-10.9849
▁planets	-10.9851
▁dreams	-10.9852
▁Texas	-10.9853
▁Zuschauer	-10.9853
▁verwandelt	-10.9853
▁narrative	-10.9854
▁clip	-10.9855
▁Mund	-10.9858
▁ihres	-10.9858
▁profit	-10.9859
▁pure	-10.9859
▁pounds	-10.9862
▁frame	-10.9865
lig	-10.9869
▁mix	-10.9871
▁Meilen	-10.988
▁angesehen	-10.9885
▁chemische	-10.9887
▁Landschaft	-10.9891
▁wunderschöne	-10.9893
work	-10.9895
▁Arab	-10.9896
▁journalist	-10.9897
▁Erste	-10.9899
▁Standard	-10.99
ious	-10.9911
▁Massen	-10.9912
▁Investition	-10.9916
▁Tradition	-10.9916
▁variet	-10.9916
station	-10.9917
▁anfing	-10.9918
▁DH	-10.9921
▁Bu	-10.9922
▁precise	-10.9926
▁hergestellt	-10.9928
▁dozen	-10.9943
zukommen	-10.9946
▁remote	-10.9947
▁gold	-10.9953
▁rief	-10.9958
eb	-10.996
▁evolv	-10.9965
▁quiet	-10.9979
▁grandmother	-10.998
▁equivalent	-10.998
▁mirror	-10.998
▁1970	-10.998
▁Gehirne	-10.998
▁1950	-10.998
▁smile	-10.998
▁2006	-10.9984
▁bieten	-10.9985
▁visuelle	-10.9988
▁garden	-10.9988
▁shock	-10.9996
▁lo	-10.9998
▁technische	-10.9999
▁Wal	-11.0002
▁factory	-11.0006
▁oceans	-11.0006
▁Bein	-11.0008
▁Hunde	-11.001
▁flat	-11.0012
▁Experten	-11.0015
▁walls	-11.0019
▁bag	-11.0021
acy	-11.003
▁driver	-11.0031
▁verteilt	-11.0043
▁Umstände	-11.0043
▁Einstellung	-11.0044
zer	-11.0044
▁virtuelle	-11.0044
▁artificial	-11.0046
▁Jack	-11.0049
▁consumption	-11.0049
▁Mitarbeiter	-11.0051
▁Pat	-11.0051
▁Klein	-11.0055
▁worrie	-11.0058
▁Erkenntnis	-11.0059
▁brief	-11.0059
▁Volk	-11.006
hu	-11.0064
▁Gedanke	-11.0065
za	-11.0067
▁höhere	-11.0071
▁inspiriert	-11.0073
▁mis	-11.0075
▁knowing	-11.0076
▁organize	-11.0087
▁Kar	-11.0087
krieg	-11.0096
▁erlebt	-11.0098
▁spielte	-11.0101
▁grundsätzlich	-11.0107
▁Januar	-11.0107
▁Stanford	-11.0107
▁entworfen	-11.0107
▁Zitat	-11.0107
▁dinner	-11.0108
▁Muskel	-11.0108
▁politician	-11.0108
Fi	-11.0108
rew	-11.0112
▁sichtbar	-11.0114
brechen	-11.0115
wert	-11.0116
▁Top	-11.0118
▁Br	-11.0119
▁einiger	-11.0121
▁Star	-11.0128
raten	-11.0134
gegangen	-11.0146
▁proper	-11.0147
▁ma	-11.0148
▁plane	-11.0151
▁dauert	-11.0158
▁Stimmen	-11.0159
▁Netzwerke	-11.016
▁emotion	-11.0162
met	-11.0166
▁enorm	-11.017
▁elephant	-11.0172
▁epidemic	-11.0172
▁opinion	-11.0172
▁Haufen	-11.0172
▁unterscheiden	-11.0172
gar	-11.0174
▁Zeitalter	-11.0175
▁Metapher	-11.0177
▁distribution	-11.0178
▁string	-11.0189
▁Videos	-11.0189
▁Folge	-11.0194
daten	-11.0196
▁stelle	-11.0197
▁nützlich	-11.0199
▁organic	-11.0204
▁master	-11.0205
▁32	-11.0211
▁verbrachte	-11.0214
▁holen	-11.0214
▁surprised	-11.0216
▁Grenze	-11.0216
▁26	-11.0219
ete	-11.0219
mat	-11.0219
▁Sorgen	-11.0225
▁Vogel	-11.0232
▁Kohlenstoff	-11.0237
▁identify	-11.0237
▁laptop	-11.0237
▁Dinosaurier	-11.0237
▁Stress	-11.0237
▁weather	-11.0237
▁error	-11.0238
▁camp	-11.0239
▁sensor	-11.0241
▁65	-11.0243
▁nah	-11.026
▁unles	-11.0263
▁occurr	-11.0265
wegs	-11.0267
▁erster	-11.0267
▁Nationen	-11.0268
istische	-11.027
▁collapse	-11.0275
▁taste	-11.0275
▁bedeuten	-11.0277
▁patent	-11.0278
▁load	-11.0285
▁rede	-11.0288
graph	-11.0296
▁dolphin	-11.0302
▁nervous	-11.0302
▁unterstützt	-11.0302
▁curious	-11.0302
▁beantworten	-11.0302
▁joy	-11.0302
▁Laufe	-11.0303
▁Null	-11.0305
▁Diagramm	-11.0311
ham	-11.0312
▁zukünftige	-11.0313
▁Elemente	-11.0318
▁Galaxien	-11.0319
▁brings	-11.0325
greifen	-11.0325
▁Jahrzehnte	-11.0326
▁equip	-11.0326
▁Bauern	-11.0329
▁Wie	-11.033
Be	-11.0351
▁Rot	-11.0357
▁Hans	-11.036
▁pen	-11.0364
▁construct	-11.0365
chi	-11.0365
▁Der	-11.0366
▁galax	-11.0367
▁Räume	-11.0368
▁mathematical	-11.0368
▁Märkte	-11.0368
▁Brown	-11.0368
stadt	-11.0368
▁peak	-11.0369
▁2,000	-11.0371
schließen	-11.0373
▁dry	-11.0375
▁Website	-11.0377
▁Vorteil	-11.0377
▁Mut	-11.0379
▁erhält	-11.0379
rei	-11.0382
▁mögliche	-11.0383
▁eng	-11.0383
▁surround	-11.0387
▁authorit	-11.0391
▁Ri	-11.0393
▁spoke	-11.0393
kosystem	-11.0396
▁Lied	-11.0398
▁zoom	-11.0399
▁Mary	-11.04
pan	-11.0401
▁statistics	-11.0406
▁gehalten	-11.0415
▁aufregend	-11.0415
▁hoffen	-11.0425
▁skill	-11.0426
▁Not	-11.0428
▁abhängig	-11.0432
▁discuss	-11.0432
▁Brazil	-11.0434
▁channel	-11.0434
▁rural	-11.0434
▁awful	-11.0434
▁chart	-11.0434
▁marriage	-11.0435
▁vertraut	-11.0435
▁Unterhaltung	-11.0435
▁Ausmaß	-11.0437
▁emotions	-11.0438
▁Theater	-11.0441
uhause	-11.0451
▁Schwester	-11.046
ev	-11.0472
▁Hai	-11.0477
▁killing	-11.0478
▁Aspekt	-11.0482
▁Anti	-11.049
▁komm	-11.049
▁Text	-11.0493
▁120	-11.0493
▁beobachtet	-11.0497
▁Mac	-11.0498
▁faszinierend	-11.0498
▁gäbe	-11.0501
▁intellectual	-11.0501
▁kontrolliert	-11.0501
▁verbreiten	-11.0501
▁Phase	-11.0501
▁rocket	-11.0503
ort	-11.0503
▁Glauben	-11.0504
▁marri	-11.0505
▁Wettbewerb	-11.0508
fallen	-11.0509
quelle	-11.051
rang	-11.0512
vis	-11.0517
▁fourth	-11.0519
▁soviel	-11.0521
uer	-11.0531
▁auseinander	-11.0537
▁versteh	-11.0551
▁Arbeiter	-11.0552
ziel	-11.0553
for	-11.0554
▁crack	-11.0568
▁fortunate	-11.0568
▁Spiegel	-11.0568
▁perception	-11.0568
▁justice	-11.0569
▁Pi	-11.0572
eln	-11.0573
▁due	-11.0574
▁zugänglich	-11.0577
▁10.000	-11.0577
▁besondere	-11.0578
▁Weil	-11.0579
▁grün	-11.0581
▁highest	-11.0581
▁fr	-11.0585
▁Brust	-11.0586
▁theater	-11.0586
▁frage	-11.0587
▁21.	-11.0591
▁actor	-11.0595
▁Insel	-11.0596
▁schwarz	-11.0597
▁erfinden	-11.0597
▁sc	-11.06
▁Wa	-11.0601
▁wundervolle	-11.0606
▁gesunde	-11.0607
▁Rad	-11.0607
▁bekamen	-11.0607
▁App	-11.0609
▁indische	-11.062
jo	-11.062
ose	-11.0621
▁nett	-11.0627
▁Führung	-11.0628
▁govern	-11.063
▁Zwei	-11.0632
▁exchange	-11.0632
schrift	-11.0635
▁Viren	-11.0636
▁existieren	-11.0637
▁analog	-11.0638
▁winzige	-11.0644
▁Mc	-11.0647
▁speziell	-11.0648
arbeiten	-11.0652
▁glaubte	-11.0653
▁feels	-11.0667
▁Nord	-11.0675
tritt	-11.0675
▁mentioned	-11.0675
▁blau	-11.0676
▁Helden	-11.0677
gesehen	-11.0681
▁Ze	-11.0685
▁cure	-11.0686
▁ange	-11.0701
▁Hollywood	-11.0704
▁sugar	-11.0704
▁survey	-11.0704
▁feedback	-11.0704
▁fördern	-11.0704
▁gehören	-11.0706
net	-11.0712
ker	-11.0715
typ	-11.072
▁member	-11.0723
gezogen	-11.0723
▁Annahme	-11.0725
▁aufbauen	-11.0728
kennt	-11.0734
▁Ehe	-11.0734
▁electrical	-11.0739
bility	-11.0743
▁beinhaltet	-11.0748
▁limited	-11.0752
car	-11.0755
▁ride	-11.0767
pel	-11.0768
barkeit	-11.0772
▁Lebewesen	-11.0772
▁Oxford	-11.0772
▁Wesentliche	-11.0772
▁Derek	-11.0772
▁SMS	-11.0773
▁Japanese	-11.0773
▁employee	-11.0773
▁Heimat	-11.0774
▁construction	-11.0775
▁fell	-11.0776
▁yester	-11.0777
▁reichen	-11.0779
▁100,000	-11.078
▁Gleiche	-11.0781
▁entstanden	-11.0781
▁parallel	-11.0782
▁erwähnt	-11.0783
wisst	-11.0783
▁wenigsten	-11.0783
▁28	-11.0783
▁Spa	-11.0785
ile	-11.079
unk	-11.0792
▁Teilchen	-11.0801
▁brauche	-11.0802
▁Korea	-11.0808
▁Eric	-11.0813
▁stone	-11.0818
material	-11.082
ory	-11.0823
▁soldiers	-11.0825
▁agricultur	-11.0829
▁Act	-11.0835
▁consequences	-11.0836
▁realiz	-11.0839
▁ließen	-11.084
▁Brasilien	-11.0841
▁Foundation	-11.0841
▁Project	-11.0841
▁Wirkung	-11.0841
▁vaccine	-11.0841
▁Einrichtung	-11.0841
▁Eindruck	-11.0842
▁entspricht	-11.0843
▁Rock	-11.0843
▁Produktion	-11.0844
▁phones	-11.0845
▁zerstören	-11.085
▁Abschluss	-11.0851
▁Beweise	-11.0857
▁Werk	-11.0858
▁van	-11.0859
rad	-11.0859
▁fat	-11.0859
▁Bedürfnisse	-11.0862
▁speaker	-11.0864
bauen	-11.0864
linie	-11.0879
▁Organismen	-11.088
▁Ernährung	-11.088
▁Post	-11.0893
▁conduct	-11.0896
▁spider	-11.091
▁transparent	-11.091
▁tomorrow	-11.091
▁evil	-11.0911
▁meist	-11.0911
▁Malaria	-11.0911
▁Garten	-11.0916
▁besagt	-11.0916
▁operate	-11.0922
▁belong	-11.0924
▁Dach	-11.0933
gu	-11.0935
▁Zug	-11.0939
▁wheel	-11.0943
▁Entwicklungsl	-11.0945
▁seltsame	-11.095
bung	-11.0951
▁Stand	-11.0952
▁stoo	-11.096
▁Methoden	-11.0967
▁users	-11.0969
systeme	-11.0975
▁scan	-11.0976
▁cl	-11.0978
▁Gericht	-11.0979
▁Kapital	-11.098
▁volunteer	-11.098
▁property	-11.0981
▁verbindet	-11.0981
▁novel	-11.0981
▁Ingenieur	-11.0982
▁kick	-11.0983
▁steigen	-11.099
▁lifetime	-11.0992
▁Kr	-11.0992
▁automatisch	-11.0992
ind	-11.0994
▁setting	-11.0996
▁chicken	-11.0999
mus	-11.1002
▁harder	-11.1002
▁gather	-11.1005
▁95	-11.101
▁fäng	-11.1013
no	-11.1015
▁climb	-11.1018
▁seines	-11.1028
heim	-11.1029
▁facilit	-11.1031
▁schlagen	-11.1033
▁demonstrate	-11.1041
▁Planet	-11.1043
▁behalten	-11.1048
▁drübe	-11.1048
ps	-11.105
▁ancestor	-11.1051
▁empty	-11.1051
▁entertain	-11.1051
▁doppelt	-11.1051
▁fellow	-11.1051
▁grown	-11.1051
▁Füße	-11.1052
▁collection	-11.1056
▁toilet	-11.1057
▁erscheinen	-11.1059
▁Schrift	-11.1066
▁religiöse	-11.1066
use	-11.107
▁shoot	-11.1074
verständlich	-11.1077
let	-11.1082
▁hide	-11.1089
▁mothers	-11.1099
▁angenommen	-11.1099
▁symmetr	-11.1105
▁physische	-11.1107
▁shop	-11.1108
▁extract	-11.111
▁dimensions	-11.1111
▁künstliche	-11.1111
▁burn	-11.1116
platz	-11.1117
▁shapes	-11.1118
▁Elektrizität	-11.1122
▁pleasure	-11.1122
▁Open	-11.1122
▁malaria	-11.1122
▁Gates	-11.1122
▁TEDTalk	-11.1123
▁applie	-11.1123
▁initial	-11.1124
▁musician	-11.1125
▁zahlen	-11.1126
▁berührt	-11.1128
▁verschieden	-11.1133
▁gelesen	-11.1137
▁Meeres	-11.1137
probieren	-11.1139
Mail	-11.114
getragen	-11.1143
ese	-11.1144
ified	-11.1144
▁shoes	-11.1144
Gesundheitswesen	-11.1148
▁explor	-11.1154
▁Generationen	-11.1158
▁zählen	-11.116
▁economics	-11.116
▁losing	-11.1162
▁grab	-11.1164
▁entdeckte	-11.1172
▁übrig	-11.1174
▁legt	-11.1179
set	-11.1182
elle	-11.1186
weite	-11.1187
▁weiteren	-11.1189
▁Smith	-11.1193
▁Hinsicht	-11.1193
▁stupid	-11.1193
▁geändert	-11.1193
▁reduzieren	-11.1193
kind	-11.1193
▁Wohlstand	-11.1193
▁definieren	-11.1194
▁194	-11.1194
▁flies	-11.1196
▁2001	-11.1198
▁boom	-11.12
wi	-11.1201
▁infect	-11.1205
▁Lauf	-11.1206
▁pig	-11.1206
▁reform	-11.122
▁meinte	-11.1222
gruppe	-11.123
▁Gras	-11.1236
wirtschaft	-11.1238
can	-11.1247
▁Bewegungen	-11.1249
▁tap	-11.1254
table	-11.1256
▁adopt	-11.1256
row	-11.1259
▁Kombination	-11.1265
▁Nor	-11.1265
▁teuer	-11.1266
▁inform	-11.1267
▁matters	-11.1272
▁Webseite	-11.1274
▁orange	-11.1274
▁Union	-11.1275
▁Weltraum	-11.1276
och	-11.1279
▁Don	-11.128
▁grid	-11.1281
▁geschickt	-11.1287
▁mistake	-11.1292
fähig	-11.1293
▁spaces	-11.1295
▁biete	-11.1296
▁Fakten	-11.13
▁Lager	-11.13
▁comfortabl	-11.13
▁Schiff	-11.1303
▁battle	-11.1307
▁folks	-11.1315
ehr	-11.1323
Ge	-11.1323
▁fle	-11.1323
▁clinic	-11.1325
▁Atom	-11.1325
▁verschwinden	-11.1325
machen	-11.1329
▁Steuer	-11.133
▁meiste	-11.1331
▁kompliziert	-11.1335
▁Hinter	-11.1337
▁Florida	-11.1338
▁Mexiko	-11.1338
▁chimpanzee	-11.1338
▁equation	-11.1338
▁gestorben	-11.1338
▁categor	-11.1338
▁bildet	-11.1338
▁Schatten	-11.1338
▁wake	-11.1338
▁brachten	-11.1339
▁Wo	-11.1341
▁Hallo	-11.1343
▁Wein	-11.1347
▁enem	-11.1347
▁Sprach	-11.1353
▁spring	-11.1354
▁clinical	-11.1359
▁continu	-11.1361
▁Rücken	-11.137
▁gang	-11.1371
▁Details	-11.1379
wesen	-11.138
▁Ur	-11.1381
wei	-11.1384
▁generations	-11.1384
▁UN	-11.139
istic	-11.1393
änge	-11.1394
▁arme	-11.1395
schläg	-11.1396
▁print	-11.1397
sprache	-11.1407
druck	-11.1408
▁happi	-11.1409
▁Definition	-11.1411
▁Manhattan	-11.1411
▁eindeutig	-11.1411
▁liberal	-11.1411
▁joke	-11.1411
▁vergangen	-11.1411
▁Korruption	-11.1411
▁Atem	-11.1411
▁studieren	-11.1411
▁corruption	-11.1411
▁Sonnen	-11.1414
▁Kirche	-11.142
▁ursprünglich	-11.1422
▁linke	-11.1426
▁viruses	-11.1431
▁management	-11.1434
▁prime	-11.1439
▁klassische	-11.1443
back	-11.1443
▁Rob	-11.1445
stück	-11.1448
ica	-11.1449
weile	-11.145
rand	-11.1452
▁verhalten	-11.1453
tung	-11.1453
technik	-11.1457
▁gay	-11.1462
▁Jahres	-11.1466
▁leid	-11.1472
▁Cent	-11.1473
tern	-11.1475
handel	-11.1479
zeug	-11.1481
▁fasziniert	-11.1484
▁official	-11.1484
▁permanent	-11.1484
▁vessel	-11.1484
▁Werbung	-11.1484
kultur	-11.1484
▁Homo	-11.1485
funktion	-11.1485
▁combination	-11.1485
▁review	-11.1485
▁arms	-11.1485
▁begrenzt	-11.1485
▁vermute	-11.1486
▁poem	-11.1486
ender	-11.1486
▁dealing	-11.1488
▁hack	-11.1489
▁comment	-11.1491
▁Hotel	-11.1491
projekt	-11.1493
enz	-11.1493
▁Freundin	-11.1498
▁volume	-11.1501
▁grain	-11.1504
gibt	-11.1504
▁kannte	-11.1504
▁opening	-11.1508
▁zone	-11.1509
▁33	-11.1513
▁Organ	-11.1519
nde	-11.152
▁Arbeiten	-11.1522
▁whom	-11.1522
▁suppose	-11.1523
▁broke	-11.1526
▁Gore	-11.1526
mut	-11.1529
▁players	-11.1534
tude	-11.1536
▁weibliche	-11.1537
selber	-11.1537
▁organ	-11.1542
▁Gesamt	-11.1545
▁Satelliten	-11.1551
rö	-11.1552
▁Armen	-11.1553
▁ten	-11.1556
▁pocket	-11.1558
▁quasi	-11.1558
▁battery	-11.1558
▁heavy	-11.1558
▁Darstellung	-11.1558
▁illness	-11.1559
▁gender	-11.1559
▁beispiels	-11.1559
versorgung	-11.156
▁kreativ	-11.1566
▁Vorfahre	-11.1568
▁Aktion	-11.1569
▁hang	-11.1569
wärts	-11.1573
▁beschlossen	-11.1574
▁Kan	-11.158
▁Par	-11.1581
▁assume	-11.1584
▁credit	-11.1585
▁Molekül	-11.1586
ät	-11.1589
▁fähig	-11.16
ath	-11.1604
▁Canad	-11.1606
ification	-11.1608
theorie	-11.1608
▁derselbe	-11.1609
▁seek	-11.1612
▁Patient	-11.1615
lf	-11.1615
▁beschloss	-11.1622
▁Chemie	-11.1633
▁maintain	-11.1633
▁physicist	-11.1633
▁trillion	-11.1633
▁crop	-11.1633
▁incentive	-11.1633
▁poetry	-11.1633
▁humor	-11.1634
▁Linien	-11.1634
2-	-11.1635
▁transition	-11.1636
ball	-11.1637
▁Gebiete	-11.1637
▁fields	-11.1637
▁erschein	-11.1638
▁Signal	-11.1641
ami	-11.1648
▁Emotionen	-11.1652
▁Zweck	-11.1653
▁anstelle	-11.1657
wie	-11.1663
ax	-11.1665
graben	-11.1666
▁morgens	-11.1666
▁Gewinn	-11.1671
▁Ereignisse	-11.1672
▁typically	-11.1674
last	-11.1675
▁steps	-11.1677
schnitt	-11.1679
power	-11.1685
ßen	-11.1687
schule	-11.1688
▁Süd	-11.1689
▁versteckt	-11.1692
▁tiefer	-11.1693
▁Viel	-11.1693
▁signals	-11.1697
▁deeper	-11.1698
▁parent	-11.1704
▁bill	-11.1705
▁winzig	-11.1706
▁Alzheimer	-11.1708
▁Cambridge	-11.1708
▁explanation	-11.1708
▁sweet	-11.1708
▁teeth	-11.1708
▁Okay	-11.1708
▁Saturn	-11.1708
▁definite	-11.1708
▁Deutschland	-11.1708
▁Berechnung	-11.1708
wissenschaftler	-11.1709
▁accurate	-11.1709
▁Sam	-11.171
▁darstellen	-11.171
▁tall	-11.171
▁partner	-11.1712
▁gun	-11.1714
▁gewählt	-11.1714
▁äußerst	-11.172
muster	-11.1722
▁cent	-11.1724
▁tear	-11.1725
ville	-11.1725
▁Anteil	-11.1727
▁appropriate	-11.1727
▁bike	-11.1734
▁nachhaltige	-11.1735
top	-11.1735
▁determine	-11.1735
ria	-11.1737
▁Tor	-11.174
▁momentan	-11.1744
▁leiden	-11.1745
▁Brita	-11.1747
▁tape	-11.1749
▁Uni	-11.1759
▁schlechter	-11.1761
▁Kenia	-11.1766
▁Geheimnis	-11.1767
licht	-11.1768
▁se	-11.177
ane	-11.1771
mäßig	-11.1777
▁jung	-11.178
▁Start	-11.1781
▁Köpfe	-11.1784
▁Second	-11.1784
▁encounter	-11.1784
holfen	-11.1784
▁sculpture	-11.1784
▁Maßstab	-11.1784
▁plate	-11.1784
▁Winter	-11.1785
▁nurse	-11.1788
▁Schau	-11.1792
▁carrie	-11.1792
▁Bur	-11.1795
▁status	-11.1795
▁Pe	-11.1798
xi	-11.18
▁bestand	-11.1802
▁hire	-11.1803
▁Link	-11.1803
▁propose	-11.1805
▁director	-11.181
fälle	-11.1813
▁Gesichter	-11.1818
▁judge	-11.182
▁Steven	-11.1823
▁Grand	-11.1824
▁properti	-11.1824
ju	-11.1825
schauen	-11.1831
▁Musiker	-11.1832
▁gross	-11.1836
▁ersetzen	-11.1844
▁voices	-11.1846
▁Kurs	-11.1848
▁annehmen	-11.1855
▁besuche	-11.186
▁kalt	-11.186
▁Potential	-11.186
▁irgendjemand	-11.186
▁convert	-11.186
▁Geschenk	-11.186
▁Daniel	-11.186
▁vermitteln	-11.186
▁Auswahl	-11.186
▁Swed	-11.186
▁valuable	-11.186
▁Umfeld	-11.1861
▁title	-11.1861
▁erforscht	-11.1862
▁kon	-11.1864
▁presentation	-11.1868
▁broad	-11.1871
▁Instrument	-11.1871
▁aufzubauen	-11.1872
▁Anruf	-11.1873
▁hall	-11.1875
▁heads	-11.1876
▁customer	-11.1878
▁Bereiche	-11.1883
gleichen	-11.1883
leite	-11.1893
▁provid	-11.1894
▁mention	-11.1896
▁jedenfall	-11.1898
▁Au	-11.19
bot	-11.1902
▁rück	-11.1902
▁Pla	-11.1902
▁Stufe	-11.1907
▁ignore	-11.1908
▁sozial	-11.1912
▁derzeit	-11.1918
tte	-11.1925
▁Fach	-11.1931
▁tea	-11.1933
light	-11.1934
source	-11.1934
forschung	-11.1936
▁prototype	-11.1937
▁unglücklich	-11.1937
▁Batterie	-11.1937
▁regard	-11.1937
▁existence	-11.1937
▁gebraucht	-11.1937
▁Ausstellung	-11.1938
▁analysis	-11.194
▁hotel	-11.1941
▁Präsentation	-11.1944
▁85	-11.1945
▁cutting	-11.1945
▁Wetter	-11.1946
▁biologist	-11.1948
▁inspiration	-11.1951
steigen	-11.1952
▁moves	-11.1954
▁obere	-11.1954
▁Prozesse	-11.1954
▁Roman	-11.1962
▁effektiv	-11.1964
part	-11.1969
▁Ozeane	-11.1973
vo	-11.1974
▁vorne	-11.1975
▁Mai	-11.1976
scale	-11.1983
▁Erwachsene	-11.1985
▁Nachbarn	-11.1989
▁Ruf	-11.1991
▁antwortete	-11.2005
▁mittel	-11.2007
fisch	-11.2009
hören	-11.2009
kreis	-11.2011
▁Löcher	-11.2014
▁criminal	-11.2014
▁ruhig	-11.2014
▁silence	-11.2014
▁lawyer	-11.2015
▁verdient	-11.2016
▁passionate	-11.2016
▁worldwide	-11.2018
▁Südafrika	-11.2019
▁Zufall	-11.2021
▁protection	-11.2022
▁quant	-11.2023
▁erkennt	-11.2028
▁bias	-11.2036
▁White	-11.2037
▁konzentriert	-11.2037
▁eigen	-11.2038
▁studio	-11.2042
▁celebrate	-11.2043
▁One	-11.2043
▁Sal	-11.2044
▁bla	-11.2045
▁Nase	-11.205
▁Effekt	-11.2052
▁grundlegend	-11.2054
etz	-11.2062
▁gelöst	-11.2066
van	-11.2066
zig	-11.2066
▁Architekten	-11.2069
unter	-11.2072
▁veränderte	-11.2073
▁teilt	-11.2077
▁Kulturen	-11.2086
▁fern	-11.2086
▁contract	-11.2086
▁hyper	-11.2088
mehr	-11.2089
▁attract	-11.209
chan	-11.2092
▁Dunkel	-11.2093
▁Februar	-11.2093
▁Wurzel	-11.2093
▁harvest	-11.2093
▁implication	-11.2093
▁liquid	-11.2093
▁silk	-11.2093
▁robust	-11.2093
▁collaboration	-11.2093
▁contribute	-11.2096
▁sight	-11.2097
▁She	-11.2098
▁Seele	-11.2098
▁tu	-11.2104
tät	-11.2109
▁Stellen	-11.2116
▁Bericht	-11.2118
▁addition	-11.2119
▁gespielt	-11.2122
▁195	-11.2125
▁solv	-11.2127
▁chemistr	-11.2131
▁gewissen	-11.2142
▁estimate	-11.2144
über	-11.2145
artige	-11.2155
▁zentrale	-11.2158
▁Erfindung	-11.216
▁Bay	-11.2167
▁attach	-11.217
▁verfolgt	-11.2171
▁technological	-11.2171
▁conclusion	-11.2171
▁Großmutter	-11.2171
▁hydrogen	-11.2172
▁LED	-11.2172
▁außen	-11.2172
▁Howard	-11.2172
▁Entfernung	-11.2176
▁Kurve	-11.2176
geschichte	-11.2181
▁button	-11.2181
▁Grün	-11.2181
▁player	-11.2183
ility	-11.2184
▁mortality	-11.2189
fassen	-11.2192
▁emergenc	-11.2192
sprechen	-11.2196
▁politisch	-11.2202
▁10-	-11.2206
▁Verhaltens	-11.2206
▁tank	-11.2206
cker	-11.2208
▁iron	-11.2211
▁relate	-11.2216
q	-11.2224
▁Lab	-11.223
▁700	-11.2232
▁restaurant	-11.2235
▁Aufnahme	-11.2236
▁myth	-11.2237
▁kosten	-11.2243
pho	-11.2244
schutz	-11.2245
▁König	-11.2245
▁CEO	-11.2251
▁calculate	-11.2251
▁illusion	-11.2251
▁vulnerabl	-11.2251
▁Stuhl	-11.2251
▁Allgemein	-11.2251
▁Solar	-11.2251
▁Bedrohung	-11.2251
▁psychology	-11.2251
▁north	-11.2251
▁lady	-11.2251
▁Brian	-11.2251
▁bor	-11.2251
▁peer	-11.2253
ogen	-11.2255
▁zusätzlich	-11.2255
▁Weiß	-11.2256
▁Camp	-11.2261
▁zusammenarbeite	-11.2263
▁coal	-11.2266
foot	-11.2267
▁entscheidend	-11.2271
▁icon	-11.2271
▁sites	-11.2271
▁Medikament	-11.2277
▁soft	-11.228
organisation	-11.228
▁programm	-11.2282
▁habitat	-11.2284
▁Gar	-11.2288
ai	-11.229
▁Show	-11.2294
▁Magie	-11.2297
▁root	-11.2308
▁Stärke	-11.2319
ition	-11.2321
▁entstand	-11.2322
▁Verhältnis	-11.2327
▁south	-11.2328
▁May	-11.2329
▁danger	-11.233
▁Schlaf	-11.2331
▁Zauber	-11.2331
▁Existenz	-11.2331
▁Teenager	-11.2331
▁unusual	-11.2331
igung	-11.2336
▁vermeiden	-11.234
▁historical	-11.2354
▁Blumen	-11.2359
▁embrace	-11.236
▁Neues	-11.236
▁seid	-11.2361
▁manufactur	-11.237
▁feststelle	-11.2371
▁tip	-11.2373
sichtlich	-11.2375
ison	-11.2375
▁Eins	-11.2377
stoßen	-11.2382
fu	-11.2383
▁emotionale	-11.2384
▁gebete	-11.2387
▁Verlust	-11.2387
endlich	-11.2388
▁individuelle	-11.2395
sinn	-11.2398
▁verb	-11.2409
▁Gemälde	-11.2411
▁Klinik	-11.2411
▁Studio	-11.2411
▁fiber	-11.2411
▁shame	-11.2411
▁Viertel	-11.2411
▁beinahe	-11.2411
▁zieht	-11.2412
▁verglich	-11.2412
▁announc	-11.2415
▁anwende	-11.2415
▁sucht	-11.2416
▁langweilig	-11.2416
▁Rio	-11.2418
▁Buchstaben	-11.2424
holen	-11.2425
▁Sicherheits	-11.2425
▁Ta	-11.2431
▁solcher	-11.2438
win	-11.244
vin	-11.244
ark	-11.2444
▁trug	-11.2444
▁emerge	-11.2446
▁schätzen	-11.2449
▁überlegen	-11.2455
▁note	-11.246
▁hierher	-11.2462
▁Geräusche	-11.2462
box	-11.2464
verhalten	-11.2465
▁musical	-11.2466
▁soul	-11.2469
▁cat	-11.2471
▁Statistiken	-11.2476
▁Bereichen	-11.2478
▁Momente	-11.2481
▁details	-11.2488
▁element	-11.249
▁Streit	-11.2492
▁Echtzeit	-11.2493
▁President	-11.2493
▁client	-11.2493
▁kreieren	-11.2493
▁britische	-11.2493
▁englische	-11.2493
▁heisst	-11.2493
▁steel	-11.2493
▁loud	-11.2493
▁teilweise	-11.2494
▁Koran	-11.2495
▁Long	-11.2495
▁winter	-11.2495
▁allgemeine	-11.2496
▁Aussage	-11.2497
▁nerve	-11.2498
▁teenager	-11.2499
isches	-11.2501
lte	-11.2501
▁definiert	-11.2502
▁Kev	-11.2504
▁anschaut	-11.2505
▁entfern	-11.2505
▁industrielle	-11.2506
▁maps	-11.252
▁liefer	-11.2522
▁steuern	-11.2535
ground	-11.2537
▁11.	-11.2537
▁elegant	-11.2539
▁chemicals	-11.2545
▁sparen	-11.2547
▁counter	-11.255
▁2.	-11.2556
ain	-11.2563
▁weltweite	-11.2565
▁passen	-11.257
politik	-11.2575
▁Australien	-11.2575
▁Pacific	-11.2575
▁arabische	-11.2575
▁überwinden	-11.2575
▁healthcare	-11.2575
▁Anführer	-11.2575
▁gefällt	-11.2577
▁Look	-11.2578
▁Schuld	-11.2579
▁tradition	-11.258
▁prediction	-11.2581
▁infinite	-11.2581
▁statement	-11.2582
▁user	-11.2592
▁nest	-11.2593
lic	-11.2593
oh	-11.2596
▁willst	-11.2601
▁mathematische	-11.2601
▁cultures	-11.2605
wenden	-11.2606
▁nimm	-11.261
▁chip	-11.2611
bahn	-11.2613
▁dank	-11.2615
cent	-11.2619
▁victims	-11.2622
▁Interessen	-11.2633
▁aufhör	-11.2633
▁rat	-11.2636
▁bemerkte	-11.2641
tun	-11.2641
▁menschlicher	-11.2647
▁decline	-11.2652
bezüglich	-11.2657
▁Congress	-11.2657
▁Teufel	-11.2657
▁Verbesserung	-11.2657
▁gelebt	-11.2657
berraschung	-11.2657
▁ladies	-11.2657
▁court	-11.2657
▁Hunger	-11.2657
▁reference	-11.2658
▁fake	-11.2658
▁Stock	-11.2658
▁dahinter	-11.2659
▁drone	-11.2659
volle	-11.2661
▁Lego	-11.2661
▁efficienc	-11.2662
▁former	-11.2667
▁Schulter	-11.267
▁Ausnahme	-11.2672
▁Amy	-11.2673
schein	-11.2683
▁bezeichnet	-11.2684
▁Folgen	-11.2689
dienst	-11.2691
ram	-11.27
▁Geräusch	-11.27
▁Zell	-11.2708
▁previous	-11.2708
▁Brief	-11.2711
fahr	-11.2712
▁ka	-11.2713
öl	-11.2723
grund	-11.2732
▁schreckliche	-11.2732
▁Elektro	-11.2733
▁Risik	-11.2737
konom	-11.2737
▁interessanter	-11.2738
▁NGO	-11.2741
▁Taliban	-11.2741
▁symptom	-11.2741
▁telephone	-11.2741
▁reagiert	-11.2741
▁heißen	-11.2741
▁worauf	-11.2741
▁sprachen	-11.2744
▁formen	-11.2744
▁ledig	-11.2745
▁obes	-11.2746
▁label	-11.2746
gegen	-11.2748
▁ga	-11.2752
sitz	-11.2754
▁Süden	-11.2757
▁ergibt	-11.2758
▁height	-11.276
▁quarter	-11.2765
▁Handel	-11.2766
▁Moral	-11.2767
▁beach	-11.2772
▁hinten	-11.2778
▁hate	-11.2778
iff	-11.278
▁komplex	-11.2786
macht	-11.2789
▁besorgt	-11.2789
tu	-11.2791
▁erkannt	-11.2791
je	-11.2793
▁aufnehmen	-11.2796
▁automatic	-11.2798
▁Belohnung	-11.2802
▁Grundlage	-11.2803
▁schwieriger	-11.2807
▁aging	-11.2809
▁Pr	-11.281
uff	-11.2813
füllen	-11.2818
▁entgegen	-11.2819
▁weak	-11.2822
▁FBI	-11.2825
▁darstellt	-11.2825
▁length	-11.2825
▁Kongress	-11.2825
▁gravity	-11.2825
▁Fahrrad	-11.2825
▁Moore	-11.2825
▁kitchen	-11.2825
▁darunter	-11.2825
▁evolutionary	-11.2826
▁Metall	-11.2826
▁Nutzung	-11.2827
▁linear	-11.2828
▁threaten	-11.2829
ech	-11.2829
▁PM	-11.2831
gerät	-11.2834
▁alien	-11.2836
▁Nein	-11.2837
▁script	-11.284
▁Tee	-11.2845
▁Tests	-11.2847
▁react	-11.2849
▁import	-11.285
▁stock	-11.2851
▁schickte	-11.2853
▁ältere	-11.2854
▁Hol	-11.2857
tik	-11.2857
▁therap	-11.2861
▁prepared	-11.2863
▁hero	-11.2872
▁beweis	-11.2877
▁sheet	-11.2879
ließ	-11.2879
▁forgot	-11.2879
▁Schritte	-11.2884
▁Rose	-11.2884
▁Galaxie	-11.2887
▁Wall	-11.2895
hafte	-11.2897
▁lebendig	-11.2899
eur	-11.2902
▁fan	-11.2907
trag	-11.2908
▁command	-11.2908
▁Doktor	-11.2909
▁circumstance	-11.2909
▁fiction	-11.2909
▁lecture	-11.2909
▁privilege	-11.2909
▁sphere	-11.2909
▁snow	-11.2909
▁charit	-11.2909
▁Blatt	-11.291
▁Andrew	-11.291
▁doubt	-11.291
▁Kabel	-11.2911
▁observation	-11.2911
▁prize	-11.2911
▁seht	-11.2911
trieb	-11.2916
▁Willen	-11.2924
▁season	-11.2924
king	-11.2925
bildung	-11.2926
▁geschlossen	-11.2927
▁Pflege	-11.2928
▁Kampagne	-11.2931
▁nor	-11.2938
▁teil	-11.294
ches	-11.2944
ear	-11.2947
are	-11.2948
▁Sir	-11.295
▁Bus	-11.2958
▁Nah	-11.2959
▁bare	-11.2959
visible	-11.2963
▁schwierige	-11.2968
▁measur	-11.2969
▁diver	-11.297
drücken	-11.2971
▁photographs	-11.2972
▁bemerkenswert	-11.2974
▁Ray	-11.2985
▁Frei	-11.2994
▁Schicksal	-11.2995
▁kollektive	-11.2995
▁psychological	-11.2995
▁molecular	-11.2995
▁Erwachsenen	-11.2995
spüren	-11.2995
▁Zähne	-11.2995
▁sustainability	-11.2996
▁5,000	-11.2997
▁cave	-11.2997
▁firm	-11.2999
führung	-11.3
▁Unfall	-11.3001
uadrat	-11.3003
▁fu	-11.3003
▁trend	-11.3004
▁shoulder	-11.3011
▁Jona	-11.3013
▁bemerken	-11.3016
▁symbol	-11.3016
▁dirt	-11.3017
▁ski	-11.3018
tta	-11.3018
schau	-11.302
▁kriegen	-11.3022
▁vorzu	-11.3024
▁19.	-11.3024
▁Damen	-11.3026
eah	-11.3026
▁verstehe	-11.3027
boot	-11.3028
anz	-11.3029
▁Lee	-11.303
ahn	-11.3038
▁Körpers	-11.3046
▁Fest	-11.3047
▁cow	-11.3047
gesellschaftlich	-11.3054
ock	-11.3057
▁erhöh	-11.3058
▁Interview	-11.3058
▁ta	-11.3059
▁Fehl	-11.3066
▁dinosaurs	-11.307
▁shut	-11.3071
▁Rechte	-11.3072
▁Hall	-11.3074
gemacht	-11.3074
▁allgemein	-11.3078
oberfläche	-11.3081
▁Bibliothek	-11.3081
▁Persönlichkeit	-11.3081
▁hieß	-11.3081
▁scheinbar	-11.3081
▁Jesus	-11.3081
▁confront	-11.3081
▁reduziert	-11.3081
▁Jeff	-11.3081
▁primary	-11.3081
▁Christian	-11.3082
▁reverse	-11.3083
▁variation	-11.3083
▁plot	-11.3084
▁3,000	-11.3085
sity	-11.3085
▁Weltkrieg	-11.3089
energie	-11.3091
uellen	-11.3091
▁animation	-11.3091
▁cup	-11.3092
▁terrorism	-11.3093
▁gefangen	-11.3095
▁injur	-11.3097
av	-11.3099
stock	-11.31
▁limb	-11.3102
▁king	-11.3105
▁Herren	-11.3107
▁800	-11.3108
▁atoms	-11.3112
burg	-11.3114
▁Ach	-11.3114
▁handle	-11.3118
merken	-11.3131
▁Entwicklungs	-11.3142
▁For	-11.3143
▁Brücke	-11.3148
▁situations	-11.3149
▁par	-11.315
▁voran	-11.3156
▁ernsthaft	-11.3159
af	-11.3159
▁split	-11.316
denken	-11.3164
▁höre	-11.3164
bal	-11.3165
▁Chemikalien	-11.3168
▁Nachhaltigkeit	-11.3168
▁Respekt	-11.3168
▁advice	-11.3168
▁license	-11.3168
▁unexpected	-11.3168
▁gegründet	-11.3168
▁spectrum	-11.3168
▁Debatte	-11.3168
▁drill	-11.3168
▁witness	-11.3168
▁Pfund	-11.3169
▁Verbrechen	-11.317
▁sowas	-11.3171
▁marketing	-11.3171
▁akzeptieren	-11.3174
▁gründete	-11.3176
▁weiße	-11.3178
▁Plattform	-11.318
▁agent	-11.3184
▁Erkrankung	-11.3187
▁pitch	-11.3187
kam	-11.3188
▁Day	-11.319
▁fl	-11.3192
▁kaufte	-11.3194
▁berühmte	-11.3198
▁wine	-11.3199
▁Fort	-11.32
▁beschrieben	-11.3204
▁emissions	-11.3207
▁organs	-11.3212
▁angle	-11.3214
▁Decke	-11.3217
▁Ober	-11.3225
▁Penn	-11.3228
house	-11.3233
15	-11.3236
▁Sitz	-11.3236
▁trans	-11.3245
▁Ki	-11.3246
▁ko	-11.3255
größe	-11.3255
▁Gegenwart	-11.3256
▁Stephen	-11.3256
▁apparent	-11.3256
▁church	-11.3256
▁erweitern	-11.3256
▁inevitabl	-11.3256
▁insbesonder	-11.3256
▁sophisticated	-11.3256
▁attitude	-11.3256
▁staff	-11.3256
▁courage	-11.3256
▁academic	-11.3256
▁Signale	-11.3256
▁radiation	-11.3257
▁Spektrum	-11.3258
zentrum	-11.3259
▁Newton	-11.3264
▁marine	-11.3265
▁komplizierte	-11.3273
stände	-11.3275
▁Einheit	-11.3275
cortex	-11.3276
▁Durch	-11.3279
technologie	-11.3282
▁Ehre	-11.3293
schneiden	-11.3295
▁recording	-11.3296
▁Armee	-11.3303
▁monitor	-11.3304
▁thin	-11.3311
▁unsichtbar	-11.3314
▁zunehmend	-11.3314
water	-11.3321
▁gewaltige	-11.3325
▁Wissens	-11.3326
▁intelligente	-11.3328
▁input	-11.3333
▁End	-11.3343
▁August	-11.3344
▁Gerechtigkeit	-11.3344
▁dedicat	-11.3344
▁wiederholt	-11.3344
▁Klassenzimmer	-11.3344
▁Kanada	-11.3344
▁fruit	-11.3344
▁Saudi	-11.3344
▁böse	-11.3345
▁drauf	-11.3345
▁pollution	-11.3345
▁Marketing	-11.3346
▁puzzle	-11.3347
▁medium	-11.3349
▁organiz	-11.3351
▁Law	-11.3358
lief	-11.3361
▁fo	-11.3367
▁quit	-11.3367
▁electronic	-11.3371
▁sink	-11.3381
▁Programme	-11.3381
dia	-11.3382
▁abuse	-11.3385
▁behaviors	-11.3387
Ver	-11.3388
▁earn	-11.3394
▁limit	-11.3395
▁mistakes	-11.34
▁Unterricht	-11.3401
▁participate	-11.3403
▁mechanical	-11.3408
film	-11.341
▁Folie	-11.3415
▁Küste	-11.3416
▁Fortschritte	-11.3418
▁zeichnen	-11.3421
▁Wüste	-11.3424
▁challeng	-11.3431
▁Titan	-11.3432
▁Wieder	-11.3433
▁Wälder	-11.3434
▁Zeichnung	-11.3434
▁false	-11.3434
shalb	-11.3434
▁piano	-11.3434
▁Heim	-11.3434
▁Inspiration	-11.3434
ture	-11.3435
▁Szene	-11.3435
▁meaningful	-11.3435
▁internal	-11.3435
▁Johnson	-11.3436
▁homes	-11.3437
▁Therapie	-11.3439
▁Space	-11.3449
▁Samen	-11.3454
▁unterrichten	-11.3462
▁investiert	-11.3465
▁orbit	-11.3468
ordne	-11.3469
die	-11.347
▁geteilt	-11.3473
erei	-11.3481
▁hunt	-11.3482
ied	-11.3491
▁dropp	-11.3492
zone	-11.3494
▁traurig	-11.3501
▁phase	-11.3502
▁beteiligt	-11.3502
▁erhöht	-11.3502
lang	-11.3505
▁Russia	-11.3507
▁harte	-11.351
▁Ken	-11.3512
▁Durchschnitt	-11.3513
reichen	-11.3514
▁Pan	-11.3518
▁goals	-11.3518
▁select	-11.3522
▁advertis	-11.3524
▁Kapitel	-11.3524
▁ritual	-11.3524
destruction	-11.3524
▁chapter	-11.3524
▁Riesen	-11.3524
▁Teilnehmer	-11.3524
▁Stammzellen	-11.3524
▁severe	-11.3525
▁vertrauen	-11.3525
▁admit	-11.3525
▁photographer	-11.3525
▁loop	-11.3526
kor	-11.3527
▁verließ	-11.3528
▁organisiert	-11.3528
▁suck	-11.353
arbeiter	-11.3531
state	-11.3533
▁Hill	-11.3539
▁Mama	-11.354
tier	-11.3542
ake	-11.3542
▁storm	-11.3546
▁Wohnung	-11.3549
▁Betti	-11.355
▁pet	-11.355
▁Gleichung	-11.355
wagen	-11.3552
▁Tu	-11.3554
sis	-11.3555
▁Informations	-11.3555
kin	-11.3556
down	-11.3556
▁pilot	-11.3556
own	-11.3569
rück	-11.357
▁lift	-11.357
▁gesch	-11.3571
gesamt	-11.3573
▁pr	-11.3573
▁eggs	-11.3576
▁Berge	-11.3579
▁clock	-11.3583
▁burning	-11.3584
icher	-11.3591
▁melt	-11.3595
▁William	-11.3596
▁umgeben	-11.3597
maschine	-11.3598
▁Argument	-11.3601
▁wi	-11.3604
▁Fliegen	-11.3605
▁videos	-11.3607
▁Vorteile	-11.3608
▁complain	-11.3615
geschwindigkeit	-11.3615
▁assumption	-11.3615
▁iPod	-11.3615
▁implement	-11.3615
▁telescope	-11.3615
▁predator	-11.3615
▁flexible	-11.3615
▁Henry	-11.3615
reich	-11.3615
▁Terrorismus	-11.3615
▁Media	-11.3615
▁Wagen	-11.3616
▁receiv	-11.3617
▁exploration	-11.3617
▁blog	-11.3618
▁elektronische	-11.3619
▁29	-11.362
▁Bildungs	-11.3621
▁pile	-11.3623
▁expectation	-11.3624
▁typisch	-11.3624
not	-11.3625
ita	-11.3627
▁nieder	-11.3629
▁1000	-11.3631
▁percentage	-11.3631
lagen	-11.3634
▁hunger	-11.3636
▁kostenlos	-11.3639
▁messages	-11.3641
läuf	-11.3642
▁innen	-11.3643
▁basierend	-11.3643
▁Ford	-11.3651
▁mad	-11.3652
mmer	-11.3653
▁leichter	-11.3655
▁behave	-11.3656
▁funktionierte	-11.3658
▁perceive	-11.3659
▁risks	-11.3661
▁innere	-11.3662
▁Konflikte	-11.3669
In	-11.3672
▁Wild	-11.3674
▁stehe	-11.3682
bul	-11.3683
berzeugung	-11.3684
▁dogs	-11.3684
▁sag	-11.3684
▁Gottes	-11.3685
▁finanzielle	-11.3689
half	-11.369
▁Physiker	-11.369
▁Bell	-11.3695
issen	-11.3697
▁Proteine	-11.3701
▁tech	-11.3702
körper	-11.3706
▁Konsum	-11.3706
▁Transport	-11.3706
▁Alexander	-11.3706
▁Benjamin	-11.3706
▁Komponente	-11.3706
▁ingredient	-11.3706
▁ländliche	-11.3706
▁psychologist	-11.3706
▁afternoon	-11.3706
▁Fokus	-11.3706
▁Literatur	-11.3706
▁Flügel	-11.3707
▁Nachbarschaft	-11.3707
▁ansieh	-11.3708
▁Serie	-11.3708
▁apartment	-11.3709
▁Tri	-11.3711
▁vorbereitet	-11.3714
▁Mike	-11.3716
▁engaged	-11.3716
▁lens	-11.3716
pot	-11.3717
▁liefert	-11.372
▁Autor	-11.372
egenteil	-11.3721
▁empathy	-11.3721
▁creature	-11.3721
▁faszinierende	-11.3724
▁Verb	-11.3726
gruppen	-11.3727
▁Nerven	-11.3728
▁bezeichnen	-11.3733
▁Große	-11.3738
ebene	-11.3739
▁mode	-11.3743
▁Eier	-11.3744
▁Beruf	-11.3747
rus	-11.3753
▁comfort	-11.3754
than	-11.3755
▁diverse	-11.3756
▁intuitive	-11.3761
cha	-11.3774
▁appreciate	-11.3776
▁schlau	-11.3779
▁wirkliche	-11.3786
▁Ve	-11.3787
▁typische	-11.379
itz	-11.3792
▁abstract	-11.3797
▁Akt	-11.3797
▁Verwendung	-11.3799
▁Gedächtnis	-11.3799
▁Nelson	-11.3799
▁cluster	-11.3799
▁conservation	-11.3799
▁democratic	-11.3799
▁department	-11.3799
▁dictionar	-11.3799
▁paradigm	-11.3799
▁stieg	-11.3799
▁Ursprung	-11.3799
▁froh	-11.3799
▁Mehrheit	-11.3799
▁Russland	-11.3799
▁Stahl	-11.3799
▁Bord	-11.38
▁instruction	-11.38
▁elder	-11.38
▁underwater	-11.38
▁Milch	-11.3801
asse	-11.3802
literatur	-11.3802
▁Schlag	-11.3805
▁Protein	-11.3806
▁style	-11.3807
ali	-11.3817
▁mountains	-11.3819
alter	-11.3822
▁Presse	-11.3822
▁Scott	-11.3823
netz	-11.3824
▁ought	-11.3826
▁Tonnen	-11.3826
▁unver	-11.3832
▁club	-11.3833
▁antworte	-11.3833
gelegt	-11.3841
▁golden	-11.3841
▁x	-11.3841
▁wechseln	-11.3842
▁behavioral	-11.3845
▁Wolken	-11.3851
dacht	-11.3853
▁Bang	-11.3854
ini	-11.3856
▁Erlebnis	-11.3858
nahm	-11.386
▁Trick	-11.3861
▁Element	-11.3863
problem	-11.3863
▁tour	-11.3864
▁55	-11.3869
bank	-11.3869
▁flower	-11.3873
nahmen	-11.3875
▁undern	-11.3877
▁Schuhe	-11.3877
▁Fernseh	-11.3878
▁Ku	-11.3881
▁sexuelle	-11.3887
kan	-11.3891
▁establish	-11.3891
▁Ingenieure	-11.3891
lasst	-11.3892
▁Lincoln	-11.3892
▁Symmetrie	-11.3892
▁mathematician	-11.3892
▁repair	-11.3892
▁Square	-11.3892
▁concrete	-11.3892
gewiesen	-11.3892
▁intervention	-11.3892
▁Wände	-11.3893
▁Kugel	-11.3893
▁sunlight	-11.3893
▁Humor	-11.3893
▁erneut	-11.3893
▁löst	-11.3893
▁awareness	-11.3895
▁Geburtstag	-11.39
▁mochte	-11.39
▁host	-11.3901
▁activist	-11.3902
star	-11.3904
▁Spielzeug	-11.391
▁Jane	-11.3911
▁route	-11.3913
rising	-11.3913
▁Kir	-11.3915
▁Fin	-11.3918
▁Pra	-11.3919
▁geb	-11.392
▁section	-11.3922
▁philosoph	-11.3929
teile	-11.393
flu	-11.3931
▁li	-11.3931
▁Gr	-11.3938
▁Za	-11.3942
▁wieviel	-11.3943
passen	-11.395
▁wovo	-11.395
▁shake	-11.3953
▁Nano	-11.3954
▁dauerte	-11.3962
bücher	-11.3964
▁bo	-11.3964
▁Wellen	-11.3965
▁pill	-11.3972
▁consume	-11.3975
üben	-11.3976
▁Schnitt	-11.3978
strahl	-11.3981
▁Abraham	-11.3987
▁Silicon	-11.3987
▁physician	-11.3987
▁rescue	-11.3987
▁balloon	-11.3987
▁Mangel	-11.3988
▁Angestellte	-11.3988
▁Todes	-11.3988
ippe	-11.399
▁verletzt	-11.399
▁Rick	-11.399
▁Lachen	-11.399
uten	-11.3992
▁Abfall	-11.3993
▁Jones	-11.3993
▁Min	-11.3996
▁ausgebildet	-11.4001
ories	-11.4002
▁wachsende	-11.4002
upp	-11.4004
▁irre	-11.401
amme	-11.4011
ären	-11.4015
▁Elefanten	-11.4017
▁swimm	-11.4017
▁eröffnet	-11.4021
ahl	-11.4022
▁Resultat	-11.4022
geschaut	-11.4026
Ma	-11.4028
▁üblich	-11.4029
▁42	-11.4029
▁mechanism	-11.4032
▁repeat	-11.4037
▁gebrochen	-11.4038
▁berühmt	-11.4039
▁männliche	-11.4041
▁drücken	-11.4043
▁sw	-11.4044
▁reisen	-11.4044
führt	-11.4044
RB	-11.4047
▁Student	-11.4047
▁Staats	-11.4048
▁Symbol	-11.4049
▁langsamer	-11.4054
▁swim	-11.4054
▁Stern	-11.4055
halb	-11.4059
▁liebte	-11.406
▁Jun	-11.4063
fache	-11.4066
unternehmen	-11.4066
▁edit	-11.4069
pol	-11.4074
ata	-11.4077
▁confus	-11.408
▁wirkt	-11.4081
▁Außen	-11.4081
▁Beobachtung	-11.4082
▁contrast	-11.4082
▁dominant	-11.4082
▁wüsste	-11.4082
▁durfte	-11.4082
▁gekauft	-11.4082
▁motivation	-11.4082
▁trigger	-11.4082
▁framework	-11.4082
▁Chef	-11.4082
▁frank	-11.4082
▁Prize	-11.4083
▁Mikroben	-11.4083
▁bekomme	-11.4083
▁schlafen	-11.4083
▁lifestyle	-11.4084
▁afterward	-11.4084
▁pour	-11.4085
▁beliebt	-11.4085
▁präsentiert	-11.4085
▁productive	-11.4086
▁backward	-11.4086
atur	-11.4087
▁Lehr	-11.4087
▁Kopie	-11.4087
gesellschaft	-11.4088
▁singen	-11.4088
▁Verbreitung	-11.4089
▁presence	-11.4091
▁France	-11.4094
▁violent	-11.4095
▁cable	-11.4098
alt	-11.4099
ologie	-11.41
▁House	-11.41
▁verstand	-11.4101
▁overcom	-11.4103
▁leer	-11.4105
rag	-11.4105
▁border	-11.4108
▁flach	-11.411
▁Blog	-11.4116
▁upper	-11.4118
ima	-11.4119
▁Ber	-11.4122
▁Restaurant	-11.4125
▁Ereignis	-11.4128
▁grass	-11.4134
▁welcome	-11.4135
▁herein	-11.4136
▁Versuche	-11.4139
▁Tony	-11.4141
änder	-11.4141
▁einzigartige	-11.4145
▁schwere	-11.4147
▁Pre	-11.4148
▁verrückte	-11.415
▁Ohren	-11.4152
▁desk	-11.4156
spielen	-11.4158
▁entrepreneurs	-11.4159
System	-11.4162
▁meal	-11.4162
▁anger	-11.4163
▁Chip	-11.4164
▁Instrumente	-11.4164
▁technisch	-11.4165
▁Maß	-11.4166
▁vari	-11.4177
▁Führer	-11.4178
▁Health	-11.4178
▁computing	-11.4178
▁Asien	-11.4178
▁Bronx	-11.4178
▁Chaos	-11.4179
▁cheat	-11.4179
▁acid	-11.418
▁heilen	-11.4181
▁Grippe	-11.4182
ology	-11.4182
aw	-11.4185
▁birthday	-11.4185
▁hook	-11.4186
▁participat	-11.4186
▁protected	-11.4187
▁urge	-11.4188
▁mile	-11.4189
▁Pole	-11.419
fällig	-11.4193
▁pink	-11.4193
▁Blue	-11.4193
▁2002	-11.4195
▁Matt	-11.4195
▁gesammelt	-11.42
▁dunkel	-11.42
▁refugee	-11.4202
züge	-11.4203
▁saubere	-11.421
▁Konsequenzen	-11.421
▁3.	-11.4212
▁circuit	-11.4212
▁Gesichts	-11.4216
▁poet	-11.4217
▁logic	-11.4219
▁pin	-11.4225
▁Inter	-11.4229
▁trink	-11.4229
▁Gedicht	-11.4231
zentr	-11.4232
▁Einzel	-11.4235
▁Str	-11.4235
▁armen	-11.4236
▁intensive	-11.4238
▁rum	-11.4238
▁hinauf	-11.4239
▁36	-11.424
▁sum	-11.4246
▁depress	-11.4252
▁Haar	-11.4255
Dollar	-11.426
▁schluss	-11.426
meter	-11.4266
▁el	-11.4267
train	-11.4271
isierte	-11.4272
▁organisieren	-11.4274
genügend	-11.4275
▁Gandhi	-11.4275
▁Mandela	-11.4275
▁Shanghai	-11.4275
▁milk	-11.4275
▁freue	-11.4275
▁Schaden	-11.4275
▁genius	-11.4275
▁gewann	-11.4275
▁Störung	-11.4275
▁zufrieden	-11.4275
▁clue	-11.4275
▁Prinzipien	-11.4276
▁exhibition	-11.4277
▁Alex	-11.4277
▁gefallen	-11.4277
▁interactive	-11.4278
ji	-11.4278
▁Afrikaner	-11.4278
ika	-11.4279
▁zusätzliche	-11.428
▁Sichtweise	-11.4281
▁weigh	-11.4282
laufen	-11.4285
▁clothes	-11.4286
▁Mathematiker	-11.4286
▁infiziert	-11.4288
▁fehlt	-11.4293
▁bizarre	-11.4295
ierende	-11.4299
▁ausgesetzt	-11.43
▁Ana	-11.4305
▁Aufnahmen	-11.4309
pass	-11.4313
▁Korallen	-11.4315
▁Stücke	-11.4316
▁reich	-11.4317
einhalb	-11.4317
▁freie	-11.4318
▁zählt	-11.432
▁clouds	-11.4323
▁Mengen	-11.4324
▁berichten	-11.4326
▁nationale	-11.4329
erkennung	-11.4335
▁billig	-11.4341
▁sustain	-11.4342
▁kognitive	-11.4349
haltung	-11.4351
▁kn	-11.4355
icht	-11.4357
level	-11.4358
▁compar	-11.4359
▁psycho	-11.4359
what	-11.4359
▁lebe	-11.436
▁Pri	-11.4369
▁Noten	-11.4372
atom	-11.4372
▁phrase	-11.4373
▁shadow	-11.4373
▁Budget	-11.4373
▁Arthur	-11.4373
▁städtische	-11.4373
▁heaven	-11.4373
▁Nadel	-11.4374
▁knapp	-11.4374
▁steal	-11.4374
falten	-11.4374
▁betrieben	-11.4374
▁Ruhe	-11.4374
▁positiv	-11.4374
▁wireless	-11.4375
▁Aufbau	-11.4376
▁enthalten	-11.4376
▁horrible	-11.4379
▁escape	-11.438
▁frequenc	-11.4383
▁exception	-11.4387
dra	-11.4387
▁Kongo	-11.439
▁Bab	-11.4394
▁coin	-11.4395
ult	-11.4396
▁intense	-11.4396
▁teure	-11.4397
▁bemerkenswerte	-11.4397
▁Geistes	-11.4401
▁Billionen	-11.4401
▁Aspekte	-11.4401
nderungen	-11.4405
▁finance	-11.4406
▁schlug	-11.441
▁Mauer	-11.4411
▁arts	-11.4416
raising	-11.442
▁wa	-11.4421
bre	-11.4421
▁Minister	-11.4422
▁demo	-11.4425
▁besucht	-11.4426
schlagen	-11.4426
▁ear	-11.4428
▁Ok	-11.4431
▁lying	-11.4432
gab	-11.4434
ular	-11.4445
▁minister	-11.4454
programm	-11.4454
▁obsess	-11.4456
bert	-11.4458
▁logisch	-11.446
▁weiterer	-11.4462
▁Port	-11.4467
sfähigkeit	-11.4467
▁Vietnam	-11.447
▁DNS	-11.4472
▁Feynman	-11.4472
▁Gemüse	-11.4472
▁Leonardo	-11.4472
▁Widerstand	-11.4472
▁centuries	-11.4472
▁depth	-11.4472
▁mosquito	-11.4472
▁Christmas	-11.4472
▁unmittelbar	-11.4472
▁stretch	-11.4472
▁Marke	-11.4472
▁frog	-11.4472
▁lehren	-11.4473
▁Herstellung	-11.4473
Central	-11.4473
▁Strand	-11.4474
▁unknown	-11.4474
▁thick	-11.4475
▁improvement	-11.4475
▁Fund	-11.4479
lauf	-11.448
▁Teleskop	-11.4482
▁Paar	-11.4482
▁Status	-11.4483
Mo	-11.4483
treffen	-11.4486
▁jail	-11.4488
▁springen	-11.4489
▁genießen	-11.4491
wind	-11.4498
ire	-11.4501
wasser	-11.4506
▁einzigartig	-11.4507
▁Schauspieler	-11.4507
lit	-11.451
▁neuro	-11.4512
▁flog	-11.4519
punkte	-11.4529
act	-11.4531
,	-11.4531
▁betreiben	-11.4533
▁besuchte	-11.4536
▁min	-11.4538
▁Eve	-11.4538
rich	-11.4538
▁Jugend	-11.4551
▁refer	-11.4554
▁Kleidung	-11.4572
surance	-11.4572
▁erweitert	-11.4572
▁Dörfer	-11.4572
▁Lebenserwartung	-11.4572
▁Vorhersage	-11.4572
▁correspond	-11.4572
▁inzwischen	-11.4572
▁nachgedacht	-11.4572
▁nervös	-11.4572
▁thumb	-11.4572
▁verschwunden	-11.4572
▁wütend	-11.4572
▁verdammt	-11.4572
ura	-11.4572
▁autism	-11.4572
▁Schnee	-11.4572
▁regelmäßig	-11.4572
▁verlangt	-11.4572
▁Pollen	-11.4573
▁Alltag	-11.4573
▁Schweden	-11.4573
▁Zahn	-11.4573
▁revenue	-11.4573
▁vertical	-11.4574
▁hinunter	-11.4574
▁busy	-11.4575
▁But	-11.4577
▁Psychologie	-11.4577
▁Sternen	-11.4579
▁Animation	-11.458
▁apple	-11.4581
ros	-11.4584
▁nose	-11.4587
cut	-11.4593
▁durchführen	-11.4593
bricht	-11.4596
▁Epidemie	-11.4602
0.000	-11.4604
▁sensitive	-11.4604
▁Fett	-11.4605
▁Mitglieder	-11.4607
▁demokratische	-11.4607
▁cartoon	-11.4608
▁empfinde	-11.461
ush	-11.4614
▁processing	-11.4615
▁Entdeckungen	-11.462
▁knee	-11.4627
▁beside	-11.4628
▁hängen	-11.4629
▁Nu	-11.4629
▁Einzelne	-11.4633
low	-11.4639
etic	-11.464
▁Knie	-11.464
erin	-11.4643
▁Mode	-11.4643
▁Kriegs	-11.4643
fertig	-11.4644
gas	-11.4646
grad	-11.4651
▁resistan	-11.4652
▁Chancen	-11.4655
▁roads	-11.4655
breite	-11.4656
▁wertvoll	-11.466
uk	-11.466
▁umher	-11.4661
streben	-11.4662
Spiel	-11.4662
▁tiefe	-11.4666
▁mat	-11.4666
▁Let	-11.4667
lö	-11.4668
▁Kreatur	-11.4673
▁Mäuse	-11.4673
▁grateful	-11.4673
▁polio	-11.4673
▁suspect	-11.4673
▁überlebt	-11.4673
▁fotografiert	-11.4673
▁Pilot	-11.4673
▁microbes	-11.4673
▁shall	-11.4673
▁besessen	-11.4674
▁sinnvoll	-11.4675
▁wünschte	-11.4676
▁Hong	-11.4676
emen	-11.4677
▁getrennt	-11.4678
▁beachten	-11.468
ncy	-11.468
ome	-11.4681
▁europäische	-11.4682
▁37	-11.4684
mber	-11.4685
▁gentlem	-11.4686
▁Sub	-11.4688
▁danc	-11.469
▁Sc	-11.4698
▁conventional	-11.4699
▁Kindes	-11.47
▁penguins	-11.4704
▁staatliche	-11.4708
▁bekannte	-11.471
▁wunderschön	-11.471
▁wirken	-11.4714
▁surgeon	-11.4716
omi	-11.4717
▁beenden	-11.4717
▁Detail	-11.4717
▁Eu	-11.4718
sprozess	-11.4721
flogen	-11.4722
▁partners	-11.4724
▁wora	-11.4726
baren	-11.4727
sgeschichte	-11.4729
basierte	-11.4729
▁suchte	-11.4733
▁Mil	-11.4735
▁Leiden	-11.4746
oid	-11.4748
▁Human	-11.4749
▁Arme	-11.4749
▁Angriff	-11.4754
▁Cal	-11.4755
▁wahrnehme	-11.4756
▁guide	-11.4756
▁Zusammen	-11.4757
▁Dia	-11.476
effekt	-11.476
▁Pol	-11.4761
gelassen	-11.4769
fang	-11.4771
sätze	-11.4773
▁strategi	-11.4775
▁Illusion	-11.4775
▁Verletzung	-11.4775
▁aufgeregt	-11.4775
▁irgendwelche	-11.4775
▁Weisheit	-11.4775
▁domestic	-11.4775
▁brutal	-11.4775
▁Potenzial	-11.4775
▁bekämpfen	-11.4775
▁Population	-11.4775
▁Stämme	-11.4775
▁plent	-11.4775
▁anscheinen	-11.4776
▁eingeladen	-11.4776
▁characteristic	-11.4776
▁Neuigkeit	-11.4776
▁commitment	-11.4776
▁exakt	-11.4776
▁regime	-11.4776
▁Sarah	-11.4776
isse	-11.4777
▁Kuh	-11.478
▁improv	-11.478
▁nachts	-11.4783
▁100.000	-11.4785
▁laboratory	-11.4794
▁Brit	-11.4794
▁electron	-11.4797
mar	-11.4798
▁River	-11.48
sort	-11.4806
▁blu	-11.4806
▁folgenden	-11.4809
▁öffnet	-11.4811
reise	-11.4817
▁Algorithmen	-11.4826
▁classic	-11.4834
▁ears	-11.4841
▁Fer	-11.4841
▁geo	-11.4843
▁comp	-11.4844
üsse	-11.485
▁dumm	-11.4851
▁Wohn	-11.4852
rice	-11.4856
tial	-11.4858
leiter	-11.4859
chten	-11.4862
▁Age	-11.4863
hnen	-11.4873
karte	-11.4877
geschäft	-11.4878
▁bedroht	-11.4878
▁betroffen	-11.4878
▁regret	-11.4878
▁romantic	-11.4878
▁versorgen	-11.4878
▁Tätigkeit	-11.4878
▁session	-11.488
Scan	-11.4881
▁download	-11.4881
oma	-11.4883
gefühl	-11.4884
▁Tal	-11.4887
▁Erzählung	-11.4888
▁overall	-11.4891
▁Analyse	-11.4891
pul	-11.4895
▁motivate	-11.4896
▁Schicht	-11.49
nderung	-11.4902
▁Boy	-11.4903
▁raw	-11.4903
▁passive	-11.4909
▁primitive	-11.491
chte	-11.4915
▁Wale	-11.492
▁profitier	-11.492
▁Ger	-11.492
▁Verkauf	-11.4924
▁studiert	-11.4924
▁Witz	-11.4925
▁install	-11.493
iges	-11.4935
▁SW	-11.4936
▁rhythm	-11.4937
▁kleinere	-11.4942
▁nachhaltig	-11.4947
▁educational	-11.495
▁gewisser	-11.4951
▁erstmal	-11.4954
▁Afrikas	-11.4958
blick	-11.496
▁gelangt	-11.4961
▁seal	-11.4964
ruf	-11.4965
▁Stil	-11.4969
▁heutige	-11.4971
ase	-11.4978
▁Fläche	-11.498
▁Detroit	-11.4982
▁Erfinder	-11.4982
▁Gulf	-11.4982
▁Stewart	-11.4982
▁konfrontiert	-11.4982
▁murder	-11.4982
▁neugierig	-11.4982
▁Rettung	-11.4982
▁vorsichtig	-11.4983
▁kreiert	-11.4983
▁Business	-11.4983
▁Sonnenlicht	-11.4983
▁Geruch	-11.4983
ically	-11.4983
▁deserve	-11.4984
▁Einblick	-11.4985
▁Larry	-11.4985
▁1.000	-11.4985
▁lion	-11.4987
▁pan	-11.4987
▁hormone	-11.4987
▁dankbar	-11.4989
orient	-11.499
fressen	-11.499
▁Videospiele	-11.4991
▁verliert	-11.4994
▁wartet	-11.5
pox	-11.5001
▁transplant	-11.5002
▁Box	-11.5004
▁Ei	-11.5004
▁pad	-11.5005
▁Israeli	-11.5005
ufgewachsen	-11.5012
5.000	-11.5014
tail	-11.5014
▁worm	-11.5019
wan	-11.5023
ez	-11.5023
▁Up	-11.5024
▁classes	-11.5024
▁Kal	-11.5028
fen	-11.5028
▁boxes	-11.5031
▁cast	-11.5032
▁stoppen	-11.5034
▁hill	-11.5034
▁laser	-11.5036
▁mate	-11.5037
▁div	-11.5038
▁Tiefe	-11.504
▁Nick	-11.5042
▁needle	-11.5043
▁Regierungs	-11.5054
▁manager	-11.5055
▁tax	-11.5057
▁übernehme	-11.506
▁Dimensionen	-11.506
uß	-11.5062
▁Geschäfte	-11.5067
losen	-11.5067
▁Philip	-11.5068
▁poster	-11.5071
▁flowers	-11.5073
▁voneinander	-11.508
▁Congo	-11.5081
ueen	-11.5082
▁Nobel	-11.5084
▁Motivation	-11.5088
▁Watson	-11.5088
▁Zerstörung	-11.5088
▁corporate	-11.5088
▁curiosity	-11.5088
▁ernähre	-11.5088
▁fascinate	-11.5088
▁identical	-11.5088
▁kaputt	-11.5088
▁gestaltet	-11.5088
▁Brustkrebs	-11.5088
▁Dienstleistung	-11.5088
▁Joseph	-11.5088
▁Redwood	-11.5088
▁strike	-11.5088
▁toxic	-11.5088
▁Carolina	-11.5089
▁tanzen	-11.509
▁Sonnensystem	-11.5091
▁wiederholen	-11.5092
▁Drei	-11.51
▁bewirken	-11.51
▁beibring	-11.5101
▁flag	-11.5102
truck	-11.5104
▁technologische	-11.5105
▁confidence	-11.5108
reißen	-11.5112
aging	-11.5113
▁inequalit	-11.5116
▁feeding	-11.5119
▁trat	-11.512
▁Fahrer	-11.512
▁Van	-11.5123
richtung	-11.5125
▁lokal	-11.5125
▁legte	-11.5134
verkehr	-11.5135
▁absorb	-11.5136
sein	-11.5137
▁flip	-11.5141
hood	-11.5142
▁aim	-11.5145
▁pool	-11.5145
▁tube	-11.5148
▁Haie	-11.5149
rgestellt	-11.5151
▁Gel	-11.5153
▁einst	-11.5153
▁gezogen	-11.516
▁Schl	-11.5172
▁smoke	-11.5174
▁Kreuz	-11.5175
▁Del	-11.5178
design	-11.5179
▁cloth	-11.5182
▁Cel	-11.5185
▁Latin	-11.5186
▁herauszu	-11.5187
▁breathe	-11.5189
iness	-11.519
geschlagen	-11.5191
▁kümmert	-11.5192
▁Blau	-11.5193
▁narrat	-11.5193
▁Wärme	-11.5194
▁begegnen	-11.5194
▁diagram	-11.5194
▁awesome	-11.5194
▁column	-11.5194
▁agenda	-11.5194
▁Zweifel	-11.5194
ward	-11.5194
▁knock	-11.5194
▁Frankreich	-11.5194
▁Polio	-11.5194
▁minimal	-11.5195
▁painful	-11.5196
▁selection	-11.5197
▁Harry	-11.5198
nna	-11.5198
▁vital	-11.5198
▁Live	-11.52
will	-11.5201
▁Les	-11.5201
▁Innen	-11.5201
▁Song	-11.5201
▁durchzu	-11.5204
▁analyze	-11.5208
▁owner	-11.5213
schicht	-11.5213
▁Fahrzeug	-11.5215
▁produktiv	-11.5218
stab	-11.5218
▁reserve	-11.5218
▁fe	-11.5218
▁Pass	-11.5219
bra	-11.522
▁Who	-11.5229
▁starten	-11.5229
▁philosopher	-11.5238
swachstum	-11.5248
▁spezifische	-11.5249
ulation	-11.5251
▁versch	-11.5252
lock	-11.5256
▁hinterlasse	-11.5264
tausch	-11.5266
▁Marken	-11.5266
▁inspire	-11.5267
tausend	-11.5272
▁pit	-11.5273
▁Diagnose	-11.5276
tsch	-11.5282
▁Stift	-11.5285
call	-11.5286
▁1.	-11.5292
schi	-11.5297
figur	-11.5297
▁protest	-11.5298
gypten	-11.5299
▁favor	-11.5301
▁Option	-11.5302
▁Blätter	-11.5302
▁County	-11.5302
▁Erdbeben	-11.5302
▁privacy	-11.5302
▁veröffentlichen	-11.5302
▁Hitze	-11.5302
▁Krankenhäuser	-11.5302
▁Neugier	-11.5302
▁Berlin	-11.5302
▁greenhouse	-11.5302
▁Bibel	-11.5303
▁continuous	-11.5303
▁uncle	-11.5303
▁Will	-11.5303
▁Egypt	-11.5303
strom	-11.5303
cer	-11.5304
▁Chile	-11.5304
▁gründen	-11.5306
dependent	-11.5306
wood	-11.5308
▁ergeben	-11.5308
▁films	-11.531
▁strip	-11.5313
▁Level	-11.5316
▁Russian	-11.5322
▁Dame	-11.5322
▁Fan	-11.5322
▁wound	-11.5324
▁medi	-11.5324
▁AB	-11.533
gli	-11.533
▁tag	-11.5334
▁Stiftung	-11.5343
▁hous	-11.5348
rlei	-11.5351
▁gest	-11.5366
town	-11.5367
▁implant	-11.5368
flo	-11.5369
chu	-11.5372
grade	-11.5375
▁verbring	-11.5379
gründe	-11.5382
▁Last	-11.5382
▁laughing	-11.539
verse	-11.539
▁hingeh	-11.54
▁Achse	-11.5402
▁le	-11.5403
▁SS	-11.5404
▁Futter	-11.541
▁SETI	-11.541
▁chocolate	-11.541
▁library	-11.541
▁mushroom	-11.541
▁musikalische	-11.541
▁vegetable	-11.541
▁Rwanda	-11.541
▁arrest	-11.541
▁miracle	-11.541
▁Sektor	-11.541
▁immense	-11.541
▁cooperation	-11.5411
▁Denkweise	-11.5412
▁maxim	-11.5413
▁breed	-11.5413
▁Mathe	-11.5414
▁Juni	-11.5414
zahlen	-11.5414
bezogen	-11.5415
▁erfüllt	-11.5419
▁Good	-11.5419
▁till	-11.5419
▁prisoner	-11.542
▁dicht	-11.5421
▁Terror	-11.5421
▁Vorträge	-11.5423
▁attend	-11.5429
▁anzusehen	-11.5431
▁taucht	-11.5432
spieler	-11.5434
▁traged	-11.5437
▁secure	-11.5437
scha	-11.5444
▁slides	-11.5446
▁rely	-11.5446
uit	-11.545
▁irgendein	-11.5451
▁eigentliche	-11.5459
▁fordert	-11.5461
▁bedeutete	-11.5461
▁mächtig	-11.5466
▁shell	-11.5469
▁origin	-11.5471
▁Meere	-11.5476
▁dress	-11.5476
▁schlimm	-11.5479
▁höchsten	-11.5479
▁spreading	-11.5481
▁pose	-11.5482
▁wash	-11.5484
hai	-11.5485
itter	-11.5486
▁plans	-11.5487
▁spiritual	-11.5489
cus	-11.5499
▁kritische	-11.5504
nahme	-11.5507
▁halt	-11.551
behörde	-11.552
▁Kategorie	-11.552
▁astonishing	-11.552
▁barrier	-11.552
▁earthquake	-11.552
▁verursachen	-11.552
▁letztlich	-11.552
▁distant	-11.552
▁Louis	-11.552
▁genetisch	-11.552
▁angry	-11.552
▁footprint	-11.552
▁Geographic	-11.552
▁mystery	-11.5521
▁neural	-11.5521
▁reduction	-11.5521
▁Sequenz	-11.5521
▁ewig	-11.5521
▁stack	-11.5522
▁2030	-11.5522
▁surf	-11.5522
lösen	-11.5523
▁Verfahren	-11.5523
▁Euro	-11.5523
▁salt	-11.5526
▁Global	-11.5528
▁Party	-11.5535
▁fixed	-11.5538
▁Handys	-11.5539
▁dauern	-11.5539
▁CD	-11.5541
▁berichtet	-11.5543
▁Ali	-11.5544
▁Miss	-11.5545
▁Palm	-11.5546
▁Erwartungen	-11.5546
▁magnetic	-11.5547
▁item	-11.5548
▁engag	-11.555
▁recogni	-11.5552
▁eingeführt	-11.5555
gle	-11.5556
▁letzter	-11.5558
▁Toten	-11.5564
fällt	-11.5569
▁Mess	-11.5576
▁klinische	-11.558
▁Lungen	-11.5587
▁kleinste	-11.5587
pla	-11.5588
träger	-11.5588
▁dig	-11.5589
treiben	-11.559
▁lung	-11.5591
sterblichkeit	-11.56
ange	-11.5601
▁army	-11.5602
wachsen	-11.5603
▁dramatisch	-11.5607
▁ursprüngliche	-11.5613
▁Hunderte	-11.5619
▁ac	-11.5625
▁Pinguine	-11.5631
▁Clinton	-11.5631
▁DVD	-11.5631
▁Geschmack	-11.5631
▁November	-11.5631
▁Vagina	-11.5631
▁berühren	-11.5631
▁globe	-11.5631
▁colony	-11.5631
▁conclude	-11.5631
▁Gleichgewicht	-11.5631
▁bicycle	-11.5631
▁sweat	-11.5632
▁Gipfel	-11.5632
▁Angelegenheit	-11.5632
▁rush	-11.5632
▁flood	-11.5632
urg	-11.5632
störung	-11.5634
▁isolat	-11.5635
▁2020	-11.5636
▁Ross	-11.5637
▁Organe	-11.5639
▁Initiative	-11.564
äge	-11.5641
▁Delhi	-11.5643
▁erklärte	-11.5644
ably	-11.5644
▁bedeckt	-11.5647
geführt	-11.5647
▁rebuild	-11.565
fische	-11.5652
▁erfüllen	-11.5652
▁dense	-11.5653
▁parking	-11.5656
▁bedenken	-11.5658
▁Jean	-11.5658
▁Warum	-11.5665
▁fein	-11.5666
tries	-11.5673
▁Mach	-11.5676
▁Thu	-11.5678
▁Feind	-11.5679
long	-11.568
eit	-11.5696
nsas	-11.5697
▁Preise	-11.5701
▁printing	-11.5704
tischen	-11.571
▁exten	-11.5716
▁agreed	-11.5718
ola	-11.5723
▁Hä	-11.5727
produktion	-11.573
bble	-11.5735
▁frustrat	-11.5742
▁extinct	-11.5742
decken	-11.5744
▁Aufstieg	-11.5744
▁Gletscher	-11.5744
▁Medium	-11.5744
▁Parkinson	-11.5744
▁economies	-11.5744
▁narrow	-11.5744
▁simplicity	-11.5744
▁süß	-11.5744
▁fabric	-11.5744
▁IBM	-11.5744
▁causing	-11.5744
▁jegliche	-11.5744
▁befand	-11.5744
▁Männchen	-11.5744
▁Fellow	-11.5744
▁pyramid	-11.5744
▁hinzufügen	-11.5745
▁fluid	-11.5745
▁dreidimensional	-11.5751
▁autonomous	-11.5751
ette	-11.5752
▁ugl	-11.5753
▁blame	-11.5753
▁deck	-11.5759
preis	-11.5759
hour	-11.5763
▁startete	-11.5764
▁mu	-11.5772
rid	-11.5773
▁neutral	-11.5773
kehren	-11.5774
▁Statistik	-11.5776
auto	-11.578
▁Krieges	-11.5783
▁bug	-11.5784
mine	-11.5786
lip	-11.5787
masse	-11.5789
▁Ideal	-11.5789
fliegen	-11.5794
schreiben	-11.5794
▁wundervoll	-11.5794
▁Hinweise	-11.58
▁brothers	-11.5809
▁beeindruckend	-11.5809
▁benutze	-11.581
zieht	-11.5812
▁spoken	-11.5814
▁Schweine	-11.5814
▁350	-11.5814
▁Versorgung	-11.5821
▁Ob	-11.5824
▁borders	-11.5827
▁citizen	-11.5828
▁Taschen	-11.5832
▁trace	-11.5837
▁Bier	-11.584
▁auto	-11.5842
▁Inneren	-11.5846
▁accelerat	-11.5847
berwachung	-11.5852
▁unteren	-11.5853
▁Farm	-11.5855
▁Alters	-11.5856
kräfte	-11.5857
▁Cartoon	-11.5857
▁Charlie	-11.5857
▁Gebrauch	-11.5857
▁Niveau	-11.5857
▁Ungleichheit	-11.5857
▁dazwischen	-11.5857
▁obstacle	-11.5857
▁participant	-11.5857
▁Richtige	-11.5857
▁defense	-11.5857
▁rainforest	-11.5857
▁Entwurf	-11.5857
▁discipline	-11.5857
▁schuf	-11.5857
▁shelter	-11.5857
▁Terroristen	-11.5858
▁judgment	-11.5858
▁concert	-11.5858
▁household	-11.5858
clear	-11.5858
▁neigen	-11.5858
▁cash	-11.5858
▁Verlauf	-11.5859
Projekt	-11.5859
▁file	-11.586
▁ignorieren	-11.586
erlangen	-11.5861
▁database	-11.5862
▁editor	-11.5864
▁optimistisch	-11.5865
▁stirb	-11.5866
▁wise	-11.5867
▁Wichtigste	-11.5868
▁golf	-11.5869
▁älteste	-11.5869
▁zurückgehen	-11.5875
▁dump	-11.5877
▁bond	-11.5878
ähnliche	-11.588
▁gra	-11.5884
▁Nutzer	-11.5893
krise	-11.5893
▁microscope	-11.5895
code	-11.5906
▁Play	-11.5908
▁niedrig	-11.591
▁stor	-11.591
see	-11.591
▁gewinn	-11.592
▁Trend	-11.5933
▁shooting	-11.5934
▁sides	-11.5942
binden	-11.5947
▁brach	-11.5948
▁physikalische	-11.5949
▁illustrate	-11.5955
▁bend	-11.5955
▁leiten	-11.5965
letzt	-11.5967
▁leere	-11.5969
▁figur	-11.597
▁Albert	-11.5971
▁Angebot	-11.5972
▁Joshua	-11.5972
▁Klavier	-11.5972
▁Shakespeare	-11.5972
▁Vergnügen	-11.5972
▁asteroid	-11.5972
▁pretend	-11.5972
▁48	-11.5976
▁Laser	-11.5978
▁Islamic	-11.5978
▁Beton	-11.5978
▁paintings	-11.5979
▁PC	-11.5979
▁Spannung	-11.598
▁shipp	-11.598
▁beendet	-11.5981
far	-11.5982
merk	-11.5984
kopf	-11.5984
▁Fünf	-11.5985
▁heroes	-11.5989
▁Kiste	-11.599
essen	-11.5995
▁Brad	-11.5996
version	-11.5997
▁Figur	-11.5997
▁sales	-11.6002
▁Leiter	-11.6003
▁Haare	-11.6004
▁hip	-11.6005
▁Summe	-11.6007
▁glücklicher	-11.6011
▁anpassen	-11.6014
gefallen	-11.6014
digit	-11.6017
ago	-11.6019
▁finanziert	-11.6027
▁Friedens	-11.603
▁committ	-11.603
▁Schmerzen	-11.6031
▁gray	-11.6034
▁schnelle	-11.6036
▁verliebt	-11.6036
▁stepp	-11.6038
▁Leber	-11.604
▁Pf	-11.6041
▁Male	-11.6044
▁donor	-11.6047
▁wach	-11.6047
▁jährlich	-11.6058
▁Dutzend	-11.606
rine	-11.6062
▁inspirieren	-11.6064
gan	-11.6067
▁vierte	-11.6067
▁functional	-11.6073
▁younger	-11.6074
person	-11.6074
▁Bei	-11.6085
ino	-11.6086
▁historische	-11.6088
▁ok	-11.6089
▁Hawaii	-11.6089
▁lächerlich	-11.6089
▁orchestra	-11.6089
▁Einfachheit	-11.6089
▁Nächste	-11.6089
▁adjust	-11.6089
▁ersetzt	-11.6089
▁excuse	-11.6089
▁gerettet	-11.6089
▁silent	-11.6089
▁umgekehrt	-11.6089
▁ceiling	-11.6089
▁erfand	-11.6089
▁viral	-11.6089
▁fliegt	-11.6089
▁Virginia	-11.6089
▁Italien	-11.6089
▁renewable	-11.6089
HC	-11.6089
▁Greek	-11.609
▁Vorschlag	-11.609
spitze	-11.6091
▁1900	-11.6092
class	-11.6092
geordnet	-11.6092
▁promote	-11.6093
▁lock	-11.6093
▁defend	-11.6094
point	-11.6094
▁demographic	-11.6095
team	-11.6095
ttle	-11.6096
▁suicide	-11.6098
▁Mio	-11.6098
▁Infektion	-11.6099
▁50,000	-11.6099
▁sports	-11.6099
▁Ballon	-11.61
▁Stoff	-11.6104
▁personalit	-11.6106
▁30-	-11.6107
▁Saal	-11.6108
▁Computern	-11.6113
▁Jugendliche	-11.6113
inner	-11.6113
▁portrait	-11.6113
▁Blind	-11.6115
▁floating	-11.6117
Me	-11.6118
▁cord	-11.6119
stelle	-11.612
solv	-11.612
▁windows	-11.6121
▁liver	-11.6123
▁Farb	-11.6125
▁argu	-11.6126
fern	-11.6129
fund	-11.6131
▁breaking	-11.6137
▁gefährliche	-11.6138
▁benutzte	-11.6165
kul	-11.6167
lar	-11.6178
▁neuron	-11.6182
▁Beck	-11.6188
▁höchste	-11.6195
▁limits	-11.6199
ille	-11.6203
einheit	-11.6205
▁Privat	-11.6206
▁Flüssigkeit	-11.6206
▁Hölle	-11.6206
▁Würde	-11.6206
▁conservative	-11.6206
▁crucial	-11.6206
▁external	-11.6206
▁furniture	-11.6206
▁gefährdet	-11.6206
▁gestartet	-11.6206
▁procedure	-11.6206
▁senior	-11.6206
▁transparency	-11.6206
▁geschützt	-11.6206
▁Brooklyn	-11.6206
▁gesture	-11.6207
▁flash	-11.6207
▁befreien	-11.6207
▁überlegt	-11.6207
▁ausgewählt	-11.6207
▁skeleton	-11.6207
▁mutig	-11.6208
▁Philosophie	-11.6208
▁Tra	-11.6209
▁minus	-11.6209
▁dignit	-11.621
▁headline	-11.621
▁killer	-11.621
▁Psychologe	-11.6211
▁LG	-11.6211
▁Brand	-11.6212
▁horizontal	-11.6212
▁optimistic	-11.6212
▁Werbe	-11.6213
▁schw	-11.6213
▁por	-11.6214
▁integriert	-11.6214
▁erfuhr	-11.6215
reicht	-11.6216
▁sang	-11.6216
▁Treffen	-11.6216
▁Brüder	-11.6218
ember	-11.6218
ui	-11.6221
zero	-11.6223
▁ausmacht	-11.6223
▁ausmachen	-11.6226
▁disorders	-11.6227
▁Gespräche	-11.6228
acht	-11.623
made	-11.6232
▁chest	-11.6233
▁Andere	-11.6235
▁evening	-11.6236
▁tick	-11.6239
äre	-11.6246
▁prefer	-11.6249
▁tri	-11.6252
▁Cu	-11.6255
bb	-11.626
▁resist	-11.6262
▁rechte	-11.6263
räume	-11.6267
▁axis	-11.6269
▁Speicher	-11.627
opfer	-11.6279
▁educate	-11.6279
▁Sta	-11.6281
rung	-11.6285
statt	-11.6286
ulu	-11.6287
▁hi	-11.6287
▁indicate	-11.6288
▁immune	-11.629
▁eingebaut	-11.6296
▁entscheidende	-11.6304
▁Stamm	-11.6308
sky	-11.6313
▁drehte	-11.6314
▁ökonomische	-11.6318
Zeitraum	-11.6321
▁Symptome	-11.6322
▁abhäng	-11.6322
▁überraschende	-11.6323
lag	-11.6323
leitung	-11.6325
▁Einwohner	-11.6325
▁McDonald	-11.6325
▁Täuschung	-11.6325
▁Zwischen	-11.6325
▁desperate	-11.6325
▁exploit	-11.6325
▁frighten	-11.6325
▁origami	-11.6325
▁yield	-11.6325
▁herrscht	-11.6325
▁bulb	-11.6325
▁utter	-11.6325
▁adventure	-11.6325
▁dienen	-11.6326
▁fragment	-11.6326
▁photography	-11.6326
▁spill	-11.6326
▁Verteilung	-11.6326
▁Medica	-11.6327
▁Funk	-11.6327
▁Vorgang	-11.6327
▁Ethiopia	-11.6328
▁Flächen	-11.6328
prozess	-11.6328
▁generat	-11.6329
▁Papa	-11.6331
▁Hypothese	-11.6331
▁repräsentiert	-11.6331
▁objective	-11.6332
dollar	-11.6332
▁Juli	-11.6334
▁interpret	-11.6334
▁representation	-11.6335
▁tower	-11.6336
▁Mont	-11.6336
gabe	-11.6336
▁drum	-11.6339
▁Fliege	-11.6339
▁senk	-11.6343
▁20,000	-11.6344
▁consistent	-11.6344
▁widme	-11.6345
probleme	-11.6345
▁professionelle	-11.6346
▁There	-11.6348
fragen	-11.6351
▁Dec	-11.6353
▁inspiring	-11.6356
▁worker	-11.6357
▁Böse	-11.636
▁Denk	-11.6361
ction	-11.6361
▁Wut	-11.6362
▁Mom	-11.6364
▁imagin	-11.6364
uh	-11.6366
ellen	-11.6373
take	-11.6374
▁Child	-11.6375
▁corn	-11.6378
▁inventor	-11.6384
üb	-11.6395
room	-11.6398
abilities	-11.6403
nce	-11.6408
▁klug	-11.6413
▁exponentiell	-11.6416
▁ethical	-11.6419
▁Pop	-11.642
▁Trans	-11.6422
▁psychische	-11.6425
▁disorder	-11.6425
▁schaue	-11.6425
▁Pferd	-11.6428
▁Free	-11.6433
▁Nar	-11.6438
kte	-11.6439
ühl	-11.6441
▁April	-11.6446
▁Autismus	-11.6446
▁Transparenz	-11.6446
▁scenario	-11.6446
▁übersetzt	-11.6446
▁gebildet	-11.6446
▁eradicat	-11.6446
▁gewöhnt	-11.6446
▁Meeting	-11.6446
▁Verteidigung	-11.6446
▁Dialog	-11.6446
frozen	-11.6446
▁Globalisierung	-11.6446
▁Logik	-11.6446
▁Olympic	-11.6446
▁sexy	-11.6446
▁ticket	-11.6447
▁Coca	-11.6447
hren	-11.6448
▁queen	-11.645
▁wings	-11.645
dioxide	-11.6451
▁ungewöhnlich	-11.6453
▁mere	-11.6454
▁38	-11.6455
▁Lewi	-11.6456
▁sheep	-11.6457
▁Küche	-11.6459
▁könne	-11.6461
▁spannend	-11.6461
cal	-11.6463
▁intend	-11.6464
bit	-11.6465
▁observ	-11.6471
geld	-11.6474
▁guard	-11.6476
▁Ihres	-11.6482
spect	-11.6482
▁kämpft	-11.6483
▁planen	-11.6483
▁cute	-11.6492
▁invit	-11.6493
▁polar	-11.6502
▁importan	-11.6507
formen	-11.651
▁nette	-11.6511
▁Kameras	-11.6511
menge	-11.6518
▁mächtige	-11.652
han	-11.653
▁192	-11.6534
▁distribute	-11.6535
▁brechen	-11.6538
▁signed	-11.6541
▁norm	-11.6551
▁Laufen	-11.6551
▁transfer	-11.6558
▁Shi	-11.656
lick	-11.656
▁Schlacht	-11.6565
▁addict	-11.6566
▁Digital	-11.6568
▁Front	-11.6568
▁angepasst	-11.6568
▁description	-11.6568
▁korrekt	-11.6568
gedreht	-11.6568
▁Bruno	-11.6568
▁Ausrüstung	-11.6568
▁Einschränkung	-11.6568
▁feiern	-11.6568
▁Umgang	-11.6568
▁Nachfrage	-11.6569
▁kochen	-11.6569
▁Betrieb	-11.6569
häuser	-11.6569
▁Höhepunkt	-11.6571
▁restore	-11.6571
▁Rover	-11.6573
▁überwach	-11.6573
▁Santa	-11.6574
kurs	-11.6574
▁Eigen	-11.6574
▁Bible	-11.6576
▁compell	-11.6577
▁tale	-11.6577
▁boss	-11.6577
modell	-11.6577
▁grave	-11.6577
century	-11.6578
▁72	-11.6578
minute	-11.6578
▁Hyper	-11.6579
▁Wenn	-11.6581
▁opposed	-11.6582
lot	-11.6583
▁Chen	-11.6591
▁landete	-11.6594
▁dominat	-11.6594
▁erwähnen	-11.6598
bus	-11.6605
▁dive	-11.6605
▁elect	-11.6607
▁verschiedener	-11.6617
ridge	-11.662
eben	-11.6622
▁gelbe	-11.6624
rauch	-11.6624
▁Schreiben	-11.6627
▁gelb	-11.6636
affe	-11.6638
▁craft	-11.6639
▁bezieh	-11.6643
boden	-11.6648
zuwenden	-11.6651
▁pray	-11.6654
▁gesetzt	-11.6659
▁Präsidenten	-11.6664
▁rating	-11.6665
▁Fahrzeuge	-11.6667
▁Tour	-11.6667
▁aside	-11.6668
ologist	-11.6669
▁stimmen	-11.667
▁überprüf	-11.667
stan	-11.6671
▁einzig	-11.6672
kosten	-11.6672
▁Stu	-11.6672
▁pu	-11.6675
▁weapon	-11.6677
ritt	-11.6678
▁occasional	-11.6682
▁änderte	-11.6682
schäd	-11.6685
▁ruin	-11.6686
▁Kilo	-11.6687
gram	-11.6687
▁tricks	-11.6688
▁Mel	-11.6689
▁accomplish	-11.669
▁Indus	-11.6691
▁authentic	-11.6691
▁Soviet	-11.6691
▁calculation	-11.6691
▁hervorragend	-11.6691
▁irrational	-11.6691
▁reputation	-11.6691
▁unbelievabl	-11.6691
▁embedded	-11.6691
▁angemessen	-11.6691
▁Nahrungsmittel	-11.6691
▁Spring	-11.6691
▁blend	-11.6692
▁Wright	-11.6692
▁Effizienz	-11.6692
▁Tro	-11.6692
▁atmen	-11.6692
straße	-11.6692
▁verbraucht	-11.6692
▁sensation	-11.6693
bruch	-11.6693
▁Atlantic	-11.6693
▁Weltbevölkerung	-11.6694
▁spark	-11.6694
▁engagement	-11.6694
▁loan	-11.6695
▁Standpunkt	-11.6696
▁Umfrage	-11.6699
▁mold	-11.6699
gua	-11.67
▁bless	-11.6701
▁priorit	-11.6709
▁Dick	-11.671
text	-11.6713
▁Hal	-11.6714
▁smok	-11.6714
▁bedeutende	-11.6715
▁Katastrophe	-11.6716
▁breite	-11.6717
▁pi	-11.6717
▁eingehen	-11.6717
▁aggressive	-11.6729
▁Seh	-11.6729
möglichkeit	-11.673
▁Koch	-11.6739
▁Teams	-11.6747
▁Ring	-11.6748
▁höchst	-11.6749
wellen	-11.6751
play	-11.6759
▁Dienst	-11.676
▁poly	-11.676
▁Wahlen	-11.6764
▁Jay	-11.6768
▁Resultate	-11.6769
▁0	-11.6778
▁conflicts	-11.6779
▁niedrige	-11.678
▁Sahara	-11.6784
▁Dis	-11.6785
▁umso	-11.6791
▁Proben	-11.6792
▁kit	-11.6792
▁TEDster	-11.6793
gesichts	-11.6795
▁Training	-11.6796
▁Carl	-11.6807
▁Nordamerika	-11.6807
▁schwimmen	-11.6809
stätte	-11.681
▁Gut	-11.681
being	-11.681
▁sport	-11.6812
esearch	-11.6816
▁compound	-11.6816
▁französische	-11.6816
▁reparieren	-11.6816
▁request	-11.6816
▁ridiculous	-11.6816
▁scratch	-11.6816
▁terrifi	-11.6816
▁örtliche	-11.6816
▁definitiv	-11.6816
▁drove	-11.6816
▁sharp	-11.6816
▁Simon	-11.6816
Source	-11.6816
▁Daumen	-11.6816
▁vermittelt	-11.6816
▁Größenordnung	-11.6816
▁psychologische	-11.6816
▁jüngste	-11.6816
▁poison	-11.6816
▁systematic	-11.6817
▁Entstehung	-11.6817
▁brown	-11.6817
▁Richter	-11.6817
▁lake	-11.6818
▁aussah	-11.6818
▁laughter	-11.6818
▁Pause	-11.6819
▁zwang	-11.6819
▁Gestaltung	-11.6819
view	-11.6821
▁Eastern	-11.6822
▁Schätzung	-11.6823
▁berechnen	-11.6826
▁BIP	-11.6828
leuchten	-11.6829
▁dient	-11.6831
▁Ham	-11.6831
▁mice	-11.6833
bilder	-11.6833
▁quer	-11.6834
▁gelassen	-11.6839
▁Seil	-11.684
▁Milo	-11.6842
▁treiben	-11.6842
▁dish	-11.6844
werte	-11.6851
▁Nahrungs	-11.6855
wechsel	-11.686
▁aufrecht	-11.6863
▁observe	-11.6865
▁seed	-11.6869
▁Dichter	-11.6873
ständig	-11.6881
▁boundar	-11.6884
▁Leid	-11.6885
phy	-11.6887
uction	-11.6888
▁systematisch	-11.6889
imi	-11.6892
▁meetings	-11.6895
▁190	-11.6895
ili	-11.6898
▁senses	-11.6899
▁mail	-11.6902
▁jeweil	-11.691
▁Mitglied	-11.6912
▁Wach	-11.6918
▁theme	-11.6925
▁graphic	-11.6925
▁Chi	-11.6929
▁uh	-11.693
ivität	-11.6933
▁komplexer	-11.6934
▁Atlant	-11.694
▁reject	-11.6941
tiere	-11.6941
▁struggl	-11.6942
▁Anstieg	-11.6943
▁Anstrengung	-11.6943
▁Church	-11.6943
▁Fantasie	-11.6943
▁Monterey	-11.6943
▁Tragödie	-11.6943
▁circa	-11.6943
▁fulfill	-11.6943
▁öfter	-11.6943
▁trocken	-11.6943
▁mutation	-11.6943
▁domain	-11.6943
▁verschwand	-11.6943
▁aircraft	-11.6943
▁MRI	-11.6943
▁translation	-11.6944
▁Schädel	-11.6944
▁capitalism	-11.6944
▁Pen	-11.6945
▁zurückkehren	-11.6945
▁limitation	-11.6946
▁spell	-11.6948
▁Spar	-11.6948
▁Vermögen	-11.6948
▁erfolgreiche	-11.6949
▁Rezept	-11.695
▁node	-11.6951
▁hindurch	-11.6951
▁intention	-11.6952
▁molekulare	-11.6952
möglich	-11.6953
▁Map	-11.6956
▁airport	-11.6956
▁Durchschnitts	-11.6958
▁44	-11.6964
inblick	-11.6965
▁Konsumenten	-11.6966
▁granted	-11.6969
▁Fischer	-11.6973
▁130	-11.6975
▁sorgt	-11.698
▁klick	-11.698
▁ill	-11.698
▁Fä	-11.6983
▁20-	-11.6985
▁gear	-11.6985
cellular	-11.6988
meister	-11.6997
nutzung	-11.7
▁Ski	-11.7007
▁port	-11.7014
▁Stille	-11.7021
▁Funktionen	-11.7028
▁pot	-11.7032
▁Wachstums	-11.7032
▁Reisen	-11.7036
unwahrscheinlich	-11.7039
scher	-11.704
▁Va	-11.7041
▁defin	-11.7049
▁bother	-11.705
▁seeds	-11.7052
achtet	-11.7056
gehört	-11.7057
▁Oberflächen	-11.7061
▁bow	-11.7064
sucht	-11.7068
▁Bedarf	-11.7071
▁Mumbai	-11.7071
▁guarantee	-11.7071
▁guilt	-11.7071
▁resident	-11.7071
▁Sätze	-11.7071
▁Everest	-11.7071
▁Lächeln	-11.7071
▁hierarch	-11.7071
▁Rosling	-11.7071
▁appeal	-11.7071
▁wirksam	-11.7071
▁dauerhaft	-11.7071
▁versicher	-11.7071
▁copyright	-11.7071
▁erfasst	-11.7071
▁Black	-11.7071
▁borrow	-11.7071
▁Seattle	-11.7071
▁Edward	-11.7071
▁probabilit	-11.7071
▁advis	-11.7072
▁export	-11.7072
▁profile	-11.7072
▁slice	-11.7072
▁gemessen	-11.7073
▁Geoff	-11.7073
▁Auftrag	-11.7073
▁Patent	-11.7075
turm	-11.7075
▁mentor	-11.7076
▁Marine	-11.7079
▁trends	-11.7081
▁lane	-11.7082
▁reicher	-11.7085
American	-11.7087
Technologie	-11.7087
aktiv	-11.7089
▁Maßnahmen	-11.709
▁Weltall	-11.709
▁Ursache	-11.7092
▁explosion	-11.7092
▁preserve	-11.7093
▁Sorge	-11.7094
▁Waffe	-11.7094
▁fifth	-11.7095
▁Hacker	-11.7101
▁resolution	-11.7101
anne	-11.7105
▁reiste	-11.7105
vier	-11.7107
▁asset	-11.7108
▁Architekt	-11.7109
▁reduc	-11.7127
▁Mall	-11.7136
rot	-11.714
▁schlimmsten	-11.7142
▁Verkehr	-11.7144
▁unterrichtet	-11.7147
▁integrat	-11.7148
nseits	-11.7151
▁tauchen	-11.7155
▁pal	-11.7158
räumen	-11.7158
▁komisch	-11.7159
▁Lang	-11.716
▁fürchte	-11.7162
weit	-11.7163
▁Aber	-11.7163
▁komplette	-11.7163
▁tribes	-11.7174
soweit	-11.7177
▁günstig	-11.7179
▁polici	-11.7181
▁prä	-11.7189
zelle	-11.7194
▁Ron	-11.7196
▁conc	-11.72
unterschied	-11.7201
▁Befehl	-11.7201
▁Erziehung	-11.7201
▁intrigu	-11.7201
▁routine	-11.7201
▁Anweisung	-11.7201
▁Buddha	-11.7201
▁Elizabeth	-11.7201
▁Frequenz	-11.7201
▁Käfer	-11.7201
▁Löwen	-11.7201
▁Tränen	-11.7201
▁candidate	-11.7201
▁diabetes	-11.7201
▁gezwungen	-11.7201
▁intuition	-11.7201
▁skull	-11.7201
▁hässlich	-11.7201
▁Kooperation	-11.7201
▁football	-11.7201
▁Bürgerkrieg	-11.7201
▁demonstration	-11.7202
▁magische	-11.7202
▁Menschlichkeit	-11.7202
liste	-11.7202
▁Alice	-11.7202
▁subtle	-11.7203
▁Force	-11.7203
▁Block	-11.7203
▁replicate	-11.7204
▁Arabic	-11.7205
eopard	-11.7205
▁globalization	-11.7205
▁Sehen	-11.7206
▁erfordert	-11.7208
▁31	-11.7209
produkt	-11.721
▁Sammlung	-11.7211
▁bold	-11.7212
▁Ang	-11.7212
▁moralisch	-11.7215
sia	-11.7218
▁Anzeige	-11.7218
▁Inhalte	-11.7219
▁upset	-11.7221
hielt	-11.7224
▁Katze	-11.7225
▁industrie	-11.7232
▁mammals	-11.7233
right	-11.7234
▁unternehmen	-11.7235
▁audio	-11.7239
▁Partei	-11.7241
▁These	-11.7244
dom	-11.7248
▁Ram	-11.7248
▁Lieder	-11.7261
some	-11.7266
▁offenbar	-11.7269
▁Tele	-11.7271
mission	-11.728
▁Eisen	-11.7282
▁Handeln	-11.7282
gestoßen	-11.7283
▁habit	-11.7284
▁redet	-11.7285
▁pur	-11.7298
▁tuna	-11.7299
▁Erkenntnisse	-11.73
▁fehlende	-11.7304
▁nahezu	-11.7306
aving	-11.7311
▁compete	-11.7313
▁Katastrophen	-11.7314
▁Geh	-11.7315
▁wette	-11.7319
▁Führungs	-11.7324
▁15-	-11.7325
▁electronics	-11.7326
▁alarm	-11.7331
▁Früh	-11.7332
▁Polizist	-11.7332
▁Schokolade	-11.7332
▁Apollo	-11.7332
▁Beijing	-11.7332
▁Mozart	-11.7332
▁absurd	-11.7332
▁analysiere	-11.7332
▁diskutiere	-11.7332
▁identifie	-11.7332
▁inklusive	-11.7332
▁pioneer	-11.7332
▁smooth	-11.7332
▁spectacular	-11.7332
▁twist	-11.7332
▁geöffnet	-11.7332
kunst	-11.7332
▁neuroscience	-11.7332
▁abandon	-11.7332
▁Blickwinkel	-11.7333
▁Onkel	-11.7333
▁äußer	-11.7333
▁Benutzer	-11.7333
▁partnership	-11.7333
▁leap	-11.7333
bedingung	-11.7333
▁Mount	-11.7334
▁lamp	-11.7334
▁Felder	-11.7334
▁indigen	-11.7335
▁193	-11.7336
▁Ausland	-11.7338
▁darkness	-11.734
▁Diabetes	-11.7341
▁Sendung	-11.7341
don	-11.7342
▁Time	-11.7343
▁angehen	-11.7344
▁hello	-11.7344
szeit	-11.7345
▁geeignet	-11.7345
▁simulation	-11.7349
▁Lichter	-11.735
▁ne	-11.7351
▁Bauch	-11.7352
friend	-11.7352
▁Service	-11.7353
▁Ohr	-11.7354
▁Lake	-11.7354
▁pie	-11.7354
▁wing	-11.7356
marke	-11.7356
▁physisch	-11.7361
olds	-11.7363
▁Alternative	-11.7363
▁Sensoren	-11.7367
▁schaffte	-11.7372
zimmer	-11.7375
▁Pet	-11.7377
iche	-11.738
▁cosm	-11.7382
smal	-11.7382
▁Len	-11.7385
▁Fels	-11.7386
üge	-11.7386
hne	-11.739
▁Grab	-11.7391
▁rap	-11.7391
▁organische	-11.7393
▁gemein	-11.7393
stücke	-11.7399
▁unendlich	-11.74
zeitig	-11.7402
▁universit	-11.7406
▁zwingen	-11.7409
lash	-11.7409
reiche	-11.7424
▁biologisch	-11.7427
▁Konzepte	-11.7428
▁enden	-11.7435
▁Werke	-11.7435
▁decrease	-11.7439
▁Archiv	-11.7442
▁Wichtige	-11.7442
▁Fotografie	-11.7443
▁Jud	-11.7456
▁Vier	-11.7456
▁soap	-11.7458
▁Straf	-11.7463
iti	-11.7464
▁excellen	-11.7464
▁Skelett	-11.7466
▁Abenteuer	-11.7466
▁spontan	-11.7466
▁Anpassung	-11.7466
▁Jordan	-11.7466
▁Privatsphäre	-11.7466
▁Weibchen	-11.7466
▁diskutiert	-11.7466
▁herausfand	-11.7466
▁identisch	-11.7466
▁theoretisch	-11.7466
▁Ocean	-11.7466
▁japanische	-11.7466
▁freak	-11.7466
▁Mountain	-11.7466
▁Disney	-11.7466
▁hungry	-11.7466
▁sandwich	-11.7466
▁textbook	-11.7466
▁Lord	-11.7466
▁fortune	-11.7466
▁stammen	-11.7466
▁passenger	-11.7466
▁resolve	-11.7467
▁hardware	-11.7467
▁coat	-11.7467
▁ultra	-11.7467
erkeley	-11.7468
▁stet	-11.7468
▁northern	-11.7468
▁Scham	-11.7468
▁achievement	-11.747
▁geraten	-11.7472
▁Jami	-11.7473
▁körperliche	-11.7473
▁Brother	-11.7474
▁Flugzeuge	-11.7474
brachte	-11.7477
▁Explosion	-11.7479
▁vorwärts	-11.7479
▁Dean	-11.7479
pflanzen	-11.748
hus	-11.7483
▁wow	-11.7483
▁43	-11.7484
schluss	-11.7484
▁pace	-11.7484
▁Kor	-11.7485
Bahn	-11.7488
▁verschwinde	-11.7488
teils	-11.7494
staat	-11.7496
strecken	-11.7496
▁plain	-11.7499
▁treib	-11.7502
generation	-11.7504
ände	-11.7505
▁volle	-11.7506
▁Nations	-11.7507
▁Tricks	-11.7512
▁anbieten	-11.7513
mitten	-11.7513
▁Unternehmens	-11.7515
▁Spur	-11.7516
wandeln	-11.7517
▁Kit	-11.7522
▁fließen	-11.7523
werten	-11.7525
regen	-11.7529
▁Alle	-11.7537
▁Julian	-11.7537
▁pregnan	-11.7539
erfolg	-11.7544
▁Ratten	-11.7546
▁Schwestern	-11.7548
▁Probe	-11.755
▁Schriftsteller	-11.755
▁wirtschaftlich	-11.755
▁Reis	-11.7551
▁copie	-11.7558
finden	-11.7561
▁gewöhnlich	-11.7562
▁kauft	-11.7563
▁schöner	-11.7564
gainst	-11.7572
▁experimental	-11.7577
redet	-11.7578
▁Fremden	-11.758
▁terrorists	-11.758
anda	-11.7581
▁Vo	-11.7582
▁langfristige	-11.7583
▁Fo	-11.7586
▁lit	-11.7594
human	-11.7596
▁Demokrat	-11.7596
cle	-11.7597
▁Wasserstoff	-11.7599
venue	-11.76
▁deploy	-11.76
▁Enkel	-11.7601
▁Abhängigkeit	-11.7601
▁Dynamik	-11.7601
▁Intuition	-11.7601
▁Keith	-11.7601
▁Simulation	-11.7601
▁Urknall	-11.7601
▁pandemic	-11.7601
▁trajector	-11.7601
▁chief	-11.7601
▁ärmste	-11.7601
▁sauce	-11.7601
▁stroke	-11.7601
▁Entschuldigung	-11.7601
▁drift	-11.7601
▁approv	-11.7601
▁getestet	-11.7601
▁Lärm	-11.7601
▁gradual	-11.7601
▁Sprung	-11.7601
▁Sierra	-11.7601
▁ausreichend	-11.7602
▁Hügel	-11.7602
▁isoliert	-11.7602
▁keyboard	-11.7602
▁Länge	-11.7603
▁erneuerbare	-11.7603
▁Luther	-11.7606
▁assist	-11.7606
▁radikal	-11.7608
licher	-11.7611
▁consequence	-11.7611
▁Vorder	-11.7611
▁pipe	-11.7612
▁hilfreich	-11.7613
srate	-11.7616
▁unterhalten	-11.7616
▁Tiger	-11.7617
▁zuhören	-11.7618
union	-11.7618
▁liebt	-11.7619
firma	-11.7623
▁stabil	-11.7626
force	-11.7626
▁präsentiere	-11.7628
▁package	-11.7629
ddy	-11.763
▁rent	-11.763
fahrt	-11.7631
pu	-11.7632
▁willkommen	-11.7635
▁Por	-11.7635
liv	-11.7636
▁intellektuelle	-11.7637
bersetzung	-11.7637
▁Pflanze	-11.7639
▁Fri	-11.7642
▁pause	-11.7646
▁verlor	-11.7647
▁fremde	-11.7648
▁Journalist	-11.7648
▁ethic	-11.765
pati	-11.7651
▁span	-11.7651
jahr	-11.7657
▁diagnose	-11.7659
air	-11.766
▁profession	-11.7665
ius	-11.7666
▁Hinweis	-11.7669
▁glad	-11.7671
▁schwerer	-11.7673
▁activate	-11.7674
matic	-11.7676
▁beschränkt	-11.7676
▁fed	-11.7677
▁Kreise	-11.768
ographie	-11.7688
▁officer	-11.769
bett	-11.7694
▁geistige	-11.7696
▁surrounding	-11.7698
ache	-11.7705
▁Toiletten	-11.7707
▁sanit	-11.7707
leidenschaftlich	-11.7712
▁formula	-11.7712
aufgabe	-11.7714
Ch	-11.7718
▁Besitz	-11.7719
▁Dinger	-11.7719
appen	-11.7722
rger	-11.7727
▁besonderen	-11.7729
uad	-11.7731
▁virtue	-11.7735
▁Alkohol	-11.7738
▁Fundament	-11.7738
▁Mittlere	-11.7738
▁Variation	-11.7738
▁Wohlbefinden	-11.7738
▁aesthetic	-11.7738
▁außerordentlich	-11.7738
▁ehemalige	-11.7738
▁glacier	-11.7738
▁helicopter	-11.7738
▁supplie	-11.7738
▁uncomfortabl	-11.7738
▁paralyz	-11.7738
▁Reichtum	-11.7738
▁Regenwald	-11.7738
▁Ruanda	-11.7738
▁Aufzeichnung	-11.7738
▁freiwillig	-11.7738
▁reinvent	-11.7738
▁initiative	-11.7738
▁Beschreibung	-11.7738
▁rettet	-11.7739
▁Schlechte	-11.7739
real	-11.7739
▁festgestellt	-11.7739
▁Filter	-11.774
▁verstecken	-11.774
▁laid	-11.774
▁Schock	-11.7741
▁variable	-11.7741
▁Lebensraum	-11.7741
▁enhance	-11.7745
▁essence	-11.7746
▁vernetzt	-11.7746
entwicklung	-11.7749
awa	-11.7749
▁Haushalt	-11.7751
▁KB	-11.7757
▁Now	-11.7757
cop	-11.7758
lässt	-11.7759
▁Hindernisse	-11.7759
▁bewahren	-11.776
▁verurteilt	-11.7762
▁Norm	-11.7762
▁agricultural	-11.7762
put	-11.7764
▁Toilette	-11.7769
minister	-11.777
▁fließ	-11.7771
▁discoveries	-11.7772
fügen	-11.7778
▁Blase	-11.7785
▁Talent	-11.779
field	-11.779
▁radi	-11.7791
▁4.	-11.7796
tete	-11.7796
▁Marc	-11.7796
wirtschaftliche	-11.7801
▁pursue	-11.7801
▁On	-11.7804
▁farmer	-11.7805
onie	-11.7809
rctic	-11.7812
▁Prototypen	-11.7816
▁magical	-11.7816
▁Korean	-11.7817
▁cu	-11.7827
▁proportion	-11.783
▁bath	-11.783
▁sozialer	-11.7837
läufig	-11.784
▁Hut	-11.7843
liches	-11.7843
swert	-11.7844
uanten	-11.785
▁zurecht	-11.7853
ook	-11.7854
erfassen	-11.7857
▁sail	-11.7858
▁reefs	-11.786
▁begreife	-11.786
▁spa	-11.786
identifizieren	-11.7861
▁integrate	-11.7863
unterricht	-11.7873
temperatur	-11.7876
xytocin	-11.7876
▁Extrem	-11.7876
ket	-11.7876
männer	-11.7877
▁Knopf	-11.7877
▁Möbel	-11.7877
▁Tempo	-11.7877
▁automobile	-11.7877
▁gelehrt	-11.7877
▁genocide	-11.7877
▁grandfather	-11.7877
▁recruit	-11.7877
▁relax	-11.7877
▁sorgfältig	-11.7877
▁ungeheuer	-11.7877
▁zwölf	-11.7877
▁züchte	-11.7877
▁breakthrough	-11.7877
▁erkunden	-11.7877
▁trash	-11.7877
▁Strecke	-11.7877
▁Jewish	-11.7877
▁Pfeil	-11.7877
▁bump	-11.7877
▁Wilson	-11.7877
▁dringend	-11.7877
▁vorhersagen	-11.7877
▁Craig	-11.7877
▁teilnehmen	-11.7877
▁Frühling	-11.7877
▁Gegenstände	-11.7877
▁Verhandlung	-11.7878
▁Oxytocin	-11.7878
▁jelly	-11.7878
▁Alpha	-11.7878
▁boil	-11.7878
gerissen	-11.7878
▁Zero	-11.7879
▁Datenbank	-11.7879
▁extinction	-11.7879
▁Danny	-11.788
▁98	-11.788
▁Gefangen	-11.7881
▁südlich	-11.7882
▁abstrakte	-11.7885
▁reactor	-11.7885
▁output	-11.7887
▁Rasse	-11.7889
kü	-11.7889
▁Pläne	-11.7891
▁Oel	-11.7893
▁reef	-11.7894
▁dinosaur	-11.7895
▁burst	-11.7895
▁Planung	-11.7897
▁sill	-11.7897
▁lud	-11.7898
▁evolutionäre	-11.7902
▁inspirierend	-11.7906
▁i	-11.7907
▁Tasche	-11.791
▁Kommunikations	-11.7912
▁immun	-11.7924
▁Trends	-11.7924
artig	-11.7924
▁Dad	-11.7924
ori	-11.7926
▁Nervenzellen	-11.7926
▁aufeinander	-11.7927
▁printer	-11.7932
▁aufregende	-11.7935
dichte	-11.7936
liegende	-11.7938
▁fisher	-11.7941
haben	-11.7944
▁Metern	-11.7948
▁Mor	-11.7949
▁agenc	-11.7958
▁Raketen	-11.7964
ruft	-11.7964
▁ausschließlich	-11.7969
Mails	-11.7976
kleid	-11.7983
▁Höhlen	-11.7983
schätz	-11.7984
zieh	-11.7987
gebung	-11.7988
▁hid	-11.799
▁anfäng	-11.7999
▁Bel	-11.8
▁terror	-11.8002
▁Gra	-11.8003
▁entsprechend	-11.8006
▁branch	-11.8008
▁east	-11.8016
▁surveill	-11.8018
fabrik	-11.8018
gewebe	-11.8018
▁Besondere	-11.8018
▁Department	-11.8018
▁Studium	-11.8018
▁bedeutsam	-11.8018
▁disturb	-11.8018
▁fabulous	-11.8018
▁herstellt	-11.8018
▁trivial	-11.8018
▁chaos	-11.8018
▁Benzin	-11.8018
▁Treppe	-11.8018
▁currenc	-11.8018
▁refuse	-11.8018
▁locate	-11.8018
▁Tesla	-11.8018
▁clay	-11.8018
▁comparison	-11.8018
▁herzlich	-11.8018
▁Schwanz	-11.8018
▁synthetic	-11.8018
▁Produktivität	-11.8018
▁Treibstoff	-11.8018
▁biodiversity	-11.8018
▁Kuchen	-11.8019
▁attractive	-11.8019
▁unabhängige	-11.8019
▁Antrieb	-11.8019
▁Schall	-11.8019
▁winner	-11.802
▁exam	-11.802
▁portion	-11.8021
▁1995	-11.8022
▁neck	-11.8023
▁Kong	-11.8026
▁Bert	-11.8027
▁tötet	-11.8027
▁Stone	-11.8027
▁verteilen	-11.8028
fluss	-11.8028
▁Kol	-11.8029
▁Güter	-11.8031
sprech	-11.8031
▁Winkel	-11.8032
▁fange	-11.8034
häu	-11.8034
illa	-11.8036
▁vorgestellt	-11.8036
▁cliff	-11.8037
geber	-11.8037
▁freundlich	-11.804
▁harmon	-11.8043
▁Meme	-11.8044
▁twin	-11.8046
ahr	-11.8049
▁Original	-11.805
▁leverage	-11.805
▁ausgegeben	-11.8052
▁Are	-11.8054
▁terrorist	-11.8054
▁ausgehen	-11.8058
▁dimension	-11.8059
▁schreibe	-11.8061
▁Men	-11.8063
amerikanische	-11.8072
▁Kur	-11.8073
kamen	-11.8073
▁locked	-11.8073
▁dick	-11.8076
▁müsst	-11.8077
▁expos	-11.8078
▁beträgt	-11.808
▁sammelt	-11.8084
▁Gelände	-11.8084
▁proof	-11.8085
lop	-11.8086
▁Schwarze	-11.8089
▁Ausgaben	-11.809
▁Lama	-11.8096
▁gefahren	-11.8105
▁underly	-11.8107
▁geringe	-11.8108
▁bra	-11.8108
fremd	-11.8112
▁hing	-11.8113
▁camel	-11.8121
▁führende	-11.8123
▁komplizierter	-11.8137
▁negativ	-11.8142
▁Nest	-11.8143
▁heiße	-11.8143
▁Beach	-11.8145
ohn	-11.8146
▁Feedback	-11.8158
▁quest	-11.816
▁Antarctic	-11.816
▁Jerusalem	-11.816
▁Phoenix	-11.816
▁Versicherung	-11.816
▁begleitet	-11.816
▁ethnic	-11.816
▁kombiniert	-11.816
▁motiviert	-11.816
▁nutrient	-11.816
▁shrimp	-11.816
▁vagina	-11.816
▁Canyon	-11.816
▁dialogue	-11.816
▁Praxis	-11.8161
▁Kosov	-11.8161
▁convey	-11.8161
▁federal	-11.8161
▁Bürgermeister	-11.8161
▁Ehemann	-11.8161
▁elite	-11.8161
▁1930	-11.8161
▁Balance	-11.8161
▁ooh	-11.8161
▁Ernst	-11.8161
▁bullet	-11.8161
▁stunt	-11.8162
▁fool	-11.8162
▁Erforschung	-11.8162
▁tragic	-11.8162
▁neat	-11.8162
▁southern	-11.8163
▁Geschlecht	-11.8163
▁verhindert	-11.8163
▁debt	-11.8163
bergang	-11.8164
▁Amazonas	-11.8164
▁leak	-11.8164
▁wollt	-11.8164
▁tropic	-11.8164
▁Staub	-11.8164
trogen	-11.8165
rob	-11.8165
AC	-11.8165
▁god	-11.8166
▁Kontroll	-11.8166
▁amaze	-11.8166
▁ensure	-11.8166
▁Watt	-11.8167
▁Susan	-11.8168
▁via	-11.8168
▁garage	-11.8168
▁Scheibe	-11.817
▁opera	-11.8173
▁Emil	-11.8173
▁kg	-11.8174
▁globally	-11.8174
▁tired	-11.8179
▁qu	-11.818
geboren	-11.8181
▁angetrieben	-11.8182
▁geling	-11.8183
▁resilienc	-11.8185
▁betreffen	-11.8192
Boot	-11.8192
Programm	-11.8192
▁richtet	-11.8192
▁Kamel	-11.8193
Cola	-11.8193
▁tent	-11.8194
▁Höhle	-11.8196
teilung	-11.8197
▁tension	-11.8198
kette	-11.82
▁trenne	-11.8201
▁Asteroiden	-11.8202
▁coole	-11.8203
▁fügt	-11.8208
uo	-11.8214
▁echtes	-11.8214
▁behauptet	-11.8215
▁schließ	-11.8216
gelaufen	-11.8216
▁geworfen	-11.8217
▁erinnerte	-11.8217
▁beetle	-11.8221
cho	-11.8225
▁schief	-11.823
▁formal	-11.823
For	-11.823
▁Han	-11.8231
▁programmiere	-11.8231
▁duck	-11.8232
▁Gefahren	-11.8236
▁zuzu	-11.8238
▁Acht	-11.8252
▁programmer	-11.8255
▁entrepreneur	-11.8261
▁Dichte	-11.8265
▁Kath	-11.827
▁Steine	-11.827
▁Modern	-11.8276
▁Angel	-11.828
▁Rollen	-11.8281
suchen	-11.8283
▁Einkommens	-11.8284
wal	-11.8286
kä	-11.8289
▁award	-11.829
▁einschließlich	-11.8292
haut	-11.8296
▁Bruc	-11.83
▁Gestalt	-11.8302
▁schwach	-11.8303
▁inject	-11.8304
▁Alaska	-11.8305
▁Bewohner	-11.8305
▁Disziplin	-11.8305
▁Jupiter	-11.8305
▁Sylvia	-11.8305
▁colonies	-11.8305
▁entwarf	-11.8305
▁mysterious	-11.8305
▁optimal	-11.8305
▁präzise	-11.8305
▁recipe	-11.8305
▁substance	-11.8305
▁supermarket	-11.8305
▁verdoppelt	-11.8305
▁verringern	-11.8305
▁impression	-11.8305
▁besaß	-11.8305
▁islamische	-11.8305
▁deutsche	-11.8305
kreuz	-11.8305
▁Kennedy	-11.8305
▁inherent	-11.8305
▁fragile	-11.8305
▁käme	-11.8305
▁Beitrag	-11.8306
▁Orchester	-11.8306
▁expectanc	-11.8306
▁naked	-11.8306
▁collaborative	-11.8306
▁Elektronik	-11.8306
erlei	-11.8306
▁render	-11.8306
▁Fleck	-11.8306
▁entdeckten	-11.8307
▁Einsicht	-11.8307
▁Sin	-11.831
▁ecological	-11.831
▁vulnerability	-11.831
nia	-11.8313
kasten	-11.8315
▁verzweifelt	-11.8316
▁zurückkommen	-11.8316
▁Wide	-11.8318
▁dear	-11.8321
▁installation	-11.8322
▁highway	-11.8326
▁ratio	-11.8326
▁ausdrücken	-11.8326
▁Alan	-11.8327
▁realm	-11.8327
aka	-11.8328
position	-11.8332
▁sacrifice	-11.8332
gerufen	-11.8336
▁gewaltig	-11.8337
▁tunnel	-11.8339
third	-11.8339
▁tribe	-11.834
fläche	-11.8343
forscher	-11.8345
▁investor	-11.8346
▁roots	-11.8347
▁militärische	-11.8351
gebiet	-11.836
13	-11.8361
wort	-11.8363
▁riesig	-11.8366
▁Poster	-11.8376
▁umfassende	-11.8377
ppel	-11.8384
▁Ital	-11.8385
schiff	-11.8386
▁vieler	-11.8386
maß	-11.8391
stoß	-11.8392
▁trap	-11.8393
liege	-11.8393
tür	-11.8393
ature	-11.8394
Energieverbrauch	-11.8396
▁hanging	-11.8399
▁Gal	-11.8403
▁statistical	-11.8404
risch	-11.8407
▁Kauf	-11.8407
▁para	-11.8407
▁determined	-11.8407
verbrauchen	-11.8409
▁populations	-11.841
▁plug	-11.8419
▁fanc	-11.8423
▁34	-11.8424
dis	-11.843
pack	-11.843
▁paradox	-11.8432
▁Rechts	-11.8433
▁computation	-11.8434
▁gewöhnliche	-11.8436
cke	-11.8438
▁glückliche	-11.8439
▁acquire	-11.8442
▁Besuch	-11.8442
freund	-11.8442
▁ungewöhnliche	-11.8443
▁Betracht	-11.8445
▁nachzu	-11.8446
▁verblüffend	-11.8446
brach	-11.8449
▁capita	-11.8449
lagert	-11.845
sea	-11.845
▁cheese	-11.845
▁cop	-11.845
gemäß	-11.8451
▁def	-11.8452
▁Bangladesh	-11.8452
▁Empathie	-11.8452
▁Schöne	-11.8452
▁Tibet	-11.8452
▁akzeptiert	-11.8452
▁district	-11.8452
▁ermutigen	-11.8452
▁medication	-11.8452
▁simultaneous	-11.8452
▁temporar	-11.8452
▁Manager	-11.8452
▁Strahlung	-11.8452
▁Behinderung	-11.8452
▁Cyber	-11.8453
▁burie	-11.8453
▁Branche	-11.8453
▁verknüpft	-11.8453
▁Mikroskop	-11.8453
▁Schreibtisch	-11.8453
▁verlangen	-11.8453
▁ignorance	-11.8453
▁Anhänger	-11.8453
▁Konstruktion	-11.8453
▁Pocken	-11.8453
▁devil	-11.8453
▁spray	-11.8453
▁Mechanismus	-11.8454
▁Nike	-11.8454
▁Erwärmung	-11.8454
▁Gegenstand	-11.8454
▁highlight	-11.8455
▁4,000	-11.8456
▁tendenc	-11.8456
▁Journal	-11.846
▁symbols	-11.846
▁Notiz	-11.8461
▁suggestion	-11.8465
▁Konzert	-11.8465
▁march	-11.8468
▁Mari	-11.8472
▁Bitte	-11.8474
▁Königin	-11.8477
▁wage	-11.8478
▁faci	-11.8481
▁experienc	-11.8482
ück	-11.8483
▁Laur	-11.8484
▁dust	-11.8487
▁walks	-11.8487
organiz	-11.8487
wissen	-11.8488
▁soldier	-11.8489
phase	-11.849
▁Nun	-11.8491
▁gefüllt	-11.8492
istisch	-11.8493
▁Fernseher	-11.8495
book	-11.8501
▁relations	-11.8503
▁Station	-11.8504
▁Emission	-11.8507
lium	-11.8507
▁Chirurg	-11.8509
hole	-11.8509
▁erect	-11.851
▁Evan	-11.8518
▁repeated	-11.8523
▁Kid	-11.8524
▁washing	-11.8527
insel	-11.8529
▁Extra	-11.8529
nick	-11.8531
Pro	-11.8532
▁greifen	-11.8534
wohnen	-11.8536
▁effizient	-11.8536
▁strangers	-11.8543
kontrolle	-11.8545
▁wipe	-11.8546
▁liebste	-11.8548
▁Kriege	-11.8551
▁employ	-11.8553
▁Bedürfnis	-11.8557
▁youth	-11.856
▁heirate	-11.856
▁weh	-11.8561
zustand	-11.8563
ummer	-11.8566
▁balls	-11.8577
▁ökologische	-11.8579
rische	-11.8579
▁Hell	-11.8581
▁marker	-11.8584
▁Held	-11.8584
▁Arabisch	-11.8588
▁sensory	-11.859
▁radikale	-11.8594
zogen	-11.8594
▁Kapazität	-11.8602
▁Council	-11.8602
▁Glühbirne	-11.8602
▁NSA	-11.8602
▁Parlament	-11.8602
▁Väter	-11.8602
▁contemporar	-11.8602
▁expansion	-11.8602
▁gesünder	-11.8602
▁kombiniere	-11.8602
▁schmerzhaft	-11.8602
▁überwältigend	-11.8602
▁Octo	-11.8602
▁Nährstoffe	-11.8602
▁Arbeitsplätze	-11.8602
▁erledige	-11.8602
▁verwandt	-11.8602
▁arrow	-11.8602
▁condom	-11.8602
▁rope	-11.8602
▁consist	-11.8602
▁array	-11.8602
▁Fußball	-11.8602
▁Arbeitsplatz	-11.8602
▁Gleichheit	-11.8602
▁geliebt	-11.8603
▁Spenden	-11.8603
▁Heilung	-11.8603
▁Techniken	-11.8604
▁leise	-11.8604
▁Right	-11.8605
▁Prüfung	-11.8607
▁Bescheid	-11.8607
förmige	-11.8608
▁statistisch	-11.8609
sprung	-11.8609
▁EU	-11.861
▁verarbeiten	-11.8611
▁Management	-11.8616
▁rocks	-11.8618
flug	-11.8618
▁pole	-11.8619
▁20.000	-11.8622
▁Kim	-11.8625
▁sir	-11.8628
▁recycle	-11.8628
lvani	-11.8629
▁reported	-11.8633
oon	-11.8633
▁damn	-11.8634
▁crossing	-11.8636
betrieb	-11.8638
interest	-11.864
▁7.	-11.8642
schritt	-11.8642
groß	-11.8643
▁beobachtete	-11.8644
▁magnet	-11.8644
▁0.	-11.865
look	-11.865
▁gerecht	-11.8651
anischen	-11.8653
80	-11.8656
▁manual	-11.8657
▁hearts	-11.8659
▁alltägliche	-11.8661
zumachen	-11.8663
▁Pier	-11.8667
▁bang	-11.8667
▁wünschen	-11.8671
▁Doppel	-11.8673
child	-11.8675
▁beschleunigt	-11.868
▁dung	-11.8681
▁panels	-11.8681
▁Verkehrs	-11.8682
▁Leser	-11.8683
aktion	-11.8683
▁log	-11.8694
ifi	-11.8695
▁Mag	-11.8696
ury	-11.8696
▁believ	-11.8697
▁shopp	-11.8699
▁96	-11.8702
▁viewer	-11.8702
▁climbing	-11.8703
▁gathering	-11.8703
▁consum	-11.8705
ordnung	-11.8714
▁Christ	-11.8717
▁Wei	-11.8717
▁personaliz	-11.8718
geräte	-11.872
spalt	-11.8722
▁gemeinnützige	-11.8723
▁Katzen	-11.8726
▁tägliche	-11.8727
▁sicherer	-11.8728
▁Make	-11.8729
▁assembl	-11.8729
jury	-11.8731
▁unbekannte	-11.8731
▁sin	-11.8731
bekommen	-11.8733
BC	-11.8741
▁niedriger	-11.875
▁Afghan	-11.8753
▁Völker	-11.8753
matrix	-11.8753
▁Optimismus	-11.8753
▁glamor	-11.8753
▁unterscheidet	-11.8753
▁verborgen	-11.8753
▁Flughafen	-11.8753
▁Himalaya	-11.8753
▁combat	-11.8753
▁multinational	-11.8753
▁unfair	-11.8753
▁valley	-11.8753
▁luxur	-11.8753
▁generell	-11.8753
▁Baseball	-11.8753
▁punch	-11.8753
▁architectural	-11.8753
▁beschützen	-11.8753
▁Seife	-11.8753
▁Haltung	-11.8753
▁Abendessen	-11.8754
az	-11.8754
gegriffen	-11.8754
▁slavery	-11.8754
▁Ladung	-11.8754
▁Austausch	-11.8754
▁honey	-11.8754
▁primari	-11.8754
▁euer	-11.8754
▁Columbia	-11.8754
▁strand	-11.8755
▁interpretation	-11.8756
▁mood	-11.8756
▁Apfel	-11.8756
▁Wood	-11.8757
▁mask	-11.8757
▁homework	-11.8757
▁1994	-11.8757
▁pathway	-11.876
uel	-11.8761
▁berechnet	-11.8762
▁Oper	-11.8764
▁Kredit	-11.8764
▁ignoriert	-11.8765
▁Individuum	-11.8767
bereit	-11.8768
▁combin	-11.8771
▁trainiere	-11.8771
kamera	-11.8774
▁lasse	-11.8775
getreten	-11.8777
▁Personal	-11.8778
▁Maße	-11.8781
▁rüber	-11.8782
load	-11.8784
▁vergleich	-11.8785
▁Klassen	-11.8786
▁palm	-11.8787
▁Magazin	-11.8793
▁Halb	-11.8793
▁Spin	-11.8793
Sahara	-11.8794
space	-11.8794
ington	-11.8798
▁Kra	-11.8799
▁0,	-11.8807
▁Mannes	-11.8812
▁guck	-11.8812
▁erschien	-11.8816
▁communicat	-11.8818
▁Far	-11.8821
▁Mau	-11.8821
▁schießen	-11.8826
▁gering	-11.8826
ED	-11.883
stream	-11.8831
▁failing	-11.8835
▁arriv	-11.8835
▁weitermache	-11.8838
gesetzt	-11.8839
▁Anreize	-11.884
▁beliebige	-11.8846
▁Heilig	-11.8856
▁hacker	-11.8856
▁Spuren	-11.8858
▁traditionell	-11.8861
ford	-11.8866
zubauen	-11.8871
frage	-11.8871
▁erziel	-11.8874
▁Gewinner	-11.8874
ante	-11.8876
▁Bla	-11.8877
rous	-11.8878
▁grob	-11.8883
▁dancer	-11.8883
▁expanding	-11.8891
▁Julia	-11.8898
▁Eigentum	-11.8898
▁Magnet	-11.89
▁ego	-11.8901
▁suspend	-11.8902
▁acknowledge	-11.8903
▁Francis	-11.8907
Jährige	-11.8907
▁Analogie	-11.8907
▁Privileg	-11.8907
▁alcohol	-11.8907
▁compromise	-11.8907
▁cricket	-11.8907
▁expedition	-11.8907
▁gegessen	-11.8907
▁grandchildren	-11.8907
▁muslimische	-11.8907
▁sacred	-11.8907
▁scheitern	-11.8907
▁vacuum	-11.8907
▁Blüte	-11.8907
▁Kohlendioxid	-11.8907
▁attraktiv	-11.8907
▁bewirkt	-11.8907
▁creator	-11.8907
▁Dutch	-11.8907
flasche	-11.8907
▁geplant	-11.8907
▁künstlerische	-11.8907
▁umfasst	-11.8907
▁bribe	-11.8907
▁1,2	-11.8908
▁Autorität	-11.8908
▁Eingriff	-11.8908
▁abgeschlossen	-11.8908
▁Kapitalismus	-11.8908
▁assignment	-11.8908
▁Hochzeit	-11.8909
▁Fischerei	-11.8909
▁Gift	-11.8909
▁blicken	-11.8909
▁Iranian	-11.891
▁Riff	-11.891
▁trage	-11.891
▁yard	-11.891
▁tackle	-11.8911
▁native	-11.8911
▁grasp	-11.8913
▁Rechen	-11.8914
▁Geschäftsmodell	-11.8914
▁Faser	-11.8915
▁Jess	-11.8916
deckt	-11.8916
▁measurement	-11.8916
▁ethnische	-11.8918
▁50.000	-11.8919
▁Institut	-11.892
schuss	-11.8923
ada	-11.8923
ership	-11.8926
▁Veranstaltung	-11.8928
▁merkte	-11.8928
▁Pferde	-11.893
▁drivers	-11.893
griff	-11.8934
▁coordinat	-11.8935
▁gewissermaß	-11.8936
▁reliabl	-11.8942
▁prepare	-11.8944
▁Mais	-11.8945
frei	-11.8946
▁Salz	-11.8954
▁Lehre	-11.8955
▁comic	-11.8962
wick	-11.8969
sonst	-11.8971
born	-11.8971
▁degrad	-11.8974
izen	-11.8976
thane	-11.898
kampf	-11.8982
eat	-11.8982
La	-11.8984
▁Flasche	-11.8986
▁Unterwasser	-11.8989
▁Pilz	-11.8989
▁parasite	-11.899
onic	-11.8993
▁Reg	-11.9
uz	-11.9002
▁geleitet	-11.9002
verbrauch	-11.9003
▁intensiv	-11.9005
▁gib	-11.9012
▁Gleich	-11.9016
▁shocking	-11.9023
▁Fried	-11.9024
▁verrate	-11.9025
▁Bomben	-11.9027
▁concentrate	-11.9027
▁mechanisms	-11.9027
▁joint	-11.9036
▁producer	-11.9036
▁Brut	-11.9037
▁bereitet	-11.9037
ctu	-11.9039
ime	-11.9039
schieben	-11.904
spürt	-11.9043
▁Nichts	-11.9044
▁stattfinden	-11.9047
▁warning	-11.9048
▁Zentral	-11.905
▁Bal	-11.9052
▁capabilit	-11.9055
regel	-11.9056
fähigkeit	-11.9058
aba	-11.9058
▁dumb	-11.906
▁Wechsel	-11.906
▁billiger	-11.906
gänge	-11.9061
▁recommend	-11.9061
▁Wohl	-11.9063
▁Engagement	-11.9063
▁Jefferson	-11.9063
▁Mühe	-11.9063
▁Namibia	-11.9063
▁Portugal	-11.9063
▁Sputnik	-11.9063
▁TEDGlobal	-11.9063
▁choosing	-11.9063
▁grösser	-11.9063
▁hypothesis	-11.9063
▁iPad	-11.9063
▁territor	-11.9063
▁threshold	-11.9063
▁thrill	-11.9063
▁tweet	-11.9063
▁Bindung	-11.9063
▁Tendenz	-11.9063
stöß	-11.9063
▁lenken	-11.9063
▁Kelly	-11.9063
frucht	-11.9063
▁extension	-11.9063
▁Bonobo	-11.9064
▁Thailand	-11.9064
▁Apparat	-11.9064
▁Where	-11.9064
▁Wörterbuch	-11.9064
▁Protest	-11.9065
▁blink	-11.9065
▁Republican	-11.9065
▁versagt	-11.9065
▁contribution	-11.9065
paar	-11.9066
▁primate	-11.9066
read	-11.9067
▁magni	-11.9067
▁Einheiten	-11.9068
orientierte	-11.9068
▁fate	-11.907
▁verhandel	-11.9072
▁Weltbank	-11.9074
▁helpful	-11.9078
hang	-11.9079
▁Rechner	-11.9081
▁Leon	-11.9082
▁uncertaint	-11.9082
▁Programmierer	-11.9082
▁Verbraucher	-11.9083
▁involviert	-11.9086
▁Erfindungen	-11.9087
▁Dave	-11.9087
▁dreimal	-11.909
▁allzu	-11.909
▁Genie	-11.9092
▁bars	-11.9093
▁geblieben	-11.9093
▁Zone	-11.9101
geist	-11.9105
▁AK	-11.9106
assembl	-11.9108
▁herab	-11.9109
▁mechanic	-11.9109
▁Lücke	-11.9114
▁Nachbar	-11.9115
▁Schlange	-11.9115
therapie	-11.9118
▁stands	-11.9119
▁klare	-11.9119
▁Biologe	-11.9119
▁Hilfs	-11.9121
▁Säugetiere	-11.9123
urkey	-11.9129
▁agency	-11.9132
baum	-11.9136
10	-11.9136
pur	-11.9141
▁shirt	-11.9142
▁weiterentwickel	-11.9142
▁studierte	-11.9152
▁wieviele	-11.9159
▁cartoons	-11.916
▁luck	-11.9165
shelf	-11.9166
▁Glaubens	-11.9172
▁Griff	-11.9174
city	-11.9175
lager	-11.9178
▁mega	-11.918
▁warf	-11.918
designer	-11.9183
▁fliegende	-11.9184
▁Figuren	-11.9187
▁spiele	-11.919
▁toys	-11.9193
▁Autoren	-11.9196
pfel	-11.9196
▁bedeutend	-11.92
▁mimic	-11.9202
lösung	-11.9204
ect	-11.9206
▁Rauch	-11.9209
▁Fahrt	-11.9209
viel	-11.921
▁47	-11.9213
▁angenehm	-11.9215
▁Welle	-11.9217
▁Wunde	-11.9218
zykl	-11.9219
▁compet	-11.9221
rechnung	-11.9221
▁instinct	-11.9221
▁anonym	-11.9221
krebs	-11.9222
▁nördlich	-11.9222
blätter	-11.9222
risiko	-11.9222
▁Kompromiss	-11.9222
▁Oktober	-11.9222
▁Pazifik	-11.9222
▁Schwerkraft	-11.9222
▁Substanz	-11.9222
▁Thank	-11.9222
▁dopamine	-11.9222
▁erledigt	-11.9222
▁optimism	-11.9222
▁stieß	-11.9222
▁unangenehm	-11.9222
▁civic	-11.9222
▁leather	-11.9222
▁Voraussetzung	-11.9222
▁Sudan	-11.9222
▁fraction	-11.9222
▁Venus	-11.9222
▁Auffassung	-11.9222
▁Montana	-11.9222
▁nonprofit	-11.9222
▁Mentor	-11.9222
▁chromosome	-11.9222
▁Egyptian	-11.9223
▁Versagen	-11.9223
▁kidney	-11.9223
▁concentration	-11.9223
mba	-11.9224
▁erlern	-11.9224
▁Zeile	-11.9224
▁permission	-11.9224
stage	-11.9225
▁jet	-11.9226
▁strategic	-11.9226
▁appearance	-11.9226
▁Mutation	-11.9227
▁stake	-11.9227
▁selfish	-11.9228
ella	-11.9228
▁filmmaker	-11.9229
▁Hals	-11.9229
▁zweieinhalb	-11.9229
freie	-11.9229
▁Out	-11.9229
▁Pille	-11.9229
▁coach	-11.923
▁Route	-11.9232
▁Sunday	-11.9232
▁erheblich	-11.9233
▁autonom	-11.9233
fried	-11.9235
▁whistle	-11.9236
▁Chor	-11.9237
▁Cloud	-11.9238
▁30,000	-11.9238
▁anzuschauen	-11.924
▁Stan	-11.925
free	-11.9254
▁sendet	-11.9254
▁spinn	-11.9256
▁Atome	-11.9258
▁bound	-11.926
▁manipulate	-11.9261
▁Genetik	-11.9261
▁upside	-11.9262
▁heilige	-11.9264
▁Kreislauf	-11.9264
▁liest	-11.9267
trick	-11.9268
▁projection	-11.9268
ets	-11.9272
iker	-11.9272
▁Ameise	-11.9276
▁Mass	-11.9277
▁Judi	-11.9279
▁verkaufte	-11.928
▁Bewusstseins	-11.928
▁meme	-11.928
▁tar	-11.9281
▁folgender	-11.9282
▁abend	-11.9282
qualität	-11.9285
▁17.	-11.9292
▁Prototyp	-11.9292
programme	-11.9294
▁Carol	-11.9294
▁prior	-11.9294
▁dose	-11.9295
ziger	-11.9297
▁ausführen	-11.9297
▁tags	-11.9299
▁praktische	-11.9302
vig	-11.9308
▁expose	-11.9315
▁classical	-11.9316
▁Genome	-11.9317
▁weinen	-11.9317
▁Dir	-11.9324
▁trainiert	-11.9326
▁Ost	-11.9327
▁Schild	-11.9327
▁Journalisten	-11.9329
▁Nadi	-11.9329
smöglichkeit	-11.9333
▁mixed	-11.9337
horn	-11.9344
▁introduc	-11.935
▁Nigerian	-11.9352
▁wandert	-11.9354
▁Designs	-11.9358
wich	-11.9358
▁soup	-11.9359
▁instant	-11.936
▁Win	-11.936
kb	-11.9365
▁Organism	-11.9367
spiegel	-11.9375
▁horizon	-11.9375
▁endet	-11.9377
phil	-11.9379
▁Kranken	-11.9382
▁Deutsch	-11.9382
▁slave	-11.9383
gger	-11.9383
▁Dopamin	-11.9383
▁Horizont	-11.9383
▁Pyramide	-11.9383
▁Töchter	-11.9383
▁anxiety	-11.9383
▁aufmerksam	-11.9383
▁curriculum	-11.9383
▁spontaneous	-11.9383
▁wheelchair	-11.9383
▁attribute	-11.9383
▁scharf	-11.9383
▁unheimlich	-11.9383
▁regulation	-11.9383
▁snake	-11.9383
▁broadcast	-11.9383
▁Stoffwechsel	-11.9383
gging	-11.9384
▁Anfänge	-11.9384
▁Italian	-11.9384
▁drückt	-11.9384
▁glow	-11.9384
▁Liberia	-11.9385
▁Tafel	-11.9385
▁Elektronen	-11.9385
gehoben	-11.9386
▁infant	-11.9386
▁86	-11.9386
▁bediene	-11.9387
▁tanzt	-11.9387
▁Kommun	-11.9387
▁mindset	-11.9388
▁verfügen	-11.9388
▁quad	-11.9388
▁Rachel	-11.9388
▁Johnny	-11.9389
▁electrode	-11.939
▁Polar	-11.9393
▁aufwuchs	-11.9394
Hu	-11.9394
▁Meister	-11.9395
park	-11.9396
▁Mist	-11.9396
▁Ego	-11.9397
▁Sprecher	-11.9397
▁hitting	-11.9399
▁stattfinde	-11.9401
▁wertvolle	-11.9406
▁universelle	-11.9407
▁shit	-11.9408
▁verbreitete	-11.941
▁Falt	-11.941
immer	-11.9413
▁brave	-11.9414
Geheimnisse	-11.9419
fühlen	-11.942
related	-11.9425
▁incident	-11.9426
▁imager	-11.9432
▁durchgehen	-11.9439
ttel	-11.9439
▁unsichtbare	-11.944
▁fusion	-11.944
▁Besitzer	-11.9442
▁Lesen	-11.9443
▁glu	-11.9443
▁entschlossen	-11.9445
▁tile	-11.9447
▁Bergen	-11.9447
pä	-11.9452
ware	-11.9452
▁zahlreiche	-11.9452
note	-11.9453
▁informiert	-11.9453
wide	-11.9454
▁ansprechen	-11.9454
▁mild	-11.9466
▁Cor	-11.9466
tzt	-11.9473
▁Juan	-11.9478
▁insist	-11.9478
▁lehrt	-11.9478
▁achiev	-11.948
▁verständlich	-11.9482
cca	-11.9489
▁woke	-11.9489
▁öffnete	-11.949
▁memes	-11.9492
▁tritt	-11.9493
▁sauber	-11.9494
▁eröffne	-11.9494
▁Neil	-11.9496
▁finanzier	-11.9501
▁klingen	-11.9501
▁shine	-11.9502
▁Volks	-11.9503
▁450	-11.9505
pend	-11.951
▁Inseln	-11.9515
▁describ	-11.9517
nerv	-11.952
▁lä	-11.9521
▁neueste	-11.9522
▁Cola	-11.9522
▁stranger	-11.9527
▁Güte	-11.9532
tzen	-11.9534
▁Magazine	-11.9535
▁konstruiert	-11.9538
▁Poe	-11.9538
▁Impfstoff	-11.954
▁psychiatr	-11.9542
medizin	-11.9547
faktor	-11.9547
▁FDA	-11.9547
▁Getreide	-11.9547
▁Bangalore	-11.9547
▁Cameron	-11.9547
▁Direktor	-11.9547
▁Konzentration	-11.9547
▁Phosphor	-11.9547
▁analysiert	-11.9547
▁antibiotic	-11.9547
▁begegnet	-11.9547
▁confident	-11.9547
▁erstaunt	-11.9547
▁motivieren	-11.9547
▁theoretical	-11.9547
▁tsunami	-11.9547
▁verheiratet	-11.9547
tangible	-11.9547
▁Bedauern	-11.9547
▁closing	-11.9547
▁endanger	-11.9547
▁Nepal	-11.9547
▁Distanz	-11.9547
▁Töne	-11.9547
▁Wolfram	-11.9547
▁distort	-11.9547
▁Tanzania	-11.9547
▁Streben	-11.9547
▁Hilfsmittel	-11.9547
▁Flüsse	-11.9548
▁Automobil	-11.9548
▁Effekte	-11.9548
analyse	-11.9548
chaffung	-11.9548
▁marketplace	-11.9548
▁tongue	-11.9548
▁Ausschnitt	-11.9548
▁nerd	-11.9549
▁Kluft	-11.9549
▁Jackson	-11.9549
▁Garage	-11.9549
▁doodl	-11.9549
▁litt	-11.9549
löschen	-11.9549
▁Mischung	-11.955
▁collaborator	-11.955
▁Coke	-11.955
▁kiss	-11.9551
▁capabilities	-11.9551
▁Lago	-11.9553
▁Flut	-11.9554
▁echter	-11.9555
isela	-11.9555
▁52	-11.9555
maßnahme	-11.9557
thiopien	-11.9557
▁185	-11.9558
▁Demonstration	-11.9558
▁beantwortet	-11.9563
▁homeless	-11.9564
▁Kunststoff	-11.9564
▁Bundesstaat	-11.9572
▁anhalten	-11.9573
▁dünne	-11.9573
zeln	-11.9575
▁Rente	-11.9576
▁singer	-11.958
▁simp	-11.9582
zog	-11.9585
motor	-11.9588
▁shin	-11.9592
▁kluge	-11.9593
▁Offenhe	-11.9594
▁beer	-11.9594
▁Messer	-11.9594
▁appreciat	-11.9599
region	-11.9601
▁cats	-11.9601
geschrieben	-11.9601
▁häufiger	-11.9603
▁Fahr	-11.9603
▁Medikamenten	-11.9603
▁Formel	-11.9604
▁Kolonie	-11.9606
▁interior	-11.9612
ffer	-11.9613
werfen	-11.9613
▁rotate	-11.9614
▁regional	-11.9615
▁egg	-11.9618
▁victim	-11.9618
▁schau	-11.9624
▁bot	-11.9628
▁Interessante	-11.9632
▁pat	-11.9638
▁pulse	-11.9638
▁Skulptur	-11.9641
▁betreten	-11.9644
▁giftige	-11.9646
lacht	-11.9651
▁heal	-11.9653
▁fla	-11.9658
NG	-11.966
avi	-11.9661
▁nuts	-11.9662
link	-11.9663
▁konzentrierte	-11.9666
setzung	-11.967
lehnen	-11.967
▁Wett	-11.967
▁Fotograf	-11.9676
▁Türke	-11.9677
▁rats	-11.9687
post	-11.9688
rotten	-11.9694
ept	-11.9695
aged	-11.9697
▁tele	-11.9705
▁Mär	-11.9706
▁sticks	-11.9706
▁wartete	-11.9708
▁dial	-11.9709
▁exhibit	-11.9711
▁distinct	-11.9711
▁lucki	-11.9712
▁Technolog	-11.9713
▁46	-11.9714
▁Gewohnheit	-11.9714
▁Installation	-11.9714
▁Interpretation	-11.9714
▁Jacque	-11.9714
▁Nicole	-11.9714
▁PowerPoint	-11.9714
▁Vernunft	-11.9714
▁Verwaltung	-11.9714
▁Verzweiflung	-11.9714
▁Widerspruch	-11.9714
▁chamber	-11.9714
▁distinguish	-11.9714
▁eBay	-11.9714
▁hybrid	-11.9714
▁uniform	-11.9714
▁Käse	-11.9714
▁troop	-11.9714
▁barrel	-11.9714
▁Mittagessen	-11.9714
▁Rhythmus	-11.9714
▁Gehalt	-11.9714
▁leaf	-11.9714
▁grausam	-11.9714
verbindung	-11.9714
▁Plätze	-11.9714
▁Gewässer	-11.9714
▁Tropf	-11.9714
▁Dauer	-11.9714
▁signature	-11.9714
▁vereint	-11.9714
▁Nathan	-11.9715
▁pride	-11.9715
▁Gehör	-11.9715
▁Unfälle	-11.9715
lihood	-11.9715
atar	-11.9715
▁draus	-11.9715
▁baseball	-11.9716
▁versorgt	-11.9716
▁subway	-11.9716
▁crew	-11.9716
kabel	-11.9717
▁addiction	-11.9717
▁Master	-11.9717
▁Tinte	-11.9718
ssig	-11.9718
▁Jill	-11.9719
▁cake	-11.9719
▁Jenni	-11.9719
▁stamp	-11.972
chester	-11.9721
bell	-11.9723
skop	-11.9724
▁psychopath	-11.9725
schlaf	-11.9725
▁PR	-11.9725
▁March	-11.9726
▁innocent	-11.9726
▁Ash	-11.9728
drängt	-11.9729
-2	-11.9729
▁detector	-11.9729
▁Deze	-11.973
▁factories	-11.9732
▁bush	-11.9733
▁Jet	-11.9736
▁Schach	-11.9736
▁auftauchen	-11.9737
▁constraint	-11.974
▁aktive	-11.9741
versuch	-11.9741
holz	-11.9742
▁sixth	-11.9744
▁anzugeh	-11.9744
▁fastest	-11.9749
▁Origami	-11.9756
▁Pink	-11.9757
▁Hör	-11.9759
▁Maya	-11.9766
▁Bro	-11.9766
▁komische	-11.9768
▁update	-11.9768
while	-11.977
▁Mehr	-11.977
mail	-11.9774
▁bewegte	-11.9777
▁cri	-11.9778
▁specialize	-11.9779
lampe	-11.9779
▁mittlere	-11.9787
▁Anreiz	-11.9787
fest	-11.9789
▁rig	-11.9798
▁rape	-11.9798
▁restliche	-11.9799
▁ending	-11.9809
▁miserable	-11.9812
▁suchten	-11.9812
räumt	-11.9814
▁Chirurgen	-11.9817
▁Mir	-11.9821
▁logical	-11.9822
▁Rein	-11.9825
▁Kurz	-11.9827
▁additional	-11.9828
▁mm	-11.9831
▁wrap	-11.9832
▁angel	-11.9841
▁interaktive	-11.9845
▁bell	-11.9846
▁grad	-11.985
▁gef	-11.985
▁reli	-11.9855
ardino	-11.9858
aufnahme	-11.9861
▁Küchen	-11.9865
▁Kam	-11.9868
▁views	-11.9869
▁Glücks	-11.9878
▁kleb	-11.988
▁Tru	-11.988
ociety	-11.988
▁Erscheinung	-11.9883
▁habits	-11.9883
▁glamour	-11.9883
Syndrom	-11.9883
▁Jazz	-11.9883
▁RNA	-11.9883
▁Teppich	-11.9883
▁Zuhörer	-11.9883
▁garbage	-11.9883
▁jahrelang	-11.9883
▁register	-11.9883
▁ultimative	-11.9883
▁Bewertung	-11.9883
▁Gerüst	-11.9883
▁Gravitation	-11.9883
▁intimate	-11.9883
▁jazz	-11.9883
▁amateur	-11.9883
▁Trinkwasser	-11.9883
▁Großvater	-11.9883
▁Führungskräfte	-11.9884
▁cyber	-11.9884
▁Herkunft	-11.9884
▁banana	-11.9884
▁reproduce	-11.9884
▁terra	-11.9884
▁Unsicherheit	-11.9884
▁commission	-11.9884
▁MoMA	-11.9884
▁bestätigt	-11.9884
▁Methan	-11.9884
▁Supermarkt	-11.9884
▁träumen	-11.9884
▁annual	-11.9884
▁repräsentiere	-11.9885
▁mapping	-11.9885
alismus	-11.9886
▁dawn	-11.9887
lesen	-11.9887
wahl	-11.9888
▁Abstand	-11.9889
egel	-11.9889
▁furchtbar	-11.9889
▁Gross	-11.9891
▁UV	-11.9892
▁folgte	-11.9894
grenzen	-11.9896
▁Bildungssystem	-11.9896
▁Partnerschaft	-11.9897
▁Amt	-11.9898
iven	-11.9898
▁zusammenzu	-11.9898
▁verhält	-11.99
▁Altern	-11.9902
▁12-	-11.9904
menschen	-11.9907
▁unsicher	-11.9907
▁Nazi	-11.9912
▁Bud	-11.9914
▁gigantische	-11.9914
▁sens	-11.9915
▁Küsten	-11.9918
▁lobe	-11.9919
ehen	-11.992
step	-11.992
▁Handels	-11.9921
aday	-11.9921
Welt	-11.9922
ngste	-11.9923
reaktion	-11.9924
▁Vereinte	-11.9924
mitglieder	-11.9925
zel	-11.9928
▁bats	-11.9929
▁va	-11.993
klasse	-11.9932
gelöst	-11.9933
schrei	-11.9935
▁beam	-11.9936
losigkeit	-11.9936
▁Doug	-11.9938
Maschine	-11.9942
Kopf	-11.9942
▁Diplomat	-11.9943
▁Mother	-11.9947
▁nutrition	-11.9954
aufnahmen	-11.9958
▁Profit	-11.996
Tech	-11.9962
▁effektiver	-11.9963
▁hasse	-11.9964
▁panel	-11.9967
achtung	-11.9968
▁160	-11.9969
▁lieb	-11.997
▁format	-11.9973
▁hob	-11.9977
rief	-11.9977
drive	-11.9977
▁flowing	-11.998
▁bored	-11.9985
▁Grundstück	-11.9987
ügel	-11.9995
▁Werten	-11.9995
▁trac	-12.0002
gängig	-12.0002
block	-12.0004
rail	-12.0005
änderung	-12.0009
▁Such	-12.0012
▁umsetzen	-12.0016
luft	-12.0018
▁Blasen	-12.002
▁rivers	-12.002
▁exponential	-12.0023
▁tight	-12.0026
▁gek	-12.0027
▁geheime	-12.0027
▁stimul	-12.0029
▁erwähnte	-12.0029
▁53	-12.0029
▁formt	-12.003
▁engagiert	-12.0032
aker	-12.0034
▁Mord	-12.0035
▁benötigte	-12.004
▁preserv	-12.0041
▁geometr	-12.0045
namen	-12.0047
▁kurzer	-12.0049
▁Lis	-12.005
▁Dreh	-12.0052
cted	-12.0053
bertragung	-12.0055
gebäude	-12.0055
gespräch	-12.0056
▁Knoten	-12.0056
▁1,5	-12.0056
▁Währung	-12.0056
▁Academ	-12.0056
▁Ignoranz	-12.0056
▁Michigan	-12.0056
▁Mögliche	-12.0056
▁Natasha	-12.0056
▁Ushahidi	-12.0056
▁Wohltätigkeit	-12.0056
▁acoustic	-12.0056
▁chaotisch	-12.0056
▁diamond	-12.0056
▁gelähmt	-12.0056
▁lügen	-12.0056
▁überqueren	-12.0056
▁Flagge	-12.0056
▁chimp	-12.0056
▁chronic	-12.0056
vergrößern	-12.0056
▁contrar	-12.0056
papier	-12.0056
▁triangle	-12.0056
▁Unabhängigkeit	-12.0056
▁verboten	-12.0056
▁probiert	-12.0056
▁Solarenergie	-12.0056
▁fence	-12.0056
▁Dreieck	-12.0056
EDI	-12.0056
▁Norwegen	-12.0057
▁enforce	-12.0057
▁generous	-12.0057
▁representative	-12.0057
▁recogniz	-12.0057
▁Raumschiff	-12.0057
▁Klick	-12.0058
▁Menschenrechte	-12.0058
▁Diego	-12.0058
förder	-12.0059
▁weekend	-12.0059
▁pigment	-12.0059
▁included	-12.0059
▁workplace	-12.006
▁compassionate	-12.006
▁Bären	-12.006
▁Barry	-12.006
▁detection	-12.0062
▁vot	-12.0063
▁schenke	-12.0064
▁Northern	-12.0064
▁existierende	-12.0065
200	-12.0066
▁genetically	-12.0066
▁direkte	-12.0067
▁vergleichbar	-12.0068
mond	-12.0068
▁graphics	-12.0069
▁reflection	-12.007
▁Mur	-12.0072
▁institutional	-12.0073
▁vergewaltigt	-12.0074
▁Regal	-12.0074
feuer	-12.0076
▁aktuell	-12.0078
wärme	-12.0078
▁Bad	-12.0079
▁merkwürdig	-12.0086
▁einfachste	-12.0088
▁traditions	-12.0091
glasses	-12.0092
karten	-12.0092
▁Brücken	-12.0096
▁vorkommen	-12.0097
grat	-12.0098
▁transmitt	-12.0099
▁misst	-12.0099
▁landet	-12.0102
schaften	-12.0103
▁Leone	-12.0107
▁wilde	-12.0108
▁Cla	-12.0118
Modell	-12.0118
labor	-12.0125
▁Zweiten	-12.0125
tauchen	-12.0126
clock	-12.0126
▁180	-12.0133
▁Besten	-12.0137
anlagen	-12.0137
▁Pilze	-12.0139
werkzeug	-12.0139
▁interessantes	-12.0139
▁Insekt	-12.0141
▁purchase	-12.0142
▁Muslime	-12.0148
▁qualit	-12.015
▁eingestellt	-12.016
osa	-12.0162
alai	-12.0165
bericht	-12.0166
leute	-12.0167
▁herauskomm	-12.0168
▁derzeitige	-12.0173
▁Felsen	-12.0175
gaben	-12.0178
▁Taten	-12.0179
▁Geschlechts	-12.0182
ürf	-12.0185
onnen	-12.0187
bereiten	-12.0192
ession	-12.0193
▁Tan	-12.0197
▁makers	-12.0197
▁Moon	-12.0201
ehrt	-12.0202
schossen	-12.0206
▁irgend	-12.0209
▁Schichten	-12.0209
▁chas	-12.0212
page	-12.0212
▁Oma	-12.0212
▁Med	-12.0213
▁Maria	-12.0217
▁sketch	-12.0219
▁körperlich	-12.0222
fehler	-12.0224
▁anticipate	-12.0226
▁Astronom	-12.023
▁transcend	-12.0231
▁streng	-12.0231
zweck	-12.0231
▁crystal	-12.0231
Herangehensweise	-12.0231
▁Bakterium	-12.0231
▁Goliath	-12.0231
▁LKW	-12.0231
▁Margaret	-12.0231
▁Matrix	-12.0231
▁Michelangelo	-12.0231
▁Philadelphia	-12.0231
▁bräuchte	-12.0231
▁burden	-12.0231
▁crawl	-12.0231
▁dilemma	-12.0231
▁fortgeschritten	-12.0231
▁fröhlich	-12.0231
▁glimpse	-12.0231
▁impressive	-12.0231
▁remix	-12.0231
▁rethink	-12.0231
▁serving	-12.0231
▁verwirrt	-12.0231
▁unemploy	-12.0231
▁versetzt	-12.0231
▁confirm	-12.0231
▁tattoo	-12.0231
▁cotton	-12.0231
▁valid	-12.0231
Gordon	-12.0231
▁Court	-12.0231
▁twenty	-12.0231
▁ausgezeichnet	-12.0231
▁crush	-12.0231
ströme	-12.0232
▁akademische	-12.0232
▁Selbstmord	-12.0232
▁phosphorus	-12.0232
▁externe	-12.0232
▁Königreich	-12.0232
▁fotografiere	-12.0232
▁speichern	-12.0232
▁canopy	-12.0232
Krankenschwester	-12.0232
▁Panik	-12.0233
krankheit	-12.0233
▁Hmm	-12.0233
▁Autobahn	-12.0233
▁shout	-12.0234
▁uralte	-12.0234
▁winning	-12.0234
▁Warren	-12.0234
▁Sturm	-12.0235
▁Ersatz	-12.0235
▁Sorte	-12.0236
▁97	-12.0236
▁Ernte	-12.0237
▁nano	-12.0238
▁Leder	-12.0238
▁Hersteller	-12.0238
▁Hack	-12.0239
▁Vega	-12.0241
landschaft	-12.0241
▁slime	-12.0241
merkt	-12.0242
▁prevention	-12.0242
▁eingeschlossen	-12.0243
▁Liter	-12.0243
▁static	-12.0244
▁1991	-12.0244
▁rubber	-12.0245
aub	-12.0247
▁geek	-12.0247
▁mono	-12.0247
▁competitive	-12.0249
▁interrupt	-12.0249
▁programmiert	-12.0251
▁romantische	-12.0252
▁effizienter	-12.0253
▁critic	-12.0255
▁2,5	-12.0256
▁streiten	-12.0257
transportieren	-12.0262
law	-12.0264
zeichnen	-12.0264
fass	-12.0266
chle	-12.0266
▁instantly	-12.0266
▁cod	-12.0268
▁Williams	-12.0268
urf	-12.0272
gestalt	-12.0274
ibera	-12.0275
▁blogs	-12.028
▁wedding	-12.0284
trip	-12.0284
ziert	-12.0288
▁6.	-12.0289
▁ironic	-12.0291
▁verbrennen	-12.0292
▁Symbole	-12.0293
▁Genen	-12.0294
▁Kurze	-12.0294
▁vent	-12.0295
▁Montag	-12.0296
gefordert	-12.0296
four	-12.0303
▁tagg	-12.0306
▁explode	-12.0306
food	-12.0307
Test	-12.0312
▁Enc	-12.0313
assi	-12.0314
▁5.	-12.0314
▁Guten	-12.0315
▁hunter	-12.0315
▁lauter	-12.0318
▁breit	-12.0319
▁Trag	-12.0319
▁Listen	-12.032
kus	-12.0321
▁Ker	-12.0322
▁Reform	-12.0323
uan	-12.0324
augen	-12.0325
▁naive	-12.0326
▁rose	-12.0326
ütze	-12.0329
▁infection	-12.033
istan	-12.033
▁rennen	-12.0335
▁aktiviert	-12.0335
logy	-12.0339
▁Röntgen	-12.0346
▁beginne	-12.0349
▁basieren	-12.0353
▁corporations	-12.0359
motive	-12.0362
▁navigate	-12.0366
▁Roll	-12.0368
ode	-12.0372
lagerung	-12.0374
▁140	-12.0374
▁nutzte	-12.0375
▁Abu	-12.0376
▁toast	-12.0383
vil	-12.0383
schwer	-12.0384
fordern	-12.0385
uell	-12.0387
▁rebel	-12.0387
▁fungi	-12.0389
netzwerk	-12.04
rwärmung	-12.0408
haufen	-12.0408
aktivität	-12.0409
▁Phantom	-12.041
▁Anwälte	-12.041
▁CRISPR	-12.041
▁Expedition	-12.041
▁Feuerwehr	-12.041
▁Kühe	-12.041
▁Luxus	-12.041
▁Palestinian	-12.041
▁Tsunami	-12.041
▁Vulkan	-12.041
▁Zentimeter	-12.041
▁athlete	-12.041
▁awkward	-12.041
▁beeindruckt	-12.041
▁beschleunigen	-12.041
▁bewältigen	-12.041
▁enterprise	-12.041
▁gefolg	-12.041
▁gewohnt	-12.041
▁pharmaceutical	-12.041
▁pizza	-12.041
▁prosthetic	-12.041
▁shrink	-12.041
▁sponsor	-12.041
▁steigern	-12.041
▁stärkste	-12.041
▁terrifying	-12.041
▁ubiquitous	-12.041
▁ultraviolet	-12.041
▁unprecedented	-12.041
▁wörtlich	-12.041
▁Spanish	-12.041
▁glamourös	-12.041
▁schwanger	-12.041
▁Hawking	-12.041
▁Rollstuhl	-12.041
▁Selektion	-12.041
▁Galerie	-12.041
▁straightforward	-12.041
▁Immunsystem	-12.041
▁fertil	-12.041
ulate	-12.041
▁Auflösung	-12.041
▁cruel	-12.0411
▁marry	-12.0412
▁betonen	-12.0412
▁Redner	-12.0412
▁watt	-12.0412
▁visualization	-12.0412
▁gesucht	-12.0414
▁refine	-12.0414
blatt	-12.0414
▁Kette	-12.0415
▁agreement	-12.0415
▁archive	-12.0415
gereist	-12.0417
▁ankommen	-12.0419
▁invad	-12.042
▁heim	-12.042
▁aktivier	-12.0421
▁disconnect	-12.0422
▁Fair	-12.0423
▁Asian	-12.0425
▁geprägt	-12.0425
▁Wichtig	-12.0425
▁scanner	-12.0426
länge	-12.0428
▁Bach	-12.0429
▁Abschnitt	-12.043
▁litera	-12.043
▁200,000	-12.0431
▁endless	-12.0439
▁gleicher	-12.0439
wiegen	-12.0445
fiel	-12.0446
läd	-12.0447
cost	-12.0451
▁redete	-12.0451
▁Bart	-12.0458
▁organisierte	-12.046
▁transportiert	-12.046
▁bull	-12.0461
ough	-12.0463
hell	-12.0464
▁jüngere	-12.0467
▁settle	-12.0471
▁brillante	-12.0471
▁Spezial	-12.0474
aku	-12.0475
▁tödliche	-12.0476
▁gods	-12.0477
world	-12.0478
stone	-12.0479
rock	-12.0479
▁previously	-12.0479
▁Sag	-12.0481
▁100-	-12.0483
track	-12.0484
▁Profil	-12.0485
klang	-12.049
uft	-12.0496
▁Glaube	-12.0497
▁riskier	-12.0497
▁tone	-12.0497
▁Bombe	-12.0506
itis	-12.0508
virus	-12.051
▁scanne	-12.0511
▁Banken	-12.0511
▁Algorithm	-12.0519
antwort	-12.0526
▁mitzu	-12.0527
▁auftreten	-12.0528
▁Terr	-12.0532
hack	-12.0533
▁dynamisch	-12.0539
kologi	-12.054
▁Neanderthal	-12.0544
▁Merkmale	-12.0544
▁Blogs	-12.0545
▁Geo	-12.055
▁125	-12.055
atory	-12.0551
▁Vorbild	-12.0552
▁Jon	-12.0552
▁visuell	-12.0556
Co	-12.0557
sagen	-12.0557
▁Slums	-12.0565
▁Psycho	-12.0572
▁hum	-12.0574
fire	-12.0587
▁Net	-12.0587
▁funktionierende	-12.0589
▁blank	-12.0591
▁Berührung	-12.0592
pläne	-12.0592
▁Babbage	-12.0592
▁Behauptung	-12.0592
▁Chinesisch	-12.0592
▁Edinburgh	-12.0592
▁Fettleibigkeit	-12.0592
▁Hühner	-12.0592
▁Peace	-12.0592
▁Venezuela	-12.0592
▁Wünsche	-12.0592
▁ausgestorben	-12.0592
▁benannt	-12.0592
▁ceremon	-12.0592
▁despair	-12.0592
▁ermutigt	-12.0592
▁neuroscientist	-12.0592
▁verstärkt	-12.0592
▁zutiefst	-12.0592
▁Audio	-12.0592
▁Nichol	-12.0592
▁OECD	-12.0592
▁Sowjet	-12.0592
▁Treibhausgase	-12.0592
▁spiral	-12.0592
▁storytelling	-12.0592
▁cousin	-12.0592
▁Stabilität	-12.0592
▁Power	-12.0592
▁harness	-12.0592
▁zwanzig	-12.0592
▁flourish	-12.0592
▁daneben	-12.0592
▁Börse	-12.0592
▁compress	-12.0592
▁geformt	-12.0592
▁Regime	-12.0592
entropy	-12.0592
illiard	-12.0592
aeda	-12.0592
▁Tiefsee	-12.0592
▁Geburts	-12.0592
▁prüfen	-12.0593
▁Freizeit	-12.0593
▁Roger	-12.0593
▁Einführung	-12.0593
▁Leban	-12.0594
▁Ausgang	-12.0594
▁Somalia	-12.0594
▁Blitz	-12.0594
▁verfügt	-12.0594
▁Vertrag	-12.0594
▁stole	-12.0595
▁lean	-12.0596
wirken	-12.0597
▁steer	-12.0597
▁Food	-12.0598
▁59	-12.0598
▁Barbar	-12.0598
▁Zelt	-12.0599
▁shore	-12.06
▁bislang	-12.06
▁dispos	-12.0601
▁wahrhaftig	-12.0603
▁Kino	-12.0604
▁Sklaven	-12.0605
▁occasion	-12.0605
▁zahlt	-12.0606
▁Pfad	-12.0606
fleisch	-12.0609
rollen	-12.0612
▁goat	-12.0612
▁fokussier	-12.0615
willig	-12.0615
▁langfristig	-12.0615
▁Club	-12.0616
▁Wüsten	-12.0618
▁Interface	-12.062
▁fatal	-12.0621
face	-12.0622
▁ironisch	-12.0623
▁Rom	-12.0624
rigen	-12.0624
▁Schlagzeilen	-12.0625
▁Kap	-12.0626
▁optische	-12.0627
ennig	-12.0629
▁overwhelming	-12.0631
▁arise	-12.0633
ngesicht	-12.0634
führer	-12.0635
▁beteilig	-12.0637
gue	-12.0637
▁Falle	-12.0643
▁cooperate	-12.0644
▁Grundlagen	-12.0645
▁1.5	-12.0645
▁guns	-12.0646
▁str	-12.0656
▁1.2	-12.0656
▁Platten	-12.0657
▁Briefe	-12.066
▁18.	-12.066
▁Spitzen	-12.0661
würdig	-12.0661
rückt	-12.0662
▁journal	-12.0667
worth	-12.0668
grow	-12.0671
gier	-12.0673
▁strongly	-12.0674
▁Elite	-12.0675
geleitet	-12.0679
information	-12.068
▁zusammenge	-12.0681
denkst	-12.0682
▁seas	-12.0683
million	-12.0683
loved	-12.0684
▁rev	-12.0684
produkte	-12.0685
▁flipp	-12.0686
▁Lehrerin	-12.0687
▁Tode	-12.0692
slosigkeit	-12.0692
▁hervorruf	-12.0693
▁Gemein	-12.0695
▁Walk	-12.0698
stürzt	-12.0698
▁gewachsen	-12.0698
▁educat	-12.0698
invasive	-12.0699
glied	-12.07
▁burned	-12.0709
▁lese	-12.0712
▁intens	-12.0713
▁Khan	-12.0717
▁wiegt	-12.0719
▁hör	-12.072
▁survived	-12.072
amma	-12.0723
gebiete	-12.0728
▁reine	-12.073
▁teilte	-12.0736
▁mechanische	-12.0736
▁Welten	-12.0741
hak	-12.0746
▁Isa	-12.0747
▁sinken	-12.0749
▁befasse	-12.0749
▁vibrat	-12.0754
orientiert	-12.0756
▁Sho	-12.0757
▁contribut	-12.0758
▁auswähle	-12.0759
nfolge	-12.076
gur	-12.0762
▁Karikatur	-12.0764
▁Nature	-12.0768
▁slums	-12.077
▁Stra	-12.0773
▁Tempe	-12.0773
▁Para	-12.0774
▁einnehmen	-12.0775
▁Weihnachts	-12.0777
fälsch	-12.0777
▁Glamour	-12.0777
▁Götter	-12.0777
▁Investoren	-12.0777
▁Jäger	-12.0777
▁Kalorien	-12.0777
▁Nachmittag	-12.0777
▁Notwendigkeit	-12.0777
▁Portrait	-12.0777
▁Tokyo	-12.0777
▁Tänzer	-12.0777
▁bzw	-12.0777
▁encouraging	-12.0777
▁gorgeous	-12.0777
▁materielle	-12.0777
▁microphone	-12.0777
▁precious	-12.0777
▁silver	-12.0777
▁konsumieren	-12.0777
▁kosmische	-12.0777
▁schuldig	-12.0777
▁Ethik	-12.0777
▁Spanien	-12.0777
▁bewiesen	-12.0777
▁gelegentlich	-12.0777
▁Cousin	-12.0777
▁ähnelt	-12.0777
▁delay	-12.0777
▁aufgezeichnet	-12.0777
▁Graham	-12.0777
▁Murray	-12.0777
▁Transformation	-12.0777
▁Nervensystem	-12.0778
▁ongoing	-12.0778
▁juggl	-12.0778
▁Vieh	-12.0778
▁transformative	-12.0778
▁proposition	-12.0779
▁Stunt	-12.0779
▁redesign	-12.078
▁unfold	-12.078
▁Feder	-12.0781
▁1975	-12.0781
gewicht	-12.0781
▁tiger	-12.0781
▁gentleman	-12.0781
▁Friday	-12.0781
▁zusammenfassen	-12.0781
gewalt	-12.0782
▁jedermann	-12.0784
▁frontier	-12.0785
▁campus	-12.0785
▁loose	-12.0787
▁upload	-12.0789
▁Inder	-12.0795
▁interconnected	-12.0798
schrieb	-12.0798
▁blogg	-12.0799
ER	-12.08
▁verspreche	-12.0801
▁aspiration	-12.0803
▁bewerte	-12.0804
▁cur	-12.0804
▁Lust	-12.0805
▁Energien	-12.0806
▁Schwarz	-12.0807
▁hardest	-12.0809
▁Ak	-12.081
▁Peru	-12.0811
▁Tar	-12.0811
▁Love	-12.0811
etts	-12.0812
▁simulate	-12.0813
▁Gründer	-12.0814
▁identifiziert	-12.0815
▁jagen	-12.0815
▁Sil	-12.0817
▁administration	-12.0817
▁bowl	-12.0818
▁internet	-12.082
lagern	-12.0821
▁Hab	-12.0822
▁Freud	-12.0822
▁drüber	-12.0823
▁distribut	-12.0824
▁900	-12.0825
büro	-12.0826
▁Sue	-12.0829
▁releas	-12.083
▁Fakt	-12.0831
▁markiert	-12.0835
▁Dich	-12.0836
▁server	-12.0841
place	-12.0848
mate	-12.0848
▁fassen	-12.0849
▁Drohnen	-12.0849
▁Schwein	-12.0849
lehrer	-12.085
▁Roh	-12.0851
known	-12.0851
name	-12.0851
filter	-12.0852
▁50-	-12.0852
Zahl	-12.0852
zehn	-12.0852
direct	-12.0853
▁entscheide	-12.0854
freiheit	-12.086
ano	-12.0866
squalität	-12.0868
▁Ann	-12.0868
schätzung	-12.0869
▁Dimension	-12.0875
▁Kommentare	-12.0877
▁Schiffe	-12.0881
▁IT	-12.0881
▁geringer	-12.0883
mag	-12.0884
▁offering	-12.0884
tick	-12.0888
kosysteme	-12.0888
▁jaw	-12.0889
▁rang	-12.089
▁chef	-12.089
zusehen	-12.0893
foto	-12.0895
ways	-12.0896
allererst	-12.0897
▁genaue	-12.0898
▁brenn	-12.0901
▁Danke	-12.0903
ologe	-12.0905
stechnologie	-12.0909
▁Leg	-12.0912
gun	-12.0913
▁Pur	-12.0915
gemeinschaft	-12.0917
▁Schafe	-12.0917
▁disgust	-12.0918
▁kostenlose	-12.0919
▁ernste	-12.092
▁tooth	-12.0921
▁SP	-12.0928
atten	-12.0929
▁drag	-12.0937
▁mineral	-12.0939
schlüsse	-12.094
▁Tauch	-12.094
▁mayor	-12.0941
▁wandern	-12.0944
▁Schreib	-12.0945
amo	-12.0948
▁Home	-12.095
▁teenage	-12.095
kern	-12.0955
▁phenomena	-12.096
▁Model	-12.0961
leihen	-12.0962
▁Hang	-12.0962
chef	-12.0964
hantom	-12.0965
▁ecolog	-12.0965
kapital	-12.0965
▁Graph	-12.0965
▁Primaten	-12.0965
▁Rechnung	-12.0965
▁Armstrong	-12.0966
▁BMW	-12.0966
▁Entropie	-12.0966
▁Gegner	-12.0966
▁Pittsburgh	-12.0966
▁Republikaner	-12.0966
▁Richtlinie	-12.0966
▁Swiss	-12.0966
▁Urlaub	-12.0966
▁Verletzlichkeit	-12.0966
▁Verpflichtung	-12.0966
▁angewandt	-12.0966
▁ausgestattet	-12.0966
▁befragt	-12.0966
▁dokumentiert	-12.0966
▁intrinsic	-12.0966
▁multiply	-12.0966
▁ordentlich	-12.0966
▁protocell	-12.0966
▁substantial	-12.0966
▁synthetische	-12.0966
▁vergrößert	-12.0966
▁Anliegen	-12.0966
▁junk	-12.0966
▁proposal	-12.0966
▁Völkermord	-12.0966
▁jewel	-12.0966
▁Wohnzimmer	-12.0966
▁Renaissance	-12.0966
▁libert	-12.0966
▁flavor	-12.0966
▁Bausteine	-12.0966
▁defeat	-12.0966
▁altitude	-12.0966
▁friedlich	-12.0966
▁Point	-12.0966
▁unconscious	-12.0966
färb	-12.0966
▁Verlangen	-12.0966
▁Zehen	-12.0967
▁witzig	-12.0967
▁punishment	-12.0967
▁spike	-12.0967
▁Wirbel	-12.0967
▁texture	-12.0967
▁Brazilian	-12.0967
▁Vinci	-12.0968
▁Feier	-12.0968
▁wunder	-12.0968
▁tätig	-12.0968
▁Klar	-12.0968
halle	-12.0969
▁Oliver	-12.0969
▁align	-12.0969
▁beizu	-12.0969
▁Lester	-12.0969
▁Tempel	-12.097
▁schwache	-12.097
▁Data	-12.0971
▁cube	-12.0971
▁headed	-12.0971
banish	-12.0973
▁pond	-12.0973
▁drought	-12.0973
▁thus	-12.0975
▁erschafft	-12.0975
▁sank	-12.0976
ächter	-12.0978
▁menschlich	-12.0978
▁lap	-12.0978
▁germ	-12.0978
▁lowest	-12.0979
Strahl	-12.0981
▁Gran	-12.0981
▁mesh	-12.0982
▁begu	-12.0982
▁TM	-12.0982
▁Hindu	-12.0983
▁upward	-12.0983
kenntnis	-12.0983
▁Diät	-12.0987
▁Stammes	-12.0987
▁survivor	-12.0988
▁Russ	-12.0989
path	-12.0991
▁Tipp	-12.0991
▁Cape	-12.0996
lapse	-12.0999
▁tan	-12.0999
bil	-12.1
▁Golden	-12.1
▁Kritiker	-12.1001
▁grati	-12.1002
▁fault	-12.1005
▁panic	-12.1008
dding	-12.1008
▁187	-12.1008
▁Hof	-12.101
▁64	-12.101
▁zehntausende	-12.1011
spiele	-12.1013
▁Seide	-12.1016
bai	-12.1016
schwitz	-12.1019
▁reale	-12.102
otto	-12.1021
▁8.	-12.1022
▁restaurants	-12.1026
sländer	-12.1029
viertel	-12.103
▁Chr	-12.1034
▁Wochenende	-12.1036
▁erlaubte	-12.1039
▁Berufs	-12.1042
word	-12.1042
▁Here	-12.1042
▁pursui	-12.1044
efficient	-12.1044
▁destiny	-12.1047
▁zentral	-12.105
fold	-12.1051
▁wrapp	-12.1051
▁ambition	-12.1056
▁billige	-12.1056
▁mobil	-12.1059
▁veröffentlichte	-12.106
ektion	-12.1065
stamm	-12.1066
▁neo	-12.1067
▁unendliche	-12.1068
▁sew	-12.1068
▁Lebensform	-12.1069
utzung	-12.1071
▁häufigste	-12.1073
▁Feinde	-12.1076
linear	-12.1076
▁Tit	-12.1076
▁Wolke	-12.1076
▁nützliche	-12.1076
▁bucks	-12.1077
städte	-12.1078
▁Justi	-12.1085
▁heb	-12.1087
sparen	-12.1089
osi	-12.1091
▁beating	-12.1094
urchmesser	-12.1095
gefunden	-12.11
▁Base	-12.1101
▁Cro	-12.1103
▁Restaurants	-12.1109
▁Kochen	-12.111
▁float	-12.1111
▁Leit	-12.1114
▁Erbe	-12.1116
▁traits	-12.1119
kinder	-12.1121
▁Alb	-12.1126
▁holte	-12.1126
▁quantit	-12.113
▁Dokument	-12.1133
▁Himmels	-12.1136
ona	-12.1136
felder	-12.114
▁spirituelle	-12.114
▁Innere	-12.114
▁Mem	-12.1142
▁popp	-12.1143
▁tödlich	-12.1143
▁numer	-12.1145
▁determin	-12.1146
▁epi	-12.1153
▁Texte	-12.1155
reisen	-12.1155
▁reconstruct	-12.1156
▁potato	-12.1158
▁Dschihad	-12.1158
▁Fledermäuse	-12.1158
▁Nairobi	-12.1158
▁Pizza	-12.1158
▁Schöpfung	-12.1158
▁Securit	-12.1158
▁Social	-12.1158
▁Stickstoff	-12.1158
▁beschädigt	-12.1158
▁breakfast	-12.1158
▁cigarette	-12.1158
▁executive	-12.1158
▁feminist	-12.1158
▁grandparents	-12.1158
▁pencil	-12.1158
▁wahnsinnig	-12.1158
▁Intervention	-12.1158
▁beherrschen	-12.1158
▁garantiert	-12.1158
▁peinlich	-12.1158
▁smartphone	-12.1158
▁woanders	-12.1158
kugel	-12.1158
▁Vorlesung	-12.1158
▁illuminat	-12.1158
▁insulin	-12.1158
▁verarbeitet	-12.1158
▁Sklaverei	-12.1158
▁censor	-12.1158
▁russische	-12.1158
▁temple	-12.1158
▁beängstigend	-12.1158
▁calorie	-12.1158
▁Zimbabwe	-12.1158
▁Durchbruch	-12.1158
▁hungrig	-12.1158
▁Atomenergie	-12.1158
▁Princeton	-12.1158
▁Einladung	-12.1158
▁torture	-12.1158
▁displace	-12.1158
▁excitement	-12.1158
▁calm	-12.1159
▁Partikel	-12.1159
▁elementary	-12.1159
▁Gebet	-12.1159
▁historisch	-12.116
▁microbi	-12.116
▁ausser	-12.116
▁peaceful	-12.116
▁examine	-12.1161
▁recall	-12.1161
▁Trade	-12.1161
▁relief	-12.1162
▁jumped	-12.1162
▁Rome	-12.1163
▁Arian	-12.1163
▁gemeint	-12.1164
▁ausländische	-12.1164
▁DJ	-12.1165
▁Milk	-12.1165
▁Victoria	-12.1167
weichen	-12.1169
▁durchlaufen	-12.1169
▁Massac	-12.1169
▁fra	-12.117
▁wheat	-12.117
▁AO	-12.1174
▁comedy	-12.1175
▁branches	-12.1177
▁legislat	-12.1177
opper	-12.1183
▁Züge	-12.1187
style	-12.1189
▁danken	-12.119
▁bescheiden	-12.1192
▁folg	-12.1195
▁Weiter	-12.1198
ühr	-12.1199
▁klappt	-12.1199
▁formation	-12.1203
▁Produktions	-12.1204
▁Flüchtlinge	-12.1204
▁allererste	-12.1207
▁brush	-12.1207
bye	-12.1209
▁verrichte	-12.121
▁metric	-12.1213
▁Biolog	-12.1213
logging	-12.1214
Women	-12.1214
▁ethische	-12.1215
▁Anlage	-12.1217
▁prayer	-12.1219
▁ankam	-12.1219
decke	-12.1222
▁riech	-12.1225
▁Hass	-12.1225
▁Gui	-12.1228
▁vierten	-12.1229
▁abschließen	-12.1231
▁wesentliche	-12.1232
oung	-12.1232
träge	-12.1234
▁loszu	-12.1234
▁verpflichtet	-12.1235
▁Mul	-12.1238
▁prop	-12.1238
ergebnisse	-12.1238
▁Messung	-12.1239
▁Tiefen	-12.1239
craft	-12.1239
school	-12.124
,5	-12.1241
blind	-12.1243
▁Bahn	-12.1244
▁Kollege	-12.1247
▁fett	-12.1247
gewinn	-12.1247
▁Gedichte	-12.1247
▁grau	-12.1253
held	-12.1254
▁Rakete	-12.1255
shape	-12.1255
▁Peer	-12.1257
▁Zunge	-12.1257
vision	-12.1259
▁Philosoph	-12.1259
ffnung	-12.1263
scanning	-12.1264
von	-12.1264
▁Skulpturen	-12.1264
mächtig	-12.1266
▁Gua	-12.1271
▁überzeugend	-12.1273
▁Rituale	-12.1273
tiker	-12.1275
▁relation	-12.1276
cap	-12.1278
▁glue	-12.1282
▁manufacturer	-12.1283
▁founder	-12.1284
▁Islands	-12.1289
bringt	-12.1289
etze	-12.129
gehalten	-12.129
▁Brennstoffe	-12.1296
wald	-12.1299
▁transmit	-12.1307
▁Bestandteil	-12.1307
▁unhapp	-12.1308
gged	-12.1308
▁container	-12.1309
▁realistisch	-12.1309
itch	-12.1313
▁delivery	-12.1319
▁socially	-12.1329
14	-12.133
hirn	-12.1338
▁mar	-12.1338
▁compose	-12.1339
firmen	-12.1344
▁Minen	-12.1346
▁clon	-12.1346
▁rasch	-12.1346
▁puzzles	-12.1347
▁zugrunde	-12.1347
▁cue	-12.1349
▁Pal	-12.135
rennen	-12.1351
ündig	-12.1351
▁Bag	-12.1352
▁disagree	-12.1353
▁retire	-12.1353
▁Industrial	-12.1354
▁Bezirk	-12.1354
▁Erlaub	-12.1354
▁Melodie	-12.1354
▁Smartphone	-12.1354
▁collision	-12.1354
▁divorce	-12.1354
▁eingeschränkt	-12.1354
▁fertilizer	-12.1354
▁stomach	-12.1354
▁swallow	-12.1354
▁unschuldig	-12.1354
▁verletzen	-12.1354
▁vorstellt	-12.1354
▁Schweigen	-12.1354
▁Sonntag	-12.1354
▁konstant	-12.1354
▁minimum	-12.1354
▁absence	-12.1354
▁beruht	-12.1354
▁crab	-12.1354
▁Dankeschön	-12.1354
▁Idiot	-12.1354
▁Coast	-12.1354
▁descend	-12.1354
▁Einzige	-12.1354
▁carpet	-12.1354
▁verwalte	-12.1354
▁wohnt	-12.1354
▁Filmemacher	-12.1354
▁transmission	-12.1354
▁division	-12.1354
▁Word	-12.1354
▁Morgan	-12.1354
uadratmeter	-12.1354
▁erschreckend	-12.1354
▁angeboten	-12.1354
▁nackt	-12.1354
▁kingdom	-12.1354
▁screw	-12.1354
▁kilo	-12.1354
▁Cuba	-12.1354
▁anschließend	-12.1354
▁Neigung	-12.1355
▁membrane	-12.1355
▁steuert	-12.1355
▁Antarktis	-12.1355
▁Barack	-12.1355
▁antenna	-12.1355
▁Klänge	-12.1355
▁unerwartete	-12.1355
▁Rebe	-12.1356
mont	-12.1356
▁Lead	-12.1356
▁zuhause	-12.1357
▁Versprechen	-12.1357
▁Matz	-12.1357
▁Gitter	-12.1357
▁camps	-12.1357
▁Höhen	-12.1357
▁Christopher	-12.1357
uar	-12.1357
▁Royal	-12.1358
gne	-12.1358
▁trad	-12.1358
drehen	-12.1359
▁Zoo	-12.1359
▁58	-12.1361
▁Logo	-12.1361
▁Rohr	-12.1361
▁hinterher	-12.1361
▁3.000	-12.1362
▁Voll	-12.1362
▁insane	-12.1363
▁drunk	-12.1363
sprogramm	-12.1363
MI	-12.1363
▁opt	-12.1366
becken	-12.1367
▁dependenc	-12.1367
▁einig	-12.1367
rude	-12.1367
▁Marco	-12.1369
▁controversial	-12.1369
▁Pandemie	-12.1371
▁Freundschaft	-12.1372
▁schneide	-12.1372
musik	-12.1376
▁ernsthafte	-12.1376
▁BL	-12.1377
geholt	-12.1379
▁Klimawandels	-12.138
▁Dritte	-12.138
▁bestehende	-12.1383
▁natürlicher	-12.1384
▁kritisch	-12.1385
dose	-12.1388
▁pl	-12.1389
▁tutor	-12.1389
schläge	-12.1391
▁erreichte	-12.1392
▁erwachsen	-12.1393
▁steam	-12.1395
▁specialist	-12.1396
▁versteckte	-12.1397
bou	-12.1398
▁Ufer	-12.1399
▁bombs	-12.14
▁referr	-12.1401
▁probe	-12.1402
▁Trainings	-12.1403
▁Kram	-12.1406
▁Hochschul	-12.1407
▁schlechtes	-12.1408
▁Agn	-12.1409
▁prepar	-12.1416
begrenz	-12.1416
▁derjenige	-12.1416
eryl	-12.142
jenige	-12.1421
▁Impuls	-12.1425
▁Denker	-12.1426
▁origins	-12.1426
▁leichte	-12.1431
gesteckt	-12.1431
▁Farmer	-12.1432
EC	-12.1434
Kortex	-12.1434
▁liberat	-12.1439
rhythm	-12.144
arian	-12.144
▁fundamentale	-12.1443
▁Studierenden	-12.1444
makers	-12.1444
▁Landschaften	-12.1444
▁landscapes	-12.1445
▁Kommentar	-12.1447
trinken	-12.1448
▁tubes	-12.1449
▁dating	-12.145
▁commit	-12.1451
Up	-12.1451
▁Interessantes	-12.1452
▁Eine	-12.1452
▁gebunden	-12.1453
▁merkt	-12.1457
▁Emp	-12.1462
▁Je	-12.1463
▁atom	-12.1469
▁celebrat	-12.1479
▁schlimmste	-12.1479
ualle	-12.1481
dad	-12.1485
▁schickt	-12.1486
two	-12.1486
▁jünger	-12.149
▁penguin	-12.1492
▁gla	-12.1494
▁Affe	-12.1498
▁kommerzielle	-12.1498
hängen	-12.1502
hindert	-12.1504
▁Syria	-12.1506
ological	-12.1507
▁trauma	-12.1512
litz	-12.1514
▁tiefste	-12.1515
▁verkünde	-12.1518
zuarbeiten	-12.1518
hofft	-12.1519
▁Wer	-12.152
▁Mein	-12.1521
▁remarkabl	-12.1521
gramm	-12.1523
▁Real	-12.1526
amas	-12.1527
▁analyz	-12.1528
stoffe	-12.1532
▁gegenwärtige	-12.1533
PL	-12.1534
▁worrying	-12.1534
ggle	-12.1537
bungen	-12.1538
▁Mott	-12.1541
coli	-12.1542
▁erwachsene	-12.1542
▁farming	-12.1549
üchtig	-12.1549
▁punish	-12.1553
▁Virgin	-12.1553
▁visualize	-12.1553
▁ueber	-12.1554
adequate	-12.1554
▁Bhutan	-12.1554
▁Buddhist	-12.1554
▁Carnegie	-12.1554
▁Geometrie	-12.1554
▁Hospital	-12.1554
▁Konkurrenz	-12.1554
▁Kyoto	-12.1554
▁Schizophren	-12.1554
▁Vorgehensweise	-12.1554
▁Zipcar	-12.1554
▁approximate	-12.1554
▁cocaine	-12.1554
▁deliberate	-12.1554
▁genuine	-12.1554
▁gestohlen	-12.1554
▁großzügig	-12.1554
▁grösste	-12.1554
▁lobby	-12.1554
▁unklar	-12.1554
▁verdoppeln	-12.1554
▁violin	-12.1554
▁Hausaufgaben	-12.1554
▁Protozelle	-12.1554
▁angeblich	-12.1554
▁konkurrieren	-12.1554
▁stattfand	-12.1554
▁Anwalt	-12.1554
▁Tunnel	-12.1554
▁mutual	-12.1554
▁Gummi	-12.1554
▁Applau	-12.1554
▁Windows	-12.1554
▁casual	-12.1554
▁Großeltern	-12.1554
▁andauernd	-12.1554
▁Taiwan	-12.1554
▁strict	-12.1554
▁gallon	-12.1554
▁Iceland	-12.1554
▁backyard	-12.1554
▁Biosphäre	-12.1554
▁Monster	-12.1554
erfahrung	-12.1554
▁Röhre	-12.1554
▁Rauschen	-12.1554
▁Linux	-12.1554
▁Mytho	-12.1554
▁venture	-12.1554
▁Standort	-12.1554
▁mainstream	-12.1554
▁Antibiotika	-12.1555
▁foster	-12.1555
▁Weizen	-12.1555
▁Franklin	-12.1555
▁retirement	-12.1555
▁Snowden	-12.1555
▁Bohr	-12.1555
▁fördert	-12.1555
▁negotiation	-12.1555
▁anfangs	-12.1556
▁Aristotel	-12.1556
▁brick	-12.1556
▁distinction	-12.1556
▁translator	-12.1557
▁cows	-12.1557
▁Aussehen	-12.1557
▁Stimmung	-12.1558
▁Intel	-12.1558
▁Jew	-12.1559
▁verleihen	-12.1559
▁Four	-12.156
▁phenomenal	-12.156
▁assure	-12.156
▁dicke	-12.1566
▁Bogen	-12.1566
▁heavi	-12.1567
frau	-12.1568
trop	-12.1568
▁Kanal	-12.1568
▁caves	-12.1571
rmel	-12.1572
▁regulate	-12.1575
▁rannte	-12.1575
▁replac	-12.1578
▁überdenken	-12.1579
▁negotiate	-12.1581
▁vollständige	-12.1584
eller	-12.1585
urren	-12.1586
stall	-12.1587
▁innovativ	-12.1587
▁Tai	-12.1588
▁Schalter	-12.1588
▁patch	-12.1589
▁gro	-12.159
▁convenient	-12.159
▁anonymous	-12.1593
▁intent	-12.1594
▁recycling	-12.1595
▁Kurse	-12.1597
▁realistic	-12.1598
physik	-12.16
▁astronomer	-12.1602
▁Andy	-12.1605
▁autist	-12.1607
▁Standards	-12.1607
▁stimulate	-12.1607
▁Cooper	-12.1607
pflege	-12.1611
streifen	-12.1611
vity	-12.1614
▁Fast	-12.1614
rman	-12.1615
solu	-12.1616
▁healing	-12.1617
pont	-12.1617
▁Ratte	-12.1619
▁Lügen	-12.1621
amer	-12.1628
▁zeichnete	-12.1631
▁Rennen	-12.1633
▁leuchten	-12.1634
ehlen	-12.1636
ule	-12.164
front	-12.164
▁effiziente	-12.165
schütz	-12.165
▁infections	-12.1651
▁badly	-12.1651
wunde	-12.1653
▁reiche	-12.1655
▁manner	-12.1655
aida	-12.1656
▁Freiwilligen	-12.1657
▁Rande	-12.1662
▁54	-12.1666
▁beeindruckende	-12.1669
▁Rod	-12.167
drew	-12.167
▁surgeons	-12.1673
▁JA	-12.1676
liefert	-12.1681
▁embrac	-12.1684
▁cru	-12.1685
Man	-12.1689
▁rechtliche	-12.1692
▁Gewinne	-12.1696
▁historic	-12.1699
▁Ass	-12.17
▁circuits	-12.1701
▁gate	-12.1702
smethode	-12.1704
▁Fil	-12.1709
▁teurer	-12.1709
▁interpretiere	-12.1713
▁frisch	-12.1717
disc	-12.172
▁eliminate	-12.1721
wände	-12.1725
▁arch	-12.1725
▁pflanzen	-12.1726
▁Künstlerin	-12.1727
gefahren	-12.1735
feuert	-12.174
ronto	-12.174
▁ehe	-12.1743
klären	-12.1743
fan	-12.1746
▁umwandel	-12.1749
▁disk	-12.175
sammeln	-12.1751
handlung	-12.1752
plätze	-12.1757
▁legitim	-12.1757
findung	-12.1758
Veröffentlichung	-12.1758
händler	-12.1758
▁DARPA	-12.1758
▁Dallas	-12.1758
▁Konversation	-12.1758
▁Orleans	-12.1758
▁Pepsi	-12.1758
▁Premierminister	-12.1758
▁Reaktor	-12.1758
▁Stolz	-12.1758
▁Teszler	-12.1758
▁Tweet	-12.1758
▁Würfel	-12.1758
▁artifact	-12.1758
▁demonstriert	-12.1758
▁empfangen	-12.1758
▁jihad	-12.1758
▁nirgendwo	-12.1758
▁satisfy	-12.1758
▁structural	-12.1758
▁composition	-12.1758
▁kopieren	-12.1758
▁retreat	-12.1758
▁storyteller	-12.1758
▁contaminat	-12.1758
▁album	-12.1758
▁assign	-12.1758
▁Rückenmark	-12.1758
▁Dün	-12.1758
▁Tower	-12.1758
▁Glied	-12.1758
▁warrior	-12.1758
▁eindring	-12.1758
▁beruflich	-12.1758
▁diagnostic	-12.1758
▁loving	-12.1758
▁exposure	-12.1758
▁Skype	-12.1759
▁Lebensstil	-12.1759
Adresse	-12.1759
▁Hafen	-12.1759
▁schlicht	-12.1759
▁dough	-12.1759
▁Finanzierung	-12.1759
▁Nebel	-12.176
▁canvas	-12.176
▁Story	-12.176
▁prostate	-12.1761
▁6,000	-12.1762
▁umgewandelt	-12.1762
mutter	-12.1763
▁Verstehen	-12.1763
gewachsen	-12.1764
▁Teller	-12.1764
▁strain	-12.1764
▁Norman	-12.1765
▁nukleare	-12.1765
▁Demo	-12.1766
▁planetary	-12.1767
▁accelerate	-12.1768
▁Algen	-12.1768
▁Den	-12.1768
▁logo	-12.1769
▁untersuchte	-12.177
▁40,000	-12.1771
,500	-12.1771
▁cor	-12.1772
▁Phil	-12.1773
▁Delfine	-12.1777
stift	-12.1779
▁schwamm	-12.1781
▁dünn	-12.1781
▁Betrachtung	-12.1782
▁millimeter	-12.1785
▁empfindlich	-12.1786
▁Wang	-12.1787
▁getrieben	-12.1787
▁Histor	-12.1788
RA	-12.1791
▁zustimmen	-12.1793
▁disability	-12.1793
▁bli	-12.1798
▁Betrachter	-12.1799
away	-12.1799
▁gelegt	-12.1801
▁zuzuhören	-12.1802
tipp	-12.1804
▁useless	-12.1806
▁sichere	-12.1807
▁CC	-12.1811
verb	-12.1812
▁packen	-12.1813
▁bon	-12.1813
▁Kunstwerk	-12.1816
▁Verhaltensweise	-12.1817
elli	-12.1819
scape	-12.1821
▁Anders	-12.1821
▁Brennstoff	-12.1822
ruhe	-12.1823
rolle	-12.1823
▁Leucht	-12.1823
▁Pub	-12.1832
▁vorherige	-12.1833
▁Skal	-12.1835
cast	-12.1843
blasen	-12.1843
▁mitgebracht	-12.1845
▁promis	-12.1847
still	-12.1848
▁Spinnen	-12.1849
▁starv	-12.1849
wash	-12.185
generat	-12.1853
▁potentielle	-12.1855
▁24-	-12.1856
▁gerichtet	-12.1857
tanz	-12.1858
▁frontal	-12.186
▁planes	-12.1861
▁Stop	-12.1861
flow	-12.1861
ngest	-12.1864
▁aufhört	-12.1866
▁Wolf	-12.1869
▁einfallen	-12.1873
tasche	-12.1875
▁raped	-12.1876
▁ham	-12.1876
▁Schrei	-12.1892
▁Kolonien	-12.1892
▁bitter	-12.1895
egeister	-12.1896
▁semi	-12.1897
▁betrachte	-12.1899
▁rechnen	-12.1901
▁Krebszelle	-12.1901
▁comics	-12.1902
▁Pin	-12.1905
esis	-12.1906
▁Barriere	-12.1906
bone	-12.1907
▁greif	-12.1908
▁Best	-12.1909
▁Comics	-12.191
[...]
