<pad>▁0
<unk>▁1
<s>▁2
</s>▁3
▁David▁4
▁Gallo▁5
▁:▁6
▁life▁7
▁in▁8
▁the▁9
▁deep▁10
▁oceans▁11
▁TED▁12
▁Talk▁13
▁Subti▁14
tles▁15
▁and▁16
▁T▁17
ranscript▁18
▁with▁19
▁vibran▁20
t▁21
▁video▁22
▁clip▁23
s▁24
▁capture▁25
d▁26
▁by▁27
▁submarine▁28
▁,▁29
▁take▁30
▁us▁31
▁to▁32
▁some▁33
▁of▁34
▁Earth▁35
▁&▁36
apos▁37
;▁38
▁dark▁39
est▁40
▁most▁41
▁violent▁42
▁toxic▁43
▁beautiful▁44
▁habitat▁45
▁valley▁46
▁volcan▁47
ic▁48
▁▁49
ridge▁50
▁depth▁51
▁where▁52
▁is▁53
▁bizarre▁54
▁resilien▁55
▁shocking▁56
ly▁57
▁abundant▁58
▁.▁59
▁this▁60
▁Bill▁61
▁Lange▁62
▁I▁63
m▁64
▁Dave▁65
▁we▁66
re▁67
▁going▁68
▁tell▁69
▁you▁70
▁stories▁71
▁from▁72
▁sea▁73
▁here▁74
ve▁75
▁got▁76
credible▁77
▁Titanic▁78
▁that▁79
▁ever▁80
▁been▁81
▁seen▁82
▁not▁83
▁show▁84
▁any▁85
▁it▁86
▁truth▁87
▁matter▁88
▁--▁89
▁even▁90
▁though▁91
▁breaking▁92
▁all▁93
▁sort▁94
▁box▁95
▁office▁96
▁record▁97
▁exciting▁98
▁story▁99
▁problem▁100
▁think▁101
▁ocean▁102
▁for▁103
▁granted▁104
▁when▁105
▁about▁106
▁are▁107
▁75▁108
▁percent▁109
▁planet▁110
▁water▁111
▁average▁112
▁two▁113
▁miles▁114
▁part▁115
▁stand▁116
▁at▁117
▁beach▁118
▁or▁119
▁see▁120
▁images▁121
▁like▁122
▁look▁123
▁out▁124
▁great▁125
▁big▁126
▁blue▁127
▁ex▁128
pan▁129
e▁130
▁sh▁131
immer▁132
ing▁133
▁mov▁134
▁there▁135
▁wave▁136
▁surf▁137
▁tide▁138
▁but▁139
▁have▁140
▁no▁141
▁idea▁142
▁what▁143
▁lies▁144
▁longest▁145
▁mountain▁146
▁range▁147
▁on▁148
▁animals▁149
▁earthquake▁150
▁volcano▁151
es▁152
▁bottom▁153
▁biodiversity▁154
▁bio▁155
den▁156
sity▁157
▁higher▁158
▁places▁159
▁than▁160
▁rainforest▁161
▁unexplo▁162
r▁163
ed▁164
▁yet▁165
▁sight▁166
▁cap▁167
iv▁168
ate▁169
▁make▁170
▁become▁171
▁familiar▁172
▁want▁173
▁edge▁174
▁a▁175
very▁176
▁un▁177
familiar▁178
▁world▁179
▁special▁180
▁technology▁181
▁get▁182
▁into▁183
▁use▁184
▁Al▁185
vin▁186
▁camera▁187
▁something▁188
▁has▁189
▁develop▁190
▁help▁191
▁Sony▁192
▁Marcel▁193
▁Pro▁194
us▁195
▁sai▁196
quot▁197
▁The▁198
▁true▁199
▁voyage▁200
▁discovery▁201
▁so▁202
▁much▁203
▁seek▁204
▁new▁205
▁landscapes▁206
▁as▁207
▁hav▁208
▁eyes▁209
▁people▁210
▁partner▁211
▁give▁212
n▁213
▁only▁214
▁exist▁215
▁also▁216
▁how▁217
▁itself▁218
▁jelly▁219
▁one▁220
▁my▁221
▁favorite▁222
▁because▁223
▁working▁224
▁turn▁225
▁be▁226
▁creature▁227
▁up▁228
▁150▁229
▁feet▁230
▁long▁231
▁those▁232
▁different▁233
▁things▁234
▁?▁235
▁love▁236
▁kind▁237
▁stuff▁238
▁these▁239
▁fish▁240
▁lure▁241
y▁242
▁down▁243
▁tent▁244
ac▁245
les▁246
▁da▁247
ng▁248
ling▁249
▁swirl▁250
around▁251
colonial▁252
▁animal▁253
▁individual▁254
▁band▁255
▁together▁256
▁jet▁257
▁thrust▁258
ers▁259
▁front▁260
ll▁261
▁moment▁262
▁little▁263
▁light▁264
▁if▁265
▁school▁266
▁put▁267
▁them▁268
▁side▁269
▁scale▁270
-▁271
typ▁272
▁other▁273
▁guys▁274
▁win▁275
▁hands▁276
▁bioma▁277
▁made▁278
▁creatures▁279
X▁280
w▁281
▁death▁282
▁bioluminescence▁283
▁attract▁284
▁mate▁285
▁pre▁286
▁communicat▁287
▁could▁288
▁begin▁289
▁our▁290
archiv▁291
al▁292
▁je▁293
ies▁294
▁come▁295
▁size▁296
▁shapes▁297
▁tend▁298
▁forget▁299
▁fact▁300
▁real▁301
▁first▁302
▁200▁303
▁300▁304
▁way▁305
▁types▁306
▁live▁307
▁three▁308
dimensional▁309
▁space▁310
▁micro▁311
g▁312
ra▁313
vity▁314
▁environment▁315
▁reall▁316
▁explore▁317
▁hear▁318
▁giant▁319
▁squid▁320
▁approximate▁321
▁140▁322
▁160▁323
▁underst▁324
ood▁325
DG▁326
▁an▁327
other▁328
oc▁329
top▁330
od▁331
▁can▁332
▁actual▁333
▁through▁334
▁his▁335
▁head▁336
▁he▁337
▁flap▁338
ping▁339
▁ears▁340
▁graceful▁341
▁go▁342
▁couple▁343
ches▁344
▁right▁345
▁their▁346
▁window▁347
▁peek▁348
▁inside▁349
▁sub▁350
in▁351
▁case▁352
▁pass▁353
▁mid▁354
ocean▁355
▁under▁356
sea▁357
ro▁358
o▁359
ster▁360
▁guy▁361
incredibly▁362
▁formal▁363
▁then▁364
▁face▁365
!▁366
▁basic▁367
ally▁368
▁scientific▁369
▁data▁370
▁foot▁371
age▁372
▁collect▁373
▁purpose▁374
▁doing▁375
▁provid▁376
▁scientists▁377
▁view▁378
▁belong▁379
▁don▁380
▁catch▁381
▁net▁382
▁joystick▁383
▁sit▁384
▁computer▁385
▁press▁386
▁forward▁387
▁fly▁388
▁40,000▁389
mile▁390
▁top▁391
▁mile▁392
▁half▁393
▁over▁394
▁Atlantic▁395
▁across▁396
▁Ca▁397
ribbe▁398
an▁399
Central▁400
▁America▁401
▁end▁402
against▁403
▁Pacific▁404
▁nine▁405
▁degree▁406
▁north▁407
▁maps▁408
▁sound▁409
ar▁410
▁coming▁411
▁cliff▁412
▁height▁413
▁mountains▁414
either▁415
er▁416
▁Alp▁417
▁tens▁418
▁thousand▁419
▁mappe▁420
ting▁421
▁further▁422
▁eventually▁423
▁icon▁424
▁robot▁425
▁Ja▁426
son▁427
▁call▁428
▁room▁429
set▁430
▁drive▁431
▁time▁432
▁try▁433
▁do▁434
▁Wood▁435
▁Hol▁436
▁partners▁437
▁bring▁438
▁virtual▁439
▁region▁440
▁back▁441
▁laboratory▁442
▁bit▁443
▁piece▁444
▁now▁445
▁photographs▁446
▁chemical▁447
▁sensor▁448
▁never▁449
▁interesting▁450
▁picture▁451
▁shine▁452
▁hydrothermal▁453
▁vent▁454
▁seeing▁455
▁cloud▁456
▁dense▁457
▁pack▁458
▁hydrogen▁459
ul▁460
f▁461
ide▁462
rich▁463
▁axis▁464
▁floor▁465
▁600▁466
▁700▁467
▁F▁468
where▁469
▁kne▁470
▁was▁471
▁60▁472
▁70▁473
▁had▁474
▁hin▁475
▁along▁476
ism▁477
▁crack▁478
▁contact▁479
▁mag▁480
ma▁481
▁shooting▁482
▁hot▁483
▁were▁484
▁aware▁485
▁would▁486
▁rich▁487
▁sulfide▁488
▁did▁489
▁which▁490
▁chimney▁491
▁six▁492
▁hundred▁493
▁setting▁494
▁dramatic▁495
▁BL▁496
▁white▁497
▁material▁498
▁type▁499
▁bacteria▁500
▁thrive▁501
▁180▁502
▁C▁503
.▁504
▁thing▁505
▁after▁506
▁erupt▁507
ion▁508
▁start▁509
▁wonder▁510
▁find▁511
▁probabl▁512
genesis▁513
▁activit▁514
▁support▁515
▁colonies▁516
▁pressure▁517
▁4,000▁518
▁pounds▁519
▁per▁520
▁square▁521
ch▁522
▁surface▁523
▁sun▁524
ten▁525
▁energy▁526
▁forms▁527
▁chemo▁528
thesis▁529
▁population▁530
▁tube▁531
▁worm▁532
▁digest▁533
ive▁534
▁system▁535
▁mouth▁536
gill▁537
▁structure▁538
▁extract▁539
▁oxygen▁540
▁house▁541
the▁542
tic▁543
▁fluid▁544
▁saw▁545
▁convert▁546
▁simple▁547
▁sugar▁548
▁crab▁549
▁lives▁550
▁manage▁551
▁grab▁552
▁tip▁553
▁normal▁554
▁retrac▁555
▁soon▁556
▁touch▁557
▁Oh▁558
▁good▁559
▁shell▁560
▁just▁561
▁your▁562
▁finger▁563
na▁564
il▁565
▁whole▁566
▁being▁567
▁play▁568
▁beginning▁569
▁temperature▁570
▁extreme▁571
▁hand▁572
▁boil▁573
▁freez▁574
▁female▁575
▁male▁576
▁watch▁577
▁does▁578
▁before▁579
▁will▁580
▁fight▁581
▁everything▁582
▁pitch▁583
▁black▁584
▁except▁585
▁last▁586
▁dive▁587
▁series▁588
▁count▁589
▁species▁590
▁areas▁591
▁198▁592
▁problems▁593
▁biologist▁594
▁sites▁595
▁ra▁596
ther▁597
▁difficult▁598
▁disintegrat▁599
▁imager▁600
▁critical▁601
▁science▁602
▁amaze▁603
▁me▁604
▁enough▁605
▁crush▁606
▁empty▁607
▁Pepsi▁608
▁till▁609
▁shrimp▁610
▁harass▁611
▁poor▁612
▁bat▁613
▁away▁614
▁claw▁615
▁whack▁616
▁same▁617
▁food▁618
st▁619
uff▁620
▁strange▁621
▁harvest▁622
▁filament▁623
▁create▁624
▁product▁625
▁grow▁626
▁hair▁627
▁again▁628
▁red▁629
▁dot▁630
▁laser▁631
▁far▁632
▁cl▁633
▁rock▁634
▁scrap▁635
▁off▁636
tiny▁637
▁pillar▁638
▁several▁639
▁alien▁640
▁landscape▁641
▁spring▁642
▁inhabit▁643
▁ground▁644
▁need▁645
▁V▁646
shape▁647
▁mark▁648
en▁649
▁organ▁650
▁emitt▁651
▁body▁652
▁radiation▁653
R▁654
▁signature▁655
▁able▁656
▁consider▁657
able▁658
▁distance▁659
▁happening▁660
▁ribbon▁661
day▁662
▁speak▁663
▁generate▁664
▁tried▁665
▁place▁666
▁high▁667
▁definition▁668
▁tall▁669
▁lot▁670
▁funny▁671
▁plate▁672
▁homes▁673
▁close▁674
▁community▁675
▁smaller▁676
▁crawl▁677
▁p▁678
ago▁679
da▁680
▁neat▁681
look▁682
▁sitt▁683
▁smok▁684
▁hell▁685
▁permit▁686
▁dump▁687
▁unbelievabl▁688
▁sulfur▁689
▁acid▁690
▁rate▁691
▁thriv▁692
▁came▁693
▁evolv▁694
▁talk▁695
▁form▁696
▁found▁697
▁number▁698
▁group▁699
propos▁700
▁al▁701
though▁702
▁short▁703
liv▁704
▁site▁705
▁may▁706
▁10▁707
▁years▁708
▁ecosystem▁709
▁st▁710
▁million▁711
▁well▁712
▁billion▁713
▁works▁714
▁too▁715
▁wait▁716
▁stick▁717
▁canno▁718
▁explain▁719
▁why▁720
▁active▁721
▁week▁722
ready▁723
▁human▁724
▁perspective▁725
blood▁726
▁plumb▁727
▁every▁728
▁year▁729
▁move▁730
▁order▁731
▁five▁732
▁completely▁733
▁wipe▁734
▁area▁735
▁des▁736
pite▁737
ities▁738
▁sensitive▁739
▁yes▁740
▁fragile▁741
▁saying▁742
▁sediment▁743
▁rocks▁744
▁history▁745
▁cycle▁746
▁rhythm▁747
▁continent▁748
▁apart▁749
▁glacier▁750
▁El▁751
▁Nino▁752
▁disaster▁753
▁learning▁754
▁almost▁755
▁symphon▁756
▁music▁757
▁listen▁758
billion▁759
year▁760
▁say▁761
▁Stop▁762
▁tomorrow▁763
▁note▁764
▁absurd▁765
▁learn▁766
▁work▁767
▁concept▁768
▁preserv▁769
ation▁770
▁fu▁771
til▁772
▁conservation▁773
▁tough▁774
▁thank▁775
▁Steve▁776
▁K▁777
eil▁778
▁manifest▁779
▁Bulgaria▁780
▁beyond▁781
▁serious▁782
▁meme▁783
▁infect▁784
▁home▁785
▁return▁786
▁rev▁787
it▁788
ize▁789
▁economy▁790
▁education▁791
▁society▁792
▁spark▁793
▁universal▁794
▁message▁795
▁everywhere▁796
▁who▁797
▁reinvent▁798
▁workplace▁799
▁schools▁800
▁revolution▁801
▁arms▁802
▁break▁803
▁song▁804
▁pick▁805
▁color▁806
▁define▁807
▁mean▁808
▁drastic▁809
reach▁810
▁change▁811
▁behave▁812
▁;▁813
▁makes▁814
▁sad▁815
▁sick▁816
▁tired▁817
▁know▁818
▁living▁819
▁potential▁820
▁many▁821
▁example▁822
▁social▁823
▁factor▁824
▁Europe▁825
▁innovation▁826
▁culture▁827
▁value▁828
▁health▁829
▁care▁830
▁important▁831
▁sense▁832
being▁833
▁E▁834
U▁835
▁worst▁836
▁weeks▁837
▁ago▁838
▁Economi▁839
▁relative▁840
▁G▁841
DP▁842
▁capita▁843
▁let▁844
▁rank▁845
▁report▁846
▁OECD▁847
▁reading▁848
▁math▁849
▁business▁850
▁lowest▁851
▁perception▁852
▁entrepreneurs▁853
▁provide▁854
▁benefit▁855
▁result▁856
▁happens▁857
▁percentage▁858
body▁859
▁small▁860
▁engine▁861
▁economies▁862
▁hire▁863
▁taxe▁864
▁broken▁865
▁guess▁866
▁surprise▁867
▁62▁868
▁optimistic▁869
▁future▁870
▁unhapp▁871
▁bad▁872
▁tale▁873
bel▁874
ie▁875
▁conspirac▁876
▁should▁877
▁clear▁878
▁operat▁879
▁behav▁880
▁transform▁881
▁better▁882
▁ourselves▁883
▁friends▁884
▁family▁885
▁happen▁886
▁positive▁887
▁handicap▁888
▁holding▁889
▁forgot▁890
▁babies▁891
▁kids▁892
▁adult▁893
▁de▁894
value▁895
▁45▁896
com▁897
un▁898
▁valu▁899
▁state▁900
▁squash▁901
▁inadvertent▁902
▁creativity▁903
▁self▁904
expression▁905
▁instead▁906
▁apply▁907
▁knowledge▁908
▁affect▁909
▁institutional▁910
▁context▁911
ld▁912
▁times▁913
▁sc▁914
old▁915
▁park▁916
▁heaven▁917
▁forbid▁918
▁dirt▁919
▁k▁920
▁worse▁921
▁lo▁922
k▁923
vi▁924
▁kill▁925
▁b▁926
aba▁927
▁d▁928
ad▁929
os▁930
▁train▁931
ness▁932
▁runn▁933
▁gene▁934
▁step▁935
▁woman▁936
▁baby▁937
kam▁938
▁Wo▁939
oh▁940
oo▁941
▁career▁942
▁coffee▁943
b▁944
ko▁945
▁remember▁946
▁she▁947
▁passe▁948
▁virus▁949
wood▁950
▁trees▁951
▁antiqu▁952
ated▁953
▁100▁954
▁values▁955
▁rote▁956
▁memor▁957
ization▁958
▁standard▁959
xploration▁960
▁question▁961
▁crap▁962
went▁963
▁kid▁964
▁prestig▁965
ious▁966
▁study▁967
▁eight▁968
▁day▁969
▁Well▁970
▁recess▁971
▁Ha▁972
▁won▁973
▁single▁974
▁schedule▁975
▁He▁976
▁crime▁977
▁creating▁978
▁mind▁979
less▁980
▁robotic▁981
▁workers▁982
▁bolt▁983
ri▁984
▁hole▁985
rry▁986
▁Industrial▁987
▁Revolution▁988
▁adapt▁989
ability▁990
▁creative▁991
▁innovative▁992
chan▁993
ized▁994
▁treat▁995
▁asset▁996
▁lever▁997
▁throw▁998
▁qualit▁999
▁auto▁1000
c▁1001
rat▁1002
▁chef▁1003
▁boss▁1004
rus▁1005
▁obvious▁1006
▁criminal▁1007
▁install▁1008
▁controll▁1009
▁idiot▁1010
▁z▁1011
illion▁1012
▁process▁1013
▁follow▁1014
▁restrict▁1015
▁mobile▁1016
▁phone▁1017
▁laptop▁1018
▁search▁1019
▁Internet▁1020
M▁1021
how▁1022
prof▁1023
ession▁1024
ful▁1025
fill▁1026
▁fun▁1027
▁That▁1028
▁ridiculous▁1029
▁dumb▁1030
▁stupid▁1031
▁prove▁1032
▁next▁1033
▁speech▁1034
▁catalyst▁1035
▁brains▁1036
▁hard▁1037
wir▁1038
▁evolution▁1039
▁select▁1040
▁humans▁1041
▁job▁1042
elect▁1043
▁traits▁1044
▁advantage▁1045
ous▁1046
▁competitive▁1047
▁nature▁1048
out▁1049
▁kingdom▁1050
be▁1051
▁dynamic▁1052
▁rats▁1053
▁might▁1054
▁known▁1055
▁more▁1056
▁bigge▁1057
▁task▁1058
▁skills▁1059
▁kit▁1060
▁depriv▁1061
▁interact▁1062
▁socially▁1063
▁still▁1064
▁hunt▁1065
▁bear▁1066
▁survive▁1067
▁longer▁1068
▁final▁1069
▁correlation▁1070
▁between▁1071
▁brain▁1072
▁dolphin▁1073
▁prett▁1074
▁players▁1075
▁tru▁1076
▁national▁1077
ity▁1078
▁race▁1079
▁religion▁1080
▁cool▁1081
▁term▁1082
▁neo▁1083
▁re▁1084
tion▁1085
▁juvenile▁1086
ists▁1087
▁sports▁1088
▁Olympia▁1089
▁professional▁1090
▁musical▁1091
▁instrument▁1092
▁dance▁1093
▁kiss▁1094
▁sing▁1095
of▁1096
▁design▁1097
▁birth▁1098
▁old▁1099
▁age▁1100
▁continuous▁1101
▁stop▁1102
▁huge▁1103
▁stimulate▁1104
▁neural▁1105
▁growth▁1106
▁am▁1107
la▁1108
▁control▁1109
▁emotions▁1110
▁promote▁1111
frontal▁1112
cortex▁1113
▁development▁1114
▁cogniti▁1115
on▁1116
▁emotional▁1117
▁mat▁1118
ur▁1119
▁decision▁1120
making▁1121
▁fiction▁1122
▁cold▁1123
▁genetic▁1124
right▁1125
▁walk▁1126
▁speaking▁1127
▁hold▁1128
▁exercise▁1129
▁second▁1130
▁imagine▁1131
▁without▁1132
▁theater▁1133
▁arts▁1134
▁danc▁1135
▁soccer▁1136
▁football▁1137
▁laughter▁1138
ble▁1139
ak▁1140
▁glu▁1141
▁playful▁1142
▁opposite▁1143
▁feel▁1144
▁guilt▁1145
▁colleague▁1146
▁laughing▁1147
▁must▁1148
▁hide▁1149
▁news▁1150
▁backward▁1151
▁depression▁1152
▁improve▁1153
▁increase▁1154
▁open▁1155
▁mastery▁1156
▁key▁1157
▁motivation▁1158
ivity▁1159
▁fr▁1160
ol▁1161
▁athlete▁1162
▁ski▁1163
▁groove▁1164
▁flow▁1165
▁doctor▁1166
▁medicine▁1167
▁feeling▁1168
▁celebrat▁1169
▁quick▁1170
▁corporate▁1171
▁FedEx▁1172
▁easy▁1173
otto▁1174
▁service▁1175
▁profit▁1176
▁happi▁1177
▁fulfill▁1178
▁customer▁1179
▁dealing▁1180
▁happy▁1181
▁decisions▁1182
fe▁1183
el▁1184
▁buy▁1185
▁lead▁1186
▁decrease▁1187
▁Ge▁1188
▁Unite▁1189
▁State▁1190
▁reason▁1191
▁nothing▁1192
▁weird▁1193
▁beside▁1194
▁kick▁1195
▁Sc▁1196
ian▁1197
▁zero▁1198
▁refer▁1199
▁ask▁1200
▁marginal▁1201
▁stakeholders▁1202
▁improv▁1203
▁transparency▁1204
▁promot▁1205
direct▁1206
▁collaboration▁1207
▁encouraging▁1208
acy▁1209
▁results▁1210
focus▁1211
▁morning▁1212
▁leave▁1213
▁team▁1214
▁organize▁1215
▁o▁1216
clock▁1217
▁sounds▁1218
▁slow▁1219
▁referr▁1220
▁above▁1221
▁industry▁1222
▁enter▁1223
▁best▁1224
▁employer▁1225
▁independent▁1226
▁analysis▁1227
▁anonymous▁1228
▁employee▁1229
▁survey▁1230
▁own▁1231
▁mental▁1232
▁steps▁1233
▁finish▁1234
▁believe▁1235
▁rediscover▁1236
ever▁1237
▁used▁1238
▁enjoy▁1239
▁months▁1240
▁promotion▁1241
▁bi▁1242
king▁1243
▁book▁1244
▁game▁1245
▁leaders▁1246
▁thought▁1247
ig▁1248
ite▁1249
▁fire▁1250
▁Hey▁1251
▁trust▁1252
▁empower▁1253
leg▁1254
▁level▁1255
▁encourage▁1256
▁construct▁1257
▁criticism▁1258
▁challenge▁1259
▁authorit▁1260
▁challeng▁1261
▁always▁1262
▁done▁1263
ru▁1264
▁solutions▁1265
▁eradicat▁1266
▁fear▁1267
▁enem▁1268
▁eliminate▁1269
▁restriction▁1270
▁personal▁1271
▁instant▁1272
▁messen▁1273
ger▁1274
▁lunch▁1275
cha▁1276
ge▁1277
▁meet▁1278
▁beer▁1279
▁synerg▁1280
▁ideas▁1281
▁freedom▁1282
▁general▁1283
▁spend▁1284
▁supposed▁1285
▁miserable▁1286
▁grind▁1287
▁20▁1288
▁wake▁1289
▁unacceptabl▁1290
▁Ne▁1291
pri▁1292
em▁1293
▁summar▁1294
rising▁1295
▁seriously▁1296
▁fan▁1297
▁flame▁1298
▁share▁1299
▁success▁1300
▁worked▁1301
▁rein▁1302
vig▁1303
or▁1304
ating▁1305
▁promise▁1306
ment▁1307
▁ultimate▁1308
▁meaning▁1309
▁alone▁1310
▁Andrea▁1311
▁Schl▁1312
icher▁1313
▁build▁1314
▁measure▁1315
▁walks▁1316
▁PISA▁1317
▁test▁1318
▁global▁1319
▁measurement▁1320
▁countries▁1321
▁country▁1322
▁stack▁1323
▁systems▁1324
perform▁1325
▁radical▁1326
▁distant▁1327
▁field▁1328
▁such▁1329
▁figur▁1330
▁15-▁1331
olds▁1332
▁international▁1333
▁comparison▁1334
▁globaliz▁1335
▁usual▁1336
▁Look▁1337
▁looked▁1338
▁1960▁1339
▁proportion▁1340
▁complete▁1341
head▁1342
one▁1343
▁else▁1344
▁economic▁1345
▁draw▁1346
stand▁1347
▁1970▁1348
▁c▁1349
aught▁1350
▁1980▁1351
▁expansion▁1352
▁talent▁1353
▁pool▁1354
▁continue▁1355
▁1990▁1356
▁U▁1357
S▁1358
▁90▁1359
▁13▁1360
th▁1361
▁fallen▁1362
▁rise▁1363
▁faster▁1364
▁Korea▁1365
▁shows▁1366
▁possible▁1367
▁generations▁1368
▁Afghanistan▁1369
▁performer▁1370
▁young▁1371
▁Korean▁1372
▁improvement▁1373
▁benchmark▁1374
▁perform▁1375
▁trouble▁1376
▁measur▁1377
▁mix▁1378
▁unemploy▁1379
▁graduate▁1380
▁streets▁1381
▁while▁1382
▁automatic▁1383
▁translate▁1384
▁jobs▁1385
▁direct▁1386
ok▁1387
▁angle▁1388
▁less▁1389
▁interest▁1390
▁whe▁1391
▁student▁1392
▁simpl▁1393
▁reproduce▁1394
▁extra▁1395
pol▁1396
▁novel▁1397
▁situations▁1398
▁criticize▁1399
▁outcome▁1400
▁terribl▁1401
▁unfair▁1402
▁logic▁1403
▁prepared▁1404
▁technologies▁1405
▁invent▁1406
▁solve▁1407
▁anticipate▁1408
▁once▁1409
▁contest▁1410
▁late▁1411
▁assessment▁1412
▁2009▁1413
▁74▁1414
▁cover▁1415
▁87▁1416
▁chart▁1417
▁performance▁1418
▁below▁1419
▁yellow▁1420
so▁1421
▁green▁1422
▁Shanghai▁1423
▁Singapore▁1424
▁Asia▁1425
▁Fin▁1426
land▁1427
▁Canad▁1428
a▁1429
▁North▁1430
▁Chile▁1431
▁gap▁1432
▁seven▁1433
▁include▁1434
▁difference▁1435
▁introduce▁1436
▁dimension▁1437
▁educator▁1438
▁equit▁1439
▁deliver▁1440
▁ensu▁1441
▁background▁1442
▁equal▁1443
▁chance▁1444
▁impact▁1445
▁strong▁1446
▁opportunities▁1447
▁unequal▁1448
▁distribute▁1449
▁children▁1450
▁waste▁1451
▁matters▁1452
▁born▁1453
▁upper▁1454
▁quad▁1455
ran▁1456
▁afford▁1457
▁large▁1458
▁disparit▁1459
▁debate▁1460
▁price▁1461
▁focus▁1462
▁accept▁1463
▁mediocr▁1464
▁combin▁1465
▁excellence▁1466
▁lesson▁1467
▁compromise▁1468
▁achieve▁1469
▁challenges▁1470
▁paradigm▁1471
▁main▁1472
▁since▁1473
▁policy▁1474
makers▁1475
▁researcher▁1476
▁behind▁1477
giving▁1478
▁bubble▁1479
▁proportional▁1480
▁amount▁1481
▁money▁1482
▁spen▁1483
▁quality▁1484
▁variation▁1485
▁among▁1486
▁Luxemb▁1487
our▁1488
▁expensive▁1489
▁particular▁1490
▁similar▁1491
▁finding▁1492
▁divide▁1493
educate▁1494
▁badly▁1495
▁detail▁1496
▁wealth▁1497
▁pay▁1498
▁teacher▁1499
▁invest▁1500
▁teaching▁1501
▁profession▁1502
▁days▁1503
▁costs▁1504
▁least▁1505
▁teach▁1506
▁answer▁1507
▁classes▁1508
▁bar▁1509
▁driving▁1510
▁list▁1511
▁exact▁1512
▁parents▁1513
▁pleasant▁1514
▁class▁1515
▁paid▁1516
▁hours▁1517
▁anything▁1518
▁2000▁1519
▁iPod▁1520
▁35▁1521
▁yourself▁1522
▁bitter▁1523
▁impressive▁1524
▁German▁1525
▁feature▁1526
▁lower▁1527
▁disappoint▁1528
▁stunn▁1529
▁public▁1530
▁dominat▁1531
▁tax▁1532
▁issue▁1533
▁center▁1534
▁began▁1535
▁respond▁1536
▁federal▁1537
▁government▁1538
▁raise▁1539
▁investment▁1540
▁immigrant▁1541
▁disadvantage▁1542
▁optimiz▁1543
▁polici▁1544
▁belief▁1545
▁underly▁1546
▁traditional▁1547
▁women▁1548
▁neglect▁1549
▁responsibilit▁1550
▁sent▁1551
▁kindergarten▁1552
▁push▁1553
▁early▁1554
▁childhood▁1555
▁pursue▁1556
▁socio▁1557
economic▁1558
▁line▁1559
▁later▁1560
▁taken▁1561
▁spectrum▁1562
▁concern▁1563
▁double▁1564
▁achiev▁1565
▁decade▁1566
▁bright▁1567
▁slight▁1568
▁direction▁1569
▁major▁1570
ha▁1571
▁Po▁1572
▁reduce▁1573
▁vari▁1574
▁Portugal▁1575
▁consol▁1576
id▁1577
▁fragment▁1578
▁H▁1579
ung▁1580
ary▁1581
▁complain▁1582
▁artifact▁1583
▁homogene▁1584
▁societies▁1585
▁conc▁1586
▁composition▁1587
▁practice▁1588
▁course▁1589
▁model▁1590
▁copy▁1591
▁past▁1592
ale▁1593
▁identifie▁1594
▁agree▁1595
▁weigh▁1596
▁priorit▁1597
▁highly▁1598
▁skill▁1599
▁child▁1600
▁lawyer▁1601
▁media▁1602
▁questions▁1603
▁convince▁1604
▁citizens▁1605
▁choice▁1606
▁consumption▁1607
▁attractive▁1608
▁shopp▁1609
▁plac▁1610
▁segregat▁1611
▁reflect▁1612
class▁1613
▁link▁1614
▁Japan▁1615
▁expect▁1616
▁succeed▁1617
▁mirror▁1618
▁behavior▁1619
▁mathematics▁1620
▁typically▁1621
▁genius▁1622
▁Japanese▁1623
▁depend▁1624
▁effort▁1625
▁ways▁1626
▁embrace▁1627
diversity▁1628
▁differentiate▁1629
ical▁1630
▁realize▁1631
▁ordinar▁1632
▁extraordinar▁1633
▁personaliz▁1634
▁ambitio▁1635
▁entire▁1636
▁require▁1637
▁successful▁1638
▁exceed▁1639
▁careful▁1640
▁recruit▁1641
▁struggl▁1642
▁frame▁1643
▁intelligent▁1644
▁pathway▁1645
bureaucratic▁1646
▁often▁1647
▁left▁1648
▁classroom▁1649
▁prescription▁1650
▁set▁1651
▁enable▁1652
▁figure▁1653
▁wisdom▁1654
▁user▁1655
generat▁1656
▁administrative▁1657
▁account▁1658
▁organization▁1659
▁goal▁1660
▁comp▁1661
li▁1662
ance▁1663
▁principal▁1664
ventive▁1665
▁provision▁1666
▁outward▁1667
▁resource▁1668
▁align▁1669
coherent▁1670
▁sustain▁1671
▁period▁1672
▁ensure▁1673
▁consistent▁1674
▁implement▁1675
▁knowing▁1676
▁limits▁1677
▁research▁1678
▁venture▁1679
▁telling▁1680
▁strength▁1681
▁powerful▁1682
▁financial▁1683
▁run▁1684
▁argue▁1685
▁changing▁1686
▁educational▁1687
▁administration▁1688
▁grave▁1689
ard▁1690
▁rely▁1691
▁excuse▁1692
▁complacen▁1693
▁meaningful▁1694
▁target▁1695
▁measurabl▁1696
▁goals▁1697
▁parent▁1698
▁sky▁1699
▁limit▁1700
▁laid▁1701
▁foundation▁1702
▁Morton▁1703
▁Bast▁1704
▁Rachel▁1705
▁Pik▁1706
▁climate▁1707
▁headline▁1708
▁4▁1709
▁minutes▁1710
▁atmospher▁1711
▁chemist▁1712
▁glimpse▁1713
▁massive▁1714
▁bold▁1715
▁her▁1716
▁contribute▁1717
taking▁1718
▁risk▁1719
▁flight▁1720
▁pursui▁1721
▁molecule▁1722
▁paper▁1723
▁air▁1724
mog▁1725
▁both▁1726
▁branches▁1727
▁recently▁1728
▁Inter▁1729
government▁1730
▁Pan▁1731
▁Climate▁1732
▁Ch▁1733
ange▁1734
P▁1735
C▁1736
▁understanding▁1737
▁writ▁1738
▁6▁1739
20▁1740
▁40▁1741
▁wrote▁1742
▁page▁1743
▁topic▁1744
▁review▁1745
▁400▁1746
plus▁1747
▁11▁1748
3▁1749
▁annual▁1750
▁gathering▁1751
▁meeting▁1752
▁15▁1753
,000▁1754
▁San▁1755
▁Francisco▁1756
▁studies▁1757
▁wide▁1758
▁variet▁1759
▁Cambridge▁1760
▁Ni▁1761
ñ▁1762
▁oscill▁1763
▁weather▁1764
imi▁1765
l▁1766
▁satellite▁1767
▁emissions▁1768
▁crop▁1769
▁produce▁1770
▁biofuel▁1771
▁each▁1772
▁Ph▁1773
D▁1774
▁narrow▁1775
▁few▁1776
op▁1777
ne▁1778
▁organic▁1779
▁heard▁1780
▁weight▁1781
▁900▁1782
ze▁1783
ta▁1784
▁21▁1785
▁atmosphere▁1786
thane▁1787
▁length▁1788
▁blow▁1789
▁EU▁1790
HO▁1791
E▁1792
▁S▁1793
▁Chamb▁1794
▁Spa▁1795
▁explosion▁1796
▁full▁1797
▁combusti▁1798
▁car▁1799
▁enormous▁1800
▁models▁1801
▁supercomputer▁1802
▁grid▁1803
▁boxes▁1804
▁calculating▁1805
▁variable▁1806
▁minute▁1807
scale▁1808
▁integration▁1809
▁dozen▁1810
▁understand▁1811
▁join▁1812
▁campaign▁1813
▁Malaysia▁1814
ow▁1815
▁middle▁1816
▁hung▁1817
▁dollars▁1818
▁worth▁1819
▁equip▁1820
▁tower▁1821
rought▁1822
▁aircraft▁1823
▁plane▁1824
▁B▁1825
A▁1826
14▁1827
6▁1828
AA▁1829
▁flies▁1830
▁120▁1831
▁130▁1832
▁flying▁1833
▁meter▁1834
▁canopy▁1835
▁dangerous▁1836
▁inclin▁1837
▁military▁1838
▁pilot▁1839
▁maneuver▁1840
▁bank▁1841
▁force▁1842
▁harness▁1843
▁board▁1844
▁vacation▁1845
▁chemistr▁1846
▁write▁1847
▁subject▁1848
section▁1849
ub▁1850
▁chapter▁1851
▁ten▁1852
▁tag▁1853
▁non▁1854
cientific▁1855
▁audience▁1856
▁journalist▁1857
▁makers▁1858
▁Christopher▁1859
Charm▁1860
▁neuroscientist▁1861
▁inventor▁1862
▁demonstrate▁1863
▁fMRI▁1864
▁pain▁1865
▁words▁1866
▁Hi▁1867
▁royal▁1868
▁mimic▁1869
▁program▁1870
▁muscle▁1871
▁arm▁1872
▁lab▁1873
▁generation▁1874
▁possibilit▁1875
▁envision▁1876
▁spaceship▁1877
▁shrink▁1878
▁inject▁1879
▁blood▁1880
stream▁1881
▁attack▁1882
▁cells▁1883
▁arteries▁1884
▁Peter▁1885
invasive▁1886
▁MRI▁1887
▁anatomy▁1888
▁literally▁1889
▁moves▁1890
▁spot▁1891
▁interface▁1892
▁function▁1893
▁electrode▁1894
▁im▁1895
aging▁1896
▁scanner▁1897
▁collapse▁1898
▁millisecond▁1899
▁allow▁1900
▁65▁1901
▁point▁1902
▁activat▁1903
▁pattern▁1904
▁therapist▁1905
▁couch▁1906
▁pill▁1907
▁knife▁1908
▁fourth▁1909
▁alternative▁1910
▁channel▁1911
▁minds▁1912
▁chronic▁1913
▁burn▁1914
▁pull▁1915
▁circuits▁1916
▁produc▁1917
▁3▁1918
▁information▁1919
▁flex▁1920
ep▁1921
▁patient▁1922
▁shock▁1923
▁person▁1924
▁release▁1925
ogen▁1926
pi▁1927
▁display▁1928
▁investigation▁1929
▁clinical▁1930
▁trial▁1931
▁44▁1932
▁64▁1933
▁Matrix▁1934
▁aspect▁1935
▁experience▁1936
▁Be▁1937
eb▁1938
▁Kid▁1939
▁shared▁1940
▁film▁1941
▁movie▁1942
▁power▁1943
▁narrative▁1944
▁shape▁1945
▁worldview▁1946
▁British▁1947
▁director▁1948
▁invoke▁1949
▁scene▁1950
▁Mir▁1951
le▁1952
▁Milan▁1953
▁Boy▁1954
z▁1955
▁Hoo▁1956
I▁1957
L▁1958
B▁1959
▁films▁1960
▁evidence▁1961
▁suggest▁1962
▁cultures▁1963
▁identit▁1964
▁mother▁1965
▁daughter▁1966
▁preach▁1967
▁con▁1968
gan▁1969
▁pup▁1970
▁storyteller▁1971
▁cave▁1972
▁paintings▁1973
▁histories▁1974
▁par▁1975
▁f▁1976
te▁1977
rate▁1978
▁increasing▁1979
▁secular▁1980
▁offer▁1981
▁communal▁1982
media▁1983
▁furious▁1984
▁consumer▁1985
▁moral▁1986
▁code▁1987
part▁1988
▁cinema▁1989
▁argu▁1990
ably▁1991
▁century▁1992
▁influen▁1993
tial▁1994
▁art▁1995
▁artist▁1996
▁boundar▁1997
▁language▁1998
▁ge▁1999
▁philosoph▁2000
deed▁2001
▁tackle▁2002
▁during▁2003
▁vast▁2004
▁Hollywood▁2005
▁block▁2006
buster▁2007
▁die▁2008
▁sensation▁2009
▁king▁2010
▁common▁2011
ified▁2012
▁filmmaker▁2013
▁worrie▁2014
▁God▁2015
▁grasp▁2016
▁iron▁2017
▁palpabl▁2018
▁technical▁2019
▁access▁2020
▁cultural▁2021
aker▁2022
▁2006▁2023
▁ran▁2024
▁screen▁2025
▁discussion▁2026
▁rest▁2027
▁rural▁2028
▁ham▁2029
let▁2030
▁project▁2031
▁DVD▁2032
▁onto▁2033
▁25▁2034
▁club▁2035
K▁2036
▁18▁2037
ter▁2038
up▁2039
▁curate▁2040
ual▁2041
▁gre▁2042
▁choose▁2043
▁riches▁2044
▁immediate▁2045
▁profound▁2046
▁transformative▁2047
▁discover▁2048
▁names▁2049
▁wish▁2050
▁195▁2051
1▁2052
▁Vi▁2053
tor▁2054
io▁2055
▁De▁2056
ica▁2057
▁remarkable▁2058
▁comment▁2059
▁slums▁2060
▁poverty▁2061
▁aspiration▁2062
▁occasion▁2063
▁father▁2064
▁50▁2065
▁birthday▁2066
▁meant▁2067
▁print▁2068
▁projection▁2069
ist▁2070
▁importan▁2071
ce▁2072
▁vision▁2073
▁chose▁2074
▁celebrate▁2075
century▁2076
▁teenage▁2077
▁30▁2078
▁hope▁2079
▁shot▁2080
▁slum▁2081
well▁2082
▁float▁2083
ward▁2084
room▁2085
▁Si▁2086
x▁2087
▁tilt▁2088
▁awe▁2089
▁match▁2090
▁mine▁2091
▁speed▁2092
▁associate▁2093
▁Slum▁2094
do▁2095
▁Million▁2096
air▁2097
▁favela▁2098
▁Rio▁2099
▁endur▁2100
▁season▁2101
▁democracy▁2102
▁Mr▁2103
▁Smith▁2104
▁Go▁2105
▁Washington▁2106
▁193▁2107
9▁2108
▁older▁2109
▁members▁2110
▁grandparents▁2111
▁Frank▁2112
▁Cap▁2113
▁classic▁2114
▁independen▁2115
▁propriet▁2116
▁heroic▁2117
▁awkward▁2118
▁expression▁2119
▁faith▁2120
▁political▁2121
▁machine▁2122
▁honor▁2123
came▁2124
night▁2125
ili▁2126
▁House▁2127
▁Lord▁2128
▁delight▁2129
▁def▁2130
▁bed▁2131
time▁2132
▁principle▁2133
▁Jim▁2134
▁Stewart▁2135
▁choosing▁2136
▁Hotel▁2137
▁Rwanda▁2138
▁genocide▁2139
▁brutal▁2140
▁provoke▁2141
▁tear▁2142
ci▁2143
arm▁2144
▁peace▁2145
ke▁2146
de▁2147
▁Western▁2148
▁commoditi▁2149
▁Sch▁2150
ind▁2151
ler▁2152
▁Lis▁2153
▁demand▁2154
▁consciousness▁2155
▁remark▁2156
▁We▁2157
wise▁2158
pock▁2159
▁dis▁2160
ise▁2161
▁Sir▁2162
▁Love▁2163
▁attitude▁2164
▁toward▁2165
white▁2166
▁Brit▁2167
rail▁2168
▁collective▁2169
▁unlike▁2170
ney▁2171
iti▁2172
▁tut▁2173
lage▁2174
▁thoughtful▁2175
▁opinion▁2176
▁curious▁2177
▁tack▁2178
▁subtitle▁2179
▁documentar▁2180
ative▁2181
▁fantasy▁2182
▁writing▁2183
▁compet▁2184
▁favor▁2185
▁passionate▁2186
▁sophisticated▁2187
▁pro▁2188
▁v▁2189
▁near▁2190
▁quarter▁2191
▁7,000▁2192
▁numbers▁2193
▁manner▁2194
▁held▁2195
▁Per▁2196
polis▁2197
▁Iranian▁2198
▁boy▁2199
▁articulate▁2200
▁violence▁2201
▁killed▁2202
▁latter▁2203
board▁2204
▁boat▁2205
▁journey▁2206
▁wrong▁2207
▁condition▁2208
▁hidden▁2209
▁tsunami▁2210
▁fle▁2211
▁themselves▁2212
unt▁2213
▁wonderful▁2214
▁bare▁2215
foot▁2216
▁Mountain▁2217
▁cop▁2218
▁robb▁2219
quite▁2220
▁194▁2221
8▁2222
▁sister▁2223
▁travel▁2224
▁Israel▁2225
▁sail▁2226
ors▁2227
mut▁2228
ini▁2229
▁teenager▁2230
▁fed▁2231
▁crew▁2232
▁mentioned▁2233
▁hurry▁2234
▁husband▁2235
▁diamond▁2236
▁sew▁2237
▁skirt▁2238
▁hid▁2239
▁grandfather▁2240
▁appear▁2241
▁London▁2242
▁h▁2243
ush▁2244
▁England▁2245
▁clean▁2246
▁slate▁2247
▁silence▁2248
▁Anne▁2249
▁Great▁2250
scape▁2251
▁Sho▁2252
ah▁2253
▁Triumph▁2254
▁Will▁2255
▁Len▁2256
i▁2257
▁R▁2258
ief▁2259
ahl▁2260
▁elegant▁2261
▁Nazi▁2262
ropaganda▁2263
▁gav▁2264
▁hurt▁2265
▁loud▁2266
▁useful▁2267
▁whisper▁2268
▁survivor▁2269
▁occasional▁2270
▁tattoo▁2271
▁maid▁2272
▁wrist▁2273
▁Pur▁2274
▁dissipate▁2275
▁quest▁2276
▁crude▁2277
▁complex▁2278
▁serve▁2279
▁drama▁2280
▁lie▁2281
▁12-▁2282
▁Wi▁2283
▁Oz▁2284
▁unles▁2285
▁heart▁2286
▁passion▁2287
▁Citizen▁2288
▁Kan▁2289
▁valuable▁2290
▁Jane▁2291
▁Aust▁2292
▁brick▁2293
▁wall▁2294
▁okay▁2295
▁Tom▁2296
ank▁2297
▁astronaut▁2298
▁Ben▁2299
▁King▁2300
ley▁2301
▁super▁2302
im▁2303
po▁2304
▁Gandhi▁2305
▁Eve▁2306
▁Har▁2307
ington▁2308
▁Howard▁2309
▁Mil▁2310
▁Pier▁2311
▁opportunity▁2312
▁helpful▁2313
▁Shakespeare▁2314
▁illuminat▁2315
▁Elizabeth▁2316
literatur▁2317
▁engage▁2318
▁inspire▁2319
▁participat▁2320
▁foresee▁2321
▁confidence▁2322
▁academic▁2323
▁achievement▁2324
▁On▁2325
u▁2326
ant▁2327
▁playground▁2328
definition▁2329
▁ambition▁2330
▁appetit▁2331
▁engagement▁2332
▁witness▁2333
▁bin▁2334
▁description▁2335
▁describe▁2336
fer▁2337
▁nor▁2338
ically▁2339
ab▁2340
▁negotiat▁2341
▁infinite▁2342
▁surprised▁2343
▁behaviors▁2344
▁tick▁2345
▁shoes▁2346
▁acquisition▁2347
▁essential▁2348
▁component▁2349
▁impossibl▁2350
▁Re▁2351
▁Wind▁2352
▁gaze▁2353
▁building▁2354
▁door▁2355
▁tools▁2356
▁Cha▁2357
tro▁2358
▁whistleblower▁2359
▁champion▁2360
▁whistle▁2361
▁whims▁2362
▁A▁2363
▁Ho▁2364
h▁2365
off▁2366
ê▁2367
▁la▁2368
▁Bell▁2369
▁fascinating▁2370
▁inter▁2371
lude▁2372
▁talks▁2373
▁him▁2374
▁craft▁2375
▁whistl▁2376
▁English▁2377
ubb▁2378
▁curl▁2379
hai▁2380
▁Holland▁2381
#▁2382
91▁2383
93;▁2384
▁four▁2385
▁dad▁2386
▁communication▁2387
▁34▁2388
▁annoy▁2389
▁irrit▁2390
▁honest▁2391
▁bike▁2392
▁Christmas▁2393
▁party▁2394
law▁2395
▁Ru▁2396
ph▁2397
▁Red▁2398
N▁2399
▁Rein▁2400
▁dinner▁2401
▁annoying▁2402
▁Pleas▁2403
▁wine▁2404
▁admit▁2405
▁receive▁2406
▁text▁2407
▁Google▁2408
▁World▁2409
▁Wh▁2410
Champion▁2411
ship▁2412
▁lost▁2413
▁correct▁2414
▁Dutch▁2415
▁Louis▁2416
burg▁2417
▁Carolina▁2418
outheast▁2419
▁championship▁2420
4▁2421
▁defend▁2422
▁title▁2423
ju▁2424
as▁2425
5▁2426
▁participate▁2427
▁2008▁2428
▁Tokyo▁2429
▁Rotterdam▁2430
▁city▁2431
▁stage▁2432
▁earn▁2433
▁quit▁2434
▁nurse▁2435
▁dream▁2436
▁Hu▁2437
▁track▁2438
▁80▁2439
▁rehearse▁2440
▁tone▁2441
▁promis▁2442
▁technician▁2443
▁ha▁2444
▁myself▁2445
▁solo▁2446
▁propose▁2447
▁Max▁2448
▁West▁2449
man▁2450
▁Shaw▁2451
▁dry▁2452
▁demo▁2453
▁Ultra▁2454
ver▁2455
▁Dr▁2456
▁liquid▁2457
p▁2458
ellen▁2459
▁coat▁2460
▁act▁2461
▁astonishing▁2462
▁shield▁2463
base▁2464
▁materials▁2465
▁nano▁2466
▁spray▁2467
▁umbrella▁2468
▁bounce▁2469
minute▁2470
available▁2471
▁rethink▁2472
proof▁2473
der▁2474
▁nanotechnolog▁2475
▁applie▁2476
hydr▁2477
phobi▁2478
co▁2479
▁por▁2480
▁absorb▁2481
more▁2482
rous▁2483
▁drop▁2484
▁round▁2485
▁hydro▁2486
▁fresh▁2487
▁wax▁2488
▁windshield▁2489
▁110▁2490
▁175▁2491
▁demonstration▁2492
▁pair▁2493
▁glove▁2494
science▁2495
▁occurr▁2496
▁atoms▁2497
▁nanometer▁2498
▁thick▁2499
▁50,000▁2500
▁wid▁2501
▁concrete▁2502
▁paint▁2503
▁mud▁2504
▁refine▁2505
▁oil▁2506
▁afr▁2507
aid▁2508
▁fill▁2509
▁rough▁2510
rag▁2511
▁smooth▁2512
ti▁2513
▁spaces▁2514
▁reach▁2515
▁layer▁2516
▁hit▁2517
gli▁2518
des▁2519
▁silver▁2520
▁reflectiv▁2521
▁protect▁2522
▁pad▁2523
▁application▁2524
▁excited▁2525
▁anti▁2526
we▁2527
▁certain▁2528
▁ice▁2529
osion▁2530
▁corrosi▁2531
bacterial▁2532
cle▁2533
▁revolutionize▁2534
▁Chris▁2535
▁Anderson▁2536
▁cutting▁2537
▁Design▁2538
▁...▁2539
▁manag▁2540
▁medical▁2541
▁Thu▁2542
Hu▁2543
ong▁2544
▁Dan▁2545
▁Ariel▁2546
▁bugg▁2547
▁behavioral▁2548
▁economist▁2549
▁bug▁2550
▁OK▁2551
▁cheat▁2552
▁steal▁2553
▁clever▁2554
▁predictabl▁2555
▁irrational▁2556
▁influence▁2557
▁hospital▁2558
▁burned▁2559
▁bother▁2560
▁department▁2561
▁Band▁2562
Aid▁2563
▁approach▁2564
▁rip▁2565
▁duration▁2566
▁intens▁2567
▁painful▁2568
▁ripp▁2569
▁hour▁2570
▁hat▁2571
▁minimize▁2572
▁word▁2573
▁suggestion▁2574
▁interfere▁2575
▁Hebr▁2576
ew▁2577
kept▁2578
▁university▁2579
▁experimental▁2580
▁method▁2581
▁replica▁2582
▁abstract▁2583
▁examine▁2584
▁original▁2585
▁hardware▁2586
▁store▁2587
ought▁2588
▁carpenter▁2589
▁vice▁2590
▁crunch▁2591
▁version▁2592
▁fund▁2593
▁electrical▁2594
▁suit▁2595
▁intention▁2596
▁plent▁2597
▁encode▁2598
▁legs▁2599
▁trend▁2600
▁mistakes▁2601
▁stock▁2602
▁market▁2603
▁situation▁2604
▁explode▁2605
▁sudden▁2606
▁apple▁2607
▁decided▁2608
▁experiment▁2609
▁sheet▁2610
▁Pass▁2611
▁dollar▁2612
▁tempt▁2613
▁pocket▁2614
▁backpack▁2615
▁theory▁2616
▁cost▁2617
ben▁2618
fi▁2619
▁probabilit▁2620
▁gain▁2621
▁punishment▁2622
▁option▁2623
▁decide▁2624
▁worthwhile▁2625
▁commit▁2626
▁cent▁2627
▁table▁2628
▁shredd▁2629
▁bowl▁2630
sensitive▁2631
▁incentive▁2632
▁rational▁2633
▁explanation▁2634
▁low▁2635
▁impression▁2636
▁initial▁2637
▁recall▁2638
▁books▁2639
▁read▁2640
▁Commandment▁2641
▁sample▁2642
▁religious▁2643
▁stopp▁2644
lar▁2645
▁atheist▁2646
▁swear▁2647
▁Bible▁2648
▁sign▁2649
▁falls▁2650
▁MIT▁2651
▁Honor▁2652
▁Code▁2653
▁walked▁2654
pack▁2655
▁Coke▁2656
▁refrigerator▁2657
grad▁2658
life▁2659
▁contrast▁2660
dollar▁2661
▁bill▁2662
▁disappear▁2663
▁third▁2664
▁Experiment▁2665
ken▁2666
▁12▁2667
▁exchange▁2668
▁intuition▁2669
▁pencil▁2670
▁compare▁2671
▁pet▁2672
▁cash▁2673
▁remove▁2674
▁element▁2675
▁examples▁2676
▁cause▁2677
paid▁2678
▁envelope▁2679
▁stoo▁2680
▁actor▁2681
▁sweat▁2682
shirt▁2683
▁wear▁2684
▁Carnegie▁2685
▁Mello▁2686
▁Pittsburgh▁2687
▁universit▁2688
▁University▁2689
Y▁2690
ou▁2691
▁norm▁2692
▁somebod▁2693
group▁2694
▁appropriate▁2695
▁awareness▁2696
▁remind▁2697
▁moralit▁2698
▁object▁2699
▁reality▁2700
▁distort▁2701
▁derivative▁2702
▁mortgage▁2703
back▁2704
▁se▁2705
▁economics▁2706
▁private▁2707
▁No▁2708
▁Child▁2709
▁Left▁2710
▁Behind▁2711
▁remov▁2712
▁consideration▁2713
▁Of▁2714
▁repeated▁2715
▁torture▁2716
felt▁2717
▁Give▁2718
▁check▁2719
▁willing▁2720
▁systematic▁2721
▁McG▁2722
▁multi▁2723
play▁2724
▁thumb▁2725
wrestl▁2726
▁connect▁2727
▁chaos▁2728
ultiplayer▁2729
▁player▁2730
▁joy▁2731
▁relief▁2732
▁pride▁2733
▁curiosity▁2734
▁excitement▁2735
▁content▁2736
▁span▁2737
▁volunteer▁2738
stage▁2739
▁Austria▁2740
▁named▁2741
▁Mo▁2742
noch▁2743
person▁2744
▁Sunni▁2745
▁declare▁2746
▁war▁2747
▁wrestle▁2748
▁beat▁2749
▁Eric▁2750
▁pin▁2751
▁someone▁2752
wo▁2753
▁Ah▁2754
▁rule▁2755
▁typical▁2756
▁node▁2757
▁notice▁2758
▁involve▁2759
▁perfect▁2760
▁closed▁2761
▁1,500▁2762
▁connected▁2763
▁-▁2764
▁Thi▁2765
▁slides▁2766
▁advance▁2767
▁configuration▁2768
▁D▁2769
eath▁2770
▁Star▁2771
▁Con▁2772
figur▁2773
▁War▁2774
▁M▁2775
ö▁2776
bi▁2777
trip▁2778
▁geek▁2779
▁hardest▁2780
▁thirty▁2781
▁network▁2782
▁easi▁2783
▁free▁2784
▁sure▁2785
▁keep▁2786
▁excellen▁2787
▁bask▁2788
▁glow▁2789
▁recap▁2790
▁What▁2791
▁surprising▁2792
while▁2793
▁physical▁2794
▁shake▁2795
▁smiling▁2796
▁send▁2797
▁messages▁2798
▁email▁2799
tally▁2800
▁awesome▁2801
▁connection▁2802
▁hormone▁2803
xytocin▁2804
▁bond▁2805
▁biochemical▁2806
▁prime▁2807
▁emotion▁2808
▁scratch▁2809
▁congratulat▁2810
▁according▁2811
▁official▁2812
▁rules▁2813
▁grandmaster▁2814
▁accelerate▁2815
▁ches▁2816
▁ready▁2817
▁update▁2818
▁Twitter▁2819
▁Facebook▁2820
▁status▁2821
▁legendar▁2822
▁attention▁2823
▁weak▁2824
▁crazy▁2825
▁wo▁2826
▁Tod▁2827
▁Mach▁2828
over▁2829
+▁2830
▁unlock▁2831
▁Media▁2832
▁Lab▁2833
▁devoted▁2834
▁extend▁2835
▁virtuo▁2836
▁amateur▁2837
▁diverse▁2838
▁opera▁2839
▁games▁2840
▁composer▁2841
▁deal▁2842
▁means▁2843
▁Mozart▁2844
▁effect▁2845
ut▁2846
Q▁2847
▁add▁2848
▁engaged▁2849
▁hyper▁2850
instrument▁2851
▁Ma▁2852
▁Gabriel▁2853
▁Prince▁2854
▁orchestra▁2855
▁built▁2856
▁interpretation▁2857
▁cell▁2858
▁voice▁2859
▁fantastic▁2860
▁collection▁2861
▁Brain▁2862
▁Opera▁2863
▁natural▁2864
▁gesture▁2865
▁masse▁2866
▁melod▁2867
ura▁2868
▁invite▁2869
▁collaborate▁2870
▁tour▁2871
▁permanent▁2872
▁museum▁2873
▁led▁2874
▁guitar▁2875
▁Her▁2876
▁proof▁2877
▁iceberg▁2878
▁Guitar▁2879
▁communicate▁2880
▁effects▁2881
▁Hyper▁2882
▁broader▁2883
▁fields▁2884
▁Oliver▁2885
ack▁2886
▁Music▁2887
phil▁2888
ia▁2889
▁sale▁2890
▁bookstore▁2891
▁pianist▁2892
self▁2893
▁details▁2894
▁observ▁2895
▁unusual▁2896
▁instance▁2897
▁Alzheimer▁2898
▁recognize▁2899
▁anyone▁2900
▁jump▁2901
▁chair▁2902
▁personalit▁2903
▁restore▁2904
▁stroke▁2905
▁movement▁2906
▁Parkinson▁2907
▁disease▁2908
▁schizophreni▁2909
▁Boston▁2910
wksb▁2911
ury▁2912
▁Hospital▁2913
term▁2914
▁disabilit▁2915
▁central▁2916
▁treatment▁2917
▁clam▁2918
▁seem▁2919
▁brings▁2920
▁manipulat▁2921
▁paradoxical▁2922
▁nervous▁2923
sharing▁2924
haps▁2925
▁deeper▁2926
▁outside▁2927
▁Power▁2928
▁larger▁2929
▁man▁2930
▁forever▁2931
▁download▁2932
▁singer▁2933
▁character▁2934
▁leg▁2935
▁alive▁2936
▁giganti▁2937
handel▁2938
ier▁2939
▁prototype▁2940
▁piano▁2941
▁string▁2942
▁bow▁2943
▁propell▁2944
▁tickle▁2945
▁acoustic▁2946
▁signals▁2947
▁vibrat▁2948
▁army▁2949
▁robots▁2950
ry▁2951
▁Simon▁2952
▁Greek▁2953
cho▁2954
▁observe▁2955
▁action▁2956
Bot▁2957
▁smart▁2958
▁bump▁2959
▁snap▁2960
▁cube▁2961
▁System▁2962
▁walls▁2963
▁represent▁2964
▁LED▁2965
▁spine▁2966
▁James▁2967
▁Mad▁2968
dale▁2969
▁sneak▁2970
▁preview▁2971
▁premi▁2972
▁Mona▁2973
▁September▁2974
▁online▁2975
▁grand▁2976
cell▁2977
▁squeez▁2978
▁stay▁2979
▁Adam▁2980
lange▁2981
▁thanks▁2982
▁Bomba▁2983
▁Fl▁2984
ex▁2985
je▁2986
▁resident▁2987
ray▁2988
▁motivate▁2989
▁hi▁2990
▁hello▁2991
▁name▁2992
erebral▁2993
▁pal▁2994
▁conduct▁2995
▁software▁2996
▁met▁2997
▁shy▁2998
▁constant▁2999
▁collaborator▁3000
▁CD▁3001
▁mentor▁3002
▁local▁3003
▁expert▁3004
▁nuance▁3005
▁precis▁3006
▁disability▁3007
▁engineering▁3008
▁solution▁3009
▁Fire▁3010
W▁3011
ire▁3012
▁infrar▁3013
▁metaphor▁3014
▁input▁3015
▁cod▁3016
▁shoulder▁3017
▁extensive▁3018
▁expressive▁3019
▁motion▁3020
▁convey▁3021
▁parameter▁3022
▁fit▁3023
▁stretch▁3024
▁shift▁3025
▁express▁3026
▁relationship▁3027
▁lack▁3028
▁technological▁3029
▁sphere▁3030
▁path▁3031
▁TM▁3032
▁My▁3033
▁Eagle▁3034
▁Song▁3035
▁score▁3036
▁compose▁3037
▁fast▁3038
▁modest▁3039
▁section▁3040
▁bang▁3041
▁analyze▁3042
▁visual▁3043
▁literal▁3044
▁trac▁3045
▁graphic▁3046
▁precise▁3047
▁discipline▁3048
▁hearing▁3049
▁AB▁3050
▁yea▁3051
▁Byr▁3052
▁architecture▁3053
▁evolve▁3054
▁CB▁3055
G▁3056
▁Hall▁3057
venue▁3058
▁outdoor▁3059
▁drum▁3060
▁Wagner▁3061
▁arena▁3062
▁remarkabl▁3063
ev▁3064
▁Head▁3065
▁anyway▁3066
)▁3067
▁So▁3068
▁lyric▁3069
▁decent▁3070
▁reverberat▁3071
▁intact▁3072
▁To▁3073
ot▁3074
sie▁3075
▁Or▁3076
chi▁3077
▁Lo▁3078
▁Nash▁3079
ville▁3080
▁client▁3081
▁volume▁3082
▁overcom▁3083
▁fall▁3084
▁shout▁3085
▁nice▁3086
▁Disney▁3087
▁sometimes▁3088
▁hall▁3089
▁specific▁3090
▁Africa▁3091
▁popular▁3092
▁roots▁3093
▁intricate▁3094
▁confus▁3095
▁amp▁3096
ification▁3097
▁etc▁3098
▁accident▁3099
▁mess▁3100
▁cathedral▁3101
▁flatter▁3102
▁Bach▁3103
▁dissonance▁3104
▁17▁3105
70▁3106
ber▁3107
▁La▁3108
7▁3109
▁yell▁3110
▁eat▁3111
▁drink▁3112
ria▁3113
▁hol▁3114
▁bomb▁3115
▁pit▁3116
▁fair▁3117
▁Alex▁3118
▁Ross▁3119
▁New▁3120
orker▁3121
▁quiet▁3122
▁eating▁3123
▁gossip▁3124
▁combine▁3125
▁drown▁3126
ural▁3127
▁Bob▁3128
▁Dylan▁3129
▁jazz▁3130
▁Scott▁3131
▁Jo▁3132
plin▁3133
▁river▁3134
boat▁3135
▁nois▁3136
▁dancer▁3137
▁Play▁3138
▁improvise▁3139
▁Latin▁3140
▁primary▁3141
▁microphone▁3142
▁musician▁3143
▁radio▁3144
ina▁3145
tra▁3146
▁mic▁3147
▁Baker▁3148
▁ear▁3149
▁electric▁3150
▁diver▁3151
▁disco▁3152
que▁3153
box▁3154
▁bars▁3155
▁hip▁3156
hop▁3157
▁loop▁3158
▁stadium▁3159
basketball▁3160
▁hockey▁3161
▁medium▁3162
speed▁3163
▁ball▁3164
tempo▁3165
▁automobile▁3166
▁frequenc▁3167
▁ba▁3168
▁stuck▁3169
▁MP▁3170
▁presum▁3171
▁Christian▁3172
▁African▁3173
▁blast▁3174
▁passage▁3175
▁pop▁3176
▁exten▁3177
▁creation▁3178
▁adaptation▁3179
▁anywhere▁3180
▁Attenborough▁3181
▁birds▁3182
▁fo▁3183
tched▁3184
▁repetiti▁3185
▁forest▁3186
▁Sa▁3187
van▁3188
▁spa▁3189
row▁3190
▁buzz▁3191
▁efficient▁3192
▁practical▁3193
▁transmit▁3194
▁savanna▁3195
▁tan▁3196
ang▁3197
▁East▁3198
▁Coast▁3199
▁den▁3200
▁primari▁3201
▁galler▁3202
▁evolutionary▁3203
▁adaptive▁3204
▁pleasure▁3205
▁reverse▁3206
▁Roman▁3207
▁vessel▁3208
▁pour▁3209
▁instinctive▁3210
▁intuitive▁3211
▁conflict▁3212
▁views▁3213
▁writer▁3214
▁Thom▁3215
▁voter▁3216
▁vote▁3217
▁assume▁3218
▁gut▁3219
▁authentic▁3220
▁fake▁3221
▁mutual▁3222
▁exclusive▁3223
▁needs▁3224
▁Ron▁3225
▁Ed▁3226
▁Iran▁3227
▁March▁3228
▁14▁3229
▁post▁3230
▁poster▁3231
▁image▁3232
▁Israeli▁3233
▁flag▁3234
▁grocer▁3235
▁owner▁3236
▁10,000▁3237
▁missile▁3238
▁designer▁3239
▁sleep▁3240
▁night▁3241
▁woke▁3242
▁wa▁3243
▁neighbor▁3244
▁girl▁3245
▁cry▁3246
▁wife▁3247
reflex▁3248
▁shoot▁3249
▁unleash▁3250
▁du▁3251
▁Make▁3252
▁intense▁3253
▁designers▁3254
▁lots▁3255
▁spread▁3256
way▁3257
▁ver▁3258
▁Middle▁3259
▁Okay▁3260
ich▁3261
▁asking▁3262
▁Who▁3263
nna▁3264
▁Palestine▁3265
▁Syria▁3266
▁Leban▁3267
▁Chinese▁3268
▁popp▁3269
▁logo▁3270
ov▁3271
Israel▁3272
ehran▁3273
▁dedicat▁3274
▁friend▁3275
typing▁3276
,8▁3277
▁photos▁3278
▁perceive▁3279
membran▁3280
▁soldier▁3281
▁putting▁3282
▁respect▁3283
▁compassion▁3284
▁Mu▁3285
position▁3286
▁France▁3287
▁arrive▁3288
▁stress▁3289
▁Not▁3290
▁plus▁3291
/▁3292
▁minus▁3293
▁aggressiv▁3294
▁amazing▁3295
▁41▁3296
▁naive▁3297
eah▁3298
▁flowers▁3299
▁para▁3300
▁courage▁3301
▁inevitabl▁3302
▁avoid▁3303
▁es▁3304
pecial▁3305
▁ambassador▁3306
▁Charles▁3307
▁Moore▁3308
▁seas▁3309
▁plastic▁3310
gali▁3311
▁Marine▁3312
esearch▁3313
▁Foundation▁3314
▁Gar▁3315
▁Pat▁3316
▁endless▁3317
▁floating▁3318
▁trash▁3319
▁drawing▁3320
▁chok▁3321
▁debri▁3322
ounce▁3323
▁ethic▁3324
▁Depression▁3325
▁II▁3326
▁production▁3327
▁capacity▁3328
▁products▁3329
▁Magazine▁3330
▁announc▁3331
▁introduction▁3332
▁throwaway▁3333
▁liberat▁3334
wi▁3335
▁dr▁3336
ud▁3337
▁dishe▁3338
▁biodegrad▁3339
▁recycle▁3340
five▁3341
percent▁3342
▁recover▁3343
▁stream▁3344
point▁3345
qua▁3346
▁melt▁3347
▁pur▁3348
▁glass▁3349
▁metal▁3350
▁contaminant▁3351
▁sp▁3352
▁thermal▁3353
▁pellet▁3354
track▁3355
▁fraction▁3356
▁accumulation▁3357
▁Bio▁3358
Creek▁3359
▁L▁3360
▁airport▁3361
flo▁3362
sam▁3363
▁California▁3364
▁Long▁3365
▁Beach▁3366
▁diese▁3367
▁plant▁3368
▁visit▁3369
▁yester▁3370
▁spite▁3371
▁deposit▁3372
▁fee▁3373
▁leading▁3374
▁bottle▁3375
▁present▁3376
▁Jordan▁3377
▁document▁3378
▁mass▁3379
▁zoom▁3380
▁remote▁3381
▁island▁3382
ory▁3383
▁coast▁3384
▁Ba▁3385
ja▁3386
▁Ro▁3387
habi▁3388
▁bird▁3389
▁populate▁3390
▁poly▁3391
len▁3392
ht▁3393
hal▁3394
▁PET▁3395
▁sink▁3396
▁seawater▁3397
▁civilization▁3398
▁separate▁3399
▁factories▁3400
pro▁3401
▁unfortunate▁3402
▁trace▁3403
▁straight▁3404
▁current▁3405
▁latitude▁3406
bo▁3407
▁Luca▁3408
▁Eastern▁3409
▁litt▁3410
▁Philippine▁3411
▁emerg▁3412
▁zone▁3413
▁Gyr▁3414
lbatross▁3415
▁nest▁3416
▁Kur▁3417
▁Mid▁3418
to▁3419
▁Northwest▁3420
▁Hawaii▁3421
▁Islands▁3422
▁National▁3423
▁Monument▁3424
▁scaveng▁3425
gur▁3426
gi▁3427
▁chick▁3428
month▁3429
▁stomach▁3430
ose▁3431
▁dying▁3432
▁rubb▁3433
ish▁3434
▁cigarette▁3435
▁mistake▁3436
▁retain▁3437
▁ring▁3438
▁consequences▁3439
quatic▁3440
▁zoo▁3441
per▁3442
▁Orleans▁3443
▁town▁3444
▁contribut▁3445
Up▁3446
▁Day▁3447
▁Pen▁3448
▁east▁3449
▁sw▁3450
ath▁3451
▁1,1▁3452
00▁3453
▁bucks▁3454
▁Aquarium▁3455
▁P▁3456
▁governor▁3457
▁Schwarzen▁3458
gger▁3459
▁Maria▁3460
▁discuss▁3461
▁crochet▁3462
▁bag▁3463
▁sho▁3464
oplankton▁3465
▁trawl▁3466
▁gyr▁3467
▁plankton▁3468
▁soup▁3469
▁wash▁3470
▁Ka▁3471
▁president▁3472
▁contain▁3473
▁millimeter▁3474
third▁3475
▁concentrate▁3476
▁persistent▁3477
▁pollutant▁3478
▁surrounding▁3479
▁base▁3480
▁chain▁3481
▁poison▁3482
▁ne▁3483
▁pollut▁3484
hold▁3485
and▁3486
half▁3487
▁84▁3488
▁certifi▁3489
▁sell▁3490
▁wild▁3491
▁leaving▁3492
gone▁3493
▁maintain▁3494
▁fix▁3495
▁horse▁3496
▁men▁3497
▁gather▁3498
▁narrat▁3499
▁packag▁3500
▁prolif▁3501
▁anchor▁3502
▁strain▁3503
▁budget▁3504
▁source▁3505
▁land▁3506
rapped▁3507
▁package▁3508
▁Brian▁3509
▁Night▁3510
line▁3511
▁Carol▁3512
▁Steel▁3513
▁cities▁3514
▁meal▁3515
▁architect▁3516
ily▁3517
▁miracle▁3518
▁feeding▁3519
▁ancient▁3520
▁route▁3521
▁modern▁3522
▁feed▁3523
▁rare▁3524
▁shop▁3525
▁restaurant▁3526
▁magical▁3527
▁transport▁3528
▁sold▁3529
▁cook▁3530
▁dispos▁3531
▁earth▁3532
dependent▁3533
▁ancestor▁3534
▁soybean▁3535
▁Gross▁3536
▁Brazil▁3537
▁meat▁3538
▁grain▁3539
▁globally▁3540
▁escalat▁3541
50▁3542
▁estimate▁3543
▁twice▁3544
ir▁3545
▁consume▁3546
▁urban▁3547
▁pose▁3548
▁hungry▁3549
▁carry▁3550
▁hectare▁3551
▁losing▁3552
▁equivalent▁3553
▁sa▁3554
lin▁3555
▁er▁3556
▁fossil▁3557
▁fuel▁3558
▁calorie▁3559
▁USA▁3560
▁proper▁3561
▁obes▁3562
▁star▁3563
▁none▁3564
▁trade▁3565
▁multinational▁3566
▁corporations▁3567
▁grim▁3568
▁embrac▁3569
▁unsustainabl▁3570
▁Fer▁3571
cent▁3572
▁fertil▁3573
▁invention▁3574
▁agricultur▁3575
▁bound▁3576
▁settlement▁3577
▁compact▁3578
▁surround▁3579
▁productive▁3580
▁farm▁3581
▁temple▁3582
▁Ur▁3583
▁effective▁3584
▁spiritual▁3585
▁distribution▁3586
▁gods▁3587
▁famous▁3588
▁Rome▁3589
▁import▁3590
▁roads▁3591
▁wage▁3592
▁Car▁3593
▁Egypt▁3594
▁paw▁3595
▁reserve▁3596
▁Empire▁3597
▁militari▁3598
▁mention▁3599
▁oyster▁3600
▁hinter▁3601
industrial▁3602
▁map▁3603
ham▁3604
▁south▁3605
ap▁3606
side▁3607
read▁3608
▁Street▁3609
ga▁3610
19▁3611
80▁3612
wandering▁3613
▁smell▁3614
▁port▁3615
▁establish▁3616
▁northwest▁3617
▁Scot▁3618
▁Wale▁3619
▁arriv▁3620
field▁3621
▁locate▁3622
▁po▁3623
ult▁3624
▁An▁3625
▁northeast▁3626
▁protected▁3627
▁canvas▁3628
▁eastern▁3629
▁industrial▁3630
▁clue▁3631
▁Friday▁3632
▁previous▁3633
30▁3634
aware▁3635
▁Sunday▁3636
▁mo▁3637
▁earlie▁3638
40▁3639
▁passenger▁3640
▁pig▁3641
▁sheep▁3642
▁slaughter▁3643
▁constrain▁3644
▁geograph▁3645
▁em▁3646
ip▁3647
▁blob▁3648
urg▁3649
▁cars▁3650
▁apparent▁3651
void▁3652
▁drove▁3653
▁outskirt▁3654
▁core▁3655
▁peripher▁3656
▁event▁3657
▁egg▁3658
▁cake▁3659
▁label▁3660
▁packet▁3661
▁harder▁3662
▁500▁3663
is▁3664
piece▁3665
topia▁3666
▁semi▁3667
state▁3668
▁remotely▁3669
▁farming▁3670
▁vegetable▁3671
▁garden▁3672
▁fundamental▁3673
▁Ebene▁3674
zer▁3675
▁Garden▁3676
▁City▁3677
▁metropolitan▁3678
▁railway▁3679
▁deliberate▁3680
▁joke▁3681
▁der▁3682
▁ideal▁3683
▁imagin▁3684
▁conceptual▁3685
▁tool▁3686
▁dwell▁3687
▁slide▁3688
▁dog▁3689
▁plan▁3690
▁stare▁3691
▁pile▁3692
▁raw▁3693
▁networks▁3694
▁grown▁3695
um▁3696
▁commodity▁3697
▁uns▁3698
hole▁3699
▁cows▁3700
▁steam▁3701
▁hum▁3702
ronto▁3703
▁greenhouse▁3704
▁Kev▁3705
▁reconnect▁3706
▁recogniz▁3707
▁trick▁3708
ductive▁3709
▁framework▁3710
▁symbio▁3711
culture▁3712
▁sum▁3713
con▁3714
pt▁3715
▁650▁3716
▁Am▁3717
ogi▁3718
▁Loren▁3719
▁Alle▁3720
▁Good▁3721
▁Government▁3722
▁alle▁3723
▁urgent▁3724
di▁3725
▁Kit▁3726
▁Hill▁3727
write▁3728
▁Dolby▁3729
▁Martin▁3730
▁Evan▁3731
▁Bo▁3732
ine▁3733
▁invit▁3734
▁bless▁3735
am▁3736
irstream▁3737
led▁3738
▁2002▁3739
▁American▁3740
▁trailer▁3741
▁Wilson▁3742
art▁3743
▁International▁3744
▁company▁3745
▁booth▁3746
▁exhibition▁3747
ure▁3748
▁Fair▁3749
ork▁3750
▁interior▁3751
▁furniture▁3752
▁portray▁3753
▁contemporar▁3754
erkeley▁3755
▁stepp▁3756
▁optimize▁3757
istic▁3758
▁fashion▁3759
▁disconnect▁3760
terior▁3761
▁conceive▁3762
▁lightweight▁3763
▁futurist▁3764
tech▁3765
▁freeway▁3766
▁sync▁3767
▁reference▁3768
▁ca▁3769
▁crisis▁3770
▁vocabular▁3771
▁escape▁3772
▁archeolog▁3773
▁feels▁3774
▁utilit▁3775
▁stripped▁3776
▁vi▁3777
ola▁3778
▁alumin▁3779
visible▁3780
▁tri▁3781
drew▁3782
▁mock▁3783
▁card▁3784
▁cut▁3785
▁mobil▁3786
▁logical▁3787
▁ceiling▁3788
▁compound▁3789
▁highlight▁3790
▁bend▁3791
▁dimensions▁3792
▁curve▁3793
▁devise▁3794
▁fool▁3795
▁eye▁3796
▁believ▁3797
▁panels▁3798
▁skin▁3799
▁geometr▁3800
work▁3801
▁chase▁3802
▁commission▁3803
▁Designer▁3804
▁Block▁3805
▁events▁3806
▁Octo▁3807
uo▁3808
aki▁3809
▁Idee▁3810
▁ship▁3811
▁blank▁3812
▁scenario▁3813
▁DJ▁3814
table▁3815
▁fridge▁3816
▁integrat▁3817
idio▁3818
▁migrat▁3819
▁consult▁3820
▁skateboard▁3821
▁climber▁3822
▁Bam▁3823
▁Final▁3824
▁oh▁3825
▁mold▁3826
▁facilit▁3827
▁dilemma▁3828
built▁3829
scribe▁3830
▁unique▁3831
▁16▁3832
▁Kra▁3833
▁mystery▁3834
▁symptom▁3835
▁feedback▁3836
▁terrifying▁3837
raine▁3838
▁nightmare▁3839
▁pediatric▁3840
▁anesthesi▁3841
ologist▁3842
▁management▁3843
Packard▁3844
hildren▁3845
▁Stanford▁3846
▁Pal▁3847
▁Alto▁3848
▁tumor▁3849
▁infection▁3850
▁operation▁3851
▁persist▁3852
▁str▁3853
▁feather▁3854
▁please▁3855
▁seat▁3856
▁Chandler▁3857
▁whom▁3858
▁photograph▁3859
▁aspire▁3860
▁rehearsal▁3861
▁fell▁3862
▁trivial▁3863
▁wrap▁3864
AC▁3865
ibu▁3866
▁clinic▁3867
color▁3868
frozen▁3869
▁paralyz▁3870
onic▁3871
▁fingertip▁3872
▁elbow▁3873
▁spontaneous▁3874
▁24▁3875
nia▁3876
▁phenomeno▁3877
▁illustrate▁3878
▁sleeve▁3879
▁gar▁3880
▁excruciating▁3881
▁burning▁3882
▁mis▁3883
▁innocent▁3884
vo▁3885
▁wir▁3886
▁switch▁3887
junction▁3888
▁bulb▁3889
▁hammer▁3890
▁nerve▁3891
▁spin▁3892
▁cord▁3893
▁conscious▁3894
▁complicated▁3895
▁releas▁3896
▁brown▁3897
neurotransmitter▁3898
▁linear▁3899
▁spill▁3900
▁vertical▁3901
▁adjacen▁3902
important▁3903
▁structural▁3904
▁elements▁3905
▁vital▁3906
▁role▁3907
ulation▁3908
▁sensory▁3909
▁activate▁3910
▁DNA▁3911
▁synthesize▁3912
▁protein▁3913
▁forth▁3914
▁toilet▁3915
▁flush▁3916
▁dish▁3917
wash▁3918
▁monitor▁3919
▁morph▁3920
▁response▁3921
▁stimul▁3922
ifying▁3923
▁drugs▁3924
kill▁3925
▁frank▁3926
▁anesthetic▁3927
▁rigorous▁3928
▁uncomfortabl▁3929
▁therap▁3930
▁occupation▁3931
train▁3932
▁intensive▁3933
▁psychotherap▁3934
▁address▁3935
nden▁3936
cy▁3937
▁despair▁3938
▁accompani▁3939
▁severe▁3940
▁flip▁3941
▁college▁3942
▁absolute▁3943
▁prophet▁3944
▁George▁3945
▁Carl▁3946
▁Kris▁3947
j▁3948
▁law▁3949
▁gorgeous▁3950
▁dose▁3951
▁PR▁3952
▁moon▁3953
▁myth▁3954
▁legen▁3955
▁monster▁3956
▁exploration▁3957
▁discoveries▁3958
fa▁3959
▁monstro▁3960
▁env▁3961
IUC▁3962
▁Madagas▁3963
car▁3964
amount▁3965
▁legal▁3966
▁exploit▁3967
▁cast▁3968
▁assumption▁3969
▁pioneer▁3970
▁govern▁3971
▁root▁3972
ba▁3973
wide▁3974
▁precaution▁3975
▁scar▁3976
▁notion▁3977
▁carbon▁3978
▁stor▁3979
▁heat▁3980
▁36▁3981
▁confront▁3982
▁laws▁3983
▁shipp▁3984
▁protection▁3985
▁shore▁3986
▁garbage▁3987
▁discharge▁3988
regulat▁3989
▁patch▁3990
T▁3991
▁pollution▁3992
▁di▁3993
▁Eli▁3994
▁O▁3995
strom▁3996
requisite▁3997
▁monitoring▁3998
▁enforce▁3999
▁verify▁4000
om▁4001
▁gloom▁4002
▁photographer▁4003
▁states▁4004
▁tragic▁4005
▁trajector▁4006
▁destroy▁4007
▁coral▁4008
▁save▁4009
▁fate▁4010
▁basement▁4011
▁Nations▁4012
▁fisher▁4013
▁regime▁4014
▁prior▁4015
▁duty▁4016
▁prevent▁4017
▁significant▁4018
▁harm▁4019
▁progress▁4020
kilometer▁4021
▁Sylvia▁4022
▁leverage▁4023
▁hopeful▁4024
cycle▁4025
▁turtle▁4026
▁sampl▁4027
▁flavor▁4028
▁Sargasso▁4029
▁Sea▁4030
argassum▁4031
▁aggregate▁4032
▁spawn▁4033
▁Northern▁4034
▁European▁4035
▁rivers▁4036
wind▁4037
▁Stock▁4038
holm▁4039
▁Februar▁4040
▁200,000▁4041
ggregat▁4042
▁lay▁4043
▁eggs▁4044
▁launch▁4045
▁initiative▁4046
▁thus▁4047
▁Bermuda▁4048
▁jurisdiction▁4049
▁spear▁4050
▁spinn▁4051
place▁4052
▁cooler▁4053
▁South▁4054
ern▁4055
▁Ocean▁4056
▁bay▁4057
▁territor▁4058
ial▁4059
▁claim▁4060
▁summer▁4061
phy▁4062
▁kri▁4063
ho▁4064
▁CC▁4065
ML▁4066
▁regional▁4067
▁charge▁4068
conserv▁4069
▁marine▁4070
▁author▁4071
▁tooth▁4072
fish▁4073
▁captain▁4074
▁Zealand▁4075
▁decline▁4076
▁killer▁4077
▁whale▁4078
▁Antarctic▁4079
mit▁4080
▁Cost▁4081
▁Rica▁4082
▁Dome▁4083
und▁4084
▁winter▁4085
▁oceanograph▁4086
▁seasonal▁4087
▁basis▁4088
▁identify▁4089
▁vulnerabl▁4090
▁Galapagos▁4091
▁headed▁4092
▁Tropic▁4093
▁coordinat▁4094
▁Conservati▁4095
eritage▁4096
▁Convention▁4097
▁qualify▁4098
▁adopt▁4099
▁urge▁4100
▁Hal▁4101
▁hook▁4102
catch▁4103
▁Tag▁4104
ging▁4105
▁Pr▁4106
ator▁4107
▁Life▁4108
water▁4109
▁kilometer▁4110
▁treasure▁4111
▁culminat▁4112
▁tun▁4113
▁tagg▁4114
▁pac▁4115
if▁4116
▁predator▁4117
▁column▁4118
▁cu▁4119
▁fortunate▁4120
▁reveal▁4121
▁workshop▁4122
▁sufficient▁4123
pot▁4124
▁trans▁4125
▁date▁4126
▁rocket▁4127
▁mandate▁4128
▁privilege▁4129
home▁4130
▁traged▁4131
▁collision▁4132
▁broad▁4133
▁marvel▁4134
light▁4135
▁previously▁4136
▁unknown▁4137
▁stake▁4138
▁communit▁4139
▁Earle▁4140
▁penetrate▁4141
▁obstacle▁4142
▁sustainabl▁4143
▁Bruc▁4144
▁polio▁4145
▁vaccine▁4146
▁terrifi▁4147
▁panic▁4148
▁lung▁4149
▁breathe▁4150
▁breath▁4151
▁cure▁4152
▁twenty▁4153
▁1950▁4154
▁awful▁4155
▁month▁4156
▁Jon▁4157
pox▁4158
▁oops▁4159
▁partnership▁4160
▁sides▁4161
▁globe▁4162
▁outbreak▁4163
▁sequenc▁4164
▁viruses▁4165
▁originate▁4166
▁commercial▁4167
▁Russia▁4168
▁crippl▁4169
▁devastating▁4170
▁explosive▁4171
itis▁4172
▁Polio▁4173
▁Partner▁4174
free▁4175
▁lucky▁4176
▁armor▁4177
▁capital▁4178
▁risks▁4179
▁humanitarian▁4180
▁congress▁4181
▁26▁4182
▁vaccination▁4183
▁deteriorat▁4184
▁tropic▁4185
▁expos▁4186
▁potent▁4187
rash▁4188
▁vaccinate▁4189
▁multiple▁4190
▁peak▁4191
▁va▁4192
long▁4193
▁trek▁4194
welt▁4195
▁bullet▁4196
▁operate▁4197
▁shak▁4198
▁cease▁4199
fire▁4200
▁reporter▁4201
▁Somalia▁4202
infect▁4203
▁road▁4204
▁unfold▁4205
▁foreign▁4206
▁aid▁4207
▁heroes▁4208
▁Rot▁4209
▁infrastructure▁4210
▁striking▁4211
▁rapid▁4212
▁exception▁4213
▁199▁4214
▁worldwide▁4215
▁99▁4216
▁reduction▁4217
▁1,000▁4218
▁pandemic▁4219
▁flu▁4220
▁SARS▁4221
▁vitamin▁4222
▁malaria▁4223
▁irre▁4224
spect▁4225
▁northern▁4226
▁India▁4227
▁Nigeria▁4228
▁causing▁4229
▁horrific▁4230
▁decades▁4231
▁tenaci▁4232
▁grip▁4233
▁frustration▁4234
▁voices▁4235
▁Hang▁4236
▁abandon▁4237
▁settle▁4238
▁seductive▁4239
▁false▁4240
▁premise▁4241
▁Um▁4242
▁brothers▁4243
▁beating▁4244
▁crutch▁4245
▁exceptional▁4246
▁circumstance▁4247
▁strike▁4248
▁drag▁4249
▁families▁4250
▁desperate▁4251
▁saving▁4252
▁deserve▁4253
▁buck▁4254
▁missing▁4255
▁mapping▁4256
▁guide▁4257
▁shelter▁4258
▁Ko▁4259
hi▁4260
▁River▁4261
▁Muslim▁4262
▁logistic▁4263
▁devices▁4264
▁carrier▁4265
▁street▁4266
▁commitment▁4267
▁approache▁4268
ommittee▁4269
▁Cross▁4270
▁tactic▁4271
▁50-▁4272
▁Jun▁4273
▁roll▁4274
▁southern▁4275
▁storm▁4276
▁500,000▁4277
tta▁4278
adesh▁4279
▁Bi▁4280
har▁4281
▁sanit▁4282
▁95▁4283
▁ladies▁4284
▁gentlem▁4285
▁combination▁4286
▁secondar▁4287
▁stark▁4288
▁failing▁4289
▁justice▁4290
izing▁4291
▁enthusias▁4292
▁Cameron▁4293
ingdom▁4294
▁There▁4295
▁cross▁4296
▁resolve▁4297
▁blink▁4298
▁lose▁4299
▁momentum▁4300
▁Gates▁4301
▁smartest▁4302
▁corner▁4303
▁border▁4304
▁Pakistan▁4305
▁BG▁4306
▁750▁4307
▁800▁4308
▁genero▁4309
▁luck▁4310
▁Tony▁4311
▁Port▁4312
▁TEDWomen▁4313
▁boys▁4314
at▁4315
▁abuse▁4316
▁Harlem▁4317
▁Bronx▁4318
▁ingredient▁4319
▁doubt▁4320
▁twist▁4321
▁deconstruct▁4322
defin▁4323
hood▁4324
▁Kendal▁4325
▁Jay▁4326
▁Ta▁4327
▁busy▁4328
▁whip▁4329
▁boom▁4330
▁knee▁4331
not▁4332
ddy▁4333
▁clock▁4334
▁guideline▁4335
▁defin▁4336
▁Just▁4337
▁brother▁4338
▁Henry▁4339
▁burial▁4340
▁Island▁4341
▁prepar▁4342
▁bathroom▁4343
▁folks▁4344
▁ride▁4345
▁lim▁4346
▁empti▁4347
▁burst▁4348
▁sticks▁4349
▁apolog▁4350
▁prop▁4351
▁lift▁4352
▁hostage▁4353
▁How▁4354
▁coach▁4355
▁mad▁4356
▁angry▁4357
▁girls▁4358
▁inner▁4359
▁Johnny▁4360
▁younger▁4361
▁hanging▁4362
▁heroin▁4363
dose▁4364
▁grandmother▁4365
▁fine▁4366
▁sex▁4367
stair▁4368
▁Anthon▁4369
▁Do▁4370
▁jeopard▁4371
▁dear▁4372
▁secre▁4373
▁sexual▁4374
▁neighborhood▁4375
heila▁4376
▁ill▁4377
function▁4378
appropriate▁4379
▁raped▁4380
▁offering▁4381
▁bust▁4382
▁zip▁4383
▁pant▁4384
▁behold▁4385
▁remorse▁4386
▁tremendous▁4387
▁property▁4388
▁equation▁4389
▁epidemic▁4390
broad▁4391
her▁4392
▁Stan▁4393
▁McChr▁4394
ystal▁4395
▁Four▁4396
star▁4397
▁leadership▁4398
▁failure▁4399
▁Tue▁4400
▁parachute▁4401
▁Fort▁4402
▁routine▁4403
▁training▁4404
▁27▁4405
▁Army▁4406
▁refresh▁4407
▁budd▁4408
10▁4409
▁strap▁4410
▁heavy▁4411
uck▁4412
master▁4413
NC▁4414
O▁4415
▁adjust▁4416
▁tight▁4417
▁chest▁4418
▁load▁4419
▁lumber▁4420
▁Air▁4421
▁Force▁4422
▁command▁4423
▁warning▁4424
▁boost▁4425
▁Get▁4426
▁Out▁4427
▁static▁4428
▁additional▁4429
▁flowing▁4430
▁slip▁4431
▁lock▁4432
▁position▁4433
born▁4434
▁hypothesis▁4435
▁opening▁4436
▁thrill▁4437
▁prepare▁4438
▁delay▁4439
▁pretend▁4440
▁steer▁4441
▁teache▁4442
▁calv▁4443
▁thigh▁4444
ock▁4445
▁30-▁4446
some▁4447
me▁4448
lon▁4449
▁eternal▁4450
▁combat▁4451
▁2001▁4452
zone▁4453
▁soldiers▁4454
▁theoretical▁4455
▁46▁4456
▁br▁4457
adi▁4458
▁Robert▁4459
▁Lee▁4460
▁John▁4461
▁Bu▁4462
ford▁4463
▁Vietnam▁4464
▁wise▁4465
▁brave▁4466
rad▁4467
▁bunch▁4468
▁conversation▁4469
▁march▁4470
▁chew▁4471
▁interaction▁4472
▁Training▁4473
▁Center▁4474
▁dawn▁4475
▁battle▁4476
▁humiliat▁4477
▁snake▁4478
▁belly▁4479
▁wag▁4480
▁apologize▁4481
▁sentence▁4482
▁lifted▁4483
▁fail▁4484
▁9▁4485
▁Br▁4486
▁Gen▁4487
▁scrutin▁4488
▁sensitivit▁4489
▁dispers▁4490
▁technique▁4491
▁tele▁4492
ference▁4493
▁chat▁4494
▁22▁4495
▁versa▁4496
▁coordinate▁4497
▁location▁4498
▁intelligence▁4499
▁electronic▁4500
▁mission▁4501
▁rebuild▁4502
▁senior▁4503
▁requirement▁4504
▁steel▁4505
▁kn▁4506
▁fist▁4507
▁exoti▁4508
▁weapons▁4509
hak▁4510
▁consensu▁4511
▁Ranger▁4512
pla▁4513
oon▁4514
▁Taliban▁4515
ade▁4516
▁Where▁4517
▁wind▁4518
low▁4519
▁Afghan▁4520
▁sixth▁4521
▁grade▁4522
▁digital▁4523
version▁4524
▁leader▁4525
▁legitimate▁4526
▁brand▁4527
▁transparent▁4528
▁cumulative▁4529
▁battery▁4530
▁Iraq▁4531
▁officer▁4532
ight▁4533
▁relationships▁4534
▁sin▁4535
▁2,000▁4536
stan▁4537
za▁4538
▁poem▁4539
▁marriage▁4540
▁vow▁4541
▁ab▁4542
▁knock▁4543
nach▁4544
▁Mur▁4545
uga▁4546
sanitary▁4547
▁napkin▁4548
▁supplie▁4549
▁fame▁4550
press▁4551
▁replie▁4552
▁N▁4553
▁nast▁4554
▁cloth▁4555
wheel▁4556
▁milk▁4557
▁fellow▁4558
▁newspaper▁4559
▁banne▁4560
▁item▁4561
▁condom▁4562
▁29▁4563
▁substance▁4564
▁cotton▁4565
▁pen▁4566
▁Bangalore▁4567
▁victim▁4568
▁Sh▁4569
anti▁4570
pend▁4571
▁chocolate▁4572
insel▁4573
▁intimate▁4574
▁arrange▁4575
▁victims▁4576
▁wi▁4577
▁jealous▁4578
▁refuse▁4579
▁Armstrong▁4580
enz▁4581
▁Everest▁4582
▁tie▁4583
cycling▁4584
▁crises▁4585
▁includ▁4586
▁divorce▁4587
▁suspect▁4588
mp▁4589
▁cellulos▁4590
ived▁4591
million▁4592
▁processing▁4593
▁patent▁4594
▁dropp▁4595
▁beauty▁4596
▁bored▁4597
▁accumulat▁4598
▁philanthropy▁4599
▁leaf▁4600
▁husk▁4601
▁dust▁4602
▁installation▁4603
▁23▁4604
▁seventh▁4605
▁transnational▁4606
▁MBA▁4607
▁Co▁4608
▁professor▁4609
▁guest▁4610
▁lecture▁4611
IM▁4612
cost▁4613
Women▁4614
▁Self▁4615
▁Hel▁4616
▁Group▁4617
▁pu▁4618
▁Harvard▁4619
▁Oxford▁4620
▁compete▁4621
▁100-▁4622
kin▁4623
▁lifetime▁4624
▁employment▁4625
▁chas▁4626
shmi▁4627
▁becom▁4628
▁provider▁4629
▁entit▁4630
▁domain▁4631
▁classify▁4632
▁educate▁4633
▁surplus▁4634
manda▁4635
ett▁4636
▁China▁4637
▁Pek▁4638
▁sat▁4639
aged▁4640
glasses▁4641
▁Fulbright▁4642
▁scholar▁4643
▁Sin▁4644
▁relations▁4645
▁gift▁4646
▁eager▁4647
▁correspond▁4648
▁pump▁4649
ib▁4650
bling▁4651
▁representative▁4652
ssociation▁4653
▁jerk▁4654
▁Let▁4655
▁marri▁4656
erence▁4657
▁Fo▁4658
▁spoke▁4659
▁license▁4660
▁cable▁4661
▁operator▁4662
▁nutrition▁4663
▁cattle▁4664
▁Di▁4665
xi▁4666
▁cancer▁4667
▁surgeon▁4668
▁surgery▁4669
▁surgeons▁4670
▁patholog▁4671
▁kidney▁4672
▁aggressive▁4673
▁diagnosi▁4674
▁fatal▁4675
▁mysterious▁4676
▁Litt▁4677
eague▁4678
house▁4679
▁specialist▁4680
pp▁4681
ear▁4682
▁Ital▁4683
▁Australia▁4684
▁horizon▁4685
▁sometime▁4686
midnight▁4687
▁2▁4688
▁drug▁4689
▁Keep▁4690
▁struggle▁4691
▁triumph▁4692
▁exhilarating▁4693
▁repeat▁4694
▁glorious▁4695
▁healthcare▁4696
bye▁4697
pe▁4698
cut▁4699
▁embarrass▁4700
▁strongly▁4701
▁denial▁4702
▁fac▁4703
uch▁4704
▁insist▁4705
hand▁4706
▁oncologist▁4707
▁Tel▁4708
▁Dar▁4709
mouth▁4710
▁immortal▁4711
▁borrow▁4712
▁phrase▁4713
▁redefine▁4714
▁accommodate▁4715
▁illness▁4716
▁fighters▁4717
ible▁4718
▁heal▁4719
▁hospice▁4720
▁unprepared▁4721
▁noble▁4722
▁cur▁4723
like▁4724
▁acknowledg▁4725
▁hero▁4726
▁poetry▁4727
▁poet▁4728
ava▁4729
▁Mark▁4730
ton▁4731
▁conquer▁4732
▁el▁4733
▁Alexandr▁4734
▁defeat▁4735
▁desert▁4736
par▁4737
▁firm▁4738
▁ent▁4739
▁co▁4740
▁exquisite▁4741
▁troop▁4742
▁slim▁4743
▁overwhelming▁4744
▁presence▁4745
surance▁4746
▁companies▁4747
▁Ga▁4748
bre▁4749
Ma▁4750
hin▁4751
▁Ethiopia▁4752
▁outline▁4753
▁farmers▁4754
▁recipient▁4755
▁basket▁4756
▁Himalaya▁4757
▁Bhutan▁4758
▁gross▁4759
▁happiness▁4760
▁Indian▁4761
▁award▁4762
▁Nobel▁4763
▁prize▁4764
▁demonstrat▁4765
▁famine▁4766
▁avail▁4767
▁supply▁4768
▁acquire▁4769
▁entitle▁4770
▁humanity▁4771
▁starv▁4772
cap▁4773
▁irrigat▁4774
▁kilogram▁4775
▁fertilizer▁4776
▁farmer▁4777
refore▁4778
lihood▁4779
▁fruit▁4780
▁labor▁4781
▁highest▁4782
▁lean▁4783
▁scarce▁4784
entrepreneurship▁4785
▁Theodor▁4786
▁Schul▁4787
tz▁4788
▁197▁4789
minded▁4790
▁liberal▁4791
efficient▁4792
▁magic▁4793
▁hunger▁4794
▁mal▁4795
nutrition▁4796
▁stagna▁4797
▁expectation▁4798
▁reform▁4799
▁prompt▁4800
▁agricultural▁4801
▁interview▁4802
▁Like▁4803
▁transaction▁4804
act▁4805
▁output▁4806
▁reache▁4807
elecommunication▁4808
▁absence▁4809
▁necessar▁4810
▁institution▁4811
▁reliabl▁4812
▁circle▁4813
▁peculiar▁4814
▁quantit▁4815
▁implication▁4816
▁deficit▁4817
▁marketing▁4818
▁margin▁4819
▁due▁4820
▁bulk▁4821
▁blind▁4822
▁merc▁4823
▁merchant▁4824
▁negotiate▁4825
▁volatil▁4826
▁ma▁4827
▁seeds▁4828
▁security▁4829
profit▁4830
▁calculate▁4831
0,000▁4832
▁rot▁4833
▁Ju▁4834
▁rain▁4835
▁withdraw▁4836
▁arrest▁4837
▁w▁4838
▁cookie▁4839
what▁4840
▁comfortabl▁4841
▁Bank▁4842
▁donor▁4843
▁Com▁4844
▁Ex▁4845
EC▁4846
▁82▁4847
▁Illinois▁4848
▁Lake▁4849
▁Michigan▁4850
▁Chicago▁4851
▁Board▁4852
▁Trade▁4853
▁Midwest▁4854
▁loss▁4855
▁grad▁4856
▁warehouse▁4857
▁transformation▁4858
▁superpower▁4859
view▁4860
▁industrialize▁4861
▁dominance▁4862
ook▁4863
▁tail▁4864
▁integr▁4865
▁efficienc▁4866
▁sponsor▁4867
eh▁4868
▁trad▁4869
▁cafe▁4870
▁terminal▁4871
▁dial▁4872
▁Ad▁4873
dis▁4874
▁Ab▁4875
▁assure▁4876
▁payment▁4877
▁regulator▁4878
clamation▁4879
▁parliament▁4880
▁disseminat▁4881
▁limited▁4882
trag▁4883
▁strategic▁4884
▁sector▁4885
illennium▁4886
▁platform▁4887
▁pan▁4888
can▁4889
▁domestic▁4890
▁producer▁4891
▁winning▁4892
▁proposition▁4893
é▁4894
▁praise▁4895
▁emphasi▁4896
ode▁4897
lash▁4898
▁brew▁4899
▁brake▁4900
modern▁4901
▁observation▁4902
▁supreme▁4903
▁publish▁4904
▁studio▁4905
▁serving▁4906
▁chunk▁4907
NN▁4908
forward▁4909
▁obsess▁4910
▁cramm▁4911
rie▁4912
▁These▁4913
grat▁4914
▁g▁4915
▁advertisement▁4916
▁evening▁4917
oga▁4918
▁salut▁4919
mus▁4920
▁laugh▁4921
▁das▁4922
▁damage▁4923
marin▁4924
▁toll▁4925
▁alert▁4926
▁towel▁4927
▁smoke▁4928
▁patien▁4929
qui▁4930
▁Cat▁4931
▁skip▁4932
▁paragraph▁4933
▁qu▁4934
▁relax▁4935
▁glad▁4936
▁clash▁4937
scanning▁4938
▁article▁4939
aving▁4940
▁One▁4941
▁Story▁4942
▁reaction▁4943
▁thankful▁4944
▁Whoa▁4945
▁investigate▁4946
▁accelerat▁4947
▁rear▁4948
▁heads▁4949
▁urbanization▁4950
▁driver▁4951
▁cycl▁4952
hu▁4953
rried▁4954
▁renew▁4955
▁finite▁4956
▁drain▁4957
▁Benjamin▁4958
▁Franklin▁4959
▁psychological▁4960
▁incidental▁4961
▁mindset▁4962
▁bus▁4963
▁unthink▁4964
▁conventional▁4965
▁dece▁4966
▁Slow▁4967
▁Move▁4968
ris▁4969
▁Food▁4970
▁100,000▁4971
▁sensible▁4972
▁cultivate▁4973
▁pace▁4974
naissance▁4975
▁illustration▁4976
▁cultivat▁4977
▁rose▁4978
▁traffic▁4979
▁bench▁4980
▁philosophical▁4981
eclaration▁4982
▁deeply▁4983
ill▁4984
▁complement▁4985
▁tap▁4986
▁gentle▁4987
▁holistic▁4988
▁healing▁4989
jury▁4990
▁therapie▁4991
▁mainstream▁4992
▁approv▁4993
▁ac▁4994
ctu▁4995
chip▁4996
▁intend▁4997
▁agent▁4998
▁magazine▁4999
▁orgasm▁5000
watch▁5001
▁bedroom▁5002
▁Point▁5003
▁eloquent▁5004
▁sang▁5005
▁St▁5006
▁flock▁5007
▁Italian▁5008
▁Sex▁5009
hour▁5010
ek▁5011
▁rigid▁5012
▁Nord▁5013
▁Nor▁5014
▁Swed▁5015
enmark▁5016
▁nation▁5017
▁37▁5018
▁homework▁5019
▁tutor▁5020
curricula▁5021
trend▁5022
▁website▁5023
▁adolescent▁5024
▁hover▁5025
▁plea▁5026
ttle▁5027
▁treadmill▁5028
▁parenting▁5029
▁ban▁5030
▁pi▁5031
pa▁5032
achi▁5033
▁freak▁5034
▁exam▁5035
▁elite▁5036
cited▁5037
lib▁5038
V▁5039
▁ja▁5040
vy▁5041
▁letter▁5042
▁undergraduate▁5043
vor▁5044
own▁5045
▁ticket▁5046
▁highway▁5047
▁various▁5048
▁sexy▁5049
▁adrenalin▁5050
▁rush▁5051
▁meta▁5052
▁distraction▁5053
▁politician▁5054
▁taboo▁5055
▁erect▁5056
word▁5057
▁laz▁5058
cker▁5059
▁synonymous▁5060
25▁5061
▁revolutionar▁5062
▁TV▁5063
▁uplift▁5064
▁welcome▁5065
▁Age▁5066
▁brigade▁5067
▁gear▁5068
sound▁5069
bit▁5070
▁rehabilitat▁5071
load▁5072
uit▁5073
▁default▁5074
▁mode▁5075
▁wing▁5076
▁chariot▁5077
shot▁5078
racing▁5079
▁lit▁5080
ros▁5081
▁internal▁5082
▁reward▁5083
▁cherish▁5084
▁ending▁5085
▁afternoon▁5086
▁taxi▁5087
▁stair▁5088
▁staple▁5089
tin▁5090
▁Dad▁5091
▁sweet▁5092
▁Amy▁5093
▁Lock▁5094
▁Congo▁5095
▁HIV▁5096
▁DR▁5097
▁agenc▁5098
▁flood▁5099
▁cheap▁5100
▁Democratic▁5101
▁Republic▁5102
av▁5103
RC▁5104
▁prevalence▁5105
▁1.3▁5106
▁76▁5107
▁93▁5108
▁receiv▁5109
▁Dam▁5110
ien▁5111
▁hotel▁5112
▁Kinshasa▁5113
▁Joseph▁5114
▁Christ▁5115
▁pharmac▁5116
▁generic▁5117
▁financ▁5118
fidel▁5119
▁Trust▁5120
rude▁5121
▁provocati▁5122
▁miss▁5123
▁Au▁5124
▁Grey▁5125
▁aging▁5126
▁mere▁5127
curable▁5128
▁shit▁5129
▁feasib▁5130
ility▁5131
▁extension▁5132
▁genuine▁5133
▁eliminat▁5134
▁intermediate▁5135
▁characteristic▁5136
▁considerabl▁5137
▁Brita▁5138
▁sympathetic▁5139
▁persuade▁5140
▁ecological▁5141
▁prevail▁5142
▁Parliament▁5143
▁conclusion▁5144
▁tolerate▁5145
▁civil▁5146
▁spade▁5147
▁fra▁5148
▁trance▁5149
▁ought▁5150
▁plann▁5151
▁turbulen▁5152
▁argument▁5153
▁outweigh▁5154
▁condemn▁5155
▁unnecessar▁5156
▁worry▁5157
population▁5158
▁crossing▁5159
▁Gil▁5160
▁answers▁5161
▁arise▁5162
▁reject▁5163
ort▁5164
▁indefinite▁5165
moral▁5166
▁gha▁5167
clear▁5168
gel▁5169
▁regard▁5170
▁summ▁5171
▁metabolism▁5172
▁tau▁5173
ological▁5174
▁statement▁5175
animate▁5176
▁mechanisms▁5177
▁accumulate▁5178
logy▁5179
atricia▁5180
▁intervene▁5181
▁evident▁5182
▁sand▁5183
▁strategy▁5184
▁prevention▁5185
iful▁5186
▁organism▁5187
▁RNA▁5188
▁interference▁5189
▁intervention▁5190
▁convincing▁5191
▁suppose▁5192
▁confer▁5193
▁55▁5194
▁robust▁5195
▁rejuvenat▁5196
▁breakthrough▁5197
▁incremental▁5198
▁differ▁5199
▁predict▁5200
▁190▁5201
▁stead▁5202
▁uniform▁5203
▁sequence▁5204
▁progression▁5205
▁imagination▁5206
▁computers▁5207
▁parallel▁5208
▁hygien▁5209
▁antibiotic▁5210
▁moderate▁5211
sp▁5212
▁remain▁5213
▁imperfect▁5214
▁thorough▁5215
▁velocit▁5216
▁expectanc▁5217
▁biological▁5218
▁youth▁5219
related▁5220
generation▁5221
▁catastrophe▁5222
lright▁5223
▁mice▁5224
stone▁5225
▁mouse▁5226
▁imaginative▁5227
▁fifth▁5228
▁lifespan▁5229
▁biolog▁5230
▁specula▁5231
▁speculation▁5232
▁counsel▁5233
▁nonsens▁5234
▁silent▁5235
▁assess▁5236
H▁5237
▁underestimate▁5238
val▁5239
note▁5240
▁ongoing▁5241
dra▁5242
▁diagram▁5243
tries▁5244
▁inhibit▁5245
▁And▁5246
▁continu▁5247
▁periodic▁5248
▁repair▁5249
▁threshold▁5250
▁pathogen▁5251
complete▁5252
▁categor▁5253
▁mutation▁5254
▁chromosome▁5255
▁mitochondria▁5256
▁undergo▁5257
sis▁5258
▁indication▁5259
▁partial▁5260
▁cite▁5261
▁optimism▁5262
▁confident▁5263
▁damn▁5264
log▁5265
▁resistan▁5266
▁session▁5267
▁genome▁5268
▁strategi▁5269
▁Me▁5270
use▁5271
lah▁5272
▁Prize▁5273
▁innovate▁5274
▁proposal▁5275
▁institute▁5276
▁philanthropi▁5277
▁distract▁5278
▁biotech▁5279
▁immune▁5280
tel▁5281
ase▁5282
mortality▁5283
▁brilliant▁5284
▁selection▁5285
▁sophistication▁5286
▁genes▁5287
▁carrie▁5288
creation▁5289
▁CA▁5290
▁crash▁5291
▁motorbike▁5292
▁embryo▁5293
▁opposed▁5294
▁replace▁5295
▁neurons▁5296
▁replac▁5297
▁degrad▁5298
▁cognitive▁5299
simplification▁5300
▁Hydra▁5301
▁tissue▁5302
▁Lewi▁5303
▁Pu▁5304
gh▁5305
shift▁5306
▁swim▁5307
▁Pole▁5308
▁frighten▁5309
▁1.7▁5310
grade▁5311
▁Fahren▁5312
heit▁5313
▁flipp▁5314
▁pea▁5315
▁sausage▁5316
▁freeze▁5317
▁expand▁5318
▁lake▁5319
ground▁5320
▁instabil▁5321
▁Bangladesh▁5322
▁symbolic▁5323
▁undern▁5324
▁summit▁5325
▁28▁5326
▁Speed▁5327
▁altitude▁5328
▁5▁5329
,▁5330
▁hitting▁5331
▁bodi▁5332
▁attempt▁5333
▁swimm▁5334
▁humble▁5335
bu▁5336
ggression▁5337
▁swam▁5338
▁gas▁5339
▁vom▁5340
▁underwater▁5341
▁lucki▁5342
▁shallow▁5343
▁peaceful▁5344
▁utter▁5345
lock▁5346
▁grabb▁5347
▁camp▁5348
brief▁5349
▁hill▁5350
▁breast▁5351
▁3.5▁5352
▁6.▁5353
▁grandchildren▁5354
▁safe▁5355
▁secure▁5356
▁blog▁5357
▁tweet▁5358
▁Hodg▁5359
▁comedian▁5360
▁Bachelor▁5361
▁Literatur▁5362
▁minor▁5363
▁television▁5364
▁collector▁5365
▁With▁5366
ach▁5367
▁catalog▁5368
ppel▁5369
▁Los▁5370
▁Angeles▁5371
port▁5372
▁Building▁5373
▁mu▁5374
extraterrestrial▁5375
▁excavat▁5376
▁196▁5377
for▁5378
▁Common▁5379
▁Er▁5380
▁coloniz▁5381
▁savage▁5382
▁revolv▁5383
▁restaurants▁5384
▁replacement▁5385
▁Stone▁5386
ui▁5387
▁parking▁5388
▁uncover▁5389
▁era▁5390
▁arch▁5391
▁Jet▁5392
▁preferr▁5393
▁crystal▁5394
▁skull▁5395
▁Philipp▁5396
▁Starck▁5397
minent▁5398
▁ho▁5399
uvre▁5400
▁lobby▁5401
▁trip▁5402
▁attach▁5403
▁suck▁5404
▁juice▁5405
▁monument▁5406
▁kitchen▁5407
▁counter▁5408
sleep▁5409
▁mail▁5410
▁iPhone▁5411
▁tile▁5412
loved▁5413
▁device▁5414
induce▁5415
▁pervasive▁5416
▁instantly▁5417
▁threaten▁5418
▁Jenn▁5419
▁Zu▁5420
atur▁5421
▁fascinate▁5422
▁Art▁5423
▁Buch▁5424
wald▁5425
▁humor▁5426
▁Mike▁5427
▁cyber▁5428
space▁5429
▁handwrit▁5430
▁notebook▁5431
▁weakness▁5432
▁incident▁5433
▁habits▁5434
▁hug▁5435
graph▁5436
▁soul▁5437
▁inspired▁5438
▁Trac▁5439
▁swallow▁5440
▁funeral▁5441
▁committ▁5442
▁compil▁5443
▁linguist▁5444
don▁5445
▁grammar▁5446
he▁5447
▁confine▁5448
▁craving▁5449
▁emerge▁5450
▁flourish▁5451
▁whirl▁5452
pool▁5453
▁Andrew▁5454
▁Blu▁5455
▁internet▁5456
▁squirrel▁5457
fline▁5458
▁secret▁5459
▁politic▁5460
▁Milk▁5461
▁Way▁5462
▁total▁5463
▁Apollo▁5464
▁marble▁5465
▁broke▁5466
▁yard▁5467
▁jumble▁5468
▁astounding▁5469
▁transcend▁5470
▁protocol▁5471
▁dating▁5472
call▁5473
▁IT▁5474
▁Crowd▁5475
▁Big▁5476
▁reception▁5477
▁presentation▁5478
▁elder▁5479
pho▁5480
▁sill▁5481
cast▁5482
▁Time▁5483
▁Warner▁5484
▁fiber▁5485
▁optic▁5486
▁Hudson▁5487
tier▁5488
▁village▁5489
hose▁5490
▁expansive▁5491
▁5,000▁5492
▁plug▁5493
ax▁5494
▁thin▁5495
▁Cooper▁5496
▁Tat▁5497
▁Communi▁5498
ome▁5499
▁via▁5500
▁42▁5501
▁proceed▁5502
▁belt▁5503
▁beam▁5504
▁geographic▁5505
▁fleet▁5506
▁brief▁5507
▁plugg▁5508
▁W▁5509
▁Ghana▁5510
▁Cameroon▁5511
▁bulldoze▁5512
▁specialize▁5513
▁engineers▁5514
▁station▁5515
▁hack▁5516
aw▁5517
▁jewel▁5518
pu▁5519
▁fuse▁5520
▁engineer▁5521
mba▁5522
▁Mumbai▁5523
▁Stephen▁5524
anda▁5525
▁Sara▁5526
wa▁5527
▁unravel▁5528
▁attain▁5529
real▁5530
▁helpless▁5531
ncy▁5532
▁contributor▁5533
▁instinct▁5534
▁foster▁5535
▁surrender▁5536
▁implie▁5537
▁violat▁5538
▁violation▁5539
▁blame▁5540
bla▁5541
▁compassionate▁5542
▁wie▁5543
▁empathy▁5544
▁empath▁5545
etic▁5546
tennis▁5547
tte▁5548
▁winner▁5549
▁shirt▁5550
ied▁5551
▁demolish▁5552
rin▁5553
▁empathiz▁5554
▁gender▁5555
▁slap▁5556
tick▁5557
▁scheme▁5558
▁universe▁5559
▁confirm▁5560
▁limitation▁5561
▁desire▁5562
▁credit▁5563
▁bald▁5564
▁realization▁5565
▁recogni▁5566
▁cheer▁5567
▁relate▁5568
▁manifestation▁5569
▁evoke▁5570
▁shortcut▁5571
foam▁5572
▁verb▁5573
verb▁5574
▁teeth▁5575
▁pray▁5576
▁Edit▁5577
kind▁5578
▁elusive▁5579
▁insight▁5580
▁beast▁5581
▁devou▁5582
▁merit▁5583
▁Discover▁5584
▁Channel▁5585
▁expedition▁5586
▁Ku▁5587
She▁5588
▁owe▁5589
▁2010▁5590
▁Mission▁5591
▁Blue▁5592
▁Lin▁5593
▁Explorer▁5594
▁explor▁5595
Gru▁5596
ark▁5597
ob▁5598
▁optical▁5599
▁emphasize▁5600
▁submersible▁5601
▁vehicle▁5602
▁wider▁5603
▁Vent▁5604
ana▁5605
pulsion▁5606
▁suspicio▁5607
▁noise▁5608
▁Johnson▁5609
Link▁5610
isier▁5611
▁ROV▁5612
au▁5613
lic▁5614
▁motor▁5615
power▁5616
▁invisible▁5617
▁bioluminescen▁5618
▁burglar▁5619
▁alarm▁5620
▁defense▁5621
▁resort▁5622
by▁5623
▁scream▁5624
itch▁5625
▁trigger▁5626
▁kidd▁5627
▁tea▁5628
▁appearance▁5629
▁wow▁5630
▁ooh▁5631
▁Bang▁5632
mont▁5633
▁Tri▁5634
meter▁5635
▁fisherm▁5636
▁flashlight▁5637
resolution▁5638
▁fully▁5639
story▁5640
film▁5641
▁possibl▁5642
active▁5643
▁NASA▁5644
▁scare▁5645
▁adventure▁5646
▁Serge▁5647
▁Brin▁5648
▁Glas▁5649
mounted▁5650
name▁5651
13▁5652
▁hunch▁5653
▁firing▁5654
▁hang▁5655
▁Club▁5656
▁tiger▁5657
▁Hmm▁5658
▁7▁5659
▁bridge▁5660
▁exit▁5661
▁8▁5662
12▁5663
▁delicious▁5664
▁Thai▁5665
อร▁5666
่▁5667
อย▁5668
Man▁5669
▁mm▁5670
▁Nigerian▁5671
▁prince▁5672
▁Project▁5673
▁addition▁5674
▁isolat▁5675
▁bone▁5676
ani▁5677
▁ironic▁5678
▁quer▁5679
▁phones▁5680
▁strapp▁5681
▁screaming▁5682
▁unexpected▁5683
▁habit▁5684
▁But▁5685
▁attend▁5686
▁Dap▁5687
hne▁5688
▁Kol▁5689
▁intrigu▁5690
▁Course▁5691
▁quiz▁5692
▁peer▁5693
▁assignment▁5694
▁unprecedented▁5695
partheid▁5696
▁minorit▁5697
▁consequence▁5698
city▁5699
▁Januar▁5700
▁Johannes▁5701
▁admission▁5702
▁registr▁5703
▁gate▁5704
▁hop▁5705
▁stamp▁5706
▁injur▁5707
▁tu▁5708
ition▁5709
fford▁5710
▁recent▁5711
▁Friedman▁5712
▁Times▁5713
▁spirit▁5714
▁enroll▁5715
▁Machine▁5716
▁Lear▁5717
found▁5718
▁Ng▁5719
▁register▁5720
▁250▁5721
▁instructor▁5722
▁43▁5723
hri▁5724
▁Cal▁5725
ulu▁5726
ki▁5727
uel▁5728
▁fifty▁5729
▁Page▁5730
▁Kle▁5731
mmer▁5732
▁Bush▁5733
▁Mitchell▁5734
▁Du▁5735
▁mill▁5736
▁RG▁5737
▁hyperbol▁5738
▁Nick▁5739
▁Par▁5740
ante▁5741
▁pixel▁5742
▁Paul▁5743
▁Off▁5744
▁Jura▁5745
sky▁5746
▁Luft▁5747
han▁5748
▁breakfast▁5749
▁Jose▁5750
▁coin▁5751
▁computational▁5752
▁1.5▁5753
▁submitt▁5754
▁videos▁5755
▁Ak▁5756
quality▁5757
▁master▁5758
▁Ryan▁5759
▁defi▁5760
▁germ▁5761
▁Shannon▁5762
▁deadline▁5763
▁usage▁5764
▁graph▁5765
▁spike▁5766
▁certificate▁5767
▁prospect▁5768
▁explicit▁5769
▁format▁5770
▁monolith▁5771
▁modular▁5772
▁unit▁5773
verse▁5774
atory▁5775
▁enrich▁5776
all▁5777
▁curriculum▁5778
▁passive▁5779
▁Science▁5780
▁retriev▁5781
▁pause▁5782
▁SP▁5783
▁discount▁5784
▁quo▁5785
▁bias▁5786
viation▁5787
▁submit▁5788
▁mathematical▁5789
▁programm▁5790
▁Computer▁5791
▁101▁5792
correct▁5793
▁blu▁5794
▁browser▁5795
▁Lady▁5796
▁Li▁5797
bert▁5798
ick▁5799
▁facult▁5800
produc▁5801
ssig▁5802
axis▁5803
▁correlate▁5804
▁x▁5805
▁incentivize▁5806
▁pipeline▁5807
▁intellectual▁5808
▁endeavor▁5809
▁Princeton▁5810
ology▁5811
▁awake▁5812
▁testimon▁5813
assembl▁5814
▁geographical▁5815
▁constraint▁5816
▁multicultural▁5817
▁click▁5818
mission▁5819
drive▁5820
▁versu▁5821
▁misconception▁5822
▁plot▁5823
▁error▁5824
▁bucket▁5825
▁virtue▁5826
▁solv▁5827
▁Bloom▁5828
▁populations▁5829
▁studie▁5830
▁instruction▁5831
▁98▁5832
▁hence▁5833
▁smartphone▁5834
▁obsolet▁5835
▁Twa▁5836
▁College▁5837
▁filling▁5838
▁wood▁5839
▁le▁5840
solv▁5841
▁metric▁5842
▁standardize▁5843
▁summarize▁5844
▁shame▁5845
▁Albert▁5846
▁Einstein▁5847
▁Jobs▁5848
▁Mau▁5849
iz▁5850
▁stone▁5851
▁Leonardo▁5852
▁Vinci▁5853
▁Ang▁5854
ari▁5855
▁1975▁5856
▁Flor▁5857
▁Carlo▁5858
▁former▁5859
▁related▁5860
▁masterpiece▁5861
▁Pala▁5862
▁Ve▁5863
engineer▁5864
▁decorat▁5865
▁Va▁5866
▁halt▁5867
▁Guinness▁5868
model▁5869
60▁5870
▁Grand▁5871
▁Duke▁5872
▁Med▁5873
▁church▁5874
▁Santa▁5875
▁admire▁5876
▁antenna▁5877
▁panel▁5878
▁Standard▁5879
lma▁5880
▁Diego▁5881
▁heritage▁5882
ISA▁5883
▁archaeolog▁5884
11▁5885
▁Professor▁5886
▁Madonna▁5887
▁shin▁5888
▁UV▁5889
▁lady▁5890
touch▁5891
▁Uni▁5892
corn▁5893
▁painting▁5894
▁Ra▁5895
▁unicorn▁5896
upp▁5897
▁examination▁5898
finishe▁5899
▁symbol▁5900
tribu▁5901
▁objective▁5902
▁subjective▁5903
▁admir▁5904
▁vivid▁5905
▁Mag▁5906
made▁5907
XY▁5908
Z▁5909
▁centuries▁5910
▁portrait▁5911
▁magnificent▁5912
▁genial▁5913
▁elephant▁5914
▁epiphan▁5915
▁augmented▁5916
▁simulat▁5917
▁aim▁5918
▁locked▁5919
▁scroll▁5920
▁staircase▁5921
▁reconstruct▁5922
▁ruin▁5923
▁protagonist▁5924
ped▁5925
▁Renaissance▁5926
▁blend▁5927
▁definite▁5928
▁breed▁5929
▁Whit▁5930
▁Choir▁5931
▁Live▁5932
▁1991▁5933
▁victor▁5934
▁lap▁5935
▁choir▁5936
▁idylli▁5937
▁cricket▁5938
▁frog▁5939
▁Steven▁5940
▁Spiel▁5941
berg▁5942
▁clouds▁5943
▁thunder▁5944
▁Mexican▁5945
avi▁5946
▁Pa▁5947
▁Cloud▁5948
burst▁5949
ouTube▁5950
▁Virtual▁5951
▁185▁5952
0▁5953
2▁5954
▁58▁5955
▁Sleep▁5956
▁Water▁5957
▁73▁5958
▁Skype▁5959
▁Fuller▁5960
▁Riverside▁5961
Community▁5962
▁Laura▁5963
▁Tric▁5964
▁deceptive▁5965
▁3-▁5966
▁muse▁5967
▁friendship▁5968
▁rehab▁5969
▁addiction▁5970
▁wound▁5971
▁proud▁5972
▁gentleman▁5973
▁Thank▁5974
▁bread▁5975
inner▁5976
▁April▁5977
▁steak▁5978
▁Would▁5979
secure▁5980
▁wheel▁5981
ps▁5982
▁household▁5983
▁roof▁5984
▁backyard▁5985
▁mothers▁5986
▁Carter▁5987
▁Emma▁5988
▁programmer▁5989
▁visualization▁5990
▁stunning▁5991
▁Digital▁5992
▁Universe▁5993
▁flat▁5994
bound▁5995
limited▁5996
▁Atlas▁5997
▁Museum▁5998
▁Natur▁5999
▁Histor▁6000
▁Planet▁6001
arium▁6002
▁dome▁6003
▁host▁6004
▁Link▁6005
SS▁6006
▁interactive▁6007
▁Matt▁6008
▁Low▁6009
▁Side▁6010
▁Manhattan▁6011
▁collaborative▁6012
▁exhibit▁6013
▁comparative▁6014
▁cosmolog▁6015
▁realm▁6016
▁galaxie▁6017
MA▁6018
▁microwave▁6019
▁meaningless▁6020
▁jumped▁6021
planet▁6022
▁solar▁6023
▁magni▁6024
tude▁6025
▁Voyage▁6026
▁1▁6027
▁Pi▁6028
▁spacecraft▁6029
▁orbit▁6030
▁Moon▁6031
▁Por▁6032
▁Cassini▁6033
▁phase▁6034
▁ingenious▁6035
▁encounter▁6036
▁Titan▁6037
▁Merc▁6038
Sahara▁6039
▁librari▁6040
▁ghetto▁6041
▁Columbia▁6042
▁Cambodia▁6043
▁Saturday▁6044
▁Nepal▁6045
▁Tibet▁6046
▁Gange▁6047
▁closing▁6048
▁snow▁6049
▁Na▁6050
ka▁6051
▁prison▁6052
▁inmates▁6053
▁epi▁6054
sta▁6055
▁trunk▁6056
▁paintbrush▁6057
▁western▁6058
▁Douglas▁6059
▁Picasso▁6060
net▁6061
▁quantify▁6062
▁tree▁6063
▁multipli▁6064
▁branch▁6065
▁186▁6066
,5▁6067
▁2.▁6068
▁incarcerat▁6069
▁declin▁6070
▁Department▁6071
▁Cor▁6072
ction▁6073
▁sustainability▁6074
ft▁6075
▁Nature▁6076
▁Sta▁6077
▁endanger▁6078
▁prairie▁6079
▁restoration▁6080
▁Wild▁6081
▁Oregon▁6082
▁wetland▁6083
▁begu▁6084
▁Super▁6085
action▁6086
▁guard▁6087
▁prisoner▁6088
▁meetings▁6089
mobil▁6090
litary▁6091
▁calm▁6092
circle▁6093
rief▁6094
▁racis▁6095
▁Michael▁6096
▁Hans▁6097
▁unimaginabl▁6098
▁division▁6099
▁algorithm▁6100
▁outrageous▁6101
▁draft▁6102
▁architectural▁6103
▁origin▁6104
▁preconce▁6105
▁split▁6106
▁identical▁6107
▁distinct▁6108
▁asymmetric▁6109
▁simplify▁6110
▁fold▁6111
▁iteration▁6112
▁ratio▁6113
▁sculpt▁6114
▁intersect▁6115
pound▁6116
▁scope▁6117
▁99.9▁6118
▁geometric▁6119
▁curv▁6120
ature▁6121
▁radi▁6122
▁elaborate▁6123
▁minimal▁6124
▁archetyp▁6125
▁algorithmic▁6126
▁cylinder▁6127
▁formation▁6128
bility▁6129
▁overall▁6130
▁microscop▁6131
▁und▁6132
▁elevation▁6133
▁determin▁6134
▁random▁6135
▁analog▁6136
▁printing▁6137
▁tradeoff▁6138
▁resolution▁6139
▁slice▁6140
▁unbe▁6141
known▁6142
▁segment▁6143
▁photo▁6144
▁render▁6145
▁preserve▁6146
,7▁6147
▁kilo▁6148
uditorium▁6149
▁machines▁6150
▁hybrid▁6151
▁illusion▁6152
▁await▁6153
▁Hoffman▁6154
▁Sputnik▁6155
▁Man▁6156
▁Soviet▁6157
▁Union▁6158
start▁6159
▁nose▁6160
▁Russian▁6161
▁Columb▁6162
▁fortune▁6163
▁terrestrial▁6164
▁snippet▁6165
▁Monday▁6166
▁bombs▁6167
▁IBM▁6168
▁loose▁6169
▁historian▁6170
▁Pearl▁6171
▁Harbo▁6172
▁Congress▁6173
▁1,2▁6174
▁nuclear▁6175
▁20,000▁6176
▁Civil▁6177
▁Defens▁6178
▁78▁6179
▁Gallup▁6180
▁scholarship▁6181
PA▁6182
▁investor▁6183
▁TEDster▁6184
▁Walker▁6185
▁Ken▁6186
▁Kam▁6187
▁dead▁6188
liest▁6189
▁Mount▁6190
▁climb▁6191
▁survived▁6192
▁burie▁6193
▁conference▁6194
▁surviv▁6195
▁summon▁6196
▁Geographic▁6197
▁tectonic▁6198
▁sens▁6199
aku▁6200
take▁6201
▁Mars▁6202
▁jacket▁6203
▁solid▁6204
,500▁6205
▁Two▁6206
▁Camp▁6207
▁dwarf▁6208
▁3,000▁6209
▁preparation▁6210
▁camps▁6211
fall▁6212
▁waterfall▁6213
▁rat▁6214
▁tumbl▁6215
v▁6216
asse▁6217
▁ladder▁6218
▁rope▁6219
▁climbing▁6220
▁Thre▁6221
▁fixed▁6222
▁profile▁6223
▁Rob▁6224
ular▁6225
▁Face▁6226
▁steep▁6227
▁daylight▁6228
degree▁6229
blew▁6230
▁anticipat▁6231
▁mask▁6232
▁tank▁6233
itanium▁6234
▁8,000▁6235
▁fierce▁6236
▁dressed▁6237
▁equipp▁6238
▁Doug▁6239
▁exhaust▁6240
▁Beck▁6241
▁confusion▁6242
unk▁6243
▁Bur▁6244
▁Pet▁6245
than▁6246
▁rescue▁6247
▁Le▁6248
▁stabilize▁6249
▁advice▁6250
▁syringe▁6251
▁steroid▁6252
▁luc▁6253
▁injection▁6254
▁clothes▁6255
▁pregnan▁6256
▁signed▁6257
▁impos▁6258
▁warm▁6259
▁reviv▁6260
▁stumbl▁6261
▁mum▁6262
▁cat▁6263
▁indicate▁6264
▁speculate▁6265
▁SPECT▁6266
▁scan▁6267
▁frontal▁6268
▁lobe▁6269
▁concentration▁6270
▁temporal▁6271
bell▁6272
▁stem▁6273
tenance▁6274
▁heartbeat▁6275
spiration▁6276
▁portion▁6277
▁experienc▁6278
▁danger▁6279
▁metabolic▁6280
motivat▁6281
▁cingul▁6282
▁transmitt▁6283
▁spreading▁6284
▁lungs▁6285
▁epic▁6286
▁helicopter▁6287
▁Kath▁6288
du▁6289
▁memorial▁6290
▁Fischer▁6291
▁Andy▁6292
▁Harris▁6293
▁prayer▁6294
▁Penelope▁6295
ffer▁6296
▁chemicals▁6297
▁scientist▁6298
razine▁6299
▁corn▁6300
▁joking▁6301
trogen▁6302
▁Baby▁6303
▁statistics▁6304
▁skyrocket▁6305
incidence▁6306
uk▁6307
emia▁6308
▁statistic▁6309
▁Canadian▁6310
▁asthma▁6311
fold▁6312
▁autism▁6313
▁autist▁6314
▁disorders▁6315
▁genital▁6316
▁defect▁6317
▁diabetes▁6318
▁premature▁6319
▁pubert▁6320
▁pesticide▁6321
▁evaluate▁6322
▁amphibian▁6323
▁EPA▁6324
▁0.1▁6325
▁dissect▁6326
▁ovari▁6327
eopard▁6328
birth▁6329
▁chicken▁6330
▁consum▁6331
aking▁6332
bal▁6333
▁testosterone▁6334
▁enzyme▁6335
mat▁6336
▁subsequent▁6337
▁fe▁6338
▁regulate▁6339
ozo▁6340
▁mutate▁6341
▁exposure▁6342
PJ▁6343
▁bis▁6344
phenol▁6345
carbon▁6346
▁synthetic▁6347
ache▁6348
▁formula▁6349
▁newborn▁6350
▁infant▁6351
▁cup▁6352
▁Senat▁6353
▁police▁6354
▁proven▁6355
▁leak▁6356
▁stands▁6357
▁th▁6358
▁extinction▁6359
▁dinosaurs▁6360
▁indicator▁6361
hell▁6362
▁membrane▁6363
▁mammals▁6364
▁generat▁6365
▁pregnanc▁6366
▁prostate▁6367
▁impair▁6368
amma▁6369
▁nourish▁6370
▁PCB▁6371
▁DDT▁6372
▁determine▁6373
fspring▁6374
▁visualize▁6375
uro▁6376
ano▁6377
▁artificial▁6378
▁van▁6379
guard▁6380
▁resonance▁6381
▁contaminat▁6382
▁activist▁6383
▁sperm▁6384
icular▁6385
bule▁6386
▁reptile▁6387
▁coincidence▁6388
emen▁6389
▁urine▁6390
American▁6391
▁Carson▁6392
gab▁6393
▁Uganda▁6394
▁bath▁6395
▁environmental▁6396
▁Oakland▁6397
percussion▁6398
▁ignorant▁6399
▁burden▁6400
▁Da▁6401
truck▁6402
▁Hurricane▁6403
▁Sand▁6404
▁gallon▁6405
▁batteries▁6406
▁shower▁6407
▁preoccup▁6408
▁baker▁6409
▁entrance▁6410
ison▁6411
charging▁6412
▁outlet▁6413
▁arc▁6414
▁discrete▁6415
▁heartbreak▁6416
▁disappointment▁6417
frame▁6418
▁immersive▁6419
▁embedded▁6420
▁regret▁6421
▁alter▁6422
▁gra▁6423
ehen▁6424
second▁6425
▁signal▁6426
▁arrow▁6427
▁app▁6428
▁Delhi▁6429
▁reservation▁6430
▁plain▁6431
▁archive▁6432
▁distinction▁6433
▁prioritize▁6434
▁landmark▁6435
▁invitation▁6436
▁exile▁6437
▁sake▁6438
▁competition▁6439
▁absent▁6440
▁convenience▁6441
▁horror▁6442
▁Paris▁6443
▁shatter▁6444
▁displace▁6445
perpetuat▁6446
ture▁6447
▁simultaneous▁6448
vis▁6449
▁Bud▁6450
▁Spanish▁6451
▁rid▁6452
link▁6453
▁terra▁6454
▁Jupiter▁6455
▁Saturn▁6456
▁balance▁6457
▁wrapp▁6458
war▁6459
▁deepest▁6460
▁soap▁6461
selves▁6462
ulate▁6463
▁tuck▁6464
▁chopp▁6465
bb▁6466
▁dig▁6467
▁wit▁6468
$▁6469
▁Turkish▁6470
▁carpet▁6471
▁mom▁6472
oyle▁6473
▁storytelling▁6474
urf▁6475
witzer▁6476
fin▁6477
▁trap▁6478
▁graphics▁6479
▁Silicon▁6480
▁Valley▁6481
▁manager▁6482
PO▁6483
▁Luke▁6484
▁retrospect▁6485
▁styl▁6486
▁quote▁6487
▁advertis▁6488
project▁6489
▁functionalit▁6490
▁Mini▁6491
▁horizontal▁6492
▁manufacturer▁6493
▁Swa▁6494
▁lamp▁6495
▁Miller▁6496
▁mood▁6497
▁civic▁6498
▁users▁6499
▁glue▁6500
bone▁6501
▁tech▁6502
▁nerd▁6503
ories▁6504
▁pursu▁6505
▁sketch▁6506
ain▁6507
▁CEO▁6508
▁Ali▁6509
▁Ar▁6510
▁sodas▁6511
▁symmetric▁6512
▁upside▁6513
▁emulat▁6514
▁Laptop▁6515
▁precious▁6516
▁Nichol▁6517
▁Negro▁6518
pont▁6519
▁spoken▁6520
▁founder▁6521
OL▁6522
Fi▁6523
▁sunlight▁6524
▁keyboard▁6525
▁rubber▁6526
▁Uru▁6527
gua▁6528
▁Mongol▁6529
▁bei▁6530
▁manufactur▁6531
▁nephew▁6532
▁Valenti▁6533
▁Health▁6534
▁hydrant▁6535
▁homeless▁6536
▁announcement▁6537
▁stigma▁6538
▁Egg▁6539
▁Up▁6540
▁School▁6541
▁spell▁6542
alencia▁6543
lept▁6544
▁Neil▁6545
▁compar▁6546
▁Brooklyn▁6547
▁flexible▁6548
▁Park▁6549
lop▁6550
▁inspiring▁6551
fund▁6552
▁multiply▁6553
▁clon▁6554
▁editor▁6555
▁assistant▁6556
▁prima▁6557
▁nurtur▁6558
▁enlighten▁6559
▁rent▁6560
▁Mc▁6561
uar▁6562
lord▁6563
▁printed▁6564
▁retail▁6565
▁fluorescent▁6566
▁renovat▁6567
▁hull▁6568
cca▁6569
▁pirate▁6570
eg▁6571
▁mit▁6572
va▁6573
▁salt▁6574
▁curtain▁6575
▁edit▁6576
uction▁6577
▁sandwich▁6578
▁sidewalk▁6579
▁Free▁6580
▁Tu▁6581
▁Come▁6582
▁All▁6583
▁discourag▁6584
▁Mexic▁6585
▁executive▁6586
Mo▁6587
▁insane▁6588
shoulder▁6589
computer▁6590
stall▁6591
▁hob▁6592
▁1,4▁6593
▁corp▁6594
▁Book▁6595
▁Was▁6596
eck▁6597
▁malleab▁6598
▁essay▁6599
▁staff▁6600
▁Room▁6601
▁style▁6602
▁library▁6603
▁52▁6604
▁Stra▁6605
▁May▁6606
▁Isabel▁6607
▁Allende▁6608
▁assign▁6609
▁Marshall▁6610
▁High▁6611
▁Bay▁6612
▁Area▁6613
▁Amazon▁6614
▁170▁6615
▁Tan▁6616
▁addict▁6617
shelf▁6618
▁diminish▁6619
▁ga▁6620
▁judge▁6621
▁member▁6622
▁gateway▁6623
▁web▁6624
▁parrot▁6625
▁downtown▁6626
▁Compan▁6627
▁Sam▁6628
▁superhero▁6629
pur▁6630
villa▁6631
▁vault▁6632
▁sales▁6633
▁Sharo▁6634
▁Hob▁6635
▁Jersey▁6636
▁shelve▁6637
▁grappl▁6638
no▁6639
borough▁6640
▁devotion▁6641
▁flick▁6642
▁Kha▁6643
▁Ham▁6644
Be▁6645
gu▁6646
▁Bal▁6647
▁penguin▁6648
▁Symphon▁6649
▁Space▁6650
▁evangelical▁6651
▁cousin▁6652
▁Echo▁6653
▁Tra▁6654
▁Mar▁6655
▁Are▁6656
▁mammoth▁6657
▁Back▁6658
ff▁6659
▁Pitt▁6660
▁Massac▁6661
hus▁6662
etts▁6663
▁Spot▁6664
▁Sp▁6665
▁Studio▁6666
▁Aus▁6667
▁Bat▁6668
▁Word▁6669
▁Dublin▁6670
▁leap▁6671
▁phenomenal▁6672
▁sterile▁6673
▁bureaucrat▁6674
▁unten▁6675
dding▁6676
▁Root▁6677
▁Wol▁6678
engineering▁6679
▁dogs▁6680
▁biotechnolog▁6681
▁Darwinian▁6682
▁nich▁6683
▁settl▁6684
▁intentional▁6685
▁physiological▁6686
▁selective▁6687
design▁6688
▁beef▁6689
uffalo▁6690
ca▁6691
▁pat▁6692
▁supermarket▁6693
▁goat▁6694
▁cute▁6695
▁afterward▁6696
▁taste▁6697
▁camel▁6698
iness▁6699
▁li▁6700
▁lion▁6701
iger▁6702
▁Photoshop▁6703
▁enhance▁6704
▁manipulation▁6705
▁mammal▁6706
▁genetically▁6707
▁wavelength▁6708
▁orange▁6709
▁monkey▁6710
▁manipulate▁6711
▁apes▁6712
bra▁6713
▁FDA▁6714
almon▁6715
▁Chi▁6716
▁regulation▁6717
▁identification▁6718
met▁6719
▁gold▁6720
geld▁6721
▁duplicate▁6722
lves▁6723
▁Dotcom▁6724
ombin▁6725
▁modifie▁6726
▁Gene▁6727
gen▁6728
▁Institute▁6729
▁Animal▁6730
▁Asian▁6731
matic▁6732
▁gest▁6733
▁cow▁6734
▁regular▁6735
▁nucle▁6736
▁pure▁6737
▁cockroach▁6738
▁gang▁6739
▁insect▁6740
▁bot▁6741
bot▁6742
▁DARPA▁6743
▁Agenc▁6744
▁beetle▁6745
▁wings▁6746
▁chip▁6747
▁shut▁6748
pf▁6749
▁surveill▁6750
▁Tal▁6751
▁SUN▁6752
▁hemisphere▁6753
▁ethical▁6754
▁autonom▁6755
▁Mig▁6756
▁Nicole▁6757
▁prosthetic▁6758
wave▁6759
▁cage▁6760
▁staring▁6761
▁primate▁6762
▁functional▁6763
▁Florida▁6764
▁60,000▁6765
▁mechanism▁6766
simulator▁6767
▁nutrient▁6768
▁immun▁6769
▁polymer▁6770
▁scaffold▁6771
▁transplant▁6772
technolog▁6773
transplantation▁6774
▁Craig▁6775
▁Venter▁6776
▁Frankenstein▁6777
plasma▁6778
▁reign▁6779
▁Dach▁6780
hund▁6781
▁pink▁6782
▁fur▁6783
▁saliva▁6784
▁Fan▁6785
haus▁6786
zero▁6787
▁Auto▁6788
▁Laborator▁6789
ET▁6790
▁Ball▁6791
▁balanc▁6792
▁inherent▁6793
▁inform▁6794
▁entertain▁6795
▁footprint▁6796
▁Debora▁6797
▁Rhode▁6798
▁physicist▁6799
▁detection▁6800
▁mammogram▁6801
▁mammograph▁6802
▁rhetoric▁6803
▁radiologist▁6804
closure▁6805
▁lump▁6806
▁diagnose▁6807
▁benign▁6808
▁Pre▁6809
▁Service▁6810
▁recommend▁6811
▁coverage▁6812
▁outrage▁6813
▁Post▁6814
interest▁6815
▁shortage▁6816
▁qualifie▁6817
▁interpret▁6818
▁sue▁6819
▁responsibl▁6820
▁fat▁6821
▁determined▁6822
enopaus▁6823
▁fatty▁6824
▁scatter▁6825
▁fibro▁6826
lf▁6827
▁distinguish▁6828
▁ob▁6829
▁physician▁6830
▁taxpayer▁6831
▁ultrasound▁6832
▁disruptive▁6833
▁ubiquitous▁6834
▁stereo▁6835
▁Hummer▁6836
▁Malco▁6837
▁Gladwell▁6838
▁essence▁6839
▁innovator▁6840
▁cartoon▁6841
▁disturb▁6842
▁depict▁6843
▁serendipit▁6844
▁cardiac▁6845
▁detector▁6846
▁tubes▁6847
▁sci▁6848
illa▁6849
▁ray▁6850
▁centimeter▁6851
conduct▁6852
▁tape▁6853
olecular▁6854
▁MBI▁6855
ternis▁6856
▁biomedic▁6857
rench▁6858
▁duct▁6859
▁skeptic▁6860
▁modification▁6861
▁reli▁6862
▁molecular▁6863
▁compress▁6864
▁faint▁6865
▁surgical▁6866
▁grant▁6867
▁Susan▁6868
▁investigat▁6869
▁83▁6870
▁golf▁6871
▁lymph▁6872
▁67▁6873
fifth▁6874
atom▁6875
▁accurate▁6876
▁prefer▁6877
▁manuscript▁6878
▁journal▁6879
▁rejection▁6880
▁request▁6881
▁Radio▁6882
▁replicate▁6883
doption▁6884
▁Ninety▁6885
▁Connecti▁6886
▁rage▁6887
▁mortality▁6888
▁sword▁6889
▁advocate▁6890
together▁6891
ctic▁6892
ect▁6893
▁Brother▁6894
▁juggl▁6895
▁sacrifice▁6896
▁Holz▁6897
▁Barry▁6898
go▁6899
omics▁6900
▁comfort▁6901
▁flexibilit▁6902
▁DH▁6903
▁inspiration▁6904
F▁6905
▁Daniel▁6906
▁MacArthur▁6907
schen▁6908
▁excerpt▁6909
opper▁6910
▁Richard▁6911
▁tradition▁6912
▁bull▁6913
▁balloon▁6914
▁incorporate▁6915
▁Jesus▁6916
▁Wurm▁6917
▁hate▁6918
▁Wow▁6919
▁flash▁6920
▁Glori▁6921
▁razor▁6922
▁judg▁6923
▁blade▁6924
▁virgin▁6925
▁odd▁6926
ball▁6927
gosh▁6928
▁French▁6929
▁5.▁6930
▁rap▁6931
▁lying▁6932
▁twin▁6933
▁She▁6934
▁J▁6935
▁Olympic▁6936
▁pearl▁6937
▁tongue▁6938
▁Se▁6939
club▁6940
fu▁6941
▁joint▁6942
rthritis▁6943
step▁6944
human▁6945
nis▁6946
cus▁6947
▁carti▁6948
▁orthopedic▁6949
▁assum▁6950
ograf▁6951
grow▁6952
▁Aspen▁6953
▁motorcycle▁6954
▁barrier▁6955
▁gal▁6956
▁Achilles▁6957
▁collage▁6958
▁strip▁6959
▁detergent▁6960
▁template▁6961
▁insert▁6962
▁procedure▁6963
▁Gal▁6964
▁Master▁6965
hill▁6966
lig▁6967
face▁6968
bul▁6969
pati▁6970
ware▁6971
▁2.0▁6972
▁Dick▁6973
▁caterpillar▁6974
▁eco▁6975
friend▁6976
timation▁6977
▁conservative▁6978
▁57▁6979
▁contribution▁6980
▁dung▁6981
▁pollinate▁6982
▁reproduction▁6983
▁pest▁6984
ji▁6985
▁inhabitant▁6986
▁gram▁6987
▁tomato▁6988
▁peanut▁6989
▁agency▁6990
▁balls▁6991
▁dye▁6992
eat▁6993
▁Can▁6994
▁Peru▁6995
euros▁6996
▁exponentially▁6997
FA▁6998
▁consist▁6999
stock▁7000
▁vegetarian▁7001
▁organs▁7002
therland▁7003
▁classical▁7004
▁fever▁7005
▁convers▁7006
▁entrepreneur▁7007
▁kg▁7008
▁bonus▁7009
analyse▁7010
▁comparabl▁7011
▁grass▁7012
▁Mac▁7013
▁expense▁7014
▁vary▁7015
▁Arno▁7016
▁Pe▁7017
▁2020▁7018
▁Minister▁7019
▁menu▁7020
▁ministr▁7021
gue▁7022
▁hobby▁7023
▁1,7▁7024
▁Wagen▁7025
▁Bruno▁7026
▁Gius▁7027
▁nuts▁7028
▁Lawrence▁7029
ami▁7030
▁remix▁7031
▁Republican▁7032
▁Larry▁7033
▁Democrat▁7034
▁copyright▁7035
▁lens▁7036
▁confess▁7037
oung▁7038
▁Tee▁7039
ngest▁7040
▁convention▁7041
▁elect▁7042
onald▁7043
▁Reagan▁7044
mine▁7045
▁Wikipedia▁7046
▁junk▁7047
▁Penn▁7048
lvani▁7049
▁speaker▁7050
▁pot▁7051
▁Wall▁7052
▁keen▁7053
▁ecolog▁7054
▁Teddy▁7055
▁Roosevelt▁7056
▁Julian▁7057
che▁7058
▁libert▁7059
arian▁7060
▁evil▁7061
▁Bra▁7062
▁Pack▁7063
ania▁7064
▁viral▁7065
isco▁7066
▁Francis▁7067
▁mash▁7068
▁screw▁7069
▁resonate▁7070
LL▁7071
▁yield▁7072
▁dialogue▁7073
▁maximize▁7074
▁suppress▁7075
▁Mick▁7076
team▁7077
▁Willi▁7078
▁dominant▁7079
▁Bus▁7080
▁celebration▁7081
▁Bono▁7082
▁Copyright▁7083
tension▁7084
▁Act▁7085
▁Grim▁7086
bble▁7087
▁creator▁7088
▁perpetual▁7089
▁employ▁7090
ership▁7091
▁Gold▁7092
▁Sach▁7093
protected▁7094
▁permission▁7095
▁nonprofit▁7096
▁Creative▁7097
▁requir▁7098
▁350▁7099
▁Wir▁7100
▁upload▁7101
▁matched▁7102
▁DMCA▁7103
▁flaw▁7104
▁audio▁7105
▁included▁7106
▁Bart▁7107
▁Simpson▁7108
▁election▁7109
▁opponent▁7110
▁respectful▁7111
▁luna▁7112
▁agreement▁7113
▁Right▁7114
▁legislat▁7115
▁BMW▁7116
▁Deep▁7117
▁SUV▁7118
▁pole▁7119
▁aesthetic▁7120
▁Michelangelo▁7121
▁elevator▁7122
▁congesti▁7123
▁avatar▁7124
▁anger▁7125
▁Chevy▁7126
▁Rock▁7127
▁sculpture▁7128
▁tension▁7129
▁handle▁7130
▁obligation▁7131
▁clay▁7132
▁infectious▁7133
▁Plato▁7134
▁Newton▁7135
▁quant▁7136
▁paradox▁7137
▁4.▁7138
▁4.000▁7139
▁applica▁7140
brush▁7141
titution▁7142
▁intimacy▁7143
▁temper▁7144
mal▁7145
▁killing▁7146
▁stole▁7147
▁monumental▁7148
▁postcard▁7149
▁Vega▁7150
▁Canyon▁7151
gar▁7152
▁Fall▁7153
▁apartment▁7154
▁Taylor▁7155
▁Mal▁7156
zen▁7157
▁Don▁7158
dia▁7159
sch▁7160
▁agenda▁7161
▁sketches▁7162
▁brillian▁7163
▁baffl▁7164
▁bullshit▁7165
▁fuck▁7166
▁holiday▁7167
▁Cathe▁7168
rine▁7169
▁priest▁7170
▁sermon▁7171
▁selfish▁7172
▁Guy▁7173
ifi▁7174
▁dictate▁7175
▁coup▁7176
▁Sinclair▁7177
▁refugee▁7178
bus▁7179
▁TEDGlobal▁7180
estate▁7181
▁mega▁7182
▁migrant▁7183
▁construction▁7184
▁strand▁7185
▁penni▁7186
tari▁7187
▁worker▁7188
▁skyscraper▁7189
▁cancel▁7190
▁1.1▁7191
▁Pakistani▁7192
▁Sri▁7193
▁Lanka▁7194
ese▁7195
▁passport▁7196
af▁7197
▁August▁7198
▁minimum▁7199
▁protest▁7200
adequate▁7201
▁hous▁7202
▁contractor▁7203
▁arrival▁7204
▁developer▁7205
ethical▁7206
▁Tyle▁7207
▁plans▁7208
▁horrify▁7209
▁textbook▁7210
▁clar▁7211
▁bor▁7212
▁um▁7213
▁smile▁7214
▁memorize▁7215
▁Listen▁7216
▁microscope▁7217
▁bacteri▁7218
▁spoil▁7219
▁horrible▁7220
▁slipp▁7221
▁blueprint▁7222
▁factory▁7223
pionage▁7224
▁terrorist▁7225
▁guarantee▁7226
▁obsession▁7227
▁publisher▁7228
▁engag▁7229
▁slime▁7230
▁copie▁7231
ophag▁7232
replication▁7233
▁initiat▁7234
▁fault▁7235
▁ugl▁7236
gging▁7237
▁darkness▁7238
▁Roh▁7239
▁paraphras▁7240
▁sentiment▁7241
▁relevant▁7242
▁disappointed▁7243
▁advoca▁7244
▁learner▁7245
ech▁7246
▁circum▁7247
▁equi▁7248
libri▁7249
pel▁7250
▁LOLcat▁7251
▁appreciat▁7252
rgon▁7253
wall▁7254
▁Eco▁7255
▁recycl▁7256
▁Serious▁7257
▁Material▁7258
rctic▁7259
▁CO▁7260
▁sushi▁7261
▁redesign▁7262
amp▁7263
▁cement▁7264
▁Dec▁7265
ember▁7266
▁President▁7267
▁Operation▁7268
▁ceremon▁7269
▁Cradle▁7270
▁Green▁7271
In▁7272
▁Popular▁7273
lick▁7274
▁Natalie▁7275
▁reduc▁7276
▁Windows▁7277
▁windows▁7278
▁Ban▁7279
▁emergenc▁7280
▁temporar▁7281
▁diameter▁7282
▁expo▁7283
▁theme▁7284
▁pavilion▁7285
▁Pomp▁7286
etz▁7287
▁historical▁7288
▁reconstruction▁7289
▁1994▁7290
▁tribes▁7291
▁Hut▁7292
▁blanket▁7293
▁deforest▁7294
▁pipe▁7295
▁moisture▁7296
▁1995▁7297
▁district▁7298
▁Vietnamese▁7299
▁suffering▁7300
▁Catholic▁7301
▁commut▁7302
▁fundrais▁7303
▁Kir▁7304
▁Taiwan▁7305
▁dismantle▁7306
urkey▁7307
▁Su▁7308
▁Islamic▁7309
▁Chen▁7310
▁Sich▁7311
uan▁7312
▁corruption▁7313
▁Prime▁7314
▁Ber▁7315
▁minister▁7316
▁concert▁7317
▁mayor▁7318
▁Haiti▁7319
▁Domin▁7320
door▁7321
▁evacuat▁7322
ymnasium▁7323
▁privacy▁7324
▁suffer▁7325
ag▁7326
awa▁7327
iya▁7328
▁baseball▁7329
▁container▁7330
chu▁7331
▁Ze▁7332
anthrop▁7333
▁skeleton▁7334
▁humanoid▁7335
▁converge▁7336
▁upright▁7337
▁Sela▁7338
▁3.▁7339
▁Australopithec▁7340
far▁7341
▁Luc▁7342
ik▁7343
ika▁7344
▁significan▁7345
▁digg▁7346
▁flute▁7347
▁chimpanzee▁7348
▁ancestr▁7349
▁gradual▁7350
▁hostile▁7351
▁shove▁7352
▁extinct▁7353
▁rhino▁7354
spread▁7355
▁Homo▁7356
▁sapien▁7357
▁anecdote▁7358
▁Here▁7359
▁frustrat▁7360
case▁7361
▁expose▁7362
tourism▁7363
▁hallmark▁7364
▁forehead▁7365
▁dim▁7366
▁CT▁7367
▁chimp▁7368
▁cope▁7369
▁dependenc▁7370
oid▁7371
▁progressive▁7372
▁occupy▁7373
▁specimen▁7374
▁primitive▁7375
brain▁7376
▁guns▁7377
▁Homer▁7378
▁hippocamp▁7379
▁resemble▁7380
▁pulse▁7381
▁electricity▁7382
▁interconnected▁7383
▁spatial▁7384
▁recording▁7385
▁neuron▁7386
▁continual▁7387
▁epilep▁7388
▁impulse▁7389
▁detect▁7390
▁boundary▁7391
▁circular▁7392
▁marker▁7393
▁wander▁7394
▁integrate▁7395
▁array▁7396
▁triangula▁7397
▁longitud▁7398
▁triangle▁7399
▁axe▁7400
▁symmetr▁7401
▁orientation▁7402
▁matche▁7403
▁cue▁7404
▁autobiograph▁7405
▁wedding▁7406
▁recreat▁7407
▁interconnect▁7408
▁reactiv▁7409
▁viewpoint▁7410
▁compass▁7411
▁neuroscience▁7412
▁Jones▁7413
▁Isa▁7414
legged▁7415
plex▁7416
▁Josh▁7417
omi▁7418
▁Circle▁7419
▁Curt▁7420
▁Vanco▁7421
uver▁7422
15▁7423
▁marsh▁7424
▁stirring▁7425
▁existence▁7426
▁warrior▁7427
horn▁7428
force▁7429
▁dress▁7430
down▁7431
▁incompatib▁7432
peration▁7433
▁Wide▁7434
▁Web▁7435
▁corporation▁7436
care▁7437
▁sport▁7438
▁medi▁7439
▁realistic▁7440
▁retire▁7441
▁10-▁7442
▁daunting▁7443
▁Blood▁7444
▁Harry▁7445
▁swing▁7446
▁pizza▁7447
▁Batman▁7448
▁Giant▁7449
station▁7450
ronic▁7451
▁simplistic▁7452
▁shap▁7453
▁constitute▁7454
▁consequent▁7455
▁separation▁7456
▁crucial▁7457
constru▁7458
▁complexity▁7459
tern▁7460
▁strangers▁7461
▁murder▁7462
discriminat▁7463
conceivabl▁7464
holera▁7465
▁arrangement▁7466
▁necessit▁7467
▁suicide▁7468
▁72▁7469
▁psychology▁7470
▁mystic▁7471
educ▁7472
▁cooperation▁7473
raising▁7474
▁bruise▁7475
▁bli▁7476
▁spare▁7477
▁rod▁7478
▁Spec▁7479
▁statue▁7480
▁carve▁7481
▁marathon▁7482
▁donation▁7483
vision▁7484
uous▁7485
▁undermine▁7486
ueen▁7487
izen▁7488
▁voluntary▁7489
▁veil▁7490
▁optimal▁7491
▁dem▁7492
ogue▁7493
▁gay▁7494
▁proliferation▁7495
alai▁7496
▁Lama▁7497
▁integral▁7498
▁fond▁7499
▁Edward▁7500
▁Witt▁7501
▁theorist▁7502
▁physics▁7503
▁Str▁7504
▁bo▁7505
▁exclude▁7506
▁ignorance▁7507
course▁7508
▁destructive▁7509
invent▁7510
▁airplane▁7511
▁lust▁7512
▁imperial▁7513
q▁7514
▁reconcile▁7515
▁negative▁7516
▁compuls▁7517
▁judgment▁7518
modu▁7519
lo▁7520
▁delusion▁7521
ecause▁7522
▁ecsta▁7523
▁Kavita▁7524
▁Ram▁7525
style▁7526
▁Global▁7527
▁Fund▁7528
▁traditions▁7529
▁trends▁7530
ima▁7531
▁polar▁7532
▁First▁7533
▁Third▁7534
▁oppress▁7535
▁vicious▁7536
plan▁7537
violent▁7538
▁puzzle▁7539
▁harmon▁7540
▁lesbian▁7541
▁Cro▁7542
▁Liberia▁7543
bt▁7544
dem▁7545
eanor▁7546
▁suspicious▁7547
▁uncle▁7548
▁widow▁7549
▁descend▁7550
mutter▁7551
▁feminist▁7552
▁Hind▁7553
▁Beijing▁7554
turn▁7555
▁Koran▁7556
▁litera▁7557
▁immense▁7558
▁pragmatic▁7559
▁assist▁7560
▁mosque▁7561
ug▁7562
▁realiz▁7563
▁opposition▁7564
▁Les▁7565
▁Za▁7566
▁homosexual▁7567
▁discomfort▁7568
▁prejudice▁7569
conflict▁7570
▁Bosnia▁7571
▁Serbia▁7572
lov▁7573
▁folk▁7574
▁queer▁7575
▁Leah▁7576
▁rebel▁7577
ugoslav▁7578
rob▁7579
▁LGBT▁7580
▁repertoire▁7581
ets▁7582
▁Church▁7583
▁trou▁7584
▁Balkan▁7585
▁Serb▁7586
▁Mall▁7587
mah▁7588
▁stri▁7589
cted▁7590
▁distress▁7591
▁affair▁7592
▁oppos▁7593
▁dragg▁7594
liberation▁7595
▁curse▁7596
▁accord▁7597
▁mobiliz▁7598
▁Ellen▁7599
▁acknowledge▁7600
▁Fil▁7601
rice▁7602
▁Marx▁7603
▁dreams▁7604
▁feminism▁7605
▁ruling▁7606
▁occupie▁7607
▁negotiation▁7608
▁mar▁7609
▁Michelle▁7610
▁Shir▁7611
bou▁7612
▁navigate▁7613
▁thread▁7614
▁fabric▁7615
▁Schulz▁7616
▁compell▁7617
▁Portland▁7618
▁Dakota▁7619
▁row▁7620
▁imitation▁7621
▁misunderst▁7622
▁poll▁7623
▁emotionally▁7624
▁dreadful▁7625
▁embarrassing▁7626
▁Tun▁7627
oyo▁7628
▁episode▁7629
▁elementary▁7630
maker▁7631
▁CFO▁7632
trophy▁7633
▁ultra▁7634
mar▁7635
▁Medica▁7636
▁stitch▁7637
▁For▁7638
▁external▁7639
▁Gulf▁7640
▁disagree▁7641
▁generous▁7642
▁attachment▁7643
▁translucen▁7644
▁Descartes▁7645
▁Public▁7646
▁readers▁7647
▁invad▁7648
destruction▁7649
bar▁7650
▁dictator▁7651
▁marry▁7652
heart▁7653
town▁7654
▁astonishe▁7655
▁offen▁7656
▁advancement▁7657
alter▁7658
▁Peace▁7659
apped▁7660
lt▁7661
▁chief▁7662
wear▁7663
▁Wei▁7664
▁companion▁7665
▁activis▁7666
▁sibling▁7667
▁19▁7668
▁athletic▁7669
▁Millennium▁7670
evelopment▁7671
prostitution▁7672
▁prostitute▁7673
arten▁7674
▁TEDTalk▁7675
▁laureate▁7676
▁Girl▁7677
▁Transform▁7678
▁soft▁7679
▁cellphone▁7680
▁Juan▁7681
ita▁7682
▁dough▁7683
▁upset▁7684
▁Texas▁7685
▁LG▁7686
▁Initiative▁7687
▁predominant▁7688
▁rape▁7689
▁barbari▁7690
hang▁7691
▁globalization▁7692
▁migrate▁7693
▁handbag▁7694
▁rooftop▁7695
▁assembl▁7696
▁iPad▁7697
▁beneficia▁7698
▁purchase▁7699
▁injustice▁7700
▁appeal▁7701
▁gadget▁7702
▁invisib▁7703
▁Wu▁7704
▁satisfy▁7705
▁Lu▁7706
▁Karl▁7707
▁capitalism▁7708
▁cabinet▁7709
▁satisfact▁7710
▁entry▁7711
level▁7712
▁calculation▁7713
▁Min▁7714
▁Coach▁7715
▁leather▁7716
▁6,000▁7717
▁currenc▁7718
▁Signatur▁7719
▁luxur▁7720
▁fla▁7721
▁ador▁7722
▁tendenc▁7723
▁electronics▁7724
▁purchas▁7725
▁crane▁7726
▁migration▁7727
▁Nike▁7728
▁depress▁7729
▁Apple▁7730
LC▁7731
▁impressed▁7732
▁illiterate▁7733
▁weekend▁7734
▁rudiment▁7735
▁upward▁7736
ways▁7737
Gregor▁7738
ei▁7739
form▁7740
▁script▁7741
▁Cyr▁7742
▁tolerance▁7743
cultural▁7744
▁Director▁7745
▁biograph▁7746
▁rug▁7747
▁bake▁7748
▁187▁7749
▁Bel▁7750
zzar▁7751
▁53▁7752
BC▁7753
▁Rem▁7754
brand▁7755
▁Galler▁7756
▁illustrat▁7757
▁scripture▁7758
buch▁7759
▁Jerusalem▁7760
▁Jew▁7761
▁Babylon▁7762
sia▁7763
▁fest▁7764
▁Persian▁7765
▁Jewish▁7766
▁empire▁7767
▁Mediterrane▁7768
▁Iraqi▁7769
▁consultant▁7770
ltar▁7771
▁worship▁7772
▁Ezra▁7773
▁reported▁7774
▁Jud▁7775
▁historic▁7776
▁Dari▁7777
ith▁7778
▁religions▁7779
▁stabilit▁7780
▁Alexander▁7781
▁Fa▁7782
▁Jefferson▁7783
▁god▁7784
▁Bab▁7785
duk▁7786
▁shepherd▁7787
▁grateful▁7788
▁Old▁7789
▁Testament▁7790
▁Je▁7791
▁hast▁7792
17▁7793
four▁7794
▁1918▁7795
▁divine▁7796
▁Shah▁7797
Muslim▁7798
▁Zo▁7799
embl▁7800
ue▁7801
▁cooperate▁7802
▁loan▁7803
▁tolerant▁7804
▁rum▁7805
▁constitution▁7806
▁Joshua▁7807
▁Klein▁7808
▁crows▁7809
▁hacker▁7810
▁cor▁7811
▁Alfred▁7812
cock▁7813
Bird▁7814
▁cocktail▁7815
adapte▁7816
ept▁7817
▁parasit▁7818
▁responsive▁7819
▁indicat▁7820
▁exponential▁7821
▁Bett▁7822
▁crow▁7823
▁campus▁7824
▁nett▁7825
▁piss▁7826
▁nut▁7827
endai▁7828
▁Pandora▁7829
▁Skinner▁7830
▁spit▁7831
▁sweep▁7832
▁slot▁7833
▁poke▁7834
▁monopol▁7835
▁discard▁7836
▁Log▁7837
▁tribal▁7838
ureau▁7839
hatte▁7840
▁Bowl▁7841
▁council▁7842
weise▁7843
▁nach▁7844
▁candidate▁7845
▁Clinton▁7846
mination▁7847
▁tribe▁7848
▁Obama▁7849
USC▁7850
▁crowd▁7851
▁rub▁7852
▁nudge▁7853
▁Stage▁7854
▁Five▁7855
▁Virginia▁7856
▁Tech▁7857
▁Law▁7858
▁Performance▁7859
▁hostilit▁7860
▁Motor▁7861
▁TEDx▁7862
changing▁7863
▁Did▁7864
▁Journal▁7865
▁Medicine▁7866
ile▁7867
▁surger▁7868
▁residenc▁7869
▁hallway▁7870
▁applaud▁7871
▁competenc▁7872
centric▁7873
▁Truth▁7874
mond▁7875
tu▁7876
▁atrocit▁7877
▁reconcili▁7878
▁guid▁7879
▁accomplish▁7880
▁conclude▁7881
▁DM▁7882
▁na▁7883
▁Independen▁7884
ali▁7885
orient▁7886
▁Luther▁7887
▁48▁7888
▁Chief▁7889
▁Polic▁7890
▁Organization▁7891
▁McCain▁7892
▁Sub▁7893
▁Frederic▁7894
lag▁7895
▁diagnostic▁7896
▁Senior▁7897
▁Fellow▁7898
wie▁7899
▁miniaturiz▁7900
▁AIDS▁7901
▁capabilit▁7902
▁medication▁7903
resistan▁7904
▁laborator▁7905
rofluid▁7906
▁US▁7907
▁valve▁7908
▁Jona▁7909
ori▁7910
▁tricks▁7911
▁dazzling▁7912
▁flower▁7913
▁ultraviolet▁7914
▁mimick▁7915
▁electron▁7916
▁forensic▁7917
▁chuck▁7918
▁cereal▁7919
▁transfer▁7920
▁bees▁7921
ectar▁7922
▁hummingbird▁7923
▁hawk▁7924
▁orchid▁7925
▁jaw▁7926
▁pollinator▁7927
▁Darwin▁7928
▁prediction▁7929
evolv▁7930
▁deceive▁7931
hou▁7932
▁texture▁7933
los▁7934
▁bon▁7935
▁fabulous▁7936
lang▁7937
▁perfume▁7938
rum▁7939
▁Dor▁7940
mbient▁7941
▁metaboliz▁7942
▁starch▁7943
▁Cent▁7944
▁thermo▁7945
egulation▁7946
terflies▁7947
▁shade▁7948
▁filter▁7949
screen▁7950
▁prim▁7951
rose▁7952
jo▁7953
▁Ror▁7954
▁poetic▁7955
▁astronomer▁7956
▁Venus▁7957
▁Kim▁7958
▁charm▁7959
▁resist▁7960
▁crayon▁7961
▁inflict▁7962
▁mono▁7963
amas▁7964
▁Mom▁7965
huh▁7966
▁Bar▁7967
ubert▁7968
▁anxious▁7969
mino▁7970
▁Franz▁7971
▁Kafka▁7972
▁Meta▁7973
▁justify▁7974
▁useless▁7975
▁Michel▁7976
▁Tour▁7977
▁tire▁7978
▁fatigue▁7979
▁Wolf▁7980
gang▁7981
▁joyful▁7982
ime▁7983
▁ballet▁7984
▁eighth▁7985
book▁7986
cal▁7987
▁palace▁7988
▁mor▁7989
dom▁7990
▁galleries▁7991
▁Base▁7992
▁punish▁7993
▁Un▁7994
▁Bull▁7995
banish▁7996
kara▁7997
▁mi▁7998
iff▁7999
▁Lego▁8000
castle▁8001
▁log▁8002
▁Drama▁8003
▁devil▁8004
▁creep▁8005
▁spouse▁8006
▁alcohol▁8007
▁banker▁8008
▁painter▁8009
▁Marth▁8010
▁Graham▁8011
▁Gi▁8012
spiring▁8013
▁Cla▁8014
▁Han▁8015
▁blogs▁8016
ucci▁8017
▁stars▁8018
▁threat▁8019
motion▁8020
▁Milo▁8021
evic▁8022
▁broadcast▁8023
▁Jackson▁8024
▁charit▁8025
rati▁8026
▁circulation▁8027
▁strangl▁8028
▁97▁8029
▁finance▁8030
▁lease▁8031
▁Nikola▁8032
▁planes▁8033
script▁8034
▁hypothetical▁8035
▁spectacular▁8036
▁deaf▁8037
uad▁8038
▁daydream▁8039
matrix▁8040
▁rating▁8041
▁Morning▁8042
▁marketplace▁8043
▁ethnic▁8044
▁racial▁8045
▁Fe▁8046
post▁8047
▁occurrence▁8048
▁database▁8049
▁swarm▁8050
▁particle▁8051
▁affection▁8052
▁lips▁8053
▁pond▁8054
▁cursor▁8055
▁Montag▁8056
▁Mob▁8057
▁Metric▁8058
▁murmur▁8059
▁fog▁8060
tage▁8061
▁statistical▁8062
▁breakdown▁8063
frequent▁8064
gram▁8065
▁twentie▁8066
▁numerical▁8067
▁mound▁8068
▁gelatin▁8069
ggle▁8070
▁lonel▁8071
ahoo▁8072
ule▁8073
▁fingerprint▁8074
ende▁8075
▁capsule▁8076
▁Voice▁8077
▁punct▁8078
ez▁8079
▁Ver▁8080
▁Hunter▁8081
▁overhead▁8082
▁Andromeda▁8083
▁battl▁8084
▁Chr▁8085
▁Olymp▁8086
▁constellation▁8087
▁debut▁8088
▁Our▁8089
▁Modern▁8090
▁Mytho▁8091
▁Aurora▁8092
zeit▁8093
geist▁8094
▁mytholog▁8095
▁Ford▁8096
▁alphabet▁8097
▁Anna▁8098
▁Ger▁8099
▁representation▁8100
▁Barack▁8101
▁Alabama▁8102
▁Jazeera▁8103
▁superstar▁8104
▁loo▁8105
▁Lib▁8106
▁Nairobi▁8107
▁participator▁8108
growth▁8109
▁enlist▁8110
▁critter▁8111
▁interdependenc▁8112
test▁8113
▁Smart▁8114
▁nomad▁8115
▁hunter▁8116
▁rabbit▁8117
tod▁8118
minister▁8119
▁wheat▁8120
administrator▁8121
literate▁8122
▁Protest▁8123
▁Reform▁8124
▁democrac▁8125
▁cooperative▁8126
▁enabl▁8127
▁desktop▁8128
band▁8129
▁sociologist▁8130
▁Kelly▁8131
▁payoff▁8132
▁probe▁8133
▁competitor▁8134
namen▁8135
▁tat▁8136
▁innate▁8137
▁anthropologist▁8138
▁slash▁8139
burn▁8140
▁Garret▁8141
▁grazing▁8142
▁maxim▁8143
▁deplet▁8144
▁watershed▁8145
▁neuro▁8146
▁altruistic▁8147
ochai▁8148
kl▁8149
▁Sun▁8150
sourcing▁8151
▁pharmaceutical▁8152
▁Toyota▁8153
▁altruism▁8154
▁Linux▁8155
▁blogger▁8156
Sense▁8157
▁App▁8158
▁Programm▁8159
▁Interface▁8160
▁eBay▁8161
▁trustworth▁8162
▁encyclopedia▁8163
▁Think▁8164
▁NGO▁8165
▁Bit▁8166
put▁8167
@▁8168
▁Sal▁8169
▁Kenya▁8170
organiz▁8171
▁SMS▁8172
disciplinar▁8173
▁microorganism▁8174
▁alleviate▁8175
Gordon▁8176
▁Brown▁8177
▁UK▁8178
▁delighted▁8179
▁White▁8180
▁conscience▁8181
▁Square▁8182
▁Sudan▁8183
▁sympath▁8184
▁Palm▁8185
▁Social▁8186
▁reply▁8187
▁instantaneous▁8188
▁frontier▁8189
▁slave▁8190
▁William▁8191
▁Wil▁8192
▁hearts▁8193
▁Save▁8194
▁Es▁8195
▁Zimbabwe▁8196
gabe▁8197
▁Burm▁8198
▁monk▁8199
▁blogg▁8200
▁slavery▁8201
▁welfare▁8202
▁discriminati▁8203
▁Nelson▁8204
▁Mandela▁8205
▁Win▁8206
▁terrorism▁8207
openhagen▁8208
▁transferr▁8209
▁Iceland▁8210
▁prosperity▁8211
▁Sierra▁8212
▁Leone▁8213
▁Tanzania▁8214
▁orphan▁8215
▁tuberc▁8216
ulosi▁8217
gged▁8218
▁eleven▁8219
▁export▁8220
▁peacekeep▁8221
rid▁8222
▁Gree▁8223
▁Demo▁8224
▁hallucination▁8225
▁neu▁8226
Bonnet▁8227
▁syndrome▁8228
▁nur▁8229
ker▁8230
▁Rosali▁8231
ane▁8232
cular▁8233
People▁8234
▁cats▁8235
▁oblivio▁8236
▁relieve▁8237
▁fade▁8238
▁miniatur▁8239
▁hyperactiv▁8240
▁cartoons▁8241
▁Ker▁8242
▁Freud▁8243
▁deform▁8244
▁reassur▁8245
diagnose▁8246
▁psycho▁8247
▁vocal▁8248
▁accus▁8249
▁seduce▁8250
▁senses▁8251
▁1982▁8252
▁fusiform▁8253
▁abnormal▁8254
▁inferior▁8255
▁cluster▁8256
▁interrupt▁8257
▁convuls▁8258
▁stimulation▁8259
▁association▁8260
▁ignore▁8261
▁migraine▁8262
▁sniff▁8263
▁rodent▁8264
bil▁8265
▁Diana▁8266
▁contrar▁8267
▁soil▁8268
▁allocate▁8269
▁reinforce▁8270
▁smash▁8271
▁banana▁8272
▁leash▁8273
credit▁8274
▁Action▁8275
▁Standards▁8276
▁operational▁8277
▁min▁8278
▁Mozambi▁8279
▁manual▁8280
▁borders▁8281
▁1.▁8282
▁infections▁8283
positive▁8284
▁tar▁8285
▁Hippocrat▁8286
▁89▁8287
▁86▁8288
▁cassette▁8289
▁discriminate▁8290
▁1,6▁8291
▁custom▁8292
▁Sala▁8293
▁1,8▁8294
automat▁8295
▁18-▁8296
▁commandment▁8297
▁heck▁8298
▁censor▁8299
▁nurture▁8300
▁neurological▁8301
▁quirk▁8302
▁seizure▁8303
▁poo▁8304
▁trauma▁8305
▁mechanic▁8306
▁uncertaint▁8307
▁observer▁8308
▁anxiety▁8309
▁ambiguit▁8310
▁Buddhist▁8311
ambiguous▁8312
▁ghost▁8313
▁accidental▁8314
▁opium▁8315
▁Tai▁8316
▁Gui▁8317
▁randomly▁8318
tour▁8319
▁pr▁8320
istine▁8321
▁ominous▁8322
▁court▁8323
▁province▁8324
▁agreed▁8325
▁ritual▁8326
▁links▁8327
world▁8328
▁synchron▁8329
▁Rose▁8330
▁feat▁8331
▁bell▁8332
▁delightful▁8333
▁bilingual▁8334
skrit▁8335
▁choreograph▁8336
▁tapestr▁8337
▁glory▁8338
▁civilian▁8339
oma▁8340
▁Canc▁8341
▁disgust▁8342
▁enorm▁8343
▁vor▁8344
▁dried▁8345
▁ravage▁8346
▁chemotherap▁8347
▁overwhelm▁8348
▁miser▁8349
learn▁8350
▁Hindu▁8351
enden▁8352
decke▁8353
fare▁8354
▁battlefield▁8355
▁feminine▁8356
▁attribute▁8357
▁dismay▁8358
▁animate▁8359
▁resilienc▁8360
▁Spence▁8361
▁geneticist▁8362
ographic▁8363
vu▁8364
▁Guinea▁8365
▁origins▁8366
▁gorilla▁8367
masse▁8368
▁gib▁8369
▁orangutan▁8370
▁mushroom▁8371
▁morpholog▁8372
▁hominid▁8373
org▁8374
▁Leakey▁8375
▁hab▁8376
▁aus▁8377
▁von▁8378
disc▁8379
species▁8380
▁bla▁8381
▁dismiss▁8382
rwin▁8383
▁anthropolog▁8384
Carlton▁8385
▁genealog▁8386
▁substitute▁8387
▁matern▁8388
DNA▁8389
▁simplifie▁8390
▁Mit▁8391
och▁8392
rial▁8393
chromosom▁8394
▁isotope▁8395
▁gla▁8396
▁Seattle▁8397
via▁8398
▁85▁8399
▁precipitat▁8400
▁dropping▁8401
▁Sahara▁8402
▁Neanderthal▁8403
▁locker▁8404
▁grassland▁8405
▁Siberia▁8406
eolith▁8407
ourne▁8408
NG▁8409
▁coarse▁8410
▁indigen▁8411
▁Human▁8412
▁Genome▁8413
▁Rover▁8414
▁enterprise▁8415
▁Lega▁8416
▁25,000▁8417
▁Gran▁8418
▁Gaza▁8419
istan▁8420
▁album▁8421
▁Map▁8422
▁Flo▁8423
▁evocati▁8424
▁quart▁8425
▁Nu▁8426
▁1930▁8427
▁450▁8428
▁watt▁8429
▁turbine▁8430
▁beacon▁8431
▁1947▁8432
▁Jerem▁8433
▁energetic▁8434
▁dyslexi▁8435
▁irrelevant▁8436
dad▁8437
gas▁8438
▁rang▁8439
▁Mat▁8440
▁Oscar▁8441
▁Mary▁8442
▁Robinson▁8443
▁hippie▁8444
▁Ahmed▁8445
▁Arab▁8446
will▁8447
▁General▁8448
▁Ass▁8449
▁54▁8450
▁calendar▁8451
▁Glob▁8452
▁institutionaliz▁8453
▁nonviolen▁8454
▁cynic▁8455
▁corridor▁8456
zi▁8457
▁UN▁8458
ICE▁8459
▁chap▁8460
▁attraction▁8461
▁constituenc▁8462
▁NATO▁8463
▁Gail▁8464
▁kidnappe▁8465
▁1.6▁8466
▁dialect▁8467
▁offensive▁8468
▁Securit▁8469
utilize▁8470
▁Arena▁8471
▁petition▁8472
union▁8473
▁utiliz▁8474
▁relation▁8475
▁365▁8476
▁Mel▁8477
▁Coca▁8478
Cola▁8479
orporation▁8480
▁distribut▁8481
▁jar▁8482
flu▁8483
▁stagger▁8484
▁entrepreneuri▁8485
▁shareholder▁8486
nowledge▁8487
▁Namibia▁8488
▁Sprit▁8489
▁evaluation▁8490
▁192▁8491
▁truck▁8492
elling▁8493
▁bicycle▁8494
erala▁8495
▁30,000▁8496
▁advis▁8497
▁delivery▁8498
eur▁8499
▁slogan▁8500
▁Open▁8501
▁Happiness▁8502
▁Cup▁8503
▁Wa▁8504
▁Somali▁8505
▁diarrhea▁8506
▁defecat▁8507
tail▁8508
▁girlfriend▁8509
▁paralysi▁8510
ram▁8511
▁Typ▁8512
▁Jh▁8513
▁transmission▁8514
game▁8515
cher▁8516
▁AlloSphere▁8517
▁echo▁8518
▁chamber▁8519
▁suspend▁8520
▁immer▁8521
▁atom▁8522
▁sculptor▁8523
▁macro▁8524
cop▁8525
▁rectangle▁8526
▁simulation▁8527
▁nanoscale▁8528
▁atomic▁8529
▁Atom▁8530
▁Micro▁8531
▁Light▁8532
▁Energ▁8533
▁emission▁8534
▁Schrödinger▁8535
orbital▁8536
▁puls▁8537
▁contract▁8538
▁Comp▁8539
▁Spin▁8540
▁Barbar▁8541
unders▁8542
cursion▁8543
▁spectator▁8544
▁contemplat▁8545
▁dich▁8546
▁shall▁8547
▁coal▁8548
▁embark▁8549
gun▁8550
▁drift▁8551
▁crust▁8552
▁caution▁8553
▁ta▁8554
▁mach▁8555
▁pancrea▁8556
▁Captain▁8557
▁Norwegian▁8558
▁demoralize▁8559
aday▁8560
▁cruise▁8561
▁audaci▁8562
▁golden▁8563
▁adversit▁8564
▁metaphorical▁8565
▁Savage▁8566
▁fascination▁8567
▁obsessive▁8568
▁Mauriti▁8569
▁assemble▁8570
ockpit▁8571
ette▁8572
ille▁8573
▁costume▁8574
▁Episode▁8575
▁dragon▁8576
▁vertebra▁8577
▁imitat▁8578
▁button▁8579
▁accura▁8580
lastic▁8581
▁obtain▁8582
▁div▁8583
▁Maltese▁8584
▁Falcon▁8585
▁Kni▁8586
▁Haw▁8587
▁crapp▁8588
▁Christi▁8589
eller▁8590
aya▁8591
▁controvers▁8592
▁controversial▁8593
▁Profil▁8594
▁preference▁8595
▁drip▁8596
▁triple▁8597
▁reflection▁8598
▁Fred▁8599
del▁8600
▁Black▁8601
▁Grill▁8602
▁plaster▁8603
azi▁8604
plica▁8605
▁Forum▁8606
ronze▁8607
▁silicon▁8608
quarter▁8609
▁Chip▁8610
cellular▁8611
▁subconscious▁8612
▁blunt▁8613
▁Maslow▁8614
▁hierarch▁8615
rung▁8616
▁appreciate▁8617
▁PC▁8618
▁kiosk▁8619
▁convenient▁8620
▁gravity▁8621
mail▁8622
▁ATM▁8623
▁Grameen▁8624
▁Ji▁8625
▁subscribe▁8626
▁churn▁8627
▁Viagra▁8628
tree▁8629
hack▁8630
shop▁8631
▁intertwine▁8632
nce▁8633
▁infuse▁8634
▁relevanc▁8635
▁Nixon▁8636
aus▁8637
▁desk▁8638
▁culprit▁8639
▁degradation▁8640
▁numb▁8641
▁Pri▁8642
▁Ann▁8643
▁lifestyle▁8644
▁prevalent▁8645
▁carrot▁8646
▁heavi▁8647
natural▁8648
▁Ski▁8649
▁puppet▁8650
▁USDA▁8651
▁pyramid▁8652
wollen▁8653
▁unchang▁8654
▁lamb▁8655
▁kindness▁8656
mplified▁8657
▁Dictionar▁8658
▁romantic▁8659
▁snack▁8660
▁Clar▁8661
▁fanc▁8662
▁aside▁8663
▁Julia▁8664
stab▁8665
▁sanction▁8666
ake▁8667
▁Pop▁8668
▁railroad▁8669
▁hub▁8670
▁lettuce▁8671
▁salad▁8672
▁broc▁8673
coli▁8674
oil▁8675
▁subsidi▁8676
▁thro▁8677
▁planetary▁8678
▁potato▁8679
▁Minute▁8680
▁Ric▁8681
▁cream▁8682
▁yogurt▁8683
nick▁8684
▁coma▁8685
▁mixed▁8686
fried▁8687
▁horribl▁8688
▁McNugget▁8689
cke▁8690
▁cheese▁8691
food▁8692
▁tightly▁8693
▁filth▁8694
▁Styro▁8695
▁veg▁8696
▁gourmet▁8697
▁pound▁8698
▁omni▁8699
▁faci▁8700
▁Advanc▁8701
▁Technolog▁8702
▁sentien▁8703
ception▁8704
Engine▁8705
lit▁8706
▁seed▁8707
▁Robotic▁8708
▁Wired▁8709
▁Next▁8710
▁involv▁8711
▁Philip▁8712
▁Android▁8713
▁Dream▁8714
▁Electric▁8715
▁Bla▁8716
▁puzzles▁8717
▁EG▁8718
▁toys▁8719
▁fiddl▁8720
▁Gardner▁8721
▁devote▁8722
ritt▁8723
▁amuse▁8724
▁vase▁8725
scher▁8726
digit▁8727
▁strict▁8728
▁marvelous▁8729
appointed▁8730
▁RIS▁8731
▁Maeda▁8732
▁magician▁8733
▁Teller▁8734
▁Rush▁8735
▁slid▁8736
▁Fu▁8737
sequel▁8738
▁investigative▁8739
▁cartoonist▁8740
▁overlap▁8741
▁persistence▁8742
helix▁8743
▁Shuffle▁8744
J▁8745
▁casual▁8746
▁Boom▁8747
exercis▁8748
▁Nintendo▁8749
▁prescribe▁8750
▁viewer▁8751
▁Photo▁8752
▁Grab▁8753
hhh▁8754
▁Tulle▁8755
▁tinker▁8756
▁Tinker▁8757
▁nail▁8758
▁ease▁8759
gle▁8760
▁calamit▁8761
▁doodl▁8762
▁Robin▁8763
▁complet▁8764
▁decoration▁8765
cuba▁8766
▁mund▁8767
▁ya▁8768
▁RM▁8769
▁Tyrann▁8770
▁Thing▁8771
▁0▁8772
risk▁8773
▁Scottish▁8774
▁indoor▁8775
▁After▁8776
▁1953▁8777
▁Film▁8778
▁Gehry▁8779
▁lexico▁8780
▁hilarious▁8781
▁Work▁8782
motive▁8783
venge▁8784
▁Detroit▁8785
▁Techno▁8786
▁brochure▁8787
▁56▁8788
▁bark▁8789
▁Norman▁8790
die▁8791
▁Mosc▁8792
itz▁8793
▁Hampton▁8794
16▁8795
▁Ricard▁8796
▁Ritz▁8797
▁Tower▁8798
▁billboard▁8799
▁1940▁8800
▁Messer▁8801
▁exaggerat▁8802
▁cri▁8803
▁Mississippi▁8804
print▁8805
▁Temple▁8806
▁Den▁8807
etropolitan▁8808
mber▁8809
▁Euro▁8810
▁JFK▁8811
▁shoe▁8812
▁audition▁8813
▁Kong▁8814
erox▁8815
▁Take▁8816
page▁8817
▁Sandwich▁8818
▁cru▁8819
▁Marco▁8820
▁Tempe▁8821
mag▁8822
leigh▁8823
▁charming▁8824
▁introvert▁8825
▁inclusive▁8826
source▁8827
▁uh▁8828
▁Kar▁8829
▁Mulli▁8830
win▁8831
▁unveil▁8832
▁Philadelphia▁8833
▁alpha▁8834
▁antibod▁8835
arijuana▁8836
▁possession▁8837
▁ramp▁8838
amer▁8839
▁Brook▁8840
▁Rosling▁8841
▁IKEA▁8842
▁Volvo▁8843
▁linguistic▁8844
▁Develop▁8845
▁upgrade▁8846
▁taxonom▁8847
▁destination▁8848
▁income▁8849
aft▁8850
▁rainbow▁8851
enicillin▁8852
▁optimist▁8853
ossi▁8854
▁analytical▁8855
▁Joe▁8856
▁Meggendorfer▁8857
▁caves▁8858
▁ist▁8859
▁genug▁8860
creme▁8861
▁novelty▁8862
▁Jeff▁8863
▁ingenuity▁8864
▁merg▁8865
▁sharp▁8866
▁Missou▁8867
▁toothpaste▁8868
mate▁8869
▁illegal▁8870
▁smuggl▁8871
▁pornograph▁8872
▁riskier▁8873
▁profitable▁8874
fashion▁8875
oulder▁8876
▁laundr▁8877
▁limb▁8878
▁prohibit▁8879
ender▁8880
▁Mi▁8881
trey▁8882
▁animation▁8883
▁shadow▁8884
▁Ox▁8885
▁Carolin▁8886
▁Ami▁8887
▁disorder▁8888
▁gauge▁8889
stimul▁8890
▁disruption▁8891
▁inherit▁8892
▁frag▁8893
▁caregiver▁8894
▁candy▁8895
▁developmental▁8896
▁disable▁8897
▁fence▁8898
▁relentless▁8899
▁societ▁8900
▁excess▁8901
▁imperative▁8902
▁anomal▁8903
abilities▁8904
▁Warren▁8905
▁evolutionarily▁8906
▁conserve▁8907
▁deploy▁8908
▁intractable▁8909
▁isolation▁8910
▁agile▁8911
insky▁8912
▁Familie▁8913
▁Buffet▁8914
▁Spring▁8915
daho▁8916
▁Asperger▁8917
▁ADH▁8918
▁Sutherland▁8919
▁technologist▁8920
three▁8921
cola▁8922
▁Business▁8923
▁Game▁8924
knit▁8925
bunker▁8926
▁Thanksgiving▁8927
▁greet▁8928
▁visitor▁8929
▁checklist▁8930
angle▁8931
most▁8932
▁Stalin▁8933
▁Manifest▁8934
▁Famil▁8935
▁react▁8936
jacke▁8937
help▁8938
▁guru▁8939
▁celebrity▁8940
etchup▁8941
▁psychologist▁8942
bring▁8943
rew▁8944
▁Over▁8945
▁salar▁8946
rock▁8947
▁Colli▁8948
▁retreat▁8949
▁tourist▁8950
▁worrying▁8951
esteem▁8952
confidence▁8953
▁Tolsto▁8954
▁Leo▁8955
▁eng▁8956
▁trillion▁8957
▁evaporate▁8958
▁semina▁8959
▁Cliff▁8960
▁barrel▁8961
▁bailout▁8962
▁debt▁8963
isse▁8964
large▁8965
▁remedi▁8966
income▁8967
▁leverag▁8968
▁visualiz▁8969
▁360▁8970
▁32▁8971
▁dentist▁8972
▁shark▁8973
▁gun▁8974
▁FBI▁8975
▁Cornell▁8976
▁recession▁8977
▁mindful▁8978
▁Brand▁8979
▁ego▁8980
acht▁8981
▁collar▁8982
▁Fri▁8983
La▁8984
▁pric▁8985
▁Z▁8986
▁byproduct▁8987
rang▁8988
lumni▁8989
▁Microsoft▁8990
▁Gore▁8991
▁sprint▁8992
▁9.▁8993
▁68▁8994
▁DI▁8995
▁duck▁8996
▁Line▁8997
▁reimagin▁8998
▁organiz▁8999
cott▁9000
▁elastic▁9001
▁revenue▁9002
last▁9003
▁comics▁9004
▁Nova▁9005
lip▁9006
▁Beat▁9007
▁damaging▁9008
▁Lex▁9009
▁Ray▁9010
▁Route▁9011
ck▁9012
▁reputation▁9013
▁microbi▁9014
▁comic▁9015
▁Navy▁9016
▁Dean▁9017
▁Kamen▁9018
cer▁9019
▁Babbage▁9020
▁Lovelace▁9021
▁Van▁9022
▁Meme▁9023
▁ko▁9024
▁Licklider▁9025
kno▁9026
▁Jung▁9027
▁diagonal▁9028
▁symbols▁9029
▁resembl▁9030
▁properti▁9031
▁energiz▁9032
lief▁9033
▁88▁9034
linear▁9035
▁peel▁9036
ROM▁9037
▁McLuhan▁9038
▁phenomena▁9039
text▁9040
▁Abraham▁9041
▁Lincoln▁9042
▁Plan▁9043
zig▁9044
▁spiral▁9045
late▁9046
▁Hea▁9047
▁Alan▁9048
▁Sie▁9049
ellig▁9050
▁veteran▁9051
▁simplicity▁9052
▁computation▁9053
apping▁9054
▁Jack▁9055
▁Horn▁9056
▁dinosaur▁9057
▁paleontologist▁9058
reserve▁9059
activate▁9060
▁Chicken▁9061
osa▁9062
▁Montana▁9063
▁striving▁9064
▁hypothese▁9065
▁Jeep▁9066
▁drill▁9067
strich▁9068
▁mosquito▁9069
▁Tyrannosaur▁9070
weit▁9071
▁Hell▁9072
▁cubic▁9073
▁calci▁9074
ste▁9075
avian▁9076
rap▁9077
▁classifie▁9078
▁puff▁9079
sort▁9080
▁Matthew▁9081
▁Wisconsin▁9082
▁Archae▁9083
opter▁9084
▁pigeon▁9085
finger▁9086
▁modify▁9087
ino▁9088
cken▁9089
▁deception▁9090
▁Samu▁9091
▁Cole▁9092
▁suspens▁9093
▁Jean▁9094
▁conjure▁9095
▁resurrect▁9096
labor▁9097
▁fantasie▁9098
▁polish▁9099
afi▁9100
▁Rodrig▁9101
▁forgiveness▁9102
▁convict▁9103
▁penalt▁9104
▁November▁9105
▁hamburger▁9106
▁cruel▁9107
▁swap▁9108
rselves▁9109
▁Eisen▁9110
▁microbes▁9111
▁TEDMED▁9112
▁thirst▁9113
uddle▁9114
▁diabetic▁9115
osi▁9116
▁insulin▁9117
▁Academ▁9118
▁flesh▁9119
communica▁9120
▁Georgetown▁9121
bei▁9122
▁steril▁9123
IT▁9124
▁vagina▁9125
are▁9126
▁odor▁9127
path▁9128
▁washing▁9129
▁excessive▁9130
▁probiotic▁9131
▁Davi▁9132
rot▁9133
▁veterinarian▁9134
boot▁9135
igen▁9136
▁fec▁9137
hru▁9138
ociety▁9139
▁End▁9140
▁Tar▁9141
▁photography▁9142
▁haunt▁9143
▁Hama▁9144
▁Wal▁9145
▁citizen▁9146
▁Index▁9147
▁compris▁9148
▁stain▁9149
▁submerge▁9150
▁accompany▁9151
▁abstraction▁9152
▁Palestinian▁9153
▁bleed▁9154
▁simulate▁9155
▁Cu▁9156
▁Bord▁9157
rotection▁9158
▁Kennedy▁9159
▁seize▁9160
▁CIA▁9161
▁Langle▁9162
▁headquarter▁9163
▁diploma▁9164
▁elicit▁9165
▁Anthropo▁9166
▁acre▁9167
▁decompos▁9168
entropy▁9169
▁vulnerability▁9170
▁Cold▁9171
▁Braille▁9172
▁Librar▁9173
▁publication▁9174
▁Disease▁9175
▁Arm▁9176
▁deployment▁9177
▁weapon▁9178
▁bra▁9179
▁facade▁9180
▁annihilat▁9181
▁planets▁9182
▁Kentucky▁9183
▁Urban▁9184
Terrain▁9185
▁Arabic▁9186
▁contradict▁9187
▁lethal▁9188
▁conviction▁9189
▁eyewitness▁9190
▁perpetrator▁9191
▁Polar▁9192
▁kidnapping▁9193
▁Calvin▁9194
▁Indiana▁9195
▁Arizona▁9196
▁Williams▁9197
▁Tim▁9198
othy▁9199
▁Tro▁9200
▁47▁9201
reiter▁9202
▁implant▁9203
▁Enrique▁9204
▁circuit▁9205
trop▁9206
▁compute▁9207
lace▁9208
chle▁9209
clinical▁9210
▁Nagel▁9211
▁photosynthesi▁9212
▁vector▁9213
▁tweak▁9214
▁opt▁9215
▁computing▁9216
ella▁9217
▁dopamine▁9218
▁generalize▁9219
through▁9220
traumatic▁9221
controlle▁9222
▁delete▁9223
▁uncommon▁9224
▁Seventy▁9225
▁algae▁9226
▁fungi▁9227
front▁9228
▁retina▁9229
▁relay▁9230
▁pigment▁9231
▁Neuro▁9232
▁NIH▁9233
sensor▁9234
▁EB▁9235
process▁9236
▁augment▁9237
▁Gegen▁9238
schatz▁9239
▁dar▁9240
▁skydiv▁9241
dropping▁9242
▁aero▁9243
▁fl▁9244
▁helmet▁9245
green▁9246
▁carving▁9247
▁Janeiro▁9248
SE▁9249
▁Jungfrau▁9250
▁hike▁9251
▁Eiffel▁9252
▁stunt▁9253
▁Coh▁9254
▁applau▁9255
▁Mik▁9256
▁Hyp▁9257
▁NSA▁9258
▁revelation▁9259
▁Snowden▁9260
▁PRISM▁9261
▁forecast▁9262
famous▁9263
▁96▁9264
▁intercept▁9265
▁Cyber▁9266
▁Sky▁9267
▁infiltrat▁9268
▁encrypt▁9269
▁file▁9270
▁cooperat▁9271
▁Spiegel▁9272
▁Access▁9273
CH▁9274
▁Network▁9275
▁Analysis▁9276
▁telecom▁9277
▁Belgi▁9278
▁Thursday▁9279
▁PowerPoint▁9280
▁LinkedIn▁9281
▁i▁9282
Box▁9283
▁terrorists▁9284
▁terror▁9285
▁existential▁9286
▁Constitu▁9287
▁Universal▁9288
▁naked▁9289
▁corrupt▁9290
▁Marc▁9291
▁Meer▁9292
▁harbor▁9293
▁Mann▁9294
▁Carro▁9295
essen▁9296
▁Nevada▁9297
▁meadow▁9298
▁topograph▁9299
▁abrupt▁9300
▁125▁9301
▁Highway▁9302
▁Bridge▁9303
wich▁9304
▁Village▁9305
▁overlook▁9306
▁palm▁9307
▁cartograph▁9308
▁Archiv▁9309
▁Broadway▁9310
▁vanish▁9311
▁Collect▁9312
▁Native▁9313
▁Meadow▁9314
atter▁9315
▁Rich▁9316
▁swamp▁9317
▁Gr▁9318
▁Murray▁9319
▁geo▁9320
block▁9321
▁digitize▁9322
▁shoreline▁9323
▁slope▁9324
ional▁9325
▁distinctive▁9326
ellowstone▁9327
▁Home▁9328
▁beaver▁9329
▁reproductive▁9330
▁ecologist▁9331
▁intersection▁9332
▁gray▁9333
lichen▁9334
▁timber▁9335
▁Court▁9336
ough▁9337
▁windmill▁9338
▁abundance▁9339
▁Charlie▁9340
▁synchronize▁9341
▁subway▁9342
▁Improv▁9343
▁comedy▁9344
▁Pants▁9345
▁Rap▁9346
▁Brigade▁9347
▁Theater▁9348
author▁9349
Jump▁9350
▁stranger▁9351
▁Best▁9352
▁tags▁9353
▁participant▁9354
▁leisure▁9355
▁valid▁9356
▁acceptable▁9357
EDI▁9358
▁Rama▁9359
▁Alb▁9360
still▁9361
▁sprang▁9362
▁63▁9363
▁municipal▁9364
bank▁9365
▁bush▁9366
▁queue▁9367
▁bribe▁9368
▁impose▁9369
▁cohesi▁9370
tag▁9371
ç▁9372
Sarko▁9373
▁Golden▁9374
▁Desert▁9375
▁superior▁9376
▁courtyard▁9377
▁monsoon▁9378
▁Jaipur▁9379
▁Zero▁9380
▁distill▁9381
kan▁9382
ai▁9383
▁silk▁9384
▁grati▁9385
▁drought▁9386
▁squeeze▁9387
▁telephone▁9388
▁planner▁9389
liste▁9390
▁fragrance▁9391
▁Meyer▁9392
▁stereotype▁9393
▁algebra▁9394
two▁9395
plain▁9396
▁persever▁9397
▁Milch▁9398
▁Dead▁9399
▁Men▁9400
▁decode▁9401
present▁9402
▁tedious▁9403
▁intimidat▁9404
▁McK▁9405
▁Had▁9406
▁Mother▁9407
200▁9408
▁Jenni▁9409
▁Tso▁9410
▁McDonald▁9411
▁Burger▁9412
▁Fried▁9413
▁Cuba▁9414
▁Boot▁9415
▁assassinat▁9416
▁Roll▁9417
▁shuttle▁9418
▁pie▁9419
▁chop▁9420
▁Kyoto▁9421
Admiral▁9422
▁horrifie▁9423
▁1800▁9424
▁1920▁9425
▁native▁9426
▁cosmo▁9427
18▁9428
▁188▁9429
clusion▁9430
▁mysteries▁9431
▁Lem▁9432
▁diplomat▁9433
▁recipe▁9434
▁McMurdo▁9435
▁Station▁9436
▁pepper▁9437
▁crisp▁9438
▁Jamaica▁9439
▁fraud▁9440
weight▁9441
▁Rest▁9442
▁Tennessee▁9443
▁lotter▁9444
▁Oma▁9445
effective▁9446
▁propagat▁9447
▁Atlant▁9448
▁Starbucks▁9449
▁Kr▁9450
▁Chef▁9451
▁Daf▁9452
♪▁9453
energy▁9454
▁hydrocarbon▁9455
thanol▁9456
▁Nil▁9457
▁2.5▁9458
▁subsidize▁9459
▁concentrat▁9460
nsas▁9461
Athabasca▁9462
ludge▁9463
kern▁9464
▁petrol▁9465
▁substantial▁9466
▁hurdle▁9467
▁Rift▁9468
walk▁9469
intelligent▁9470
▁Hominid▁9471
▁Turk▁9472
intensive▁9473
▁GPS▁9474
▁Malawi▁9475
exist▁9476
▁crocodile▁9477
▁rib▁9478
▁Georgia▁9479
▁Indonesia▁9480
▁precipi▁9481
▁jungle▁9482
▁Seoul▁9483
craft▁9484
▁prehistor▁9485
▁mul▁9486
worm▁9487
▁bamboo▁9488
conventional▁9489
▁lexicograph▁9490
▁dictionar▁9491
▁needle▁9492
▁fuzz▁9493
▁decid▁9494
▁Victoria▁9495
▁merge▁9496
▁Online▁9497
▁Ooh▁9498
counterintuitive▁9499
▁arbitrar▁9500
▁charismati▁9501
una▁9502
ED▁9503
▁33▁9504
▁electro▁9505
▁telescope▁9506
doch▁9507
▁Angel▁9508
balone▁9509
breaking▁9510
▁carbonate▁9511
▁geological▁9512
▁counterpart▁9513
▁chalk▁9514
▁capabilities▁9515
structure▁9516
▁biomaterial▁9517
▁toolbox▁9518
▁fracture▁9519
▁SI▁9520
▁magnet▁9521
ota▁9522
▁navigation▁9523
▁PH▁9524
altech▁9525
▁nanotube▁9526
alysis▁9527
ata▁9528
organic▁9529
dioxide▁9530
▁Stefan▁9531
▁Sag▁9532
meister▁9533
▁Hong▁9534
▁Kai▁9535
▁smack▁9536
▁Walk▁9537
▁Synchroni▁9538
regen▁9539
▁situat▁9540
▁Swiss▁9541
▁Beatles▁9542
vana▁9543
▁Tru▁9544
TA▁9545
▁Trans▁9546
▁Authorit▁9547
▁subtle▁9548
▁Diaman▁9549
▁Hawking▁9550
▁PRI▁9551
ZE▁9552
▁Genom▁9553
solu▁9554
▁parabol▁9555
▁intent▁9556
ER▁9557
▁Licht▁9558
homa▁9559
▁wheelchair▁9560
▁Kill▁9561
worth▁9562
▁Aristot▁9563
▁intrinsic▁9564
▁debat▁9565
▁demographic▁9566
moment▁9567
▁neutral▁9568
pleasant▁9569
wand▁9570
▁preced▁9571
▁causal▁9572
▁brush▁9573
▁Silver▁9574
▁estimates▁9575
fifteen▁9576
▁Vision▁9577
▁olive▁9578
▁gro▁9579
▁Brazilian▁9580
▁Woman▁9581
▁Party▁9582
▁Front▁9583
▁Territori▁9584
atten▁9585
▁Solidar▁9586
budget▁9587
▁Sheikh▁9588
▁Jar▁9589
▁Sil▁9590
wan▁9591
▁Hopkins▁9592
▁transition▁9593
▁Transition▁9594
▁straw▁9595
▁scrambl▁9596
▁underpin▁9597
ermafrost▁9598
away▁9599
▁league▁9600
▁Walmart▁9601
▁Second▁9602
▁exchang▁9603
▁server▁9604
▁mineral▁9605
▁radar▁9606
▁surge▁9607
▁District▁9608
▁Marke▁9609
▁renewable▁9610
▁Forest▁9611
tunnel▁9612
▁recycling▁9613
▁Lei▁9614
shire▁9615
▁Somerset▁9616
▁loving▁9617
▁inconsistenc▁9618
▁Guardian▁9619
▁epidemiolog▁9620
▁problematic▁9621
▁inequalit▁9622
▁jail▁9623
▁Bali▁9624
▁mismatch▁9625
▁Margaret▁9626
▁Pope▁9627
▁stigmatiz▁9628
▁heterosexual▁9629
ST▁9630
▁romance▁9631
▁antiretroviral▁9632
▁Lazarus▁9633
▁Effect▁9634
▁drunk▁9635
▁transgender▁9636
▁dick▁9637
▁retrofit▁9638
▁suburbia▁9639
▁mall▁9640
▁uninten▁9641
develop▁9642
▁suburban▁9643
▁detach▁9644
▁CDC▁9645
▁Generation▁9646
▁asphalt▁9647
▁leapfrog▁9648
▁sprawl▁9649
▁deck▁9650
wal▁9651
▁Phoenix▁9652
claim▁9653
▁Orange▁9654
erial▁9655
▁transit▁9656
▁Main▁9657
▁buffer▁9658
▁funk▁9659
▁Colorado▁9660
▁unsafe▁9661
▁wav▁9662
transfer▁9663
▁Astroturf▁9664
disproportionate▁9665
▁1.4▁9666
wana▁9667
▁PMTCT▁9668
▁advent▁9669
▁devastate▁9670
child▁9671
▁educat▁9672
▁frequently▁9673
▁disclose▁9674
▁Nar▁9675
▁comprehensive▁9676
▁Cape▁9677
▁Stu▁9678
▁scandal▁9679
gro▁9680
rrh▁9681
▁landfill▁9682
▁empirical▁9683
▁stat▁9684
realistic▁9685
▁refrigerat▁9686
▁whil▁9687
▁cosm▁9688
▁Ecuador▁9689
▁liver▁9690
▁nutritio▁9691
astronom▁9692
▁halve▁9693
▁insult▁9694
▁Forbes▁9695
▁oven▁9696
▁grace▁9697
assi▁9698
▁Ober▁9699
▁Road▁9700
▁mama▁9701
▁sensib▁9702
▁Now▁9703
▁stir▁9704
▁Rabbi▁9705
▁Sel▁9706
▁riot▁9707
▁affirm▁9708
▁twelve▁9709
▁stink▁9710
bilitat▁9711
▁Samarit▁9712
▁biblical▁9713
Car▁9714
▁actress▁9715
▁Arthur▁9716
bject▁9717
threaten▁9718
▁tinie▁9719
▁snor▁9720
▁toast▁9721
▁boo▁9722
▁anniversar▁9723
blind▁9724
▁placebo▁9725
▁monogam▁9726
▁pinpoint▁9727
▁honey▁9728
▁clarif▁9729
▁Betti▁9730
▁Cra▁9731
spoon▁9732
▁plummet▁9733
▁contagio▁9734
▁brin▁9735
▁Emil▁9736
▁definitiv▁9737
▁Zeta▁9738
▁traffick▁9739
▁disguise▁9740
ó▁9741
í▁9742
▁Juli▁9743
á▁9744
▁sacred▁9745
▁Mahatma▁9746
▁festival▁9747
ada▁9748
▁Mont▁9749
▁Sebastian▁9750
▁Glenn▁9751
▁Herbi▁9752
▁Hancock▁9753
▁straightforward▁9754
▁translation▁9755
▁cheek▁9756
▁scal▁9757
▁vibration▁9758
▁Royal▁9759
▁rust▁9760
▁ka▁9761
lei▁9762
▁clap▁9763
▁clapp▁9764
▁practic▁9765
iddle▁9766
▁labyrinth▁9767
▁ascend▁9768
square▁9769
▁timing▁9770
▁Heather▁9771
▁susceptib▁9772
▁humid▁9773
▁Gramm▁9774
owa▁9775
▁Allen▁9776
osphere▁9777
▁Vene▁9778
▁resign▁9779
▁1850▁9780
▁0.▁9781
▁Cel▁9782
ius▁9783
▁Passage▁9784
▁warmer▁9785
▁vapor▁9786
▁latent▁9787
▁hoo▁9788
▁critic▁9789
▁Geo▁9790
▁occur▁9791
▁explod▁9792
▁Hiroshima▁9793
▁lag▁9794
▁amplify▁9795
90▁9796
▁devastation▁9797
▁monarch▁9798
▁butterfl▁9799
▁Ok▁9800
ket▁9801
▁Pla▁9802
▁Jake▁9803
▁enthusiastic▁9804
▁Environment▁9805
▁tipping▁9806
▁asteroid▁9807
▁Philosoph▁9808
▁Break▁9809
pass▁9810
▁philosopher▁9811
▁inquiry▁9812
▁183▁9813
▁polite▁9814
▁literar▁9815
▁Herschel▁9816
▁mechanical▁9817
▁calculator▁9818
▁pledge▁9819
▁queen▁9820
▁1,3▁9821
▁processor▁9822
▁punch▁9823
▁discontinu▁9824
ungen▁9825
▁astronom▁9826
building▁9827
▁Origin▁9828
▁Zach▁9829
▁Kaplan▁9830
▁Keith▁9831
▁Schach▁9832
▁squish▁9833
▁Gel▁9834
Tech▁9835
▁slam▁9836
ila▁9837
▁magnetic▁9838
▁electromagnet▁9839
▁brainstorm▁9840
▁spider▁9841
▁sir▁9842
▁Target▁9843
▁squirt▁9844
▁Supercomputer▁9845
▁circulat▁9846
▁sprinkle▁9847
▁Sek▁9848
▁stiff▁9849
▁embed▁9850
▁Dai▁9851
▁Farm▁9852
▁inexpensive▁9853
▁plunge▁9854
▁poop▁9855
▁Mari▁9856
▁latrine▁9857
▁seal▁9858
▁94▁9859
▁disgusting▁9860
▁nozzle▁9861
▁crumbl▁9862
nice▁9863
riet▁9864
▁garage▁9865
elimina▁9866
▁Rick▁9867
modernism▁9868
rand▁9869
▁Architectur▁9870
▁Record▁9871
▁scanne▁9872
▁gef▁9873
lte▁9874
▁forgive▁9875
▁collide▁9876
▁Rauschen▁9877
▁Sacr▁9878
amento▁9879
▁cafeteria▁9880
▁Tiger▁9881
▁simpler▁9882
▁Goliath▁9883
▁prominent▁9884
arcelo▁9885
damm▁9886
▁defensive▁9887
▁schizophrenic▁9888
▁Minnesota▁9889
▁sculptural▁9890
▁Cleve▁9891
elli▁9892
▁Koh▁9893
▁Fox▁9894
▁underwa▁9895
▁Brent▁9896
▁servant▁9897
▁separat▁9898
▁Eis▁9899
▁Ana▁9900
heim▁9901
▁Sein▁9902
▁Sport▁9903
▁Financ▁9904
▁balcon▁9905
estone▁9906
▁Baxter▁9907
skies▁9908
shaw▁9909
vil▁9910
OC▁9911
▁criteri▁9912
▁compartment▁9913
▁Berlin▁9914
carriage▁9915
▁introduc▁9916
sceni▁9917
▁crank▁9918
▁teapot▁9919
iva▁9920
ziger▁9921
▁Colombia▁9922
▁guerrilla▁9923
connected▁9924
▁Education▁9925
▁comprehensi▁9926
▁electora▁9927
Kerry▁9928
▁democratic▁9929
▁Arka▁9930
▁admitted▁9931
▁vot▁9932
▁impoverish▁9933
▁Survey▁9934
▁facilitate▁9935
▁Schau▁9936
icious▁9937
▁animator▁9938
▁Beethoven▁9939
cene▁9940
gatherer▁9941
▁physiolog▁9942
▁lik▁9943
▁arous▁9944
magnetism▁9945
▁artwork▁9946
▁neck▁9947
▁Ach▁9948
▁delicate▁9949
▁trait▁9950
▁reclaim▁9951
▁Lesterland▁9952
▁Lester▁9953
▁Supreme▁9954
▁Jerry▁9955
▁aristocra▁9956
▁coalition▁9957
▁Rod▁9958
▁baseline▁9959
public▁9960
▁Federal▁9961
partisan▁9962
Capitol▁9963
▁polariz▁9964
▁dysfunction▁9965
▁Thor▁9966
▁translator▁9967
▁fusion▁9968
▁analytic▁9969
▁homo▁9970
▁hopeless▁9971
▁Express▁9972
▁supernova▁9973
▁remnant▁9974
▁galax▁9975
▁subtract▁9976
▁irregular▁9977
▁nuclei▁9978
▁gravitational▁9979
▁synthesi▁9980
▁unifie▁9981
hazard▁9982
▁imprison▁9983
▁proton▁9984
technologie▁9985
▁Joy▁9986
grain▁9987
▁relativ▁9988
▁Roth▁9989
blatt▁9990
▁Bert▁9991
▁Russell▁9992
▁schematic▁9993
lapse▁9994
▁tribute▁9995
▁plaque▁9996
▁vegetation▁9997
lose▁9998
▁biosphere▁9999
see▁10000
smal▁10001
▁tenth▁10002
▁engulf▁10003
▁hive▁10004
▁beehive▁10005
▁reefs▁10006
▁urchin▁10007
feld▁10008
▁snapshot▁10009
▁powder▁10010
▁bombard▁10011
▁lava▁10012
kala▁10013
▁infinit▁10014
fen▁10015
▁mesh▁10016
oubted▁10017
ruder▁10018
▁knot▁10019
▁octopus▁10020
▁Avatar▁10021
▁gentl▁10022
▁plume▁10023
▁Eye▁10024
▁bloom▁10025
▁Bah▁10026
▁webcam▁10027
▁Monterey▁10028
▁Hum▁10029
▁Astronom▁10030
▁astronomical▁10031
voluntary▁10032
▁capaciti▁10033
affe▁10034
programm▁10035
▁rewrit▁10036
▁arithmetic▁10037
▁modalit▁10038
▁module▁10039
▁spiritualit▁10040
▁chatt▁10041
control▁10042
imini▁10043
▁subset▁10044
▁Mama▁10045
▁Afrika▁10046
▁Turn▁10047
▁drivers▁10048
▁multitask▁10049
signal▁10050
▁crashe▁10051
oline▁10052
▁8.▁10053
▁Scho▁10054
▁vigorous▁10055
▁execute▁10056
fabricat▁10057
▁Watson▁10058
omo▁10059
lec▁10060
▁See▁10061
▁origami▁10062
▁intestine▁10063
thousand▁10064
▁Erik▁10065
▁Feynman▁10066
▁Mai▁10067
▁Kal▁10068
itting▁10069
▁purple▁10070
▁elegan▁10071
personal▁10072
▁suitcase▁10073
Mann▁10074
▁condense▁10075
▁Taxi▁10076
tun▁10077
▁Cod▁10078
▁Element▁10079
▁Pol▁10080
▁Muh▁10081
▁Hygiene▁10082
▁paranoid▁10083
▁Aviv▁10084
▁Gersh▁10085
▁38▁10086
oleum▁10087
▁Swee▁10088
witz▁10089
▁Ich▁10090
▁habe▁10091
▁Dennett▁10092
▁Saul▁10093
▁Stein▁10094
▁Suzan▁10095
▁unconscious▁10096
▁Net▁10097
▁Real▁10098
▁inflate▁10099
awkins▁10100
▁rotate▁10101
▁rotat▁10102
▁Roger▁10103
hepherd▁10104
▁rotation▁10105
▁Brad▁10106
▁240▁10107
▁15.▁10108
▁Boeing▁10109
▁describ▁10110
▁Sandel▁10111
▁Fast▁10112
▁affluen▁10113
▁Dallas▁10114
▁Mose▁10115
▁MS▁10116
material▁10117
marke▁10118
▁disagreement▁10119
▁anonym▁10120
profil▁10121
▁Winnipeg▁10122
▁liar▁10123
▁Butler▁10124
▁Puppe▁10125
code▁10126
▁nonverbal▁10127
▁Pin▁10128
▁millennia▁10129
▁singular▁10130
▁messag▁10131
HC▁10132
▁lud▁10133
▁CERN▁10134
▁Wonder▁10135
▁Solar▁10136
▁Enc▁10137
eladu▁10138
▁fountain▁10139
▁Europa▁10140
destruct▁10141
metric▁10142
▁1890▁10143
▁emit▁10144
lium▁10145
▁esoteri▁10146
▁transistor▁10147
ekhar▁10148
▁majest▁10149
▁Uran▁10150
▁Neptun▁10151
▁Sagan▁10152
haft▁10153
▁humbl▁10154
eit▁10155
▁assault▁10156
▁Poet▁10157
▁Laur▁10158
▁Walter▁10159
▁disast▁10160
▁verbal▁10161
▁Dickinson▁10162
▁Melodie▁10163
▁Del▁10164
▁Airline▁10165
▁deflect▁10166
apest▁10167
▁forager▁10168
▁pl▁10169
dient▁10170
▁Para▁10171
▁lurk▁10172
▁Country▁10173
▁gripp▁10174
▁sch▁10175
▁adolescence▁10176
▁Favorit▁10177
▁Pascal▁10178
▁bloss▁10179
▁Call▁10180
▁Levin▁10181
▁Galileo▁10182
▁Schwarzschild▁10183
▁throat▁10184
▁harsh▁10185
▁catastrophic▁10186
▁km▁10187
▁Galaxy▁10188
▁lane▁10189
▁tunnel▁10190
▁glamor▁10191
▁trail▁10192
▁Hubble▁10193
▁Proton▁10194
▁chaotic▁10195
▁multiverse▁10196
▁Ri▁10197
az▁10198
▁Presto▁10199
▁surreal▁10200
blowing▁10201
condition▁10202
theater▁10203
▁mild▁10204
atar▁10205
▁Speer▁10206
▁analyz▁10207
▁Athen▁10208
mbra▁10209
▁diffuse▁10210
omfort▁10211
▁hurricane▁10212
▁chill▁10213
▁stabil▁10214
energie▁10215
volt▁10216
▁Future▁10217
▁Abu▁10218
▁apparatus▁10219
▁perceiv▁10220
▁emergent▁10221
mple▁10222
▁fractal▁10223
▁Gapminder▁10224
▁Pythagor▁10225
▁mathematician▁10226
▁bats▁10227
▁AK▁10228
Ch▁10229
▁expenditure▁10230
▁characterize▁10231
location▁10232
▁Sydney▁10233
▁Sto▁10234
▁angel▁10235
▁colony▁10236
▁genomic▁10237
▁disrupt▁10238
▁sie▁10239
▁1500▁10240
▁Rive▁10241
▁Friend▁10242
▁Monster▁10243
▁flirt▁10244
▁automat▁10245
▁mortal▁10246
▁penis▁10247
▁wireless▁10248
▁aller▁10249
▁manufacture▁10250
▁ozone▁10251
▁wreck▁10252
▁Jami▁10253
▁ALS▁10254
▁aisle▁10255
▁Patient▁10256
agnesium▁10257
▁rearrange▁10258
ithium▁10259
▁bipolar▁10260
▁critique▁10261
PL▁10262
▁Treat▁10263
stern▁10264
RB▁10265
▁outlier▁10266
▁Remix▁10267
▁pinnacle▁10268
isten▁10269
▁dissent▁10270
▁Album▁10271
▁Town▁10272
▁Gut▁10273
▁Land▁10274
fang▁10275
▁mature▁10276
▁lawsuit▁10277
▁Blind▁10278
▁61▁10279
▁Personal▁10280
▁quantitative▁10281
▁diffusion▁10282
ometer▁10283
EM▁10284
▁inhale▁10285
▁JR▁10286
nonymous▁10287
▁graffiti▁10288
lot▁10289
▁curator▁10290
▁Monro▁10291
ibera▁10292
▁Helen▁10293
▁Levitt▁10294
▁Chernobyl▁10295
▁yeast▁10296
organism▁10297
▁ferment▁10298
▁dissolve▁10299
rmostat▁10300
▁mini▁10301
▁dip▁10302
ompatible▁10303
▁excite▁10304
▁textile▁10305
▁SL▁10306
▁bumblebee▁10307
kon▁10308
ellow▁10309
▁sovereign▁10310
evolution▁10311
▁biochemist▁10312
▁Joel▁10313
▁Salat▁10314
▁Poly▁10315
▁graze▁10316
▁maggot▁10317
▁larva▁10318
▁nitrogen▁10319
WF▁10320
▁2030▁10321
▁decisive▁10322
chester▁10323
▁lightbulb▁10324
logen▁10325
people▁10326
logging▁10327
▁Council▁10328
udi▁10329
▁auditor▁10330
▁wallet▁10331
▁UCLA▁10332
izon▁10333
▁Pluto▁10334
▁Gras▁10335
▁connectome▁10336
▁SS▁10337
▁intellect▁10338
▁synapse▁10339
▁spaghetti▁10340
▁plausib▁10341
▁synapti▁10342
plausible▁10343
▁ridicule▁10344
▁erase▁10345
▁Fusion▁10346
akash▁10347
▁Ode▁10348
▁Major▁10349
▁Electronic▁10350
▁Jacque▁10351
▁Novo▁10352
▁mistrust▁10353
▁compliment▁10354
▁Mobutu▁10355
hren▁10356
spora▁10357
▁bypass▁10358
emeral▁10359
▁Khan▁10360
▁Textil▁10361
▁Manufactur▁10362
spring▁10363
▁Acumen▁10364
▁ambulance▁10365
▁Innovation▁10366
▁sunflower▁10367
▁Raja▁10368
zel▁10369
▁dignit▁10370
▁reckless▁10371
▁abusi▁10372
▁Skycar▁10373
▁Vo▁10374
passen▁10375
▁motivator▁10376
OT▁10377
▁redundan▁10378
▁recreation▁10379
400▁10380
▁Hawke▁10381
kel▁10382
▁Maz▁10383
▁Video▁10384
▁Twenty▁10385
▁Britanni▁10386
▁equator▁10387
eureka▁10388
▁brows▁10389
▁unconta▁10390
▁leopard▁10391
▁Volks▁10392
▁Egyptian▁10393
▁Pharao▁10394
tank▁10395
▁firefl▁10396
▁Smithsonian▁10397
▁Gagarin▁10398
▁hut▁10399
illiard▁10400
▁Potter▁10401
▁playwright▁10402
▁Superman▁10403
▁Mor▁10404
fug▁10405
▁Alice▁10406
▁nun▁10407
▁utilitarian▁10408
▁patron▁10409
▁Emp▁10410
▁Hai▁10411
Script▁10412
▁sinn▁10413
▁grape▁10414
▁dysfunctional▁10415
▁weave▁10416
▁Budget▁10417
▁Office▁10418
▁miraculous▁10419
▁committee▁10420
▁Rom▁10421
▁dislike▁10422
polar▁10423
▁legislati▁10424
▁supplement▁10425
▁Start▁10426
▁Hispanic▁10427
▁Asteroid▁10428
▁quadruple▁10429
▁Grove▁10430
▁bankrupt▁10431
▁fisc▁10432
▁printer▁10433
▁Zucker▁10434
▁Schmidt▁10435
▁Netflix▁10436
▁Iron▁10437
▁Wait▁10438
impuls▁10439
▁Ventur▁10440
▁Justi▁10441
rman▁10442
▁expanding▁10443
▁meditation▁10444
▁implicit▁10445
▁Saint▁10446
▁Buddha▁10447
▁doctrine▁10448
rotten▁10449
▁methodolog▁10450
▁Saddam▁10451
▁Hussein▁10452
▁mustache▁10453
▁satisfie▁10454
▁ruthless▁10455
▁Buddhism▁10456
▁Charter▁10457
▁regenerative▁10458
▁regenerate▁10459
▁Lindbergh▁10460
▁Rockefeller▁10461
▁ankle▁10462
▁diagnos▁10463
▁Bad▁10464
specific▁10465
▁Blackberr▁10466
▁amputation▁10467
institut▁10468
▁laparoscopic▁10469
▁reactor▁10470
▁Terr▁10471
parate▁10472
▁translat▁10473
%▁10474
▁toddler▁10475
ironment▁10476
▁petrochemical▁10477
▁recombin▁10478
▁residu▁10479
▁mixture▁10480
ilo▁10481
first▁10482
▁Senegal▁10483
▁Nathan▁10484
▁Myhrvold▁10485
▁Adria▁10486
▁Blumen▁10487
▁Hamburger▁10488
▁charcoal▁10489
temperatur▁10490
osh▁10491
▁eyebrow▁10492
▁appliance▁10493
▁Watt▁10494
▁whiske▁10495
▁CSI▁10496
,4▁10497
▁Sophia▁10498
▁inflation▁10499
▁numer▁10500
pul▁10501
▁violin▁10502
▁quark▁10503
▁neutrino▁10504
▁Kepler▁10505
itter▁10506
hotter▁10507
▁fastest▁10508
izzy▁10509
▁13.▁10510
▁squeak▁10511
▁Violin▁10512
▁chord▁10513
▁improvisation▁10514
wick▁10515
▁MTT▁10516
student▁10517
udience▁10518
▁democratiz▁10519
▁Stern▁10520
▁consent▁10521
▁litigation▁10522
▁primordial▁10523
▁Diamond▁10524
▁dispute▁10525
▁retirement▁10526
▁babysitt▁10527
▁cult▁10528
▁pension▁10529
▁logarithm▁10530
▁knob▁10531
▁plague▁10532
▁cleaner▁10533
▁toxin▁10534
▁Control▁10535
▁respirator▁10536
▁Infinit▁10537
▁Mushroom▁10538
▁decay▁10539
▁myceli▁10540
▁Image▁10541
liches▁10542
▁crucifi▁10543
schwitz▁10544
▁Holocaust▁10545
Ghraib▁10546
▁Gua▁10547
amo▁10548
▁Ohio▁10549
▁Katrina▁10550
▁Eu▁10551
▁Dori▁10552
▁Lyndon▁10553
▁Sarah▁10554
▁suicid▁10555
▁Erne▁10556
▁rival▁10557
▁possess▁10558
▁griev▁10559
▁1900▁10560
▁encompass▁10561
▁memoir▁10562
▁anecdotal▁10563
check▁10564
▁sank▁10565
▁replenish▁10566
▁Ethan▁10567
▁Roy▁10568
▁Field▁10569
▁Serie▁10570
▁loyal▁10571
&▁10572
▁County▁10573
▁Ridge▁10574
▁Tweet▁10575
▁Southwest▁10576
mitten▁10577
▁Far▁10578
▁visionar▁10579
▁Grad▁10580
testament▁10581
▁Miss▁10582
school▁10583
▁Plexiglas▁10584
▁Secretary▁10585
rolle▁10586
▁Agn▁10587
information▁10588
zu▁10589
▁Brenn▁10590
jec▁10591
▁unpredictabl▁10592
▁Shirk▁10593
▁Clay▁10594
ermaid▁10595
Parade▁10596
▁Flickr▁10597
▁Psycho▁10598
▁bargain▁10599
▁captur▁10600
▁dran▁10601
flow▁10602
▁Heife▁10603
litz▁10604
▁Judi▁10605
journalism▁10606
▁Lance▁10607
▁hijack▁10608
▁Happy▁10609
▁statistician▁10610
pocalyp▁10611
▁Economic▁10612
▁reasonably▁10613
▁execution▁10614
▁commentar▁10615
▁reunite▁10616
▁ideological▁10617
▁ideolog▁10618
▁Morocc▁10619
▁Casa▁10620
tradition▁10621
▁Row▁10622
ivers▁10623
▁31▁10624
▁Airbnb▁10625
▁TaskRabbit▁10626
▁Craigslist▁10627
otter▁10628
▁gambl▁10629
▁earning▁10630
▁improbab▁10631
▁iTunes▁10632
▁Selig▁10633
▁practitioner▁10634
▁Psychologi▁10635
▁Doctor▁10636
▁rig▁10637
▁psychiatr▁10638
▁psychiatrist▁10639
▁Gilbert▁10640
▁Robbi▁10641
▁Matthieu▁10642
millionaire▁10643
▁Deb▁10644
absorption▁10645
▁morbid▁10646
▁prototyping▁10647
tangible▁10648
Doh▁10649
▁microprocessor▁10650
amme▁10651
▁Charlotte▁10652
▁steward▁10653
▁contradiction▁10654
▁Creat▁10655
▁pluck▁10656
▁plutonium▁10657
▁Job▁10658
▁Cli▁10659
odium▁10660
▁Clark▁10661
▁Wer▁10662
▁Braun▁10663
▁Chance▁10664
▁rede▁10665
▁39▁10666
▁embodiment▁10667
bai▁10668
▁Kuwait▁10669
▁bandw▁10670
speaking▁10671
▁prophec▁10672
▁equate▁10673
▁Award▁10674
uer▁10675
▁pedestrian▁10676
▁crowdsourc▁10677
▁stockpile▁10678
▁vacan▁10679
▁bundle▁10680
shine▁10681
▁pollination▁10682
▁sequester▁10683
ozi▁10684
▁Reserve▁10685
ubunt▁10686
▁Solly▁10687
▁über▁10688
▁bracket▁10689
▁hollow▁10690
atriarch▁10691
▁Oprah▁10692
▁PM▁10693
▁Dennis▁10694
▁Dis▁10695
▁beekeeper▁10696
RA▁10697
▁squa▁10698
▁Hack▁10699
▁Kate▁10700
▁honeybee▁10701
social▁10702
system▁10703
▁soprano▁10704
▁Mein▁10705
▁Lippen▁10706
▁küssen▁10707
grid▁10708
▁Ton▁10709
▁Emergenc▁10710
▁Pentagon▁10711
▁Horse▁10712
▁decentraliz▁10713
▁Ground▁10714
▁Zeit▁10715
▁Wein▁10716
▁fungus▁10717
▁Conference▁10718
▁Mola▁10719
▁Pink▁10720
▁Bauer▁10721
▁memes▁10722
▁reframe▁10723
Day▁10724
▁Vagina▁10725
▁Monolog▁10726
wege▁10727
▁Kosov▁10728
nitha▁10729
custome▁10730
▁Butter▁10731
▁mutilat▁10732
itoris▁10733
▁hyena▁10734
▁Emotion▁10735
▁coconut▁10736
▁inconvenience▁10737
▁autops▁10738
▁Spirit▁10739
▁Mohamed▁10740
▁Alberto▁10741
▁Giacometti▁10742
▁franc▁10743
▁Dame▁10744
▁lang▁10745
▁succumb▁10746
▁puzzling▁10747
▁Rand▁10748
ennial▁10749
▁Blair▁10750
▁Tipp▁10751
▁Dyson▁10752
▁Trini▁10753
▁Neumann▁10754
▁Leib▁10755
▁Turing▁10756
EN▁10757
RCA▁10758
▁Morgen▁10759
▁vacuum▁10760
▁disk▁10761
▁Graph▁10762
▁Arithmeti▁10763
crony▁10764
▁Mathematica▁10765
▁Integr▁10766
▁regain▁10767
▁Aha▁10768
▁lightning▁10769
▁Mega▁10770
hertz▁10771
▁Wolfram▁10772
▁proteomics▁10773
▁Renn▁10774
delt▁10775
▁Mandarin▁10776
omorrow▁10777
▁regnet▁10778
▁visceral▁10779
ID▁10780
▁Bru▁10781
▁Haus▁10782
▁Igbo▁10783
▁Tasmanian▁10784
▁kangaroo▁10785
▁Tasmania▁10786
inister▁10787
entia▁10788
▁Derek▁10789
ckel▁10790
▁AO▁10791
▁Philharmoni▁10792
▁Chop▁10793
▁Skeptic▁10794
▁conflicts▁10795
▁Davos▁10796
▁pneumo▁10797
▁temperat▁10798
▁parasite▁10799
▁KIPP▁10800
▁66▁10801
▁lend▁10802
▁mourn▁10803
ollateral▁10804
▁outfit▁10805
Cluster▁10806
amel▁10807
▁lemon▁10808
▁malignan▁10809
acco▁10810
▁salv▁10811
▁Griffi▁10812
alt▁10813
itude▁10814
▁kite▁10815
▁Wright▁10816
▁relegate▁10817
▁autonomous▁10818
▁kilowatt▁10819
▁747▁10820
▁1000▁10821
▁Natasha▁10822
▁multimedia▁10823
▁decipher▁10824
visual▁10825
▁Zipcar▁10826
▁Buzz▁10827
▁Peer▁10828
▁customiz▁10829
▁Top▁10830
Code▁10831
▁24-▁10832
▁Garten▁10833
▁Know▁10834
▁sage▁10835
▁notorious▁10836
▁levitat▁10837
▁navigat▁10838
▁seamless▁10839
▁Mut▁10840
▁Paol▁10841
▁MoMA▁10842
▁typeface▁10843
▁knack▁10844
▁Argentin▁10845
▁proxim▁10846
▁IDEO▁10847
▁cubicle▁10848
▁rifle▁10849
▁mount▁10850
▁Tribu▁10851
▁Paulo▁10852
▁Fern▁10853
▁Eames▁10854
glas▁10855
▁Math▁10856
India▁10857
▁Tele▁10858
▁Opium▁10859
▁Mao▁10860
▁Deng▁10861
iaoping▁10862
MF▁10863
▁Lehm▁10864
▁interven▁10865
▁Gol▁10866
▁serotonin▁10867
RI▁10868
▁palette▁10869
▁Atala▁10870
▁Mass▁10871
▁bladder▁10872
▁Cultur▁10873
▁Organ▁10874
vascular▁10875
▁Hock▁10876
▁sauce▁10877
▁centrifug▁10878
▁ripple▁10879
▁persuasive▁10880
▁Seth▁10881
esis▁10882
▁Ki▁10883
▁jogg▁10884
▁circa▁10885
▁absolut▁10886
▁Aura▁10887
▁Sar▁10888
▁Pamel▁10889
▁Kurs▁10890
▁untouch▁10891
▁bumm▁10892
portrait▁10893
▁vague▁10894
▁Blog▁10895
▁Honey▁10896
▁qualitativ▁10897
▁evaluat▁10898
ishman▁10899
▁portable▁10900
iuk▁10901
▁appointment▁10902
▁graduat▁10903
▁Ash▁10904
performance▁10905
uinea▁10906
▁Intel▁10907
▁mainframe▁10908
▁abdomen▁10909
▁DARw▁10910
▁CL▁10911
Me▁10912
Tri▁10913
pedal▁10914
Robot▁10915
▁locomot▁10916
▁1.8▁10917
▁Intelligent▁10918
▁tacti▁10919
mann▁10920
▁Limb▁10921
▁Match▁10922
▁MA▁10923
▁Multi▁10924
App▁10925
▁payload▁10926
▁Mechanism▁10927
▁Hand▁10928
▁prosthes▁10929
echanical▁10930
reedom▁10931
ntelligence▁10932
▁Orchestra▁10933
▁Challenge▁10934
▁wack▁10935
electrifie▁10936
inch▁10937
▁Basi▁10938
▁Abbott▁10939
▁Laden▁10940
Alla▁10941
▁Crash▁10942
▁Server▁10943
▁Gang▁10944
NT▁10945
▁cybercrim▁10946
▁14.▁10947
stonia▁10948
Hex▁10949
seek▁10950
▁Mercedes▁10951
▁20-▁10952
amara▁10953
virus▁10954
▁Rosi▁10955
Wayne▁10956
▁dumm▁10957
▁Show▁10958
Engineering▁10959
▁airbag▁10960
▁bounc▁10961
▁Terminator▁10962
izz▁10963
▁friction▁10964
▁Excel▁10965
▁Rule▁10966
▁reciproc▁10967
▁conduc▁10968
▁los▁10969
▁Islam▁10970
▁refra▁10971
▁Eva▁10972
▁ceramic▁10973
▁Stil▁10974
▁Hungarian▁10975
▁Moderator▁10976
▁Bonnie▁10977
▁Vibrio▁10978
fische▁10979
▁receptor▁10980
▁census▁10981
▁mutant▁10982
quo▁10983
▁therapeutic▁10984
▁Grace▁10985
▁medal▁10986
▁accomplishment▁10987
▁Jazz▁10988
▁stereotypical▁10989
▁Shi▁10990
vdutt▁10991
▁serial▁10992
▁establishment▁10993
▁index▁10994
migration▁10995
security▁10996
▁massacre▁10997
▁exhum▁10998
▁Commission▁10999
▁Person▁11000
▁Ort▁11001
▁Information▁11002
oreign▁11003
▁Propaganda▁11004
▁instruct▁11005
▁Hitler▁11006
▁Reich▁11007
▁Portrait▁11008
▁Northeast▁11009
▁retaliat▁11010
▁orphanage▁11011
▁Ukraine▁11012
sufficien▁11013
▁phosphorus▁11014
fest▁11015
millimeter▁11016
▁penetrat▁11017
▁reef▁11018
▁Indi▁11019
▁Anti▁11020
▁embarrassment▁11021
quarium▁11022
▁Horror▁11023
▁droplet▁11024
▁acute▁11025
▁paradi▁11026
▁bleach▁11027
▁Pick▁11028
▁OPEC▁11029
▁polic▁11030
▁Saudi▁11031
BP▁11032
▁Barnett▁11033
▁accent▁11034
▁crease▁11035
▁Capital▁11036
kul▁11037
helm▁11038
▁spreadsheet▁11039
▁Viking▁11040
provok▁11041
▁Heart▁11042
▁Mutter▁11043
angst▁11044
▁Rutan▁11045
▁Hous▁11046
▁Lockheed▁11047
ggie▁11048
uz▁11049
Ship▁11050
▁airline▁11051
▁ellipti▁11052
▁billionaire▁11053
▁Musk▁11054
▁Branson▁11055
▁Bez▁11056
▁SR▁11057
▁capitalist▁11058
▁accelerator▁11059
▁shave▁11060
▁Telescope▁11061
▁mir▁11062
▁streak▁11063
▁Larg▁11064
▁Hadron▁11065
Collider▁11066
machine▁11067
▁crave▁11068
▁perceptual▁11069
▁lesion▁11070
atorium▁11071
▁Alaska▁11072
▁Mineral▁11073
▁Management▁11074
▁geopolitic▁11075
▁carcinogen▁11076
ige▁11077
▁BP▁11078
▁Beverl▁11079
▁Exxon▁11080
▁Valdez▁11081
▁Chad▁11082
▁sanctuar▁11083
▁Transport▁11084
▁Berner▁11085
Lee▁11086
▁HTTP▁11087
RL▁11088
▁grassroots▁11089
fetch▁11090
▁Data▁11091
▁sprout▁11092
▁Frei▁11093
▁Wiki▁11094
▁Ludwi▁11095
▁jug▁11096
tete▁11097
▁Treasur▁11098
▁headphone▁11099
▁Schafe▁11100
▁unhealth▁11101
▁antidote▁11102
▁Fortune▁11103
▁Kumar▁11104
▁offshor▁11105
▁Hyderabad▁11106
▁industrie▁11107
▁outsourc▁11108
▁Technologie▁11109
▁analyst▁11110
MT▁11111
RT▁11112
▁skeptical▁11113
▁Rang▁11114
▁Wang▁11115
▁authoritarian▁11116
ampaign▁11117
stein▁11118
▁Architect▁11119
▁Migration▁11120
▁prosper▁11121
▁elevate▁11122
aswam▁11123
NK▁11124
▁pilgrim▁11125
▁radioactiv▁11126
▁candle▁11127
▁Extrem▁11128
▁stratospher▁11129
▁Schock▁11130
▁Rabin▁11131
▁Russ▁11132
▁underdog▁11133
aka▁11134
▁marrow▁11135
▁Caf▁11136
▁Enlighten▁11137
▁flori▁11138
▁incubator▁11139
▁Malthus▁11140
▁barricad▁11141
▁informal▁11142
▁terabyte▁11143
▁receiver▁11144
mplitude▁11145
regal▁11146
▁arrogan▁11147
▁posture▁11148
▁Shoot▁11149
▁Kraft▁11150
▁Jill▁11151
▁embryonic▁11152
▁acquir▁11153
â▁11154
▁11155
▁11156
▁nein▁11157
▁4,▁11158
Vo▁11159
▁texting▁11160
▁LOL▁11161
▁3,3▁11162
▁pivot▁11163
▁Phil▁11164
▁tadpole▁11165
▁compensat▁11166
▁Buckminster▁11167
atalog▁11168
▁MacCready▁11169
▁Aero▁11170
▁generator▁11171
▁Diane▁11172
▁skelet▁11173
▁voil▁11174
▁Thailand▁11175
ahn▁11176
▁Und▁11177
▁Physi▁11178
▁hatred▁11179
▁agnostic▁11180
▁egalitarian▁11181
▁Armen▁11182
▁prosecute▁11183
Arm▁11184
▁Ottoman▁11185
▁Rumi▁11186
▁Sufi▁11187
▁Cheval▁11188
▁blush▁11189
▁Vermeer▁11190
ippe▁11191
▁Goldilock▁11192
▁innocen▁11193
▁Tudor▁11194
▁glance▁11195
▁nickname▁11196
♫▁11197
▁Hund▁11198
▁nominate▁11199
▁Palin▁11200
▁credi▁11201
▁Maya▁11202
▁reminisc▁11203
▁Leg▁11204
anne▁11205
▁SM▁11206
▁Festival▁11207
▁Pool▁11208
filter▁11209
▁Scientolog▁11210
▁Cru▁11211
Space▁11212
▁CP▁11213
▁advanc▁11214
▁49▁11215
▁bist▁11216
▁FO▁11217
distance▁11218
▁Tier▁11219
Hertz▁11220
▁Tesla▁11221
▁sling▁11222
▁resume▁11223
▁thylacine▁11224
▁Direct▁11225
▁Shap▁11226
▁reassemble▁11227
▁pronounce▁11228
▁primitiv▁11229
nde▁11230
▁Java▁11231
▁pluripotent▁11232
▁ivory▁11233
▁eagle▁11234
▁Zoo▁11235
▁Dia▁11236
SB▁11237
▁Cesar▁11238
▁rudder▁11239
▁ballast▁11240
▁Kickstarter▁11241
ruct▁11242
▁Ein▁11243
▁Arduino▁11244
▁EEG▁11245
rasio▁11246
▁Pra▁11247
▁Kara▁11248
▁snapp▁11249
obb▁11250
▁Gho▁11251
bald▁11252
▁assert▁11253
▁diplomatic▁11254
▁idealis▁11255
▁Minist▁11256
-1▁11257
aeda▁11258
▁sabbatical▁11259
▁Pac▁11260
▁Insider▁11261
▁Status▁11262
▁Diplomat▁11263
politik▁11264
Shabaab▁11265
▁embodie▁11266
▁Darfur▁11267
▁Ahmadine▁11268
▁Bag▁11269
trick▁11270
▁Tob▁11271
▁pacemaker▁11272
tig▁11273
similar▁11274
▁spectroscop▁11275
▁SETI▁11276
▁Lithium▁11277
▁Have▁11278
▁spectra▁11279
▁interstellar▁11280
▁Alpha▁11281
▁uranium▁11282
otassium▁11283
▁Drake▁11284
▁UFO▁11285
feder▁11286
▁Boulevard▁11287
▁Schw▁11288
▁welcom▁11289
beat▁11290
▁Linda▁11291
platin▁11292
▁Memori▁11293
▁Sloan▁11294
proving▁11295
▁cowboy▁11296
▁roommate▁11297
ibati▁11298
▁marginaliz▁11299
▁oxide▁11300
von▁11301
clav▁11302
statt▁11303
▁Report▁11304
▁Macintosh▁11305
splitter▁11306
▁McDo▁11307
▁Minorit▁11308
▁Ernst▁11309
▁Ob▁11310
format▁11311
▁Case▁11312
girl▁11313
▁Cash▁11314
▁Name▁11315
▁Sue▁11316
▁Vase▁11317
▁Accenture▁11318
▁Irish▁11319
▁Elephant▁11320
▁patrioti▁11321
▁Az▁11322
eryl▁11323
▁Arav▁11324
▁Tamil▁11325
▁Brillian▁11326
▁franchise▁11327
▁TR▁11328
▁rupee▁11329
▁complication▁11330
Monkey▁11331
▁typewriter▁11332
▁astrolog▁11333
▁banal▁11334
▁Archi▁11335
hili▁11336
▁404▁11337
▁Kinect▁11338
▁Athlet▁11339
ainforest▁11340
▁Sabbat▁11341
▁homicide▁11342
▁Uniform▁11343
▁Press▁11344
▁contingen▁11345
▁cyborg▁11346
▁Liz▁11347
▁Donnell▁11348
▁Arabia▁11349
▁Nachtwey▁11350
▁Humanit▁11351
chen▁11352
▁Ent▁11353
▁carcass▁11354
gainst▁11355
▁Last▁11356
Barrel▁11357
▁Snow▁11358
▁2,3▁11359
▁Mem▁11360
▁Ferris▁11361
=▁11362
misunderstanding▁11363
▁intergala▁11364
ncyclopedia▁11365
▁crystalliz▁11366
ematode▁11367
▁quasi▁11368
▁temptation▁11369
▁muss▁11370
▁Relation▁11371
bias▁11372
▁Mandelbrot▁11373
▁blindfold▁11374
enhanc▁11375
▁Odysse▁11376
▁Tahrir▁11377
,2▁11378
▁1.2▁11379
▁inertia▁11380
▁Oslo▁11381
lich▁11382
▁Cairo▁11383
▁magnify▁11384
▁slug▁11385
pick▁11386
atrol▁11387
▁groom▁11388
ommission▁11389
▁Pollock▁11390
▁penguins▁11391
▁Sopran▁11392
▁Turbo▁11393
chef▁11394
▁calibrate▁11395
▁Foster▁11396
▁denominator▁11397
▁Kohle▁11398
▁Faust▁11399
▁Marionette▁11400
▁giraffe▁11401
▁Morris▁11402
▁Theatr▁11403
▁Stand▁11404
icker▁11405
▁Brett▁11406
orthodox▁11407
▁rabbi▁11408
▁Tor▁11409
▁contempt▁11410
▁spectacle▁11411
▁synagogue▁11412
transcendence▁11413
lliance▁11414
▁extrem▁11415
osmos▁11416
▁Heid▁11417
▁OMG▁11418
▁Sensor▁11419
▁extrinsi▁11420
▁Agu▁11421
▁aerodynamic▁11422
▁Hazle▁11423
weh▁11424
Sinai▁11425
hypnoti▁11426
ē▁11427
▁cradle▁11428
▁Gau▁11429
▁nitr▁11430
▁Berk▁11431
▁Sound▁11432
▁Brut▁11433
▁NO▁11434
▁Crick▁11435
▁Birke▁11436
▁Model▁11437
▁Rouge▁11438
Mart▁11439
▁Patrick▁11440
▁presumption▁11441
▁surpass▁11442
▁Zambia▁11443
▁concussion▁11444
psycholog▁11445
www▁11446
ggy▁11447
▁NFL▁11448
▁Senator▁11449
▁Form▁11450
replicating▁11451
▁Diagnos▁11452
cose▁11453
▁surrogate▁11454
-47▁11455
▁Patent▁11456
nthia▁11457
▁Schneide▁11458
TV▁11459
▁Talent▁11460
▁Danny▁11461
▁Hillis▁11462
▁fission▁11463
tung▁11464
sten▁11465
▁Finger▁11466
▁wann▁11467
▁Randi▁11468
▁Alphabet▁11469
▁Movember▁11470
▁legitim▁11471
▁Bro▁11472
▁77▁11473
▁Mond▁11474
▁traumatiz▁11475
▁Brenda▁11476
▁AAA▁11477
▁Monopol▁11478
▁Reservat▁11479
▁nie▁11480
▁mitigate▁11481
▁grill▁11482
▁strawberr▁11483
private▁11484
▁Lunch▁11485
▁Program▁11486
▁psychedeli▁11487
▁Phantom▁11488
▁Martian▁11489
▁Such▁11490
▁Progress▁11491
munition▁11492
Grad▁11493
▁Bernoulli▁11494
letter▁11495
▁Ring▁11496
▁tornado▁11497
▁Asthma▁11498
▁troubling▁11499
▁seatbelt▁11500
▁Terror▁11501
▁Leon▁11502
▁calculus▁11503
▁Wilkins▁11504
▁gradient▁11505
▁junior▁11506
eval▁11507
▁cortiso▁11508
▁cardio▁11509
▁Send▁11510
▁Mul▁11511
consistent▁11512
▁persuasion▁11513
▁Positive▁11514
▁Ost▁11515
volume▁11516
bane▁11517
▁Region▁11518
▁scaling▁11519
▁additive▁11520
▁Bots▁11521
Dog▁11522
Internet▁11523
▁dashboard▁11524
▁Conne▁11525
▁underlie▁11526
focal▁11527
▁plural▁11528
▁Stephan▁11529
▁20.▁11530
▁seismi▁11531
▁saddle▁11532
▁Lang▁11533
▁uninform▁11534
▁Kurzweil▁11535
▁Niels▁11536
unter▁11537
▁recline▁11538
▁Jess▁11539
▁increment▁11540
▁collaborat▁11541
▁uncertain▁11542
orado▁11543
▁Kahn▁11544
▁Agra▁11545
▁Stygi▁11546
▁perimeter▁11547
▁yo▁11548
▁Hondura▁11549
▁Corp▁11550
▁hmm▁11551
▁ging▁11552
▁psychopath▁11553
▁Strang▁11554
great▁11555
▁doubling▁11556
▁scrub▁11557
▁arrogant▁11558
▁Bai▁11559
▁circus▁11560
▁Papua▁11561
taste▁11562
▁Denisova▁11563
▁destiny▁11564
▁Statue▁11565
▁misuse▁11566
▁cocaine▁11567
▁Barbie▁11568
▁influenza▁11569
quisition▁11570
▁Krishna▁11571
▁mason▁11572
▁Dhara▁11573
▁privatiz▁11574
▁NBA▁11575
▁Reuters▁11576
▁venom▁11577
▁altruist▁11578
sprung▁11579
job▁11580
materiali▁11581
▁Prosper▁11582
orruption▁11583
Prince▁11584
à▁11585
held▁11586
▁Essen▁11587
▁celebrit▁11588
▁BBC▁11589
▁Arche▁11590
▁Taschen▁11591
▁Ep▁11592
▁Linu▁11593
▁scoop▁11594
▁pH▁11595
▁vocation▁11596
▁mustard▁11597
▁Farbe▁11598
▁academi▁11599
▁Therapeut▁11600
▁superficial▁11601
▁Blick▁11602
gestalt▁11603
▁splint▁11604
brot▁11605
▁precursor▁11606
▁embass▁11607
▁Tumor▁11608
vitro▁11609
▁GB▁11610
urren▁11611
fusion▁11612
▁Karo▁11613
felder▁11614
inancial▁11615
▁Dir▁11616
▁drone▁11617
ongolese▁11618
▁extremist▁11619
▁flour▁11620
▁ventilat▁11621
▁Biolog▁11622
▁crater▁11623
▁Julie▁11624
▁synesthe▁11625
▁Kiki▁11626
▁mislead▁11627
▁recommendation▁11628
▁Wald▁11629
▁Fleisch▁11630
▁hysterical▁11631
▁Franc▁11632
Uni▁11633
▁Bohr▁11634
ahedron▁11635
▁Copernic▁11636
▁Tit▁11637
▁Fibonacci▁11638
▁Cala▁11639
▁Rat▁11640
▁18.▁11641
▁19.▁11642
hampagne▁11643
▁Edinburgh▁11644
retroviral▁11645
▁7.▁11646
▁Mill▁11647
▁Ushahidi▁11648
▁dictatorship▁11649
Biafra▁11650
▁dir▁11651
▁melanchol▁11652
▁enact▁11653
▁Emmanuel▁11654
▁Spider▁11655
▁Reddit▁11656
▁humpback▁11657
▁Mister▁11658
Splashy▁11659
peace▁11660
erin▁11661
▁Picture▁11662
▁guck▁11663
▁mantis▁11664
▁McCan▁11665
▁Billion▁11666
▁Dollar▁11667
▁typograph▁11668
▁USB▁11669
gras▁11670
▁Pub▁11671
neutral▁11672
▁Tunisia▁11673
▁Ornis▁11674
▁Swami▁11675
▁clogg▁11676
▁loneli▁11677
▁Atkins▁11678
▁saturate▁11679
cholester▁11680
▁headache▁11681
▁Nano▁11682
▁Segment▁11683
▁vendor▁11684
auto▁11685
▁socket▁11686
(▁11687
▁Indus▁11688
gne▁11689
▁muffin▁11690
▁tuna▁11691
▁Jorge▁11692
SHA▁11693
▁Schi▁11694
▁Lead▁11695
mpact▁11696
▁AV▁11697
▁71▁11698
▁Morgan▁11699
different▁11700
urban▁11701
▁Hono▁11702
dorf▁11703
▁Comedy▁11704
▁Venezuela▁11705
▁Jabb▁11706
▁Allah▁11707
▁Hass▁11708
oooo▁11709
▁Bond▁11710
▁Broad▁11711
▁bureaucrac▁11712
flection▁11713
AL▁11714
Pro▁11715
▁Audio▁11716
eute▁11717
▁neutron▁11718
▁Helm▁11719
▁Rep▁11720
▁missionar▁11721
▁Amsterdam▁11722
▁Bueno▁11723
▁Die▁11724
kor▁11725
designer▁11726
▁Expedition▁11727
▁Panama▁11728
▁Ebola▁11729
▁dein▁11730
▁Methan▁11731
schi▁11732
monoxid▁11733
terrorism▁11734
dimension▁11735
▁Heiz▁11736
ona▁11737
▁Atm▁11738
▁Himmel▁11739
blau▁11740
▁Greg▁11741
▁Lynn▁11742
▁Antoni▁11743
Station▁11744
serie▁11745
▁janitor▁11746
mbstone▁11747
quivalent▁11748
▁Paradi▁11749
▁Richter▁11750
▁mosaic▁11751
▁Cousteau▁11752
▁wilderness▁11753
▁Hippie▁11754
quator▁11755
▁Maldiv▁11756
▁PIPA▁11757
▁Stacey▁11758
▁Kram▁11759
▁Command▁11760
▁Male▁11761
▁Islamist▁11762
▁Nadi▁11763
▁Libya▁11764
▁Geoff▁11765
▁Summe▁11766
▁GCSE▁11767
Pachycephalosaur▁11768
loch▁11769
atops▁11770
▁Torosaurus▁11771
Scan▁11772
Rex▁11773
▁Shadow▁11774
▁Archimedes▁11775
ltimo▁11776
▁transcribe▁11777
▁Radi▁11778
▁Spar▁11779
▁Thermo▁11780
▁collaps▁11781
wetter▁11782
▁Inuit▁11783
▁flog▁11784
City▁11785
▁Bowden▁11786
▁ESP▁11787
rger▁11788
▁Test▁11789
▁Sherman▁11790
▁Lago▁11791
folklore▁11792
romegal▁11793
▁Imperi▁11794
▁Accra▁11795
▁Volt▁11796
▁Montessori▁11797
▁Lip▁11798
▁reorganize▁11799
▁Hof▁11800
stadt▁11801
▁Schwartz▁11802
park▁11803
▁NPR▁11804
Atti▁11805
▁Aaron▁11806
▁Feuer▁11807
EP▁11808
▁UNAIDS▁11809
▁vodka▁11810
ummer▁11811
▁arsenal▁11812
▁Cola▁11813
uten▁11814
▁Osa▁11815
▁Leb▁11816
▁Geiger▁11817
▁Full▁11818
▁gecko▁11819
▁Velcro▁11820
Stick▁11821
bombe▁11822
▁wizard▁11823
▁Keller▁11824
▁Inti▁11825
▁coerc▁11826
▁Sally▁11827
Button▁11828
▁meteorite▁11829
▁Rasmus▁11830
▁replicator▁11831
▁substrate▁11832
ahr▁11833
ø▁11834
standard▁11835
▁biomimic▁11836
▁Arian▁11837
▁WikiLeaks▁11838
▁Guten▁11839
moor▁11840
▁Marathon▁11841
▁Derart▁11842
▁Rad▁11843
cliff▁11844
▁Tarahumara▁11845
web▁11846
▁Ap▁11847
▁59▁11848
Gamble▁11849
▁ballot▁11850
rinde▁11851
▁incision▁11852
upta▁11853
▁revolt▁11854
▁Bollywood▁11855
isela▁11856
▁Misha▁11857
▁Hacker▁11858
▁cybercriminal▁11859
Planet▁11860
Marke▁11861
Colombo▁11862
frau▁11863
Co▁11864
▁McKi▁11865
hbab▁11866
ï▁11867
▁reckon▁11868
Account▁11869
▁conductor▁11870
▁Ensemble▁11871
variabl▁11872
▁Baum▁11873
▁Feminist▁11874
▁Steine▁11875
▁Guzm▁11876
▁Mess▁11877
▁Electro▁11878
lux▁11879
arez▁11880
suppe▁11881
▁Donald▁11882
dministration▁11883
▁Worldchanging▁11884
spiel▁11885
▁Ganesh▁11886
▁PDA▁11887
Hop▁11888
iges▁11889
▁Francesca▁11890
▁Note▁11891
liche▁11892
iscipline▁11893
Kinsey▁11894
▁Sharp▁11895
▁Allianz▁11896
▁Kelle▁11897
▁550▁11898
▁Pixar▁11899
▁volle▁11900
conscious▁11901
▁Benki▁11902
▁Nation▁11903
▁Portuguese▁11904
▁Sanghamitr▁11905
▁southwest▁11906
▁WI▁11907
▁Profit▁11908
▁supermassive▁11909
-2▁11910
▁Schwarz▁11911
▁stell▁11912
▁sag▁11913
list▁11914
▁Burk▁11915
▁Gando▁11916
▁classmates▁11917
▁marshmallow▁11918
▁AMD▁11919
▁Johann▁11920
▁Michoac▁11921
▁Proz▁11922
revolution▁11923
▁Zimba▁11924
▁Gay▁11925
▁ABC▁11926
▁Kiva▁11927
▁aber▁11928
baum▁11929
lö▁11930
▁Okapi▁11931
▁poacher▁11932
▁Ituri▁11933
▁UNESCO▁11934
▁Liberal▁11935
▁utopia▁11936
▁Juni▁11937
▁Mind▁11938
▁Suga▁11939
fan▁11940
▁Romo▁11941
Store▁11942
▁Parikrma▁11943
▁Puls▁11944
teacher▁11945
▁Ahmedabad▁11946
▁RAM▁11947
▁Photosynth▁11948
▁AI▁11949
▁Avelile▁11950
▁Higgs▁11951
neu▁11952
▁Sousa▁11953
fern▁11954
▁trespass▁11955
MI▁11956
▁Orte▁11957
▁Gas▁11958
▁Gould▁11959
▁attorney▁11960
▁Brust▁11961
ein▁11962
ventil▁11963
driving▁11964
▁crook▁11965
▁ignor▁11966
▁banjo▁11967
▁Reg▁11968
▁Mathe▁11969
appen▁11970
▁GP▁11971
▁detriment▁11972
▁Gustav▁11973
▁Teresa▁11974
√▁11975
±▁11976
▁Caracas▁11977
▁SW▁11978
ete▁11979
▁Container▁11980
▁obey▁11981
ieroglyph▁11982
▁Der▁11983
loh▁11984
▁ganz▁11985
▁widerlich▁11986
▁Geruch▁11987
▁nah▁11988
▁Heli▁11989
▁CAPTCHA▁11990
▁Duolingo▁11991
▁Ticket▁11992
▁Kind▁11993
▁Snoop▁11994
hhhh▁11995
▁beginn▁11996
▁rau▁11997
▁mangrove▁11998
▁Interviewer▁11999
▁conform▁12000
▁skat▁12001
▁Herz▁12002
studie▁12003
▁Investment▁12004
▁Hip▁12005
▁Extra▁12006
▁Hab▁12007
kau▁12008
▁Aimee▁12009
Gadget▁12010
tipp▁12011
▁Masse▁12012
▁Gra▁12013
metall▁12014
▁Dimitri▁12015
▁Virgin▁12016
▁Terminal▁12017
▁Hammer▁12018
▁Detail▁12019
KA▁12020
▁KB▁12021
▁Student▁12022
▁null▁12023
▁Mahab▁12024
▁Beatrice▁12025
▁79▁12026
▁progeri▁12027
▁fringe▁12028
▁Kauf▁12029
convenient▁12030
▁dragonfl▁12031
▁Wand▁12032
elle▁12033
▁evaporat▁12034
▁Rolle▁12035
▁cyberattack▁12036
aub▁12037
▁Blitz▁12038
krieg▁12039
ë▁12040
▁Elisabeth▁12041
uffard▁12042
▁Instagram▁12043
sistence▁12044
▁Ego▁12045
▁Box▁12046
▁Level▁12047
▁Trends▁12048
▁Evaluation▁12049
▁SOPA▁12050
▁Seminar▁12051
▁Zander▁12052
▁Rebe▁12053
▁grosse▁12054
Python▁12055
▁brach▁12056
hantom▁12057
▁glamour▁12058
▁desalinati▁12059
▁Magazin▁12060
▁Farmer▁12061
vier▁12062
atmen▁12063
▁Ehrlich▁12064
▁Lovin▁12065
▁CPU▁12066
▁Ding▁12067
▁Faul▁12068
eocortex▁12069
▁antidepressant▁12070
▁Bolivi▁12071
▁Shackleton▁12072
▁Hunt▁12073
▁Blogger▁12074
yntax▁12075
▁Pizza▁12076
▁Geld▁12077
▁pragmatis▁12078
▁DA▁12079
▁Birmingham▁12080
▁fluctuation▁12081
bio▁12082
*▁12083
▁blonde▁12084
▁Date▁12085
▁Auge▁12086
muster▁12087
▁neurosurge▁12088
▁jihad▁12089
▁disengage▁12090
▁Team▁12091
Ladenism▁12092
▁Miz▁12093
▁hump▁12094
bare▁12095
onne▁12096
thema▁12097
HIN▁12098
▁bottleneck▁12099
▁Blend▁12100
▁000▁12101
▁Vel▁12102
▁Dewey▁12103
museum▁12104
▁Swap▁12105
▁twitter▁12106
service▁12107
Ge▁12108
Sharing▁12109
▁Wiese▁12110
operation▁12111
motor▁12112
▁Irr▁12113
▁floss▁12114
▁Bandura▁12115
▁Diabetes▁12116
▁Papa▁12117
▁spoof▁12118
uft▁12119
▁Gowanus▁12120
▁16.▁12121
▁rebound▁12122
▁Resnick▁12123
▁Phillip▁12124
urdy▁12125
▁viel▁12126
▁Manager▁12127
▁Tests▁12128
▁VC▁12129
anz▁12130
▁Bunker▁12131
▁Labor▁12132
Dollar▁12133
▁Anders▁12134
▁JA▁12135
▁Feld▁12136
▁Fermi▁12137
▁Paradox▁12138
▁Trek▁12139
▁Fische▁12140
isch▁12141
▁Implant▁12142
▁Mohammed▁12143
turm▁12144
▁Expo▁12145
▁Bike▁12146
wei▁12147
ilhouette▁12148
▁Neurologi▁12149
▁10.▁12150
▁Total▁12151
▁Tradition▁12152
▁Kino▁12153
▁Tablet▁12154
▁Ideal▁12155
▁Stirling▁12156
2-▁12157
▁revisit▁12158
▁Kuh▁12159
kt▁12160
▁Event▁12161
▁Chor▁12162
▁Fond▁12163
▁depressiv▁12164
▁thermodynamic▁12165
▁Geh▁12166
▁appall▁12167
▁Pixel▁12168
▁aphid▁12169
▁Organism▁12170
▁Ei▁12171
▁Klo▁12172
▁wrinkle▁12173
▁Instant▁12174
▁Safeway▁12175
platte▁12176
▁Invasion▁12177
▁Larami▁12178
▁Neu▁12179
uh▁12180
eira▁12181
tzen▁12182
onie▁12183
bergen▁12184
▁Bau▁12185
oruba▁12186
▁Kongo▁12187
ü▁12188
ā▁12189
gier▁12190
▁Ruf▁12191
▁Alisa▁12192
▁Volk▁12193
▁Nerv▁12194
listen▁12195
▁Smoot▁12196
COB▁12197
▁Toaster▁12198
iker▁12199
llows▁12200
▁snail▁12201
▁Recycling▁12202
▁Feder▁12203
▁herein▁12204
For▁12205
_▁12206
▁SAN▁12207
▁Gamma▁12208
ophile▁12209
▁plutocra▁12210
▁Bernard▁12211
▁meritocra▁12212
▁Dietrich▁12213
pilot▁12214
▁Pilot▁12215
tik▁12216
ymnosoph▁12217
É▁12218
▁hing▁12219
▁Ruby▁12220
▁Heil▁12221
▁Idiot▁12222
▁Patriot▁12223
▁Kampf▁12224
▁Redwood▁12225
▁Gedanken▁12226
▁fern▁12227
▁11.▁12228
journalist▁12229
▁Kasparo▁12230
▁adversari▁12231
▁relational▁12232
tsch▁12233
▁Mord▁12234
Baptiste▁12235
▁Ola▁12236
▁reconfigur▁12237
wink▁12238
▁Victor▁12239
mord▁12240
▁Wert▁12241
▁Barrier▁12242
▁Figur▁12243
Art▁12244
Ark▁12245
▁Glasgow▁12246
nerv▁12247
▁Smol▁12248
▁Aristotel▁12249
▁Neo▁12250
etera▁12251
▁Merz▁12252
pattern▁12253
Syndrom▁12254
ische▁12255
▁EKG▁12256
▁ARES▁12257
▁Mais▁12258
▁Binde▁12259
Protokoll▁12260
▁Sultan▁12261
▁Small▁12262
▁Mitra▁12263
▁Horizont▁12264
▁Zone▁12265
▁Breivik▁12266
▁font▁12267
▁Institution▁12268
▁Lucifer▁12269
▁klug▁12270
▁Kwa▁12271
▁Eno▁12272
▁Kareem▁12273
▁hitchhik▁12274
▁Oper▁12275
apparat▁12276
▁Couch▁12277
▁Abdul▁12278
auf▁12279
wu▁12280
▁Gibbon▁12281
▁Magellan▁12282
▁boson▁12283
▁Genen▁12284
▁Tamiflu▁12285
▁Forrest▁12286
▁Hannah▁12287
▁astrolabe▁12288
▁Fowler▁12289
hormon▁12290
▁Lynch▁12291
▁questionnaire▁12292
▁Hier▁12293
ehr▁12294
tanz▁12295
▁Samantha▁12296
▁Sergio▁12297
▁Misch▁12298
weile▁12299
ã▁12300
▁Ork▁12301
▁Tool▁12302
nswers▁12303
▁Aber▁12304
gott▁12305
▁Mahmo▁12306
▁Golf▁12307
▁Kor▁12308
kram▁12309
▁angiogen▁12310
angiogen▁12311
tumor▁12312
▁DL▁12313
iven▁12314
▁Weg▁12315
▁Kap▁12316
▁cochlear▁12317
▁Guatemala▁12318
lethal▁12319
▁Dominican▁12320
▁recursive▁12321
▁Beau▁12322
uza▁12323
▁Studie▁12324
▁gras▁12325
Taste▁12326
▁Eduardo▁12327
chmal▁12328
▁Janin▁12329
▁Najmuddin▁12330
▁Das▁12331
▁Amazonas▁12332
▁Plus▁12333
▁Karma▁12334
▁Crimin▁12335
▁Bei▁12336
Khmer▁12337
▁boreal▁12338
▁Aborigin▁12339
▁Pipeline▁12340
▁Verb▁12341
▁Flow▁12342
▁Simulator▁12343
▁Bengal▁12344
▁Koolhaas▁12345
▁Hirn▁12346
▁Winter▁12347
▁cough▁12348
▁Prophe▁12349
▁Position▁12350
msala▁12351
▁sei▁12352
▁shaman▁12353
▁bitte▁12354
▁Hasan▁12355
▁Ranch▁12356
tasking▁12357
▁Info▁12358
Design▁12359
▁Nun▁12360
▁Banjo▁12361
▁Ninja▁12362
▁Veteran▁12363
ARE▁12364
▁Hewlett▁12365
▁Boltzmann▁12366
▁Gravitation▁12367
▁incorporat▁12368
zog▁12369
▁Gecko▁12370
▁Katie▁12371
wagen▁12372
spinne▁12373
kb▁12374
▁restorati▁12375
▁Authenti▁12376
▁las▁12377
▁schaden▁12378
freude▁12379
▁positiv▁12380
▁Laufen▁12381
▁Lakota▁12382
▁stomatopod▁12383
phase▁12384
▁demobiliz▁12385
▁Naja▁12386
▁Knee▁12387
▁AIMS▁12388
Choice▁12389
▁rhinovirus▁12390
Bank▁12391
iche▁12392
bett▁12393
protein▁12394
▁Wort▁12395
Horo▁12396
▁Milli▁12397
▁Regen▁12398
▁Biomimi▁12399
eben▁12400
▁Galois▁12401
▁Essay▁12402
▁Nathaniel▁12403
▁Berg▁12404
FG▁12405
witsch▁12406
▁guten▁12407
▁Abend▁12408
▁Wurzel▁12409
▁Norden▁12410
▁bombsight▁12411
▁bombardier▁12412
▁militant▁12413
▁Balk▁12414
▁Krypto▁12415
▁Trivial▁12416
afel▁12417
▁Comics▁12418
firma▁12419
▁denn▁12420
▁Bronze▁12421
▁Okinawa▁12422
▁Adventist▁12423
▁Methodi▁12424
▁Rawl▁12425
▁Cello▁12426
▁Cyborg▁12427
▁Nollywood▁12428
▁Leber▁12429
cht▁12430
▁Sudh▁12431
.000▁12432
▁amputee▁12433
▁12.▁12434
è▁12435
▁Kunst▁12436
▁Pei▁12437
▁Normal▁12438
▁Liebe▁12439
▁Beijerinck▁12440
uark▁12441
▁squatter▁12442
sche▁12443
£▁12444
▁gab▁12445
▁ich▁12446
▁für▁12447
▁Toast▁12448
Shreddies▁12449
eher▁12450
▁Doodle▁12451
▁Kon▁12452
assava▁12453
management▁12454
▁Gro▁12455
▁MaKey▁12456
▁Olive▁12457
▁Liste▁12458
▁protocell▁12459
▁unregul▁12460
nagnoris▁12461
▁Sixth▁12462
▁Clau▁12463
▁Keene▁12464
▁Rockett▁12465
▁Football▁12466
▁Trick▁12467
▁Hallo▁12468
▁Lifesaver▁12469
▁Brahm▁12470
▁cyclist▁12471
route▁12472
Guru▁12473
▁platt▁12474
▁Kunde▁12475
▁Enric▁12476
▁seine▁12477
▁wilde▁12478
▁NAND▁12479
▁0,0▁12480
▁Insel▁12481
rhythm▁12482
kus▁12483
▁eigen▁12484
▁megabyte▁12485
▁Explosion▁12486
▁juri▁12487
▁Phase▁12488
▁meister▁12489
aida▁12490
\▁12491
▁Latino▁12492
▁Herr▁12493
topf▁12494
▁Tunnel▁12495
▁Blanc▁12496
desto▁12497
ć▁12498
▁narco▁12499
▁Isabelle▁12500
▁Trip▁12501
▁Original▁12502
ahara▁12503
▁Moog▁12504
essel▁12505
problem▁12506
▁frei▁12507
▁Dragon▁12508
▁Critic▁12509
▁pseudo▁12510
▁Prickly▁12511
▁Snack▁12512
▁Moment▁12513
▁Kenne▁12514
▁Industrie▁12515
▁Probe▁12516
▁Hercul▁12517
▁serif▁12518
▁Lern▁12519
▁Curitiba▁12520
▁Solomon▁12521
▁dragline▁12522
ercover▁12523
▁Kuba▁12524
▁Welle▁12525
ourage▁12526
Tetris▁12527
▁MOOC▁12528
bund▁12529
▁Fang▁12530
▁schmi▁12531
Mobile▁12532
▁Hohe▁12533
nix▁12534
▁Pragmati▁12535
▁Chaos▁12536
SW▁12537
▁Karajan▁12538
▁Klei▁12539
koko▁12540
▁Olu▁12541
uuu▁12542
abend▁12543
▁Deutsch▁12544
^▁12545
laden▁12546
▁Sata▁12547
▁mockingbird▁12548
▁gil▁12549
▁Fragment▁12550
öhl▁12551
Source▁12552
maxim▁12553
outube▁12554
Land▁12555
▁Brunel▁12556
Kaiser▁12557
▁cavit▁12558
ologe▁12559
▁Programme▁12560
▁Helium▁12561
raten▁12562
▁Dumm▁12563
▁Cheeto▁12564
fleck▁12565
▁Optimist▁12566
ô▁12567
▁Schnabel▁12568
▁Ganz▁12569
Star▁12570
▁Banker▁12571
▁spontan▁12572
▁DUM▁12573
falls▁12574
▁Maus▁12575
sbro▁12576
▁cobra▁12577
bung▁12578
▁mache▁12579
▁Ekman▁12580
▁Cochrane▁12581
▁Jarrett▁12582
▁Krosoczka▁12583
▁Cousin▁12584
▁Elementar▁12585
Team▁12586
▁Toraja▁12587
Truck▁12588
▁teme▁12589
▁stet▁12590
traut▁12591
▁Mehr▁12592
Rhythm▁12593
XX▁12594
▁Tank▁12595
▁Zabbal▁12596
ographie▁12597
trug▁12598
▁Scratch▁12599
▁Atheist▁12600
▁IGF▁12601
▁Gestalt▁12602
▁Trag▁12603
▁Imagination▁12604
▁Mott▁12605
▁Merk▁12606
▁Popcorn▁12607
▁Vivian▁12608
▁Schachtel▁12609
▁Almo▁12610
▁superconductor▁12611
▁Whirlwind▁12612
Auto▁12613
▁Winky▁12614
Dink▁12615
▁Engelbart▁12616
▁HyperCard▁12617
gut▁12618
▁Parasit▁12619
▁Schwa▁12620
▁17.▁12621
▁Strick▁12622
▁Heinz▁12623
▁Vati▁12624
▁Singularit▁12625
▁Instrument▁12626
▁halte▁12627
▁negativ▁12628
ä▁12629
▁Leviathan▁12630
▁Admin▁12631
▁Pension▁12632
Screen▁12633
QQ▁12634
▁Firewall▁12635
送你葱▁12636
▁microblogg▁12637
▁Engel▁12638
▁Logo▁12639
▁Generator▁12640
autor▁12641
stelle▁12642
▁Tempo▁12643
▁Magnet▁12644
▁Stimulation▁12645
▁Moral▁12646
▁Fraser▁12647
▁Carrillo▁12648
▁Lotto▁12649
▁Institut▁12650
ú▁12651
▁Röntgen▁12652
▁Amt▁12653
▁Geist▁12654
▁Eigentum▁12655
prüf▁12656
recht▁12657
▁wird▁12658
▁Verfahren▁12659
rechtlich▁12660
▁geschützt▁12661
▁welche▁12662
▁durch▁12663
spezifisch▁12664
▁aufge▁12665
räumt▁12666
▁Regel▁12667
mässig▁12668
keit▁12669
▁allgemeine▁12670
▁Formen▁12671
▁neue▁12672
▁Wirkung▁12673
▁zu▁12674
▁erziel▁12675
▁möglich▁12676
halle▁12677
▁Vinc▁12678
egel▁12679
▁Galvao▁12680
▁Rede▁12681
▁Trend▁12682
▁Impulse▁12683
▁Seg▁12684
Mail▁12685
▁natur▁12686
▁Weibo▁12687
▁Kern▁12688
kong▁12689
▁Suppe▁12690
▁Capgras▁12691
▁Diese▁12692
druck▁12693
garten▁12694
▁Mode▁12695
▁alt▁12696
▁Evangeli▁12697
fel▁12698
▁kenne▁12699
▁melde▁12700
fallen▁12701
▁Garage▁12702
▁Divergen▁12703
▁Rasse▁12704
▁fand▁12705
▁dank▁12706
▁Bilbao▁12707
▁Kante▁12708
▁Alternative▁12709
artig▁12710
▁WorldWide▁12711
▁Mund▁12712
▁Biospher▁12713
▁Modul▁12714
▁Leit▁12715
rlei▁12716
Patient▁12717
▁Koch▁12718
▁Hyo▁12719
▁Mario▁12720
sklav▁12721
▁Variation▁12722
rmel▁12723
▁Meeting▁12724
▁Humor▁12725
trieb▁12726
▁Sprint▁12727
status▁12728
▁Stadium▁12729
lager▁12730
▁Afro▁12731
▁Cholera▁12732
▁Gottes▁12733
zelle▁12734
▁Gott▁12735
▁Solo▁12736
Touch▁12737
▁Milgram▁12738
▁Schule▁12739
▁Tricks▁12740
▁friss▁12741
▁Toten▁12742
ieder▁12743
Strateg▁12744
▁Hyun▁12745
▁ELA▁12746
▁Eigen▁12747
echten▁12748
▁Wann▁12749
äcke▁12750
▁Frau▁12751
ohn▁12752
▁Dodo▁12753
Rumbaugh▁12754
▁Bonobo▁12755
▁Kanzi▁12756
▁mitten▁12757
▁Bilder▁12758
▁Bionicle▁12759
▁Software▁12760
▁Mist▁12761
▁Knopf▁12762
sparen▁12763
scha▁12764
▁Metall▁12765
Sauce▁12766
▁Cura▁12767
▁Haut▁12768
▁Pantheon▁12769
▁Piano▁12770
▁Surf▁12771
▁Smiley▁12772
▁Bergen▁12773
▁Trott▁12774
▁Weblog▁12775
ophonie▁12776
▁Multimedia▁12777
▁Koko▁12778
ummel▁12779
▁Pastor▁12780
Freak▁12781
fett▁12782
▁Flut▁12783
ologie▁12784
▁Mosk▁12785
▁Ragu▁12786
▁4,5▁12787
▁Fest▁12788
▁Immigrant▁12789
▁Placebo▁12790
Fiction▁12791
▁Hirshhorn▁12792
▁Lava▁12793
▁kam▁12794
▁Situation▁12795
▁Psychopath▁12796
▁Dunlap▁12797
▁Bein▁12798
▁Alligator▁12799
XXX▁12800
▁Sexual▁12801
▁Potential▁12802
▁Nah▁12803
▁Lust▁12804
▁Gift▁12805
▁Bitcoin▁12806
▁Teszler▁12807
▁Anschluss▁12808
leiter▁12809
▁Variabilit▁12810
▁Baseball▁12811
▁phthalate▁12812
Ei▁12813
mals▁12814
▁Katzen▁12815
▁Religion▁12816
▁Inner▁12817
▁Privat▁12818
▁Kapital▁12819
uthanasi▁12820
▁KT▁12821
Reality▁12822
▁Latte▁12823
▁Lamanite▁12824
▁Gayla▁12825
miculit▁12826
▁biofluorescen▁12827
▁Hippocamp▁12828
öl▁12829
▁Comic▁12830
▁Acht▁12831
▁Strategie▁12832
▁KI▁12833
▁3000▁12834
▁Gute▁12835
▁Scrapper▁12836
▁Nest▁12837
▁Trauma▁12838
rö▁12839
▁CRISPR▁12840
▁Wie▁12841
▁neurogenesis▁12842
▁Everglades▁12843
▁Okeechobee▁12844
▁Selasi▁12845
▁Drink▁12846
ū▁12847
ī▁12848
▁Aglo▁12849
▁Intervention▁12850
▁Khali▁12851
▁Osmakac▁12852
▁wetsuit▁12853
▁Landes▁12854
▁Tori▁12855
▁Supernova▁12856
▁Knie▁12857
augen▁12858
▁Kinder▁12859
transport▁12860
▁StoryCorps▁12861
▁Held▁12862
Saa▁12863
▁Altern▁12864
▁peacebuild▁12865
▁Juliano▁12866
▁Transformation▁12867
ardino▁12868
tadore▁12869
▁NRK▁12870
rtigr▁12871
Å▁12872
immel▁12873
▁Maidan▁12874
▁Maxim▁12875
▁tippe▁12876
¡▁12877
▁Nadel▁12878
▁Foto▁12879
▁Kette▁12880
▁Handel▁12881
▁ELAM▁12882
potential▁12883
▁Seide▁12884
́▁12885
▁Rehabilitation▁12886
leau▁12887
▁Manya▁12888
gramm▁12889
▁straf▁12890
▁privat▁12891
▁Funk▁12892
▁Meter▁12893
gt▁12894
▁Fresh▁12895
Č▁12896
▁Bombe▁12897
▁Mysteri▁12898
▁Zimmer▁12899
▁Toxo▁12900
▁Signal▁12901
▁Cowboy▁12902
▁FreeSpeech▁12903
▁Heu▁12904
▁INCRA▁12905
▁ESG▁12906
▁Tijuana▁12907
▁Faiza▁12908
akt▁12909
Player▁12910
▁Reis▁12911
▁Orang▁12912
€▁12913
▁Cartoon▁12914
▁Malaria▁12915
▁Schott▁12916
▁21.▁12917
▁Schar▁12918
kinder▁12919
▁Donner▁12920
▁Gentlem▁12921
▁interne▁12922
▁Schnell▁12923
▁Journalism▁12924
animation▁12925
Center▁12926
▁Pleo▁12927
▁Furby▁12928
▁erst▁12929
▁globale▁12930
