<pad>▁0
<unk>▁1
<s>▁2
</s>▁3
▁David▁4
▁Gallo▁5
▁über▁6
▁das▁7
▁Leben▁8
▁in▁9
▁der▁10
▁Tiefe▁11
▁des▁12
▁Meeres▁13
▁TED▁14
▁Talk▁15
▁Subti▁16
tles▁17
▁and▁18
▁T▁19
ranscript▁20
▁:▁21
▁mit▁22
▁Hilfe▁23
▁von▁24
▁lebendig▁25
en▁26
▁Videos▁27
▁,▁28
▁die▁29
▁Unter▁30
see▁31
boot▁32
▁gemacht▁33
▁wurden▁34
▁führt▁35
▁uns▁36
▁zu▁37
▁den▁38
▁dunkel▁39
sten▁40
▁gefährlichste▁41
n▁42
▁gift▁43
ig▁44
▁und▁45
▁schönste▁46
▁Lebensräume▁47
▁Erde▁48
▁Täler▁49
▁vulkanische▁50
▁Höhen▁51
züge▁52
▁Ozeane▁53
▁wo▁54
▁bizarr▁55
▁ist▁56
▁▁57
widerstandsfähig▁58
▁erschreckend▁59
vielfältig▁60
▁.▁61
▁Bill▁62
▁Lange▁63
▁ich▁64
▁bin▁65
▁Dave▁66
▁wir▁67
▁werden▁68
▁Ihnen▁69
▁einige▁70
▁Geschichten▁71
▁Meer▁72
▁Video▁73
form▁74
▁erzählen▁75
▁haben▁76
▁ein▁77
▁paar▁78
▁unglaublich▁79
▁Aufnahmen▁80
▁Titanic▁81
▁man▁82
▁je▁83
▁gesehen▁84
▁hat▁85
▁nichts▁86
▁davon▁87
▁zeigen▁88
▁Wahrheit▁89
▁dass▁90
▁-▁91
▁ob▁92
wohl▁93
▁sie▁94
▁alle▁95
▁Kino▁96
ka▁97
s▁98
re▁99
kor▁100
de▁101
bricht▁102
▁nicht▁103
▁gerade▁104
▁a▁105
ufregendste▁106
▁Geschichte▁107
▁vom▁108
▁denke▁109
▁Problem▁110
▁für▁111
▁selbst▁112
verständlich▁113
▁halten▁114
▁wenn▁115
▁darüber▁116
▁nachdenk▁117
t▁118
▁machen▁119
▁75▁120
%▁121
▁Planeten▁122
▁aus▁123
▁Großteil▁124
▁Meerwasser▁125
durchschnittlich▁126
e▁127
▁etwa▁128
▁3▁129
▁Kilometer▁130
▁Teil▁131
▁am▁132
▁Strand▁133
▁stehen▁134
▁oder▁135
▁Bilder▁136
▁wie▁137
▁diese▁138
▁hier▁139
▁sehen▁140
▁auf▁141
▁riesige▁142
▁blaue▁143
▁Weite▁144
▁schauen▁145
▁sch▁146
immer▁147
▁bewegt▁148
▁sich▁149
▁es▁150
▁gibt▁151
▁Wellen▁152
▁Brand▁153
ung▁154
▁Gezeiten▁155
▁aber▁156
▁keine▁157
▁Ahnung▁158
▁was▁159
▁darin▁160
▁verborgen▁161
▁Ozean▁162
▁befinde▁163
▁längste▁164
▁Gebirgs▁165
▁meisten▁166
▁Tiere▁167
▁leben▁168
▁Erdbeben▁169
▁Vulkan▁170
ausbrüche▁171
▁spielt▁172
▁im▁173
▁ab▁174
▁Meeresboden▁175
▁an▁176
▁einigen▁177
▁Stellen▁178
▁Vielfa▁179
lt▁180
▁Dichte▁181
▁Lebens▁182
▁höher▁183
▁als▁184
▁Regenwälder▁185
▁meiste▁186
▁unerforscht▁187
▁doch▁188
▁Schönheit▁189
▁fesseln▁190
▁vertraut▁191
er▁192
▁ihm▁193
▁Sie▁194
▁möchte▁195
▁vorstellen▁196
▁Grenze▁197
▁einer▁198
▁unbekannte▁199
▁Welt▁200
▁müssen▁201
▁schon▁202
▁sehr▁203
▁spezielle▁204
▁Technik▁205
▁bediene▁206
▁um▁207
▁vorzu▁208
d▁209
r▁210
ing▁211
▁benutzen▁212
▁Al▁213
vin▁214
▁Kameras▁215
▁Sony▁216
▁entwickelt▁217
▁Marcel▁218
▁Pro▁219
us▁220
▁einmal▁221
▁gesagt▁222
▁&▁223
quot▁224
;▁225
▁wahre▁226
▁Entdeckung▁227
reise▁228
▁besteht▁229
▁neue▁230
▁Länder▁231
▁sucht▁232
▁sondern▁233
▁Augen▁234
▁Menschen▁235
▁zusammen▁236
gearbeitet▁237
▁gab▁238
▁nur▁239
▁existiert▁240
▁neuen▁241
▁dem▁242
▁auch▁243
m▁244
▁nachzudenken▁245
▁We▁246
icht▁247
ier▁248
▁meiner▁249
▁Liebling▁250
▁weil▁251
▁möglich▁252
▁Funktion▁253
teile▁254
▁Wesen▁255
▁erwiesen▁256
▁wird▁257
▁bis▁258
▁50▁259
▁Meter▁260
▁lang▁261
▁all▁262
▁unterschiedlich▁263
▁Teile▁264
▁?▁265
▁so▁266
▁mag▁267
▁Fisch▁268
k▁269
ö▁270
der▁271
seite▁272
▁bewegen▁273
take▁274
l▁275
▁herum▁276
sch▁277
wir▁278
▁eine▁279
▁Kolonie▁280
▁Tieren▁281
▁sind▁282
▁alles▁283
▁einzelne▁284
▁Lebewesen▁285
▁einen▁286
▁Organism▁287
▁zusammenschließ▁288
▁vorne▁289
▁Antrieb▁290
ü▁291
▁gleich▁292
▁benutzt▁293
▁kleine▁294
▁Licht▁295
▁großen▁296
▁Fische▁297
schule▁298
nimmt▁299
▁Seite▁300
▁Waage▁301
▁legt▁302
ich▁303
tiere▁304
▁andere▁305
▁gewinnen▁306
▁ha▁307
ush▁308
och▁309
▁Biomasse▁310
▁Geschöpf▁311
X▁312
-▁313
W▁314
T▁315
ode▁316
▁Biolumineszenz▁317
▁Geschlechts▁318
partner▁319
▁anzu▁320
locken▁321
▁Beute▁322
▁k▁323
▁zur▁324
▁Ver▁325
ständig▁326
▁hätten▁327
▁nie▁328
mals▁329
▁Zeit▁330
▁unser▁331
▁Archiv▁332
material▁333
ieren▁334
▁Größen▁335
▁Formen▁336
▁vergessen▁337
▁leicht▁338
▁mehrere▁339
▁tief▁340
▁wirklich▁341
▁kennen▁342
▁obere▁343
▁hundert▁344
▁Metern▁345
▁zwischen▁346
▁dort▁347
▁lebt▁348
▁Tierart▁349
▁einem▁350
▁dreidimensional▁351
▁Raum▁352
▁Mikro▁353
g▁354
avi▁355
ation▁356
raum▁357
▁überhaupt▁358
▁noch▁359
▁erforscht▁360
▁hört▁361
▁Riesen▁362
al▁363
mar▁364
▁dieser▁365
▁weiß▁366
▁wenig▁367
DG▁368
▁ihn▁369
▁unserer▁370
▁denn▁371
▁kleiner▁372
▁Oktopus▁373
▁kann▁374
▁tatsächlich▁375
▁durch▁376
▁Kopf▁377
▁guck▁378
▁wack▁379
el▁380
▁er▁381
▁Ohren▁382
steigt▁383
mut▁384
▁nach▁385
▁oben▁386
▁finden▁387
▁Tiefen▁388
▁sogar▁389
▁tiefste▁390
▁Zentimeter▁391
▁hin▁392
▁kommen▁393
▁U▁394
Boot▁395
▁heran▁396
▁Fenster▁397
▁eigene▁398
▁zwei▁399
▁Fall▁400
mit▁401
te▁402
▁unten▁403
▁solche▁404
▁Kreatur▁405
▁Art▁406
▁Unterwasser▁407
H▁408
ahn▁409
▁irgendwie▁410
▁för▁411
lich▁412
▁aussieh▁413
▁Gesicht▁414
!▁415
▁Grunde▁416
▁wissen▁417
schaftliche▁418
▁Daten▁419
▁Forschungs▁420
zweck▁421
▁macht▁422
▁Wissenschaftler▁423
▁ersten▁424
▁diesen▁425
▁versorgen▁426
▁ihrer▁427
▁natürlich▁428
▁Umgebung▁429
fangen▁430
▁Netz▁431
▁da▁432
▁nehmen▁433
▁Joystick▁434
▁sitzen▁435
▁vor▁436
▁unsere▁437
▁Computer▁438
▁Land▁439
▁drücken▁440
▁fliegen▁441
▁mittel▁442
o▁443
ze▁444
anischen▁445
▁Rücken▁446
▁ansehe▁447
▁64▁448
.000▁449
zug▁450
▁Gipfel▁451
▁2,5▁452
▁jetzt▁453
▁Atlantik▁454
▁Karibik▁455
▁Mittel▁456
amerika▁457
▁überqueren▁458
▁Pazifik▁459
▁ankommen▁460
▁neun▁461
▁Grad▁462
▁nördlich▁463
▁Breite▁464
erstellen▁465
▁Karten▁466
▁Schall▁467
▁So▁468
ar▁469
▁bieg▁470
▁Klippe▁471
▁rechts▁472
▁Höhe▁473
▁Berge▁474
▁beide▁475
▁Seiten▁476
▁Tal▁477
▁größer▁478
▁Alp▁479
▁Fälle▁480
▁zehntausende▁481
▁Bergen▁482
▁d▁483
raußen▁484
▁keiner▁485
▁Karte▁486
▁verzeichne▁487
▁tauchen▁488
▁immer▁489
▁tiefer▁490
schließlich▁491
▁Bild▁492
▁unseres▁493
▁Roboter▁494
▁heiß▁495
▁Ja▁496
son▁497
▁Head▁498
set▁499
▁ohne▁500
ver▁501
z▁502
ger▁503
fahren▁504
▁lassen▁505
▁unter▁506
▁versuchen▁507
▁unseren▁508
▁Partner▁509
▁bei▁510
▁Wood▁511
▁Hol▁512
▁virtuelle▁513
▁Gebiet▁514
▁Labor▁515
▁holen▁516
▁bisher▁517
stück▁518
weise▁519
ntweder▁520
▁Geräusch▁521
▁war▁522
▁Fotos▁523
▁chemische▁524
▁Sensoren▁525
▁interessant▁526
▁zusammengesetzt▁527
▁br▁528
ill▁529
▁richtig▁530
▁nenn▁531
▁hydrothermal▁532
Q▁533
uelle▁534
ht▁535
▁Wolke▁536
▁dicht▁537
em▁538
▁hydrogen▁539
ul▁540
fi▁541
reiche▁542
▁Wasser▁543
▁Längs▁544
achse▁545
▁tritt▁546
▁300▁547
▁Cel▁548
ius▁549
▁also▁550
▁drei▁551
▁vier▁552
▁wussten▁553
▁bereits▁554
▁60▁555
ern▁556
▁70▁557
▁v▁558
kan▁559
isch▁560
▁damit▁561
▁hatten▁562
▁Hinweis▁563
uellen▁564
▁entlang▁565
▁Achse▁566
ismus▁567
▁drin▁568
gt▁569
▁Spalte▁570
▁triff▁571
▁Mag▁572
ma▁573
den▁574
▁wieder▁575
▁bewusst▁576
▁reich▁577
▁H▁578
y▁579
ogen▁580
▁Dinger▁581
▁Sch▁582
or▁583
stein▁584
▁nennen▁585
▁heiße▁586
▁liegen▁587
▁Gegend▁588
▁dramatisch▁589
▁BL▁590
▁Weiß▁591
▁Bakterien▁592
art▁593
▁180▁594
▁ge▁595
ei▁596
▁finde▁597
▁größten▁598
▁Meeresgrund▁599
▁entdecken▁600
▁Erste▁601
aus▁602
bruch▁603
▁lange▁604
▁gefragt▁605
gekommen▁606
▁inzwischen▁607
▁he▁608
rausgefunden▁609
▁wahrscheinlich▁610
▁Erd▁611
inner▁612
▁gekommen▁613
gestoßen▁614
▁Bio▁615
gen▁616
ese▁617
▁unterstützen▁618
▁Kolonien▁619
▁Druck▁620
▁beträgt▁621
▁800▁622
▁kg▁623
▁pro▁624
uadrat▁625
zen▁626
time▁627
ter▁628
▁5▁629
▁Oberfläche▁630
▁kein▁631
▁Sonnen▁632
strahl▁633
▁hierher▁634
ed▁635
ungen▁636
▁ganze▁637
▁Energie▁638
▁antreib▁639
▁kommt▁640
▁Ch▁641
os▁642
the▁643
▁Röhre▁644
würmer▁645
▁Würmer▁646
▁Verdauung▁647
ssystem▁648
▁Mund▁649
▁Arten▁650
▁Ki▁651
emen▁652
struktur▁653
▁Auf▁654
nehmen▁655
▁Sauerstoff▁656
▁beherberg▁657
▁chemo▁658
tischen▁659
▁Flüssigkeit▁660
▁Boden▁661
▁schießen▁662
▁sahen▁663
▁einfache▁664
▁Zucker▁665
▁verwandelt▁666
wurm▁667
▁verdau▁668
▁können▁669
▁Krabbe▁670
▁Stück▁671
▁fassen▁672
krieg▁673
▁normal▁674
erweise▁675
▁ziehen▁676
▁zurück▁677
bald▁678
▁berührt▁679
▁Oh▁680
▁gut▁681
▁Versuch▁682
▁ihre▁683
▁Schale▁684
▁Finger▁685
äge▁686
▁ganz▁687
▁komplexe▁688
▁erst▁689
▁verstehen▁690
▁beginnen▁691
▁dank▁692
▁Kamera▁693
technologie▁694
▁echte▁695
▁Temperatur▁696
E▁697
x▁698
▁Füße▁699
▁200▁700
▁Köpfe▁701
▁kalt▁702
▁Ihre▁703
▁Hand▁704
▁kochen▁705
▁Fuß▁706
▁Eis▁707
wasser▁708
▁gefällt▁709
▁Weibchen▁710
▁Wurm▁711
▁Männchen▁712
▁dauert▁713
▁drübe▁714
▁kämpfen▁715
▁anfange▁716
▁findet▁717
▁Fin▁718
ternis▁719
▁Tiefsee▁720
▁statt▁721
quelle▁722
▁außer▁723
bringen▁724
▁geht▁725
apos▁726
▁los▁727
▁letzten▁728
▁Tauch▁729
gänge▁730
▁Bereichen▁731
zählt▁732
▁198▁733
▁waren▁734
▁neu▁735
▁Probleme▁736
▁Biologe▁737
▁Lebensraum▁738
▁befasse▁739
▁Sammel▁740
▁lösen▁741
▁Weg▁742
▁wichtig▁743
▁Wissenschaft▁744
verhältnisse▁745
▁erstaunlich▁746
▁existieren▁747
▁groß▁748
▁genug▁749
▁leere▁750
▁Cola▁751
dose▁752
▁zer▁753
que▁754
schen▁755
▁größere▁756
▁Garnele▁757
▁armen▁758
▁Klein▁759
▁be▁760
läst▁761
igen▁762
schläg▁763
▁seiner▁764
▁K▁765
la▁766
ue▁767
▁z▁768
ack▁769
▁gleichzeitig▁770
▁geschieht▁771
▁suchen▁772
▁Nahrung▁773
▁seltsame▁774
▁Bakterium▁775
▁abzu▁776
ten▁777
▁gar▁778
▁Fä▁779
▁bestehen▁780
▁Stoff▁781
▁produziert▁782
▁sorgen▁783
▁Haar▁784
wuchs▁785
▁Hintergrund▁786
▁rote▁787
▁Punkt▁788
▁Laser▁789
es▁790
▁zeigt▁791
▁weit▁792
▁entfernt▁793
treten▁794
klammer▁795
▁Fels▁796
▁kratz▁797
▁winzig▁798
▁Säule▁799
▁Säulen▁800
▁Stockwerke▁801
▁hoch▁802
fremd▁803
artige▁804
▁Landschaft▁805
▁heißen▁806
▁merkwürdig▁807
▁bewohnt▁808
▁brauchen▁809
▁Sonne▁810
förmige▁811
▁Stelle▁812
lichtempfindlich▁813
▁Organ▁814
▁geben▁815
▁Wärme▁816
strahlung▁817
▁Infrarot▁818
S▁819
atur▁820
▁recht▁821
▁große▁822
▁Entfernung▁823
▁13▁824
band▁825
heute▁826
▁Augenblick▁827
▁entsteh▁828
▁Aktivität▁829
▁erste▁830
▁Mal▁831
▁irgendwo▁832
▁ausprobiert▁833
D▁834
▁steigen▁835
▁ihr▁836
▁Innere▁837
▁viele▁838
▁verschiedene▁839
▁bildet▁840
▁lustige▁841
▁Platte▁842
strömt▁843
▁Behausung▁844
▁näher▁845
▁Gemeinschaft▁846
▁dran▁847
▁kleinere▁848
▁kri▁849
chen▁850
▁Pa▁851
go▁852
▁toll▁853
▁mich▁854
▁voll▁855
qua▁856
▁übrigen▁857
▁Zeug▁858
gift▁859
▁würde▁860
▁Erlaub▁861
nis▁862
▁bekommen▁863
▁ver▁864
klappen▁865
▁Schwefel▁866
säure▁867
▁Mengen▁868
▁freigesetzt▁869
▁gedeihen▁870
▁eben▁871
falls▁872
▁vermutlich▁873
▁gesprochen▁874
▁einfachste▁875
▁bekannte▁876
▁Lebensform▁877
▁Reihe▁878
▁These▁879
▁vertreten▁880
▁entstanden▁881
▁sei▁882
▁vielleicht▁883
▁zehn▁884
▁Jahre▁885
Ö▁886
kosystem▁887
▁seit▁888
▁Millionen▁889
▁Milliarden▁890
▁Jahren▁891
▁stabil▁892
▁funktioniert▁893
sitzt▁894
▁Schere▁895
▁genau▁896
▁Ende▁897
▁dar▁898
auf▁899
▁wartet▁900
▁sein▁901
▁heraus▁902
st▁903
ck▁904
▁erklären▁905
um▁906
▁aktiv▁907
▁wachsen▁908
▁Woche▁909
▁sagte▁910
▁menschlicher▁911
▁Sicht▁912
▁to▁913
▁Hölle▁914
▁obendr▁915
ein▁916
▁stellt▁917
ad▁918
▁Ent▁919
wässer▁920
▁ungefähr▁921
▁jedes▁922
▁Jahr▁923
system▁924
▁Betrieb▁925
▁muss▁926
ziehen▁927
▁dann▁928
▁fünf▁929
▁völlig▁930
▁zerstören▁931
desto▁932
trotz▁933
▁Regenwald▁934
▁einfach▁935
▁auftaucht▁936
▁empfindlich▁937
▁ja▁938
▁zerbrechlich▁939
▁nein▁940
▁sonderlich▁941
▁zum▁942
▁Schluss▁943
▁sagen▁944
▁Sediment▁945
▁Felsen▁946
▁unglaubliche▁947
▁Vergangenheit▁948
▁Aufzeichnung▁949
geschichte▁950
▁Zykl▁951
Rhythm▁952
▁Kontinent▁953
▁entfern▁954
▁voneinander▁955
▁rück▁956
▁gehen▁957
Gebirge▁958
▁Gletscher▁959
▁El▁960
▁Ni▁961
ñ▁962
▁Desaster▁963
▁Rhythmus▁964
▁fast▁965
▁Sin▁966
f▁967
onie▁968
▁Musik▁969
▁darau▁970
▁lernen▁971
▁zuhören▁972
▁halt▁973
▁wollen▁974
▁Note▁975
▁morgen▁976
▁gleiche▁977
▁absurd▁978
▁herauszufinden▁979
▁wohin▁980
▁Planet▁981
▁treib▁982
▁darauf▁983
zustellen▁984
▁umzu▁985
gehen▁986
▁Konzept▁987
▁Bestand▁988
be▁989
w▁990
ahr▁991
los▁992
▁Naturschutz▁993
▁schwieriger▁994
▁schaffen▁995
▁Dank▁996
▁danke▁997
▁Steve▁998
eil▁999
▁Manifest▁1000
▁Spielen▁1001
▁Bulgari▁1002
▁hinaus▁1003
▁TEDx▁1004
B▁1005
G▁1006
a▁1007
▁kämpft▁1008
▁seriös▁1009
▁Meme▁1010
▁Z▁1011
uhause▁1012
▁infiziert▁1013
▁--▁1014
ruft▁1015
▁Wirtschaft▁1016
▁Ausbildung▁1017
▁Gesellschaft▁1018
▁wiederzu▁1019
leben▁1020
▁packen▁1021
▁Vortrag▁1022
▁universal▁1023
▁Meldung▁1024
▁Arbeitsplätze▁1025
▁Schulen▁1026
▁erfinden▁1027
▁Revolution▁1028
▁starten▁1029
▁bevor▁1030
▁Ihr▁1031
▁Gewehr▁1032
▁just▁1033
▁singen▁1034
▁Lieblings▁1035
farbe▁1036
▁auswähle▁1037
▁will▁1038
▁definieren▁1039
▁Meinung▁1040
▁radikal▁1041
greifen▁1042
▁Wandel▁1043
▁Denken▁1044
▁Verhalten▁1045
▁denken▁1046
▁verhalten▁1047
▁Lage▁1048
▁schlecht▁1049
▁traurig▁1050
▁Nase▁1051
▁hab▁1052
▁Potenzial▁1053
▁nutzen▁1054
▁Platz▁1055
▁Beispiel▁1056
▁soziale▁1057
▁Bedingung▁1058
▁Europa▁1059
▁Bereich▁1060
▁Innovation▁1061
▁Tabelle▁1062
▁Kultur▁1063
▁schätzt▁1064
▁Gesundheit▁1065
▁Wohlbefinden▁1066
▁letzte▁1067
▁E▁1068
.▁1069
U▁1070
▁Schlechte▁1071
▁Magazin▁1072
▁Economi▁1073
▁Wochen▁1074
▁berichtet▁1075
▁gelesen▁1076
ste▁1077
▁Nation▁1078
▁relativ▁1079
▁BIP▁1080
▁per▁1081
▁Einwohner▁1082
▁Sozial▁1083
bereich▁1084
▁welche▁1085
▁anderen▁1086
▁Bericht▁1087
▁OECD▁1088
▁Lesen▁1089
▁Mathe▁1090
▁Unternehmen▁1091
▁niedrigste▁1092
▁Auffassung▁1093
▁Unternehmer▁1094
▁Vorteile▁1095
▁verschaffen▁1096
▁geschehe▁1097
▁Prozent▁1098
satz▁1099
▁Geschäft▁1100
▁Motor▁1101
▁Angestellte▁1102
▁produzieren▁1103
▁Gebühren▁1104
▁kaputt▁1105
▁Folgen▁1106
bezüglich▁1107
▁überraschend▁1108
▁62▁1109
▁B▁1110
gar▁1111
▁optimistisch▁1112
▁Zukunft▁1113
▁schlechte▁1114
wächst▁1115
▁Tatsache▁1116
▁Märchen▁1117
▁p▁1118
han▁1119
ta▁1120
sie▁1121
▁Verschwörung▁1122
▁gegen▁1123
▁glaube▁1124
▁soll▁1125
▁klar▁1126
▁System▁1127
▁Bessere▁1128
▁verwandeln▁1129
▁Freunde▁1130
▁Familie▁1131
▁geschah▁1132
▁unangenehm▁1133
▁euch▁1134
hindern▁1135
▁Lust▁1136
▁habe▁1137
▁falls▁1138
▁jemand▁1139
▁erinnern▁1140
▁Bab▁1141
ies▁1142
▁spielen▁1143
▁Kinder▁1144
▁Erwachsene▁1145
▁schätzen▁1146
▁wert▁1147
▁Bereiche▁1148
▁sozial▁1149
▁45▁1150
▁Kommun▁1151
▁Staat▁1152
▁mehr▁1153
▁acht▁1154
▁Einzelperson▁1155
▁quetsch▁1156
▁versehentlich▁1157
▁Kreativität▁1158
▁individuelle▁1159
▁Selbst▁1160
ausdruck▁1161
dessen▁1162
▁worauf▁1163
▁legen▁1164
▁Wert▁1165
▁bekannt▁1166
▁Weise▁1167
▁Wissen▁1168
▁gebrauche▁1169
generieren▁1170
▁I▁1171
titution▁1172
kon▁1173
text▁1174
▁betroffen▁1175
▁gelehrt▁1176
▁ernst▁1177
▁passiert▁1178
▁Male▁1179
impft▁1180
▁geworden▁1181
▁meine▁1182
▁lasse▁1183
▁Gott▁1184
▁bewahre▁1185
▁Schlamm▁1186
▁Pf▁1187
ütze▁1188
▁töten▁1189
▁Großmütter▁1190
▁Groß▁1191
v▁1192
ä▁1193
tern▁1194
raten▁1195
▁worden▁1196
▁viel▁1197
▁sollen▁1198
▁erzogen▁1199
▁durchlaufen▁1200
des▁1201
▁Gen▁1202
▁verursacht▁1203
stehen▁1204
▁Großmutter▁1205
faktor▁1206
▁Schritt▁1207
▁Frau▁1208
▁sagt▁1209
▁Ich▁1210
▁Baby▁1211
▁kriegen▁1212
▁Wo▁1213
oh▁1214
oo▁1215
▁passier▁1216
▁arbeiten▁1217
▁Kar▁1218
ie▁1219
▁fördern▁1220
▁Kaffee▁1221
▁trink▁1222
▁mein▁1223
▁daran▁1224
▁Virus▁1225
▁weiter▁1226
▁verloren▁1227
▁Se▁1228
quo▁1229
ia▁1230
▁veraltet▁1231
▁100▁1232
▁verändert▁1233
▁A▁1234
uswendig▁1235
ler▁1236
▁Standard▁1237
isierung▁1238
wertet▁1239
forschung▁1240
▁Befrag▁1241
▁suchte▁1242
▁Schule▁1243
▁Kind▁1244
▁ging▁1245
▁re▁1246
om▁1247
ierte▁1248
▁10▁1249
▁lesen▁1250
▁fragte▁1251
▁Na▁1252
▁Schul▁1253
pause▁1254
▁Ha▁1255
▁Moment▁1256
▁Er▁1257
▁alt▁1258
▁Verbrechen▁1259
hirn▁1260
lose▁1261
Robot▁1262
▁robot▁1263
isierte▁1264
▁Arbeitskraft▁1265
ol▁1266
gebohrt▁1267
▁Löcher▁1268
▁drehen▁1269
▁verzeih▁1270
▁mir▁1271
▁industrielle▁1272
▁Anpassung▁1273
sfähigkeit▁1274
▁Fähigkeit▁1275
▁kreativ▁1276
▁innovativ▁1277
▁me▁1278
chan▁1279
▁menschliche▁1280
▁Arbeits▁1281
ft▁1282
▁Aktiv▁1283
▁behandeln▁1284
▁stem▁1285
▁wegwerfe▁1286
schreibt▁1287
▁Arbeit▁1288
▁auto▁1289
rat▁1290
▁Mach▁1291
▁sage▁1292
▁Bo▁1293
▁weiss▁1294
▁besser▁1295
▁dich▁1296
▁misstrauisch▁1297
▁Du▁1298
▁bist▁1299
▁offensichtlich▁1300
▁Kriminelle▁1301
▁installiere▁1302
Ü▁1303
berwachung▁1304
kamera▁1305
sicht▁1306
▁Idiot▁1307
▁mache▁1308
▁Prozess▁1309
▁du▁1310
▁folgen▁1311
▁musst▁1312
scher▁1313
▁einschränken▁1314
▁benutze▁1315
▁dein▁1316
▁Handy▁1317
▁Laptop▁1318
▁surf▁1319
▁Internet▁1320
M▁1321
▁un▁1322
professionell▁1323
▁Tages▁1324
▁Erfüll▁1325
▁eingeschränkt▁1326
▁bewertet▁1327
▁Spaß▁1328
rum▁1329
▁Das▁1330
▁Unsinn▁1331
▁dumme▁1332
▁Idee▁1333
▁weg▁1334
▁Dummheit▁1335
▁se▁1336
rö▁1337
▁werde▁1338
▁beweis▁1339
▁folgenden▁1340
▁Katalysator▁1341
▁transformieren▁1342
▁Gehirne▁1343
▁programmiert▁1344
▁Evolution▁1345
▁ausgewählt▁1346
▁million▁1347
▁billion▁1348
▁Ab▁1349
wahl▁1350
▁Eigenschaft▁1351
vorteil▁1352
haft▁1353
▁Wahl▁1354
▁leistungsfähig▁1355
▁Natur▁1356
▁dumm▁1357
▁überall▁1358
▁Tier▁1359
welt▁1360
▁Ameisen▁1361
▁Regel▁1362
▁Dynamik▁1363
▁Dinge▁1364
▁Ratten▁1365
▁gespielt▁1366
▁grösser▁1367
▁Aufgaben▁1368
▁Kätzchen▁1369
▁schwach▁1370
▁jagen▁1371
▁Bären▁1372
▁länger▁1373
▁f▁1374
ischen▁1375
▁gelernt▁1376
▁Untersuchung▁1377
▁veröffentlicht▁1378
▁wurde▁1379
▁Zusammenhang▁1380
▁Grösse▁1381
▁Gehirns▁1382
▁Gehirn▁1383
▁Delphine▁1384
▁grosse▁1385
▁wer▁1386
▁glauben▁1387
▁grösste▁1388
▁Spieler▁1389
▁aller▁1390
▁National▁1391
ität▁1392
▁Rasse▁1393
▁Farben▁1394
▁Religion▁1395
▁Ding▁1396
▁Begriff▁1397
▁Neo▁1398
▁Bei▁1399
haltung▁1400
▁jugendliche▁1401
▁Merkmale▁1402
▁Erwachsenen▁1403
▁Sport▁1404
▁Olymp▁1405
▁professionelle▁1406
instrument▁1407
▁tanzen▁1408
▁küssen▁1409
▁bumm▁1410
eln▁1411
▁geboren▁1412
▁hohe▁1413
▁Alter▁1414
▁ständig▁1415
▁aufhör▁1416
▁Vorteil▁1417
▁genauso▁1418
▁Nerven▁1419
wachstum▁1420
▁Amy▁1421
da▁1422
▁stimuliert▁1423
▁Emotionen▁1424
▁kontrolliert▁1425
▁präfrontale▁1426
▁C▁1427
ortex▁1428
▁Entwicklung▁1429
▁fördert▁1430
▁Kognition▁1431
▁Ergebnis▁1432
▁entwickeln▁1433
▁emotionale▁1434
▁Reife▁1435
▁bessere▁1436
▁Entscheidung▁1437
▁Fiktion▁1438
▁Phantasie▁1439
▁;▁1440
empfindlich▁1441
▁scharf▁1442
▁genetische▁1443
▁Geburts▁1444
recht▁1445
▁gehört▁1446
▁Laufen▁1447
▁Sprechen▁1448
▁Sehen▁1449
▁Aufgabe▁1450
▁Sekunde▁1451
▁schließen▁1452
▁stellen▁1453
▁Theater▁1454
▁Kunst▁1455
▁Lieder▁1456
▁Tanz▁1457
▁Fußball▁1458
▁Football▁1459
▁Lachen▁1460
▁aussehen▁1461
tro▁1462
▁bed▁1463
rückt▁1464
▁Arbeitsplatz▁1465
▁lustig▁1466
▁spielerisch▁1467
▁vorwärts▁1468
▁G▁1469
egenteil▁1470
▁fühlen▁1471
▁schuldig▁1472
▁Kollegen▁1473
▁lachen▁1474
▁tun▁1475
▁verstecken▁1476
▁könnte▁1477
▁vermute▁1478
▁hart▁1479
▁arbeite▁1480
▁Nachricht▁1481
wärts▁1482
▁Depression▁1483
▁verbessert▁1484
▁verstärkt▁1485
▁Frei▁1486
Ä▁1487
nderung▁1488
▁Gefühl▁1489
▁Zweck▁1490
▁Meister▁1491
sein▁1492
▁wesentliche▁1493
▁motivieren▁1494
▁Leistung▁1495
stärke▁1496
▁bedeutet▁1497
▁fr▁1498
iv▁1499
▁Ski▁1500
▁dafür▁1501
▁gern▁1502
▁fühlt▁1503
▁fantastisch▁1504
▁perfekt▁1505
▁Doktor▁1506
▁großartige▁1507
▁Medizin▁1508
▁gültig▁1509
▁feiern▁1510
▁kurze▁1511
▁Firmen▁1512
▁FedEx▁1513
▁Mott▁1514
▁Dienstleistung▁1515
▁Gewinn▁1516
▁deine▁1517
handel▁1518
▁großartig▁1519
▁glücklicher▁1520
▁schlechter▁1521
▁Kunden▁1522
rufen▁1523
▁glücklich▁1524
▁sprechen▁1525
▁Entscheidungen▁1526
▁treffen▁1527
kaufen▁1528
teilen▁1529
▁verschlechtert▁1530
▁Mensch▁1531
▁Vereinigte▁1532
▁Staaten▁1533
▁funktionieren▁1534
▁Chance▁1535
▁verschieden▁1536
▁Gründe▁1537
▁Besondere▁1538
hält▁1539
gesehen▁1540
▁raus▁1541
ßen▁1542
▁zweiten▁1543
▁versucht▁1544
▁Firma▁1545
▁Sc▁1546
ian▁1547
▁anfing▁1548
▁zufrieden▁1549
▁Kunde▁1550
▁wollte▁1551
▁weitere▁1552
pf▁1553
ehlen▁1554
▁befragt▁1555
▁minimal▁1556
▁hatte▁1557
▁unzufrieden▁1558
▁S▁1559
hold▁1560
ers▁1561
▁Transparenz▁1562
teuerung▁1563
▁Zusammenarbeit▁1564
▁Au▁1565
okratie▁1566
▁Ergebnisse▁1567
▁fokussiert▁1568
▁egal▁1569
▁wann▁1570
▁morgens▁1571
▁komm▁1572
▁Hause▁1573
▁geh▁1574
gruppe▁1575
▁organisiert▁1576
▁kümmer▁1577
▁Uhr▁1578
▁Förderung▁1579
▁kurz▁1580
▁kling▁1581
▁Veränderung▁1582
▁langsam▁1583
▁jeder▁1584
▁weiterzu▁1585
eh▁1586
▁Industrie▁1587
▁Wie▁1588
▁gewonnen▁1589
▁Liste▁1590
▁besten▁1591
unternehmen▁1592
arbeit▁1593
geber▁1594
gelistet▁1595
▁unabhängige▁1596
▁Auswertung▁1597
▁anonym▁1598
▁Arbeitnehmer▁1599
▁Umfrage▁1600
▁hält▁1601
Mentalität▁1602
▁manche▁1603
▁Schritte▁1604
erst▁1605
▁Weil▁1606
▁genoss▁1607
▁sechs▁1608
▁Monate▁1609
▁Aufstieg▁1610
▁geschaff▁1611
▁genießen▁1612
▁Mountainbike▁1613
▁Buch▁1614
▁Spiel▁1615
▁Führung▁1616
spersönlichkeit▁1617
an▁1618
führer▁1619
▁Master▁1620
▁Ideen▁1621
▁Dienst▁1622
stelle▁1623
▁Feuer▁1624
revolution▁1625
▁hören▁1626
▁mal▁1627
▁vertrauen▁1628
gestellt▁1629
▁dir▁1630
mächtig▁1631
▁de▁1632
leg▁1633
▁Stufe▁1634
▁höchsten▁1635
▁konstruktiv▁1636
▁Kritik▁1637
▁Autorität▁1638
▁herauszu▁1639
fordern▁1640
▁Herausforderung▁1641
▁einzige▁1642
▁Möglichkeit▁1643
▁Trott▁1644
▁loszu▁1645
werden▁1646
▁kreative▁1647
▁Lösung▁1648
▁Führer▁1649
person▁1650
▁Angst▁1651
▁besiegen▁1652
▁Feind▁1653
▁Einschränkung▁1654
▁eliminier▁1655
▁Handys▁1656
▁Privat▁1657
gespräch▁1658
h▁1659
▁Cha▁1660
▁Mittagessen▁1661
▁Urlaub▁1662
laden▁1663
▁Bier▁1664
▁essen▁1665
gi▁1666
▁Die▁1667
▁Freiheit▁1668
▁Wichtigste▁1669
▁Arbeitsstelle▁1670
▁verbringe▁1671
▁traurige▁1672
▁Pla▁1673
cker▁1674
▁20▁1675
▁aufwache▁1676
▁akzeptab▁1677
▁Ne▁1678
pri▁1679
liv▁1680
▁Zusammenfassung▁1681
▁Aufstand▁1682
▁Ernst▁1683
▁Anfang▁1684
▁stattfinden▁1685
▁entfachen▁1686
▁Erfolg▁1687
sgeschichte▁1688
▁teilen▁1689
▁wiederbelebt▁1690
▁Versprechen▁1691
▁Produktivität▁1692
▁Sinn▁1693
▁schafft▁1694
▁allein▁1695
▁umwandel▁1696
▁schön▁1697
▁Andrea▁1698
▁Schl▁1699
icher▁1700
hilfe▁1701
rezept▁1702
▁Schulsystem▁1703
▁messen▁1704
nächst▁1705
▁PISA▁1706
Studie▁1707
▁weltweite▁1708
▁Bewertung▁1709
gleich▁1710
▁anschließend▁1711
▁Verbesserung▁1712
tragen▁1713
▁erfahren▁1714
▁Deutschland▁1715
▁abschneide▁1716
▁Faktor▁1717
▁erfolgreiche▁1718
▁ausmacht▁1719
bildung▁1720
▁ko▁1721
mp▁1722
omi▁1723
losen▁1724
▁Offenhe▁1725
it▁1726
▁schwer▁1727
▁Lernen▁1728
▁Ort▁1729
▁erkennen▁1730
▁reden▁1731
▁Studie▁1732
val▁1733
u▁1734
ierung▁1735
▁nationale▁1736
▁Angelegenheit▁1737
▁Situation▁1738
▁Bezug▁1739
▁Anteil▁1740
▁Bevölkerung▁1741
▁Abitur▁1742
▁USA▁1743
▁erster▁1744
▁ökonomische▁1745
▁traditionelle▁1746
▁Vor▁1747
reiter▁1748
▁verknüpft▁1749
▁holte▁1750
▁80▁1751
schritt▁1752
▁globale▁1753
▁Auswei▁1754
tung▁1755
▁Talent▁1756
P▁1757
▁for▁1758
▁endete▁1759
▁90▁1760
▁13.▁1761
▁sinken▁1762
▁Niveau▁1763
▁anders▁1764
wo▁1765
▁schneller▁1766
gestiegen▁1767
hand▁1768
▁Korea▁1769
▁deutlich▁1770
▁Generationen▁1771
▁Lebensstandard▁1772
▁heutigen▁1773
▁Afghanistan▁1774
▁schnitt▁1775
▁junge▁1776
▁global▁1777
▁Fortschritt▁1778
▁Maßstab▁1779
leistung▁1780
är▁1781
▁Bildungssystem▁1782
▁international▁1783
▁Ebene▁1784
▁Angabe▁1785
▁Dauer▁1786
zeit▁1787
▁Abschluss▁1788
▁leisten▁1789
▁jede▁1790
▁Menge▁1791
▁arbeitslos▁1792
▁Studien▁1793
ab▁1794
gänger▁1795
▁Straßen▁1796
lagen▁1797
▁Arbeitgeber▁1798
▁Fach▁1799
kräfte▁1800
mangel▁1801
▁besagt▁1802
▁automatisch▁1803
▁einhergeh▁1804
▁nun▁1805
▁ändern▁1806
dem▁1807
▁jungen▁1808
▁Leute▁1809
▁direkt▁1810
▁Blickwinkel▁1811
▁Interesse▁1812
▁galt▁1813
▁Wieder▁1814
geben▁1815
▁Schüler▁1816
tra▁1817
▁anwende▁1818
▁dabei▁1819
▁einiger▁1820
▁gegenüber▁1821
ämlich▁1822
messung▁1823
▁unfair▁1824
▁Logik▁1825
▁Prüfung▁1826
stoff▁1827
▁bereit▁1828
▁Veränderungen▁1829
▁Jobs▁1830
▁Technologien▁1831
▁verwenden▁1832
▁erfunden▁1833
hnen▁1834
▁einst▁1835
▁umstritten▁1836
▁Verfahren▁1837
▁rasch▁1838
▁2009▁1839
▁erfasst▁1840
▁74▁1841
▁87▁1842
▁ausmachen▁1843
▁Ländern▁1844
▁rot▁1845
ur▁1846
ch▁1847
schnitt▁1848
▁gelb▁1849
mäßig▁1850
▁grün▁1851
▁stärkste▁1852
▁Shanghai▁1853
▁Singapur▁1854
▁Asien▁1855
▁Finnland▁1856
▁Kanada▁1857
▁Nordamerika▁1858
▁15-▁1859
jährige▁1860
Jährige▁1861
▁Chile▁1862
▁3,5▁1863
▁Schuljahr▁1864
▁Lücke▁1865
▁7▁1866
schließen▁1867
▁heutige▁1868
▁vorbereitet▁1869
▁Kontext▁1870
▁zweite▁1871
▁wichtige▁1872
▁Dimension▁1873
führen▁1874
▁Pädagoge▁1875
gerne▁1876
▁Gleichheit▁1877
erfassen▁1878
▁sorgt▁1879
▁Umfeld▁1880
▁Chancen▁1881
▁Realität▁1882
▁Einfluss▁1883
▁Lern▁1884
▁stark▁1885
▁ungleich▁1886
▁verteilt▁1887
▁Potential▁1888
▁Kindern▁1889
▁verschwendet▁1890
▁weniger▁1891
uad▁1892
ran▁1893
ance▁1894
▁niemand▁1895
▁Dis▁1896
par▁1897
▁herrschen▁1898
▁steht▁1899
▁Debatte▁1900
▁Kauf▁1901
▁akzeptieren▁1902
keit▁1903
▁betrachten▁1904
▁hervorragend▁1905
▁verbinden▁1906
▁Tat▁1907
▁wichtigste▁1908
▁Lektion▁1909
▁Vergleich▁1910
gun▁1911
opfer▁1912
▁wenige▁1913
▁fordert▁1914
▁vieler▁1915
▁hauptsächlich▁1916
sort▁1917
Veröffentlichung▁1918
träger▁1919
▁Forscher▁1920
▁weltweit▁1921
▁hinter▁1922
▁Systeme▁1923
▁steckt▁1924
▁konzentriere▁1925
▁b▁1926
unt▁1927
▁Kreis▁1928
▁markiert▁1929
▁Größe▁1930
▁Kreise▁1931
▁proportional▁1932
▁Ausgaben▁1933
▁jeweilige▁1934
▁wäre▁1935
▁Geld▁1936
▁entscheidend▁1937
ualität▁1938
ergebnisse▁1939
▁müsste▁1940
schwankung▁1941
▁verantwortlich▁1942
▁Luxemb▁1943
urg▁1944
▁teuerste▁1945
▁schneide▁1946
▁besonder▁1947
▁ähnlich▁1948
▁erziel▁1949
▁aufgeteilt▁1950
▁reiche▁1951
▁Bildungs▁1952
niveau▁1953
▁arme▁1954
▁niedrige▁1955
▁enorm▁1956
▁Detail▁1957
ual▁1958
▁Landes▁1959
▁Lehrer▁1960
ge▁1961
▁ausgegeben▁1962
▁investiert▁1963
lauf▁1964
bahn▁1965
▁attraktiv▁1966
tag▁1967
▁lässt▁1968
▁Kosten▁1969
▁unterrichten▁1970
bild▁1971
▁beruflich▁1972
▁W▁1973
eiterentwicklung▁1974
▁kostet▁1975
▁Klassen▁1976
▁senk▁1977
▁sichtbar▁1978
▁Balk▁1979
▁beim▁1980
▁nächsten▁1981
▁derselbe▁1982
▁Eltern▁1983
läd▁1984
▁angenehm▁1985
▁Klasse▁1986
▁verwendet▁1987
größe▁1988
▁Preis▁1989
▁bezahlt▁1990
▁stundenlang▁1991
durch▁1992
für▁1993
weitaus▁1994
▁Bildung▁1995
▁2000▁1996
▁Erfindung▁1997
▁iPod▁1998
b▁1999
isse▁2000
▁damals▁2001
▁wahr▁2002
▁35▁2003
▁teurer▁2004
▁bitte▁2005
▁massive▁2006
▁Heimatland▁2007
▁befand▁2008
▁unteren▁2009
▁Ungleichheit▁2010
▁Bewohner▁2011
▁Universität▁2012
abschluss▁2013
▁zählen▁2014
▁enttäuschen▁2015
▁mochte▁2016
▁öffentliche▁2017
▁monatelang▁2018
▁Thema▁2019
▁geprägt▁2020
▁Steuer▁2021
▁stand▁2022
▁Fokus▁2023
▁Diskussion▁2024
▁reagiert▁2025
▁Bundesregierung▁2026
▁erhöhte▁2027
ausgabe▁2028
▁drastisch▁2029
▁unternommen▁2030
▁Migration▁2031
hintergrund▁2032
▁Familien▁2033
▁Interessante▁2034
▁O▁2035
pt▁2036
im▁2037
▁bestehende▁2038
▁Politik▁2039
▁grundlegende▁2040
▁Annahme▁2041
berzeugung▁2042
▁deutsche▁2043
▁traditionell▁2044
▁dahin▁2045
▁Kleinkind▁2046
erziehung▁2047
▁Frauen▁2048
▁schnell▁2049
▁Ra▁2050
ben▁2051
mütter▁2052
▁Kindergarten▁2053
▁schickte▁2054
▁transform▁2055
iert▁2056
▁Früh▁2057
▁Zentrum▁2058
▁teilt▁2059
▁Gruppen▁2060
▁Wissens▁2061
arbeiter▁2062
teilung▁2063
▁erfolgt▁2064
wirtschaftliche▁2065
▁Grab▁2066
▁Denk▁2067
muster▁2068
gefordert▁2069
▁gute▁2070
▁9▁2071
▁später▁2072
▁angenommen▁2073
▁Spektrum▁2074
▁besorgt▁2075
▁erzielt▁2076
▁nahm▁2077
mal▁2078
▁Best▁2079
▁innerhalb▁2080
▁Jahrzehnt▁2081
▁schlau▁2082
▁konzentriert▁2083
▁Richtung▁2084
noch▁2085
ber▁2086
▁Pole▁2087
▁geführt▁2088
▁schlechteste▁2089
▁abgeschnitten▁2090
gehoben▁2091
▁Portugal▁2092
▁fragment▁2093
einheit▁2094
licht▁2095
▁Un▁2096
▁Kritiker▁2097
▁behaupte▁2098
▁relative▁2099
position▁2100
▁Produkt▁2101
▁wirtschaftliche▁2102
▁sozialer▁2103
gesellschaftlich▁2104
▁Homo▁2105
▁usw▁2106
▁seine▁2107
▁geändert▁2108
▁Zusammensetzung▁2109
entlassen▁2110
▁rein▁2111
▁beeindruckend▁2112
▁ergibt▁2113
▁Frage▁2114
▁grüne▁2115
srate▁2116
▁guten▁2117
▁angewandt▁2118
▁kopieren▁2119
id▁2120
if▁2121
ziert▁2122
▁zugrunde▁2123
▁stimmen▁2124
▁Prioritäten▁2125
q▁2126
ualifizier▁2127
▁Arbeiter▁2128
▁bezahle▁2129
▁liebe▁2130
▁Anwalt▁2131
▁Medien▁2132
rgestellt▁2133
▁Fragen▁2134
▁Bürger▁2135
▁überzeugt▁2136
▁kurzfristig▁2137
▁beliebteste▁2138
▁Einkaufszentr▁2139
▁beizu▁2140
messen▁2141
▁erfolgreich▁2142
▁früh▁2143
▁getrennt▁2144
▁spiegelt▁2145
▁wider▁2146
▁we▁2147
klasse▁2148
doch▁2149
▁Unterschied▁2150
her▁2151
▁Japan▁2152
▁erwarten▁2153
▁fragen▁2154
▁Mathematik▁2155
▁antworte▁2156
▁Begabung▁2157
▁abhäng▁2158
▁lerne▁2159
▁japanische▁2160
▁Aufwand▁2161
▁Bemühung▁2162
spricht▁2163
ände▁2164
▁unterrichtet▁2165
issen▁2166
▁Unterschiede▁2167
▁differenzier▁2168
pä▁2169
ago▁2170
ische▁2171
weisen▁2172
▁gewöhnliche▁2173
▁außergewöhnlich▁2174
▁gestalten▁2175
möglichkeit▁2176
▁individuell▁2177
▁ehrgeizig▁2178
▁Standards▁2179
▁gesamte▁2180
kommt▁2181
▁nötig▁2182
▁nirgendwo▁2183
▁wählen▁2184
org▁2185
sam▁2186
▁bilden▁2187
▁gezielt▁2188
▁Gehalt▁2189
▁jeden▁2190
▁geschaffen▁2191
▁Methoden▁2192
▁Karriere▁2193
büro▁2194
▁alleine▁2195
▁gelassen▁2196
▁Unterricht▁2197
vor▁2198
gaben▁2199
▁herrscht▁2200
▁klare▁2201
▁Vorstellung▁2202
▁herausfinde▁2203
▁jeweil▁2204
▁beibring▁2205
▁Weiter▁2206
gabe▁2207
erlangen▁2208
▁administrative▁2209
▁Verantwortung▁2210
▁Kontrolle▁2211
organisation▁2212
▁P▁2213
ädagogik▁2214
▁vorantreib▁2215
▁Voraussetzung▁2216
▁stärker▁2217
▁früher▁2218
▁Ein▁2219
schrift▁2220
▁Re▁2221
tor▁2222
▁erfinderisch▁2223
▁Versorgung▁2224
sehen▁2225
▁erstklassige▁2226
▁gil▁2227
▁Be▁2228
druck▁2229
unterschied▁2230
▁zurückzu▁2231
begriff▁2232
▁erreicht▁2233
▁Ressourcen▁2234
▁gelang▁2235
▁dorthin▁2236
▁größte▁2237
▁Wirkung▁2238
gab▁2239
test▁2240
▁herausfordern▁2241
▁Vorgabe▁2242
▁anhaltende▁2243
▁Zeiträume▁2244
▁hinweg▁2245
ären▁2246
▁konsequent▁2247
▁umgesetzt▁2248
▁Grundlagen▁2249
▁erfolgreicher▁2250
▁verbesser▁2251
▁Grenzen▁2252
Ver▁2253
sätze▁2254
▁Grund▁2255
▁Stärke▁2256
▁liegt▁2257
▁Mit▁2258
▁einflussreich▁2259
verwaltung▁2260
legen▁2261
▁Friedhof▁2262
▁ähnelt▁2263
fällig▁2264
▁Ausrede▁2265
▁sinnvoll▁2266
▁Ziele▁2267
▁setzen▁2268
▁messbar▁2269
▁Ziel▁2270
orient▁2271
▁Elternteil▁2272
▁gesetzt▁2273
▁gelegt▁2274
▁Karo▁2275
line▁2276
▁Sp▁2277
▁Rachel▁2278
▁Pik▁2279
▁Klima▁2280
schlag▁2281
▁4▁2282
▁Minuten▁2283
▁vermittelt▁2284
▁atmosphärische▁2285
▁Chemiker▁2286
in▁2287
▁Einblick▁2288
wissenschaftlich▁2289
▁wage▁2290
▁Schlagzeilen▁2291
▁Klimawandel▁2292
▁Team▁2293
▁tausende▁2294
▁dazu▁2295
trug▁2296
▁riskant▁2297
▁Flug▁2298
▁wag▁2299
▁Schlüssel▁2300
molekül▁2301
▁Ausmaß▁2302
▁Anstrengung▁2303
stellung▁2304
▁Zeitung▁2305
▁Luft▁2306
qualität▁2307
mog▁2308
▁selbe▁2309
▁Feld▁2310
▁letzter▁2311
▁multi▁2312
regierung▁2313
C▁2314
▁Verständnis▁2315
▁veröffentlichte▁2316
▁6▁2317
20▁2318
▁40▁2319
▁geschrieben▁2320
▁schrieb▁2321
▁tausend▁2322
▁weiteren▁2323
▁400▁2324
▁Gutachte▁2325
▁11▁2326
3▁2327
▁korrigiert▁2328
▁jährliche▁2329
▁Treffen▁2330
#▁2331
91▁2332
▁physische▁2333
93;▁2334
▁15▁2335
▁San▁2336
▁Francisco▁2337
▁befasst▁2338
▁Viel▁2339
zahl▁2340
▁Themen▁2341
▁Cambridge▁2342
▁Phänomen▁2343
▁Wetter▁2344
▁beeinflusst▁2345
▁Satelliten▁2346
daten▁2347
▁Emission▁2348
▁Sa▁2349
ate▁2350
kraft▁2351
stoffe▁2352
▁zufällig▁2353
▁studie▁2354
gebieten▁2355
▁Doktorand▁2356
▁studieren▁2357
▁Sachen▁2358
▁Prozesse▁2359
▁Moleküle▁2360
op▁2361
▁organische▁2362
▁Molekül▁2363
▁Gewicht▁2364
▁Papier▁2365
▁900▁2366
illion▁2367
▁21.▁2368
seits▁2369
▁seines▁2370
▁Atmosphäre▁2371
▁aufzu▁2372
wiegen▁2373
▁entspricht▁2374
▁Methan▁2375
gas▁2376
▁soviel▁2377
blasen▁2378
▁EU▁2379
HO▁2380
R▁2381
▁Kammer▁2382
▁Spanien▁2383
▁Explosion▁2384
▁komplette▁2385
▁Verbrennung▁2386
▁Auto▁2387
▁trotzde▁2388
▁Supercomputer▁2389
▁Modelle▁2390
▁laufen▁2391
▁hunderttausende▁2392
▁Raster▁2393
box▁2394
stände▁2395
▁hunderte▁2396
▁Variable▁2397
▁errechne▁2398
▁Integration▁2399
▁vervollständig▁2400
▁Dutzende▁2401
▁ausser▁2402
▁kürzlich▁2403
ien▁2404
▁fanden▁2405
▁Wach▁2406
turm▁2407
▁Mitte▁2408
▁hing▁2409
▁Geräte▁2410
▁hunderttausend▁2411
▁Dollar▁2412
▁Turm▁2413
▁wären▁2414
mitten▁2415
▁Teilen▁2416
▁Flugzeug▁2417
▁Modell▁2418
A▁2419
14▁2420
6▁2421
▁F▁2422
AA▁2423
▁betrieben▁2424
▁fliegt▁2425
▁120▁2426
▁130▁2427
▁Personen▁2428
▁ähnliche▁2429
▁her▁2430
zukommen▁2431
flogen▁2432
▁Spitze▁2433
▁Baumkronen▁2434
▁gefährlich▁2435
▁Kram▁2436
▁musste▁2437
▁Steigung▁2438
▁Messung▁2439
▁durchzu▁2440
▁Militär▁2441
▁Test▁2442
pilot▁2443
▁Fliegen▁2444
▁übernehme▁2445
kl▁2446
▁Bö▁2447
K▁2448
äfte▁2449
▁2▁2450
▁vollständig▁2451
▁befestigt▁2452
▁während▁2453
▁Bord▁2454
▁fliegende▁2455
▁Region▁2456
▁durchführte▁2457
▁Chemie▁2458
▁Student▁2459
▁Neigung▁2460
▁Dutzend▁2461
▁Artikel▁2462
▁gesammelt▁2463
▁formt▁2464
unter▁2465
▁Kapitel▁2466
pite▁2467
▁Beurteilung▁2468
▁schreiben▁2469
▁Publikum▁2470
▁Journalisten▁2471
▁politische▁2472
▁Christopher▁2473
Charm▁2474
▁scan▁2475
▁Echtzeit▁2476
▁Neuro▁2477
wissenschaftler▁2478
▁Erfinder▁2479
▁veranschaulich▁2480
▁MRI▁2481
▁Gehirnaktivität▁2482
▁Gedanken▁2483
▁Schmerz▁2484
▁stattfinde▁2485
▁Worten▁2486
fühlst▁2487
▁Hallo▁2488
▁Arm▁2489
heben▁2490
▁win▁2491
ken▁2492
▁ziemlich▁2493
▁königliche▁2494
▁Win▁2495
▁nachahmen▁2496
▁Muskel▁2497
▁programmiere▁2498
▁bald▁2499
▁steuern▁2500
▁Methode▁2501
▁menschlichen▁2502
▁Verstand▁2503
▁Jahrtausende▁2504
labor▁2505
▁Generation▁2506
▁kompliziert▁2507
▁müsse▁2508
▁Raumschiff▁2509
▁schrumpfen▁2510
▁Blut▁2511
kreislauf▁2512
▁injizieren▁2513
▁schrecklich▁2514
▁Arterien▁2515
gegriffen▁2516
körper▁2517
▁Peter▁2518
▁Eingriff▁2519
▁Bestrahlung▁2520
▁Anatomi▁2521
▁buchstäblich▁2522
▁Körper▁2523
▁wichtiger▁2524
▁gelbe▁2525
▁Fleck▁2526
▁entsprechende▁2527
▁Tätigkeit▁2528
▁gesch▁2529
▁zuvor▁2530
▁sicherlich▁2531
▁Elektroden▁2532
arm▁2533
taste▁2534
▁darstellen▁2535
▁Vorgang▁2536
▁üblich▁2537
▁Tage▁2538
▁Analyse▁2539
▁benötigte▁2540
▁Millisekunden▁2541
▁reduziert▁2542
▁erlaubt▁2543
▁live▁2544
▁65▁2545
▁Erreger▁2546
punkte▁2547
▁beeinflussen▁2548
▁Sofa▁2549
▁Therapeut▁2550
▁Tablette▁2551
▁Messer▁2552
▁vierte▁2553
▁Wege▁2554
▁chronische▁2555
▁verbrennen▁2556
spüren▁2557
▁Verbindung▁2558
▁hilfreich▁2559
▁verursachen▁2560
bilder▁2561
▁entwerfen▁2562
▁Anzeige▁2563
vorgang▁2564
lesen▁2565
▁nochmal▁2566
▁Arme▁2567
beugen▁2568
ize▁2569
ps▁2570
▁Sache▁2571
▁ausführen▁2572
pati▁2573
▁Sinne▁2574
▁Worte▁2575
▁Person▁2576
▁beobachten▁2577
▁Ablauf▁2578
▁end▁2579
pi▁2580
▁freisetz▁2581
▁links▁2582
▁verbunden▁2583
▁regel▁2584
▁experimentelle▁2585
▁klinische▁2586
▁44▁2587
prozentige▁2588
▁Abnahme▁2589
▁Matrix▁2590
▁meinen▁2591
▁kontrollieren▁2592
▁Erscheinung▁2593
▁Erfahrung▁2594
▁Details▁2595
▁einzu▁2596
▁überlasse▁2597
steigen▁2598
▁bringen▁2599
eb▁2600
▁Kid▁2601
ro▁2602
▁geteilt▁2603
▁Wunder▁2604
▁Film▁2605
▁Filme▁2606
▁Macht▁2607
▁gemeinsame▁2608
▁narrative▁2609
▁Erinnerung▁2610
▁Weltanschauung▁2611
▁formen▁2612
▁britische▁2613
▁Regisseur▁2614
▁erinnert▁2615
ik▁2616
on▁2617
szene▁2618
▁Mai▁2619
land▁2620
▁Boy▁2621
▁the▁2622
▁Hoo▁2623
▁Verein▁2624
I▁2625
L▁2626
▁An▁2627
zeichen▁2628
▁Alters▁2629
▁Kulturen▁2630
▁Identität▁2631
▁Form▁2632
▁Mutter▁2633
▁Tochter▁2634
▁Priester▁2635
▁Gemeinde▁2636
mitglied▁2637
▁Erzähler▁2638
▁Höhlenmalerei▁2639
▁Parabel▁2640
▁Fa▁2641
bel▁2642
▁erzählt▁2643
nerzähler▁2644
▁zunehmend▁2645
ular▁2646
isiert▁2647
stücke▁2648
▁bieten▁2649
lichkeit▁2650
▁unbe▁2651
einfluss▁2652
▁wild▁2653
▁Konsum▁2654
denken▁2655
▁Erzählung▁2656
▁moralische▁2657
▁Code▁2658
▁wohl▁2659
▁Kunstform▁2660
▁20.▁2661
▁Jahrhunderts▁2662
▁Künstler▁2663
grenzen▁2664
▁Sprachen▁2665
▁Philosophie▁2666
▁enorme▁2667
flecht▁2668
▁Hollywood▁2669
lock▁2670
buster▁2671
▁dominiert▁2672
▁Diät▁2673
gesetzt▁2674
▁Erzähl▁2675
▁selten▁2676
produzent▁2677
▁machte▁2678
▁Sorgen▁2679
▁versetzt▁2680
▁Schreck▁2681
▁aufbauen▁2682
▁Ironie▁2683
ühl▁2684
bar▁2685
▁Zugang▁2686
▁schwächer▁2687
▁deshalb▁2688
▁gründete▁2689
▁2006▁2690
▁Organisation▁2691
▁wöchentlich▁2692
führt▁2693
▁diskutiert▁2694
archiv▁2695
▁könnten▁2696
▁unruhig▁2697
▁Jugend▁2698
▁Technologie▁2699
uer▁2700
lichen▁2701
▁Dorf▁2702
▁DVD▁2703
▁Leinwand▁2704
▁projiziere▁2705
▁Monaten▁2706
▁25▁2707
▁Großbritannien▁2708
▁18▁2709
▁ununterbrochen▁2710
ura▁2711
▁kon▁2712
alisiert▁2713
▁ma▁2714
▁Wähler▁2715
giebig▁2716
bwechslung▁2717
reich▁2718
▁Ko▁2719
▁anbieten▁2720
▁konnte▁2721
▁kam▁2722
▁sofort▁2723
▁tiefgreifend▁2724
▁form▁2725
enden▁2726
▁150▁2727
▁klein▁2728
▁entdeckten▁2729
▁Orte▁2730
▁Perspektive▁2731
▁Pilot▁2732
versuch▁2733
▁beendet▁2734
▁Namen▁2735
▁195▁2736
1▁2737
▁Vi▁2738
io▁2739
▁De▁2740
ica▁2741
▁bemerkenswert▁2742
▁Kommentar▁2743
▁Slums▁2744
▁Armut▁2745
▁Hoffnung▁2746
▁Geburtstag▁2747
▁Vater▁2748
saal▁2749
▁miete▁2750
▁künstlerische▁2751
▁Bedeutung▁2752
▁Vision▁2753
▁beschloss▁2754
▁Teenager▁2755
alter▁2756
▁30▁2757
▁nächste▁2758
▁Einstellung▁2759
▁schweben▁2760
▁Slum▁2761
bewohner▁2762
▁Bese▁2763
▁Himmel▁2764
sechzig▁2765
▁Produktion▁2766
▁sah▁2767
▁sehe▁2768
▁Gesichter▁2769
hrfurcht▁2770
▁neigen▁2771
▁Ungläubig▁2772
▁Geschwindigkeit▁2773
do▁2774
▁Million▁2775
air▁2776
▁Favela▁2777
▁Rio▁2778
ordne▁2779
▁nachhaltige▁2780
ison▁2781
▁Demokratie▁2782
▁Regierung▁2783
▁Mr▁2784
▁Smith▁2785
▁Washington▁2786
gedreht▁2787
▁193▁2788
9▁2789
▁älter▁2790
▁Großeltern▁2791
▁Mitglieder▁2792
▁Frank▁2793
▁Cap▁2794
ra▁2795
▁Klassik▁2796
▁Unabhängigkeit▁2797
stand▁2798
▁Gute▁2799
▁tut▁2800
▁held▁2801
▁Ausdruck▁2802
▁Glaubens▁2803
▁Maschine▁2804
▁Kraft▁2805
▁Ehre▁2806
iker▁2807
▁verbrachte▁2808
▁englische▁2809
▁Ober▁2810
haus▁2811
ächte▁2812
lange▁2813
▁Fil▁2814
ibu▁2815
tier▁2816
erei▁2817
▁Freude▁2818
▁Kompetenz▁2819
▁erklärt▁2820
▁Lord▁2821
▁Prinzip▁2822
▁Schlaf▁2823
▁vernachlässig▁2824
hin▁2825
▁erstreckt▁2826
▁Jim▁2827
▁Stewart▁2828
rollen▁2829
▁Auswahl▁2830
▁Hotel▁2831
▁Ruanda▁2832
▁Völkermord▁2833
▁brutal▁2834
vo▁2835
▁Tränen▁2836
▁prä▁2837
ante▁2838
wa▁2839
ff▁2840
ete▁2841
Friedenstruppen▁2842
▁Doppel▁2843
ng▁2844
igkeit▁2845
▁westliche▁2846
▁Kämpfe▁2847
geht▁2848
ind▁2849
▁verlangt▁2850
▁bemerkte▁2851
▁voller▁2852
▁Gewissen▁2853
▁hätte▁2854
▁sonst▁2855
▁spürbar▁2856
▁reicher▁2857
▁Pick▁2858
pock▁2859
▁löst▁2860
▁Verlust▁2861
▁Stimm▁2862
▁begeistert▁2863
▁Zuschauer▁2864
▁feiert▁2865
▁Haltung▁2866
weiß▁2867
▁Brit▁2868
▁kollektive▁2869
schätz▁2870
▁Gegen▁2871
ti▁2872
▁Si▁2873
ney▁2874
▁Po▁2875
iti▁2876
▁eigen▁2877
sinn▁2878
▁neugierig▁2879
▁schwarz▁2880
▁Untertitel▁2881
▁Dokumentarfilm▁2882
▁Fan▁2883
▁detaillierte▁2884
▁Rezension▁2885
▁Lob▁2886
preis▁2887
leidenschaftlich▁2888
▁raffinierte▁2889
▁gegenseitig▁2890
treffen▁2891
tausend▁2892
▁wette▁2893
▁Hunderte▁2894
▁Tausende▁2895
▁Viertel▁2896
million▁2897
▁000▁2898
▁Zahlen▁2899
▁weiterhi▁2900
bertragung▁2901
▁kritische▁2902
▁Alltag▁2903
▁begann▁2904
▁fing▁2905
▁liefert▁2906
▁Kluft▁2907
▁enthalten▁2908
▁Per▁2909
polis▁2910
▁brachte▁2911
▁iranische▁2912
▁Der▁2913
▁weiße▁2914
▁Hai▁2915
▁half▁2916
▁Jungen▁2917
▁art▁2918
▁erlebt▁2919
▁Flucht▁2920
▁Gewalt▁2921
▁tötete▁2922
▁Boot▁2923
▁geworfen▁2924
▁Recht▁2925
▁versteckte▁2926
▁Botschaft▁2927
▁Flut▁2928
▁ent▁2929
▁Münder▁2930
▁gehalten▁2931
▁ihres▁2932
▁gewesen▁2933
nstatt▁2934
▁Objekte▁2935
▁Tante▁2936
▁wunderbare▁2937
blitz▁2938
schnell▁2939
▁erschaffen▁2940
▁bar▁2941
fuß▁2942
▁Tafel▁2943
berg▁2944
▁rennen▁2945
▁Räuber▁2946
▁erzählte▁2947
▁194▁2948
8▁2949
▁Schwestern▁2950
▁Israel▁2951
▁reiste▁2952
▁Mat▁2953
ros▁2954
▁See▁2955
▁Forderung▁2956
▁human▁2957
ut▁2958
▁Jugendliche▁2959
rew▁2960
▁Essen▁2961
▁versorgt▁2962
▁starb▁2963
▁Reise▁2964
▁erwähnt▁2965
▁verließ▁2966
ile▁2967
▁Mann▁2968
▁Diamanten▁2969
▁Rock▁2970
▁Versteck▁2971
▁erschien▁2972
▁Großvater▁2973
▁London▁2974
▁Ordnung▁2975
▁integriert▁2976
▁England▁2977
▁Neu▁2978
fang▁2979
▁Schweigen▁2980
▁einge▁2981
wand▁2982
▁Anne▁2983
▁The▁2984
▁Great▁2985
scape▁2986
▁Sho▁2987
ah▁2988
▁Triumph▁2989
▁Willen▁2990
▁Len▁2991
i▁2992
▁R▁2993
ief▁2994
ahl▁2995
▁elegant▁2996
▁Nazi▁2997
ropaganda▁2998
erleben▁2999
▁enthielt▁3000
▁schmerzt▁3001
▁laut▁3002
▁nützlich▁3003
▁Fl▁3004
stern▁3005
berlebende▁3006
▁gelegentlich▁3007
▁Blick▁3008
▁Tattoo▁3009
▁Handgelenk▁3010
jüng▁3011
fer▁3012
▁Pur▁3013
isten▁3014
▁Suche▁3015
streu▁3016
▁grob▁3017
▁Filmemacher▁3018
▁Drama▁3019
▁12-▁3020
▁Zauber▁3021
▁Oz▁3022
▁sollte▁3023
▁Herz▁3024
▁honor▁3025
▁Leidenschaft▁3026
▁Citizen▁3027
▁Kan▁3028
▁wertvoll▁3029
▁Jane▁3030
▁Aust▁3031
▁Stimmen▁3032
▁biete▁3033
▁zusammenarbeite▁3034
würdig▁3035
▁Stein▁3036
▁Wand▁3037
▁okay▁3038
▁Tom▁3039
ank▁3040
▁Astronaut▁3041
▁Love▁3042
ll▁3043
▁Ben▁3044
▁King▁3045
ley▁3046
▁Gandhi▁3047
lagert▁3048
▁real▁3049
▁Eve▁3050
▁Har▁3051
ington▁3052
▁Howard▁3053
ale▁3054
▁Mil▁3055
▁Pier▁3056
ce▁3057
▁Gelegenheit▁3058
▁Menschsein▁3059
▁Shakespeare▁3060
leuchten▁3061
▁el▁3062
is▁3063
th▁3064
▁Begegnung▁3065
▁Literatur▁3066
▁Teilnehmer▁3067
▁engagier▁3068
▁inspirieren▁3069
▁Selbstvertrauen▁3070
▁akademische▁3071
▁vorherseh▁3072
▁ehe▁3073
halten▁3074
▁Spielplatz▁3075
hrgeiz▁3076
▁Engagement▁3077
▁gefunden▁3078
▁trotz▁3079
▁binär▁3080
▁Beschreibung▁3081
▁oft▁3082
▁beschreiben▁3083
▁beschäftigt▁3084
▁verhandel▁3085
▁unendlich▁3086
▁sinn▁3087
stift▁3088
ende▁3089
▁schien▁3090
▁überrascht▁3091
▁Verhaltensweise▁3092
▁Marke▁3093
▁Schuhe▁3094
▁angeboten▁3095
▁Werte▁3096
▁versteh▁3097
▁persönliche▁3098
▁wesentlich▁3099
▁Bestandteil▁3100
▁kulturelle▁3101
▁unmöglich▁3102
▁Gruppe▁3103
▁Vorführung▁3104
▁Hof▁3105
▁Gebäude▁3106
▁neben▁3107
richten▁3108
▁Lu▁3109
▁Gr▁3110
pfeife▁3111
otter▁3112
am▁3113
Weltmeister▁3114
▁Pfeif▁3115
▁Ge▁3116
ille▁3117
▁Ho▁3118
off▁3119
▁Komposition▁3120
ê▁3121
▁la▁3122
▁Bell▁3123
▁Besten▁3124
▁Rahmen▁3125
▁faszinierend▁3126
lage▁3127
▁Danke▁3128
▁klingen▁3129
▁Englisch▁3130
▁mo▁3131
iger▁3132
ha▁3133
▁Typ▁3134
▁Holland▁3135
gebracht▁3136
▁eigentlich▁3137
▁Haus▁3138
iff▁3139
▁dachte▁3140
▁Kommunikations▁3141
▁34▁3142
▁irrit▁3143
▁ehrlich▁3144
▁Verhaltens▁3145
▁Klassenzimmer▁3146
▁Fahrrad▁3147
▁Heilig▁3148
▁Abend▁3149
▁grauen▁3150
volle▁3151
▁Weihnachts▁3152
musik▁3153
▁hörte▁3154
▁höre▁3155
▁versuche▁3156
▁Ru▁3157
ph▁3158
▁Red▁3159
▁Rein▁3160
feier▁3161
▁Abendessen▁3162
▁nerve▁3163
▁Schw▁3164
rin▁3165
▁gebete▁3166
zuhören▁3167
▁irgendwa▁3168
gegeben▁3169
maßen▁3170
▁Wein▁3171
▁get▁3172
runken▁3173
▁Wettbewerb▁3174
▁gäbe▁3175
▁teilnehmen▁3176
▁bekam▁3177
▁SMS▁3178
fähr▁3179
▁Amerika▁3180
▁fahre▁3181
▁lieben▁3182
▁angerufen▁3183
gel▁3184
schaft▁3185
fahr▁3186
▁korrekt▁3187
▁Niederländer▁3188
▁gemeint▁3189
▁runter▁3190
gefallen▁3191
gefahren▁3192
▁Louis▁3193
burg▁3194
▁North▁3195
▁Carolina▁3196
gereist▁3197
▁Südost▁3198
▁Berührung▁3199
4▁3200
meisterschaft▁3201
▁teil▁3202
genommen▁3203
▁Titel▁3204
▁verteidige▁3205
▁Jud▁3206
ok▁3207
▁mach▁3208
5▁3209
▁gewann▁3210
▁2008▁3211
getreten▁3212
▁Tokyo▁3213
▁stehe▁3214
▁Rotterdam▁3215
▁wunderschöne▁3216
▁Stadt▁3217
▁Bühne▁3218
▁erzähle▁3219
▁verdiene▁3220
▁zumindest▁3221
▁Haupt▁3222
job▁3223
▁Kranken▁3224
pflege▁3225
▁aufgegeben▁3226
▁Traum▁3227
▁Einzige▁3228
▁Hä▁3229
▁Gleiche▁3230
einander▁3231
▁echt▁3232
▁ca▁3233
üben▁3234
▁Ton▁3235
ud▁3236
igung▁3237
▁Töne▁3238
vielversprechend▁3239
▁Techniker▁3240
▁läuf▁3241
▁geb▁3242
▁Zeichen▁3243
▁Einsatz▁3244
▁leid▁3245
▁gewohnt▁3246
▁start▁3247
selber▁3248
▁Solo▁3249
▁Max▁3250
▁West▁3251
man▁3252
▁herzlich▁3253
▁Mark▁3254
▁Shaw▁3255
▁trocken▁3256
▁Demo▁3257
▁präsentiert▁3258
▁Ultra▁3259
▁Dr▁3260
flüssigkeit▁3261
schicht▁3262
▁Schild▁3263
basierte▁3264
▁Material▁3265
▁fungi▁3266
▁Nano▁3267
ebene▁3268
▁bedeckt▁3269
ray▁3270
▁Regen▁3271
schirm▁3272
prall▁3273
bleiben▁3274
▁Unsichtbare▁3275
▁anzuschauen▁3276
▁existierende▁3277
▁aufregende▁3278
fest▁3279
▁Beton▁3280
▁Hälfte▁3281
▁nanotechnolog▁3282
▁anwendbar▁3283
▁super▁3284
hydr▁3285
phobi▁3286
▁por▁3287
▁absorbier▁3288
tropfen▁3289
▁rund▁3290
▁hydro▁3291
▁frisch▁3292
ach▁3293
rutscht▁3294
▁Winkel▁3295
°▁3296
p▁3297
▁Wind▁3298
schutz▁3299
scheibe▁3300
▁erhöht▁3301
▁110▁3302
▁160▁3303
17▁3304
▁Demonstration▁3305
▁Paar▁3306
▁Handschuhe▁3307
▁Nanotechnologie▁3308
▁behandelt▁3309
▁gebe▁3310
▁Tipp▁3311
▁entdeckt▁3312
wissenschaft▁3313
▁Atome▁3314
▁regelrecht▁3315
ine▁3316
▁Nanometer▁3317
▁gemessen▁3318
▁M▁3319
illiard▁3320
tel▁3321
partikel▁3322
▁Dick▁3323
▁50.000▁3324
▁ungeheuer▁3325
▁Materialien▁3326
lö▁3327
liche▁3328
▁Farbe▁3329
le▁3330
▁gefüllt▁3331
▁glatt▁3332
▁Zwischen▁3333
räumen▁3334
▁greifen▁3335
▁bedecken▁3336
▁rutsch▁3337
▁tau▁3338
che▁3339
il▁3340
ne▁3341
netz▁3342
del▁3343
▁bleibt▁3344
▁bestimmt▁3345
▁einsetzen▁3346
▁allgemein▁3347
▁eignet▁3348
▁Anwendung▁3349
▁na▁3350
▁Kor▁3351
osion▁3352
▁anti▁3353
ba▁3354
kte▁3355
ri▁3356
elle▁3357
▁überleben▁3358
▁Berufs▁3359
feld▁3360
▁revolutionier▁3361
▁zeige▁3362
▁bedanke▁3363
▁Chris▁3364
▁Anderson▁3365
habt▁3366
▁Design▁3367
gestrichen▁3368
▁...▁3369
▁medizinische▁3370
▁Forschung▁3371
▁Haufen▁3372
▁konfrontiert▁3373
▁klappt▁3374
▁Judi▁3375
▁Matz▁3376
▁Dan▁3377
▁Ariel▁3378
▁fehlerhaft▁3379
konom▁3380
▁Fehler▁3381
▁versteckt▁3382
so▁3383
ß▁3384
▁OK▁3385
▁st▁3386
▁betrügen▁3387
reichen▁3388
▁Argument▁3389
vorhersagbar▁3390
▁irrational▁3391
▁begreife▁3392
▁vorhersehbar▁3393
▁Irr▁3394
alität▁3395
▁Krankenhaus▁3396
▁schwere▁3397
▁begegnet▁3398
station▁3399
▁gestört▁3400
Krankenschwester▁3401
▁Verb▁3402
wechsel▁3403
▁He▁3404
pflaster▁3405
reißen▁3406
▁intensiv▁3407
▁zwa▁3408
träglich▁3409
▁richtige▁3410
▁Ansatz▁3411
▁Station▁3412
▁festgehalten▁3413
gerissen▁3414
▁Körpers▁3415
▁dauerte▁3416
▁Ganze▁3417
▁Stunde▁3418
▁gehasst▁3419
▁Stunden▁3420
▁Patienten▁3421
▁w▁3422
▁Richtige▁3423
▁gering▁3424
▁Und▁3425
▁Patient▁3426
▁Ratschläge▁3427
▁Hebräisch▁3428
▁Sprache▁3429
▁machten▁3430
▁angefangen▁3431
▁interessanteste▁3432
▁abstrakte▁3433
▁getan▁3434
▁interessierte▁3435
▁Werkzeug▁3436
▁kaufte▁3437
▁Schraub▁3438
stock▁3439
pan▁3440
▁bi▁3441
tsch▁3442
chmal▁3443
▁kürzer▁3444
▁ansteigen▁3445
▁Pause▁3446
▁fertig▁3447
▁qu▁3448
älen▁3449
▁schmerzhaft▁3450
▁Wenn▁3451
▁entscheiden▁3452
▁Projekt▁3453
gesprochen▁3454
▁beschäftigte▁3455
▁Geräusche▁3456
▁Elektroschock▁3457
anzug▁3458
▁starke▁3459
▁Schmerzen▁3460
▁wundervolle▁3461
▁Absicht▁3462
▁großer▁3463
▁wiederholt▁3464
▁herausstellt▁3465
▁Länge▁3466
▁Intensität▁3467
wegen▁3468
▁weh▁3469
getan▁3470
▁Beine▁3471
zuarbeiten▁3472
▁Laufe▁3473
▁geringer▁3474
▁gegeben▁3475
▁erholen▁3476
▁tolle▁3477
▁Pfleger▁3478
▁täuschen▁3479
▁Fehl▁3480
schätzung▁3481
▁verbreitet▁3482
▁Wir▁3483
rlei▁3484
▁Betrug▁3485
▁beschäftige▁3486
üge▁3487
▁gegenwärtige▁3488
▁Börse▁3489
▁betrat▁3490
▁plötzlich▁3491
▁explodiert▁3492
▁schwarze▁3493
▁Schafe▁3494
▁fähig▁3495
eher▁3496
▁Experiment▁3497
▁Blatt▁3498
aufgabe▁3499
▁Blätter▁3500
▁gelöst▁3501
▁Probanden▁3502
▁akzeptiert▁3503
▁gezahlt▁3504
▁Durchschnitt▁3505
ummel▁3506
leite▁3507
geteilt▁3508
blatt▁3509
▁stecken▁3510
ip▁3511
▁Tasche▁3512
▁beantwortet▁3513
▁sieh▁3514
▁sieben▁3515
ögen▁3516
▁Wirtschafts▁3517
theorie▁3518
N▁3519
ech▁3520
▁Wahrscheinlich▁3521
▁erwischt▁3522
▁wieviel▁3523
nützen▁3524
▁schlimm▁3525
▁Strafe▁3526
▁entscheide▁3527
▁lohnt▁3528
▁überprüf▁3529
▁Testperson▁3530
▁vari▁3531
ierten▁3532
kommen▁3533
viel▁3534
▁durfte▁3535
▁zahlt▁3536
▁cent▁3537
▁annehmen▁3538
▁Summe▁3539
trogen▁3540
▁halbe▁3541
▁zerriss▁3542
▁Beweise▁3543
▁übrig▁3544
▁Zimmer▁3545
schale▁3546
▁lag▁3547
▁häufiger▁3548
▁Anreize▁3549
▁offenbar▁3550
▁rational▁3551
▁Kräfte▁3552
▁unterlieg▁3553
▁Spiegel▁3554
▁Anders▁3555
eit▁3556
▁gewisse▁3557
grenze▁3558
▁Betrüger▁3559
▁profitier▁3560
schlecht▁3561
▁test▁3562
uff▁3563
ziger▁3564
Faktor▁3565
▁verkleiner▁3566
geholt▁3567
titel▁3568
zählen▁3569
▁Zehn▁3570
▁Gebot▁3571
zi▁3572
▁religiöse▁3573
uß▁3574
▁diejenige▁3575
▁sollten▁3576
gehört▁3577
▁Atheist▁3578
▁Bibel▁3579
▁schwöre▁3580
▁schwinde▁3581
▁taten▁3582
▁allerding▁3583
▁schwierig▁3584
vereinbar▁3585
▁überlegt▁3586
▁Leuten▁3587
▁verlangen▁3588
ko▁3589
ex▁3590
▁unterschreib▁3591
▁bat▁3592
▁folgende▁3593
▁Klar▁3594
▁MIT▁3595
nach▁3596
▁Zettel▁3597
▁allem▁3598
vergrößern▁3599
gelaufen▁3600
▁Sechs▁3601
pack▁3602
▁Kühlschränke▁3603
▁Studenten▁3604
ja▁3605
rgon▁3606
▁Halb▁3607
wert▁3608
szeit▁3609
▁Kühlschrank▁3610
▁Teller▁3611
Dollar▁3612
Schein▁3613
▁stellte▁3614
schein▁3615
▁verschwunden▁3616
▁gutes▁3617
▁Drittel▁3618
▁Herr▁3619
leiter▁3620
▁Marken▁3621
▁muß▁3622
tausch▁3623
▁Folgende▁3624
▁Stift▁3625
geld▁3626
▁Sekunden▁3627
denkt▁3628
▁bekommt▁3629
▁doppelt▁3630
▁zusätzliche▁3631
▁Element▁3632
▁besaß▁3633
▁Tag▁3634
▁öffnen▁3635
▁neues▁3636
▁rekrutier▁3637
▁teilzunehmen▁3638
▁Voraus▁3639
▁Um▁3640
▁Bezahl▁3641
stünde▁3642
▁Schauspiel▁3643
schüler▁3644
▁engagiert▁3645
▁Rolle▁3646
▁heim▁3647
▁Mission▁3648
▁erfüllt▁3649
student▁3650
▁eingesch▁3651
▁wußte▁3652
▁Schauspieler▁3653
▁begangen▁3654
▁reagiere▁3655
we▁3656
at▁3657
shirt▁3658
trägt▁3659
▁Uni▁3660
▁durchgeführt▁3661
▁Pittsburgh▁3662
▁Carnegie▁3663
▁Mello▁3664
▁University▁3665
▁of▁3666
▁studiert▁3667
tude▁3668
▁spielte▁3669
hatte▁3670
rger▁3671
▁hast▁3672
▁behalten▁3673
mehr▁3674
▁norm▁3675
Gruppe▁3676
▁betrüg▁3677
▁angemessen▁3678
▁bestimmte▁3679
identifizieren▁3680
▁Ehrlich▁3681
▁wahrgenommen▁3682
Ge▁3683
bot▁3684
Experiment▁3685
▁Einzelne▁3686
▁Moral▁3687
▁anfühlt▁3688
▁beispiels▁3689
▁indirekt▁3690
▁Wirklichkeit▁3691
▁verzerrt▁3692
zunehmen▁3693
▁Aktien▁3694
tion▁3695
ative▁3696
▁Hypothek▁3697
gestützt▁3698
papier▁3699
▁repräsentiere▁3700
▁Umwandlung▁3701
▁bleiben▁3702
▁Nächste▁3703
▁Auswirkung▁3704
▁generell▁3705
ökonomie▁3706
▁Intuition▁3707
▁leiten▁3708
▁falsch▁3709
▁Probe▁3710
▁überlegen▁3711
▁Privatleben▁3712
geschäft▁3713
▁Amerikanische▁3714
▁2001▁3715
chaffung▁3716
▁neuer▁3717
märkte▁3718
politik▁3719
Gesundheitswesen▁3720
▁hinterfragen▁3721
ging▁3722
zusehen▁3723
▁interessante▁3724
schwester▁3725
bezogen▁3726
▁jemande▁3727
▁wechseln▁3728
Zeitraum▁3729
▁interessanter▁3730
▁glaubte▁3731
gebung▁3732
▁schwierige▁3733
▁veranstalte▁3734
▁Mögliche▁3735
squalität▁3736
▁systematisch▁3737
▁Experimente▁3738
▁McG▁3739
▁Massen▁3740
ehr▁3741
spieler▁3742
▁Daumen▁3743
▁bringt▁3744
▁Chaos▁3745
▁versuchte▁3746
spiel▁3747
zubringen▁3748
▁anderer▁3749
▁kenne▁3750
▁positive▁3751
▁Minute▁3752
rleichter▁3753
▁Liebe▁3754
berraschung▁3755
▁Stolz▁3756
▁Neugier▁3757
▁Aufreg▁3758
▁Verwund▁3759
erung▁3760
▁Zufriedenheit▁3761
▁Zeitspanne▁3762
▁brauche▁3763
▁Freiwillige▁3764
▁praktische▁3765
sterreich▁3766
▁namens▁3767
▁Mo▁3768
▁Sunni▁3769
▁erkläre▁3770
amp▁3771
▁ring▁3772
▁Beste▁3773
▁Game▁3774
Generation▁3775
▁Milliarde▁3776
▁Eric▁3777
▁gewinn▁3778
▁derjenige▁3779
▁fest▁3780
nagel▁3781
▁warten▁3782
▁drauf▁3783
stürzen▁3784
▁Ah▁3785
▁typische▁3786
▁Knoten▁3787
▁ambition▁3788
reiz▁3789
merken▁3790
mögen▁3791
▁einbeziehen▁3792
▁geschlossen▁3793
strecken▁3794
▁1500▁3795
änge▁3796
▁losgeh▁3797
▁freue▁3798
▁Grafik▁3799
▁Level▁3800
▁Fort▁3801
▁Kon▁3802
figur▁3803
▁Todes▁3804
▁irgendwelche▁3805
▁Star▁3806
F▁3807
bi▁3808
▁schwerste▁3809
▁extrem▁3810
▁erstmal▁3811
▁dreißig▁3812
▁Netzwerk▁3813
▁leichter▁3814
▁frei▁3815
▁sicher▁3816
▁Last▁3817
check▁3818
▁schnapp▁3819
▁reichen▁3820
▁Auge▁3821
▁wovo▁3822
▁redet▁3823
▁brauchte▁3824
▁erzeugt▁3825
▁Sitz▁3826
▁physikalische▁3827
ttel▁3828
lacht▁3829
▁send▁3830
Mail▁3831
▁komplett▁3832
fu▁3833
cht▁3834
▁körperlich▁3835
propos▁3836
▁körperliche▁3837
▁Hormon▁3838
▁Oxytocin▁3839
▁setzt▁3840
▁beste▁3841
▁freizu▁3842
setzen▁3843
▁mindesten▁3844
▁Hände▁3845
▁biochemisch▁3846
▁eingestellt▁3847
▁vorher▁3848
▁Glück▁3849
wunsch▁3850
▁Neuigkeit▁3851
▁offiziell▁3852
meister▁3853
▁beschleunigen▁3854
▁Schach▁3855
▁irgendjemand▁3856
▁Twitter▁3857
▁Facebook▁3858
status▁3859
▁aktualisiere▁3860
▁Regelwerk▁3861
▁legendäre▁3862
▁passen▁3863
▁Verrückte▁3864
▁Wh▁3865
uuu▁3866
▁Tod▁3867
over▁3868
▁Media▁3869
▁Lab▁3870
widmet▁3871
▁musikalische▁3872
uo▁3873
▁Amateur▁3874
▁Oper▁3875
▁Videospiel▁3876
bieten▁3877
▁Komponist▁3878
schluss▁3879
▁Gedanke▁3880
stoßen▁3881
▁Mozart▁3882
effekt▁3883
geboren▁3884
Wert▁3885
▁bloß▁3886
▁hinzufügen▁3887
▁dynamische▁3888
▁Kern▁3889
▁jedermann▁3890
▁mitten▁3891
▁Erlebnis▁3892
▁sogenannte▁3893
▁Hyper▁3894
▁Inter▁3895
▁erfand▁3896
Y▁3897
▁Ma▁3898
▁Gabriel▁3899
▁Prince▁3900
▁Orchester▁3901
▁Instrumente▁3902
▁eingebaut▁3903
▁Instrument▁3904
▁Interpretation▁3905
änder▁3906
▁Cello▁3907
▁Stimme▁3908
▁fantastische▁3909
▁Serie▁3910
▁Kol▁3911
ktionen▁3912
▁Brain▁3913
▁Opera▁3914
▁gestaltet▁3915
▁natürliche▁3916
▁Geschick▁3917
▁Musikstück▁3918
bewegung▁3919
▁Klang▁3920
masse▁3921
▁Ta▁3922
oberfläche▁3923
▁Melodie▁3924
▁Aura▁3925
▁erzeugen▁3926
▁auszu▁3927
probieren▁3928
▁mitzu▁3929
wirken▁3930
▁Aufführung▁3931
ourne▁3932
▁dauerhaft▁3933
▁Wi▁3934
▁Museum▁3935
▁gebaut▁3936
▁führte▁3937
▁Guitar▁3938
▁Her▁3939
fern▁3940
▁Interface▁3941
▁bereitstell▁3942
▁interessiert▁3943
zuspielen▁3944
▁Eisberg▁3945
▁zweiter▁3946
▁reicht▁3947
gestalt▁3948
▁meist▁3949
▁verändern▁3950
▁kommunizieren▁3951
▁Geist▁3952
co▁3953
▁ausreichend▁3954
▁Effekte▁3955
▁interessiere▁3956
▁schöpferische▁3957
▁breiter▁3958
▁Mu▁3959
iz▁3960
▁wachsende▁3961
▁Gebiete▁3962
▁derzeit▁3963
▁Oliver▁3964
▁Music▁3965
phil▁3966
▁erschienen▁3967
swert▁3968
▁Pianist▁3969
▁ungewöhnlich▁3970
▁beobachtet▁3971
▁Letzte▁3972
▁fortgeschritten▁3973
▁Alzheimer▁3974
▁ansprechen▁3975
▁Nah▁3976
▁bemerkt▁3977
rag▁3978
ment▁3979
▁Stuhl▁3980
▁springen▁3981
▁teilweise▁3982
▁Persönlichkeit▁3983
▁zurückbring▁3984
▁Schlag▁3985
fälle▁3986
▁Bewegungen▁3987
▁Parkinson▁3988
▁wiederher▁3989
▁wirkungsvoll▁3990
▁Schizophren▁3991
▁Prinzipien▁3992
erlei▁3993
▁Krankenhäuser▁3994
▁Nähe▁3995
▁Boston▁3996
wksb▁3997
ury▁3998
▁Hospital▁3999
▁Langzeit▁4000
rankenhaus▁4001
▁geistige▁4002
▁Behinderung▁4003
bestand▁4004
▁Behandlung▁4005
▁scheint▁4006
behandlung▁4007
▁beschleunigt▁4008
▁weitermache▁4009
▁echtes▁4010
uscht▁4011
▁Gedächtnis▁4012
▁trainiere▁4013
▁mu▁4014
▁experimentiere▁4015
▁Null▁4016
▁tiefgreifende▁4017
▁dritte▁4018
▁paradox▁4019
▁Rede▁4020
▁seltsam▁4021
▁nervös▁4022
▁teilte▁4023
▁Beispiele▁4024
▁mächtigste▁4025
▁Schnittstelle▁4026
▁Außen▁4027
▁aufzeigen▁4028
▁irre▁4029
▁D▁4030
eath▁4031
▁Power▁4032
projekte▁4033
▁mächtig▁4034
▁Umwelt▁4035
▁herunter▁4036
zu▁4037
▁Bücher▁4038
▁Kerl▁4039
▁ewig▁4040
▁verschwinde▁4041
▁Beginn▁4042
charakter▁4043
▁Vermächtnis▁4044
▁handelt▁4045
▁weitergebe▁4046
▁Objekt▁4047
▁gigantische▁4048
▁Kr▁4049
uch▁4050
isches▁4051
▁Prototyp▁4052
▁Klavier▁4053
ai▁4054
ite▁4055
▁streich▁4056
▁Propeller▁4057
▁akustische▁4058
▁Signale▁4059
▁vibrier▁4060
▁vermitteln▁4061
▁gewissermaß▁4062
▁Simon▁4063
▁griechische▁4064
▁Chor▁4065
▁Handlung▁4066
eck▁4067
Bot▁4068
▁Charakter▁4069
▁hoffen▁4070
pp▁4071
liebe▁4072
reihe▁4073
▁Würfel▁4074
▁Wände▁4075
▁Gesten▁4076
▁gewählt▁4077
gepackt▁4078
▁LED▁4079
▁Bildschirm▁4080
▁Bar▁4081
▁James▁4082
▁Mad▁4083
dale▁4084
na▁4085
tritt▁4086
ziel▁4087
schau▁4088
▁Premiere▁4089
▁Mona▁4090
▁September▁4091
▁irgendeine▁4092
▁ungewöhnliche▁4093
▁online▁4094
▁Räume▁4095
▁zugänglich▁4096
▁Große▁4097
wandeln▁4098
▁gezeigt▁4099
cell▁4100
▁kn▁4101
au▁4102
iges▁4103
▁Spielzeug▁4104
▁anpassen▁4105
▁besondere▁4106
▁einladen▁4107
▁Applau▁4108
▁Adam▁4109
ou▁4110
ant▁4111
▁Bomba▁4112
je▁4113
▁motiviert▁4114
▁willst▁4115
▁Name▁4116
erebral▁4117
▁geliebt▁4118
▁Software▁4119
▁traf▁4120
▁dreieinhalb▁4121
wie▁4122
▁schüchtern▁4123
▁as▁4124
lo▁4125
▁komponiert▁4126
▁regelmäßig▁4127
▁Mitarbeiter▁4128
▁Stücke▁4129
▁CD▁4130
▁betreut▁4131
▁Experte▁4132
▁enge▁4133
▁let▁4134
▁gearbeitet▁4135
▁ermöglichen▁4136
▁arbeitet▁4137
▁Nu▁4138
▁Präzision▁4139
▁braucht▁4140
▁technische▁4141
▁Fire▁4142
ire▁4143
Kamera▁4144
▁betrachtet▁4145
point▁4146
▁wählte▁4147
übertragung▁4148
▁Sprach▁4149
kontrolle▁4150
▁gewöhnt▁4151
▁Gestaltung▁4152
verfahren▁4153
▁Input▁4154
▁fortwährend▁4155
▁Trac▁4156
king▁4157
▁schaut▁4158
▁Konstruktion▁4159
teil▁4160
▁folgte▁4161
▁Aspekt▁4162
▁Schulter▁4163
▁cod▁4164
▁expressive▁4165
▁Bewegung▁4166
rauch▁4167
▁übermittel▁4168
▁Parameter▁4169
▁stimmt▁4170
▁passt▁4171
pe▁4172
kt▁4173
▁erlaub▁4174
▁kreativer▁4175
liefert▁4176
drücken▁4177
▁Strukturen▁4178
▁Beziehung▁4179
▁technologische▁4180
▁fehlt▁4181
sprozess▁4182
▁Also▁4183
▁My▁4184
▁Eagle▁4185
▁Song▁4186
▁Partitur▁4187
track▁4188
▁hineingeh▁4189
▁bescheiden▁4190
▁beginn▁4191
▁platziere▁4192
▁erhält▁4193
fenster▁4194
▁zeichnet▁4195
▁Linien▁4196
▁platziert▁4197
▁anschaut▁4198
▁Abschnitt▁4199
▁verrückt▁4200
▁endet▁4201
▁Knall▁4202
▁analysiert▁4203
▁Aspekte▁4204
▁hervorbring▁4205
▁Graphik▁4206
Screen▁4207
▁bemerken▁4208
▁misst▁4209
▁verfolgt▁4210
▁verdeutlich▁4211
filter▁4212
▁anschaue▁4213
gerichtet▁4214
disziplin▁4215
hören▁4216
▁Byr▁4217
▁Architektur▁4218
▁unterstützt▁4219
▁CB▁4220
▁Konzert▁4221
▁Lauf▁4222
▁Hall▁4223
▁fragt▁4224
▁Veranstaltung▁4225
▁Trommel▁4226
▁freie▁4227
▁Wagner▁4228
O▁4229
per▁4230
▁Arena▁4231
ock▁4232
▁Umstände▁4233
angetrieben▁4234
regel▁4235
▁klang▁4236
▁aufgenommen▁4237
▁jedenfall▁4238
)▁4239
▁Beschaffen▁4240
heit▁4241
▁bewirkt▁4242
▁Texte▁4243
ana▁4244
heitlich▁4245
▁präzise▁4246
▁To▁4247
ot▁4248
▁Or▁4249
chi▁4250
▁Lo▁4251
▁Nash▁4252
ville▁4253
▁Hinsicht▁4254
▁Struktur▁4255
hielt▁4256
▁Band▁4257
▁La▁4258
ke▁4259
fallen▁4260
▁Ruf▁4261
töne▁4262
▁Säle▁4263
▁schöner▁4264
▁Disney▁4265
▁aufregend▁4266
▁festgestellt▁4267
▁zurecht▁4268
▁passend▁4269
▁schreibe▁4270
▁schwebt▁4271
▁Saal▁4272
▁sowas▁4273
▁Afrika▁4274
▁populär▁4275
▁tiefe▁4276
▁Wurzel▁4277
▁sag▁4278
▁fun▁4279
▁geling▁4280
▁Kulisse▁4281
▁durcheinander▁4282
▁Verstärk▁4283
▁Zufall▁4284
▁Durch▁4285
▁got▁4286
Kathedrale▁4287
▁Noten▁4288
werte▁4289
me▁4290
iche▁4291
▁Bach▁4292
▁aufwendig▁4293
▁Risiko▁4294
anz▁4295
▁17▁4296
70▁4297
▁komplex▁4298
7▁4299
häuser▁4300
gerufen▁4301
▁gegessen▁4302
▁Club▁4303
rie▁4304
▁rief▁4305
▁Zu▁4306
Erlebnis▁4307
▁Neuerung▁4308
ek▁4309
graben▁4310
▁vergrößert▁4311
stimmig▁4312
▁hinein▁4313
pass▁4314
▁beliebt▁4315
▁Symphonie▁4316
Saa▁4317
▁Alex▁4318
▁Ross▁4319
▁New▁4320
orker▁4321
▁trat▁4322
▁leise▁4323
▁Trink▁4324
▁Tra▁4325
▁kombiniert▁4326
▁wirkt▁4327
▁extreme▁4328
▁eingesetzt▁4329
arten▁4330
▁gewissen▁4331
▁rhythm▁4332
▁Bob▁4333
▁Dylan▁4334
▁yea▁4335
▁Jazz▁4336
▁Scott▁4337
▁Jo▁4338
plin▁4339
dampf▁4340
publik▁4341
▁Tänzer▁4342
▁wiederholen▁4343
▁improvisieren▁4344
▁Latin▁4345
▁ändert▁4346
veranstaltung▁4347
▁gelangt▁4348
▁Mikrofon▁4349
▁ermöglicht▁4350
▁Sänger▁4351
▁Musiker▁4352
▁Radio▁4353
▁gesendet▁4354
▁Live▁4355
ina▁4356
▁translator▁4357
▁note▁4358
av▁4359
our▁4360
view▁4361
▁please▁4362
▁delete▁4363
▁g▁4364
▁Baker▁4365
▁sing▁4366
▁Ohr▁4367
flüster▁4368
isierende▁4369
▁Effekt▁4370
▁Dir▁4371
▁geschieden▁4372
▁aufgezeichnet▁4373
▁Ju▁4374
Box▁4375
▁Kneipe▁4376
▁Anlagen▁4377
▁speziell▁4378
▁Passage▁4379
▁frühe▁4380
▁Hip▁4381
Hop▁4382
geschnitten▁4383
▁Moderator▁4384
▁aufge▁4385
▁Geburt▁4386
▁Orten▁4387
geführt▁4388
kus▁4389
tisch▁4390
▁schlechtes▁4391
adi▁4392
▁Basketball▁4393
all▁4394
ho▁4395
cke▁4396
Stadien▁4397
fan▁4398
▁Bal▁4399
▁moderate▁4400
▁Tempo▁4401
▁mode▁4402
▁grand▁4403
▁gesellig▁4404
▁Stimmung▁4405
▁Umstand▁4406
rad▁4407
ufgewachsen▁4408
▁mittler▁4409
weile▁4410
anlagen▁4411
▁Frequenz▁4412
ässe▁4413
▁high▁4414
▁dazwischen▁4415
▁Deine▁4416
▁Medium▁4417
▁private▁4418
▁MP▁4419
Player▁4420
▁christliche▁4421
▁Hi▁4422
▁still▁4423
Afrika▁4424
▁dr▁4425
▁Lautstärke▁4426
▁lauter▁4427
▁Pop▁4428
▁heut▁4429
tage▁4430
▁gewisser▁4431
▁Gerät▁4432
▁gross▁4433
▁praktizieren▁4434
▁woanders▁4435
▁Davi▁4436
▁Attenborough▁4437
▁Vögel▁4438
frequent▁4439
▁Wald▁4440
boden▁4441
▁reflektiert▁4442
▁Gras▁4443
amme▁4444
▁summ▁4445
energie▁4446
sparen▁4447
▁praktisch▁4448
▁Landschaften▁4449
▁Savanne▁4450
▁verbreiten▁4451
▁Tan▁4452
ang▁4453
▁angepasst▁4454
▁Ostküste▁4455
▁Wälder▁4456
▁dichter▁4457
▁Westküste▁4458
▁gedacht▁4459
▁Schöpfung▁4460
smodell▁4461
▁Linie▁4462
ga▁4463
▁Muse▁4464
▁hängt▁4465
▁Programme▁4466
▁Betriebssystem▁4467
▁evolution▁4468
fähig▁4469
▁umgekehrt▁4470
▁Sichtweise▁4471
▁romantische▁4472
▁Standpunkt▁4473
▁Gefühle▁4474
▁irgendetw▁4475
as▁4476
▁geformt▁4477
▁Gefäß▁4478
▁injiziert▁4479
▁instinktiv▁4480
▁intuitiv▁4481
▁hingeh▁4482
▁Konflikt▁4483
▁Ansicht▁4484
▁Autor▁4485
▁Thom▁4486
▁mögliche▁4487
▁Erklärung▁4488
▁entgegen▁4489
▁Belange▁4490
▁aufrichtig▁4491
▁Bauch▁4492
▁echter▁4493
▁Glaub▁4494
würdigkeit▁4495
äuschen▁4496
▁Erkenntnis▁4497
passen▁4498
▁Iran▁4499
▁14.▁4500
▁Mär▁4501
▁Jahres▁4502
▁Poster▁4503
▁gepostet▁4504
▁israelische▁4505
▁Flagge▁4506
▁erläuter▁4507
▁post▁4508
▁Tagen▁4509
▁wartete▁4510
▁Schlange▁4511
▁Supermarkt▁4512
▁Besitzer▁4513
▁sprachen▁4514
▁erklärte▁4515
▁10.000▁4516
▁Raketen▁4517
▁nieder▁4518
▁Krieg▁4519
▁unternehmen▁4520
▁spät▁4521
▁handeln▁4522
designer▁4523
▁like▁4524
▁Bett▁4525
▁Nacht▁4526
▁wachte▁4527
wache▁4528
▁nachts▁4529
▁vorbei▁4530
▁Punkte▁4531
▁gehe▁4532
▁beginne▁4533
▁Was▁4534
▁Nachbarn▁4535
▁Mädchen▁4536
▁Wohnzimmer▁4537
▁weinen▁4538
▁wow▁4539
▁las▁4540
▁Text▁4541
▁weinte▁4542
redet▁4543
▁ernsthaft▁4544
tete▁4545
▁gib▁4546
▁ausgelöst▁4547
▁schicken▁4548
▁ergreifen▁4549
▁erhielt▁4550
▁Kommentare▁4551
▁Nachrichten▁4552
▁antwortete▁4553
rück▁4554
▁Kommunikation▁4555
▁Israeli▁4556
▁hasse▁4557
▁Völker▁4558
▁Feinde▁4559
▁Schwelle▁4560
▁Osten▁4561
▁Okay▁4562
▁lass▁4563
▁erinnere▁4564
▁sprach▁4565
▁Palästina▁4566
▁Je▁4567
▁Syri▁4568
▁Libanon▁4569
▁Chinese▁4570
▁taucht▁4571
▁Logo▁4572
liebt▁4573
Israel▁4574
▁lieb▁4575
▁verstand▁4576
▁passierte▁4577
▁Freund▁4578
▁Go▁4579
▁Wort▁4580
▁Google▁4581
▁auftauchte▁4582
▁tippe▁4583
▁erscheinen▁4584
Webseite▁4585
▁83▁4586
▁Like▁4587
stellen▁4588
Seite▁4589
▁Gedenk▁4590
▁gefallen▁4591
▁Soldaten▁4592
lei▁4593
▁Liebste▁4594
▁Terror▁4595
len▁4596
▁Respekt▁4597
▁Mitgefühl▁4598
▁reisen▁4599
▁Eröffnung▁4600
▁Ausstellung▁4601
▁Webseite▁4602
▁komme▁4603
▁Frankreich▁4604
schüttelt▁4605
▁trank▁4606
▁Unterhaltung▁4607
▁Flughafen▁4608
ion▁4609
▁Stress▁4610
▁startete▁4611
▁Kampagne▁4612
▁Nicht▁4613
▁eure▁4614
▁sterben▁4615
▁dieselbe▁4616
ivität▁4617
▁Erstaunliche▁4618
▁Welle▁4619
▁herkommen▁4620
leicht▁4621
▁Ron▁4622
▁Ed▁4623
ry▁4624
▁41▁4625
▁Ehemann▁4626
▁unterrichte▁4627
design▁4628
▁naiv▁4629
▁Blumen▁4630
▁rüber▁4631
▁Armee▁4632
▁Fallschirm▁4633
jäger▁4634
▁mutig▁4635
▁erreichen▁4636
gänglich▁4637
▁vermeiden▁4638
▁Volk▁4639
▁helfen▁4640
▁Frieden▁4641
▁Franz▁4642
bo▁4643
▁Charles▁4644
▁Moore▁4645
▁Plastik▁4646
▁Kapitän▁4647
gali▁4648
▁Marine▁4649
esearch▁4650
▁Foundation▁4651
▁entdeckte▁4652
▁Pacific▁4653
▁Gar▁4654
age▁4655
▁Pat▁4656
▁endlose▁4657
▁Müllhalde▁4658
▁schwimmende▁4659
▁lenkt▁4660
▁Aufmerksamkeit▁4661
ick▁4662
lagerung▁4663
▁Müll▁4664
▁Ethik▁4665
▁Bewahr▁4666
▁Weltwirtschaft▁4667
krise▁4668
▁2.▁4669
▁Weltkrieg▁4670
▁Produktions▁4671
kapazität▁4672
▁Erschaffung▁4673
▁Produkten▁4674
▁Friedens▁4675
▁Life▁4676
▁Magazine▁4677
holfen▁4678
▁Einführung▁4679
▁Wegwerf▁4680
produkt▁4681
▁verkündete▁4682
frau▁4683
▁Mühe▁4684
wasch▁4685
▁befreien▁4686
▁Anmerkung▁4687
frei▁4688
▁Produkte▁4689
▁biologisch▁4690
▁abbaubar▁4691
produkte▁4692
▁außerdem▁4693
▁recycle▁4694
▁aufbereitet▁4695
▁bezeichnet▁4696
komm▁4697
▁Schmelz▁4698
punkt▁4699
▁saubere▁4700
▁Glas▁4701
▁Metall▁4702
halb▁4703
▁schmelzen▁4704
▁verliert▁4705
öl▁4706
▁Bestandteile▁4707
▁Schwa▁4708
▁gespeichert▁4709
pur▁4710
sp▁4711
▁Flüsse▁4712
▁hinunter▁4713
Creek▁4714
▁Los▁4715
▁Angeles▁4716
▁Treib▁4717
gut▁4718
▁nahe▁4719
▁California▁4720
▁State▁4721
▁Long▁4722
▁Beach▁4723
▁Entsalzung▁4724
werk▁4725
▁besucht▁4726
and▁4727
getränk▁4728
flasche▁4729
▁visualisiert▁4730
nehmer▁4731
▁Jordan▁4732
konsum▁4733
kunst▁4734
voll▁4735
▁detailliert▁4736
▁dokumentiert▁4737
▁Flaschen▁4738
▁abgelegene▁4739
▁Insel▁4740
▁Küste▁4741
▁N▁4742
ieder▁4743
li▁4744
for▁4745
▁Ro▁4746
ohn▁4747
▁Vogel▁4748
kolonie▁4749
▁kau▁4750
▁beachten▁4751
kappen▁4752
▁besitzen▁4753
▁Poly▁4754
ep▁4755
hal▁4756
▁Salzwasser▁4757
▁Zivilisation▁4758
nähe▁4759
▁auftauchen▁4760
schlüsse▁4761
▁Fabrik▁4762
▁hergestellt▁4763
pro▁4764
▁schwimmen▁4765
▁unglücklich▁4766
▁Flasche▁4767
▁treiben▁4768
▁kalifornische▁4769
▁Strömung▁4770
▁Süden▁4771
▁Ca▁4772
▁Luca▁4773
▁Eastern▁4774
▁Philippine▁4775
▁verschmutzen▁4776
▁Ansammlung▁4777
▁Verschm▁4778
utzung▁4779
▁Nord▁4780
pa▁4781
wirbel▁4782
lbatross▁4783
▁Kur▁4784
▁Mid▁4785
way▁4786
Inseln▁4787
▁Northwest▁4788
▁Hawaii▁4789
▁Islands▁4790
▁Monument▁4791
füttern▁4792
▁alte▁4793
▁Junge▁4794
▁Magen▁4795
inhalt▁4796
groß▁4797
zeug▁4798
▁verwechsel▁4799
rei▁4800
bt▁4801
▁Ring▁4802
▁Konsequenzen▁4803
▁Heim▁4804
▁Orleans▁4805
weit▁4806
▁Heimat▁4807
stadt▁4808
▁daher▁4809
ub▁4810
insel▁4811
▁östlich▁4812
▁säuber▁4813
▁weite▁4814
▁bot▁4815
▁Cent▁4816
▁Lieferant▁4817
00▁4818
▁investieren▁4819
▁Aktion▁4820
▁sort▁4821
▁Earth▁4822
▁Day▁4823
▁Aquarium▁4824
▁Schau▁4825
▁Gouverneur▁4826
▁Schwarzen▁4827
gger▁4828
▁Maria▁4829
▁Gespräch▁4830
▁feminine▁4831
▁Hut▁4832
tüte▁4833
kel▁4834
▁zeigte▁4835
▁Zo▁4836
oplankton▁4837
chle▁4838
▁Wirbel▁4839
▁Plankton▁4840
▁filter▁4841
suppe▁4842
▁1,6▁4843
zieht▁4844
▁entstehen▁4845
▁Proben▁4846
▁Strände▁4847
gespült▁4848
▁Ka▁4849
▁Präsident▁4850
▁zog▁4851
▁Millimeter▁4852
meter▁4853
Stück▁4854
▁Schadstoffe▁4855
▁Konzentration▁4856
▁umgebende▁4857
▁häufigste▁4858
▁vorkommen▁4859
▁Nahrungskette▁4860
▁giftige▁4861
▁Pille▁4862
schmutzt▁4863
▁Rekord▁4864
▁c▁4865
▁84▁4866
▁winzige▁4867
▁zertifizier▁4868
▁Obst▁4869
▁Gemüse▁4870
händler▁4871
▁Wildnis▁4872
▁verkaufen▁4873
▁Erbe▁4874
▁zukünftige▁4875
▁hinterlasse▁4876
gesellschaft▁4877
lagern▁4878
▁erhalten▁4879
▁Markt▁4880
wirtschaft▁4881
▁zerstört▁4882
▁Pferde▁4883
sammeln▁4884
egel▁4885
▁Verpackung▁4886
▁Sprecher▁4887
▁sauber▁4888
nseits▁4889
▁jedwede▁4890
▁Budget▁4891
▁unvorhersehbar▁4892
wesen▁4893
▁getötet▁4894
▁stoppen▁4895
▁Meere▁4896
last▁4897
▁Brian▁4898
one▁4899
▁Night▁4900
▁Kalifornien▁4901
▁Carol▁4902
▁Steel▁4903
▁Städte▁4904
▁Mahlzeiten▁4905
▁serviert▁4906
▁Architekt▁4907
▁tägliche▁4908
▁ernährt▁4909
▁Nahrungs▁4910
▁moderne▁4911
▁gestellt▁4912
▁Restaurant▁4913
▁Fo▁4914
▁Nichts▁4915
▁täglich▁4916
▁transportiert▁4917
▁gekauft▁4918
▁verkauft▁4919
▁gekocht▁4920
▁entsorg▁4921
▁vergleichbar▁4922
▁Natürlich▁4923
▁abhängig▁4924
▁Vorfahre▁4925
▁umso▁4926
räume▁4927
▁außerordentlich▁4928
Feld▁4929
▁Gross▁4930
▁Brasilien▁4931
▁ernähre▁4932
▁zunehmende▁4933
▁Maße▁4934
▁dienen▁4935
erzeugung▁4936
▁Fleisch▁4937
▁jährlich▁4938
▁Getreide▁4939
produktion▁4940
futter▁4941
▁dreimal▁4942
▁tierische▁4943
▁Ursprung▁4944
▁effizienter▁4945
50▁4946
ungsweise▁4947
▁Städten▁4948
▁geschätzt▁4949
▁Milch▁4950
▁konsumiert▁4951
▁Urban▁4952
▁gewaltige▁4953
▁hungrig▁4954
fresser▁4955
unwahrscheinlich▁4956
▁19▁4957
▁Hektar▁4958
▁Reg▁4959
wald▁4960
bau▁4961
flächen▁4962
▁Anbau▁4963
fläche▁4964
▁Erosion▁4965
▁fossil▁4966
▁Brennstoffe▁4967
▁Kalorien▁4968
▁benötigt▁4969
▁Kal▁4970
ori▁4971
▁Westen▁4972
▁konsumieren▁4973
▁Lebensmittel▁4974
schmiss▁4975
▁ordentlich▁4976
▁fettleibig▁4977
▁hunger▁4978
▁multinational▁4979
orporation▁4980
▁düstere▁4981
▁Ernährung▁4982
▁blicken▁4983
soweit▁4984
▁Antwort▁4985
▁Frucht▁4986
mond▁4987
frucht▁4988
▁Erfindungen▁4989
▁Landwirtschaft▁4990
▁gehören▁4991
▁Siedlung▁4992
▁aussah▁4993
▁kompakt▁4994
bare▁4995
▁umgeben▁4996
▁Tempel▁4997
▁Ur▁4998
▁zentral▁4999
dis▁5000
tribu▁5001
zentr▁5002
▁Ernte▁5003
gesammelt▁5004
▁Götter▁5005
▁Rest▁5006
▁verteilen▁5007
grund▁5008
▁Rom▁5009
▁Jahrhundert▁5010
▁nenne▁5011
▁antike▁5012
wege▁5013
▁Strassen▁5014
transportieren▁5015
▁Kriege▁5016
gypten▁5017
▁Erweiterung▁5018
▁Reich▁5019
▁gezogen▁5020
▁militärische▁5021
wu▁5022
▁erwähnen▁5023
▁Zeitpunkt▁5024
▁Austern▁5025
▁Britanni▁5026
▁Hinter▁5027
▁Appeti▁5028
▁inter▁5029
industrielle▁5030
▁17.▁5031
ap▁5032
side▁5033
markt▁5034
namen▁5035
▁ansieh▁5036
read▁5037
▁Street▁5038
gespielt▁5039
▁Fluss▁5040
▁bekannteste▁5041
▁existierte▁5042
▁bedenken▁5043
iegel▁5044
▁stink▁5045
▁Hafen▁5046
geschlagen▁5047
▁betreten▁5048
▁Nordwest▁5049
▁Schott▁5050
▁Wale▁5051
field▁5052
flügel▁5053
▁Ost▁5054
gli▁5055
▁Nordost▁5056
▁fühle▁5057
fe▁5058
tzen▁5059
▁gebunden▁5060
▁Erreichen▁5061
▁Verkauf▁5062
ult▁5063
▁heisst▁5064
▁beliebige▁5065
zeitalter▁5066
▁Spuren▁5067
ug▁5068
uck▁5069
▁Hinweise▁5070
▁Friday▁5071
▁Freitag▁5072
▁Plätze▁5073
30▁5074
▁Sonntag▁5075
essen▁5076
▁ausgehen▁5077
Stadt▁5078
▁biologische▁5079
▁Kreislauf▁5080
▁änderte▁5081
▁Western▁5082
▁Eisenbahn▁5083
40▁5084
▁Zug▁5085
reisen▁5086
▁Schweine▁5087
geschlachtet▁5088
▁geografische▁5089
▁Abhängigkeit▁5090
▁befreit▁5091
Karte▁5092
nähern▁5093
▁Kle▁5094
amas▁5095
▁Autos▁5096
▁endgültige▁5097
▁Bruch▁5098
▁Gerüche▁5099
▁fuhr▁5100
rand▁5101
▁wunder▁5102
▁Nahrungsmittel▁5103
▁Ereignis▁5104
▁kocht▁5105
▁hinzu▁5106
▁Ei▁5107
▁Kuchen▁5108
▁back▁5109
▁riechen▁5110
▁prüfen▁5111
▁Etikett▁5112
▁Rückseite▁5113
▁fürchte▁5114
▁modern▁5115
Ernährungssystem▁5116
▁einfacher▁5117
▁bauen▁5118
▁aufrecht▁5119
▁500▁5120
topia▁5121
▁Anzahl▁5122
▁halb▁5123
un▁5124
hängig▁5125
staaten▁5126
▁Garten▁5127
▁gemeinsam▁5128
▁teilnahm▁5129
▁argumentiere▁5130
▁fundamentale▁5131
prinzip▁5132
▁formuliert▁5133
▁berühmte▁5134
zer▁5135
▁urban▁5136
▁Flächen▁5137
▁darstellt▁5138
top▁5139
▁utopisch▁5140
▁nutzte▁5141
▁absichtlich▁5142
▁Scherz▁5143
deutung▁5144
▁Ideal▁5145
rahmen▁5146
▁tiefgründige▁5147
▁hilf▁5148
▁Alternative▁5149
▁sit▁5150
po▁5151
▁mächtige▁5152
▁konzeptionell▁5153
werkzeug▁5154
▁Folie▁5155
▁Hunde▁5156
blick▁5157
▁gefeiert▁5158
▁Szene▁5159
▁Männer▁5160
ausdenken▁5161
▁planen▁5162
▁benenn▁5163
▁ausgesucht▁5164
▁kauft▁5165
▁Netzwerke▁5166
▁Märkte▁5167
▁regional▁5168
gebaut▁5169
▁lokal▁5170
Nullsummen▁5171
are▁5172
▁dunkle▁5173
▁Loch▁5174
▁Kühe▁5175
▁Aussicht▁5176
▁Dampf▁5177
▁Hum▁5178
projekt▁5179
ronto▁5180
▁Pflanze▁5181
▁Kev▁5182
▁Projekte▁5183
▁wiederherstell▁5184
etrachtungsweise▁5185
schliessen▁5186
produktiv▁5187
▁produktiv▁5188
▁zwang▁5189
läufig▁5190
▁symbio▁5191
▁herstellen▁5192
kultur▁5193
shalb▁5194
konzept▁5195
▁650▁5196
jahr▁5197
▁Am▁5198
ogi▁5199
▁Loren▁5200
ett▁5201
▁Guten▁5202
▁Verhältnis▁5203
▁kümmert▁5204
▁Alle▁5205
▁dringend▁5206
▁beantworten▁5207
di▁5208
▁Kit▁5209
ly▁5210
▁Hill▁5211
macher▁5212
▁Piano▁5213
▁Dolby▁5214
▁Lied▁5215
▁jene▁5216
▁Martin▁5217
▁Evan▁5218
▁Einladung▁5219
▁Vergnügen▁5220
▁richtet▁5221
irstream▁5222
▁2002▁5223
▁Designer▁5224
▁amerikanische▁5225
▁Wohnwagen▁5226
▁Wilson▁5227
▁International▁5228
▁Kunststoff▁5229
La▁5230
▁Mess▁5231
▁zeitgenössische▁5232
▁Möbel▁5233
ork▁5234
▁Transportmittel▁5235
▁Innen▁5236
einrichtung▁5237
▁entschieden▁5238
kern▁5239
▁Look▁5240
▁Werkstatt▁5241
erkeley▁5242
▁ideal▁5243
▁optimiere▁5244
▁entschied▁5245
▁recherchiere▁5246
▁Verlauf▁5247
▁schief▁5248
▁herausfand▁5249
▁Trennung▁5250
▁äußer▁5251
▁Hülle▁5252
▁ursprünglich▁5253
gewicht▁5254
ige▁5255
▁futurist▁5256
technolog▁5257
▁konzipier▁5258
▁Schnell▁5259
straße▁5260
brau▁5261
▁altmodisch▁5262
▁Berg▁5263
hütte▁5264
▁Krise▁5265
schatz▁5266
▁Reisen▁5267
▁Modern▁5268
▁handelte▁5269
▁übereinstimmt▁5270
▁Archäologi▁5271
▁betreiben▁5272
▁authentisch▁5273
▁Nutzen▁5274
ola▁5275
▁Aluminium▁5276
hülle▁5277
▁Lei▁5278
▁zeichnete▁5279
tzt▁5280
▁Karton▁5281
▁baute▁5282
ät▁5283
▁Mobilität▁5284
▁Schwierigkeit▁5285
▁entwirf▁5286
▁logisch▁5287
▁aufgrund▁5288
laufen▁5289
▁Dach▁5290
▁erschwert▁5291
▁hervorzu▁5292
▁Dimensionen▁5293
▁bo▁5294
vig▁5295
▁Pan▁5296
bogen▁5297
▁verlaufen▁5298
▁entwickelte▁5299
▁Haut▁5300
▁lenken▁5301
▁Geometrie▁5302
▁wahrnehme▁5303
▁Gehäuse▁5304
▁unterbrechen▁5305
▁Strom▁5306
kabel▁5307
▁elektrische▁5308
▁fertiggestellt▁5309
▁Auftrag▁5310
▁Block▁5311
Design▁5312
▁Oktober▁5313
aki▁5314
firma▁5315
▁verschick▁5316
▁funktionsfähig▁5317
▁Nummer▁5318
▁unbeschriebene▁5319
▁wolle▁5320
▁entwarf▁5321
▁Fantasie▁5322
zenario▁5323
▁DJ▁5324
▁reist▁5325
▁Platten▁5326
▁sammeln▁5327
▁Tour▁5328
▁Misch▁5329
pul▁5330
▁Sound▁5331
▁Couch▁5332
willig▁5333
▁floss▁5334
board▁5335
▁Surfer▁5336
▁Bergsteiger▁5337
usstattung▁5338
▁Bau▁5339
prozess▁5340
▁Bam▁5341
▁genannt▁5342
▁endlich▁5343
▁oh▁5344
▁Werkzeuge▁5345
▁Einrichtung▁5346
ließ▁5347
▁Dilemma▁5348
▁vorhanden▁5349
▁genommen▁5350
▁hand▁5351
gemacht▁5352
arbeiten▁5353
▁einzigartig▁5354
schneiden▁5355
kasten▁5356
▁16.▁5357
▁Kra▁5358
▁Geheimnis▁5359
▁Symptome▁5360
▁Nervensystem▁5361
▁Signal▁5362
chleifen▁5363
▁Krankheit▁5364
▁brach▁5365
▁Fakten▁5366
arzt▁5367
thesis▁5368
▁Lebensunterhalt▁5369
schlaf▁5370
▁Akademiker▁5371
▁schläf▁5372
▁Zuhörer▁5373
sonst▁5374
▁Management▁5375
▁Service▁5376
Packard▁5377
▁Klinik▁5378
▁Stanford▁5379
▁Pal▁5380
▁Alto▁5381
▁Morgen▁5382
▁Symptom▁5383
▁Tumor▁5384
▁Infektion▁5385
ntzündung▁5386
▁Operation▁5387
▁Ereignisse▁5388
▁erholt▁5389
▁dagegen▁5390
▁Feder▁5391
▁Schlimme▁5392
▁Ihres▁5393
▁Kindes▁5394
▁Brenn▁5395
▁Patientin▁5396
▁Chandler▁5397
▁erlebte▁5398
▁Foto▁5399
▁schöne▁5400
▁16▁5401
▁lernte▁5402
▁strebt▁5403
train▁5404
▁fiel▁5405
▁ausgestreckt▁5406
taucht▁5407
▁unbedeutend▁5408
bu▁5409
prof▁5410
sta▁5411
färb▁5412
▁lila▁5413
▁Ber▁5414
ühr▁5415
▁Le▁5416
▁erstarr▁5417
▁gelähmt▁5418
ton▁5419
▁Fingerspitzen▁5420
▁Ellenbogen▁5421
▁ausge▁5422
breite▁5423
▁Schlimmste▁5424
▁24▁5425
▁All▁5426
od▁5427
nia▁5428
▁leichte▁5429
rmel▁5430
▁Stoffe▁5431
zog▁5432
▁brennende▁5433
▁harmlos▁5434
▁grausam▁5435
dra▁5436
▁Kabel▁5437
▁Lichtschalter▁5438
▁Decke▁5439
▁Glühbirne▁5440
▁Schalter▁5441
schalten▁5442
▁Hammer▁5443
▁schlagen▁5444
▁Information▁5445
▁Rückenmark▁5446
bewußt▁5447
▁komplizierter▁5448
▁Nerv▁5449
▁verbindet▁5450
▁braune▁5451
▁Päckchen▁5452
Neurotransmitter▁5453
▁linear▁5454
gibt▁5455
▁horizontal▁5456
▁vertikal▁5457
▁rauf▁5458
▁benachbarte▁5459
▁Zellen▁5460
zellen▁5461
▁unwichtig▁5462
elemente▁5463
▁entscheidende▁5464
▁Regulierung▁5465
▁Falle▁5466
fälsch▁5467
▁aktiviert▁5468
▁DNS▁5469
▁fäng▁5470
▁Proteine▁5471
schüttet▁5472
▁angrenzende▁5473
▁interagieren▁5474
c▁5475
▁aktivier▁5476
▁Feedback▁5477
▁Schleife▁5478
▁verlegt▁5479
▁Toiletten▁5480
spül▁5481
▁Tür▁5482
▁Geschirr▁5483
bildschirm▁5484
▁ausgeschalte▁5485
lastizität▁5486
▁Reaktion▁5487
▁Stimul▁5488
▁symptom▁5489
ändern▁5490
▁Medikamenten▁5491
mittel▁5492
▁offen▁5493
▁effektiv▁5494
▁ruhig▁5495
▁lokale▁5496
sthetik▁5497
▁rig▁5498
▁Therapie▁5499
▁alltägliche▁5500
▁intensive▁5501
▁psychotherap▁5502
▁Programm▁5503
▁Mut▁5504
losigkeit▁5505
▁Verzweiflung▁5506
▁Rück▁5507
war▁5508
to▁5509
▁Mittag▁5510
▁College▁5511
▁absolut▁5512
▁rosig▁5513
▁prophet▁5514
▁George▁5515
▁Carl▁5516
▁Mein▁5517
▁Kris▁5518
j▁5519
▁Gesetze▁5520
▁Hohe▁5521
▁geschützt▁5522
▁Welten▁5523
▁Rechts▁5524
experte▁5525
▁kluge▁5526
gestaltung▁5527
▁gesunde▁5528
▁Portion▁5529
▁PR▁5530
▁schützen▁5531
▁Mond▁5532
▁Mythen▁5533
▁Leg▁5534
▁Hier▁5535
▁Monster▁5536
▁beneide▁5537
IUC▁5538
amount▁5539
▁Madagas▁5540
car▁5541
▁fotografiere▁5542
▁juristische▁5543
tiefe▁5544
▁4.000▁5545
▁theoretisch▁5546
▁Allgemein▁5547
▁Resourcen▁5548
uten▁5549
▁Betroffene▁5550
▁Dunkel▁5551
gemäß▁5552
klären▁5553
▁besonderen▁5554
▁umfassende▁5555
▁Schutz▁5556
becken▁5557
bett▁5558
▁Norm▁5559
▁Vorsorge▁5560
▁beängstigend▁5561
zweifeln▁5562
▁Kohlenstoff▁5563
speicher▁5564
▁liefer▁5565
▁36▁5566
▁angehen▁5567
▁derzeitige▁5568
▁internationale▁5569
▁Schiff▁5570
▁vorrangig▁5571
▁glaubt▁5572
▁erledige▁5573
▁Schiffe▁5574
▁dürfe▁5575
teppich▁5576
▁Texas▁5577
dünn▁5578
▁nachweis▁5579
forscher▁5580
▁Eli▁5581
strom▁5582
▁untersuchen▁5583
▁Gemein▁5584
▁verwalte▁5585
▁Verwaltung▁5586
▁Beteiligte▁5587
▁bedingt▁5588
▁Andere▁5589
▁effektive▁5590
berprüfung▁5591
setzung▁5592
▁Vertrauen▁5593
▁notwendig▁5594
▁längst▁5595
▁Umweltschützer▁5596
▁Fotografen▁5597
▁tragische▁5598
▁Szenario▁5599
zuwenden▁5600
▁fragile▁5601
landschaft▁5602
▁Korallen▁5603
garten▁5604
▁droht▁5605
ichtung▁5606
fisch▁5607
▁retten▁5608
▁Geschehen▁5609
▁fotografiert▁5610
▁Keller▁5611
▁Vereinte▁5612
▁Nationen▁5613
▁verbracht▁5614
▁Regierungen▁5615
zumachen▁5616
▁Festland▁5617
▁Fischer▁5618
etze▁5619
zeitig▁5620
▁Fest▁5621
▁Route▁5622
▁erfordert▁5623
▁sowie▁5624
▁Verpflichtung▁5625
▁Schäde▁5626
▁Fortschritte▁5627
▁überprüft▁5628
uadratkilometer▁5629
▁regier▁5630
▁Sylvia▁5631
▁Wunsch▁5632
schub▁5633
▁Herzen▁5634
zusag▁5635
▁ho▁5636
ffentlich▁5637
schildkröte▁5638
▁Eindruck▁5639
▁Sargasso▁5640
See▁5641
▁Küsten▁5642
▁begrenzt▁5643
strömung▁5644
▁Fülle▁5645
▁Algen▁5646
ball▁5647
gebiet▁5648
▁nor▁5649
europäisch▁5650
▁no▁5651
rdamerikanische▁5652
▁Zahl▁5653
▁Stock▁5654
holm▁5655
getaucht▁5656
argassum▁5657
▁Februar▁5658
▁200.000▁5659
wachsen▁5660
▁beeinträchtige▁5661
▁wundersame▁5662
▁einzigartige▁5663
eben▁5664
▁Initiative▁5665
▁Bermuda▁5666
bedarf▁5667
▁erkannt▁5668
▁Territori▁5669
▁außerhalb▁5670
▁Süd▁5671
▁territor▁5672
ial▁5673
▁Ansprüche▁5674
▁Pack▁5675
▁Frühling▁5676
▁Sommer▁5677
▁Ph▁5678
nährt▁5679
▁nahezu▁5680
akt▁5681
küste▁5682
nna▁5683
he▁5684
▁CA▁5685
ML▁5686
▁regionale▁5687
▁Aus▁5688
schuss▁5689
ressourcen▁5690
▁zuständig▁5691
▁leider▁5692
▁Fischerei▁5693
In▁5694
▁nachzu▁5695
▁Zahn▁5696
gelassen▁5697
ländische▁5698
▁bedeutende▁5699
▁Killer▁5700
wal▁5701
ark▁5702
▁beanspruch▁5703
▁Hoch▁5704
▁sperr▁5705
▁Cost▁5706
▁Rica▁5707
▁Dome▁5708
▁Blauwal▁5709
▁Winter▁5710
▁o▁5711
ografische▁5712
▁Jahreszeit▁5713
▁verschieb▁5714
▁permanent▁5715
zone▁5716
amerikanische▁5717
▁wandern▁5718
▁or▁5719
▁verletzlich▁5720
▁Galapagos▁5721
▁Tropic▁5722
▁Sea▁5723
▁Conservati▁5724
▁koordinier▁5725
▁schützt▁5726
stätte▁5727
▁erkennt▁5728
einkommen▁5729
▁national▁5730
▁käme▁5731
▁vorgeschlagen▁5732
▁universelle▁5733
Welt▁5734
▁süd▁5735
hak▁5736
▁enden▁5737
▁vorschlage▁5738
übergreifend▁5739
▁angelegt▁5740
azi▁5741
▁Raub▁5742
fische▁5743
▁Sturm▁5744
▁zuhause▁5745
▁km▁5746
▁Schätz▁5747
▁gestartet▁5748
▁gespannt▁5749
▁untersucht▁5750
gur▁5751
tun▁5752
▁Politiker▁5753
bereiten▁5754
▁Unterstützung▁5755
▁Workshop▁5756
fleck▁5757
▁voranzu▁5758
treiben▁5759
wenden▁5760
gebiete▁5761
▁vernünftige▁5762
▁eingeführt▁5763
▁Weltraum▁5764
▁verfolgen▁5765
▁Lebensdauer▁5766
fahrzeuge▁5767
▁markieren▁5768
▁Trans▁5769
▁Privileg▁5770
▁zentrale▁5771
▁Tragödie▁5772
▁Kollision▁5773
kurs▁5774
▁umgehen▁5775
▁Paradigma▁5776
▁Vorsicht▁5777
Wunsch▁5778
▁Spot▁5779
light▁5780
▁Tisch▁5781
▁dritten▁5782
weite▁5783
ulation▁5784
▁Veranlagung▁5785
▁regulieren▁5786
systeme▁5787
▁Kapazität▁5788
▁erweitern▁5789
gle▁5790
interesse▁5791
sprechen▁5792
▁Earle▁5793
▁talentierte▁5794
▁durchdring▁5795
▁Nutzung▁5796
▁hoffe▁5797
▁Bruc▁5798
ward▁5799
▁Polio▁5800
▁endgültig▁5801
▁Stillstand▁5802
▁beinahe▁5803
▁ausgerottet▁5804
▁breite▁5805
▁Plan▁5806
▁fortzu▁5807
stoppt▁5808
gelöscht▁5809
▁grossartig▁5810
▁grossartige▁5811
▁allgemeine▁5812
▁Panik▁5813
▁hervor▁5814
rief▁5815
▁eiserne▁5816
▁Lunge▁5817
▁gesund▁5818
▁atmen▁5819
virus▁5820
▁Atem▁5821
mus▁5822
kul▁5823
▁atmet▁5824
▁entsetzlich▁5825
▁Heilung▁5826
▁Impfstoff▁5827
ussergewöhnliche▁5828
▁Mass▁5829
nahme▁5830
▁einführte▁5831
▁zwanzig▁5832
▁gelungen▁5833
ju▁5834
▁1950▁5835
▁stopp▁5836
▁Monat▁5837
▁Jon▁5838
▁Pocken▁5839
▁oops▁5840
▁geblieben▁5841
/▁5842
▁Partnerschaft▁5843
▁unbekannt▁5844
rotten▁5845
▁Schock▁5846
▁realisierte▁5847
liegende▁5848
▁Glob▁5849
▁schreckliche▁5850
brüche▁5851
Sequenzierung▁5852
vi▁5853
▁Viren▁5854
▁stammt▁5855
▁Meilen▁5856
▁via▁5857
▁Verkehrs▁5858
flugzeug▁5859
▁Russland▁5860
ppel▁5861
▁vernichten▁5862
▁explosive▁5863
▁Dekade▁5864
Ausrottung▁5865
itis▁5866
ship▁5867
feuer▁5868
▁entzünde▁5869
▁erstickt▁5870
▁polio▁5871
freie▁5872
▁Risse▁5873
▁Panzer▁5874
▁überlebt▁5875
▁Impfstoffe▁5876
löschen▁5877
sprogramm▁5878
▁kill▁5879
ilanz▁5880
▁Risikokapital▁5881
▁Risik▁5882
▁gewaltig▁5883
▁Lohn▁5884
▁wirtschaftlich▁5885
▁motivation▁5886
▁riesig▁5887
▁Kongress▁5888
abgeordnete▁5889
▁Investition▁5890
gesteckt▁5891
▁26▁5892
bezahlt▁5893
▁vorherige▁5894
skosten▁5895
▁Impf▁5896
kosten▁5897
▁beenden▁5898
▁ärmste▁5899
▁sparen▁5900
▁Einsätze▁5901
streben▁5902
fach▁5903
▁härter▁5904
▁begonne▁5905
▁Dosi▁5906
lang▁5907
▁Tropen▁5908
Mo▁5909
▁angezeigt▁5910
▁Hitze▁5911
▁ausgesetzt▁5912
▁potent▁5913
▁Dose▁5914
sichtlich▁5915
▁verrät▁5916
impfen▁5917
rennen▁5918
▁Mehrheit▁5919
folge▁5920
▁Vorgehensweise▁5921
teils▁5922
▁Höhepunkt▁5923
Impfstoff▁5924
▁verabreich▁5925
▁Tropf▁5926
rzte▁5927
▁Freiwilligen▁5928
kopf▁5929
über▁5930
▁härteste▁5931
▁städtische▁5932
▁Elendsviertel▁5933
tauchen▁5934
glühen▁5935
▁marschier▁5936
▁abge▁5937
▁erreichbar▁5938
▁Kugel▁5939
weichen▁5940
▁Waffen▁5941
still▁5942
operieren▁5943
▁Reporter▁5944
▁Somalia▁5945
▁sa▁5946
erhalb▁5947
▁Strasse▁5948
Kampagne▁5949
▁ausbreitet▁5950
▁heldenhafte▁5951
ntwicklungshilfe▁5952
▁Helden▁5953
gründe▁5954
wöhn▁5955
lichste▁5956
▁Rot▁5957
ary▁5958
star▁5959
▁Infrastruktur▁5960
▁aufzubauen▁5961
▁dauern▁5962
▁Resultate▁5963
▁Ausnahme▁5964
▁betraf▁5965
▁199▁5966
barkeit▁5967
wei▁5968
▁Stand▁5969
▁99▁5970
▁Reduktion▁5971
▁1▁5972
▁pandemische▁5973
▁Grippe▁5974
▁SARS▁5975
▁Vitamin▁5976
▁Malaria▁5977
▁zustande▁5978
▁zwingen▁5979
▁verletzt▁5980
▁element▁5981
▁unabhängig▁5982
ographie▁5983
▁spannend▁5984
hren▁5985
▁scheinbar▁5986
▁Norden▁5987
▁Indien▁5988
▁Nigeria▁5989
▁Afrikas▁5990
brücke▁5991
▁bewirken▁5992
▁Jahrzehnte▁5993
▁hartnäckig▁5994
▁zäh▁5995
est▁5996
ir▁5997
▁funktionierte▁5998
▁Frustration▁5999
▁verführerisch▁6000
▁falsche▁6001
▁anfällig▁6002
▁Schluck▁6003
▁wohnt▁6004
▁Brüder▁6005
▁rechte▁6006
▁Bein▁6007
▁lahm▁6008
▁Schläge▁6009
wegs▁6010
▁Krücke▁6011
▁perfekte▁6012
▁zieht▁6013
▁verzweifelt▁6014
▁Ersparnisse▁6015
▁verdienen▁6016
brechen▁6017
▁dahinter▁6018
▁innovative▁6019
▁verpasst▁6020
▁kartografier▁6021
Satellitenbilder▁6022
betreuen▁6023
hi▁6024
▁involviert▁6025
▁log▁6026
istische▁6027
▁coole▁6028
▁track▁6029
▁Ansätze▁6030
mittler▁6031
▁eng▁6032
ommittee▁6033
▁Kreuz▁6034
▁gewährleiste▁6035
zel▁6036
▁Taktik▁6037
▁überarbeitet▁6038
▁alter▁6039
▁War▁6040
▁getestet▁6041
typ▁6042
vis▁6043
▁9.▁6044
▁Juni▁6045
▁Versuche▁6046
▁veränderte▁6047
▁lief▁6048
serie▁6049
mässig▁6050
fordert▁6051
▁Unmögliche▁6052
team▁6053
▁rasend▁6054
▁erneut▁6055
▁herunterlade▁6056
▁entfaltet▁6057
ket▁6058
tta▁6059
▁Pr▁6060
adesh▁6061
▁Bi▁6062
har▁6063
▁Hygiene▁6064
▁exakt▁6065
ichte▁6066
▁Einzel▁6067
fall▁6068
▁95▁6069
▁Damen▁6070
▁Herren▁6071
▁Kombination▁6072
▁intelligent▁6073
▁intelligenter▁6074
▁machbar▁6075
▁sekundäre▁6076
währ▁6077
▁versage▁6078
▁No▁6079
plus▁6080
▁Fair▁6081
ness▁6082
▁Gerechtigkeit▁6083
statt▁6084
▁Kapital▁6085
▁Enthusias▁6086
▁Zeiten▁6087
▁Cameron▁6088
ita▁6089
▁Es▁6090
▁Kreuzung▁6091
ntschlossen▁6092
▁Menschheit▁6093
▁übersehen▁6094
▁verlieren▁6095
▁voraussetz▁6096
▁Gates▁6097
▁schwierigste▁6098
▁ba▁6099
▁aufhört▁6100
▁südlich▁6101
▁Ecke▁6102
▁Grenz▁6103
▁Pakistan▁6104
▁BG▁6105
▁beschaffen▁6106
▁750▁6107
ück▁6108
▁Eins▁6109
▁Tony▁6110
▁Port▁6111
▁App▁6112
▁TEDWomen▁6113
ort▁6114
richter▁6115
▁Miss▁6116
handlung▁6117
▁Missbrauch▁6118
▁führen▁6119
ist▁6120
▁wuchs▁6121
▁City▁6122
▁Harlem▁6123
▁Bronx▁6124
▁Mannes▁6125
▁beinhaltet▁6126
▁Zutaten▁6127
▁Zweifel▁6128
▁verdreht▁6129
▁genauer▁6130
▁analysiere▁6131
▁Männlichkeit▁6132
▁Kendal▁6133
▁Jay▁6134
▁12.▁6135
klatsch▁6136
▁pen▁6137
▁Knie▁6138
neu▁6139
heulen▁6140
▁Papa▁6141
▁zählt▁6142
▁innere▁6143
▁Stopp▁6144
uh▁6145
▁Sätze▁6146
▁nimm▁6147
▁set▁6148
▁reiß▁6149
▁rede▁6150
▁tu▁6151
▁erinnerte▁6152
▁Bruder▁6153
▁Henry▁6154
▁Beerdigung▁6155
▁Island▁6156
▁hielt▁6157
▁Toilette▁6158
weg▁6159
▁Wagen▁6160
▁Schwester▁6161
▁stieg▁6162
▁blieb▁6163
▁wusste▁6164
wüchs▁6165
▁Sohn▁6166
▁beer▁6167
▁Gegenwart▁6168
▁entschuldig▁6169
▁lo▁6170
▁betrachte▁6171
ähm▁6172
▁Geisel▁6173
▁zwölf▁6174
Spiel▁6175
▁Trainer▁6176
▁erwartete▁6177
▁wütend▁6178
▁Himmels▁6179
▁versetze▁6180
▁12▁6181
▁Mi▁6182
▁Innenstadt▁6183
▁Nachbar▁6184
▁Johnny▁6185
▁jüngere▁6186
▁rum▁6187
▁schräg▁6188
▁Jung▁6189
kind▁6190
berdosi▁6191
▁Heroin▁6192
▁gestorben▁6193
▁Bursche▁6194
▁cool▁6195
▁Sex▁6196
spielen▁6197
▁Hey▁6198
▁nannte▁6199
▁Anthon▁6200
▁rannte▁6201
▁öffnete▁6202
▁Will▁6203
▁meinte▁6204
Beziehung▁6205
▁lebte▁6206
▁hieß▁6207
▁Drogen▁6208
▁Kiste▁6209
▁unmittelbar▁6210
▁Gefahr▁6211
ngste▁6212
▁lebenslange▁6213
▁Geheim▁6214
▁schlimmer▁6215
▁erwartet▁6216
▁stet▁6217
▁Pi▁6218
▁vornehm▁6219
objekt▁6220
▁Nachbarschaft▁6221
heila▁6222
▁nackt▁6223
▁psychisch▁6224
▁krank▁6225
▁unpassend▁6226
▁vergewaltigt▁6227
selbe▁6228
▁schließe▁6229
▁stelle▁6230
platz▁6231
▁tue▁6232
▁überlege▁6233
▁rauskomm▁6234
▁Weisheit▁6235
öffne▁6236
▁Hosen▁6237
stall▁6238
zimmer▁6239
▁Arzt▁6240
▁froh▁6241
▁merkte▁6242
gesichts▁6243
▁fühlte▁6244
▁davor▁6245
▁fallen▁6246
▁total▁6247
▁Eigentum▁6248
▁Basis▁6249
▁Grundlage▁6250
wall▁6251
▁Gesundheits▁6252
behörde▁6253
▁männliche▁6254
probleme▁6255
▁Ausland▁6256
▁festhalten▁6257
▁Stan▁6258
▁McChr▁6259
▁Vier▁6260
▁Mc▁6261
▁Christ▁6262
▁Berufe▁6263
▁zuhört▁6264
▁lernt▁6265
▁Scheitern▁6266
▁Dienstag▁6267
morgen▁6268
▁absolvier▁6269
sprung▁6270
▁Trainings▁6271
▁Routine▁6272
▁27▁6273
▁Army▁6274
übung▁6275
risch▁6276
▁Kumpel▁6277
▁legs▁6278
10▁6279
▁Anordnung▁6280
▁Trag▁6281
▁sorgfältig▁6282
▁Reserve▁6283
▁Kampf▁6284
▁Sprung▁6285
operation▁6286
prüf▁6287
▁fasst▁6288
▁Brustkorb▁6289
gezogen▁6290
▁Ok▁6291
ve▁6292
▁geladen▁6293
▁erheb▁6294
▁Air▁6295
▁Force▁6296
▁heb▁6297
▁fl▁6298
▁Kommando▁6299
hinweis▁6300
denkst▁6301
ör▁6302
▁steh▁6303
link▁6304
zieh▁6305
läuf▁6306
▁frische▁6307
▁herein▁6308
▁leuchtet▁6309
▁springt▁6310
atten▁6311
kram▁6312
▁star▁6313
▁Kinn▁6314
▁Brust▁6315
bei▁6316
akademi▁6317
▁Hypothese▁6318
stoß▁6319
▁öffnet▁6320
▁bekomm▁6321
Unterbewusstsein▁6322
schlagen▁6323
schieben▁6324
▁land▁6325
▁locker▁6326
▁Rucksack▁6327
▁Landung▁6328
▁Wa▁6329
▁Oberschenkel▁6330
▁Drehung▁6331
▁knapp▁6332
springen▁6333
▁landete▁6334
▁tat▁6335
▁gebrochen▁6336
▁Banker▁6337
▁Ausrüstung▁6338
einsatz▁6339
▁zurückkehren▁6340
▁Tun▁6341
▁irgendein▁6342
▁11.▁6343
etz▁6344
▁46▁6345
▁Brigade▁6346
gravier▁6347
nderungen▁6348
▁Robert▁6349
▁Lee▁6350
▁John▁6351
▁Bu▁6352
ford▁6353
▁Schlacht▁6354
▁Get▁6355
▁Vietnam▁6356
▁Glauben▁6357
▁klug▁6358
▁treu▁6359
▁lügen▁6360
▁Stich▁6361
▁Laufbahn▁6362
▁Bat▁6363
ure▁6364
▁Ba▁6365
tail▁6366
lon▁6367
ystal▁6368
▁fand▁6369
▁29▁6370
ometer▁6371
Ma▁6372
sche▁6373
▁zusammenge▁6374
▁Dialog▁6375
chef▁6376
▁Training▁6377
▁Center▁6378
rwin▁6379
bung▁6380
▁Angriff▁6381
graue▁6382
▁klassische▁6383
▁bereitet▁6384
▁hindurch▁6385
befehl▁6386
▁Einheit▁6387
▁vernichtet▁6388
▁Gegner▁6389
▁anstrengen▁6390
▁mobile▁6391
▁Hör▁6392
▁Nach▁6393
besprechung▁6394
ied▁6395
errichten▁6396
▁Da▁6397
▁etc▁6398
▁Zylinder▁6399
▁Teppich▁6400
eur▁6401
▁enttäuscht▁6402
▁entschuldige▁6403
▁Satz▁6404
▁scheitern▁6405
▁Versager▁6406
▁Chr▁6407
▁Genauigkeit▁6408
▁Bewusstsein▁6409
▁Truppe▁6410
▁Führungskräfte▁6411
▁Techniken▁6412
konferenz▁6413
▁Online▁6414
Ch▁6415
Mails▁6416
▁Telefon▁6417
▁22▁6418
▁operiert▁6419
zig▁6420
▁Zuversicht▁6421
plätze▁6422
▁entstand▁6423
werten▁6424
eg▁6425
▁Vorgesetzte▁6426
▁überzeugen▁6427
▁elektronische▁6428
▁gescheitert▁6429
hofft▁6430
▁erneuer▁6431
gesetze▁6432
▁Anforderung▁6433
kämpfer▁6434
tech▁6435
▁bestand▁6436
▁jung▁6437
▁Man▁6438
▁Befehl▁6439
▁Konsens▁6440
▁Taliban▁6441
landet▁6442
▁Einheiten▁6443
▁Ranger▁6444
öte▁6445
▁afghanische▁6446
▁Sir▁6447
▁Vokabular▁6448
▁Fertigkeit▁6449
▁digitale▁6450
▁ältere▁6451
etwa▁6452
▁Umkehr▁6453
▁angewendet▁6454
skraft▁6455
▁glaubwürdig▁6456
▁anerkannt▁6457
▁brandneue▁6458
▁gezwungen▁6459
▁transparent▁6460
▁zuzuhören▁6461
geordnet▁6462
grade▁6463
▁add▁6464
▁Akku▁6465
▁Irak▁6466
Offizier▁6467
▁verwickelt▁6468
▁Nachfrage▁6469
▁Gefecht▁6470
▁zusehen▁6471
▁aufeinander▁6472
▁Seh▁6473
▁verb▁6474
acht▁6475
trop▁6476
gelegt▁6477
▁Zeile▁6478
▁lautet▁6479
▁Gedicht▁6480
brauchst▁6481
▁kraftvoll▁6482
▁Heirat▁6483
üb▁6484
▁kraftvolle▁6485
▁Zugehörigkeit▁6486
▁pflegen▁6487
▁ange▁6488
muskel▁6489
maschine▁6490
▁Wasch▁6491
brett▁6492
▁Nar▁6493
lässt▁6494
▁verlassen▁6495
ru▁6496
▁Mur▁6497
uga▁6498
ham▁6499
binden▁6500
Revolution▁6501
▁Einkauf▁6502
▁monatlich▁6503
▁Bedürfnisse▁6504
ob▁6505
Forschungsarbeit▁6506
▁Geschäftsmodell▁6507
▁Ruhm▁6508
▁verdient▁6509
back▁6510
▁Ehe▁6511
▁beeindrucken▁6512
▁hinterher▁6513
▁eklig▁6514
▁L▁6515
appen▁6516
▁trug▁6517
▁Motorrad▁6518
▁begriff▁6519
▁Maßnahme▁6520
half▁6521
▁Periode▁6522
▁verwende▁6523
▁wüsste▁6524
▁könne▁6525
▁täte▁6526
▁kürz▁6527
▁schockiert▁6528
▁Gebrauch▁6529
▁Finanz▁6530
▁Laden▁6531
▁Binde▁6532
wickeln▁6533
▁verboten▁6534
▁Kondom▁6535
▁allererste▁6536
gefasst▁6537
▁darf▁6538
▁Baumwolle▁6539
▁Penn▁6540
nde▁6541
▁Bangalore▁6542
▁Opfer▁6543
▁Sh▁6544
anti▁6545
▁Diaman▁6546
▁Schokolade▁6547
litz▁6548
rang▁6549
heirat▁6550
▁verweiger▁6551
▁Ehefrau▁6552
üchtig▁6553
▁weibliche▁6554
▁kriege▁6555
▁Medizinstudent▁6556
gesagt▁6557
▁setzte▁6558
▁Armstrong▁6559
enz▁6560
▁Mount▁6561
▁Everest▁6562
getragen▁6563
▁füllt▁6564
blut▁6565
▁band▁6566
▁Schlauch▁6567
hose▁6568
gedrückt▁6569
▁sodas▁6570
gne▁6571
▁elend▁6572
▁Feuchtigkeit▁6573
▁einschließlich▁6574
▁Scheidung▁6575
drohung▁6576
innen▁6577
rumpf▁6578
karte▁6579
▁Studentin▁6580
▁ran▁6581
▁Zellulose▁6582
▁Kiefer▁6583
holz▁6584
▁teure▁6585
▁Fertigung▁6586
anlage▁6587
▁verarbeiten▁6588
▁Sackgasse▁6589
maschinen▁6590
▁Bauer▁6591
▁Roh▁6592
materiali▁6593
▁Maschinen▁6594
▁Patent▁6595
▁unver▁6596
▁ließ▁6597
▁anfäng▁6598
▁langweilig▁6599
▁angehäuft▁6600
▁ländliche▁6601
▁Verfügung▁6602
▁Pflanzen▁6603
▁entschlossen▁6604
▁23▁6605
▁Bundesstaat▁6606
▁eingerichtet▁6607
▁siebte▁6608
konzern▁6609
▁Erstaunen▁6610
▁MBA▁6611
brecher▁6612
▁Co▁6613
ator▁6614
▁Gas▁6615
professor▁6616
IM▁6617
▁Warum▁6618
▁kostengünstig▁6619
elbsthilfegruppe▁6620
▁Pu▁6621
▁Gigant▁6622
▁Harvard▁6623
▁Oxford▁6624
▁600▁6625
▁100-▁6626
Pro▁6627
▁verdammt▁6628
hafte▁6629
▁Job▁6630
ak▁6631
shmi▁6632
rannt▁6633
▁Hosentasche▁6634
▁vordere▁6635
Bewegung▁6636
▁open▁6637
▁software▁6638
▁unge▁6639
▁gebildet▁6640
▁Clar▁6641
ow▁6642
ki▁6643
manda▁6644
▁China▁6645
▁Pek▁6646
▁Party▁6647
▁saß▁6648
kräftig▁6649
▁Nick▁6650
brille▁6651
▁Fliege▁6652
▁Fulbright▁6653
pend▁6654
rus▁6655
▁erforschen▁6656
▁Geschenk▁6657
▁eifrig▁6658
nden▁6659
tin▁6660
chte▁6661
▁Notiz▁6662
▁erfuhr▁6663
▁chinesische▁6664
▁Vertreter▁6665
ozi▁6666
▁verstehe▁6667
Geschäft▁6668
uft▁6669
feuert▁6670
▁heirate▁6671
erence▁6672
▁Br▁6673
▁studierte▁6674
▁Chinesisch▁6675
lizenz▁6676
kü▁6677
▁Di▁6678
xi▁6679
▁Beruf▁6680
▁Diagnose▁6681
▁Krebs▁6682
▁bekamen▁6683
▁clever▁6684
▁tap▁6685
▁bewahren▁6686
▁Chirurg▁6687
▁Chirurgen▁6688
logen▁6689
▁Nieren▁6690
krebs▁6691
▁ansah▁6692
▁seltene▁6693
▁äußerst▁6694
▁aggressive▁6695
▁Mysteri▁6696
▁trainiert▁6697
▁Baseball▁6698
▁baut▁6699
▁Spezialist▁6700
▁such▁6701
▁Heil▁6702
methode▁6703
▁Todesurteil▁6704
smal▁6705
smethode▁6706
▁aggressiv▁6707
reicht▁6708
▁Italien▁6709
▁Australien▁6710
▁zeichnen▁6711
▁Horizont▁6712
▁exoti▁6713
▁experiment▁6714
ippe▁6715
▁frage▁6716
▁Mitternacht▁6717
▁Intensiv▁6718
▁Assistenz▁6719
▁getroffen▁6720
▁stirb▁6721
▁Medikament▁6722
▁wirksam▁6723
▁triumph▁6724
glück▁6725
ender▁6726
▁Wimper▁6727
cken▁6728
▁bestreite▁6729
▁schlimmsten▁6730
stimmt▁6731
▁Sterbe▁6732
leitung▁6733
▁getrieben▁6734
▁Wahnsinn▁6735
Tri▁6736
▁Journalist▁6737
▁Experten▁6738
▁griff▁6739
bereit▁6740
▁kannte▁6741
▁Wünsche▁6742
▁eindeutig▁6743
▁definiert▁6744
genau▁6745
▁peinlich▁6746
än▁6747
nnähernd▁6748
machen▁6749
▁Mediziner▁6750
▁verdräng▁6751
▁Vernunft▁6752
▁nützliche▁6753
▁Denkweise▁6754
▁miterlebt▁6755
▁Onkologe▁6756
▁Direktor▁6757
medizin▁6758
▁Dar▁6759
mouth▁6760
▁Medica▁6761
▁School▁6762
▁unsterblich▁6763
Spruch▁6764
▁Fe▁6765
ature▁6766
gefühl▁6767
▁bedeutete▁6768
▁Kämpfer▁6769
baren▁6770
▁Sterben▁6771
▁heilen▁6772
▁anscheinen▁6773
▁Versagen▁6774
▁Geh▁6775
lassen▁6776
nerkennung▁6777
▁Abschied▁6778
▁liebte▁6779
▁Dich▁6780
▁Dichter▁6781
stan▁6782
ino▁6783
va▁6784
dichte▁6785
▁Marc▁6786
▁Antoni▁6787
wich▁6788
▁Alexandr▁6789
▁besiegt▁6790
▁solle▁6791
▁würdig▁6792
▁Do▁6793
▁fe▁6794
▁Bitte▁6795
ehen▁6796
▁Klänge▁6797
▁geheimnisvoll▁6798
▁verlier▁6799
▁offizielle▁6800
bersetzung▁6801
▁basieren▁6802
▁überwältigend▁6803
▁Präsenz▁6804
▁DNA▁6805
▁Versicherung▁6806
▁Ga▁6807
bre▁6808
▁Rohstoff▁6809
bö▁6810
thiopien▁6811
▁gründen▁6812
▁Wohlstand▁6813
▁Bauern▁6814
▁minimieren▁6815
Empfänger▁6816
▁Himalaya▁6817
▁fern▁6818
▁Königreich▁6819
▁Bhutan▁6820
▁beschlossen▁6821
▁Brut▁6822
sozial▁6823
▁Bruttoinlands▁6824
▁funktionierende▁6825
▁Wahlmöglichkeit▁6826
▁indische▁6827
Nobelpreis▁6828
▁verlieh▁6829
▁Hungersnot▁6830
▁Verfügbarkeit▁6831
versorgung▁6832
▁Menschlichkeit▁6833
▁gelten▁6834
▁Hunger▁6835
▁Wendepunkt▁6836
meist▁6837
▁Afrikaner▁6838
▁afrikanische▁6839
▁weitest▁6840
kapital▁6841
stellbare▁6842
▁Dünger▁6843
▁14▁6844
▁Lateinamerika▁6845
▁Zustand▁6846
ür▁6847
▁Preise▁6848
▁Früchte▁6849
saison▁6850
frage▁6851
▁Unternehmertum▁6852
▁Theodor▁6853
tz▁6854
▁197▁6855
▁effizient▁6856
▁arm▁6857
▁Profit▁6858
▁ausgerichtet▁6859
▁fair▁6860
▁Geschäfte▁6861
▁liberal▁6862
▁wirken▁6863
▁kommerzielle▁6864
▁Akteure▁6865
▁Anstieg▁6866
ernährung▁6867
▁prognostizier▁6868
port▁6869
▁kosten▁6870
▁stagnier▁6871
▁Verwendung▁6872
nahm▁6873
▁Erwartungen▁6874
▁angetrieben▁6875
formen▁6876
▁Händler▁6877
▁interview▁6878
▁daneben▁6879
▁Reformen▁6880
▁Bad▁6881
▁Transaktion▁6882
▁erarbeitet▁6883
elekommunikation▁6884
wesenheit▁6885
institut▁6886
information▁6887
ifizierung▁6888
▁zuverlässig▁6889
▁Käufer▁6890
▁Verkäufe▁6891
äufe▁6892
▁Netzwerken▁6893
▁wechselt▁6894
▁Konsumenten▁6895
äcke▁6896
▁bestätigt▁6897
uan▁6898
signale▁6899
Defizit▁6900
▁Handels▁6901
anne▁6902
▁andauernd▁6903
▁blind▁6904
▁gänzlich▁6905
gewiesen▁6906
▁Erb▁6907
▁unfähig▁6908
▁verringern▁6909
chten▁6910
▁tragen▁6911
periode▁6912
risiko▁6913
▁aufbaut▁6914
▁bedroht▁6915
▁flu▁6916
▁Mais▁6917
▁wahnsinnig▁6918
▁direkte▁6919
▁höhere▁6920
▁Saatgut▁6921
sicherheit▁6922
bauer▁6923
▁Top▁6924
▁Felder▁6925
▁ernten▁6926
▁berechnet▁6927
▁Tonnen▁6928
▁Frühjahr▁6929
▁Juli▁6930
▁ernste▁6931
genügend▁6932
schüsse▁6933
▁Verbrauch▁6934
▁Entwicklungs▁6935
▁verspreche▁6936
▁Strecke▁6937
▁Hilfs▁6938
lösung▁6939
▁ausländische▁6940
▁Strategie▁6941
▁1980▁6942
bekommen▁6943
▁Institution▁6944
▁explodieren▁6945
omfort▁6946
able▁6947
▁Senior▁6948
▁Weltbank▁6949
kehren▁6950
Strateg▁6951
▁Spender▁6952
EC▁6953
▁etablier▁6954
▁Neues▁6955
▁82▁6956
▁St▁6957
▁Illinois▁6958
▁Michigan▁6959
stunde▁6960
▁Chicago▁6961
kammer▁6962
▁berühmteste▁6963
▁etabliert▁6964
▁lud▁6965
ähne▁6966
▁sand▁6967
▁ankam▁6968
▁Verluste▁6969
▁Lake▁6970
▁werfen▁6971
▁Farm▁6972
▁Notwendigkeit▁6973
▁Termin▁6974
▁Empfang▁6975
▁Handel▁6976
ätigt▁6977
▁ausgehend▁6978
▁großartigste▁6979
▁begu▁6980
▁gehandelt▁6981
▁Super▁6982
macht▁6983
▁industrialisier▁6984
▁Referenz▁6985
▁überwiegend▁6986
stechnologie▁6987
dom▁6988
▁Schwellenländer▁6989
▁US▁6990
▁Wachstum▁6991
▁V▁6992
▁Com▁6993
ity▁6994
▁Ex▁6995
hang▁6996
▁überholt▁6997
▁zweitgrößte▁6998
▁organisierte▁6999
zufügen▁7000
▁kreieren▁7001
▁dient▁7002
▁Integr▁7003
▁Effizienz▁7004
▁bewältigen▁7005
▁beschrieben▁7006
▁Entwurf▁7007
entwicklung▁7008
▁hä▁7009
▁Geldgeber▁7010
▁IT▁7011
▁Lager▁7012
▁agieren▁7013
schrei▁7014
ca▁7015
é▁7016
zentrum▁7017
▁Fern▁7018
▁Info▁7019
park▁7020
▁Ad▁7021
gewickelt▁7022
▁grundlegend▁7023
▁ausgestellt▁7024
rechnung▁7025
abläuf▁7026
▁Betrag▁7027
▁regulator▁7028
▁legal▁7029
▁Anliegen▁7030
▁Parlament▁7031
▁Wichtige▁7032
verteilung▁7033
▁Höchst▁7034
▁informiert▁7035
tscheidungen▁7036
bauen▁7037
schläge▁7038
▁Kurs▁7039
▁tätig▁7040
▁strategi▁7041
region▁7042
▁Mangel▁7043
▁erschein▁7044
sektor▁7045
▁ebenso▁7046
zugrundeliegende▁7047
▁Millenium▁7048
▁Präsidenten▁7049
llerwichtigste▁7050
▁Erträge▁7051
▁Plattform▁7052
▁pan▁7053
afrikanische▁7054
▁Rohstoffe▁7055
▁heimische▁7056
▁Umfang▁7057
▁einnehmen▁7058
▁verdoppelt▁7059
▁Südafrika▁7060
▁Wille▁7061
▁Vorschlag▁7062
▁Honor▁7063
▁Langsamkeit▁7064
▁Schnelligkeit▁7065
▁Bremse▁7066
▁allzu▁7067
▁Beobachtung▁7068
öffentliche▁7069
▁vermarkte▁7070
▁Studio▁7071
▁Interview▁7072
▁präsentiere▁7073
▁langsamer▁7074
▁Beitrag▁7075
NN▁7076
▁Maske▁7077
▁Sendung▁7078
▁Zeitraffer▁7079
steckt▁7080
▁besessen▁7081
▁Wett▁7082
▁Car▁7083
ish▁7084
▁Profil▁7085
▁erwähne▁7086
▁sofortige▁7087
▁Befriedig▁7088
▁drüber▁7089
▁Walk▁7090
▁Speed▁7091
▁Date▁7092
ating▁7093
▁Fitness▁7094
club▁7095
oga▁7096
tät▁7097
▁amüsant▁7098
▁sprint▁7099
▁Schaden▁7100
▁rasant▁7101
▁Lebensstil▁7102
▁zahlen▁7103
ruf▁7104
▁ra▁7105
▁Warnung▁7106
▁Bur▁7107
out▁7108
Syndrom▁7109
scha▁7110
▁Brüche▁7111
▁Geduld▁7112
▁Ruhe▁7113
geschichten▁7114
▁Kate▁7115
gang▁7116
▁Absatz▁7117
kennt▁7118
stritten▁7119
▁entspannen▁7120
liest▁7121
kampf▁7122
artikel▁7123
tipp▁7124
▁schnelle▁7125
log▁7126
▁erschreckt▁7127
▁gesucht▁7128
▁verkürz▁7129
▁Abstand▁7130
▁Whoa▁7131
▁abend▁7132
▁Sil▁7133
speisen▁7134
▁legte▁7135
▁beiseite▁7136
▁gründlich▁7137
▁wünschen▁7138
▁Verdächtige▁7139
▁Verstädterung▁7140
▁eigentliche▁7141
zykl▁7142
gemütlich▁7143
▁belebt▁7144
▁Ressource▁7145
icker▁7146
▁nutzt▁7147
▁Benjamin▁7148
▁Franklin▁7149
▁psycho▁7150
logisch▁7151
▁Gleichung▁7152
▁aufgestellt▁7153
▁Rennen▁7154
linie▁7155
▁Den▁7156
▁Kult▁7157
schä▁7158
▁gängige▁7159
Hex▁7160
essel▁7161
▁Momente▁7162
▁bezeichnen▁7163
▁Widerspruch▁7164
berblick▁7165
▁Slow▁7166
ood▁7167
▁100.000▁7168
▁verständlich▁7169
▁gesünder▁7170
▁explosion▁7171
▁Zunahme▁7172
▁ökologische▁7173
plan▁7174
zubauen▁7175
ities▁7176
▁überdenken▁7177
▁ermutigt▁7178
▁Rose▁7179
▁zueinander▁7180
ränken▁7181
▁Verkehr▁7182
▁Grünfläche▁7183
▁philosophische▁7184
▁verkünde▁7185
▁Anwohner▁7186
▁ergänzen▁7187
▁alternative▁7188
▁sanfte▁7189
▁ganzheitliche▁7190
mple▁7191
▁persönlich▁7192
▁bezweif▁7193
▁Trend▁7194
▁Ak▁7195
sagen▁7196
▁Entspannung▁7197
▁Fakultät▁7198
▁ne▁7199
Magazin▁7200
▁Orgasmus▁7201
▁Schlafzimmer▁7202
▁psychologische▁7203
▁emotional▁7204
▁spirituelle▁7205
▁Spannung▁7206
aufbau▁7207
▁Point▁7208
ster▁7209
wort▁7210
iebhaber▁7211
▁tan▁7212
▁Paare▁7213
ströme▁7214
▁scheinen▁7215
▁gegangen▁7216
Stunden▁7217
▁europäische▁7218
▁klasse▁7219
▁Norwegen▁7220
▁Schweden▁7221
▁Dänemark▁7222
wettbewerbsfähig▁7223
▁Amerikaner▁7224
▁37▁7225
▁Kindheit▁7226
▁anguck▁7227
▁erstaunt▁7228
▁Hausaufgaben▁7229
▁Nachhilfe▁7230
▁Hob▁7231
▁Website▁7232
▁bekomme▁7233
▁Rande▁7234
unterricht▁7235
▁verbannt▁7236
stapel▁7237
erfolg▁7238
orientierte▁7239
gebühr▁7240
▁flipp▁7241
▁Nein▁7242
▁Erholung▁7243
▁Zensur▁7244
▁Elite▁7245
Uni▁7246
cheln▁7247
füllt▁7248
räumt▁7249
Universität▁7250
▁Briefe▁7251
fäng▁7252
▁Brief▁7253
▁Straf▁7254
zettel▁7255
▁Fahren▁7256
▁recherchiert▁7257
▁Food▁7258
▁italienische▁7259
▁Autobahn▁7260
▁gefahren▁7261
▁sexy▁7262
▁Adrenalin▁7263
▁meta▁7264
phy▁7265
▁erfüllen▁7266
▁Ablenkung▁7267
▁weiterer▁7268
achtens▁7269
▁Tabu▁7270
▁dreckig▁7271
▁faul▁7272
tu▁7273
▁anzugeh▁7274
25▁7275
▁Stau▁7276
⁄▁7277
2▁7278
▁revolutionäre▁7279
▁Fernseher▁7280
▁Büro▁7281
▁empfand▁7282
▁herauskam▁7283
ade▁7284
▁begrüßt▁7285
▁Genuss▁7286
press▁7287
zufinden▁7288
▁JA▁7289
▁lebe▁7290
▁genieß▁7291
▁spiele▁7292
▁inner▁7293
▁Schildkröte▁7294
einstellung▁7295
▁reichhaltig▁7296
▁trage▁7297
▁PC▁7298
▁passe▁7299
▁10-▁7300
▁unterhalten▁7301
▁verabscheu▁7302
liste▁7303
▁grau▁7304
▁Belohnung▁7305
▁schätze▁7306
▁folgt▁7307
▁Lese▁7308
▁Taschen▁7309
tür▁7310
▁Taxi▁7311
▁Treppe▁7312
gebastelt▁7313
▁Aufkleber▁7314
▁Tim▁7315
▁Str▁7316
up▁7317
geklebt▁7318
▁Für▁7319
les▁7320
▁Lock▁7321
wood▁7322
▁Kondome▁7323
▁Kongo▁7324
▁HIV▁7325
▁Demokrat▁7326
▁Republik▁7327
ilfsorganisation▁7328
▁kostenlos▁7329
▁billig▁7330
▁überschwemmt▁7331
▁reformier▁7332
▁Marketing▁7333
▁Model▁7334
▁Phil▁7335
▁faktisch▁7336
▁Westeuropa▁7337
▁Krieges▁7338
▁zahlreiche▁7339
▁Pre▁7340
rate▁7341
▁1,3▁7342
▁76▁7343
▁93▁7344
0.000▁7345
ürf▁7346
▁ledig▁7347
▁lebensrettende▁7348
▁Medikamente▁7349
▁Spenden▁7350
▁geringe▁7351
▁Dam▁7352
▁betreib▁7353
▁Kinshasa▁7354
▁geöffnet▁7355
▁Prostituierte▁7356
▁Joseph▁7357
▁Apotheke▁7358
▁günstig▁7359
kampagne▁7360
version▁7361
ika▁7362
▁schaute▁7363
schaften▁7364
▁Finanzierung▁7365
▁Treue▁7366
▁Trust▁7367
▁verpackt▁7368
Aid▁7369
▁Schachtel▁7370
männer▁7371
▁beschützt▁7372
▁vernünftig▁7373
▁unbedingt▁7374
▁wora▁7375
sprache▁7376
provok▁7377
aspekt▁7378
▁häufig▁7379
▁Verbreitung▁7380
▁Grey▁7381
lterwerden▁7382
▁verhindern▁7383
▁behauptet▁7384
▁verhindert▁7385
▁Schicksal▁7386
länge▁7387
rung▁7388
▁mittlere▁7389
▁Wesentliche▁7390
imini▁7391
▁irgendw▁7392
▁Eigen▁7393
▁gemein▁7394
▁tötet▁7395
▁ziehe▁7396
verständnis▁7397
▁Naja▁7398
▁ökologisch▁7399
explosion▁7400
▁Fü▁7401
▁letztendlich▁7402
ffentlichkeit▁7403
ari▁7404
▁zivil▁7405
▁tolerier▁7406
▁Elend▁7407
▁Trance▁7408
▁wertlos▁7409
▁Vorbereitung▁7410
▁Unruhe▁7411
▁Altern▁7412
▁legitim▁7413
▁beunruhigt▁7414
▁Nachteil▁7415
▁unnötig▁7416
▁entsprechend▁7417
▁verschwenden▁7418
▁folgender▁7419
▁befürchte▁7420
bevölkerung▁7421
berquer▁7422
▁Gil▁7423
▁stimme▁7424
▁Antworten▁7425
▁Sterberate▁7426
▁zöger▁7427
damm▁7428
▁Schar▁7429
begrenz▁7430
▁Lebenserwartung▁7431
▁halte▁7432
▁unmoralisch▁7433
▁Akt▁7434
▁unvermeidbar▁7435
▁lächerlich▁7436
▁Positive▁7437
▁eventuell▁7438
▁mission▁7439
regen▁7440
▁Definition▁7441
▁Nebenwirkung▁7442
▁Stoffwechsel▁7443
▁Aussage▁7444
▁leblos▁7445
fährt▁7446
▁Reparatur▁7447
mechanism▁7448
▁tagtäglich▁7449
▁Nebeneffekt▁7450
▁ausgezeichnet▁7451
▁verzöger▁7452
ria▁7453
rische▁7454
▁interven▁7455
▁relevant▁7456
▁verurteilt▁7457
▁Ursachen▁7458
▁Organismen▁7459
▁erbärmlich▁7460
▁RNA▁7461
▁Ger▁7462
ologie▁7463
▁überzeugend▁7464
ise▁7465
▁Lebensjahr▁7466
▁55▁7467
▁robust▁7468
▁verfügbar▁7469
▁bedeuten▁7470
▁Durchbrüche▁7471
▁schrittweise▁7472
▁Vorhersage▁7473
▁190▁7474
▁beständig▁7475
förmig▁7476
▁Abfolge▁7477
▁Luftfahrt▁7478
svermögen▁7479
▁typisch▁7480
▁fundamental▁7481
▁Durchbruch▁7482
▁Antibiotika▁7483
verlängern▁7484
▁Schei▁7485
▁verbleibende▁7486
holen▁7487
▁lebende▁7488
▁1000▁7489
verbesserung▁7490
▁ausgedacht▁7491
▁Langlebigkeit▁7492
geschwindigkeit▁7493
▁Sturz▁7494
flug▁7495
▁entkommen▁7496
▁jünger▁7497
▁physisch▁7498
▁geringere▁7499
bedingte▁7500
Schlussfolgerung▁7501
▁Katastrophen▁7502
einhalb▁7503
▁Mäuse▁7504
▁einfallsreich▁7505
▁fünfte▁7506
▁hinzugefügt▁7507
▁verdreifach▁7508
▁gleicher▁7509
▁spekuliere▁7510
▁Spekulation▁7511
antwort▁7512
▁schweigen▁7513
izon▁7514
maß▁7515
▁Maus▁7516
▁neigt▁7517
▁unterschätz▁7518
▁schliess▁7519
▁erwähnte▁7520
sstrategie▁7521
▁Schädigung▁7522
weist▁7523
▁ursprüngliche▁7524
▁Diagramm▁7525
▁reduzieren▁7526
▁kontinuierlich▁7527
▁Ingenieur▁7528
Ansatz▁7529
ansatz▁7530
▁greif▁7531
▁loslege▁7532
▁reparieren▁7533
▁Beschwerde▁7534
▁bräuchte▁7535
▁Illustration▁7536
▁unvollständig▁7537
▁rechten▁7538
▁Kategorie▁7539
▁Zell▁7540
verlust▁7541
▁Chromosomen▁7542
▁Beweis▁7543
▁worau▁7544
▁langlebig▁7545
schäd▁7546
▁Protein▁7547
▁Biologie▁7548
▁zitiere▁7549
▁Arbeiten▁7550
▁Optimismus▁7551
▁basiert▁7552
ologe▁7553
▁radikale▁7554
kehr▁7555
▁Mainstream▁7556
▁resistent▁7557
ession▁7558
▁Genom▁7559
▁kürzeste▁7560
▁entschlüssel▁7561
▁Nun▁7562
▁Me▁7563
hus▁7564
▁Anreiz▁7565
▁Institut▁7566
menschen▁7567
freund▁7568
gier▁7569
▁bekämpfen▁7570
▁AG▁7571
▁Immunsystem▁7572
▁bekämpft▁7573
▁Individu▁7574
pflanzen▁7575
▁Tel▁7576
ome▁7577
sterblichkeit▁7578
▁abgeschlossen▁7579
▁übliche▁7580
▁Resultat▁7581
▁Selektion▁7582
arian▁7583
▁Voll▁7584
▁Genen▁7585
▁Gene▁7586
▁Nachkommen▁7587
▁Schwankung▁7588
▁verlängert▁7589
unfall▁7590
▁abnehmen▁7591
▁erhöh▁7592
▁Gehirnzellen▁7593
▁Embryo▁7594
▁Implikation▁7595
▁grundsätzlich▁7596
▁ersetzen▁7597
▁Neuronen▁7598
▁Ersatz▁7599
▁kognitive▁7600
▁herab▁7601
▁Hydra▁7602
▁Gewebe▁7603
▁Lewi▁7604
gh▁7605
bewusstsein▁7606
▁Schwimmen▁7607
▁Nordpol▁7608
gefunden▁7609
▁minus▁7610
▁1,7▁7611
▁grauenhaft▁7612
▁schoss▁7613
▁gefroren▁7614
▁4,5▁7615
▁verschwinden▁7616
▁furchtbar▁7617
▁Wu▁7618
finger▁7619
▁gef▁7620
▁expand▁7621
▁eingefroren▁7622
▁platzt▁7623
▁solch▁7624
▁kalte▁7625
▁Klimawandels▁7626
▁hinterließ▁7627
▁Schlachtfeld▁7628
▁Dritte▁7629
▁Instabilität▁7630
▁Bangladesh▁7631
▁symbolisch▁7632
▁28▁7633
▁beeindruckende▁7634
▁hinauf▁7635
wi▁7636
Team▁7637
▁53▁7638
▁Meeresspiegel▁7639
▁durchführen▁7640
höhe▁7641
krank▁7642
aktion▁7643
▁Toten▁7644
▁demütig▁7645
▁mächtiger▁7646
let▁7647
▁geschmolzene▁7648
ggression▁7649
▁warf▁7650
▁schwamm▁7651
▁flach▁7652
▁wegzu▁7653
▁Züge▁7654
▁Rand▁7655
▁Ertrinken▁7656
▁friedlich▁7657
▁Schwach▁7658
▁furchterregend▁7659
▁packte▁7660
dient▁7661
▁Acht▁7662
▁Hügel▁7663
ruhe▁7664
schwimmen▁7665
▁schwimm▁7666
▁Demu▁7667
▁irgend▁7668
▁benötige▁7669
▁gelebt▁7670
▁besiedelt▁7671
▁betrug▁7672
▁Weltbevölkerung▁7673
,8▁7674
▁könnt▁7675
▁Eu▁7676
▁Enkelkinder▁7677
ehrt▁7678
▁zukunftsfähig▁7679
▁herbeizu▁7680
▁blogg▁7681
▁tweet▁7682
▁einhundert▁7683
▁Hodg▁7684
▁Humor▁7685
▁ansässig▁7686
▁Bachelor▁7687
▁Fernseh▁7688
▁Sammler▁7689
▁With▁7690
atalog▁7691
▁Ze▁7692
Gebäude▁7693
▁außerirdische▁7694
▁196▁7695
▁trans▁7696
dimensional▁7697
▁bevölkert▁7698
▁Spezies▁7699
▁Dreh▁7700
restaurant▁7701
höfe▁7702
▁Stone▁7703
▁Designs▁7704
ui▁7705
▁Park▁7706
▁enthüllt▁7707
▁Jet▁7708
Zeit▁7709
zeichnung▁7710
▁bevorzugt▁7711
▁Schlangen▁7712
▁Kristall▁7713
ic▁7714
▁Sal▁7715
▁Philipp▁7716
▁Starck▁7717
▁drohen▁7718
▁Gabe▁7719
▁entworfen▁7720
ors▁7721
uvre▁7722
▁Lobby▁7723
achtet▁7724
▁Spa▁7725
▁Drei▁7726
▁befestige▁7727
augen▁7728
▁erschwinglich▁7729
▁Küchen▁7730
▁Schub▁7731
▁harte▁7732
▁design▁7733
▁Post▁7734
▁Heiz▁7735
platte▁7736
▁kapier▁7737
▁Chi▁7738
▁iPhone▁7739
▁Badezimmer▁7740
▁lese▁7741
▁schaue▁7742
▁Anruf▁7743
▁vergess▁7744
▁Wow▁7745
Effekt▁7746
▁Gewohnheit▁7747
▁empfinde▁7748
hängen▁7749
▁J▁7750
▁Stephan▁7751
schreiben▁7752
gegangen▁7753
▁liest▁7754
▁verstorben▁7755
▁kommende▁7756
▁Schreib▁7757
▁unausweichlich▁7758
rüber▁7759
▁fasziniert▁7760
▁Mike▁7761
▁Cyber▁7762
space▁7763
▁aufzeichne▁7764
▁Handschrift▁7765
buch▁7766
▁Stärken▁7767
▁Schwäche▁7768
▁benannt▁7769
▁Email▁7770
▁Umarmung▁7771
▁tausche▁7772
▁hole▁7773
▁Werten▁7774
▁finanzielle▁7775
▁unterzeichne▁7776
▁anregt▁7777
▁inspiriert▁7778
▁Recycling▁7779
▁erlern▁7780
▁plane▁7781
sammle▁7782
▁Autoren▁7783
▁veröffentlichen▁7784
▁versch▁7785
haufen▁7786
▁zusammenzu▁7787
▁Lin▁7788
gu▁7789
▁Grammatik▁7790
geschaut▁7791
▁unendliche▁7792
▁gefangen▁7793
▁zwing▁7794
▁Gewässer▁7795
▁sehnen▁7796
▁Seele▁7797
▁reinigen▁7798
kämpfe▁7799
▁lehrte▁7800
▁ermutigen▁7801
rude▁7802
▁Ufer▁7803
▁Andrew▁7804
▁Blu▁7805
▁Eich▁7806
hörn▁7807
kau▁7808
fline▁7809
▁geheime▁7810
▁materielle▁7811
▁Einzelteile▁7812
▁beruht▁7813
▁Architekten▁7814
▁Mischung▁7815
▁besuche▁7816
▁spazieren▁7817
▁insbesonder▁7818
▁kriegt▁7819
wunde▁7820
▁Abbildung▁7821
▁OP▁7822
▁Milchstraße▁7823
▁Unendlichkeit▁7824
▁Gesamt▁7825
▁Apollo▁7826
Bild▁7827
hnlichkeit▁7828
▁zusammenbring▁7829
Mann▁7830
▁repariert▁7831
aub▁7832
Protokoll▁7833
▁Box▁7834
com▁7835
▁Crowd▁7836
▁Big▁7837
▁Präsentation▁7838
leihen▁7839
▁Väter▁7840
▁einverstande▁7841
▁trenne▁7842
▁wiegt▁7843
▁komische▁7844
▁blink▁7845
▁reale▁7846
cast▁7847
▁Time▁7848
▁Warner▁7849
▁Glasfaser▁7850
▁Hudson▁7851
▁Häuserblock▁7852
bringt▁7853
▁Leitung▁7854
schlauch▁7855
▁Haare▁7856
▁Kanal▁7857
▁5000▁7858
▁angeschlossen▁7859
▁Hal▁7860
ax▁7861
▁Irland▁7862
▁dünne▁7863
▁geplant▁7864
▁Cooper▁7865
▁arbeitete▁7866
▁Communi▁7867
abteilung▁7868
▁kommuniziert▁7869
System▁7870
▁Engländer▁7871
industrie▁7872
▁beherrscht▁7873
▁42▁7874
▁Boom▁7875
▁vernetz▁7876
▁Bit▁7877
▁Lichtstrahl▁7878
▁suchten▁7879
schloss▁7880
fällt▁7881
▁erstaunliche▁7882
▁geographische▁7883
▁flüchtige▁7884
▁momentan▁7885
▁Tweet▁7886
Post▁7887
▁Folge▁7888
AC▁7889
▁Lis▁7890
▁Elfenbein▁7891
▁Ghana▁7892
▁Kam▁7893
▁Kürze▁7894
bedingung▁7895
fa▁7896
▁Bull▁7897
▁Ingenieure▁7898
▁Anschluss▁7899
Station▁7900
▁Inneren▁7901
▁Juwel▁7902
▁Faser▁7903
▁verschmelzen▁7904
▁Cloud▁7905
▁Anweisung▁7906
städte▁7907
mba▁7908
▁Mumbai▁7909
▁Sand▁7910
▁verdeckt▁7911
▁Stephen▁7912
▁vernetzt▁7913
▁Drähte▁7914
▁Schneide▁7915
▁Swami▁7916
anda▁7917
▁Sara▁7918
irrt▁7919
▁parallel▁7920
▁persönlicher▁7921
▁begleitet▁7922
▁hilflos▁7923
▁fur▁7924
▁Konsument▁7925
berleben▁7926
▁ausgestattet▁7927
▁Pflege▁7928
mutter▁7929
▁vollkommen▁7930
▁ergeben▁7931
▁voraus▁7932
▁verletzen▁7933
▁Verletzung▁7934
▁Schuld▁7935
▁Anklage▁7936
▁wahrhaft▁7937
▁beseitigen▁7938
▁erwachsen▁7939
▁mitfühlend▁7940
▁ausübt▁7941
▁Status▁7942
▁verfügt▁7943
▁Ganz▁7944
onsten▁7945
griff▁7946
▁Empathie▁7947
ble▁7948
don▁7949
▁End▁7950
echten▁7951
▁Match▁7952
schwitz▁7953
▁Tennis▁7954
tte▁7955
▁schütteln▁7956
▁streckt▁7957
▁Hemd▁7958
▁verwehr▁7959
fühlen▁7960
▁Geschlecht▁7961
▁Gericht▁7962
▁tragisch▁7963
▁Klam▁7964
▁Universum▁7965
▁Subjekt▁7966
▁versagt▁7967
▁Begrenzung▁7968
▁Kreditkarte▁7969
ündig▁7970
▁Sehnsucht▁7971
seligkeit▁7972
▁unterscheiden▁7973
▁Einsicht▁7974
▁Bestätigung▁7975
▁bedeutungsvoll▁7976
entsprechend▁7977
▁Laune▁7978
▁Bast▁7979
▁Manifestation▁7980
▁hervorruf▁7981
▁ausdrücken▁7982
▁verfügen▁7983
mat▁7984
▁Rad▁7985
▁fahren▁7986
▁Kochen▁7987
imitieren▁7988
▁Vorgänge▁7989
verb▁7990
▁Zähne▁7991
▁Lehre▁7992
▁Edit▁7993
graph▁7994
▁festzu▁7995
▁angeblich▁7996
▁giganti▁7997
mann▁7998
▁schw▁7999
▁Discover▁8000
▁Channel▁8001
▁Expedition▁8002
▁stattfand▁8003
▁Kurze▁8004
▁Ku▁8005
She▁8006
▁Teilnahme▁8007
▁historische▁8008
▁verdanke▁8009
▁2010▁8010
Veranstaltung▁8011
▁Blue▁8012
bla▁8013
▁Explorer▁8014
Gru▁8015
▁eingeladen▁8016
▁beteiligt▁8017
▁Jagd▁8018
Konferenz▁8019
Experte▁8020
▁Beobachten▁8021
▁optische▁8022
▁Wichtig▁8023
plattform▁8024
▁betont▁8025
▁verwendete▁8026
▁ferngesteuerte▁8027
▁Fahrzeuge▁8028
▁Vent▁8029
dacht▁8030
▁Lärm▁8031
of▁8032
▁Johnson▁8033
Link▁8034
▁Düsen▁8035
▁elektrisch▁8036
roboter▁8037
J▁8038
ag▁8039
▁schlug▁8040
▁Köder▁8041
batterie▁8042
betrieb▁8043
▁Beleuchtung▁8044
▁unsichtbar▁8045
▁primär▁8046
▁Blau▁8047
▁quasi▁8048
▁bio▁8049
▁Abwehr▁8050
ualle▁8051
lma▁8052
fressen▁8053
feind▁8054
bert▁8055
▁Raubtier▁8056
▁Angreifer▁8057
▁attack▁8058
▁eröffnet▁8059
▁Verteidigung▁8060
▁gewähr▁8061
▁Witz▁8062
▁Schabe▁8063
trieb▁8064
▁Jetzt▁8065
▁seht▁8066
▁neck▁8067
haut▁8068
▁Annäherung▁8069
▁Tri▁8070
bus▁8071
▁Vorrichtung▁8072
▁Langle▁8073
perspektive▁8074
▁aufgeregt▁8075
lampe▁8076
flo▁8077
▁riskier▁8078
▁Sag▁8079
lig▁8080
Video▁8081
▁atemberaubend▁8082
stöckige▁8083
film▁8084
▁Entdeckungen▁8085
aktiv▁8086
▁unvorstellbar▁8087
ruchteil▁8088
▁NASA▁8089
erhaltungssystem▁8090
swachstum▁8091
lasst▁8092
teig▁8093
▁Abenteuer▁8094
▁Serge▁8095
▁Brin▁8096
▁angebracht▁8097
Computer▁8098
ombin▁8099
13▁8100
▁Computern▁8101
schauen▁8102
▁zeichne▁8103
▁Tiger▁8104
köpfe▁8105
▁Hmm▁8106
▁heilige▁8107
▁piep▁8108
▁Brücke▁8109
fahrt▁8110
▁8▁8111
12▁8112
▁schmeckt▁8113
▁Thai▁8114
▁mm▁8115
▁wunderschön▁8116
▁nigerianische▁8117
▁Prinz▁8118
▁finanziert▁8119
▁umher▁8120
▁potenziell▁8121
▁isoliert▁8122
starrt▁8123
ib▁8124
sequenz▁8125
▁Display▁8126
kontakt▁8127
▁aufnehmen▁8128
▁Schädel▁8129
knochen▁8130
▁anfangs▁8131
▁ironisch▁8132
▁Such▁8133
fragen▁8134
▁Straße▁8135
▁bequem▁8136
▁Prototypen▁8137
▁unbequem▁8138
▁schreien▁8139
▁rauchen▁8140
▁Zigarette▁8141
▁cooler▁8142
▁Aber▁8143
▁sitze▁8144
usgeschlossen▁8145
▁check▁8146
▁Ar▁8147
▁Dap▁8148
hne▁8149
▁Kurse▁8150
verhalten▁8151
▁Tasten▁8152
qui▁8153
▁Peer▁8154
For▁8155
▁dagewesene▁8156
pool▁8157
▁verarbeitet▁8158
geschrieben▁8159
▁besuchte▁8160
partheid▁8161
▁Minderheit▁8162
▁hochwertige▁8163
▁Januar▁8164
▁Johannes▁8165
lassung▁8166
▁kilometer▁8167
▁Tor▁8168
▁hoffte▁8169
atter▁8170
▁verlor▁8171
▁steigende▁8172
▁Zwei▁8173
fache▁8174
gesamt▁8175
▁unbezahlbar▁8176
▁Hochschul▁8177
ausbildung▁8178
▁passende▁8179
solv▁8180
ualifikation▁8181
▁Studierende▁8182
▁abschließen▁8183
▁Friedman▁8184
▁jüngste▁8185
▁Times▁8186
tig▁8187
Kurs▁8188
▁Mitbegründer▁8189
▁Ng▁8190
▁maschinelle▁8191
▁öffentlich▁8192
▁registriert▁8193
▁250▁8194
▁Anspruch▁8195
▁Angebot▁8196
▁bestmögliche▁8197
▁Course▁8198
▁Dozent▁8199
▁43▁8200
richtung▁8201
hri▁8202
▁willkommen▁8203
▁Analysis▁8204
uel▁8205
fünfzig▁8206
▁versicher▁8207
▁Page▁8208
▁Richtlinie▁8209
▁Seg▁8210
mmer▁8211
▁Bush▁8212
▁zukünftig▁8213
▁Stirn▁8214
▁Mitchell▁8215
▁Mill▁8216
▁student▁8217
▁RG▁8218
▁hängen▁8219
▁hyperbol▁8220
▁Par▁8221
▁Pixel▁8222
▁Paul▁8223
▁Off▁8224
▁Impfung▁8225
▁Jura▁8226
sky▁8227
▁bedient▁8228
▁Frühstück▁8229
▁Jose▁8230
▁komisch▁8231
▁Münze▁8232
▁rechnerische▁8233
▁Studierenden▁8234
▁Inhalte▁8235
▁1.5▁8236
meldung▁8237
uiz▁8238
lleinerziehende▁8239
▁Jenn▁8240
▁Kenntnisse▁8241
▁Ryan▁8242
▁Immun▁8243
▁litt▁8244
▁freut▁8245
▁Happy▁8246
▁Shannon▁8247
▁belegt▁8248
▁festgelegt▁8249
term▁8250
kurve▁8251
▁Spitzen▁8252
▁Zertifikat▁8253
▁Bewerbung▁8254
gerechnet▁8255
▁explizit▁8256
mate▁8257
minütige▁8258
▁Vorlesung▁8259
▁modular▁8260
gebrochen▁8261
wissen▁8262
▁Zusatz▁8263
▁möchten▁8264
▁Format▁8265
▁individual▁8266
sitzen▁8267
▁Merkmal▁8268
berlegung▁8269
bungen▁8270
▁Science▁8271
maßnahme▁8272
▁integrieren▁8273
unterbrochen▁8274
▁SP▁8275
spect▁8276
ory▁8277
▁Tendenz▁8278
▁quo▁8279
▁Prä▁8280
fehler▁8281
▁Abweichung▁8282
▁option▁8283
merkt▁8284
▁bewerte▁8285
▁Tu▁8286
▁bewerkstelligen▁8287
▁zusätzlich▁8288
▁Multi▁8289
Choice▁8290
▁mathematische▁8291
▁Begriffe▁8292
modelle▁8293
▁natur▁8294
ingenieur▁8295
▁komplizierte▁8296
▁Programmier▁8297
▁anschaulich▁8298
▁Informatik▁8299
▁101▁8300
▁verschwommen▁8301
▁korrigieren▁8302
▁Browser▁8303
▁see▁8304
▁elementare▁8305
erfahrung▁8306
▁Geistes▁8307
klappt▁8308
▁schluss▁8309
endlich▁8310
Be▁8311
▁Good▁8312
▁effektiver▁8313
produzier▁8314
Achse▁8315
▁x▁8316
▁entsprach▁8317
bewertung▁8318
▁kritisch▁8319
▁volle▁8320
▁übereinstimmen▁8321
strategie▁8322
▁dreht▁8323
▁versammelt▁8324
▁intellektuelle▁8325
▁Princeton▁8326
▁verschiedenste▁8327
allererst▁8328
▁wirkliche▁8329
▁Tolle▁8330
▁wach▁8331
Gemeinschaft▁8332
▁austausch▁8333
gruppen▁8334
▁Beschränkungen▁8335
▁multikulturelle▁8336
▁Kontakt▁8337
▁ergab▁8338
▁beispiellose▁8339
▁Klick▁8340
sendung▁8341
▁For▁8342
trag▁8343
▁hypothetisch▁8344
▁Transformation▁8345
▁revolution▁8346
▁Missverständnis▁8347
▁Verteilung▁8348
▁zweidimensional▁8349
▁erkannte▁8350
▁pass▁8351
▁erreichte▁8352
▁personalisierte▁8353
Personalisierung▁8354
▁Rätsel▁8355
▁Bloom▁8356
Problem▁8357
▁beobachtete▁8358
▁Population▁8359
basiert▁8360
population▁8361
▁basierend▁8362
▁Können▁8363
▁h▁8364
▁Betreuung▁8365
▁Schwellenwert▁8366
▁darunter▁8367
▁98▁8368
▁Smartphone▁8369
▁link▁8370
▁Graph▁8371
▁Kurve▁8372
▁drängen▁8373
▁etliche▁8374
▁vorgestellt▁8375
▁obsolet▁8376
▁Twa▁8377
not▁8378
izen▁8379
▁Professor▁8380
schwer▁8381
▁Holz▁8382
▁entfacht▁8383
▁Inhalt▁8384
füllen▁8385
▁Problemlösung▁8386
▁aktive▁8387
▁Interaktion▁8388
▁Anwesenheit▁8389
▁Beteiligung▁8390
▁standardisierte▁8391
▁bewiesen▁8392
▁zusammenfassen▁8393
▁Motivation▁8394
eignen▁8395
▁Schande▁8396
gängig▁8397
well▁8398
▁auslösen▁8399
▁Talente▁8400
▁Albert▁8401
▁Einstein▁8402
▁entlegene▁8403
▁Mau▁8404
ac▁8405
ini▁8406
gemeißelt▁8407
▁Leonardo▁8408
▁Ang▁8409
▁Schichten▁8410
▁Betrachtung▁8411
erlebnis▁8412
▁1975▁8413
▁Flor▁8414
▁Carlo▁8415
▁ehemalige▁8416
▁Vinci▁8417
▁Jahrhunderte▁8418
lüfte▁8419
▁Meisterwerk▁8420
▁Pala▁8421
▁Ve▁8422
▁Va▁8423
▁Guinness▁8424
▁beauftragt▁8425
60▁8426
▁Med▁8427
▁Rettung▁8428
▁dicke▁8429
▁Ziegel▁8430
▁schmale▁8431
spalt▁8432
ci▁8433
▁Basi▁8434
lic▁8435
▁Santa▁8436
▁bewunder▁8437
▁anspruchsvolle▁8438
▁gemalt▁8439
▁Fahne▁8440
▁Diego▁8441
▁eröffne▁8442
▁Ingenieurwissen▁8443
ISA▁8444
▁Praxis▁8445
11▁8446
▁leitet▁8447
▁Kunstwerk▁8448
zustand▁8449
▁bestimmen▁8450
▁Madonna▁8451
▁UV▁8452
Licht▁8453
schichten▁8454
▁Dame▁8455
horn▁8456
▁Malerei▁8457
▁Schoß▁8458
▁fortfahren▁8459
▁malte▁8460
▁exotische▁8461
▁Symbol▁8462
vertrauenswürdig▁8463
▁positiv▁8464
schreibung▁8465
▁objektive▁8466
▁subjektiv▁8467
▁Bewunder▁8468
▁lebendige▁8469
▁Zeichnung▁8470
▁Schicht▁8471
▁Gemälde▁8472
▁König▁8473
XY▁8474
Z▁8475
Scan▁8476
leuchtet▁8477
▁enthülle▁8478
▁bedeutendste▁8479
▁Werk▁8480
▁Elefanten▁8481
hundert▁8482
▁Offenbarung▁8483
▁Tablet▁8484
▁Vergrößerung▁8485
▁simuliere▁8486
▁anklicke▁8487
▁hochgeladen▁8488
▁hineinzoom▁8489
wischt▁8490
▁Figuren▁8491
▁Protagonist▁8492
▁passiv▁8493
▁digital▁8494
▁Wann▁8495
▁rest▁8496
▁bezieh▁8497
▁berücksichtige▁8498
▁Renaissance▁8499
decken▁8500
▁Disziplin▁8501
▁definitiv▁8502
rausgehen▁8503
▁Laura▁8504
▁Whit▁8505
▁1991▁8506
▁Studium▁8507
runde▁8508
▁Bus▁8509
▁idylli▁8510
▁Grill▁8511
▁Frösche▁8512
▁Steven▁8513
Wolke▁8514
▁Wolken▁8515
lf▁8516
▁Stille▁8517
▁spürte▁8518
▁heftig▁8519
▁Donner▁8520
▁mexikanische▁8521
burst▁8522
ouTube▁8523
▁185▁8524
heim▁8525
▁2.0▁8526
▁58▁8527
▁Sleep▁8528
▁Water▁8529
▁73▁8530
▁Skype▁8531
▁Cal▁8532
▁Fuller▁8533
▁Riverside▁8534
Community▁8535
▁bearbeitet▁8536
▁miteinbezieh▁8537
▁Bescheid▁8538
ev▁8539
▁Tric▁8540
▁3-▁8541
▁grübel▁8542
▁magische▁8543
▁Dankeschön▁8544
▁Freundschaft▁8545
▁stärken▁8546
fiel▁8547
▁aufwuchs▁8548
▁lobe▁8549
schämt▁8550
▁Rehabilitation▁8551
▁Sucht▁8552
▁gegenübersteh▁8553
▁Einfache▁8554
▁Wunde▁8555
▁stolz▁8556
▁Verwandten▁8557
▁verheiratet▁8558
▁sehnt▁8559
▁Brot▁8560
▁brings▁8561
▁Freundin▁8562
▁April▁8563
▁danken▁8564
▁Steak▁8565
▁Würde▁8566
▁unsicher▁8567
▁wär▁8568
nutzen▁8569
▁Spur▁8570
▁zweieinhalb▁8571
▁seid▁8572
▁wollt▁8573
▁Weltfrieden▁8574
▁Haushalt▁8575
▁Hinterhof▁8576
▁Ehemänner▁8577
▁Mütter▁8578
▁Töchter▁8579
▁Söhne▁8580
▁Carter▁8581
▁Emma▁8582
▁Atlas▁8583
▁Universums▁8584
▁vergangen▁8585
▁Programmierer▁8586
eranschaulichung▁8587
▁Digital▁8588
▁Universe▁8589
▁abspiele▁8590
entwickelt▁8591
▁Metapher▁8592
▁grenzenlos▁8593
▁Aufnahme▁8594
vermögen▁8595
▁erstellt▁8596
▁American▁8597
▁Histor▁8598
▁Skal▁8599
arium▁8600
how▁8601
▁Kuppel▁8602
▁Praktik▁8603
▁Link▁8604
SS▁8605
▁interaktive▁8606
▁Flugbahn▁8607
▁Caf▁8608
▁Matt▁8609
▁Manhattan▁8610
gemeinschaftlich▁8611
▁vergleichen▁8612
▁Kosmolog▁8613
▁Galaxien▁8614
espür▁8615
▁gebraucht▁8616
▁Urknall▁8617
MA▁8618
▁Mikrowellen▁8619
▁bedeutungslos▁8620
▁zurückgehen▁8621
▁Radi▁8622
osphäre▁8623
▁Position▁8624
▁aktuell▁8625
planet▁8626
▁Sonnensystem▁8627
▁SI▁8628
▁hinab▁8629
▁Größenordnung▁8630
▁Bahn▁8631
▁Voyage▁8632
▁Umlaufbahn▁8633
▁aktualisiert▁8634
▁Por▁8635
▁Cassini▁8636
verlauf▁8637
▁far▁8638
phase▁8639
▁Titan▁8640
▁Merk▁8641
▁ablenken▁8642
▁Nutzer▁8643
▁sub▁8644
▁Bücherei▁8645
▁Ghetto▁8646
▁Kolumbien▁8647
▁Sek▁8648
und▁8649
▁Kambodscha▁8650
▁Samstag▁8651
Satellit▁8652
▁Nepal▁8653
▁Tibet▁8654
gleichen▁8655
▁Gange▁8656
▁Schnee▁8657
▁Maßstäbe▁8658
▁Gefängnis▁8659
▁hinterfragt▁8660
▁Bäume▁8661
▁Gefängnisse▁8662
▁bewegliche▁8663
ling▁8664
generation▁8665
▁verwurzelt▁8666
▁Stamm▁8667
▁Zweig▁8668
▁Gebilde▁8669
▁entschloss▁8670
▁Pinsel▁8671
kam▁8672
baum▁8673
▁Douglas▁8674
▁Stil▁8675
merk▁8676
▁Picasso▁8677
net▁8678
▁erlaubte▁8679
▁quantifizier▁8680
▁zurückleg▁8681
▁Baum▁8682
▁multipliziert▁8683
▁ausrechne▁8684
▁bewegte▁8685
▁rate▁8686
▁186▁8687
(▁8688
▁statisch▁8689
▁Schlüsse▁8690
ektion▁8691
▁Wechsel▁8692
rochen▁8693
▁Gitter▁8694
▁unbeweglich▁8695
▁2,3▁8696
▁inhaftiert▁8697
▁Förder▁8698
▁Erziehung▁8699
▁hoffnungslos▁8700
künstler▁8701
▁Staate▁8702
▁kooperieren▁8703
▁brachten▁8704
bund▁8705
▁Insasse▁8706
▁Sta▁8707
fford▁8708
▁gefährdet▁8709
▁restliche▁8710
▁Wild▁8711
life▁8712
Behörde▁8713
▁pre▁8714
osa▁8715
▁züchte▁8716
▁Feuchtgebiet▁8717
personal▁8718
▁gewalttätig▁8719
▁kahl▁8720
▁Psychologe▁8721
▁Kabine▁8722
öf▁8723
▁kleb▁8724
▁Mauer▁8725
▁wenigsten▁8726
kunft▁8727
▁feststelle▁8728
veränderung▁8729
▁Stämme▁8730
▁Phänomene▁8731
ummer▁8732
▁Drogenabhängig▁8733
▁Rassis▁8734
▁Michael▁8735
▁Hans▁8736
▁Algorithmen▁8737
▁faszinierende▁8738
▁Vorliebe▁8739
▁Vorurteile▁8740
▁überraschen▁8741
▁faszinieren▁8742
▁erfreu▁8743
▁schlage▁8744
▁Schöpfer▁8745
schöpfung▁8746
▁Mor▁8747
pho▁8748
▁Zelle▁8749
▁identisch▁8750
▁asymmetrische▁8751
▁vereinfachen▁8752
▁Fläche▁8753
nick▁8754
falten▁8755
▁simple▁8756
▁Algorithm▁8757
▁Variation▁8758
▁Volumen▁8759
▁Wiederholung▁8760
▁400.000▁8761
▁Falt▁8762
verhältnis▁8763
▁gefaltet▁8764
▁örtliche▁8765
▁Gegebenheit▁8766
urchlässig▁8767
▁generiert▁8768
▁99,9▁8769
▁geometrische▁8770
quivalent▁8771
▁Rauschen▁8772
▁Kante▁8773
zeichnen▁8774
▁Krümmung▁8775
familie▁8776
ügel▁8777
▁Eingabe▁8778
▁Verarbeitung▁8779
architektonische▁8780
▁algorithm▁8781
▁beinhalte▁8782
▁hineinzu▁8783
zoom▁8784
▁Wahrnehmung▁8785
▁mikroskopisch▁8786
▁Oberflächen▁8787
▁Erhebung▁8788
▁vorstellbar▁8789
▁gewöhnlich▁8790
stimmen▁8791
▁Endergebnis▁8792
lot▁8793
▁Varianten▁8794
▁Analogie▁8795
▁abstimm▁8796
▁Theorie▁8797
grün▁8798
▁nah▁8799
▁berühren▁8800
Druck▁8801
▁Zwecke▁8802
▁Kompromiss▁8803
▁Auflösung▁8804
modell▁8805
▁dünn▁8806
gestapelt▁8807
▁Röntgen▁8808
aufnahme▁8809
▁faltet▁8810
▁überraschende▁8811
▁Schnitt▁8812
profil▁8813
schneide▁8814
▁Segment▁8815
▁Scheibe▁8816
zeln▁8817
▁geschnitten▁8818
rstellung▁8819
▁berechnen▁8820
▁dick▁8821
▁700▁8822
kante▁8823
lief▁8824
▁günstiger▁8825
▁AB▁8826
▁Stahl▁8827
▁Hybrid▁8828
▁Täuschung▁8829
werfen▁8830
▁unzählige▁8831
▁träumen▁8832
▁Wil▁8833
▁Hoffman▁8834
▁Sputnik▁8835
Man▁8836
▁Dokument▁8837
▁Start▁8838
▁Sowjet▁8839
union▁8840
rüsten▁8841
▁Gegenstand▁8842
▁heimlich▁8843
▁Weltall▁8844
▁erobert▁8845
▁Rakete▁8846
▁installiert▁8847
▁Funk▁8848
geräte▁8849
▁4.▁8850
▁russische▁8851
▁Entdecker▁8852
▁Columb▁8853
▁Ausschnitt▁8854
▁inspirierte▁8855
▁geschickt▁8856
▁Montag▁8857
▁Wasserstoff▁8858
bombe▁8859
▁angreifen▁8860
▁Träger▁8861
▁Historiker▁8862
▁Pearl▁8863
▁Harbo▁8864
▁Auslöser▁8865
artig▁8866
▁Rüstung▁8867
▁1.2▁8868
▁nukleare▁8869
▁20.000▁8870
▁Zivil▁8871
▁78▁8872
▁Sieben▁8873
▁Stipendium▁8874
▁boom▁8875
PA▁8876
▁Dokumentation▁8877
▁einsetzt▁8878
▁Investoren▁8879
▁Veteran▁8880
▁Walker▁8881
▁Ken▁8882
▁schlimmste▁8883
▁Unglück▁8884
▁TEDMED▁8885
▁Extrem▁8886
▁Hirn▁8887
zeigen▁8888
▁Konferenz▁8889
▁Vorträge▁8890
lebensbedrohlich▁8891
schw▁8892
▁8.▁8893
▁Geographic▁8894
▁tektonische▁8895
Gerät▁8896
▁vierten▁8897
cher▁8898
met▁8899
aku▁8900
▁böse▁8901
▁32▁8902
kilometer▁8903
▁gefühlt▁8904
▁niedriger▁8905
▁Mars▁8906
jacke▁8907
▁übel▁8908
lager▁8909
▁5.▁8910
400▁8911
▁höchste▁8912
▁Bedarf▁8913
▁Zelt▁8914
▁Ratte▁8915
▁Labyrinth▁8916
stürzt▁8917
gefügt▁8918
▁Sicherheits▁8919
▁1.▁8920
▁Vorder▁8921
▁3.▁8922
Fi▁8923
stream▁8924
grat▁8925
weh▁8926
▁Vorräte▁8927
▁Rob▁8928
▁Teams▁8929
gerät▁8930
▁fla▁8931
▁brechen▁8932
▁steil▁8933
▁Tageslicht▁8934
▁unerwartet▁8935
maske▁8936
Flasche▁8937
▁expo▁8938
▁450▁8939
Meter▁8940
▁klettern▁8941
ange▁8942
klettert▁8943
▁fällt▁8944
kleid▁8945
▁ausgerüstet▁8946
▁Gra▁8947
▁Elemente▁8948
▁Doug▁8949
▁erschöpf▁8950
▁Beck▁8951
sammengebrochen▁8952
▁verwirrend▁8953
▁Pet▁8954
than▁8955
▁funk▁8956
▁stabilisieren▁8957
riet▁8958
▁Ker▁8959
Grad▁8960
▁7.▁8961
gefüllt▁8962
▁Spritze▁8963
oid▁8964
jenige▁8965
▁Phase▁8966
▁Kleidung▁8967
▁manövrier▁8968
▁Neuseeland▁8969
▁schwanger▁8970
▁meldete▁8971
▁6.▁8972
ffer▁8973
▁Angel▁8974
wärme▁8975
blind▁8976
▁Nirgendwo▁8977
▁wa▁8978
▁mum▁8979
▁spaziert▁8980
ept▁8981
versicherung▁8982
▁verbrannt▁8983
rose▁8984
▁berichtete▁8985
▁gelegen▁8986
▁ka▁8987
▁bli▁8988
▁schuf▁8989
gestanden▁8990
plex▁8991
steht▁8992
ible▁8993
▁SPECT▁8994
funktion▁8995
▁vereinfacht▁8996
▁Front▁8997
bündel▁8998
▁Temporallappen▁8999
▁aufbewahr▁9000
▁Hirnstamm▁9001
▁Herzschlag▁9002
▁Atmung▁9003
▁dynamisch▁9004
fluss▁9005
▁hinten▁9006
▁normaler▁9007
▁Gleich▁9008
▁Gang▁9009
▁beruhigt▁9010
▁schaltet▁9011
▁Taten▁9012
▁Gyr▁9013
▁cingul▁9014
terior▁9015
▁fokussier▁9016
▁geleitet▁9017
▁Fahrt▁9018
▁Hubschrauber▁9019
▁herauf▁9020
▁höchst▁9021
▁Kath▁9022
du▁9023
old▁9024
zweige▁9025
▁heilig▁9026
▁Andy▁9027
▁Harris▁9028
▁Gebet▁9029
+▁9030
▁Penelope▁9031
▁Chemikalien▁9032
▁Schwangerschaft▁9033
trazin▁9034
▁Herbi▁9035
▁genutzt▁9036
vier▁9037
▁Brustkrebs▁9038
tumor▁9039
▁schockierend▁9040
▁Statistiken▁9041
▁30-▁9042
krankheit▁9043
▁Auftreten▁9044
uk▁9045
▁gestiegen▁9046
▁Asthma▁9047
▁Verhältnisse▁9048
▁Statistik▁9049
▁Autismus▁9050
▁autistische▁9051
▁Störung▁9052
▁Emp▁9053
▁Fettleibigkeit▁9054
dia▁9055
▁Pub▁9056
▁Gift▁9057
▁Pestizide▁9058
▁Nützlich▁9059
▁Amphibie▁9060
▁Trinkwasser▁9061
▁Regenwasser▁9062
▁0,▁9063
brachte▁9064
▁Keim▁9065
drüse▁9066
▁Hoden▁9067
▁Eier▁9068
▁aufweis▁9069
eopard▁9070
▁dot▁9071
rigen▁9072
reiten▁9073
▁Hühner▁9074
▁Erlebnisse▁9075
▁aktuelle▁9076
▁genetisch▁9077
▁männlich▁9078
▁hormone▁9079
Ungleichgewicht▁9080
▁Testosteron▁9081
▁Enzym▁9082
oma▁9083
ase▁9084
▁reguliert▁9085
▁Krebszelle▁9086
▁wandelt▁9087
▁And▁9088
▁neueste▁9089
▁Let▁9090
ozo▁9091
▁blockiert▁9092
▁Pfund▁9093
▁führende▁9094
▁Tumore▁9095
▁Gegenmittel▁9096
▁anstelle▁9097
förder▁9098
PJ▁9099
phenol▁9100
▁Bindung▁9101
▁poly▁9102
carbon▁9103
haltige▁9104
▁synthetische▁9105
therapie▁9106
▁sick▁9107
▁Säugling▁9108
milch▁9109
▁eindring▁9110
▁do▁9111
▁Neugeborene▁9112
▁Europäische▁9113
▁Union▁9114
▁Gesetz▁9115
▁verabschiedet▁9116
▁Schnabel▁9117
asse▁9118
▁verbiete▁9119
▁Senat▁9120
▁Verbot▁9121
▁abgelehnt▁9122
▁Pflicht▁9123
ssig▁9124
▁th▁9125
sterben▁9126
▁einig▁9127
▁Dinosaurier▁9128
▁verschwand▁9129
▁Indikator▁9130
▁sensib▁9131
▁Membran▁9132
▁Säugetiere▁9133
organism▁9134
▁uralte▁9135
▁unterscheidet▁9136
▁weiterentwickel▁9137
▁hervorgerufen▁9138
geburt▁9139
▁Erhalt▁9140
▁Hormone▁9141
▁Prostata▁9142
erkrankung▁9143
▁Jungtier▁9144
▁erleide▁9145
▁beeinträchtigt▁9146
gewachsen▁9147
▁Enkel▁9148
til▁9149
▁PCB▁9150
▁DDT▁9151
▁Diabetes▁9152
▁bzw▁9153
▁bislang▁9154
▁Darstellung▁9155
Kontroll▁9156
af▁9157
flu▁9158
oc▁9159
▁Güte▁9160
▁künstliche▁9161
▁Mosc▁9162
▁schütte▁9163
kontaminier▁9164
▁Ultraschall▁9165
▁Belastung▁9166
nsporn▁9167
▁verrückte▁9168
▁Aktivistin▁9169
▁Lücken▁9170
▁Spermien▁9171
kanäle▁9172
▁leer▁9173
▁Fruchtbarkeit▁9174
gesenkt▁9175
▁Reptilien▁9176
▁Südamerika▁9177
kolleg▁9178
▁Samen▁9179
▁erheblich▁9180
▁Urin▁9181
▁Mexikaner▁9182
▁Carson▁9183
▁Uganda▁9184
▁Eimer▁9185
▁Oakland▁9186
▁Dörfer▁9187
▁Wasserhahn▁9188
▁Herrscher▁9189
rwärmung▁9190
▁interne▁9191
▁Umweltschutz▁9192
▁loslasse▁9193
▁ignorieren▁9194
drängt▁9195
▁voran▁9196
schreiten▁9197
▁Pol▁9198
▁verwüstet▁9199
Schriftstellerin▁9200
▁fixiert▁9201
▁verpasse▁9202
▁Hurrikan▁9203
▁Hund▁9204
▁fürchtete▁9205
▁Spazier▁9206
▁schleppte▁9207
▁Etage▁9208
▁Lä▁9209
▁Batterie▁9210
verkauf▁9211
▁Dusche▁9212
studio▁9213
▁Bäckerei▁9214
▁Steckdose▁9215
venue▁9216
▁Schirm▁9217
situation▁9218
▁merkt▁9219
▁Gemeinsamkeit▁9220
▁geraten▁9221
▁Roman▁9222
▁Bogen▁9223
▁Enttäuschung▁9224
▁eingebettet▁9225
▁Sandkorn▁9226
▁Gemüt▁9227
fassung▁9228
▁Bedauern▁9229
▁kleinste▁9230
▁geschrumpft▁9231
▁Datenmenge▁9232
sekunde▁9233
pfeil▁9234
▁Ursache▁9235
▁Beweg▁9236
▁Pfeil▁9237
▁zielt▁9238
▁fließ▁9239
▁gest▁9240
▁Delhi▁9241
letzt▁9242
▁Unterscheidung▁9243
ißt▁9244
▁Wahr▁9245
▁Schriftsteller▁9246
▁twitter▁9247
▁dauernd▁9248
▁Konkurrenz▁9249
▁fehl▁9250
▁fehlen▁9251
sprachige▁9252
▁französische▁9253
▁Mac▁9254
▁versende▁9255
▁Illusion▁9256
▁zerschmetter▁9257
▁zurückkehrt▁9258
▁fehlende▁9259
▁fließen▁9260
vater▁9261
▁Bud▁9262
▁Don▁9263
▁Spanisch▁9264
▁Terr▁9265
▁Jupiter▁9266
▁Saturn▁9267
▁verband▁9268
▁gek▁9269
▁schwerer▁9270
▁Seifenblase▁9271
▁umfasst▁9272
▁Seil▁9273
▁sprang▁9274
▁Küche▁9275
▁hack▁9276
▁schul▁9277
lehrer▁9278
▁friss▁9279
ständigkeit▁9280
splitter▁9281
▁wendet▁9282
▁Hundert▁9283
Laptop▁9284
▁türkische▁9285
▁Speer▁9286
▁gruselig▁9287
▁Gegenstände▁9288
▁nehme▁9289
▁gefiel▁9290
▁Skifahre▁9291
urf▁9292
▁Schweizer▁9293
▁Brett▁9294
oil▁9295
froren▁9296
▁graph▁9297
▁Außergewöhnlich▁9298
▁Silicon▁9299
▁Valley▁9300
haushalt▁9301
▁Häuser▁9302
▁Beratung▁9303
▁Meeting▁9304
▁Manager▁9305
PO▁9306
▁Luke▁9307
▁hob▁9308
Taste▁9309
ther▁9310
▁außen▁9311
list▁9312
▁Zitat▁9313
▁Werbung▁9314
▁Faust▁9315
use▁9316
project▁9317
▁Mini▁9318
tik▁9319
▁disk▁9320
winkel▁9321
▁Hersteller▁9322
▁Hock▁9323
eller▁9324
▁Leucht▁9325
▁Swa▁9326
ov▁9327
▁Gestalt▁9328
tafel▁9329
▁Miller▁9330
aufwändig▁9331
▁viereinhalb▁9332
▁einmalige▁9333
▁Benutzer▁9334
▁warm▁9335
▁hell▁9336
Färbung▁9337
▁vermisch▁9338
▁Helligkeit▁9339
▁Human▁9340
▁kommerziell▁9341
▁humanitäre▁9342
▁zustimmen▁9343
▁Mehr▁9344
▁Nachhaltigkeit▁9345
Energieverbrauch▁9346
▁Klebstoff▁9347
bone▁9348
▁sprich▁9349
▁blend▁9350
geräusch▁9351
istisch▁9352
▁Nerd▁9353
▁Sorgfalt▁9354
▁aussuche▁9355
▁Schmuck▁9356
▁Access▁9357
▁aufmerksam▁9358
▁Schalt▁9359
▁innen▁9360
▁digitalisier▁9361
▁bezeichne▁9362
▁vielfältige▁9363
▁Stange▁9364
ain▁9365
▁Ali▁9366
▁verwirklicht▁9367
▁widme▁9368
▁Gewinne▁9369
▁partner▁9370
Herangehensweise▁9371
▁Getränk▁9372
▁Bra▁9373
▁symmetr▁9374
▁Wörter▁9375
▁why▁9376
▁not▁9377
▁verwoben▁9378
▁Unterfangen▁9379
▁gerecht▁9380
Kind▁9381
▁Besitz▁9382
▁Nichol▁9383
▁Negro▁9384
pont▁9385
▁Gründer▁9386
OL▁9387
▁vorangegangene▁9388
▁bedeutsam▁9389
▁preiswert▁9390
▁loswerde▁9391
▁wiedererkenn▁9392
▁Errungenschaft▁9393
▁Tastatur▁9394
▁Gummi▁9395
flüsse▁9396
Leute▁9397
▁Uru▁9398
gua▁9399
▁Mongol▁9400
▁wandte▁9401
▁Herstellung▁9402
sprozesse▁9403
▁vermischt▁9404
▁Entwicklungsl▁9405
▁Neffe▁9406
▁Schweiz▁9407
▁Nachmittag▁9408
▁anderthalb▁9409
▁Version▁9410
▁Papp▁9411
City▁9412
▁Valenti▁9413
freundliche▁9414
▁pu▁9415
ard▁9416
▁Obdachlose▁9417
▁Werbe▁9418
▁Stigma▁9419
stöß▁9420
▁Schaffen▁9421
▁Egg▁9422
Preis▁9423
▁fesselnde▁9424
egeister▁9425
alencia▁9426
Zentrum▁9427
▁ehren▁9428
▁ungemein▁9429
▁geschlafen▁9430
▁Neil▁9431
gesessen▁9432
▁verglich▁9433
freude▁9434
▁beteilig▁9435
▁Brooklyn▁9436
nommen▁9437
▁tags▁9438
schärfe▁9439
▁flexible▁9440
lop▁9441
▁Lehrerin▁9442
▁inspirierend▁9443
▁arbeitende▁9444
▁Hürde▁9445
▁lehrt▁9446
tufe▁9447
▁Schreiben▁9448
defizit▁9449
fin▁9450
▁Lehr▁9451
kompetenz▁9452
á▁9453
▁multipliziere▁9454
▁nachgedacht▁9455
▁prinzipiell▁9456
▁spreche▁9457
▁Griff▁9458
▁Nähr▁9459
▁aufgeklärt▁9460
▁Interessen▁9461
uar▁9462
gemeinde▁9463
▁schriftlich▁9464
▁Barriere▁9465
ld▁9466
▁wunderbar▁9467
▁Grundstück▁9468
▁Gewerbe▁9469
▁müsst▁9470
▁einfallen▁9471
▁Recherche▁9472
röhren▁9473
▁riss▁9474
▁Aussehen▁9475
wisst▁9476
▁Rumpf▁9477
▁Zubehör▁9478
▁gewerbliche▁9479
▁Piraten▁9480
▁Schrei▁9481
▁lies▁9482
beine▁9483
fertig▁9484
▁past▁9485
▁Schilder▁9486
▁Pra▁9487
hertz▁9488
▁Leine▁9489
theater▁9490
quarium▁9491
▁Stühle▁9492
▁Auktion▁9493
day▁9494
wartet▁9495
▁Komm▁9496
▁demo▁9497
sproblem▁9498
▁Mexic▁9499
▁übernahm▁9500
▁Kirche▁9501
bank▁9502
▁Blöcke▁9503
ache▁9504
die▁9505
▁Verlag▁9506
▁High▁9507
▁modellier▁9508
Symbiose▁9509
▁draus▁9510
▁glückliche▁9511
▁1.4▁9512
▁konzentrierte▁9513
▁strahlt▁9514
▁Transform▁9515
▁gewachsen▁9516
▁Ausflug▁9517
▁beach▁9518
liehen▁9519
▁Event▁9520
ima▁9521
▁schickt▁9522
▁melde▁9523
▁Anleitung▁9524
Raum▁9525
▁Middle▁9526
▁Bibliothek▁9527
▁52▁9528
▁Stra▁9529
Up▁9530
▁Kolumne▁9531
▁Bürgermeister▁9532
▁Isabel▁9533
▁Allende▁9534
▁Thu▁9535
▁Marshall▁9536
▁sp▁9537
▁Bay▁9538
▁Area▁9539
▁Amazon▁9540
▁bisherige▁9541
▁externe▁9542
▁170▁9543
▁Regal▁9544
trüb▁9545
▁Entwürfe▁9546
▁absolute▁9547
bücher▁9548
▁Umsatz▁9549
▁Miete▁9550
▁Richter▁9551
karten▁9552
▁Kette▁9553
▁Haken▁9554
chu▁9555
▁Erdgeschoss▁9556
▁gemeinnützige▁9557
▁schloss▁9558
selbstständig▁9559
bekämpfung▁9560
▁Brook▁9561
▁Superheld▁9562
▁Sam▁9563
dienst▁9564
▁Bösewicht▁9565
stecken▁9566
▁Li▁9567
zahlen▁9568
▁Sharo▁9569
▁Jersey▁9570
▁Akte▁9571
stufen▁9572
▁lä▁9573
hack▁9574
racht▁9575
▁Handwerk▁9576
▁Bezirk▁9577
ingabe▁9578
▁Kha▁9579
led▁9580
▁Ham▁9581
▁süchtig▁9582
▁Videospiele▁9583
▁TV▁9584
▁entfliehen▁9585
▁began▁9586
▁Pen▁9587
▁box▁9588
▁Pinguin▁9589
▁Symphon▁9590
▁Space▁9591
itz▁9592
▁Evangeli▁9593
▁Cousin▁9594
mitglieder▁9595
▁Echo▁9596
▁Mammut▁9597
▁Zentr▁9598
▁Word▁9599
▁Pitt▁9600
▁Massac▁9601
etts▁9602
ight▁9603
▁Dublin▁9604
ddy▁9605
oyle▁9606
▁wünsche▁9607
▁Individuum▁9608
▁Sprünge▁9609
▁kreiert▁9610
▁Zusammen▁9611
▁Geister▁9612
▁phänomenal▁9613
▁On▁9614
▁Up▁9615
▁dokumentiere▁9616
▁Dead▁9617
▁antreiben▁9618
ide▁9619
▁steril▁9620
▁offene▁9621
▁schließ▁9622
▁Root▁9623
▁Wol▁9624
tree▁9625
▁biotechnolog▁9626
zyklus▁9627
▁Darwin▁9628
▁Mutation▁9629
▁evolutionäre▁9630
▁gekennzeichnet▁9631
siedeln▁9632
▁Bezeichnung▁9633
sätzlich▁9634
Entwicklung▁9635
▁intelligente▁9636
▁physiologische▁9637
tour▁9638
▁Artenvielf▁9639
alt▁9640
▁gezüchtet▁9641
▁Tausend▁9642
▁extra▁9643
▁Ri▁9644
▁Schi▁9645
▁Ziege▁9646
▁süß▁9647
▁Huhn▁9648
▁schmecken▁9649
▁Kamel▁9650
▁Lama▁9651
▁kombiniere▁9652
kreis▁9653
▁Katze▁9654
triff▁9655
▁Photoshop▁9656
▁Manipulation▁9657
▁normale▁9658
▁Genetik▁9659
▁Spann▁9660
▁Säugetier▁9661
▁stammen▁9662
▁leuchten▁9663
kreuz▁9664
▁Wellenlänge▁9665
▁orange▁9666
▁Koralle▁9667
▁Affen▁9668
▁Menschenaffen▁9669
▁komplexer▁9670
▁Haustiere▁9671
bra▁9672
▁Schwarz▁9673
▁Silber▁9674
▁Regierungs▁9675
▁Environment▁9676
rotection▁9677
▁Agenc▁9678
dministration▁9679
▁FDA▁9680
▁Lachs▁9681
ook▁9682
▁Speise▁9683
▁Futter▁9684
▁modifiziert▁9685
▁Komponente▁9686
▁jegliche▁9687
▁Kennzeich▁9688
▁Pferd▁9689
▁Gold▁9690
grube▁9691
▁Klo▁9692
▁Deck▁9693
plikat▁9694
▁Grau▁9695
▁Schwein▁9696
▁Dotcom▁9697
▁missbraucht▁9698
▁Anti▁9699
tic▁9700
üdkorea▁9701
▁Gau▁9702
▁Hu▁9703
atische▁9704
zelle▁9705
▁Kuh▁9706
▁Schaf▁9707
▁interessantes▁9708
wirf▁9709
Art▁9710
paket▁9711
▁Zeitalter▁9712
▁Biotechnologie▁9713
▁Asia▁9714
▁Kakerlake▁9715
zell▁9716
pflanzt▁9717
▁Sender▁9718
▁quer▁9719
▁Insekten▁9720
Roboter▁9721
▁DARPA▁9722
Projekt▁9723
▁Defens▁9724
Forschung▁9725
▁Käfer▁9726
▁Flügel▁9727
▁Chip▁9728
fliegen▁9729
upp▁9730
▁Stadium▁9731
Technologie▁9732
▁schlüpf▁9733
schütz▁9734
▁Kriegs▁9735
Rat▁9736
▁SUN▁9737
own▁9738
state▁9739
▁linke▁9740
hälfte▁9741
▁ethisch▁9742
▁Autonomi▁9743
▁experimentiert▁9744
▁Mig▁9745
▁Nicole▁9746
▁Duke▁9747
affe▁9748
▁überwach▁9749
▁fortbeweg▁9750
gehirn▁9751
▁Prothesen▁9752
Arm▁9753
wellen▁9754
▁verstanden▁9755
kä▁9756
▁Affe▁9757
prothese▁9758
▁Primaten▁9759
▁Armen▁9760
▁Florida▁9761
▁60.000▁9762
▁zerfallen▁9763
Neu▁9764
geschlossen▁9765
▁Mechanismus▁9766
simulator▁9767
chip▁9768
▁selbständig▁9769
▁organisieren▁9770
▁photo▁9771
▁nahrhaft▁9772
▁gehorch▁9773
▁immun▁9774
▁polymer▁9775
▁Gerüst▁9776
gekoppelt▁9777
ischer▁9778
▁Physi▁9779
pla▁9780
▁Craig▁9781
▁Venter▁9782
▁Entstehung▁9783
▁Frankenstein▁9784
ette▁9785
▁manipulier▁9786
ckel▁9787
ever▁9788
▁rosa▁9789
▁Speichel▁9790
▁organ▁9791
▁Spielzeuge▁9792
▁Konsequenz▁9793
▁perfektioniert▁9794
▁ethische▁9795
Fiction▁9796
▁ungeheure▁9797
zero▁9798
▁Ball▁9799
▁TEDGlobal▁9800
▁balanc▁9801
▁konstruiert▁9802
studium▁9803
ET▁9804
rich▁9805
▁Räder▁9806
▁instabil▁9807
▁Balance▁9808
▁konstant▁9809
▁Sensor▁9810
▁vermeide▁9811
▁Trick▁9812
▁Distanz▁9813
sensor▁9814
▁montiert▁9815
▁umkreisen▁9816
▁informieren▁9817
▁unterhaltsam▁9818
▁spa▁9819
▁Apparat▁9820
▁herumzu▁9821
▁Fußabdruck▁9822
▁Debora▁9823
▁Rhode▁9824
▁Physiker▁9825
erkennung▁9826
gewebe▁9827
▁herkömmliche▁9828
▁Mammographie▁9829
▁verblüffend▁9830
▁breiten▁9831
▁gerettet▁9832
▁Presse▁9833
▁Radiologe▁9834
Bildgebung▁9835
▁Patente▁9836
werbe▁9837
rztin▁9838
▁diagnostiziert▁9839
▁ängstlich▁9840
▁zuversichtlich▁9841
▁Mammogramm▁9842
▁fände▁9843
▁radi▁9844
ologische▁9845
ografie▁9846
untersuchung▁9847
▁kritisiert▁9848
deckung▁9849
▁entsetzt▁9850
▁qualifiziert▁9851
zuschätzen▁9852
▁radio▁9853
▁öfter▁9854
lag▁9855
▁rechtliche▁9856
▁Rauch▁9857
wahrscheinlich▁9858
▁Fett▁9859
menge▁9860
▁pink▁9861
▁sink▁9862
enopaus▁9863
▁Einzelheit▁9864
bericht▁9865
assi▁9866
fizieren▁9867
▁verstreut▁9868
▁gefolg▁9869
▁Wolf▁9870
pel▁9871
▁Röntgenstrahl▁9872
▁Brüste▁9873
findig▁9874
▁Risikofaktor▁9875
klärt▁9876
kostet▁9877
▁teuer▁9878
▁bahnbrechende▁9879
▁allgegenwärtig▁9880
▁Muster▁9881
▁LKW▁9882
▁Malco▁9883
▁Gladwell▁9884
▁Genie▁9885
▁zitiert▁9886
▁Innovator▁9887
▁Cartoon▁9888
▁gedruckt▁9889
▁Denker▁9890
▁Besuch▁9891
▁May▁9892
▁Nuklear▁9893
physik▁9894
▁Conne▁9895
▁spezialisiert▁9896
▁Detektor▁9897
▁Gamma▁9898
zubilden▁9899
▁unerlässlich▁9900
berlebenschance▁9901
▁massiv▁9902
▁Rohr▁9903
▁Klebe▁9904
▁trennt▁9905
▁Molekular▁9906
olecular▁9907
aging▁9908
▁MBI▁9909
▁ergänzt▁9910
gehalten▁9911
▁Skeptik▁9912
nahmen▁9913
▁Kontrast▁9914
▁molekulare▁9915
▁staatliche▁9916
▁Gesetzen▁9917
▁geregelt▁9918
▁last▁9919
▁unscharf▁9920
▁chirurgische▁9921
▁auswirk▁9922
▁Susan▁9923
▁Stiftung▁9924
bewerb▁9925
▁auswählt▁9926
gelesen▁9927
▁korrelier▁9928
lte▁9929
▁beunruhigend▁9930
▁Farb▁9931
▁Golf▁9932
▁Lymphknoten▁9933
osi▁9934
▁Strahlung▁9935
▁fortgesetzt▁9936
▁67▁9937
ive▁9938
▁herausstellte▁9939
▁routine▁9940
▁Fünftel▁9941
atom▁9942
sorgniserregend▁9943
Aufnahme▁9944
▁interpretiere▁9945
▁bemerkenswerte▁9946
▁Journal▁9947
prüfung▁9948
▁Manuskript▁9949
konflikt▁9950
▁konkurrieren▁9951
logy▁9952
▁breit▁9953
▁finanziell▁9954
▁Bundes▁9955
staat▁9956
▁hit▁9957
▁Kontroll▁9958
aufnahmen▁9959
▁weitergehen▁9960
erblichkeitsrate▁9961
▁Schlagzeile▁9962
erkranken▁9963
▁Erfolge▁9964
▁Babys▁9965
zogen▁9966
▁jonglieren▁9967
▁scherze▁9968
▁Jongleur▁9969
▁demonstrieren▁9970
▁verblüffende▁9971
ilität▁9972
▁Koordination▁9973
▁Barry▁9974
▁moderner▁9975
gelegenheit▁9976
▁Komfort▁9977
▁Flexib▁9978
▁DH▁9979
▁Show▁9980
▁Daniel▁9981
▁Extra▁9982
▁Spezielle▁9983
▁MacArthur▁9984
▁Jonglier▁9985
technik▁9986
▁hör▁9987
topf▁9988
ong▁9989
opper▁9990
▁verlangsamt▁9991
fordere▁9992
▁bedarf▁9993
▁Rechten▁9994
▁vermassel▁9995
▁Richard▁9996
▁Tradition▁9997
▁gefährliche▁9998
▁Act▁9999
▁Peitsche▁10000
▁jahrelang▁10001
▁blöd▁10002
▁Entschuldigung▁10003
▁Gefahren▁10004
gott▁10005
▁stell▁10006
▁Rich▁10007
schön▁10008
▁schlimme▁10009
lash▁10010
▁glaub▁10011
▁Glori▁10012
▁beurteilen▁10013
▁Klinge▁10014
▁Bleistift▁10015
▁Perfektion▁10016
▁Jungfrau▁10017
▁ok▁10018
▁Wer▁10019
pfel▁10020
▁tanzt▁10021
▁Stop▁10022
▁erzähl▁10023
▁Meisterschaft▁10024
urren▁10025
ule▁10026
will▁10027
▁Klappe▁10028
ähnliche▁10029
▁wind▁10030
▁Held▁10031
▁She▁10032
▁Olympia▁10033
▁unklar▁10034
▁trete▁10035
▁Weltrekord▁10036
▁Zunge▁10037
▁Gelenk▁10038
▁neuartige▁10039
Mensch▁10040
taten▁10041
▁Men▁10042
▁Kollege▁10043
rthritis▁10044
hnliche▁10045
geheiratet▁10046
hop▁10047
▁dis▁10048
▁ließen▁10049
▁gewandt▁10050
▁Bauteile▁10051
genutzt▁10052
▁Körperteile▁10053
▁innehalte▁10054
▁natürlicher▁10055
▁Pfad▁10056
▁erwäg▁10057
▁Erne▁10058
uerung▁10059
▁bedürfe▁10060
▁Stammzellen▁10061
▁biologischer▁10062
▁Stoß▁10063
gelenk▁10064
kapsel▁10065
▁ersetzt▁10066
▁transplantier▁10067
▁beschädigt▁10068
kno▁10069
▁Aspen▁10070
▁Verfassung▁10071
räder▁10072
▁spend▁10073
▁reichlich▁10074
▁Hindernis▁10075
▁Gal▁10076
act▁10077
▁Achilles▁10078
-1▁10079
▁beseitigt▁10080
Waschmittel▁10081
▁abbau▁10082
▁Prozedur▁10083
▁Mix▁10084
wäsch▁10085
ili▁10086
streifen▁10087
trip▁10088
ping▁10089
Technik▁10090
menschliche▁10091
▁pflanzte▁10092
▁Zulassung▁10093
experiment▁10094
▁kanadische▁10095
hill▁10096
Me▁10097
▁nutzbar▁10098
bul▁10099
▁Hardware▁10100
ware▁10101
▁appetit▁10102
▁Argumente▁10103
▁Chef▁10104
▁Del▁10105
▁Heu▁10106
schrecken▁10107
▁punct▁10108
▁Geschmack▁10109
gewogen▁10110
▁herumlaufen▁10111
▁Durchschnitts▁10112
▁Schätzung▁10113
▁vorsichtig▁10114
▁57▁10115
▁billiger▁10116
▁bestäub▁10117
▁Nutzpflanzen▁10118
▁Schädling▁10119
ji▁10120
▁wundervoll▁10121
reitet▁10122
▁Mahlzeit▁10123
▁Bienen▁10124
▁is▁10125
▁Gramm▁10126
▁Tomaten▁10127
▁Erdnuss▁10128
Nudel▁10129
▁Suppe▁10130
▁Bälle▁10131
▁Keks▁10132
▁Su▁10133
imi▁10134
stäbchen▁10135
▁Camp▁10136
▁gefärbt▁10137
fleisch▁10138
▁Insekt▁10139
onnen▁10140
▁Peru▁10141
▁Euro▁10142
▁wertvolle▁10143
▁exponentiell▁10144
FA▁10145
▁Vieh▁10146
tari▁10147
▁zusammenhäng▁10148
▁Organe▁10149
▁ausbreiten▁10150
▁1990▁10151
▁Niederlande▁10152
brach▁10153
▁tödlich▁10154
▁verwandt▁10155
▁Kilogramm▁10156
▁Rindfleisch▁10157
▁Ertrag▁10158
▁Bonus▁10159
▁herauskomm▁10160
erschwendung▁10161
▁Treibhausgase▁10162
▁schädlich▁10163
▁qualitativ▁10164
äche▁10165
▁gefüttert▁10166
▁Arno▁10167
▁van▁10168
▁verrichte▁10169
▁aussterben▁10170
▁fröhlich▁10171
▁erhältlich▁10172
▁Pe▁10173
▁prop▁10174
▁2020▁10175
▁niederländische▁10176
cola▁10177
minister▁10178
▁Ministerium▁10179
▁Hobby▁10180
▁Bruno▁10181
proben▁10182
▁Gius▁10183
ani▁10184
▁köstlich▁10185
üsse▁10186
▁Larry▁10187
▁Remix▁10188
ED▁10189
▁Republikaner▁10190
▁vermeintlich▁10191
▁konservative▁10192
▁Partei▁10193
▁Copyright▁10194
Kultur▁10195
▁Konservative▁10196
▁Tee▁10197
▁Age▁10198
▁Republican▁10199
▁Leiter▁10200
▁Mitglied▁10201
▁Versammlung▁10202
onald▁10203
▁Reagan▁10204
kandidat▁10205
▁Wikipedia▁10206
lvani▁10207
▁Jüngste▁10208
sammlung▁10209
▁Lawrence▁10210
▁speichern▁10211
▁geheil▁10212
▁Wall▁10213
▁Zusammenhänge▁10214
▁zelebrier▁10215
▁vordringen▁10216
exist▁10217
▁Großartige▁10218
kologi▁10219
▁Teddy▁10220
▁Roosevelt▁10221
konomie▁10222
▁essentiell▁10223
▁Julian▁10224
▁Institute▁10225
▁furchtbare▁10226
ania▁10227
▁viral▁10228
▁original▁10229
uatsch▁10230
▁Aufruf▁10231
▁Existenz▁10232
▁folg▁10233
äre▁10234
Charakter▁10235
▁Urheberrecht▁10236
▁unvermeidlich▁10237
▁Güter▁10238
▁Option▁10239
▁Werke▁10240
▁Konzepte▁10241
▁use▁10242
▁Sorge▁10243
▁leitete▁10244
Film▁10245
▁remix▁10246
▁Mick▁10247
boat▁10248
▁Willi▁10249
eat▁10250
▁steckte▁10251
▁Bono▁10252
tension▁10253
▁Rechte▁10254
brüder▁10255
▁Grim▁10256
▁umsetzt▁10257
note▁10258
▁Ikone▁10259
▁Figur▁10260
▁Lizenz▁10261
fügt▁10262
ris▁10263
▁Urheber▁10264
ächter▁10265
▁Eigentümer▁10266
Inhaber▁10267
▁ausgesprochen▁10268
▁Vorsitzende▁10269
▁Sach▁10270
▁respektiere▁10271
▁Creative▁10272
▁Common▁10273
rechtlich▁10274
▁Tool▁10275
liegt▁10276
▁lizensier▁10277
▁350▁10278
▁ausbalancier▁10279
▁mysteriöse▁10280
▁Con▁10281
gesperrt▁10282
▁DMCA▁10283
▁stumm▁10284
geschaltet▁10285
▁Group▁10286
▁abspielt▁10287
schrieb▁10288
▁Bart▁10289
▁kind▁10290
▁bestätigen▁10291
▁em▁10292
freiheit▁10293
▁vorderste▁10294
Prinzip▁10295
axis▁10296
▁geheim▁10297
▁Abkommen▁10298
▁Thre▁10299
▁Reform▁10300
sehbare▁10301
kenntnis▁10302
▁Instanz▁10303
▁verinnerlich▁10304
▁Bang▁10305
▁bewegende▁10306
▁Deep▁10307
▁BMW▁10308
▁SUV▁10309
▁Hierarchie▁10310
▁ästhetische▁10311
▁Michelangelo▁10312
▁Automobil▁10313
▁Fahr▁10314
stühle▁10315
▁funktional▁10316
sorgt▁10317
mweltverschmutz▁10318
gegen▁10319
▁hingeg▁10320
Brennstoffzellen▁10321
sucht▁10322
▁Anzug▁10323
▁Zorn▁10324
immel▁10325
verkehr▁10326
▁Chevy▁10327
▁Bildhauer▁10328
▁reproduzieren▁10329
▁Original▁10330
▁Skulptur▁10331
▁Drang▁10332
fassen▁10333
▁Inner▁10334
inblick▁10335
greif▁10336
▁erwacht▁10337
▁Newton▁10338
uanten▁10339
▁Widersprüche▁10340
gestehen▁10341
▁tendieren▁10342
▁4,▁10343
0▁10344
▁4,000▁10345
▁Finden▁10346
ew▁10347
▁Anblick▁10348
▁gewiss▁10349
wettbewerb▁10350
▁Schwärme▁10351
bürste▁10352
▁Sub▁10353
management▁10354
knüpfen▁10355
▁Inti▁10356
▁stressig▁10357
▁Vorstand▁10358
▁Tempe▁10359
▁verliebt▁10360
▁Telefonnummer▁10361
▁Beleg▁10362
▁IBM▁10363
▁gestohlen▁10364
trick▁10365
▁zusammenkomm▁10366
▁monumental▁10367
▁anhäuf▁10368
▁Postkarten▁10369
▁Vega▁10370
▁Grand▁10371
▁Canyon▁10372
▁Nachforschung▁10373
▁Wohnung▁10374
▁Elizabeth▁10375
▁Taylor▁10376
▁Rund▁10377
Uhr▁10378
▁zurückgelassen▁10379
▁errichtet▁10380
▁Tasse▁10381
▁Begleit▁10382
▁gestresst▁10383
▁Erwartung▁10384
finden▁10385
▁herausragende▁10386
branche▁10387
▁Agenda▁10388
▁rechne▁10389
▁mental▁10390
▁überwältigt▁10391
▁Mist▁10392
häu▁10393
▁schrie▁10394
▁Kreativ▁10395
witsch▁10396
▁sauer▁10397
▁Cathe▁10398
rine▁10399
▁Hochzeit▁10400
▁hübsche▁10401
▁Predigt▁10402
▁erwarte▁10403
▁innerlich▁10404
schmiede▁10405
▁Kreation▁10406
▁Cross▁10407
Co▁10408
iful▁10409
▁it▁10410
self▁10411
▁Sinclair▁10412
▁Immobilien▁10413
▁bank▁10414
rot▁10415
Kollegen▁10416
▁welch▁10417
Industrie▁10418
atar▁10419
▁anzusehen▁10420
▁Wolkenkratzer▁10421
pflicht▁10422
▁1,1▁10423
▁Inder▁10424
▁Pakistani▁10425
▁Sri▁10426
ker▁10427
▁Arbeitskräfte▁10428
▁eingehen▁10429
▁Klimaanlage▁10430
▁Beamte▁10431
▁Behörden▁10432
leute▁10433
▁August▁10434
▁primitiv▁10435
stimmung▁10436
▁protestier▁10437
▁Unterkünfte▁10438
▁Finanzkrise▁10439
▁Bauunternehme▁10440
▁Kredit▁10441
schuldet▁10442
ets▁10443
▁gegenwärtig▁10444
▁Menschenrechte▁10445
▁Bilanz▁10446
kohle▁10447
▁Anlage▁10448
wurf▁10449
▁Tyle▁10450
pläne▁10451
thema▁10452
▁diskutiere▁10453
▁Grundidee▁10454
▁erleichter▁10455
▁rat▁10456
▁Mikroskop▁10457
▁Horror▁10458
▁verdorben▁10459
▁grässlich▁10460
▁euer▁10461
lbtraum▁10462
DNA▁10463
ehlt▁10464
fabrik▁10465
▁list▁10466
schmuggel▁10467
pionage▁10468
▁fügt▁10469
▁terrorist▁10470
▁Faszinierend▁10471
▁erweitert▁10472
NG▁10473
cho▁10474
Abschluss▁10475
▁garantiere▁10476
▁has▁10477
▁Lehrbücher▁10478
▁Verleger▁10479
▁begeistern▁10480
▁angesehen▁10481
▁Schleim▁10482
▁Kopie▁10483
ophag▁10484
▁Nukle▁10485
▁initiiert▁10486
autor▁10487
▁Technische▁10488
▁akkurat▁10489
▁Tyrann▁10490
▁sinnlos▁10491
▁hässlich▁10492
▁Jean▁10493
gging▁10494
,7▁10495
▁spezifische▁10496
▁ruiniert▁10497
▁aufrechter▁10498
▁fle▁10499
source▁10500
▁denkbar▁10501
▁Fünf▁10502
klässler▁10503
▁Freizeit▁10504
zieren▁10505
▁Gleichgewicht▁10506
tanz▁10507
▁Ferien▁10508
▁erhalte▁10509
▁dankbar▁10510
▁nehm▁10511
▁Blog▁10512
▁weckt▁10513
nerv▁10514
▁erfinde▁10515
weltfreundliche▁10516
▁Trocken▁10517
▁CO▁10518
2-▁10519
abdruck▁10520
▁Eco▁10521
cy▁10522
effiziente▁10523
▁Serious▁10524
▁bestellt▁10525
▁Arktis▁10526
▁Sushi▁10527
▁Gi▁10528
rock▁10529
▁Zement▁10530
▁ausprobiere▁10531
Produktion▁10532
▁Deze▁10533
mber▁10534
▁laufende▁10535
▁Fließband▁10536
▁Cradle▁10537
▁Green▁10538
ear▁10539
findung▁10540
▁Popular▁10541
▁Gallone▁10542
▁Benzin▁10543
▁entsprechen▁10544
Ausstoß▁10545
part▁10546
▁Windows▁10547
▁Ban▁10548
▁Not▁10549
künfte▁10550
röhre▁10551
▁benutzte▁10552
▁Umweltprobleme▁10553
▁temporäre▁10554
urchmesser▁10555
▁Expo▁10556
▁Pavillon▁10557
▁recycling▁10558
▁Fer▁10559
▁Abbau▁10560
▁wiederverwende▁10561
▁recycelt▁10562
müll▁10563
▁Pomp▁10564
▁Paris▁10565
▁privilegiert▁10566
▁historisch▁10567
Naturkatastrophe▁10568
▁1994▁10569
▁Flüchtlinge▁10570
Flüchtlingslager▁10571
▁UN▁10572
▁fällen▁10573
▁Abholzung▁10574
problem▁10575
rohr▁10576
geworfen▁10577
nutzung▁10578
▁Termiten▁10579
▁1995▁10580
▁vietnamesische▁10581
▁katholische▁10582
▁pendeln▁10583
▁Vietnamese▁10584
▁arms▁10585
▁Wiederaufbau▁10586
schafft▁10587
▁Fundament▁10588
▁Kir▁10589
traut▁10590
▁Taiwan▁10591
tempo▁10592
▁Türke▁10593
▁Tsunami▁10594
▁Lanka▁10595
▁Chen▁10596
▁Provinz▁10597
▁Sich▁10598
▁Korruption▁10599
▁Minister▁10600
präsident▁10601
con▁10602
▁Premierminister▁10603
halle▁10604
▁Haiti▁10605
▁flog▁10606
▁Domin▁10607
▁leiden▁10608
▁geistig▁10609
▁Abteilung▁10610
▁Vorhänge▁10611
▁Verwalter▁10612
lec▁10613
▁freundlich▁10614
awa▁10615
iya▁10616
felder▁10617
▁Fracht▁10618
kamen▁10619
anthrop▁10620
▁älteste▁10621
▁Skelett▁10622
▁humanoid▁10623
▁erkunden▁10624
▁Sela▁10625
▁vollständige▁10626
▁3,3▁10627
▁Australopithec▁10628
far▁10629
sis▁10630
▁Luc▁10631
▁Titelseite▁10632
▁Zeitschriften▁10633
▁Fund▁10634
▁Anthropologe▁10635
▁Gastgeber▁10636
,▁10637
▁Flöten▁10638
▁Nachweis▁10639
▁Perlen▁10640
verfolgen▁10641
▁Schimpansen▁10642
▁auseinander▁10643
▁Erbgut▁10644
▁Herkunft▁10645
▁Fossilien▁10646
slücke▁10647
▁Mechanism▁10648
▁treibende▁10649
▁grad▁10650
▁einheimische▁10651
fel▁10652
▁unfassbar▁10653
▁pal▁10654
▁ausgestorben▁10655
berreste▁10656
▁Wüste▁10657
▁Anekdote▁10658
▁leistet▁10659
▁Assistent▁10660
achtung▁10661
▁Knochen▁10662
▁Elefant▁10663
▁Löwen▁10664
▁müde▁10665
▁frustrierend▁10666
▁Wirbelsäule▁10667
block▁10668
liches▁10669
▁Fossil▁10670
▁Aufbereitung▁10671
▁Tourismus▁10672
museum▁10673
▁erledigt▁10674
▁Stammbaum▁10675
▁vergleich▁10676
▁vertikale▁10677
Kortex▁10678
▁Abstammung▁10679
▁CT▁10680
▁ausbilde▁10681
klettern▁10682
charakteristisch▁10683
▁verbring▁10684
▁begriffen▁10685
▁menschlich▁10686
▁stützt▁10687
▁assoziiert▁10688
▁stetig▁10689
▁Bedeutsam▁10690
▁erwachsene▁10691
ossi▁10692
▁beschränkt▁10693
wohnen▁10694
▁Exemplar▁10695
▁sapien▁10696
▁erfolgreichste▁10697
▁meister▁10698
▁primitive▁10699
▁kompetent▁10700
fried▁10701
▁geparkt▁10702
▁abbilde▁10703
▁verknüpfen▁10704
▁Parkplatz▁10705
▁park▁10706
▁Homer▁10707
▁Hippocamp▁10708
▁lateinische▁10709
▁Nervenzellen▁10710
▁Impulse▁10711
blätter▁10712
▁räumliche▁10713
▁Nervenzelle▁10714
▁Impuls▁10715
▁sendet▁10716
▁feuern▁10717
▁quadratisch▁10718
▁Epilep▁10719
tiker▁10720
fuhr▁10721
▁Schuss▁10722
▁verbreitete▁10723
▁Abgrenzung▁10724
▁nähert▁10725
▁kreisförmig▁10726
▁dehnt▁10727
▁Vermutung▁10728
▁ausgedehnt▁10729
bewegen▁10730
glied▁10731
▁ähneln▁10732
forscht▁10733
▁verschiedener▁10734
itter▁10735
▁Dreieck▁10736
bewegt▁10737
▁Aufenthalt▁10738
▁Symmetrie▁10739
▁reine▁10740
▁MRT▁10741
rinde▁10742
▁visuelle▁10743
schleppt▁10744
▁Visualisierung▁10745
▁Vernetzung▁10746
▁Kompass▁10747
▁vorstellt▁10748
▁Funktionen▁10749
▁Jones▁10750
▁Isa▁10751
can▁10752
beinige▁10753
▁berühmt▁10754
▁Vorhang▁10755
▁Solar▁10756
▁Josh▁10757
▁Vanco▁10758
uver▁10759
15▁10760
▁bedeutend▁10761
▁skizziert▁10762
▁fange▁10763
▁Dasein▁10764
▁Rat▁10765
▁Gefolg▁10766
▁Unternehmens▁10767
krempeln▁10768
▁heikle▁10769
▁Arbeitsleben▁10770
bal▁10771
▁berichten▁10772
lödsinn▁10773
gebunden▁10774
erkennen▁10775
▁Abertausende▁10776
Shirt▁10777
▁Ruder▁10778
▁durchgehen▁10779
treuung▁10780
▁Feier▁10781
abend▁10782
▁meditier▁10783
▁realistisch▁10784
scheiden▁10785
▁Pension▁10786
▁ausgeglichen▁10787
▁scheitert▁10788
▁angemeldet▁10789
▁spot▁10790
▁fit▁10791
Tag▁10792
▁entmutigend▁10793
▁Scheiß▁10794
▁Harry▁10795
▁abhol▁10796
▁albern▁10797
▁Spiele▁10798
▁Pizza▁10799
▁bad▁10800
▁Batman▁10801
▁deck▁10802
▁Play▁10803
▁Umbruch▁10804
▁Gut▁10805
▁Böse▁10806
▁argumentiert▁10807
▁wertschätzen▁10808
▁Steine▁10809
▁potentielle▁10810
▁Leid▁10811
▁Behauptung▁10812
▁Fakt▁10813
▁Komplexität▁10814
▁missverstanden▁10815
▁Zustände▁10816
▁Ewigkeit▁10817
▁Leiden▁10818
▁Fremde▁10819
▁willkürlich▁10820
▁ermordet▁10821
▁Cholera▁10822
mordattentäter▁10823
▁72▁10824
dauer▁10825
▁reif▁10826
▁Psychologie▁10827
▁Landkarte▁10828
▁my▁10829
▁spirituell▁10830
▁Psyche▁10831
▁garantiert▁10832
▁Atom▁10833
▁bombardier▁10834
▁Geschäfts▁10835
▁betreffen▁10836
blühen▁10837
▁21▁10838
▁Blasen▁10839
▁Standort▁10840
▁Connecti▁10841
cut▁10842
▁ausdrücklich▁10843
religiös▁10844
wörter▁10845
defin▁10846
worfen▁10847
▁Spec▁10848
▁Statue▁10849
fähigkeit▁10850
▁Marathon▁10851
vision▁10852
gehalt▁10853
richtig▁10854
▁gleichwertig▁10855
▁maximier▁10856
▁Grundsätze▁10857
▁analog▁10858
▁brilliant▁10859
▁geringste▁10860
beutel▁10861
ähle▁10862
▁ablehnen▁10863
▁unterdrückt▁10864
▁freiwillig▁10865
▁Schleier▁10866
▁Scham▁10867
▁Falsch▁10868
▁reflektieren▁10869
▁optimal▁10870
▁solcher▁10871
mag▁10872
▁Linse▁10873
geschlechtliche▁10874
▁Genozid▁10875
▁Atomwaffen▁10876
Wissenschaft▁10877
Typ▁10878
alai▁10879
▁integral▁10880
▁Glücks▁10881
▁entführt▁10882
▁gefoltert▁10883
schiedenheit▁10884
▁Intellektuelle▁10885
▁potentiell▁10886
▁Van▁10887
▁Edward▁10888
▁Witt▁10889
heoretiker▁10890
▁Physik▁10891
▁auftreten▁10892
Theorie▁10893
Club▁10894
▁Experti▁10895
▁berücksichtigt▁10896
▁Ignoranz▁10897
▁zuzu▁10898
▁destruktiv▁10899
fund▁10900
▁kit▁10901
▁Toleranz▁10902
standard▁10903
von▁10904
▁muslimische▁10905
▁Besonderheit▁10906
▁Konversation▁10907
▁verschleier▁10908
▁tätowier▁10909
▁wörtlich▁10910
▁49▁10911
▁Burk▁10912
klang▁10913
▁negative▁10914
▁Barmherzigkeit▁10915
▁selbstbewusst▁10916
▁ausgebildet▁10917
▁begehren▁10918
FG▁10919
▁Zwang▁10920
▁scanne▁10921
▁Sicherheit▁10922
▁Urteil▁10923
▁schwul▁10924
▁Ekstase▁10925
sprengt▁10926
▁Kavita▁10927
▁Ram▁10928
▁Trends▁10929
▁rettet▁10930
▁Polar▁10931
▁Unterdrückung▁10932
▁Gesellschaften▁10933
▁Widerstand▁10934
▁verstümmelt▁10935
▁pflanzen▁10936
▁gewaltlose▁10937
isieren▁10938
▁sammelte▁10939
gläubig▁10940
▁Muslim▁10941
▁Les▁10942
▁Liberia▁10943
▁gesegnet▁10944
▁zutiefst▁10945
▁Onkel▁10946
rüstung▁10947
▁elf▁10948
▁Witwe▁10949
▁Verwandte▁10950
reife▁10951
kämpft▁10952
▁exzellente▁10953
▁rebel▁10954
▁Feminist▁10955
▁Hind▁10956
berechtigung▁10957
▁Geschlechter▁10958
▁zurückgekehrt▁10959
▁gegründet▁10960
sprech▁10961
erin▁10962
▁Frauenrechte▁10963
▁Untergrund▁10964
▁Afghan▁10965
▁Koran▁10966
▁Prophe▁10967
▁Gläubige▁10968
▁pragmatis▁10969
▁Kleider▁10970
witz▁10971
▁Moschee▁10972
Alphabetisierung▁10973
▁beobachte▁10974
▁Za▁10975
▁homosexuell▁10976
Unannehmlichkeit▁10977
▁Nachkriegs▁10978
alismus▁10979
▁unerträglich▁10980
▁Maz▁10981
▁Bosnien▁10982
▁Serb▁10983
wan▁10984
▁out▁10985
▁lesbisch▁10986
▁Leah▁10987
▁Roll▁10988
▁Rebe▁10989
ugoslawi▁10990
▁Harmonie▁10991
▁Rep▁10992
▁Homosexu▁10993
trauen▁10994
▁repräsentiert▁10995
▁Out▁10996
▁Mittelalter▁10997
▁Tro▁10998
▁Balkan▁10999
▁Mall▁11000
hai▁11001
▁jahrzehntelang▁11002
▁Bürgerkrieg▁11003
▁Kindersoldat▁11004
▁träumte▁11005
gießen▁11006
▁Anführer▁11007
▁Fried▁11008
▁Polizist▁11009
▁versprach▁11010
▁Eine▁11011
▁Christen▁11012
▁Protest▁11013
▁Make▁11014
▁wochenlang▁11015
▁Verhandlung▁11016
▁angespannt▁11017
▁Polizei▁11018
stafrika▁11019
▁weggehen▁11020
vertrag▁11021
▁Ellen▁11022
▁Staats▁11023
haupt▁11024
cer▁11025
▁Reis▁11026
kuchen▁11027
▁Gay▁11028
▁Pri▁11029
▁Para▁11030
▁Ob▁11031
▁Marx▁11032
wandern▁11033
▁Bestrebung▁11034
▁verleihen▁11035
▁Verbündete▁11036
▁respektiert▁11037
▁Träume▁11038
▁Feminismus▁11039
▁Bündel▁11040
▁Glaube▁11041
▁ultimative▁11042
▁politisch▁11043
eanor▁11044
▁Michelle▁11045
▁Shir▁11046
▁bloße▁11047
web▁11048
▁hi▁11049
▁Schulz▁11050
▁Road▁11051
▁Portland▁11052
▁Oregon▁11053
▁Neben▁11054
▁Nationalpark▁11055
▁South▁11056
▁Dakota▁11057
▁Schrift▁11058
▁Gesichts▁11059
▁imitiert▁11060
▁miss▁11061
▁verrate▁11062
▁Besprechung▁11063
urlaub▁11064
▁Blase▁11065
▁Gewissheit▁11066
▁Berufsleben▁11067
▁fürchterlich▁11068
▁verheerend▁11069
▁aufschlussreich▁11070
▁Irrtum▁11071
▁Mitleid▁11072
erregend▁11073
jo▁11074
▁Renn▁11075
jagt▁11076
rennt▁11077
▁realisiert▁11078
▁realisieren▁11079
schaut▁11080
▁strukturelle▁11081
▁kulturell▁11082
▁Grundschul▁11083
▁verantwortungs▁11084
▁Dumm▁11085
▁Over▁11086
achi▁11087
▁CFO▁11088
trophy▁11089
läufer▁11090
▁smart▁11091
▁talent▁11092
klinik▁11093
esundheitspflege▁11094
▁Vorfall▁11095
▁Interessantes▁11096
▁verlässlich▁11097
▁Betracht▁11098
▁Mexiko▁11099
ped▁11100
▁widerspiegel▁11101
▁zurückgreife▁11102
▁ignorant▁11103
▁Zugriff▁11104
▁großzügig▁11105
▁Tunnel▁11106
▁Puzzle▁11107
verzerren▁11108
▁bösartig▁11109
▁Katastrophe▁11110
▁Erst▁11111
▁durchsichtig▁11112
▁Nachthimmel▁11113
▁Descartes▁11114
▁sum▁11115
▁überwinden▁11116
senheit▁11117
▁Thi▁11118
▁wit▁11119
▁Anwesende▁11120
▁Leser▁11121
marsch▁11122
▁Massenver▁11123
nichtungswaffe▁11124
▁Mittlere▁11125
▁Diktator▁11126
▁aufwachsen▁11127
▁nerd▁11128
mah▁11129
▁Intelligenz▁11130
▁Pass▁11131
▁Gewinner▁11132
zapf▁11133
▁Unterkunft▁11134
▁Häuptling▁11135
nterwäsche▁11136
▁Wei▁11137
▁schlief▁11138
▁Puppe▁11139
▁Spule▁11140
auftrag▁11141
▁Neunjährige▁11142
▁sichere▁11143
▁Blei▁11144
licher▁11145
▁bla▁11146
▁Geschwister▁11147
▁zusammenleb▁11148
▁sport▁11149
▁Begehren▁11150
▁Child▁11151
▁Left▁11152
▁Behind▁11153
▁Millennium▁11154
Entwicklungsziel▁11155
prostitution▁11156
liege▁11157
Kaugummi▁11158
▁TEDTalk▁11159
▁überbrück▁11160
Nobelpreisträger▁11161
▁anwesend▁11162
oung▁11163
▁Girl▁11164
▁Project▁11165
▁hinsetze▁11166
▁Schulabschluss▁11167
▁Juan▁11168
▁Umkreis▁11169
▁sexuelle▁11170
▁wünschte▁11171
▁frustriert▁11172
▁Furcht▁11173
▁Vermögen▁11174
▁vergeben▁11175
Vo▁11176
▁Intellekt▁11177
▁LG▁11178
▁Versöhnung▁11179
▁Dreck▁11180
▁Epidemie▁11181
▁mitmachen▁11182
▁li▁11183
ianische▁11184
▁gha▁11185
Bühne▁11186
▁pessimistisch▁11187
ffnung▁11188
mine▁11189
▁Wahlen▁11190
▁mobilisier▁11191
▁Kandidaten▁11192
▁Vergewaltigung▁11193
schaffen▁11194
▁barbari▁11195
▁Gespräche▁11196
wählen▁11197
▁Globalisierung▁11198
▁Mega▁11199
tasche▁11200
ädchen▁11201
schuhe▁11202
ähen▁11203
stunden▁11204
▁iPad▁11205
▁Ungerechtigkeit▁11206
▁unterdrücken▁11207
▁Verlangen▁11208
▁Ausbeut▁11209
▁verlockend▁11210
▁arrogant▁11211
▁Unsichtbarkeit▁11212
▁Mobiltelefon▁11213
▁gewöhnlichen▁11214
zulerne▁11215
wechseln▁11216
▁Nächte▁11217
▁herstellt▁11218
▁kennenlernte▁11219
▁entstellt▁11220
▁Abkürzung▁11221
▁Karl▁11222
▁Kapitalismus▁11223
▁Britische▁11224
▁Journalism▁11225
▁Einstieg▁11226
▁Berechnung▁11227
▁circa▁11228
▁Min▁11229
dorf▁11230
▁Coach▁11231
▁Leder▁11232
ake▁11233
▁amp▁11234
▁dämmert▁11235
▁drehte▁11236
▁heiratete▁11237
pol▁11238
▁luxur▁11239
▁Proportion▁11240
▁Masse▁11241
▁Elektronik▁11242
gekündigt▁11243
▁spart▁11244
▁vorübergehend▁11245
▁Restaurants▁11246
▁Baustelle▁11247
▁Nike▁11248
▁witzig▁11249
▁vorfinde▁11250
▁hinausgeh▁11251
▁Apple▁11252
LC▁11253
▁Analphabet▁11254
▁Wochenende▁11255
▁immense▁11256
bwärts▁11257
▁Mittelklasse▁11258
▁Verstehen▁11259
▁Schrö▁11260
gendorfer▁11261
Gregor▁11262
▁Kyros▁11263
lin▁11264
▁zerbrochen▁11265
spürt▁11266
östliche▁11267
by▁11268
trockne▁11269
▁187▁11270
rolle▁11271
▁Invasion▁11272
▁Truppen▁11273
pot▁11274
▁Regime▁11275
▁Episode▁11276
▁Bel▁11277
az▁11278
▁Parallel▁11279
▁Rem▁11280
brand▁11281
▁Propheten▁11282
ez▁11283
▁Jerusalem▁11284
▁Juden▁11285
plünder▁11286
▁golden▁11287
▁holt▁11288
gefäß▁11289
▁jüdische▁11290
▁Volks▁11291
▁Babylon▁11292
▁Mittelmeer▁11293
geleitet▁11294
▁irakische▁11295
gestürzt▁11296
formulier▁11297
▁verfasst▁11298
bertreibung▁11299
▁versklav▁11300
länder▁11301
ückkehr▁11302
▁Judentum▁11303
▁Verschiebung▁11304
▁Dari▁11305
format▁11306
▁Angewohnheit▁11307
▁Vorbild▁11308
▁Alexander▁11309
▁Cyr▁11310
▁Gründung▁11311
▁Jefferson▁11312
▁18.▁11313
▁baby▁11314
▁19.▁11315
▁erschüttert▁11316
▁Mar▁11317
duk▁11318
▁veranlasst▁11319
mütig▁11320
fass▁11321
▁Testament▁11322
▁priest▁11323
▁deutet▁11324
▁angedeute▁11325
▁agiert▁11326
four▁11327
lar▁11328
▁imperial▁11329
▁Osteuropa▁11330
▁1918▁11331
▁Imperi▁11332
▁islamische▁11333
▁angreif▁11334
▁Moslem▁11335
▁from▁11336
▁naheliegend▁11337
▁tolerant▁11338
wühlen▁11339
▁Rhetorik▁11340
▁oberste▁11341
▁Charta▁11342
▁Herbst▁11343
▁ausgedrückt▁11344
▁Joshua▁11345
▁Krähen▁11346
▁Hacker▁11347
▁Erforschung▁11348
vögel▁11349
▁Alfred▁11350
itch▁11351
cock▁11352
▁Snack▁11353
automat▁11354
▁Cocktail▁11355
▁beschwerte▁11356
teten▁11357
nordnung▁11358
▁ärgert▁11359
▁Parasiten▁11360
▁anpassungsfähig▁11361
spitze▁11362
▁brüten▁11363
zählung▁11364
▁deuten▁11365
▁Röhrchen▁11366
▁Draht▁11367
▁spontan▁11368
löcher▁11369
▁lästig▁11370
▁eingefangen▁11371
▁fortsetz▁11372
▁feststellte▁11373
▁leg▁11374
▁verschlossen▁11375
▁Ampel▁11376
▁knack▁11377
endai▁11378
▁Vorort▁11379
treue▁11380
▁Pandora▁11381
▁flexibel▁11382
▁Skinner▁11383
ition▁11384
▁Stufen▁11385
uszubilden▁11386
Erdnüsse▁11387
▁hüpfen▁11388
▁vorbeikomm▁11389
▁besorg▁11390
▁zurückkommen▁11391
▁tie▁11392
▁langweil▁11393
hüpf▁11394
▁erfreut▁11395
▁Monopol▁11396
▁Stadion▁11397
▁Hauptsache▁11398
seitige▁11399
▁Log▁11400
▁Business▁11401
USC▁11402
▁Führerschein▁11403
▁Stammes▁11404
neigung▁11405
▁Bowl▁11406
right▁11407
räte▁11408
sprochen▁11409
▁Relevanz▁11410
▁Clinton▁11411
mination▁11412
agte▁11413
present▁11414
▁Parteien▁11415
▁Tue▁11416
▁Obama▁11417
▁Gruppierung▁11418
▁zoom▁11419
▁sähe▁11420
▁Virgin▁11421
▁Tech▁11422
▁beschissen▁11423
▁Law▁11424
▁Performance▁11425
▁Feindseligkeit▁11426
▁Fahrzeug▁11427
brächte▁11428
▁null▁11429
▁Aufzug▁11430
▁Lächeln▁11431
▁Robotern▁11432
programm▁11433
▁lachte▁11434
▁klopft▁11435
▁hmm▁11436
Weihnachten▁11437
▁Flur▁11438
▁Call▁11439
cent▁11440
▁Dekoration▁11441
▁applaud▁11442
berschrift▁11443
▁noble▁11444
▁Auseinandersetz▁11445
lit▁11446
▁Wohnort▁11447
erklärung▁11448
▁Phrase▁11449
▁Luther▁11450
▁48▁11451
orientiert▁11452
isco▁11453
▁wandert▁11454
▁angeregt▁11455
▁versammel▁11456
trächtig▁11457
netzwerk▁11458
▁steigert▁11459
▁Gallup▁11460
BC▁11461
▁gelangweilt▁11462
▁ermitteln▁11463
▁McCain▁11464
owa▁11465
nobelpreis▁11466
▁Schwarzafrika▁11467
▁Frederic▁11468
▁Micro▁11469
▁Fellow▁11470
▁vervielfach▁11471
ahara▁11472
▁AIDS▁11473
zuschlagen▁11474
▁kostenlose▁11475
▁Volkswirtschaft▁11476
▁Zusammenbruch▁11477
▁bewahrt▁11478
tämme▁11479
▁Miniatur▁11480
▁Rechenmaschine▁11481
▁liebt▁11482
rofluid▁11483
▁Funktionsweise▁11484
▁Kanäle▁11485
▁Pumpe▁11486
belastung▁11487
▁sicherer▁11488
▁pr▁11489
▁befördern▁11490
▁Jona▁11491
▁Tricks▁11492
▁visuell▁11493
▁Blüte▁11494
▁Pollen▁11495
▁ultraviolet▁11496
viertel▁11497
▁Teufel▁11498
▁vermehren▁11499
skop▁11500
fen▁11501
▁ineffizient▁11502
▁landet▁11503
schleuder▁11504
▁Blume▁11505
▁Gräser▁11506
▁Bestimmung▁11507
▁Nektar▁11508
▁Kolibri▁11509
▁Markierung▁11510
▁Staub▁11511
▁Beutel▁11512
▁Maul▁11513
rabbeln▁11514
▁Bestäuber▁11515
▁roll▁11516
streckte▁11517
▁kopiert▁11518
▁hinschau▁11519
▁übertragen▁11520
haben▁11521
▁Elektronen▁11522
▁Textur▁11523
▁glänzende▁11524
metall▁11525
Mikro▁11526
▁Biene▁11527
angebot▁11528
▁fabelhaft▁11529
▁Can▁11530
aba▁11531
▁riech▁11532
▁Heli▁11533
stab▁11534
▁Dor▁11535
wärmt▁11536
temperatur▁11537
▁angezogen▁11538
▁Behälter▁11539
▁Mücken▁11540
▁Favorit▁11541
▁Sel▁11542
▁verbrenn▁11543
▁Schmetterling▁11544
▁tropische▁11545
▁Grün▁11546
▁Filter▁11547
creme▁11548
▁abschließend▁11549
▁Ror▁11550
▁poetische▁11551
▁Astronom▁11552
▁Venus▁11553
▁Nebel▁11554
▁schenke▁11555
▁Austausch▁11556
▁Kim▁11557
▁koreanische▁11558
▁Fernsehen▁11559
▁Gesang▁11560
▁Mono▁11561
ram▁11562
▁House▁11563
Musik▁11564
lügt▁11565
▁zeig▁11566
▁Mama▁11567
▁Lügen▁11568
▁wunderbarer▁11569
▁infant▁11570
ubert▁11571
▁Essenz▁11572
gefährden▁11573
▁Kafka▁11574
▁Verwandlung▁11575
▁rechtfertige▁11576
▁nutzlos▁11577
▁glücklichste▁11578
händig▁11579
▁auszusehen▁11580
▁Michel▁11581
▁sc▁11582
helm▁11583
▁tour▁11584
made▁11585
freudig▁11586
vertreib▁11587
▁male▁11588
▁fleißig▁11589
▁Zeichnen▁11590
law▁11591
▁Base▁11592
▁bestraft▁11593
läut▁11594
▁amateur▁11595
▁Lenk▁11596
▁eingeschlossen▁11597
▁dunkler▁11598
▁Kara▁11599
▁Gitarre▁11600
▁offenbart▁11601
steller▁11602
▁Lego▁11603
▁negativ▁11604
▁Eifer▁11605
▁Fernbedienung▁11606
▁kritisiere▁11607
▁schau▁11608
studie▁11609
▁psychiatr▁11610
▁laufe▁11611
▁Fri▁11612
▁Ehepartner▁11613
▁Ach▁11614
▁Alkohol▁11615
rry▁11616
sitz▁11617
▁Fahrer▁11618
▁Taxifahr▁11619
▁Rollen▁11620
▁Lear▁11621
▁Marth▁11622
▁Graham▁11623
▁Künstlerin▁11624
▁Just▁11625
rührt▁11626
▁Christian▁11627
▁Blogs▁11628
▁Rückgrat▁11629
grad▁11630
▁Fond▁11631
▁Clip▁11632
▁aussagt▁11633
ucci▁11634
no▁11635
▁Sterne▁11636
▁eigenständig▁11637
▁feindliche▁11638
▁Drohung▁11639
polizei▁11640
kunde▁11641
▁bedrohen▁11642
▁Wechselwirkung▁11643
sturz▁11644
▁Zeitlupe▁11645
▁fein▁11646
▁Pläne▁11647
▁strategische▁11648
▁Milo▁11649
evic▁11650
▁schicke▁11651
▁Krawatte▁11652
▁brillante▁11653
▁Jackson▁11654
▁ärgerlich▁11655
▁googel▁11656
▁treffe▁11657
▁Wohltätigkeit▁11658
▁Bank▁11659
▁Banken▁11660
▁sammelt▁11661
▁Zins▁11662
▁brillant▁11663
lov▁11664
rati▁11665
▁ausgeklügelte▁11666
▁Druckerpresse▁11667
Plan▁11668
▁DI▁11669
▁97▁11670
ünktlich▁11671
▁finanzier▁11672
▁Send▁11673
▁Who▁11674
europa▁11675
▁Nikola▁11676
riegel▁11677
wide▁11678
▁Ass▁11679
lösen▁11680
listen▁11681
▁Rechenschaft▁11682
profit▁11683
Organisation▁11684
▁bewundern▁11685
raising▁11686
▁taub▁11687
schaltet▁11688
▁Nenn▁11689
▁1.000▁11690
▁emitt▁11691
▁Bangladesch▁11692
▁tag▁11693
spinne▁11694
▁stecke▁11695
▁klick▁11696
▁Morning▁11697
▁spektakulär▁11698
▁Stern▁11699
▁Blinden▁11700
▁Web▁11701
▁Hilfsmittel▁11702
▁ethnische▁11703
▁Bedürfnis▁11704
▁traditions▁11705
beginn▁11706
▁Poe▁11707
▁Leit▁11708
▁Klatsch▁11709
▁verschob▁11710
puren▁11711
programme▁11712
▁durchsucht▁11713
Einträge▁11714
▁Datenbank▁11715
▁Partikel▁11716
äußert▁11717
▁leuchtende▁11718
▁schmi▁11719
▁Lippen▁11720
▁Teich▁11721
▁Mob▁11722
▁verabschiede▁11723
nfolge▁11724
▁verwirrt▁11725
▁statistisch▁11726
schlüssel▁11727
niedergeschlagen▁11728
▁geschlechts▁11729
spezifische▁11730
ußerung▁11731
analyse▁11732
ogramm▁11733
▁sonnige▁11734
▁regne▁11735
▁flatter▁11736
▁numer▁11737
▁galler▁11738
▁Klecks▁11739
mont▁11740
städt▁11741
▁Spinne▁11742
▁Gel▁11743
▁passive▁11744
▁bevorzuge▁11745
ahoo▁11746
▁unterteilt▁11747
▁Wut▁11748
▁Trauer▁11749
▁übersetzt▁11750
▁rotieren▁11751
▁Beiträge▁11752
▁World▁11753
strich▁11754
▁Kapsel▁11755
▁projiziert▁11756
code▁11757
▁Wüsten▁11758
▁archetyp▁11759
▁abgebildet▁11760
▁geschossen▁11761
▁Sternen▁11762
ürtel▁11763
▁Jäger▁11764
▁Andromeda▁11765
▁Griechen▁11766
▁Deb▁11767
▁Enthüllung▁11768
▁Mythologie▁11769
geist▁11770
▁Ford▁11771
▁isolieren▁11772
Geheimnisse▁11773
▁alphabet▁11774
▁Anna▁11775
▁Orbit▁11776
▁Sar▁11777
fotograf▁11778
▁Repräsentation▁11779
shot▁11780
▁hervorheb▁11781
▁Barack▁11782
▁Alabama▁11783
▁Jazeera▁11784
▁Superstar▁11785
▁Lib▁11786
▁Nairobi▁11787
▁erkundet▁11788
▁Kollaboration▁11789
▁part▁11790
▁Handeln▁11791
▁angeborene▁11792
▁Instinkt▁11793
▁verpflichte▁11794
▁Stärk▁11795
▁dominierende▁11796
▁Anfänge▁11797
▁Kooperation▁11798
▁schrumpft▁11799
▁Smart▁11800
▁nachdachte▁11801
▁blickt▁11802
medien▁11803
▁nomad▁11804
▁Kaninchen▁11805
▁Reichtum▁11806
▁Ackerbau▁11807
▁Lehm▁11808
▁Schulden▁11809
▁Weizen▁11810
▁Alphabet▁11811
▁ermöglichte▁11812
▁schreib▁11813
▁kooperative▁11814
▁Haft▁11815
führung▁11816
V▁11817
▁Radiosend▁11818
▁signifikant▁11819
▁Breitband▁11820
▁Soziologe▁11821
▁myth▁11822
efangenendilemma▁11823
▁Kelly▁11824
▁Nachdenken▁11825
matrix▁11826
bittert▁11827
▁Konkurrent▁11828
turn▁11829
▁Turn▁11830
▁Akteur▁11831
▁10.▁11832
▁le▁11833
▁neo▁11834
lehre▁11835
lehnen▁11836
▁able▁11837
▁rod▁11838
▁Landwirte▁11839
▁Amazonas▁11840
▁Hirte▁11841
▁Zentral▁11842
▁dutzende▁11843
▁Garret▁11844
▁1960▁11845
▁Weide▁11846
▁Herde▁11847
gras▁11848
güter▁11849
▁Gefangen▁11850
fächer▁11851
▁Außenseiter▁11852
▁bestrafe▁11853
▁neuro▁11854
▁altruist▁11855
▁Bestrafung▁11856
row▁11857
ochai▁11858
▁Abhandlung▁11859
▁Open▁11860
Source▁11861
▁Sun▁11862
▁Informations▁11863
▁pharmazeutische▁11864
▁Branche▁11865
▁schaffte▁11866
▁Toyota▁11867
▁Altruismus▁11868
▁Linux▁11869
illa▁11870
▁bereichert▁11871
▁Blogger▁11872
Sense▁11873
▁Entwickler▁11874
▁bereichern▁11875
▁Motive▁11876
▁eBay▁11877
▁Think▁11878
cle▁11879
▁Nichtregierungs▁11880
▁inklusive▁11881
load▁11882
▁Kollektiv▁11883
▁at▁11884
▁Home▁11885
▁Eigeninteresse▁11886
▁ausschließlich▁11887
▁unternahm▁11888
▁Kenia▁11889
▁Mobilfunk▁11890
telefon▁11891
übergreifende▁11892
▁Angehörige▁11893
▁Sünde▁11894
▁Mikroorganism▁11895
▁Diskurs▁11896
Gordon▁11897
▁Brown▁11898
▁Aufbau▁11899
▁Wohl▁11900
▁Global▁11901
▁White▁11902
▁erweckt▁11903
▁him▁11904
ane▁11905
▁lauert▁11906
▁geschockt▁11907
schossen▁11908
▁Sympathie▁11909
▁Palm▁11910
▁schwedische▁11911
▁President▁11912
▁abschaff▁11913
▁verwirklichen▁11914
▁Neue▁11915
▁Sklaven▁11916
▁William▁11917
force▁11918
ierende▁11919
▁geriet▁11920
dauert▁11921
bb▁11922
▁Save▁11923
hildren▁11924
lokal▁11925
▁gewollt▁11926
▁Burm▁11927
▁Mönch▁11928
▁Gehör▁11929
schenkt▁11930
Adresse▁11931
▁Bewusstseins▁11932
▁Sklaverei▁11933
▁Wohlfahrt▁11934
▁Diskriminierung▁11935
▁Ausrichtung▁11936
▁Nelson▁11937
▁Mandela▁11938
house▁11939
▁zusammengefasst▁11940
zwingen▁11941
▁bevorsteh▁11942
▁Terrorismus▁11943
▁versehen▁11944
▁Kopenhagen▁11945
Institut▁11946
Programm▁11947
▁ärmer▁11948
Markt▁11949
Produkt▁11950
▁transfer▁11951
▁Stabilität▁11952
▁Sierra▁11953
▁Leone▁11954
▁Tansania▁11955
▁Mir▁11956
▁Tuberkulose▁11957
▁Traurigkeit▁11958
▁belohnt▁11959
▁reichste▁11960
▁Netto▁11961
▁Export▁11962
▁Sudan▁11963
▁Tode▁11964
glaubt▁11965
▁Griechenland▁11966
▁Halluzination▁11967
▁Neurologe▁11968
Bonnet▁11969
hindert▁11970
▁lebhafte▁11971
▁rühren▁11972
führ▁11973
▁beachtet▁11974
schnappt▁11975
▁Schlaganfall▁11976
▁Rosali▁11977
▁Katzen▁11978
▁blau▁11979
▁hall▁11980
uz▁11981
▁untersuchte▁11982
geweckt▁11983
▁visueller▁11984
▁Blind▁11985
▁behindert▁11986
▁175▁11987
▁beschrieb▁11988
tücher▁11989
▁rauchte▁11990
▁Schreibtisch▁11991
▁Palin▁11992
▁hyper▁11993
streif▁11994
▁Kühl▁11995
▁senkrecht▁11996
▁Frosch▁11997
▁Einflüsse▁11998
▁stört▁11999
▁beruhigen▁12000
udi▁12001
▁verspotte▁12002
▁interagiert▁12003
verse▁12004
lärm▁12005
▁1982▁12006
▁Vertraut▁12007
schlüssig▁12008
häufigste▁12009
▁bildlich▁12010
▁fMRI▁12011
▁fusiform▁12012
▁Erkennung▁12013
▁1970▁12014
Mart▁12015
▁Fragment▁12016
▁inferior▁12017
▁neuron▁12018
zusammenhängende▁12019
▁Imagination▁12020
▁Stimulation▁12021
▁erkenne▁12022
▁Assoziation▁12023
▁ignor▁12024
▁Migräne▁12025
▁Landminen▁12026
lohn▁12027
▁verkaufte▁12028
▁import▁12029
▁Vielfältig▁12030
sländer▁12031
▁extrahieren▁12032
▁kündigte▁12033
▁Prinzessin▁12034
▁Diana▁12035
▁nachhaltig▁12036
▁Geruch▁12037
▁ausgeprägte▁12038
▁lokalisieren▁12039
Verhaltensmuster▁12040
▁verstärken▁12041
▁Bananen▁12042
▁Käfig▁12043
▁Minen▁12044
▁Action▁12045
▁geprüft▁12046
kredit▁12047
uadratmeter▁12048
▁beliebig▁12049
hund▁12050
▁schilder▁12051
▁Primär▁12052
infektion▁12053
positive▁12054
positiv▁12055
▁Umgang▁12056
▁89▁12057
▁86▁12058
▁gene▁12059
▁Spreng▁12060
Kassette▁12061
Geräusch▁12062
ausgesetzt▁12063
80▁12064
anwendung▁12065
▁Zoll▁12066
▁illegal▁12067
▁Sala▁12068
▁1800▁12069
▁steigern▁12070
▁gesteigert▁12071
▁beachtlich▁12072
deckt▁12073
loch▁12074
▁replizier▁12075
▁zahlreich▁12076
▁respektvoll▁12077
▁Etwa▁12078
▁Fast▁12079
♫▁12080
▁Lupe▁12081
▁Gesch▁12082
▁abnormal▁12083
Chromosom▁12084
▁muse▁12085
▁bekäme▁12086
▁Inspiration▁12087
▁neurologische▁12088
▁Wahnvorstellung▁12089
▁Psycho▁12090
pu▁12091
wünscht▁12092
Baptiste▁12093
▁Gottes▁12094
▁erdenkliche▁12095
ngesicht▁12096
▁bringe▁12097
uantenmechani▁12098
▁Materie▁12099
▁Unbekannte▁12100
▁Unsicherheit▁12101
felt▁12102
▁gefürchtet▁12103
▁Beobachter▁12104
▁schlicht▁12105
▁Stringtheorie▁12106
dimension▁12107
deutigkeit▁12108
▁Sprichwort▁12109
▁einmarschiert▁12110
▁buddhistische▁12111
trinken▁12112
▁situation▁12113
▁identifiziert▁12114
ffekt▁12115
▁Schwerpunkt▁12116
▁Strang▁12117
ime▁12118
▁überein▁12119
▁moralisch▁12120
▁Opium▁12121
▁Selbstmord▁12122
▁unheimlich▁12123
heil▁12124
▁Tai▁12125
▁tourist▁12126
▁unberührt▁12127
▁bedrohlich▁12128
▁Unbehagen▁12129
▁Stapel▁12130
▁stieß▁12131
bereinstimmung▁12132
▁Zufälle▁12133
▁Konstante▁12134
▁nachdenke▁12135
▁Unfälle▁12136
▁Gui▁12137
hou▁12138
▁Unfall▁12139
▁Schüssel▁12140
▁Verantwortlich▁12141
▁Rituale▁12142
zeihung▁12143
▁ablaufen▁12144
▁Synchroni▁12145
ional▁12146
▁Teilchen▁12147
▁erschaffe▁12148
▁Keyboard▁12149
▁Glocke▁12150
▁Akkord▁12151
▁reizvoll▁12152
▁vi▁12153
▁rose▁12154
▁begrüßen▁12155
diagnose▁12156
skrit▁12157
▁Ode▁12158
▁choreograph▁12159
▁Auszeichnung▁12160
▁zivile▁12161
▁cancer▁12162
▁stage▁12163
▁grade▁12164
▁Tugend▁12165
▁Abscheu▁12166
▁bloss▁12167
▁Auszeit▁12168
▁ableite▁12169
gehe▁12170
▁herausziehe▁12171
▁trocknet▁12172
▁lächeln▁12173
▁gla▁12174
▁Chemotherapie▁12175
▁Folter▁12176
▁Pantheon▁12177
▁Hindu▁12178
ritt▁12179
▁shak▁12180
▁gestärkt▁12181
▁Mytho▁12182
messer▁12183
wind▁12184
▁Hindernisse▁12185
▁Ausdauer▁12186
▁bewaffnet▁12187
▁Spence▁12188
▁Well▁12189
ographic▁12190
uinea▁12191
▁Unglaublich▁12192
▁oberflächlich▁12193
▁homogene▁12194
,5▁12195
▁Großstadt▁12196
gründung▁12197
▁zerleg▁12198
▁Gorilla▁12199
▁Indische▁12200
▁Südostasien▁12201
▁Gibbon▁12202
▁Orang▁12203
Utan▁12204
▁wuerde▁12205
äße▁12206
▁Pilze▁12207
▁aufzeigt▁12208
▁Hominid▁12209
spezies▁12210
▁Old▁12211
Schlucht▁12212
▁Leakey▁12213
▁erect▁12214
▁late▁12215
▁Europäer▁12216
▁monstro▁12217
▁Anthropo▁12218
ifikation▁12219
Carlton▁12220
▁morpholog▁12221
▁genealog▁12222
stamm▁12223
▁Hab▁12224
▁Verwandtschaft▁12225
▁Latein▁12226
,2▁12227
rechnen▁12228
▁nähme▁12229
▁Korrektur▁12230
mechanismus▁12231
marke▁12232
änderung▁12233
rial▁12234
▁mütterliche▁12235
▁vereinfachte▁12236
▁Eva▁12237
▁mitochondria▁12238
▁kurzer▁12239
Frage▁12240
▁Geschichts▁12241
▁Maxim▁12242
▁rau▁12243
kugel▁12244
▁Seattle▁12245
decke▁12246
▁85▁12247
▁Wende▁12248
klima▁12249
▁rekonstruier▁12250
▁Antarktis▁12251
▁Niederschlag▁12252
▁sank▁12253
▁Sahara▁12254
▁Faden▁12255
▁Neandertaler▁12256
▁beleidige▁12257
gewohnheiten▁12258
▁verfeiner▁12259
yntax▁12260
▁Ausdehnung▁12261
migration▁12262
flüge▁12263
▁Töten▁12264
▁jagte▁12265
▁Grasland▁12266
▁feucht▁12267
▁Zentralasien▁12268
▁Sibirien▁12269
ith▁12270
▁Wanderung▁12271
▁Ursprünge▁12272
▁Skizze▁12273
▁indigen▁12274
▁gemischt▁12275
▁Rover▁12276
▁25.000▁12277
▁erstaunlichste▁12278
▁Gaza▁12279
istan▁12280
▁Pistole▁12281
mbient▁12282
▁Album▁12283
▁Streich▁12284
▁1930▁12285
lzt▁12286
▁Arche▁12287
▁erheben▁12288
▁versunken▁12289
kollektor▁12290
▁1947▁12291
▁Jerem▁12292
▁Zerstörung▁12293
▁unschuldig▁12294
▁Legastheni▁12295
▁Töpfe▁12296
▁Besorgnis▁12297
▁teilhabe▁12298
▁irrelevant▁12299
ellen▁12300
Gewaltlosigkeit▁12301
ember▁12302
▁Kriegsgefangene▁12303
▁Bombe▁12304
▁vergifte▁12305
taatsoberhäupter▁12306
▁NGO▁12307
gemeinschaft▁12308
▁Geschäftsführer▁12309
▁British▁12310
ways▁12311
▁Oscar▁12312
resultat▁12313
▁Schöne▁12314
▁Mary▁12315
▁Robinson▁12316
▁Hippie▁12317
▁Ahmed▁12318
▁Arabisch▁12319
▁vereinen▁12320
▁anhalten▁12321
▁verwirren▁12322
▁54▁12323
▁Unterstützer▁12324
▁General▁12325
▁Datum▁12326
▁Kalender▁12327
▁Theatr▁12328
▁institutional▁12329
▁Korridor▁12330
▁Mentor▁12331
ICE▁12332
▁filmte▁12333
helfen▁12334
▁Anhänger▁12335
▁ausschlaggebend▁12336
▁NATO▁12337
▁Russ▁12338
▁Helfer▁12339
wickelt▁12340
▁Dialekt▁12341
▁Kommandant▁12342
angriff▁12343
▁gesunken▁12344
hauen▁12345
stossen▁12346
▁Social▁12347
▁Petition▁12348
letzlich▁12349
▁erwecken▁12350
▁Fuss▁12351
wusst▁12352
▁lobby▁12353
bezirk▁12354
▁365▁12355
▁Mel▁12356
▁French▁12357
▁Coca▁12358
Cola▁12359
▁Coke▁12360
▁sanit▁12361
▁Trip▁12362
▁fließende▁12363
▁Elektrizität▁12364
▁NRO▁12365
▁Sektor▁12366
Regel▁12367
▁Namibia▁12368
▁Sprit▁12369
▁Evaluation▁12370
▁Pin▁12371
▁Zweite▁12372
▁192▁12373
Truck▁12374
▁Vertrieb▁12375
Center▁12376
▁Fahrräder▁12377
▁3000▁12378
▁Tanzania▁12379
▁Einnahmen▁12380
▁Ethiopia▁12381
▁Notfall▁12382
suchen▁12383
erala▁12384
▁2.5▁12385
Mitarbeiter▁12386
▁Familienplanung▁12387
svorsorge▁12388
▁kommunale▁12389
komponente▁12390
unternehmer▁12391
▁Happiness▁12392
▁assoziier▁12393
▁Cup▁12394
aving▁12395
▁Somali▁12396
Ei▁12397
eidung▁12398
▁Dia▁12399
rrh▁12400
▁Sanitär▁12401
▁position▁12402
▁Bequemlichkeit▁12403
▁Braut▁12404
werbung▁12405
▁Rückgang▁12406
▁1.6▁12407
▁Lähmung▁12408
monate▁12409
▁15.▁12410
probe▁12411
▁Jh▁12412
▁epi▁12413
räum▁12414
eute▁12415
empfunden▁12416
▁AlloSphere▁12417
spektrum▁12418
▁kartier▁12419
osphere▁12420
▁Spin▁12421
▁Hirnregion▁12422
▁verspüre▁12423
uell▁12424
RI▁12425
Agenten▁12426
▁Rechteck▁12427
generat▁12428
iven▁12429
▁Installation▁12430
▁Simulation▁12431
▁generat▁12432
▁Schwarm▁12433
▁bakterielle▁12434
▁atomare▁12435
Daten▁12436
▁Light▁12437
▁Energ▁12438
▁Solarzellen▁12439
▁2,000▁12440
▁Signatur▁12441
▁Schrödinger▁12442
Gleichung▁12443
▁Elektro▁12444
▁flies▁12445
bit▁12446
▁puls▁12447
▁Photo▁12448
▁emit▁12449
▁Kalku▁12450
ronic▁12451
▁Barbar▁12452
unders▁12453
door▁12454
▁Südpol▁12455
▁Schlitt▁12456
▁virtue▁12457
▁progress▁12458
▁Macher▁12459
▁Betrachter▁12460
▁Letzt▁12461
▁bestieg▁12462
gedruckt▁12463
▁Kohle▁12464
▁Eisen▁12465
▁geniess▁12466
▁plant▁12467
▁Eisbär▁12468
▁Helikopter▁12469
ämmer▁12470
▁überquert▁12471
▁Kilo▁12472
▁Kälte▁12473
▁Ausblick▁12474
▁bemühe▁12475
zuschauen▁12476
▁Substanz▁12477
Jahr▁12478
▁Bauchspeichel▁12479
drüsenkrebs▁12480
▁Crack▁12481
▁probiert▁12482
▁ruin▁12483
▁Streben▁12484
▁Captain▁12485
▁norwegische▁12486
▁demoralisier▁12487
▁kehrte▁12488
zulaufen▁12489
▁Oma▁12490
▁unvollendet▁12491
▁kühn▁12492
▁vollendet▁12493
▁umkehren▁12494
monatige▁12495
berater▁12496
strasse▁12497
▁Osterinsel▁12498
▁Famil▁12499
▁Stürme▁12500
▁metaphor▁12501
▁Savage▁12502
▁Faszination▁12503
▁Dodo▁12504
▁Mauriti▁12505
▁Madagaskar▁12506
▁arch▁12507
▁Sammlung▁12508
ifiziert▁12509
▁hinweisen▁12510
▁vergiss▁12511
▁Ordner▁12512
verbindung▁12513
ockpit▁12514
foto▁12515
waffen▁12516
▁gezeichnet▁12517
▁Requisite▁12518
▁Drachen▁12519
▁chaotisch▁12520
▁hochzu▁12521
▁Line▁12522
child▁12523
lastic▁12524
▁angefertigt▁12525
▁vertiefen▁12526
▁stolperte▁12527
▁Maltese▁12528
▁Falken▁12529
▁verlieb▁12530
▁Kni▁12531
zeremonie▁12532
▁fiktive▁12533
▁Repräsentant▁12534
▁Begierde▁12535
▁heruntergeladen▁12536
▁genaue▁12537
▁Christi▁12538
▁kontaktier▁12539
aya▁12540
▁Flo▁12541
▁Kontroverse▁12542
requisite▁12543
gossen▁12544
▁kontrovers▁12545
▁Negative▁12546
gestimmt▁12547
▁Proz▁12548
▁hinkriege▁12549
▁mat▁12550
Grund▁12551
▁tropft▁12552
reflex▁12553
▁Reflexion▁12554
▁Fred▁12555
▁Mörder▁12556
▁Lokal▁12557
plica▁12558
▁Forum▁12559
▁befreundet▁12560
▁Bronze▁12561
▁befriedigen▁12562
packen▁12563
Modell▁12564
▁Silikon▁12565
schi▁12566
▁unerwartete▁12567
▁Spezial▁12568
▁6,▁12569
Verbindung▁12570
▁Kenntnis▁12571
bewusst▁12572
▁Videokamera▁12573
▁wegnehme▁12574
▁Transport▁12575
▁Maslow▁12576
▁überschreiten▁12577
▁zeitlich▁12578
▁empfangen▁12579
▁universe▁12580
▁Privatsphäre▁12581
▁telefoniere▁12582
▁nette▁12583
▁umdreh▁12584
▁Glückskeks▁12585
Perspektive▁12586
spruch▁12587
treiber▁12588
▁rudiment▁12589
▁geeignet▁12590
▁wohlhabend▁12591
▁Elegan▁12592
▁anpasst▁12593
▁Grameen▁12594
Bank▁12595
▁Aufsicht▁12596
▁Umlauf▁12597
▁Ji▁12598
▁zusammensetz▁12599
▁Know▁12600
▁Viagra▁12601
shop▁12602
▁banal▁12603
▁Hütte▁12604
▁verkörpert▁12605
▁Vermittler▁12606
▁Grundsatz▁12607
völker▁12608
rechnet▁12609
lumni▁12610
▁anregend▁12611
▁humor▁12612
▁übertreibe▁12613
▁verflochten▁12614
▁Atombombe▁12615
▁Holocaust▁12616
▁Erwärmung▁12617
▁sämtliche▁12618
▁anerkennen▁12619
▁Erzeugung▁12620
zucht▁12621
tmosphäre▁12622
▁Witze▁12623
▁20-▁12624
▁Luftverschmutzu▁12625
▁fortschrittlich▁12626
umweltfreundlich▁12627
▁Atomkraft▁12628
▁Ann▁12629
skrankheiten▁12630
leiden▁12631
▁Kohlehydrate▁12632
▁Lungen▁12633
▁jetzige▁12634
▁Mächte▁12635
▁übermäßige▁12636
▁Junk▁12637
food▁12638
▁pflanzliche▁12639
▁Karotte▁12640
brot▁12641
natürliche▁12642
hunger▁12643
▁erneuerbare▁12644
▁Energien▁12645
▁Marionette▁12646
▁Agrar▁12647
▁USDA▁12648
pyramide▁12649
▁Vollkorn▁12650
▁Pyramide▁12651
▁unverändert▁12652
▁Low▁12653
Car▁12654
gerechte▁12655
▁Herzerkrankung▁12656
▁Dictionar▁12657
▁ernannt▁12658
▁trend▁12659
▁pop▁12660
▁angelang▁12661
▁gesetzlich▁12662
Bird▁12663
▁Tief▁12664
kette▁12665
▁Einheimische▁12666
▁Köch▁12667
▁Julia▁12668
philosoph▁12669
▁landesweit▁12670
gesundheit▁12671
▁fett▁12672
▁Eiweiß▁12673
▁Zutat▁12674
▁Cor▁12675
▁Orange▁12676
▁Lastwagen▁12677
▁Vorstädte▁12678
▁Salat▁12679
▁Brokkoli▁12680
▁bra▁12681
▁verfütter▁12682
▁Subvention▁12683
▁geniale▁12684
▁seltener▁12685
▁Ofen▁12686
▁Express▁12687
▁Gärt▁12688
▁übt▁12689
▁Koch▁12690
▁industrie▁12691
▁ausübe▁12692
▁Supermärkte▁12693
▁Chicken▁12694
ürze▁12695
▁McNugget▁12696
▁fade▁12697
▁Käse▁12698
ordnung▁12699
▁Styropor▁12700
▁Ausgangspunkt▁12701
▁Prognose▁12702
▁verdoppeln▁12703
▁Nährstoffe▁12704
gesteuerte▁12705
▁empfohlen▁12706
▁empfehle▁12707
▁Linksliberale▁12708
gestopft▁12709
▁vermehrt▁12710
gedanken▁12711
▁Schwierige▁12712
▁Zuhören▁12713
▁baue▁12714
▁entwickle▁12715
▁Charaktere▁12716
esichtsausdrücke▁12717
▁Android▁12718
▁simuliert▁12719
ubb▁12720
▁hierarch▁12721
▁hochentwickelte▁12722
▁Einfühlung▁12723
▁Machine▁12724
ception▁12725
▁Laborator▁12726
Engine▁12727
▁Billionen▁12728
▁Robotic▁12729
Massenproduktion▁12730
▁Wired▁12731
▁Next▁12732
▁Zweiten▁12733
▁Bedien▁12734
▁intuitive▁12735
▁Portrait▁12736
▁Philip▁12737
▁Bla▁12738
verarbeitung▁12739
▁anhört▁12740
wollen▁12741
▁Real▁12742
▁schlauer▁12743
▁EG▁12744
▁Computerspiele▁12745
▁Buchstaben▁12746
▁Buchstabe▁12747
rätsel▁12748
▁Gardner▁12749
cientific▁12750
▁Vollzeit▁12751
spiele▁12752
▁Zaubertrick▁12753
wahrnehmung▁12754
▁Vase▁12755
▁figure▁12756
▁ground▁12757
gramm▁12758
▁Ziffer▁12759
▁lot▁12760
▁mirror▁12761
▁Maeda▁12762
▁interaktiv▁12763
▁Are▁12764
▁Rush▁12765
würfel▁12766
▁Fu▁12767
fügen▁12768
▁investigative▁12769
zeichner▁12770
▁Sequenz▁12771
paar▁12772
▁sequenziert▁12773
▁lösbar▁12774
helix▁12775
▁Gelb▁12776
gemischt▁12777
▁Shuffle▁12778
▁dominieren▁12779
▁Nintendo▁12780
▁verschreib▁12781
▁Lebensweise▁12782
parate▁12783
hhh▁12784
▁Tulle▁12785
▁Tinker▁12786
▁einzig▁12787
▁Boote▁12788
▁Brücken▁12789
▁Achterbahn▁12790
▁Stöcke▁12791
▁befolgt▁12792
▁Lehrplan▁12793
tägige▁12794
▁term▁12795
verläuf▁12796
▁Skizzen▁12797
▁Robin▁12798
▁Unterbrechung▁12799
kauf▁12800
hu▁12801
Nostalgie▁12802
▁RM▁12803
▁Größte▁12804
▁0▁12805
▁Canad▁12806
▁besitze▁12807
ausstellung▁12808
▁red▁12809
▁schottische▁12810
Schloss▁12811
▁After▁12812
oon▁12813
antrieb▁12814
▁1953▁12815
▁Authenti▁12816
zität▁12817
▁Wohn▁12818
▁Gehry▁12819
▁Rückblick▁12820
Wirtschaftskrise▁12821
▁Work▁12822
Kleiderbügel▁12823
▁improvisiert▁12824
▁herrlich▁12825
grafik▁12826
▁Detroit▁12827
mobil▁12828
▁Techno▁12829
▁budd▁12830
▁Bro▁12831
▁56▁12832
▁bell▁12833
▁Ticket▁12834
▁Norman▁12835
schraube▁12836
▁spanische▁12837
▁Wurf▁12838
▁Mosk▁12839
▁Emotion▁12840
beispiel▁12841
▁Flugzeuge▁12842
16▁12843
▁Maschinengewehr▁12844
▁Ricard▁12845
▁stock▁12846
vogel▁12847
▁Deutsch▁12848
▁Ritz▁12849
▁Tower▁12850
▁bleib▁12851
▁1940▁12852
▁Church▁12853
ärgern▁12854
kill▁12855
amel▁12856
▁Mississippi▁12857
▁beschämend▁12858
ism▁12859
▁empor▁12860
etropolitan▁12861
▁tri▁12862
▁widersteh▁12863
mail▁12864
▁schäme▁12865
rash▁12866
▁JFK▁12867
▁France▁12868
▁Mode▁12869
▁Schuh▁12870
▁WI▁12871
▁Kong▁12872
▁Rotwein▁12873
▁name▁12874
▁Sandwich▁12875
▁Marco▁12876
▁charmante▁12877
▁Story▁12878
▁Strich▁12879
ännchen▁12880
▁Magie▁12881
▁introvert▁12882
▁Projektion▁12883
▁dim▁12884
▁Mulli▁12885
rankheitserreger▁12886
▁Radikal▁12887
▁Philadelphia▁12888
▁Alpha▁12889
▁Herzklappe▁12890
▁Antikörper▁12891
reaktion▁12892
zunutze▁12893
▁pathogen▁12894
▁angehalten▁12895
▁Marihuana▁12896
hängt▁12897
▁symbols▁12898
amer▁12899
bio▁12900
▁Ap▁12901
▁alarm▁12902
▁ausgeführt▁12903
▁Rosling▁12904
rmste▁12905
@▁12906
▁führe▁12907
▁IKEA▁12908
▁Volvo▁12909
gebrauch▁12910
▁übernommen▁12911
▁Autofahren▁12912
▁Einkommens▁12913
▁weitgehend▁12914
Bevölkerungszahl▁12915
blau▁12916
▁Braun▁12917
▁Hell▁12918
▁Südasien▁12919
▁redete▁12920
▁Regenbogen▁12921
▁Seife▁12922
▁arabische▁12923
▁tragbare▁12924
▁Optimist▁12925
▁Pessimis▁12926
mildern▁12927
▁Joe▁12928
nerzählens▁12929
Geschichte▁12930
▁Meggendorfer▁12931
▁Höhlen▁12932
wände▁12933
ausgebildet▁12934
ough▁12935
▁enough▁12936
▁weigerte▁12937
kanal▁12938
▁Suchmaschine▁12939
▁ta▁12940
▁interpretiert▁12941
▁Jeff▁12942
Einfallsreichtum▁12943
▁unternehmerisch▁12944
▁Luxus▁12945
▁CEO▁12946
▁Missou▁12947
▁Steuerzahler▁12948
$▁12949
▁Währung▁12950
▁put▁12951
▁illegale▁12952
▁Porno▁12953
▁profitable▁12954
▁schmutzige▁12955
▁lecker▁12956
▁Abfall▁12957
▁Nagel▁12958
lip▁12959
zauber▁12960
▁Wäsche▁12961
Unternehmen▁12962
kriminelle▁12963
▁angel▁12964
trey▁12965
▁Animation▁12966
▁Schatten▁12967
▁perform▁12968
▁medi▁12969
▁äußere▁12970
▁Ox▁12971
▁Carolin▁12972
kin▁12973
▁Ami▁12974
▁Eye▁12975
▁Schwingung▁12976
▁mono▁12977
stimul▁12978
▁Resonanz▁12979
▁Betreuer▁12980
▁rich▁12981
▁erworben▁12982
▁autist▁12983
▁durchbrechen▁12984
▁Süßigkeit▁12985
▁determin▁12986
▁entzieh▁12987
störung▁12988
▁intellektuell▁12989
▁Zaun▁12990
▁Erkrankung▁12991
schwäche▁12992
▁verringert▁12993
▁Anomalie▁12994
▁erschafft▁12995
▁eintreten▁12996
▁Warren▁12997
genoss▁12998
▁Konstrukt▁12999
▁Wachstums▁13000
▁Intervention▁13001
▁verheerende▁13002
▁Isolation▁13003
▁agile▁13004
▁Vorschläge▁13005
work▁13006
insky▁13007
▁konkrete▁13008
▁enger▁13009
▁Buffet▁13010
▁Anhaltspunkt▁13011
▁Spring▁13012
daho▁13013
entwickler▁13014
zehn▁13015
▁Asperger▁13016
▁ADHS▁13017
abschnitt▁13018
▁manag▁13019
▁Kurz▁13020
▁Sitzung▁13021
▁Sutherland▁13022
▁Bunker▁13023
▁Misserfolg▁13024
fäde▁13025
▁Thanksgiving▁13026
▁Besucher▁13027
▁Stalin▁13028
kümmert▁13029
▁erhellen▁13030
▁Wörterbuch▁13031
Familie▁13032
Guru▁13033
mahlzeit▁13034
etchup▁13035
▁verbraucht▁13036
▁verschieben▁13037
psycholog▁13038
Sekunde▁13039
▁erwiderte▁13040
Jahre▁13041
Millionen▁13042
mauer▁13043
▁Colli▁13044
ami▁13045
Party▁13046
▁Popcorn▁13047
▁brannte▁13048
à▁13049
▁Tourist▁13050
▁Streit▁13051
▁kenn▁13052
kala▁13053
elbstbewusstsein▁13054
▁Bausteine▁13055
▁Tolsto▁13056
▁Leo▁13057
▁Jacque▁13058
▁Ausgabe▁13059
gelöst▁13060
▁beurteilt▁13061
▁Verbraucher▁13062
▁Fremd▁13063
▁begegnen▁13064
▁betonen▁13065
Barrel▁13066
▁plans▁13067
chulden▁13068
▁tick▁13069
▁50-▁13070
▁Paradox▁13071
▁Spar▁13072
▁Heilmittel▁13073
less▁13074
▁Versch▁13075
19▁13076
▁Haushalte▁13077
▁360▁13078
▁Billion▁13079
▁langfristige▁13080
finanzierung▁13081
▁dramatische▁13082
▁durchlebt▁13083
▁Back▁13084
▁FBI▁13085
▁Cornell▁13086
▁niedrig▁13087
▁Rezession▁13088
wandel▁13089
▁naheleg▁13090
▁flüssige▁13091
berfluss▁13092
füß▁13093
modern▁13094
unk▁13095
bou▁13096
▁Ego▁13097
▁entspannt▁13098
▁Werf▁13099
tourism▁13100
▁Giant▁13101
▁variable▁13102
ulu▁13103
▁hoffnungsvoll▁13104
▁Nebenprodukt▁13105
slosigkeit▁13106
kinder▁13107
ali▁13108
▁Microsoft▁13109
▁verpflichtet▁13110
▁Gore▁13111
Krise▁13112
Verbrauch▁13113
▁Sprint▁13114
schöpfen▁13115
,4▁13116
▁68▁13117
▁Anhäufung▁13118
▁schmutzig▁13119
▁Umsetzung▁13120
▁Dividende▁13121
print▁13122
verbrauch▁13123
▁Mom▁13124
einnahmen▁13125
▁plus▁13126
▁Medaille▁13127
service▁13128
▁Comics▁13129
▁Nova▁13130
▁Scot▁13131
▁Beat▁13132
▁Brille▁13133
▁schaden▁13134
▁Dad▁13135
▁billige▁13136
▁eigenartig▁13137
▁Sehvermögen▁13138
▁Lex▁13139
▁Ray▁13140
Tech▁13141
▁allerletzte▁13142
▁Mineral▁13143
biologie▁13144
▁Comic▁13145
▁Navy▁13146
▁Dean▁13147
▁Kamen▁13148
▁Karikaturist▁13149
gewinn▁13150
▁Babbage▁13151
getriebene▁13152
▁Rechner▁13153
▁Lovelace▁13154
▁Sorte▁13155
▁manifest▁13156
▁formal▁13157
▁pure▁13158
kategorie▁13159
▁diagonal▁13160
▁umfassen▁13161
▁Symbole▁13162
enziell▁13163
▁temporal▁13164
▁Flach▁13165
skulptur▁13166
säule▁13167
Stick▁13168
▁Hirsch▁13169
▁88▁13170
▁Artefakt▁13171
▁Sprech▁13172
omics▁13173
aktivität▁13174
ROM▁13175
▁McLuhan▁13176
ontinuität▁13177
▁Abraham▁13178
▁Lincoln▁13179
pirale▁13180
▁technisch▁13181
schlug▁13182
▁Wendung▁13183
▁Variante▁13184
▁immersive▁13185
wandlung▁13186
▁effektivste▁13187
▁comic▁13188
▁multiple▁13189
▁Alan▁13190
▁juri▁13191
gesetz▁13192
▁Kau▁13193
▁40.000▁13194
▁Einfachheit▁13195
▁Anwälte▁13196
▁Mindest▁13197
▁ausdrückt▁13198
▁Ausweg▁13199
▁Vereinbarung▁13200
▁verschickt▁13201
▁Vereinfachung▁13202
▁Verträge▁13203
▁Jack▁13204
▁Horn▁13205
▁Paläontologe▁13206
▁Blutgefäße▁13207
▁Charakteristik▁13208
▁Montana▁13209
▁Haustier▁13210
▁Hemisphäre▁13211
▁Nest▁13212
▁Jeep▁13213
aft▁13214
▁blu▁13215
bohr▁13216
▁heck▁13217
▁heraushol▁13218
▁Moskito▁13219
▁Tyrannosaur▁13220
Rex▁13221
▁Kubik▁13222
▁weiblich▁13223
▁Kalzium▁13224
▁festleg▁13225
▁entnehmen▁13226
▁Vel▁13227
▁streiten▁13228
ifi▁13229
ierer▁13230
▁bring▁13231
Hu▁13232
▁Matthew▁13233
▁Wisconsin▁13234
▁Schwanz▁13235
▁Archae▁13236
opter▁13237
▁Taube▁13238
▁Saurier▁13239
Parade▁13240
huh▁13241
▁demonstriert▁13242
▁computer▁13243
generierte▁13244
▁Poet▁13245
▁Samu▁13246
▁Cole▁13247
ridge▁13248
▁lose▁13249
Reality▁13250
fernsehen▁13251
wagen▁13252
▁verlässt▁13253
▁Final▁13254
atik▁13255
getäuscht▁13256
▁Geschehnisse▁13257
▁Sonnenunterg▁13258
▁Rodrig▁13259
afi▁13260
▁undenkbar▁13261
▁gründet▁13262
▁Trade▁13263
wirkung▁13264
▁Rache▁13265
▁Zach▁13266
Regierung▁13267
▁Todesstrafe▁13268
▁angeklagt▁13269
▁leidet▁13270
▁November▁13271
litten▁13272
weint▁13273
▁Hamburger▁13274
▁Grausamkeit▁13275
▁Busse▁13276
Menschenverstand▁13277
▁Wide▁13278
▁praktiziert▁13279
▁letztlich▁13280
▁verzichte▁13281
▁verminder▁13282
▁spare▁13283
▁Mikroben▁13284
biologe▁13285
▁str▁13286
▁Athlet▁13287
▁spit▁13288
▁Mountain▁13289
▁Virginia▁13290
▁Notaufnahme▁13291
▁Insulin▁13292
▁verwunderlich▁13293
wolke▁13294
▁mikrobielle▁13295
▁Bekämpf▁13296
▁Georgetown▁13297
▁Transplantat▁13298
▁Dün▁13299
▁Empfänger▁13300
▁Bemerkenswerte▁13301
▁gespendet▁13302
▁Cro▁13303
▁Transplantation▁13304
chirurg▁13305
▁Meta▁13306
IT▁13307
▁vagina▁13308
▁Entbindung▁13309
Kaiser▁13310
▁beruhen▁13311
ath▁13312
▁Sauber▁13313
▁pump▁13314
schweif▁13315
▁Gattung▁13316
▁Tierärzte▁13317
like▁13318
▁di▁13319
▁Fäkalien▁13320
▁system▁13321
▁Begründung▁13322
▁ausführlich▁13323
▁kausale▁13324
▁ignoriert▁13325
▁Tar▁13326
motive▁13327
▁Hama▁13328
win▁13329
▁Höhle▁13330
▁Wal▁13331
▁Gerade▁13332
▁Gäste▁13333
▁Fotografie▁13334
▁Abläufe▁13335
▁Insider▁13336
▁Index▁13337
▁Han▁13338
▁ungeschützt▁13339
▁schaffe▁13340
▁unsichtbare▁13341
▁zugehörig▁13342
▁Abstraktion▁13343
▁Fassung▁13344
name▁13345
ting▁13346
konstruktion▁13347
▁spiegeln▁13348
▁Klient▁13349
▁gewünschte▁13350
ergebnis▁13351
▁Kennedy▁13352
▁Passagier▁13353
▁CIA▁13354
quartier▁13355
▁gerichtet▁13356
▁Leichen▁13357
arijuana▁13358
▁Entropie▁13359
▁Formel▁13360
▁erkennbar▁13361
▁Atlant▁13362
▁Kalte▁13363
▁Librar▁13364
▁Congress▁13365
▁anbiete▁13366
▁Publikation▁13367
▁Vogelgrippe▁13368
▁selektiv▁13369
geblieben▁13370
▁gal▁13371
bell▁13372
▁Kentucky▁13373
▁Gelände▁13374
▁Fernsehsend▁13375
▁ausgestrahlt▁13376
▁Unschuld▁13377
▁Zeugnis▁13378
▁Lüg▁13379
▁Straftat▁13380
▁untersuche▁13381
▁tödliche▁13382
Identifizier▁13383
▁Phantom▁13384
▁Gegenüber▁13385
aussagen▁13386
▁tend▁13387
▁Verbrecher▁13388
trafvollzug▁13389
▁Mord▁13390
▁River▁13391
▁Calvin▁13392
▁Indiana▁13393
blood▁13394
▁Arizona▁13395
▁Williams▁13396
▁Kellner▁13397
▁Tät▁13398
othy▁13399
▁3.5▁13400
▁47▁13401
portrait▁13402
▁Verzerrung▁13403
faser▁13404
▁Implantate▁13405
▁neural▁13406
▁Enrique▁13407
▁aufgewacht▁13408
▁Aha▁13409
Schaltkreis▁13410
▁rage▁13411
▁konkret▁13412
▁verkümmer▁13413
▁Milli▁13414
▁Schaltkreise▁13415
▁Lebenszeit▁13416
▁Pharma▁13417
▁Trost▁13418
▁implantier▁13419
Krankheit▁13420
steuer▁13421
▁zirk▁13422
▁navigieren▁13423
▁Photosynth▁13424
▁verhält▁13425
▁Solarzelle▁13426
▁Vektor▁13427
▁pack▁13428
▁klinisch▁13429
ella▁13430
impuls▁13431
▁Dopamin▁13432
▁verallgemeiner▁13433
▁Petrischale▁13434
▁best▁13435
posttraumatische▁13436
▁unkontrolliert▁13437
▁adapt▁13438
▁Folien▁13439
▁veranlass▁13440
▁Audio▁13441
▁Ausgang▁13442
haltbar▁13443
▁ultra▁13444
▁Prothese▁13445
▁Hören▁13446
▁unerwünschte▁13447
stadium▁13448
ensoren▁13449
▁Schwarze▁13450
▁Netzhaut▁13451
▁pigment▁13452
science▁13453
▁NIH▁13454
▁umgewandelt▁13455
▁EB▁13456
▁Wingsuit▁13457
Jump▁13458
▁Königin▁13459
▁Sky▁13460
▁atemberaubende▁13461
▁startet▁13462
▁Helm▁13463
▁Free▁13464
▁film▁13465
▁Board▁13466
▁Janeiro▁13467
▁Antenne▁13468
▁Eindrücke▁13469
▁Eiffel▁13470
▁Stunt▁13471
▁Ballon▁13472
▁sensation▁13473
▁Jun▁13474
▁Coh▁13475
▁Erkenntnisse▁13476
▁Mik▁13477
▁Hyp▁13478
▁NSA▁13479
▁entpuppt▁13480
▁Leck▁13481
Geheimdienste▁13482
▁Snowden▁13483
▁streng▁13484
▁PRISM▁13485
▁berüchtigt▁13486
sammel▁13487
platten▁13488
▁Ausländer▁13489
▁96▁13490
▁Schießerei▁13491
kommunikation▁13492
write▁13493
▁Verschlüsselung▁13494
algorithm▁13495
▁Datei▁13496
▁Alarm▁13497
▁verschlüsselt▁13498
anbieter▁13499
▁Anbieter▁13500
software▁13501
Netzwerk▁13502
▁gehackt▁13503
Einheit▁13504
▁Maß▁13505
CH▁13506
▁Network▁13507
▁Geheimdienst▁13508
▁Belgi▁13509
Land▁13510
▁PowerPoint▁13511
ienstleister▁13512
▁Führungsperson▁13513
▁i▁13514
drive▁13515
▁Terroristen▁13516
▁existentielle▁13517
▁Bedrohung▁13518
bergen▁13519
▁schonungslos▁13520
▁Belast▁13521
▁korrupt▁13522
▁Nixon▁13523
▁brasilianische▁13524
ous▁13525
▁beschuldigt▁13526
▁beschuldigen▁13527
steuern▁13528
▁source▁13529
▁freier▁13530
▁Square▁13531
▁Liefer▁13532
▁Carro▁13533
▁hinüber▁13534
▁gleiten▁13535
▁allmählich▁13536
▁holländische▁13537
▁Nevada▁13538
▁Wiese▁13539
▁verschafft▁13540
▁Empire▁13541
▁Building▁13542
Central▁13543
▁Geografi▁13544
▁125▁13545
▁Side▁13546
▁Highway▁13547
▁Village▁13548
▁Columbia▁13549
▁Broadway▁13550
▁Collect▁13551
▁Indianer▁13552
▁erbaut▁13553
▁Sumpf▁13554
▁Ströme▁13555
▁Murray▁13556
▁geo▁13557
aufwand▁13558
drehen▁13559
▁geologische▁13560
India▁13561
▁Bohnen▁13562
▁bewohnbar▁13563
▁Busch▁13564
kosysteme▁13565
▁East▁13566
▁marine▁13567
ose▁13568
Park▁13569
ellowstone▁13570
▁Heid▁13571
▁Biber▁13572
▁Fortpflanzung▁13573
kologe▁13574
regal▁13575
▁Netze▁13576
▁belastbar▁13577
▁Nature▁13578
Stränge▁13579
▁Third▁13580
▁Indian▁13581
hell▁13582
gebäude▁13583
▁Beifa▁13584
▁Alice▁13585
▁gestatte▁13586
träge▁13587
▁Abwasser▁13588
▁Dächer▁13589
▁Charlie▁13590
▁bizarre▁13591
▁urkomisch▁13592
▁synchron▁13593
▁Gho▁13594
Bahn▁13595
▁Improv▁13596
very▁13597
where▁13598
▁Comedy▁13599
▁gefilmt▁13600
▁dänische▁13601
▁Haltestelle▁13602
▁Improvisation▁13603
▁Comedian▁13604
▁fluoreszierende▁13605
▁umarmt▁13606
▁Fassade▁13607
author▁13608
▁anzeigt▁13609
▁Pullover▁13610
eimer▁13611
▁Fremden▁13612
geschickt▁13613
▁Highschool▁13614
ueen▁13615
▁illustrier▁13616
▁Diese▁13617
nachmittag▁13618
▁Terminal▁13619
▁Public▁13620
EDI▁13621
▁Rama▁13622
▁Alb▁13623
▁Kriminalität▁13624
▁strahlende▁13625
▁Menschenmenge▁13626
▁spektakuläre▁13627
▁blockier▁13628
▁63▁13629
besitzer▁13630
front▁13631
▁weggeworfen▁13632
▁station▁13633
▁Ana▁13634
▁Flussufer▁13635
5.000▁13636
▁Geschäftsleute▁13637
▁Anfrage▁13638
▁Dokumente▁13639
▁Bestechung▁13640
▁erschuf▁13641
▁vorgefertigte▁13642
▁Aktivisten▁13643
ç▁13644
Sarko▁13645
cha▁13646
▁Golden▁13647
spiegel▁13648
▁Brunnen▁13649
▁Sanddüne▁13650
▁Gefäll▁13651
▁Liter▁13652
behälter▁13653
▁Monsun▁13654
▁Jaipur▁13655
strecke▁13656
▁befördert▁13657
▁Zero▁13658
▁destillier▁13659
▁wilde▁13660
▁Seiden▁13661
▁flori▁13662
private▁13663
▁Tank▁13664
▁verehre▁13665
▁Dankbarkeit▁13666
▁Dürre▁13667
▁drückt▁13668
▁Planung▁13669
▁überflutet▁13670
▁India▁13671
▁Compan▁13672
schiff▁13673
Terrain▁13674
▁umsetzen▁13675
▁Meyer▁13676
raubt▁13677
▁Arbeitstag▁13678
mathematik▁13679
▁Stereotyp▁13680
▁Algebra▁13681
-2▁13682
▁unterteile▁13683
▁solid▁13684
▁lehren▁13685
▁ungeduldig▁13686
▁Rente▁13687
ada▁13688
▁geduldige▁13689
kodiert▁13690
▁diagnostizier▁13691
▁separate▁13692
▁gratuliere▁13693
▁verteidigt▁13694
▁versu▁13695
▁nett▁13696
Sache▁13697
▁geleistet▁13698
tank▁13699
▁Rechen▁13700
üchtert▁13701
Version▁13702
programmier▁13703
▁Semester▁13704
▁email▁13705
▁McK▁13706
▁Mother▁13707
▁Had▁13708
200▁13709
▁Plä▁13710
▁Jenni▁13711
▁Tso▁13712
▁chinesisch▁13713
▁McDonald▁13714
▁Burger▁13715
▁Kuba▁13716
green▁13717
▁thermo▁13718
ttle▁13719
Menü▁13720
▁Apfel▁13721
▁Hühnchen▁13722
▁Chop▁13723
▁Sue▁13724
▁Kyoto▁13725
▁braun▁13726
geschmack▁13727
▁Immigrant▁13728
▁Bäcker▁13729
gericht▁13730
▁Akademie▁13731
Admiral▁13732
▁Marsch▁13733
▁1920▁13734
▁Jesus▁13735
▁Christus▁13736
▁auslöst▁13737
▁Ausbruch▁13738
▁188▁13739
bibliothek▁13740
▁asiatische▁13741
spezifisch▁13742
▁Lem▁13743
▁Diplomat▁13744
▁drucken▁13745
▁Rezept▁13746
▁McMurdo▁13747
▁Salz▁13748
▁Pfeffer▁13749
▁servier▁13750
otto▁13751
▁standard▁13752
▁mass▁13753
Freak▁13754
▁übergewichtig▁13755
beamte▁13756
▁Tennessee▁13757
▁Lotterie▁13758
▁Korean▁13759
▁Makro▁13760
▁Karma▁13761
▁wahllos▁13762
▁Alligator▁13763
lieferung▁13764
▁Starbucks▁13765
▁up▁13766
Vortrag▁13767
▁Liebesbrief▁13768
▁Redner▁13769
▁Daf▁13770
▁vorbereiten▁13771
♪▁13772
▁Hals▁13773
▁Kraftstoff▁13774
▁rev▁13775
▁Ethanol▁13776
▁Nil▁13777
▁Bewässerung▁13778
▁anstellt▁13779
▁Steigerung▁13780
▁Unmenge▁13781
▁herausstell▁13782
▁Sonnenlicht▁13783
▁Bohr▁13784
nsas▁13785
ähnlich▁13786
Athabasca▁13787
lpreis▁13788
▁debattier▁13789
▁größtmögliche▁13790
Emission▁13791
prinzipien▁13792
start▁13793
gewinnung▁13794
technische▁13795
▁Kernkraft▁13796
verbrauchen▁13797
▁Rift▁13798
intelligent▁13799
▁Bonobo▁13800
kiefer▁13801
▁Turk▁13802
erfordern▁13803
▁GPS▁13804
▁zusammenfüge▁13805
gewaschen▁13806
▁Malawi▁13807
▁begleiten▁13808
▁spannende▁13809
▁erlitt▁13810
▁Hang▁13811
▁Kiesel▁13812
▁hominid▁13813
▁Indonesi▁13814
▁30.000▁13815
verschwenderisch▁13816
ggy▁13817
▁Ausgleich▁13818
▁Abgrund▁13819
▁Seoul▁13820
▁rigid▁13821
▁Herstell▁13822
bäume▁13823
auto▁13824
▁Olympische▁13825
andtuch▁13826
▁mitgebracht▁13827
▁Bambus▁13828
▁Feuerwehr▁13829
▁fu▁13830
▁Schieß▁13831
▁Zurück▁13832
▁Absch▁13833
würfe▁13834
▁Sensibilität▁13835
▁schieß▁13836
▁ansteckend▁13837
ograf▁13838
Wörterbücher▁13839
▁Gran▁13840
▁Nadel▁13841
▁Streber▁13842
▁Zone▁13843
delt▁13844
biege▁13845
▁Uniform▁13846
schuldigung▁13847
▁Beschäftigung▁13848
▁Victoria▁13849
▁viktorianische▁13850
▁Epoche▁13851
▁Herausgeber▁13852
▁English▁13853
▁Lernprozess▁13854
▁Computerfreak▁13855
suche▁13856
▁Eintrag▁13857
▁durchsuchen▁13858
▁Schinken▁13859
zuwerfen▁13860
▁ooh▁13861
▁charismati▁13862
una▁13863
Mobile▁13864
▁verbal▁13865
▁problematisch▁13866
zeichnet▁13867
▁33▁13868
▁Dunkle▁13869
beobachtung▁13870
etera▁13871
van▁13872
▁140▁13873
▁Teleskop▁13874
▁archaeolog▁13875
▁hübsch▁13876
▁Blech▁13877
balone▁13878
Muschel▁13879
leistungsfähiger▁13880
▁gesteuert▁13881
vu▁13882
altech▁13883
▁Gegenstück▁13884
rgiftung▁13885
▁gläserne▁13886
▁liebste▁13887
▁Biomaterial▁13888
ellig▁13889
▁flock▁13890
▁Periodensystem▁13891
some▁13892
▁nano▁13893
▁Muschel▁13894
▁magnet▁13895
▁Magnet▁13896
Sequenz▁13897
▁anziehen▁13898
▁Karbon▁13899
▁Aminosäure▁13900
▁PH▁13901
▁Ladung▁13902
▁period▁13903
Struktur▁13904
▁Verknüpfung▁13905
▁leistungsstark▁13906
▁manipuliert▁13907
ano▁13908
▁virus▁13909
transfer▁13910
▁anorganische▁13911
▁Treibstoff▁13912
▁Steuerung▁13913
itanium▁13914
▁Stefan▁13915
▁Hong▁13916
kong▁13917
▁Kai▁13918
▁mi▁13919
firmen▁13920
gehängt▁13921
moment▁13922
▁Listen▁13923
▁vorlesen▁13924
▁Polic▁13925
city▁13926
▁angesiedelt▁13927
grafie▁13928
▁Australier▁13929
▁Hochhaus▁13930
▁Beatles▁13931
vana▁13932
▁involv▁13933
▁Tinte▁13934
▁Seide▁13935
▁Tru▁13936
▁Mittwoch▁13937
▁verhaftet▁13938
TA▁13939
▁subtil▁13940
,000▁13941
post▁13942
▁Vertrag▁13943
ncy▁13944
▁gre▁13945
▁Hawking▁13946
Schwerelosigkeit▁13947
▁Schwerkraft▁13948
gelernt▁13949
▁Genome▁13950
▁sequenzier▁13951
▁parabol▁13952
▁Press▁13953
▁Vorhaben▁13954
▁TEDster▁13955
▁Blutdruck▁13956
bekannte▁13957
▁Rollstuhl▁13958
▁kostbar▁13959
▁Kill▁13960
worth▁13961
▁Aristotel▁13962
▁demografische▁13963
▁Einkommen▁13964
iness▁13965
▁Mind▁13966
Wander▁13967
▁neutral▁13968
ufriedenheit▁13969
put▁13970
▁Silver▁13971
möglich▁13972
▁Millarde▁13973
▁Optik▁13974
▁Olive▁13975
▁Palästinenser▁13976
gewalt▁13977
palästinensische▁13978
Aktivist▁13979
▁vereint▁13980
▁Soldat▁13981
▁Demonstrant▁13982
▁Schrank▁13983
▁Darsteller▁13984
▁gang▁13985
besuch▁13986
▁Organisator▁13987
▁Solidar▁13988
▁Rekrut▁13989
▁low▁13990
budget▁13991
▁Sheikh▁13992
▁Jar▁13993
▁Hopkins▁13994
▁Transition▁13995
▁globalisierte▁13996
▁hereinkomm▁13997
▁Tuch▁13998
▁geschichtlich▁13999
▁Erdöl▁14000
▁begründet▁14001
▁überschritt▁14002
▁überschreite▁14003
▁untermauert▁14004
▁Zerfall▁14005
▁arktische▁14006
▁unermüdlich▁14007
▁Stiefel▁14008
▁schlafen▁14009
▁Walmart▁14010
▁kollabieren▁14011
▁Second▁14012
klick▁14013
▁Server▁14014
Minerali▁14015
▁Zwänge▁14016
bergang▁14017
ffizienz▁14018
▁Modul▁14019
▁District▁14020
▁Garden▁14021
ssociation▁14022
▁Forest▁14023
▁gefördert▁14024
Sharing▁14025
▁zirkulieren▁14026
nkung▁14027
shire▁14028
▁Somerset▁14029
▁Nutz▁14030
▁Rasen▁14031
▁Unstimmigkeit▁14032
uit▁14033
▁Maßnahmen▁14034
▁Guardian▁14035
▁Bali▁14036
▁spritz▁14037
stumpf▁14038
▁bezahlbar▁14039
▁maxim▁14040
Rausch▁14041
▁spinn▁14042
▁Rechnung▁14043
▁Margaret▁14044
▁That▁14045
▁Prävention▁14046
hole▁14047
▁animiert▁14048
▁Knopf▁14049
▁Papst▁14050
▁sexuell▁14051
▁hop▁14052
▁übertragbare▁14053
▁Sexual▁14054
▁heterosexuell▁14055
infiziert▁14056
▁Romantik▁14057
▁Schatz▁14058
▁antiretroviral▁14059
▁Lazarus▁14060
▁Vorbeugung▁14061
▁ex▁14062
Strategie▁14063
retroviral▁14064
▁betrunken▁14065
ckung▁14066
habi▁14067
▁Parkplätze▁14068
▁Wiederbelebung▁14069
▁Wiederhe▁14070
euchtbiotop▁14071
chwach▁14072
gelände▁14073
▁strikt▁14074
▁CDC▁14075
▁Vorstadt▁14076
▁Rate▁14077
Erhöhung▁14078
▁Herzkrankheit▁14079
▁demographische▁14080
▁Dominanz▁14081
▁resultiert▁14082
▁voraussagen▁14083
▁schiere▁14084
▁Asphalt▁14085
▁Indi▁14086
▁Develop▁14087
▁brenn▁14088
▁Bürgersteig▁14089
▁Phoenix▁14090
rail▁14091
bindung▁14092
wohnung▁14093
▁Bürogebäude▁14094
volt▁14095
▁Colorado▁14096
▁Konnekt▁14097
▁platt▁14098
▁bürgerliche▁14099
▁suburban▁14100
▁Habitat▁14101
▁metropolitan▁14102
siedlung▁14103
rid▁14104
▁Instant▁14105
▁hybrid▁14106
▁diver▁14107
▁hinbekomme▁14108
▁rare▁14109
▁Personal▁14110
▁fehlte▁14111
▁mothers▁14112
other▁14113
▁stigma▁14114
▁Ausbreitung▁14115
wana▁14116
▁PMTCT▁14117
▁Verhinder▁14118
smöglichkeit▁14119
▁Tests▁14120
▁Gebärmutter▁14121
▁1.1▁14122
Virus▁14123
verhältnismäßig▁14124
▁geschult▁14125
▁Waisen▁14126
verschiebung▁14127
▁Kap▁14128
▁Reduzier▁14129
▁Stu▁14130
▁Skandal▁14131
verschwendung▁14132
▁appellier▁14133
▁Kartoffel▁14134
▁Klassenkamerad▁14135
▁Container▁14136
transport▁14137
gan▁14138
▁Konfrontation▁14139
▁empirische▁14140
▁repräsentative▁14141
bergewicht▁14142
▁Berücksichtig▁14143
▁Abfälle▁14144
▁unrealistisch▁14145
▁einschließ▁14146
▁stabilisiert▁14147
Marke▁14148
▁Bauernhof▁14149
▁Kühlung▁14150
▁effiziente▁14151
▁Konzerne▁14152
schleichen▁14153
▁Straßenecke▁14154
▁Produzent▁14155
▁kosmetisch▁14156
▁Ecuador▁14157
▁Leber▁14158
▁result▁14159
organe▁14160
▁symbolisiert▁14161
▁unterhielt▁14162
▁beleidigt▁14163
▁predige▁14164
▁inakzeptab▁14165
blume▁14166
▁Tonne▁14167
▁Sarah▁14168
▁Forbes▁14169
▁Blood▁14170
leigh▁14171
▁geehrt▁14172
lteren▁14173
ngest▁14174
▁Empfindung▁14175
▁Chief▁14176
▁web▁14177
▁Rabbi▁14178
gehörigkeit▁14179
▁Sein▁14180
rauben▁14181
▁Aufstände▁14182
▁Pastor▁14183
tradition▁14184
▁greifbar▁14185
▁Samarit▁14186
▁fürsorglich▁14187
▁wohltätige▁14188
▁Fürsorge▁14189
bring▁14190
▁Gnade▁14191
▁Klei▁14192
▁Arthur▁14193
Schule▁14194
steigerung▁14195
▁Toaster▁14196
stage▁14197
▁mangelnde▁14198
▁schlank▁14199
▁mühsam▁14200
fett▁14201
studien▁14202
video▁14203
modu▁14204
▁Betti▁14205
▁Cra▁14206
spoon▁14207
▁Single▁14208
▁vermieden▁14209
▁stabile▁14210
▁Attrakt▁14211
fill▁14212
▁Emil▁14213
ivilgesellschaft▁14214
▁Zeta▁14215
▁Franzose▁14216
▁PRI▁14217
▁Leugn▁14218
▁Apathie▁14219
gnung▁14220
▁Erkältung▁14221
rütteln▁14222
ourage▁14223
▁Lynch▁14224
▁Justiz▁14225
▁gewaltsam▁14226
ó▁14227
í▁14228
berschwemmung▁14229
▁fremde▁14230
▁sang▁14231
▁Beleidigung▁14232
▁Mahatma▁14233
▁römische▁14234
▁Jess▁14235
▁Glenn▁14236
▁Hancock▁14237
struktion▁14238
getreu▁14239
▁unkompliziert▁14240
▁sonderbar▁14241
▁Wang▁14242
▁Vibration▁14243
▁Akustik▁14244
▁Royal▁14245
▁Academ▁14246
▁Unite▁14247
ingdom▁14248
▁Ablehnung▁14249
▁Bewerber▁14250
▁Darbietung▁14251
▁us▁14252
▁klatschen▁14253
▁Lasche▁14254
iddle▁14255
glichkeit▁14256
▁fortschreite▁14257
▁Musikvideo▁14258
Maschine▁14259
outube▁14260
▁Here▁14261
bänder▁14262
▁synchronisiert▁14263
▁Take▁14264
▁banne▁14265
▁Heather▁14266
night▁14267
▁hölzerne▁14268
▁final▁14269
▁schieb▁14270
türme▁14271
▁undeutlich▁14272
▁Allen▁14273
▁sowjetische▁14274
▁Vene▁14275
▁Kohlendioxid▁14276
▁Treibhaus▁14277
▁leitende▁14278
▁1850▁14279
▁wärmer▁14280
▁latent▁14281
berflutung▁14282
▁Vereinigung▁14283
▁Genehmigung▁14284
▁Dringlichkeit▁14285
▁Knackpunkt▁14286
▁Watt▁14287
▁Hiroshima▁14288
kept▁14289
▁solar▁14290
▁Minimum▁14291
▁Variabilit▁14292
▁Verzögerung▁14293
▁Hunderttausende▁14294
dunkel▁14295
▁Rückkopplung▁14296
ermafrost▁14297
elli▁14298
▁Grönland▁14299
anstieg▁14300
90▁14301
▁Aussterben▁14302
homa▁14303
▁go▁14304
▁Jake▁14305
▁beschützen▁14306
Kopf▁14307
elektronisch▁14308
Gebühr▁14309
▁konservativ▁14310
mission▁14311
▁Teersand▁14312
▁Asteroiden▁14313
▁planet▁14314
▁Philosoph▁14315
▁183▁14316
▁Advanc▁14317
▁Philosophen▁14318
stuhl▁14319
▁Kosmo▁14320
▁lung▁14321
▁beschweren▁14322
▁höflich▁14323
▁artist▁14324
▁scientist▁14325
angestellte▁14326
▁literar▁14327
down▁14328
▁Fachleute▁14329
▁Herschel▁14330
▁vollbracht▁14331
▁mechanische▁14332
▁Francis▁14333
▁Methodi▁14334
äfen▁14335
▁südafrikanische▁14336
▁Taschenrechner▁14337
vertreter▁14338
▁1.3▁14339
▁Differenz▁14340
▁Speicher▁14341
▁Verzweigung▁14342
ociety▁14343
▁Lebzeiten▁14344
▁publiziert▁14345
▁Astronomie▁14346
▁Kehr▁14347
▁unbeabsichtigte▁14348
ngelika▁14349
▁Lueckert▁14350
▁Leon▁14351
▁Kaplan▁14352
▁Keith▁14353
table▁14354
▁Unerwartete▁14355
▁metal▁14356
▁ankle▁14357
▁Werbespot▁14358
▁Director▁14359
ureau▁14360
ila▁14361
ture▁14362
rutsche▁14363
Rakete▁14364
▁Elektromagnet▁14365
▁magnetische▁14366
▁Latte▁14367
rollt▁14368
ventil▁14369
▁Spinnennetz▁14370
▁Target▁14371
spritze▁14372
▁Runde▁14373
computer▁14374
▁Bedenk▁14375
▁beschädigen▁14376
▁löscht▁14377
▁abkühl▁14378
ical▁14379
▁steif▁14380
folie▁14381
▁Armbanduhr▁14382
▁Streifen▁14383
Idee▁14384
▁Milk▁14385
▁Fresh▁14386
▁Dai▁14387
lick▁14388
▁Lungenkrebs▁14389
▁gefesselt▁14390
▁Kanalisation▁14391
▁Organization▁14392
toilette▁14393
▁Händewaschen▁14394
▁Durchfall▁14395
agentur▁14396
▁Mari▁14397
▁Todesursache▁14398
▁Spül▁14399
▁Anästhesie▁14400
▁Chirurgie▁14401
sperre▁14402
▁medizinisch▁14403
▁Latrine▁14404
▁vergeude▁14405
motor▁14406
▁Darm▁14407
▁But▁14408
luft▁14409
▁Brennstoff▁14410
▁grati▁14411
▁names▁14412
▁94▁14413
▁Ekel▁14414
ulate▁14415
▁Ziegen▁14416
älle▁14417
▁Propaganda▁14418
▁Schwieger▁14419
eltern▁14420
kara▁14421
Stiftung▁14422
▁entzück▁14423
heizt▁14424
nice▁14425
▁Prämisse▁14426
▁privat▁14427
town▁14428
▁bemüht▁14429
▁Garage▁14430
▁Klassenräume▁14431
beziehen▁14432
▁stamp▁14433
▁Rick▁14434
modernism▁14435
▁architektonisch▁14436
▁Serviette▁14437
▁Architectur▁14438
▁Record▁14439
▁Schuppen▁14440
zentrale▁14441
▁Donnerstag▁14442
▁Cla▁14443
▁Venedig▁14444
▁segel▁14445
▁Segel▁14446
▁Sonder▁14447
▁Hommage▁14448
▁komponiere▁14449
gläser▁14450
▁Zusammenspiel▁14451
▁nutze▁14452
▁Vorbilder▁14453
▁Skulpturen▁14454
▁Sacr▁14455
amento▁14456
komplex▁14457
▁Cafeteria▁14458
▁Kupfer▁14459
▁erteilt▁14460
▁on▁14461
▁bomb▁14462
▁versa▁14463
▁Goliath▁14464
▁mark▁14465
▁üppig▁14466
▁genehmigt▁14467
arcelo▁14468
Schrift▁14469
Labor▁14470
▁def▁14471
▁schizophren▁14472
▁Minnesota▁14473
▁Kapelle▁14474
▁Cleve▁14475
▁Bahnhof▁14476
▁Koh▁14477
▁Fox▁14478
▁Brent▁14479
▁Stütz▁14480
▁Kahn▁14481
▁Eingang▁14482
za▁14483
▁Image▁14484
element▁14485
▁frontal▁14486
▁Balkon▁14487
▁ball▁14488
▁Apartment▁14489
▁Kalkstein▁14490
▁Geste▁14491
▁Hampton▁14492
▁Baxter▁14493
▁Rod▁14494
▁düster▁14495
▁beleuchtet▁14496
shaw▁14497
ußere▁14498
▁schreit▁14499
OC▁14500
▁Kriteri▁14501
▁Schema▁14502
▁Berlin▁14503
▁Galerie▁14504
▁Teekanne▁14505
▁klebte▁14506
▁Kiva▁14507
more▁14508
▁Guerilla▁14509
sministerium▁14510
▁One▁14511
RC▁14512
▁Befreiung▁14513
▁Bomben▁14514
mord▁14515
▁31▁14516
▁voranbring▁14517
▁Give▁14518
schadet▁14519
▁afr▁14520
Kerry▁14521
▁Arka▁14522
late▁14523
▁What▁14524
▁with▁14525
▁gerechtfertigt▁14526
▁Afro▁14527
Amerikaner▁14528
▁Abstimmung▁14529
berschneidung▁14530
▁Erwägung▁14531
▁Main▁14532
▁Survey▁14533
▁Ethnie▁14534
Politik▁14535
ethnisch▁14536
▁vorhergesagt▁14537
▁vielseitig▁14538
▁begünstig▁14539
Star▁14540
variabl▁14541
▁Dennis▁14542
▁verankert▁14543
▁philosoph▁14544
▁Kunstwerke▁14545
kritik▁14546
▁Künste▁14547
▁Leicht▁14548
▁Beethoven▁14549
▁manifestiert▁14550
▁adaptive▁14551
▁Physiologie▁14552
▁Süß▁14553
▁Paarung▁14554
▁Erregung▁14555
▁Anziehung▁14556
▁diverse▁14557
▁Ferne▁14558
▁dekorative▁14559
▁Hack▁14560
▁1,4▁14561
ect▁14562
▁symmetrische▁14563
▁Ausführung▁14564
▁amüsier▁14565
▁imaginäre▁14566
▁Lesterland▁14567
▁Mio▁14568
▁Lester▁14569
▁0,0▁14570
▁Abgeordnete▁14571
▁zweifellos▁14572
▁Jerry▁14573
entgegengesetzte▁14574
herrschaft▁14575
▁Federal▁14576
regulierung▁14577
▁beibehalten▁14578
invasive▁14579
▁patholog▁14580
▁Thor▁14581
[...]
