▁Wild~~8711
▁treibende~~10649
▁home~~18127
▁Diabetes~~9152
▁Fertigung~~6586
▁erzählen~~75
▁Hominid~~12209
▁Fleisch~~4937
four~~11327
▁nannte~~6199
▁Gould~~17419
▁Samarit~~14186
physik~~9894
▁bedeutende~~5699
▁Kanäle~~11485
▁Schütze~~14888
▁belastbar~~13577
▁Nairobi~~11787
▁tätowier~~10909
▁Tansania~~11955
▁present~~17086
▁suchten~~7879
▁Ureinwohner~~16572
▁Chip~~9728
▁Glenn~~14236
▁Gärt~~12688
lord~~16453
▁spiral~~15836
▁Pessimis~~12926
Biafra~~16999
▁Schwarzafrika~~11467
outube~~14260
▁as~~4124
▁Treffer~~14823
▁Beteiligung~~8390
üge~~3487
▁Laune~~7978
▁Anteil~~1740
Stiftung~~14422
▁Gandhi~~3047
bild~~1971
delt~~13844
▁Acht~~7662
▁Samantha~~17807
▁ultraviolet~~11496
▁Treffen~~2330
▁Berufung~~16048
▁Navy~~13146
akash~~15159
▁Niederla~~15476
▁Dyson~~15749
▁mutig~~4635
▁erfüllen~~7266
▁Zunge~~10037
▁Mittelmeer~~11293
▁beweis~~1339
oooo~~15993
▁Größen~~335
▁Lebensspanne~~15814
▁Reaktor~~15271
▁Symbol~~8462
▁Million~~2775
path~~15240
▁negative~~10914
▁erobern~~14858
▁Verlangen~~11208
▁def~~14471
▁vorbei~~4530
▁Missou~~12947
▁blau~~11979
fassung~~9228
▁rap~~17930
▁Freunde~~1130
▁Kühlung~~14150
è~~18003
▁Fusion~~14584
sturz~~11644
▁erfolgreichste~~10697
▁Deep~~10307
▁versklav~~11300
Dog~~14982
▁Kreditkarte~~7969
▁Huhn~~9648
▁unbekannt~~5844
▁verpasst~~6020
▁pixel~~18548
▁Pop~~4428
▁Por~~8635
▁Optimist~~12925
▁Umweltschützer~~5596
▁Mitternacht~~6717
▁laut~~3002
greif~~10336
▁verpasse~~9202
▁Träger~~8861
punkt~~4699
▁Stimmen~~3032
▁Resnick~~17598
▁Extra~~9982
▁Vereinigung~~14283
▁heroin~~18168
▁Metapher~~8592
▁ähnlich~~1948
▁Toraja~~18172
▁befriedigen~~12562
▁vorher~~3848
▁Manya~~18525
▁verhindern~~7383
›~~15577
▁Darwin~~9628
dorf~~11230
▁Pille~~4862
▁verhindert~~7385
Welt~~5734
▁Mauriti~~12505
▁Großeltern~~2791
▁Depression~~1483
,500~~15730
▁heilt~~15101
▁kreativ~~1276
▁Frosch~~11997
verhältnis~~8763
k~~269
▁offiziell~~3852
▁Erschaffen~~14710
vorstellung~~14928
▁Spiel~~1615
▁Ring~~4802
▁zusammenbring~~7829
▁MS~~15007
▁Lange~~63
▁Laden~~6531
▁Vernetzung~~10746
head~~17048
▁Tasmanische~~15781
▁verschwinde~~4041
▁Walter~~14860
▁Schreck~~2681
▁Versteck~~2971
▁schnitt~~1775
▁Urheber~~10264
▁Nick~~6650
ground~~16348
jäger~~4634
▁Radio~~4353
reichen~~3388
▁dabei~~1819
▁erträum~~14670
bänder~~14262
▁übermittel~~4168
▁Synapse~~15145
▁Extremisten~~16961
teten~~11357
ction~~15253
stern~~3005
▁Airline~~14866
▁500,000~~15719
▁Cowboy~~16500
▁institution~~15525
▁Schnitt~~8812
▁Bild~~492
<s>~~2
▁Hälfte~~3281
▁verdeutlich~~4211
▁Bill~~62
isierte~~1264
▁Entwicklungsl~~9405
▁Erlebnisse~~9075
▁person~~15576
ltimo~~17164
▁Vegetation~~14622
▁Testament~~11322
care~~17302
musik~~3153
ausendstel~~14725
▁Schleimpilz~~18524
▁Hinsicht~~4254
▁Gehör~~11929
▁weit~~792
▁Farben~~1394
gefüllt~~8962
▁Schluss~~943
▁reflektieren~~10869
bringt~~7853
holm~~5655
▁Götter~~5005
▁Levitt~~15076
▁Nachthimmel~~11113
91~~2332
gestürzt~~11296
hole~~14047
hold~~1560
▁weil~~251
gruppier~~15019
▁Brazilian~~18262
▁abgebildet~~11760
▁Pink~~15703
▁Boulevard~~15155
▁unser~~331
EDI~~13621
locken~~321
▁erzogen~~1199
höhle~~15721
▁Stockwerke~~801
▁Superstar~~11785
▁skaliert~~16812
▁Identität~~2631
▁googel~~11656
▁Behausung~~844
▁hoffen~~4070
▁Erwärmung~~12617
schnappt~~11975
▁Toilette~~6158
vor~~2198
wand~~2982
La~~5230
▁Philharmoni~~15795
▁Zuversicht~~6421
▁humanitäre~~9342
▁Schafe~~3494
▁Liter~~13652
geber~~1594
Reality~~13250
geben~~1815
▁durchbrechen~~12984
sterben~~9126
Energie~~16137
nitha~~15723
bergewicht~~14142
▁Poster~~4503
▁Süd~~5671
motion~~17160
▁Jemen~~17258
schmuggel~~10467
LC~~11253
▁vorherige~~5894
▁Potential~~1888
LL~~16511
▁Tante~~2936
▁network~~16294
▁Nähe~~3995
machine~~17820
how~~8601
hou~~12138
Kleiderbügel~~12823
gebieten~~2355
hop~~10047
▁überprüft~~5628
amme~~4444
▁Nähr~~9459
▁Streich~~12284
msala~~15715
▁neun~~461
▁Lehrer~~1960
▁Kreis~~1928
zzar~~17219
Kontroll~~9156
▁Spielregel~~16585
▁neue~~230
▁TEDMED~~8885
▁Steven~~8513
▁MacArthur~~9984
▁Lem~~13743
▁Kelly~~11824
atricia~~15643
▁modifiziert~~9685
▁droht~~5605
▁Rumi~~16364
größe~~1988
aving~~12395
▁Schauspieler~~3653
▁Situation~~1738
▁Ebene~~1784
▁straf~~16008
▁verwende~~6523
wink~~15621
getragen~~6563
▁gun~~18323
▁Elektrizität~~12364
▁schien~~3090
▁kannte~~6741
▁schieb~~14270
etikett~~16344
▁paar~~78
▁bask~~17603
▁protest~~15422
▁want~~17410
▁Lügen~~11568
▁Elemente~~8948
▁Rollen~~11620
acco~~17551
▁wann~~1570
bling~~17945
▁militärisch~~17232
▁besten~~1591
▁mentale~~14685
▁Okeechobee~~18470
▁slipp~~18461
﻿~~17998
▁Higgs~~17396
impft~~1180
tägige~~12794
schließen~~1867
▁hunger~~4978
▁profit~~15170
▁quietscht~~18349
▁heimische~~7056
▁Johnny~~6185
präsident~~10601
▁Romo~~17387
▁kanadische~~10095
▁Hous~~16160
fin~~9450
▁Beine~~3471
▁heimlich~~8843
▁John~~6351
▁Rhode~~9824
▁erstarr~~5417
bühne~~17701
▁Remix~~10188
▁symbio~~5191
rezept~~1702
▁Alternativen~~14968
wohnen~~10694
trüb~~9545
▁Kultur~~1063
▁astronom~~14666
▁spirituell~~10830
▁Ariel~~3378
▁Lehre~~7992
setzung~~5592
▁Sterben~~6771
▁names~~14412
▁Materie~~12099
▁bezahlt~~1990
▁stehen~~134
▁Patientin~~5396
▁Weltbank~~6949
▁Patrick~~16698
▁Kentucky~~13373
▁nation~~18263
▁Beatles~~13931
▁bezahle~~2129
▁Risse~~5873
▁ESG~~18566
▁Achilles~~10078
▁ägyptische~~17024
▁Emil~~14213
▁Verluste~~6969
▁monster~~16650
▁Unterkunft~~11134
▁repräsentative~~14141
▁gezogen~~5020
▁fassen~~672
▁br~~528
▁final~~14269
▁raus~~1541
▁hineingeh~~4189
▁by~~16743
▁emotions~~17871
▁Staaten~~1533
▁be~~760
▁Rechnung~~14043
▁ba~~6099
▁rauf~~5458
▁Mittagessen~~1661
▁Info~~7019
▁Mongol~~9400
unwahrscheinlich~~4956
▁bi~~3441
▁vieler~~1915
röhren~~9473
haben~~11521
▁Konsumenten~~6895
▁pseudo~~17525
ry~~4624
▁God~~14899
▁invest~~15181
re~~99
▁Arka~~14522
▁bedenken~~5043
ra~~2795
▁Schweine~~5087
▁Economi~~1073
▁Höhepunkt~~5923
ro~~2602
ri~~3356
▁Knöpfe~~15427
▁tiefgreifende~~4017
▁Vibrio~~16056
▁Church~~12853
▁naive~~16460
▁realisierte~~5847
▁Schwerkraft~~13948
▁Armen~~9760
▁Dunkle~~13869
ymnasium~~15493
▁Mitte~~2408
▁Kräuter~~17023
▁sicherer~~11488
knit~~17643
▁Beatrice~~17501
▁versieg~~17077
▁allgemein~~3347
ate~~2350
▁Fischfang~~17143
ata~~15395
▁entpuppt~~13480
▁Peace~~17698
▁heranzieh~~15556
moment~~13922
ath~~13312
▁unterdrücken~~11207
▁abge~~5937
▁Guzm~~17296
zubringen~~3748
▁Sendung~~7078
▁Coca~~12358
▁Simulator~~17467
▁initial~~17721
▁Prozedur~~10083
▁Regierungen~~5615
▁reflektiert~~4442
▁choreograph~~12159
▁Knotenpunkte~~15201
vitro~~16949
▁relativ~~1079
nerkennung~~6777
wash~~14611
▁product~~18572
▁Insider~~13336
▁Mann~~2968
erklärung~~11448
▁Hadron~~16184
force~~11918
endlich~~8310
▁verstehe~~6667
▁loslasse~~9193
basketball~~17522
xploration~~17582
service~~13128
▁scroll~~15012
▁NSA~~13479
▁umfasst~~9272
▁Jesus~~13735
ronx~~18328
▁Prototypen~~8137
▁Dichter~~6781
genesis~~16418
izen~~8379
▁Fischer~~5618
▁teil~~3202
cted~~17972
▁enttäuscht~~6402
▁psychisch~~6224
▁darau~~970
▁Rem~~11280
▁frustriert~~11172
▁Architekt~~4907
▁mögliche~~4487
▁peinlich~~6746
▁daran~~1224
versage~~15314
▁Islamist~~17256
▁Of~~18552
▁ausgehend~~6978
▁verbesser~~2251
▁Buzz~~15862
▁herauskomm~~10160
▁öffentlich~~8192
▁free~~17983
▁spürte~~8518
▁frei~~3815
▁rang~~15544
Schein~~3613
▁Wasserrechte~~15501
▁invite~~18535
project~~9317
smethode~~6706
▁masse~~16481
▁erheblich~~9180
▁Doktorand~~2356
▁HIV~~7325
▁wütend~~6178
▁Ordnung~~2975
▁Südkalifornien~~16143
▁Leid~~10811
▁Behörden~~10432
▁Kühlschränke~~3603
▁Fußball~~1458
▁Zeichnen~~11590
▁komplizierte~~8296
▁Monat~~5837
▁Fellow~~11470
▁Agu~~16671
▁Kindersoldat~~11004
kompetenz~~9452
▁unkompliziert~~14240
▁saubere~~4700
▁misst~~4209
▁Strohhalm~~17267
▁cue~~18120
‒~~18370
▁Schöpfer~~8745
▁Maß~~13505
▁anzu~~320
▁Kapitel~~2466
Perspektive~~12586
▁planner~~16522
▁Mini~~9318
sound~~18427
▁Ok~~6291
▁Geschirr~~5483
alai~~10879
▁Schichten~~8410
▁strategi~~7041
▁soup~~17919
Nobelpreis~~6828
Bank~~12595
▁Logistik~~15356
▁Gewicht~~2364
▁großer~~3463
▁wendet~~9282
▁Mobilfunk~~11890
shalb~~5194
▁rechtfertige~~11576
▁basierend~~8362
weint~~13273
▁angetrieben~~6875
▁Rouge~~16695
mouth~~6760
▁Prophe~~10967
krempeln~~10768
▁großen~~296
▁Endergebnis~~8792
geschlagen~~5047
▁bewahre~~1185
▁atemberaubende~~13461
▁Säulen~~800
▁Wohnzimmer~~4537
professor~~6616
lose~~1261
▁Burk~~10912
▁Bru~~16797
sammle~~7782
▁Gründe~~1537
▁bewahrt~~11478
▁Telescope~~17791
tech~~6435
▁entstellt~~11220
▁schonungslos~~13520
▁Söhne~~8580
ausrüstung~~15348
▁auftreten~~10892
Marke~~14148
▁schiere~~14084
▁indische~~6827
hus~~7564
bewußt~~5447
liest~~7121
▁Beweis~~7543
Markt~~11949
▁depressiv~~14675
▁Eingang~~14482
Situation~~16044
▁Academ~~14246
schaften~~7364
▁Drink~~17308
▁Variante~~13184
▁Rückzug~~15293
▁manifestiert~~14550
▁Poe~~11707
ment~~3979
▁Betrüger~~3559
▁Untersuchung~~1377
▁Kontext~~1870
▁Erwartungen~~6874
▁Vergangenheit~~948
than~~8955
▁Gebilde~~8669
▁persönliche~~3098
▁Reibung~~16031
▁chirurgische~~9921
▁thro~~18337
rich~~9805
▁native~~17970
rice~~15750
▁pharmac~~18599
▁Elisabeth~~16223
Account~~17288
▁Komfort~~9977
▁Najmuddin~~17876
▁evident~~17104
kleid~~8945
▁Haushaltsgeräte~~15879
▁Klug~~15725
▁wiederholt~~3464
Magazin~~7200
Geisteskrankheit~~15609
▁Erscheinung~~2593
▁Angiogenese~~17837
▁Album~~12283
▁Eier~~9068
▁Aussehen~~9475
X~~312
▁Koran~~10966
▁Algen~~5646
▁Raketen~~4517
platz~~6231
▁vorangegangene~~9388
▁freie~~4227
▁Physiker~~9825
gucke~~14947
▁Füße~~699
▁gewöhnt~~4151
▁Rasse~~1393
▁Pfeffer~~13749
▁einheimische~~10651
▁hervorheb~~11781
ugoslawi~~10990
gewicht~~5254
▁Buchhalter~~16238
gehe~~12170
▁Dome~~5708
▁fundamentale~~5131
▁Ausnahme~~5964
▁Immigrant~~13728
▁meiner~~249
Gruppe~~3676
▁adaptive~~14551
▁OP~~7822
zahlen~~9568
▁Netzwerk~~3813
▁program~~15247
▁angerufen~~3183
läut~~11594
Afrika~~4424
▁Garnele~~757
▁Jahrzehnt~~2081
klären~~5553
▁Ländern~~1844
▁infrar~~16300
▁Oregon~~11053
▁East~~13566
▁meinen~~2591
▁Kalku~~12450
fangen~~430
▁Tisch~~5781
▁Leute~~1809
▁grösste~~1388
nkung~~14027
▁gewährleiste~~6035
▁mega~~17194
▁Drang~~10332
▁unschuldig~~12294
▁erfordert~~5623
▁solcher~~10871
▁vorgeschlagen~~5732
figur~~3803
▁place~~18309
▁Probe~~3710
▁Oberfläche~~630
Atti~~17200
ire~~4143
rollen~~2829
▁geheimnisvoll~~6798
▁entwarf~~5321
▁Bananen~~12042
▁Wendung~~13183
▁vorhergesagt~~14537
▁ausgewählt~~1346
▁Fernbedienung~~11606
▁Wechselwirkung~~11643
cut~~10842
▁Ideal~~5145
▁Madonna~~8451
carbon~~9103
ränken~~7181
▁Potter~~15227
ë~~17511
▁expansive~~16221
ntschlossen~~6092
signale~~6899
▁bewegt~~148
met~~8899
▁braune~~5451
▁MRT~~10741
▁irgendwelche~~3805
▁unterzeichne~~7776
▁Dokumentarfilm~~2882
▁dein~~1316
▁Vorurteile~~8740
schuhe~~11202
▁gelähmt~~5418
▁MRI~~2481
elbstbewusstsein~~13054
▁rate~~8686
pite~~2467
▁Musikvideo~~14258
erfahrung~~8306
gesammelt~~5004
▁Monopol~~11396
▁führe~~12907
▁Passagier~~13353
▁passierte~~4577
▁mitzu~~3929
▁immersive~~13185
▁zusammenzufass~~15149
▁SUV~~10309
▁SUN~~9737
gerne~~1876
▁vergifte~~12305
zuschauen~~12476
▁Asteroid~~15249
▁genital~~15729
▁grade~~12164
▁gehandelt~~6981
union~~8840
▁Block~~5311
▁Pat~~4656
▁Bionicle~~18348
▁fair~~6860
▁ausser~~2402
kasten~~5356
.~~1069
▁Pan~~5296
▁Pal~~5380
▁Hölle~~914
▁Galileo~~14882
stadium~~13448
▁wiederzu~~1019
▁underst~~17228
Gesellschaft~~15418
▁freisetz~~2581
▁täte~~6526
farbig~~15884
life~~8712
▁Anfang~~1684
betracht~~14824
▁Tourist~~13050
Schule~~14194
▁außer~~723
▁wegweisende~~17150
▁gleichzeitig~~770
▁Zensur~~7244
▁außen~~9311
Künstler~~16811
child~~12523
▁Besuch~~9891
▁Erwartung~~10384
faktor~~1206
erst~~1605
▁abrupt~~14621
▁überquert~~12471
▁kosten~~6870
▁noble~~11444
▁überleben~~3358
▁verletzlich~~5720
▁Desaster~~963
Waschmittel~~10081
▁Lebenserwartung~~7431
▁irgendein~~6342
▁übergewichtig~~13755
plizieren~~16299
▁Verbraucher~~13062
▁zurückgehen~~8621
▁lebenswert~~15548
risch~~6276
▁kostet~~1975
türme~~14271
▁marginal~~18013
▁Bewohner~~2011
fälsch~~5467
▁Northern~~15925
▁Treib~~4717
▁Mentor~~12331
tzt~~5280
grenzen~~2664
▁tatsächlich~~375
▁unbeschreiblich~~16342
▁Wal~~13331
desto~~932
▁falsch~~3709
▁Was~~4534
▁War~~6040
▁Bronx~~6124
▁Way~~17384
Krankheit~~13420
tät~~7097
▁optimiert~~15978
▁zahllose~~15134
llows~~18428
▁besorgt~~2075
klinik~~11093
wenden~~5760
wettbewerbsfähig~~7223
▁Hiroshima~~14288
Python~~17524
pulsion~~16987
▁aktualisiert~~8634
▁Psychopath~~16283
▁stop~~15939
▁color~~18254
▁narrative~~2609
▁suggerier~~16933
▁Filme~~2606
förmige~~811
▁aktualisiere~~3860
junge~~15656
▁konfrontiert~~3373
▁Mechanism~~10648
brücke~~5991
viertel~~11497
▁Biolog~~16339
▁symbols~~12898
▁Penn~~6540
▁anhaltende~~2243
▁Terrorismus~~11943
▁implizit~~15802
hrfurcht~~2770
topf~~9988
tung~~1755
▁Apotheke~~7358
▁solch~~7624
▁motion~~18164
▁Instrumente~~3902
weichen~~5940
▁Fallschirm~~4633
â~~16346
▁Bomben~~14514
▁Millarde~~13973
more~~14508
▁Mein~~5517
▁Broadway~~13550
▁schwedische~~11911
▁Elendsviertel~~5933
▁diagnos~~16718
▁Zehen~~15908
▁Olymp~~1405
wahl~~1350
▁ursprünglich~~5253
▁dominieren~~12779
▁Maul~~11513
▁merkwürdig~~807
▁8.~~8893
▁Oxytocin~~3839
ufregendste~~106
▁Chinese~~4570
▁überwältigt~~10391
▁86~~12058
▁verstehen~~690
▁80~~1751
▁artist~~14324
▁82~~6956
▁83~~4586
▁Maus~~7516
▁durchsichtig~~11112
▁präsent~~15737
▁88~~13170
▁Unternehmens~~10767
▁erzeugt~~3825
▁Gleichheit~~1877
▁zahlreiche~~7339
hak~~5736
▁Power~~4032
ham~~6499
han~~1119
▁aufschlussreich~~11070
▁Frühling~~5676
▁auszusehen~~11580
frage~~6851
sitzen~~8267
Rakete~~14364
▁Flagge~~4506
▁Geringste~~15326
▁Ausstellung~~4601
grafik~~12826
▁laufen~~2391
har~~6063
▁Proteomik~~15768
▁Vorteile~~1095
▁25.000~~12277
▁Diskette~~15999
▁Lauf~~4222
▁schweigen~~7513
▁diagnostiziert~~9839
▁Träume~~11038
▁Julia~~12668
▁beherrscht~~7873
▁Schnappsch~~14884
▁experimentiere~~4015
▁Miete~~9550
▁anbiete~~13366
▁Laur~~14944
wolke~~13294
▁beschrieben~~7006
▁Grundschul~~11083
▁experimentiert~~9744
▁Karikaturist~~13149
hängig~~5125
▁Second~~14012
▁priest~~11323
▁erkennen~~1730
▁Leistung~~1495
▁schlimme~~10009
▁künstlich~~15148
▁Stufen~~11385
▁Schmetterling~~11544
▁Anders~~3555
▁aufregend~~4266
▁Konsens~~6440
ippe~~6715
▁Prüf~~15414
▁photograph~~17535
▁gemäßigte~~15816
▁Designer~~5224
moral~~16683
▁Gedichte~~14739
▁Rush~~12765
▁Medium~~4417
▁Andere~~5589
▁lustige~~841
ola~~5275
▁Linksliberale~~12708
▁geheime~~7810
old~~9024
▁Aufreg~~3758
▁Rumpf~~9477
ektion~~8691
▁geboten~~17505
▁Genesung~~17548
▁spezielle~~204
zeitalter~~5066
▁Mannschaft~~15464
bedingte~~7500
▁belegt~~8248
▁studierte~~6674
▁Gitter~~8694
▁Giacometti~~15742
▁Aquarium~~4824
▁Organismen~~7459
▁Gegenwart~~6168
atrol~~17987
▁platziert~~4197
É~~17708
äfte~~2449
for~~4745
▁konstruktiv~~1636
▁just~~1033
▁machten~~3430
▁board~~17755
▁amüsier~~14565
▁quantit~~15962
▁umstritten~~1836
▁Imker~~15681
▁Head~~498
▁po~~15329
▁Besten~~3124
▁Einschränkung~~1654
▁abgeschlossen~~7579
mpact~~17058
▁Bro~~12831
▁Target~~14371
▁mystic~~16825
▁überzogen~~15430
▁Projekt~~3453
arbeiten~~5353
▁servier~~13750
▁Profit~~6858
rückt~~1464
binden~~6500
▁Dutzende~~2401
▁Profil~~7085
arbeiter~~2062
gefunden~~7609
Unternehmen~~12962
▁Leb~~16252
▁Verfahren~~1837
ú~~17883
▁Welten~~5523
▁ausbilde~~10681
▁Swami~~7916
▁bitte~~2005
▁tack~~18138
▁verdient~~6509
bewerb~~9925
berdosi~~6191
cular~~18143
o~~443
▁konkurriert~~17055
▁Alarm~~13497
▁komplexer~~9670
▁Weil~~1606
▁Wein~~3171
▁marble~~16393
▁besuchte~~8160
▁umso~~4926
▁Taxifahr~~11619
chte~~6661
▁Arbeitsplatz~~1465
orientiert~~11452
▁verblüffend~~9830
▁Gedanken~~2483
▁Säle~~4263
▁zusehen~~6471
son~~497
▁intelligent~~6073
Erhöhung~~14078
anbieter~~13499
▁beängstigend~~5561
haupt~~11024
▁hielt~~6157
efangenendilemma~~11823
▁Schüssel~~12140
▁gekrümmt~~14890
▁legitim~~7413
▁physisch~~7498
fabrik~~10465
▁höchst~~9021
therapiefelder~~16947
▁herkömmliche~~9828
▁Varianten~~8794
▁Pr~~6060
▁BBC~~16918
spring~~15174
▁resign~~17626
▁led~~17692
▁entführt~~10882
gewebe~~9827
schrift~~2220
▁Voyage~~8632
leiden~~12631
▁Abschnitt~~4199
oil~~9295
back~~6510
▁Pestizid~~17640
▁moralische~~2657
▁Mitra~~17761
▁Chancen~~1881
▁ursprüngliche~~7524
▁Sach~~10270
▁abnormal~~12083
▁Stammbaum~~10675
otter~~3112
azi~~5741
gebohrt~~1267
▁wag~~2299
▁Antikörper~~12891
reitet~~10122
▁sahen~~663
▁verwendete~~8026
▁navigieren~~13423
▁Hinterhof~~8576
reiter~~1748
▁was~~159
▁war~~522
▁verteilt~~1887
▁Nachmittag~~9408
▁umkehren~~12494
kohle~~10447
<unk>~~1
▁Stück~~671
▁Grill~~8511
hülle~~5277
▁erneuerbare~~12644
▁morbid~~16807
▁upper~~17280
▁albern~~10797
exist~~10217
hüllt~~15366
sparen~~4447
▁Birmingham~~17559
▁PC~~7298
▁Spezialisier~~15864
▁Mäuse~~7504
▁loyal~~17015
▁Ansatz~~3411
▁älter~~2790
▁Kenia~~11889
▁Glas~~4701
▁Millisekunden~~2541
▁Mom~~13124
▁drückt~~13668
bewusst~~12572
stürzen~~3784
▁Supermarkt~~4512
▁Pavillon~~10557
▁Meeresbiolog~~17043
monoxid~~17110
▁Summe~~3539
▁Häuptling~~11135
▁drücke~~14658
▁Gel~~11743
▁Geo~~14989
▁Gen~~1202
E~~697
▁Geh~~6775
▁riesengroße~~16034
▁Auswei~~1754
▁Erdbeben~~169
▁CERN~~14831
▁robust~~7468
palme~~17078
▁intuitive~~12735
▁Amateur~~3874
▁massive~~2006
▁Par~~8221
modell~~8805
trafen~~16575
▁Get~~6355
▁Louis~~3193
▁1918~~11331
▁kürz~~6527
ßen~~1542
▁Proben~~4846
reicht~~6708
▁pi~~17375
▁legte~~7135
▁geologische~~13560
▁Versicherung~~6806
aufbau~~7207
programmier~~13703
reiche~~542
▁angenehm~~1985
▁entzünde~~5869
▁hilfreich~~2559
▁Soziologe~~11821
▁Gelände~~13374
▁Teilchenphysik~~14832
time~~627
▁Bewertung~~1709
▁Selektion~~7582
▁Polymer~~15769
▁Clay~~15511
Ausrottung~~5865
▁lebende~~7488
▁don~~15258
volle~~3151
▁akademische~~3071
▁ungeheure~~9797
▁Clar~~6641
▁Gabriel~~3899
▁Clau~~18041
▁ran~~6581
▁Cyr~~11310
osi~~9934
osh~~16443
▁Natürlich~~4923
▁rat~~10456
▁rau~~12243
▁typisch~~7480
osa~~8715
ose~~13568
▁verschärf~~16620
▁Dänemark~~7222
macht~~6983
▁Tricks~~11492
▁Cleve~~14475
ver~~501
äuschen~~4496
▁burglar~~18509
▁fotografiere~~5542
qualität~~2307
▁verkünde~~7185
▁Christopher~~2473
▁beliebige~~5065
▁bemerkenswerte~~9946
▁majest~~17442
▁härteste~~5931
saal~~2749
▁fotografiert~~5610
▁Fokus~~2023
DNA~~10463
▁sequenziert~~12773
▁funk~~8956
Bahn~~13595
oid~~8964
▁Fortpflanzung~~13573
▁Best~~2079
▁Zustände~~10816
▁Los~~4715
▁optical~~17458
▁taste~~18268
▁gründete~~2689
▁Platz~~1055
▁sprich~~9349
▁Anlage~~10448
▁Force~~6296
▁präsentiere~~7073
▁Bese~~2763
▁Fan~~2883
▁roll~~11516
▁vereint~~13980
▁radioaktive~~16426
▁Log~~11400
▁sapien~~10696
ui~~7705
Barrel~~13066
▁stimuliert~~1423
▁Plato~~15875
▁Spiele~~10798
▁präsentiert~~3258
homa~~14303
▁Finanzkrise~~10439
▁eingeführt~~5763
▁Protozelle~~18032
nagel~~3781
▁Wer~~10019
▁obsessive~~18105
▁Besorgnis~~12297
▁brennende~~5433
Tag~~10792
änge~~3796
team~~6053
oldaten~~16093
▁Geschehen~~5609
▁Richard~~9996
▁praktiziert~~13279
▁schwarz~~2880
▁egal~~1569
za~~14483
▁Individuum~~9608
▁Gerücht~~16259
▁Wünsche~~6742
▁ausgegeben~~1962
hack~~9574
▁Treasur~~16220
▁Philosoph~~14315
▁klinisch~~13429
▁Cross~~10407
▁aufhör~~1416
▁brillant~~11663
▁entfachen~~1686
fehler~~8281
▁Struktur~~4255
▁Ahmedabad~~18201
▁verzerrt~~3692
▁knapp~~6332
▁Pandora~~11381
▁Jaipur~~13655
▁Valdez~~16202
▁Schaf~~9707
▁bleib~~12851
▁Garage~~14430
▁patentiere~~16296
▁innere~~6143
▁Auftrag~~5310
rochen~~8693
▁angespannt~~11017
▁Atmosphäre~~2371
▁Schau~~4825
▁Schar~~7429
▁Verbundenheit~~15484
schau~~4088
▁Werte~~3096
▁Schwefel~~866
bo~~4643
Ma~~6372
▁Beschäftigte~~16250
▁Ferien~~10508
▁bieten~~2649
Mo~~5909
▁Rückmeldung~~15309
lange~~2813
▁Revolution~~1028
▁Sektor~~12366
▁Konkurrent~~11828
▁Leinwand~~2704
magnetism~~17754
▁Assistent~~10660
uff~~3563
▁Kumpel~~6277
▁wussten~~553
▁erstaunlich~~746
Daten~~12436
studien~~14202
▁Innenstadt~~6183
▁diver~~14107
▁beginnen~~691
▁nördlich~~463
ML~~5686
▁geometr~~18229
▁Truppe~~6410
kreislauf~~2512
uantenmechani~~12098
MT~~16325
▁durcheinander~~4282
▁Grafik~~3799
▁foundation~~18171
flu~~9158
▁firm~~18098
▁strahlt~~9514
▁Züge~~7654
▁Fett~~9859
▁suggest~~18581
▁Kosten~~1969
▁beim~~1980
▁mütterliche~~12235
▁Knee~~18097
▁prinzipiell~~9456
▁beizu~~2140
▁hinausgeh~~11251
▁auditive~~18054
▁ökonomische~~1745
▁Aufsehe~~17005
wörter~~10845
wana~~14116
▁Goldilock~~18412
▁Koolhaas~~17894
heirat~~6550
▁Folgerung~~16247
▁nutzlos~~11577
▁Punkte~~4531
▁Karibik~~455
sky~~8227
▁primordial~~17920
▁los~~727
stimmung~~10436
▁Ethik~~4665
▁low~~13990
positive~~12054
▁Untertitel~~2881
▁Verwendung~~6872
▁erneuer~~6431
▁Draht~~11367
wood~~7322
▁Domin~~10607
▁log~~6026
▁quick~~18540
▁CT~~10680
ossi~~10692
▁Nazi~~2997
▁Treibhaus~~14277
▁Röhre~~644
▁Himmel~~2764
▁extrahieren~~12032
▁Vereinbarung~~13200
Zentrum~~9427
▁CD~~4130
visual~~17204
▁wiederherstell~~5184
▁CA~~5685
▁CC~~15682
▁CB~~4220
▁CL~~15983
▁Laura~~8504
ück~~6108
▁Lastwagen~~12677
▁EB~~13456
▁Cu~~15365
▁Aufstand~~1682
▁Savage~~12502
▁kriegen~~1212
▁Tom~~3039
▁Ton~~3235
▁embryo~~16321
▁analysiere~~6131
▁Tod~~3867
▁Mass~~5829
▁quasi~~8048
▁Streit~~13051
▁Mexican~~16752
schneide~~8814
▁Ca~~4772
skrit~~12157
ggle~~18008
▁Top~~6924
ffnung~~11188
▁analysiert~~4203
▁Medizinstudent~~6556
▁Ch~~641
▁Kandidaten~~11192
▁Erwerb~~15726
▁potenziell~~8121
ever~~9788
Monkey~~18557
▁gearbeitet~~4135
▁Juliano~~18111
▁Diplomat~~13744
▁Politiker~~5753
▁schleppte~~9207
flogen~~2432
▁einzelne~~284
▁Merkmal~~8268
▁Athlet~~13287
▁Hyp~~13478
▁Marketing~~7333
▁Geiger~~16784
▁bestimmte~~3679
▁vergess~~7744
fühlst~~2487
▁abbilde~~10703
schrecken~~10107
wickelt~~12340
▁kreieren~~7001
▁stört~~11999
▁Schrift~~11058
▁Blood~~14170
▁erhalte~~10509
▁resilien~~18518
▁Indonesi~~13814
▁Brit~~2868
▁Bloom~~8356
hundert~~8482
ruder~~14876
▁Nicht~~4613
▁Sperma~~17141
▁Brin~~8096
▁Zettel~~3597
▁Ministerium~~10179
wickeln~~6533
▁Schwarz~~9673
▁kümmer~~1577
generierte~~13244
umarmen~~16155
▁Zander~~17521
▁auszuwei~~15259
nseits~~4889
▁innovative~~6019
▁ledig~~7347
▁Stringtheorie~~12106
uark~~15387
▁neben~~3107
▁Charlotte~~15626
▁Texas~~5577
▁blog~~17824
▁Roosevelt~~10221
▁Stoß~~10063
▁bestand~~6436
getaucht~~5656
atar~~10419
rgon~~3606
▁Gestaltung~~4152
▁Atem~~5821
▁gefährliche~~9998
▁zurückbring~~3984
▁mysteriöse~~10280
▁vornehm~~6219
sp~~4711
▁Sebastian~~15140
st~~903
▁WikiLeaks~~17242
so~~3383
▁Ausflug~~9517
▁Assoziation~~12023
▁hockey~~18307
▁geschrieben~~2320
▁organisieren~~9770
▁Brother~~14865
▁terror~~15985
▁integriert~~2976
▁learn~~16946
▁Aristotel~~13962
▁Mamma~~16854
▁befürchte~~7420
▁Wendepunkt~~6836
▁NRK~~18510
kong~~13917
▁Faszinierend~~10471
▁Portion~~5529
▁empor~~12860
gehalten~~9911
▁Ansätze~~6030
tte~~7955
▁Ort~~1729
▁schlimm~~3525
▁Autofahrer~~14700
▁zeigte~~4835
gespült~~4848
rctic~~17882
▁verschieden~~1536
getäuscht~~13256
ographie~~5983
93;~~2334
▁Falsch~~10868
▁armen~~758
eolith~~17566
▁Argentin~~18211
▁Autofahren~~12912
▁angle~~18384
sgeschichte~~1688
style~~17623
▁treffen~~1527
▁super~~3284
▁erfreu~~8743
iuk~~15971
▁Charta~~11342
▁Scheitern~~6266
▁suspend~~14855
▁türkische~~9285
▁Web~~11701
strom~~5582
▁Schlangen~~7712
▁abschaff~~11913
▁iranische~~2912
▁stellvertretend~~15733
▁Kilometer~~130
▁Angehörige~~11893
änder~~3906
\~~17563
▁Duolingo~~17456
▁also~~550
▁Cent~~4816
▁eigenständig~~11637
▁feucht~~12267
▁erkunden~~10624
▁kollidieren~~16145
▁Howard~~3053
▁tiger~~18193
▁Hintergrund~~786
viation~~16164
▁vermassel~~9995
▁Transform~~9515
▁Dreck~~11180
▁Schabe~~8063
A~~2419
square~~16809
▁Scheibe~~8816
▁38~~14758
▁Religion~~1395
▁Carl~~5516
▁Monro~~15070
▁wahrhaft~~7937
▁Baker~~4365
▁tough~~17959
▁minimieren~~6815
▁Führer~~1649
gefühl~~6767
▁Hawke~~15198
▁Distanz~~9813
wegen~~3468
▁härter~~5904
▁Sowjet~~8839
ful~~16446
▁Analogie~~8795
fu~~3833
klärt~~9876
Emission~~13791
▁Ertrinken~~7656
▁Biodiversität~~16123
▁Reduzier~~14129
▁Segel~~14446
Erfolg~~17903
▁Cornell~~13086
händig~~11579
ble~~7948
▁Süden~~4771
bla~~8013
▁Ehe~~6511
▁ausgebildet~~10917
▁perform~~12968
▁Morgan~~17062
▁Faul~~16640
million~~2897
gerüst~~16514
▁gestorben~~6193
plex~~8991
▁löscht~~14377
▁Jazz~~4336
▁Wiederholung~~8760
▁Ituri~~17379
▁Luca~~4773
▁Lyndon~~15456
▁6,000~~18133
▁schätzen~~1146
▁im~~173
▁manag~~13019
▁Frühjahr~~6929
▁versammel~~11456
▁spazieren~~7817
ingabe~~9578
wirken~~3930
▁Hüte~~16157
Satellitenbilder~~6022
▁erste~~830
▁wirtschaftlich~~5885
debatte~~16621
▁Bursche~~6194
▁Seite~~300
▁internet~~16934
▁zusammenhäng~~10148
▁gigantische~~4048
▁choice~~17935
▁intelligente~~9636
ona~~15914
ong~~9989
▁Paol~~15893
one~~4899
▁Dauer~~1786
▁moderate~~4400
▁Funktion~~253
▁Mushroom~~15435
▁snow~~18378
▁Schnell~~5259
▁telefoniere~~12582
city~~13926
▁packte~~7660
▁tausende~~2294
▁tausend~~2322
▁scheitern~~6405
▁untersuchte~~11982
▁heißen~~806
▁ein~~77
▁unpassend~~6226
burst~~8522
▁Umsatz~~9549
▁Begierde~~12535
▁eine~~279
▁Dunlap~~18410
2~~7278
▁schlechte~~1114
▁Prioritäten~~2125
▁disk~~9320
▁recyceln~~15340
▁Ausrichtung~~11936
▁scheitert~~10788
▁therap~~16066
▁Prince~~3900
▁Anna~~11775
geweckt~~11983
▁Baumwolle~~6539
geschäft~~3713
▁Reformen~~6880
▁Justi~~15284
▁Gius~~10183
▁existential~~18274
▁Seoul~~13820
▁Swa~~9326
▁Stop~~10022
spora~~16944
▁service~~18573
▁Somerset~~14029
▁zweieinhalb~~8571
▁Treppe~~7312
Kurs~~8188
▁Christen~~11012
▁Minderheit~~8162
bauen~~7037
▁Galaxien~~8614
chmal~~3443
▁Solly~~15669
Krise~~13112
▁Bots~~16817
▁Regisseur~~2614
▁Football~~1459
▁TEDster~~13955
▁Stätte~~16651
rgestellt~~2133
▁serviert~~4906
▁Island~~6156
bauer~~6923
▁Tomatensau~~15948
▁it~~10410
▁Zeitlupe~~11645
▁Wiki~~16154
emen~~652
sam~~2186
▁Manufactur~~15173
hält~~1539
▁verdanke~~8009
▁langsam~~1583
▁geschult~~14125
▁besiedelt~~7671
▁dreimal~~4942
schloss~~7880
▁sum~~11115
▁Oslo~~16633
vermögen~~8595
▁fl~~6298
▁verfolgt~~4210
borough~~17726
▁Stoffe~~5431
▁fe~~6794
▁gegessen~~4302
▁Mangel~~7043
zog~~5432
▁leuchtet~~6309
jahr~~5197
▁cubicle~~17898
▁dicht~~537
▁Krosoczka~~18167
▁Neuerung~~4308
▁Suga~~17760
fertig~~9484
masse~~3921
▁Korrektheit~~16629
▁leuchten~~9663
take~~274
▁Mir~~11956
▁Erne~~10058
antwortet~~14810
plattform~~8024
▁Herrscher~~9189
▁Städte~~4904
▁Gegenstand~~8842
olonialismus~~16115
▁Freud~~16350
▁Massenver~~11123
▁life~~15889
▁registr~~17690
▁dentist~~18196
▁territor~~5672
▁Steigerung~~13780
▁Republikaner~~10190
strahl~~633
▁zusammenge~~6374
▁Technologie~~2699
▁mische~~14721
▁extrinsi~~16670
phil~~3966
bble~~17093
drive~~13515
▁Kästchen~~14684
▁schief~~5248
▁General~~12325
▁Nest~~13212
▁praktizieren~~4434
♫~~12080
▁Kiste~~6209
▁tue~~6232
▁Wasserstoff~~8858
utzung~~4779
▁tun~~1475
▁Wright~~15843
▁Camp~~10136
aktion~~7643
▁tut~~2800
technik~~9986
▁Edinburgh~~16991
▁überflutet~~13670
▁Nanometer~~3317
läufig~~5190
▁Techniken~~6412
▁Tonhöhe~~15399
▁kontrolliert~~1425
▁einwandfrei~~14957
zahl~~2340
▁lehrt~~9446
▁Arthur~~14193
▁drei~~551
▁verbleibende~~7486
liberation~~18347
▁EEG~~16441
▁übernahm~~9500
▁Hass~~15238
▁Matthew~~13233
▁erfolgreiche~~1718
▁Techniker~~3240
▁probiert~~12482
▁ärgert~~11359
ueen~~13615
touch~~18350
▁Mul~~15425
▁Just~~11625
▁Veränderungen~~1829
▁koreanische~~11558
▁Durch~~4285
▁Laborator~~12726
▁hineinzu~~8783
geschlechtliche~~10874
▁Mur~~6497
▁veranlasst~~11319
platte~~7736
▁Mut~~5504
bombe~~8859
▁irreführend~~16774
▁Alkohol~~11615
▁schrittweise~~7472
▁Urlaub~~1662
heila~~6222
uz~~11981
▁eingesch~~3651
▁Skizzen~~12797
▁Erik~~14731
▁abstrakt~~16081
onsistenz~~16194
▁Aufnahmen~~80
▁brandneue~~6458
▁Pfleger~~3478
▁nachhaltig~~12036
▁piss~~15463
where~~13598
vision~~10852
▁Kunden~~1522
▁Gewinne~~9369
▁irgend~~7668
▁minimal~~1556
▁Bollywood~~17269
▁Dampf~~5177
▁erlangt~~14846
▁Eingriff~~2519
▁egoistisch~~15239
▁gestohlen~~10364
▁Fuss~~12351
us~~220
▁650~~5196
wurzel~~15436
leicht~~4621
▁Impulse~~10711
▁Sonder~~14447
▁Gelb~~12776
führt~~2693
▁Atom~~10833
▁Britische~~11224
▁Kapital~~6085
▁Road~~11051
Bewegung~~6636
kilometer~~8903
▁sicher~~3816
ontinuität~~13177
wasch~~4685
deckt~~12073
▁Produktion~~2766
▁chronisch~~16902
▁richtige~~3410
▁treiben~~4768
▁Jess~~14235
▁Liz~~16583
▁Seiten~~476
▁Photosynth~~13424
▁Erzählung~~2656
▁Lis~~7890
▁Isabel~~9533
▁überschwemmt~~7331
▁data~~18287
auftrag~~11141
▁reformier~~7332
▁tiefe~~4276
▁Picture~~17520
▁Lin~~7788
geschmack~~13727
▁Lib~~11786
▁Abgeordnete~~14571
▁fange~~10763
ug~~5068
▁alpha~~18292
▁signifikant~~11819
▁Seeleopard~~17779
▁Honor~~7063
▁Kollegen~~1473
fünfzig~~8206
▁handelsübliche~~16476
▁Statistik~~9049
▁Zusammen~~9611
▁bekannteste~~5041
s~~98
▁Trompete~~17227
▁Galvao~~18272
▁NFL~~16709
▁Fuller~~8533
expression~~18315
mann~~7998
▁haben~~76
▁vibrier~~4060
▁quer~~9719
▁AAA~~16750
▁Toleranz~~10902
▁beruhigt~~9010
▁Ray~~13140
▁französische~~9253
▁Kollektiv~~11883
▁Embryo~~7594
▁Weise~~1167
▁Aufsicht~~12596
▁moment~~18353
▁Parameter~~4169
▁versch~~7785
anti~~6545
▁Norden~~5987
▁Missbrauch~~6118
▁längste~~164
▁Gefährt~~15188
▁geplant~~7864
boat~~10248
▁emit~~12449
sicht~~1306
▁Südamerika~~9177
ußere~~14498
▁Franz~~4642
unfall~~7590
▁Verschwörung~~1122
▁Todes~~3804
luft~~14409
▁Streifen~~14383
▁Donald~~17301
▁Frank~~2793
▁Anbieter~~13500
erhöhung~~16780
▁dafür~~1501
reflex~~12553
▁miss~~11061
▁Dallas~~14793
▁Erkennung~~12013
formen~~6876
▁stopp~~5836
▁alle~~95
▁Lebens~~182
brush~~17132
▁schlichtweg~~15345
▁komplette~~2385
▁Oper~~3875
gger~~4828
▁Innere~~837
▁Open~~11860
▁entsprach~~8317
▁Indianer~~13552
▁industrie~~12691
▁Jacque~~13058
▁Pharao~~15214
▁isolieren~~11772
äre~~10234
leiter~~3620
▁psychiatr~~11610
▁Stöcke~~12791
iven~~12429
▁Automobil~~10313
▁blutige~~16442
spezifisch~~13742
▁Lüg~~13379
▁freue~~3798
protokoll~~15049
▁monatlich~~6503
▁Geschlechts~~318
situation~~9218
▁Tyle~~10450
▁Schließ~~15936
▁Fern~~7018
▁fanden~~2405
ive~~9938
▁vorantreib~~2215
▁Schieß~~13831
▁Beschäftigung~~13848
▁hervorzu~~5292
▁stören~~16062
brot~~12641
▁Skalierung~~17558
blau~~12916
▁20,000~~16207
▁Stock~~5654
▁Riverside~~8534
▁sounds~~16075
▁Ehrlich~~3681
▁grossartig~~5810
▁the~~2622
▁Zerstörung~~12293
▁vorzu~~208
nachmittag~~13618
▁Grippevir~~16881
▁träumte~~11005
▁Chor~~4065
▁Citizen~~3027
▁Chop~~13723
▁Fremde~~10819
▁eingeladen~~8016
dacht~~8030
Forschungsarbeit~~6506
▁frage~~6716
▁lit~~16758
▁format~~18236
▁entscheidende~~5464
▁suchen~~772
▁Mögliche~~3735
▁Moral~~3687
Prozess~~15031
▁verschwand~~9129
▁Ausbeut~~11209
ntweder~~520
▁Zubehör~~9478
▁Geographic~~8894
eopard~~9070
erence~~6672
▁kollektive~~2869
▁erinnern~~1140
▁Room~~17122
▁Lebensmittel~~4974
▁Ahmed~~12318
▁Jami~~14999
▁erinnere~~4564
▁demo~~9497
▁AB~~8826
▁festhalten~~6257
▁Freundlichkeit~~14701
▁AG~~7571
hängt~~12897
ärgern~~12854
▁Schäde~~5626
▁gelang~~2235
▁Stygi~~17156
▁Ideen~~1621
steuern~~13528
▁verfasst~~11298
▁angehalten~~12895
▁erinnert~~2615
lehrer~~9278
▁Ar~~8147
▁Ap~~12901
zellen~~5461
▁download~~17482
▁Au~~1565
▁Hum~~5178
macher~~5212
▁verstorben~~7755
Moment~~15997
▁wenigsten~~8726
▁Erreger~~2546
▁spezialisiert~~9896
▁Ab~~1349
▁geschlafen~~9430
ffizienz~~14018
machen~~6749
ischer~~9778
▁Ad~~7021
▁Ak~~7195
▁Blutgefäße~~13207
▁Ah~~3785
▁Fühle~~14714
▁An~~2627
▁Am~~5198
▁Al~~213
▁besiegen~~1652
▁Seminar~~15457
schreiten~~9197
▁aussah~~4993
▁Spenden~~7350
▁Oktober~~5313
▁Link~~8604
▁fame~~17845
▁bo~~5294
▁Pek~~6646
beine~~9483
▁leider~~5692
▁küssen~~1409
ogramm~~11733
Boson~~18276
▁Per~~2909
▁Rückblick~~12820
▁Haushalte~~13077
▁Pet~~8954
▁Brot~~8560
▁Spender~~6952
▁calculus~~18474
ronto~~5180
fotograf~~11778
▁berühmte~~5134
▁lass~~4563
▁fasst~~6288
pox~~17769
▁last~~9919
eingenommenheit~~15913
▁Demonstrant~~13982
rabbeln~~11514
▁häufigste~~4858
▁Alphabet~~11811
▁Ethanol~~13776
instrument~~1407
▁natürlich~~428
änderung~~12233
▁gelangweilt~~11462
▁dänische~~13601
▁Kritiker~~2097
▁visualisieren~~15858
▁Weltkrieg~~4670
▁Allende~~9534
pot~~11274
▁Zusammenhang~~1380
ellen~~12300
▁Securit~~17510
▁feeling~~18260
▁riesig~~5887
▁Creat~~18446
Observatorium~~16276
▁Mütter~~8578
▁Bekämpf~~13296
▁sammelt~~11661
wellen~~9754
▁sammeln~~5327
▁Ideologie~~15564
▁äußerst~~6694
▁Kampf~~6284
world~~18465
part~~10546
▁vervielfach~~11471
▁Kongo~~7324
▁500~~5120
▁Jahrhundert~~5010
▁greifbar~~14185
▁kne~~15185
maßen~~3170
▁global~~1777
▁Gran~~13840
COB~~17678
▁lachte~~11434
▁Schlüsse~~8690
clav~~16879
▁Schlafzimmer~~7202
kristalle~~14642
leute~~10433
▁ist~~56
▁Macht~~2607
▁Nestbauer~~16639
ggregat~~16645
▁emotionale~~1434
▁Mosaik~~17135
▁Erwägung~~14531
arium~~8600
▁symbolisiert~~14161
▁emotion~~17102
▁außerhalb~~5670
▁betrachte~~6171
▁Ohio~~15451
▁hartnäckig~~5994
▁hunderte~~2396
ddy~~9605
▁Tinte~~13934
▁Alto~~5381
▁gleiten~~13535
gereist~~3197
▁Konservative~~10196
▁Abu~~14924
ät~~5283
▁Wohl~~11900
▁Aufgabe~~1450
▁beteiligt~~8017
▁import~~12029
är~~1781
▁Abitur~~1742
▁Erst~~11111
▁Zehntel~~14631
▁600~~6625
▁Frühstück~~8229
brüder~~10255
power~~16720
issen~~2166
▁Matrix~~2590
▁Titelseite~~10632
sprung~~6270
▁ablaufen~~12144
▁forever~~17720
▁Denisova~~16875
▁Reaktion~~5487
▁hormone~~9079
▁Erdnuss~~10128
Bühne~~11186
▁app~~18186
gelistet~~1595
▁Meer~~72
strecke~~13656
▁Irr~~3394
▁rotieren~~11751
Revolution~~6501
▁Schwieger~~14419
▁bedient~~8228
▁eifrig~~6658
ack~~769
▁Sekunden~~3627
▁Mister~~17007
ach~~3293
▁physiologische~~9637
▁kahl~~8720
▁Pitt~~9600
tumor~~9039
▁boom~~8875
bone~~9348
▁wegzu~~7653
▁siebte~~6608
acy~~17518
▁erfunden~~1833
▁setzt~~3840
▁Fahrrad~~3147
▁Enc~~14833
▁nennen~~585
▁End~~7950
ifikation~~12219
▁unfassbar~~10653
▁security~~18128
▁Cape~~14744
▁Brook~~9561
▁Karl~~11222
▁Bezirk~~9577
▁Tempo~~4401
▁Karo~~2275
▁Ent~~919
empfinden~~15560
▁Tempe~~10359
▁Notwendigkeit~~6973
essen~~5076
▁Kara~~11599
▁Advanc~~14317
▁McCain~~11464
hängen~~7749
NK~~16264
▁Gebiet~~514
her~~2151
▁tourist~~12126
▁morgen~~976
würfe~~13834
▁Solo~~3249
NG~~10473
▁styl~~18369
▁complex~~17846
▁erfinde~~10515
▁Haft~~11815
NT~~16006
▁glücklicher~~1520
▁Fakt~~10813
▁Beteiligte~~5587
▁Kepler~~15389
schutzgebiet~~16204
▁brüten~~11363
▁term~~12795
witz~~10971
▁wahre~~226
mögen~~3791
▁adult~~16317
Erkrankung~~17394
▁entgegen~~4489
▁MoMA~~15895
▁Straftat~~13380
▁Savanne~~4450
▁Logo~~4572
▁fein~~11646
▁Rechtsstreit~~17658
▁unterdrückt~~10864
▁run~~15963
▁Lachen~~1460
▁Künste~~14547
assi~~9866
▁geschleudert~~16025
asse~~9118
sätzlich~~9634
▁Tabak~~15839
▁delight~~18385
▁Elementar~~14933
▁Verteilung~~8348
▁Osten~~4561
ntwicklungshilfe~~5952
angiogenetische~~18372
▁Vertrieb~~12375
▁Plutonium~~15632
age~~4655
▁Stefan~~13915
gone~~17265
ohn~~4747
ab~~1794
ad~~918
ag~~8039
af~~9157
ai~~4054
ah~~2988
ak~~6631
am~~3113
al~~363
an~~1618
▁farbige~~16526
ap~~5032
as~~4476
ar~~469
au~~4102
at~~3657
Hop~~4382
av~~4359
ax~~7861
▁anstrengen~~6390
▁unvollendet~~12491
▁Paar~~3306
▁Verhältnis~~5203
▁Sag~~8079
▁Titanic~~81
▁Favela~~2777
▁Arznei~~15665
▁Kambodscha~~8650
▁Sam~~9563
▁Sal~~7715
▁dank~~692
▁San~~2336
▁nach~~385
▁Winnipeg~~14805
▁dann~~928
Spiel~~6175
▁Jean~~10493
▁gehalten~~2931
inancial~~16896
▁hack~~9276
phenol~~9100
▁Sar~~11777
▁Lampen~~15042
▁oops~~5840
▁Biomaterial~~13888
▁Menschenaffen~~9669
geheiratet~~10046
ru~~6496
▁Vertreter~~6665
▁Ingenieure~~7898
▁Ausgang~~13442
▁Worldchanging~~17303
▁Sprache~~3429
▁Stil~~8675
▁witzig~~11249
▁model~~16487
rman~~15286
aday~~17612
▁welche~~1085
▁Westen~~4972
▁voraussagen~~14083
▁schmale~~8431
▁Philanthropie~~15812
▁Flucht~~2920
▁aufzeigt~~12208
▁Spielzeug~~4104
charging~~17172
▁Medizin~~1508
▁atomare~~12435
ubert~~11571
▁labyrinth~~17119
▁unfair~~1824
▁neuen~~241
sch~~277
▁Einzelheit~~9864
uditorium~~15818
▁zukünftig~~8213
▁Tochter~~2634
▁Schalt~~9359
▁Verhalten~~1045
eszenz~~14651
neigung~~11405
worm~~17710
▁Netzwerken~~6893
▁radi~~9844
▁neuer~~3717
▁neues~~3636
▁Tät~~13398
▁Korruption~~10599
tz~~6854
▁Mose~~14795
▁wundervoll~~10121
▁Tages~~1324
▁Herausgeber~~13852
▁Venezuela~~17082
tu~~7273
empfindlich~~1441
▁Water~~8529
▁expand~~7621
to~~5509
tail~~6366
th~~3064
ti~~2872
▁genealog~~12222
▁Tagen~~4509
te~~402
▁now~~18096
ta~~1120
▁Sperrholz~~15486
▁übt~~12689
▁Abholzung~~10574
▁beschrieb~~11988
uszubilden~~11386
▁liebste~~13887
▁Kooperation~~11798
▁hunderttausend~~2411
▁Choir~~17392
ggie~~17192
▁liquid~~16293
▁Langsamkeit~~7064
▁Paradigmen~~16901
▁Größe~~1930
▁angefertigt~~12525
erhaltungssystem~~8090
▁Wait~~15282
▁machen~~119
▁Kindes~~5394
▁Kinder~~1144
▁branch~~17691
▁Karton~~5281
alismus~~10979
▁Bescheid~~8538
▁gewöhnliche~~2173
▁Zigaretten~~15724
▁fokussier~~9016
▁eigenartig~~13137
lauf~~1964
▁anwende~~1818
▁verteilen~~5007
▁Verkörperung~~15642
▁Zeile~~6478
▁Jazeera~~11784
▁Whirlwind~~18214
▁Architectur~~14438
▁wahr~~2002
▁Teddy~~10220
▁hi~~11049
▁realisiert~~11078
▁sag~~4278
schrank~~15798
▁Elend~~7407
▁El~~960
▁lebendige~~8469
▁Report~~16141
▁sah~~2767
▁betrat~~3490
▁sat~~14698
formulier~~11297
pass~~4314
▁Gerechtigkeit~~6083
▁Gesundheit~~1065
▁kletterte~~16534
prinzipien~~13792
▁beurteilt~~13061
trick~~10365
ökonomie~~3706
▁Origin~~17474
▁Hel~~15355
haltige~~9104
▁Trink~~4324
▁denke~~109
▁Trini~~15751
▁Blackberr~~15327
erkennung~~9826
▁Leichen~~13357
▁momentan~~7885
▁Wissen~~1168
▁Uhr~~1578
▁Mississippi~~12857
▁Paradox~~13071
▁Region~~2456
▁Rosali~~11977
▁Gas~~6615
▁Gar~~4654
▁Gau~~9702
heben~~2490
▁Haar~~784
istic~~16577
▁Gay~~11028
▁effizient~~6856
▁Kasse~~17362
▁übertreibe~~12613
▁sort~~4821
▁Babbage~~13151
▁Lueckert~~14350
▁Bürgerkrieg~~11003
gebung~~3732
▁Management~~5375
▁Babylon~~11292
▁Cocktail~~11355
treffen~~2891
▁Sicherheit~~10922
▁Dummheit~~1335
▁Gal~~10076
schrei~~7014
▁da~~432
▁Säule~~799
▁vertieft~~17270
gewachsen~~9147
▁de~~1632
schuss~~5689
oma~~9083
▁di~~13319
▁Gremium~~16470
▁Stellen~~178
eil~~999
kolumbianisch~~17133
▁dr~~4425
▁Sanddüne~~13650
▁umher~~8120
▁du~~1310
▁froh~~6241
action~~18084
▁Spur~~8570
ization~~18207
itoris~~15732
▁Straßenecke~~14154
▁Finger~~685
▁Privileg~~5770
entsprechend~~7977
▁malte~~8460
vig~~5295
▁interaktive~~8606
▁Frei~~1486
▁gefördert~~14024
vin~~214
▁Janin~~17874
▁unmoralisch~~7433
▁KT~~18135
▁red~~12809
vis~~6043
▁Arabisch~~12319
▁unsterblich~~6763
▁Früchte~~6849
ating~~7093
▁Reiter~~15017
▁Single~~14208
▁Musiker~~4352
zykl~~7142
▁Anwesenheit~~8389
▁dass~~90
▁unvorhersehbar~~4892
▁Bergsteiger~~5337
▁Raum~~352
▁Berühmtheit~~15458
6~~2421
▁überzeugend~~7464
▁Rock~~2970
ierung~~1735
▁Raub~~5742
mord~~14515
▁hinterfragt~~8660
▁Aussage~~7444
▁gleich~~292
door~~12454
▁trete~~10035
▁zusätzlich~~8288
▁Rücken~~446
▁186~~8687
▁Weite~~144
▁180~~594
Brennstoffzellen~~10321
eute~~12415
▁18-~~16504
▁18.~~11313
▁bezeichnen~~7163
▁Tempel~~4997
▁Reservat~~15672
▁Orbit~~11776
▁berücksichtigt~~10896
▁baute~~5282
▁Display~~8126
▁Loren~~5200
▁medi~~12969
▁Beton~~3280
▁Mohammed~~16447
▁Leuten~~3587
▁CRISPR~~18467
science~~13453
▁Life~~4676
mals~~329
▁Dusche~~9212
▁Honig~~14634
▁scan~~2475
▁Manhattan~~8610
merkt~~8284
▁tiefer~~490
▁Europäer~~12216
effiziente~~10523
▁brauchte~~3824
▁Aufenthalt~~10738
▁Dritte~~7629
ready~~18299
▁Meditation~~15287
Nutzer~~15523
▁brutal~~2834
▁Harvard~~6623
▁Verpackung~~4886
▁Puzzle~~11107
▁klüger~~15720
▁Pizza~~10799
▁Schwarzschild~~17346
▁Indien~~5988
▁Herschel~~14330
▁Medikamente~~7349
▁Währung~~12950
ist~~6120
mehr~~3674
▁zehn~~884
information~~6887
▁produzieren~~1103
▁Accenture~~16532
zusammenhängende~~12019
▁Töpfe~~12296
▁deuten~~11365
▁breath~~17407
▁100.000~~7168
▁Billionen~~12728
▁Verwandlung~~11575
▁deutet~~11324
▁Schei~~7485
▁Tanzania~~12379
▁Predigt~~10402
werfen~~8830
▁köstlich~~10185
▁gewandt~~10050
▁Atlantik~~454
▁berücksichtige~~8498
▁angefangen~~3431
▁Schalter~~5441
▁Geheimdienst~~13508
▁erläuter~~4507
brett~~6492
▁programmierbare~~16017
▁Finanzierung~~7365
▁Dreh~~7700
▁Vinc~~18269
▁Schuhe~~3094
▁gering~~3424
▁bezeichnet~~4696
▁Begriffe~~8292
▁Monsun~~13654
▁aktuelle~~9076
▁match~~16820
▁Fehler~~3381
ngelika~~14349
▁Radiosend~~11818
▁Vielfältig~~12030
author~~13608
▁Strecke~~6937
▁Studien~~1793
▁geistig~~10609
▁regenerieren~~15313
▁Move~~16589
▁strikt~~14074
▁schnapp~~3819
▁Guten~~5202
▁Film~~2605
▁Tierreich~~15216
▁zusammenfassen~~8393
ith~~12270
iti~~2876
▁korrelier~~9928
ite~~4055
▁versage~~6078
ita~~6089
▁sport~~11149
▁Knie~~6138
itz~~9592
▁übertrieben~~15898
ity~~6994
▁MTT~~15403
▁Turkish~~18040
▁Tropen~~5908
▁learning~~17328
▁Neugier~~3757
▁Gallone~~10542
▁versagt~~7967
▁Unternehmertum~~6852
▁sehnen~~7796
quartier~~13355
▁patient~~16553
▁wohl~~2659
▁Boom~~7875
unders~~12453
▁Philosophen~~14318
▁Großrechner~~15981
▁Armbanduhr~~14382
▁Erweiterung~~5018
▁Substanz~~12477
▁Datei~~13496
▁Ameisenkolonie~~16637
▁Transistor~~14844
▁steril~~9620
▁Handfläche~~15792
▁abgeb~~17693
▁Proteine~~5471
▁par~~15062
▁adjust~~15987
leistung~~1780
▁Groß~~1191
▁Höchst~~7034
▁House~~11563
▁GB~~16844
Zentr~~16241
▁irakische~~11295
▁Hilfs~~6938
▁Kanzi~~18342
▁Bar~~4081
gestaltung~~5527
▁Bau~~5339
gestiegen~~1767
forderung~~15651
▁vereinfachte~~12236
▁populär~~4275
▁Erdgas~~16130
▁Gr~~3110
reißen~~3406
▁Superman~~15229
▁Karriere~~2193
▁Früh~~2057
▁Beschränkungen~~8335
▁Bab~~1141
gespielt~~5039
▁Bad~~6881
erfassen~~1878
▁Go~~4579
▁Bag~~14760
▁Ga~~6807
▁fehlende~~9259
Spoofer~~17906
▁Ge~~3116
▁Bam~~5341
▁Ban~~10548
▁arrogant~~11211
status~~3859
▁Hacker~~11347
▁skydiv~~17341
▁Nutzen~~5274
aker~~16963
Mails~~6416
▁face~~16969
▁ruhig~~5495
▁verurteilt~~7457
▁übernachte~~14825
Konferenz~~8019
▁Ziegel~~8430
▁Ziele~~2267
▁jüdisch~~18060
▁Pinguine~~16649
▁Nutzer~~8643
kosystem~~887
▁rekrutier~~3637
▁Ziegen~~14416
▁Side~~13546
▁Action~~12045
▁verbrennen~~2556
▁Emma~~8582
▁rehab~~16890
▁Gebiete~~3962
▁Geräte~~2410
▁gehackt~~13503
▁ehrgeizig~~2178
▁lock~~15368
Einheit~~13504
▁weitere~~1552
bye~~16333
▁tornado~~18589
▁Schnelligkeit~~7065
▁islamische~~11333
▁Riff~~14639
olds~~15619
▁fortsetz~~11372
▁Notaufnahme~~13291
▁Musikstück~~3918
rmel~~5430
gericht~~13730
zukommen~~2431
▁virtue~~12457
rechtlich~~10274
▁Flugbahn~~8607
Schritt~~15377
▁bewaffnet~~12187
zelluläre~~14769
▁aufweis~~9069
▁empfohlen~~12706
▁konventionelle~~15924
▁RAM~~17389
▁Belange~~4490
act~~10077
▁lust~~18109
w~~990
testament~~18095
castle~~17962
▁direct~~15169
▁stem~~1285
▁Nordwest~~5049
▁Vermeer~~16369
uadratmeter~~12048
▁LGBT~~18298
▁generell~~3705
▁feuern~~10717
▁insbesonder~~7818
▁derselbe~~1982
▁Zweck~~1490
▁Control~~15764
▁stet~~6217
▁step~~17409
▁Two~~17679
stage~~14197
▁hochzu~~12521
▁Fernseher~~7280
kuchen~~11027
letzlich~~12349
▁Unfälle~~12136
▁diplomatische~~16448
▁Manifestation~~7980
ID~~15777
▁gefährdet~~8709
▁mexikanische~~8521
▁Tugend~~12165
▁iron~~18523
▁Spanien~~2383
▁erkenne~~12022
▁Ruanda~~2832
▁Fernsehen~~11559
▁Exxon~~16201
▁tank~~16195
▁Lateinamerika~~6845
▁Engagement~~3077
▁Bausteine~~13055
▁interessanteste~~3432
▁unsichtbar~~8045
▁lernte~~5402
▁Partei~~10193
▁ältere~~6451
elling~~15807
▁stolperte~~12527
▁balcon~~18534
▁Spezie~~15783
zeug~~4798
▁abzu~~776
▁Rechner~~13153
ilität~~9972
▁einzige~~1642
▁Gange~~8656
▁kabellos~~16473
geschrieben~~8159
▁Demo~~3257
▁Amazon~~9540
▁Demu~~7667
▁Develop~~14087
genügend~~6932
video~~14203
rische~~7454
listen~~11681
äge~~686
▁Eli~~5581
▁Royal~~14245
▁bequem~~8136
▁verdorben~~10459
▁Spanisch~~9264
▁plan~~15947
▁Scottish~~17291
▁bilden~~2187
▁Schwarze~~13450
▁nah~~8799
▁vent~~16967
▁bildet~~840
▁nicht~~103
Rhythm~~952
▁Effizienz~~7004
▁jemande~~3727
▁Reichtum~~11806
▁Buchstabe~~12747
▁zurück~~677
▁Lebensräume~~47
▁NATO~~12337
Club~~10894
▁Song~~4186
▁wandern~~5718
▁ausgerüstet~~8946
▁stützen~~15584
▁book~~18496
▁wandert~~11454
brach~~10153
▁DNS~~5469
▁Eisbär~~12468
geschichte~~950
▁Sony~~216
▁valid~~15617
▁Hawaii~~4789
play~~17637
▁magische~~8543
▁Last~~3817
▁humor~~12612
▁Morgen~~5382
▁Täuschung~~8829
▁Impf~~5896
M~~1321
▁Athen~~14915
▁Etikett~~5112
virus~~5820
plan~~7174
▁Microsoft~~13109
▁aktuell~~8625
model~~16199
▁vietnamesische~~10581
▁peripher~~14881
▁teilnehmen~~3176
▁erscheinen~~4584
▁jetzige~~12634
▁hoch~~802
Capitol~~17608
▁monolith~~17130
▁Slow~~7166
▁verwandeln~~1129
▁Kulisse~~4281
▁photos~~17931
▁Kennedy~~13352
▁additive~~16816
geräte~~8849
▁Sea~~5723
▁verwandelt~~666
▁Göttliche~~16661
enmark~~17955
seligkeit~~7972
zusag~~5635
▁Schwierige~~12712
▁technologische~~4180
▁Betriebskosten~~16177
gabe~~2207
▁Stigma~~9419
IUC~~5538
▁Erfahrung~~2594
▁empirische~~14140
ifiziert~~12509
▁resistent~~7557
▁Home~~11885
▁DL~~18230
uga~~6498
▁Robin~~12798
▁Homo~~2105
▁bomb~~14462
▁Schaden~~7100
▁Sechsjährige~~14943
▁falls~~1138
▁Pope~~17312
▁cooler~~8142
spitze~~11362
alität~~3395
▁Pack~~5675
▁tätig~~7040
▁machbar~~6075
▁100,000~~16945
▁pflanzliche~~12639
▁ernst~~1177
▁Medikament~~6722
▁verbrachte~~2808
▁Fowler~~17801
▁rasch~~1838
▁Avatar~~14655
▁Mysteri~~6696
▁Gustav~~17431
▁vorlesen~~13924
▁Neandertaler~~12256
▁atmosphärische~~2285
▁erschwinglich~~7729
▁wertvoll~~3029
▁Robotern~~11432
dependent~~16642
▁fließen~~9260
ffentlich~~5637
▁präfrontale~~1426
▁dung~~16000
▁Wochen~~1074
▁Aufschwung~~15358
▁into~~18015
▁verknüpft~~1749
▁Grundstück~~9468
▁abgelehnt~~9122
table~~14354
▁met~~14971
▁komische~~7844
▁forms~~18379
▁Nadel~~13841
▁game~~17475
▁fehlte~~14111
▁Faust~~9315
ought~~17040
▁verschmelzen~~7904
▁aussagekräftig~~17131
▁ungemein~~9429
▁verdrahtet~~15877
▁monogam~~14693
▁darstellt~~5138
▁fortgesetzt~~9936
▁Irak~~6466
▁Altern~~7412
▁Iran~~4499
▁Cello~~3907
▁Zäune~~17507
gemischt~~12777
▁men~~16427
schliessen~~5186
set~~499
▁Muslim~~10941
For~~8155
▁optimal~~10870
tree~~9625
▁viktorianische~~13850
▁ärmer~~11948
▁erheb~~6294
▁brilliant~~10859
schraube~~12836
nützt~~14720
▁account~~17275
see~~31
lec~~10613
migration~~12262
sea~~17116
▁wohin~~980
led~~9580
▁Bazill~~16880
ügel~~8777
▁Rive~~14974
mangel~~1801
▁Brown~~11898
brächte~~11428
#~~2331
▁Fische~~297
taucht~~5407
▁Geschlecht~~7961
ritt~~12179
▁Eröffnung~~4600
▁ernüchternd~~17057
▁Gravitation~~14599
▁schwingen~~14885
▁atom~~17211
▁Sudan~~11963
▁System~~1127
▁Such~~8133
chester~~15124
kabine~~16306
▁Ding~~1396
ahoo~~11746
▁Pixel~~8222
europa~~11675
▁erledige~~5573
▁Brücken~~12789
schaft~~3185
übertroffen~~16701
▁immune~~17803
▁Mozart~~3882
▁erledigt~~10674
Veranstaltung~~8011
▁genannt~~5342
Ausstoß~~10545
▁motiviert~~4114
▁Zuschauer~~2864
▁demografische~~13963
tion~~3695
▁Kopenhagen~~11945
▁fliegen~~441
last~~4897
▁Butler~~14808
▁entnehmen~~13226
▁Galaxienhaufen~~17681
Strategie~~14063
▁Chirurgen~~6688
lash~~10010
▁Sterblichkeit~~15634
berschneidung~~14530
▁Ansprüche~~5674
load~~11882
partheid~~8161
▁verschickt~~13201
elbsthilfegruppe~~6620
Effekt~~7746
▁beeinträchtigt~~9146
▁sch~~146
ometer~~6371
▁Tiefen~~388
▁Nachricht~~1481
▁Nutzpflanzen~~10118
dimensional~~7697
bject~~17696
provok~~7377
▁beeinträchtige~~5661
▁Erste~~601
▁astronomische~~15211
▁Szene~~5159
▁dran~~847
▁lösen~~741
HC~~14830
▁Massen~~3740
mino~~18431
▁Felder~~6925
▁brenn~~14088
▁äußere~~12970
▁Alternative~~5149
▁Und~~3425
▁Köder~~8041
▁doch~~188
▁Uni~~3660
▁draw~~18491
▁Betrag~~7027
▁Karotte~~12640
▁Lucifer~~17768
▁Regime~~11275
gänglich~~4637
▁direkte~~6919
▁Mix~~10084
▁drehte~~11236
▁Dank~~996
▁Mit~~2258
▁Nach~~6393
▁Nächte~~11217
▁Sinclair~~10412
▁Mio~~14568
fund~~10900
▁Mil~~3055
▁Mik~~13477
▁Hack~~14560
▁Menge~~1791
▁Mig~~9745
▁Mid~~4785
▁finger~~18285
▁erhältlich~~10172
▁Künstlerin~~11624
gewinnorientiert~~15514
▁Bauern~~6814
projekt~~5179
ingdom~~14248
▁je~~83
budget~~13991
▁ja~~938
▁erobert~~8845
▁manipulier~~9786
▁Rache~~13265
geholt~~3567
▁Warum~~6618
Cola~~12359
▁Verzögerung~~14293
▁Zeitschriften~~10633
▁Pflicht~~9123
▁Koffer~~14740
▁Wagen~~6160
von~~10904
▁Sponsor~~16906
übergreifend~~5739
Amerikaner~~14528
▁erholt~~5389
▁fuhr~~5100
▁Wol~~9624
▁Teilnehmer~~3067
different~~18387
▁Len~~2991
▁Leo~~13057
objekt~~6220
▁Linkshänder~~15952
▁Lei~~5278
▁Leg~~5534
▁Lee~~6350
▁Obdachlose~~9417
▁bräuchte~~7535
▁abschließen~~8183
▁computer~~13243
▁Lex~~13139
höfe~~7702
▁Mengen~~868
▁Parkinson~~3988
▁Les~~10942
▁kubanische~~16608
▁Selbstmord~~12122
städte~~7907
Tüte~~16779
▁beschwerte~~11356
▁Zusammenbruch~~11477
entgegengesetzte~~14574
▁breakfast~~18497
▁Vorbeugung~~14061
▁Noten~~4288
▁entdecken~~600
▁pluripotent~~16422
▁Sunday~~17896
▁Erkältung~~14221
focal~~18363
▁AIDS~~11473
▁stundenlang~~1991
kno~~10069
▁Gleich~~9008
▁gyr~~17986
▁Mind~~13966
▁Hoffnung~~2746
▁inside~~15057
▁Neuseeland~~8969
maker~~15357
▁circa~~11228
person~~1650
▁hilflos~~7923
▁Spitzen~~8252
▁Röntgenbild~~16925
▁Käfig~~12043
▁König~~8473
▁künstlerische~~2751
▁schwerste~~3809
läufer~~11090
▁herzlich~~3253
▁uns~~36
▁letztlich~~13280
▁Attenborough~~4437
▁übernommen~~12911
▁synchron~~13593
▁explodiert~~3492
Labor~~14470
▁StoryCorps~~18485
▁Ekel~~14414
▁Müllhalde~~4658
▁AMD~~17363
tennis~~18361
▁Latein~~12226
▁und~~45
▁Lösung~~1648
▁Craig~~9781
</s>~~3
geschickt~~13613
down~~14328
▁einbeziehen~~3792
blöcke~~16231
signal~~15625
gedrückt~~6569
▁flüssig~~16970
▁Wachstums~~13000
▁Geschichts~~12241
▁Ablehnung~~14249
Talk~~16595
▁berühmteste~~6963
▁Vati~~16491
▁Ausbreitung~~14115
▁Geschichte~~107
▁strahlende~~13625
▁entweich~~17884
format~~11306
▁sichtbar~~1978
▁pflegen~~6487
▁diplomat~~16458
Gordon~~11897
▁Aufmerksamkeit~~4661
▁bringt~~3744
▁Mott~~1514
▁Urteil~~10923
▁betrügen~~3387
▁Emission~~2348
XY~~8474
▁Süchtige~~16845
▁DUM~~18151
▁Sixtinische~~18455
niedergeschlagen~~11728
▁vierte~~2553
ommittee~~6033
▁split~~18424
OL~~9387
d~~209
FA~~10145
Kaugummi~~11158
▁politisch~~11043
▁Machine~~12724
Show~~15852
▁unberührt~~12127
Selbstwertgefühl~~15906
▁Media~~3869
▁explosive~~5863
▁Ranger~~6444
scape~~2986
▁brings~~8561
technologie~~694
mässig~~6050
schluckt~~17181
▁Shah~~15568
prall~~3273
ektromagnetische~~15759
Drucker~~15268
▁Sehen~~1449
icious~~17795
▁Know~~12600
▁leg~~11374
▁function~~16011
▁Investment~~16148
▁Glori~~10012
▁alphabet~~11774
▁Persönlichkeit~~3983
▁Fire~~4142
methode~~6703
Mentalität~~1602
uell~~12424
tisch~~4390
▁langweil~~11393
▁let~~4134
entwickelt~~8591
▁Truth~~15110
▁Lebensjahr~~7466
▁ignoriert~~13325
▁Training~~6377
▁audio~~15853
flächen~~4962
▁ärztliche~~15411
▁something~~15338
▁Glücks~~10881
▁berüchtigt~~13486
▁hochgeladen~~8488
▁gekocht~~4920
be~~989
▁Ed~~4623
ba~~3354
bb~~11922
▁stabilisieren~~8957
▁Cousin~~9594
büro~~2194
hormon~~14672
bi~~3808
▁Ei~~5107
bt~~4801
bu~~5409
▁Eu~~7676
▁Es~~6090
▁Er~~1257
▁gefahren~~7261
▁Ep~~14643
▁Individu~~7574
▁Vinci~~8417
▁irrelevant~~12299
by~~11268
▁Viagra~~12601
▁Ex~~6995
▁EG~~12744
marin~~18249
ruhe~~7664
▁Cholera~~10822
▁permanent~~5715
▁vielschichtig~~15152
▁schreibe~~4270
▁Vorrichtung~~8072
▁viereinhalb~~9332
▁entfernt~~793
▁repräsentiere~~3700
▁Hyo~~18301
▁EU~~2379
uffalo~~17597
▁Entwald~~15099
▁Rollstuhl~~13958
osion~~3352
▁ließen~~10049
▁editor~~18507
▁Streben~~12484
▁repräsentiert~~10995
▁Toaster~~14196
Hertz~~16409
letter~~16852
▁kühlt~~15330
▁Gayla~~18451
▁Rinder~~15111
▁Happiness~~12392
▁belästigt~~14699
inhaber~~16218
cho~~10474
▁Space~~9591
▁Helium~~14842
▁entwickeln~~1433
▁information~~18034
▁Kämpfe~~2847
würfel~~12766
▁Proton~~14606
▁Süßwasser~~17142
▁gründen~~6812
▁Zeta~~14215
▁refer~~16243
▁gründet~~13262
▁OECD~~1088
▁Cochrane~~18165
▁INCRA~~18564
▁entwickelt~~217
▁verbal~~13865
▁OPEC~~16131
ator~~6614
▁Mathematiker~~14942
Außenministerium~~16450
simulator~~9767
schläg~~763
▁Eintrag~~13857
probleme~~6255
▁zukunftsfähig~~7679
▁weiter~~1226
jacke~~8907
link~~6304
▁Miniatur~~11480
▁Kiki~~16974
atom~~9942
ling~~8664
▁outsourc~~14792
line~~2276
▁Töne~~3238
▁Kopernik~~16981
▁kollaborative~~16818
▁England~~2977
▁Meere~~4896
▁Tageslicht~~8934
▁konservative~~10192
▁angrenzende~~5473
▁seltene~~6693
ut~~2958
▁perfektioniert~~9794
up~~7317
▁Ratten~~1365
ur~~1846
um~~906
ul~~540
uo~~3873
un~~5124
▁benachbarte~~5459
uh~~6145
uk~~9045
ue~~767
ud~~3236
▁Vortrag~~1022
▁Burm~~11927
ub~~4810
▁Ann~~12629
▁Tradition~~9997
wuchs~~785
▁Biologe~~737
▁And~~9088
chan~~1279
▁Runde~~14373
▁jene~~5216
▁Ana~~13634
▁Micro~~11469
▁Gesten~~4076
▁understand~~18528
▁Kurs~~7039
zubilden~~9899
▁Impuls~~10715
bewusstsein~~7606
▁Landschaft~~805
▁94~~14413
▁Ghetto~~8646
▁Namen~~2735
ulation~~5784
tari~~10147
▁gesünder~~7170
gestanden~~8990
▁jelly~~18606
▁ehemalige~~8416
▁beobachte~~10974
▁Grippe~~5974
mächtig~~1631
▁klang~~4236
tufe~~9447
▁Stift~~3625
Hu~~13232
feuert~~6670
ethnisch~~14536
▁reichlich~~10074
verschiebung~~14127
▁fantastische~~3909
▁verinnerlich~~10304
▁Auge~~3821
▁Verschm~~4778
▁Wohn~~12818
▁Center~~6378
▁meist~~3949
▁Schmerzen~~3460
elemente~~5463
▁flatter~~11736
▁mach~~3208
▁müsste~~1940
▁kritisch~~8319
▁Architekten~~7814
▁entspannen~~7120
ago~~2170
▁genug~~749
land~~2620
▁unrealistisch~~14145
algorithm~~13495
zeichnet~~13867
rechnung~~7025
produkt~~4681
Minerali~~14015
▁fragte~~1251
terior~~9015
holen~~7487
▁Wettbewerb~~3174
graben~~4310
▁Psychologi~~15595
▁blonde~~16539
▁Kruste~~16234
▁epilep~~17614
▁identifiziert~~12114
▁Wochenende~~11255
▁Alpha~~12889
▁Infrarot~~818
▁Blutgefässe~~18189
▁nothing~~16965
▁Bauteile~~10051
▁weiterhi~~2900
▁revolutionäre~~7279
letzt~~9242
▁gewissen~~4331
▁Papua~~16874
▁beherberg~~657
▁Schale~~684
▁Erb~~6907
▁ausprobiert~~833
▁Schall~~467
▁Pants~~17009
▁flach~~7652
▁feed~~17555
▁Kreatur~~405
▁Sohn~~6166
lebensbedrohlich~~8891
▁Rabin~~17233
▁beschissen~~11423
hunger~~12643
▁blank~~17195
▁idealis~~14820
▁Tagebuch~~14816
▁feet~~16943
▁hübsche~~10401
▁twitter~~9247
▁Nintendo~~12780
▁Give~~14518
intergalaktische~~16600
▁Sumpf~~13554
▁effektive~~5590
▁schlagen~~5444
probe~~12411
▁größten~~598
▁hüpfen~~11388
▁veröffentlichen~~7784
▁sens~~18382
▁kling~~1581
▁aufgebraucht~~15296
▁Loch~~5174
▁Korrektur~~12230
▁Lock~~7321
spül~~5481
▁Glauben~~6357
▁Bart~~10289
▁ersetzt~~10066
▁Routine~~6272
▁Proportion~~11240
▁Vorstadt~~14076
▁Climate~~15120
Impfstoff~~5924
tritt~~4086
▁mathematische~~8291
tra~~1817
▁Schreib~~7757
▁Trauma~~15616
tunnel~~16041
▁ehrlich~~3144
▁Hilfe~~23
reich~~2718
▁Mensch~~1531
liegende~~5848
▁Gallup~~11460
uel~~8205
hydr~~3285
▁Hoch~~5704
▁Risiko~~4294
hinweis~~6300
▁Hock~~9323
▁1,4~~14561
▁Erholung~~7243
cott~~17240
▁Transport~~12575
▁Anonymität~~14801
▁boreal~~17880
▁offenbar~~3550
▁Whit~~8505
ode~~316
uer~~2700
ämmer~~12470
▁Seh~~6473
▁Sek~~8648
▁Alters~~2629
▁Sel~~11542
▁Arbeit~~1288
firma~~5315
▁Project~~11165
schöpfung~~8746
▁See~~2955
▁Seg~~8210
gewinnung~~13794
▁Sex~~6196
▁Zähne~~7991
▁Acumen~~15176
verbrauch~~13123
erblichkeitsrate~~9961
▁ausgedehnt~~10729
▁Jobs~~1830
▁obdachlos~~16740
▁herein~~6308
gefahren~~3192
Wunsch~~5778
leg~~1633
▁Rutan~~16159
krise~~4668
len~~4596
ler~~1236
les~~7320
let~~7647
▁entkommen~~7496
▁aufzu~~2372
ley~~3046
ermittlung~~15574
ausgabe~~2028
▁you~~15674
ctu~~16977
▁Wille~~7061
▁verabschiedet~~9116
▁Schwimm~~15003
▁Briefe~~7251
▁gültig~~1509
technolog~~5257
▁füllt~~6564
▁Willi~~10249
ologist~~16537
▁Libanon~~4569
fügen~~12768
▁entmutig~~14694
▁wild~~2653
▁Gewebe~~7603
▁use~~10242
▁British~~12310
▁dezimier~~16261
habi~~14067
▁Atlas~~8583
ū~~18472
apping~~17439
▁Stiftung~~9924
▁usw~~2106
disziplin~~4215
▁Lakota~~17949
▁Körper~~2523
alencia~~9426
▁Garten~~5127
▁zehntausende~~481
▁Strategie~~6941
▁cloud~~16520
▁Sandkörner~~14628
▁spüre~~15483
▁damals~~2001
▁parabol~~13952
▁Delfine~~17349
▁Graphik~~4206
erzeugung~~4936
▁Räder~~9806
argassum~~5657
zig~~6420
▁Umfrage~~1600
▁Superheld~~9562
▁Donnell~~16584
▁Erregung~~14555
▁gefoltert~~10883
loch~~12074
▁PDA~~17306
▁National~~1391
▁zählt~~6142
▁marine~~13567
SHA~~17050
zimmer~~6239
▁Augen~~234
▁idiot~~18459
▁ausgesprochen~~10268
▁Bereiche~~1148
▁Pac~~16456
fache~~8174
▁Umbruch~~10804
▁ausmacht~~1719
ette~~9785
▁monumental~~10367
▁Familie~~1131
▁lieben~~3182
▁ungeduldig~~13686
▁Einzelteile~~7812
evolution~~15098
▁sex~~16790
▁Geschäfts~~10835
▁fur~~7924
▁Fracht~~10618
▁glow~~18364
▁ausschließlich~~11887
▁gemeinsam~~5128
▁Rome~~16973
▁fun~~4279
of~~8032
▁vorhersagt~~15391
ädchen~~11201
▁Geschäfte~~6861
spruch~~12587
▁sei~~882
▁Verfügung~~6602
▁Privatleben~~3712
▁kosmetisch~~14156
lock~~2670
▁Eltern~~1983
▁see~~8304
▁gewaltige~~4953
ob~~6505
▁Ofen~~12686
haftigkeit~~14802
stoffe~~2352
etts~~9602
Splashy~~17008
▁Brust~~6315
▁set~~6148
▁Fulbright~~6653
motivat~~17997
▁interne~~9191
▁Helikopter~~12469
▁Tourismus~~10672
▁Wohnung~~10374
▁Sloan~~16498
ishman~~15968
▁voraussetz~~6096
▁Schulen~~1026
▁Schnee~~8657
beobachtung~~13870
▁Gummi~~9395
▁Kenne~~14772
▁passive~~11744
▁Scheidung~~6575
▁flüchtige~~7884
senheit~~11117
▁Gi~~10528
š~~17705
▁Sicht~~912
▁Vorsorge~~5560
fuhr~~10721
▁Jahrhunderts~~2662
amerika~~457
kriminelle~~12963
Färbung~~9337
behandlung~~4007
▁Rüstung~~8867
▁Mor~~8747
▁Schnecke~~17134
▁Eine~~11011
Q~~533
▁Auseinandersetz~~11445
▁ungesunde~~16755
▁Jahrhunderte~~8418
gehört~~3577
ov~~9327
tier~~2816
▁Eins~~6109
halten~~3074
▁Mob~~11722
▁pick~~16765
isse~~2000
pyramide~~12649
▁Skinner~~11383
▁verletzt~~5980
▁Münder~~2930
▁series~~18476
▁damalige~~15193
▁anpassen~~4105
▁verschlossen~~11375
Community~~8535
▁Miller~~9330
berfluss~~13092
▁he~~608
▁unerwartete~~12567
▁ha~~307
▁Volkswirtschaft~~11476
▁kälte~~16731
▁typische~~3786
▁Etage~~9208
▁jungen~~1808
▁Beweise~~3543
▁erfolgreicher~~2250
▁Map~~15220
▁Frau~~1208
▁gesunde~~5528
▁Bitte~~6795
▁Moslem~~11335
▁systematisch~~3737
▁Zitat~~9313
▁verteidige~~3205
▁Mary~~12315
▁Mexiko~~11099
▁nieder~~4518
▁Root~~9623
▁anti~~3353
▁Nenn~~11689
▁Müll~~4664
▁Anzahl~~5122
▁Grasland~~12266
▁chemisch~~15989
▁intellektuelle~~8325
ländische~~5698
ngesicht~~12096
pirale~~13180
▁rote~~787
▁Handys~~1656
▁DM~~18108
▁Kalte~~13363
▁Niederlande~~10152
▁konnte~~2721
uellen~~564
▁Linda~~16493
▁besorg~~11390
▁ausführlich~~13323
morgen~~6268
▁Christmas~~17554
▁wachte~~4527
▁erlaufbare~~17069
▁Vögel~~4438
staat~~9956
▁Führung~~1616
▁einschließlich~~6574
lzt~~12286
▁Biologie~~7548
doch~~2149
▁Banken~~11660
▁Bekannte~~16618
▁Initiative~~5665
ivilgesellschaft~~14214
▁Enkelkinder~~7677
▁occupy~~18356
▁Abgrund~~13819
schärfe~~9439
▁Einwohner~~1082
▁Florida~~9761
▁leblos~~7445
▁springen~~3981
▁1800~~12069
Saa~~4317
eben~~5664
▁Dolby~~5214
▁Hyun~~18329
▁zentrale~~5771
▁Sonnenlicht~~13783
▁melde~~9523
▁30.000~~13815
▁irgendetw~~4475
▁Autounfälle~~17072
▁verzeichne~~487
▁Minuten~~2283
▁sensib~~9131
▁unerträglich~~10980
▁ihr~~836
▁Abfälle~~14144
mbstone~~17881
▁Bauunternehme~~10440
▁bemerken~~4208
▁Südpol~~12455
▁Conference~~18275
ähen~~11203
▁Befreiung~~14513
▁Prä~~8280
▁beseitigt~~10080
▁ihm~~193
▁ihn~~369
▁Biochemi~~15104
▁Plus~~17677
▁jegliche~~9687
▁Gefängnis~~8659
▁Almo~~15166
matrix~~11826
▁Schule~~1243
▁Schuld~~7935
Material~~14638
▁künftige~~15292
▁überlegt~~3586
▁Schädel~~8129
▁Theatr~~12328
▁Explosion~~2384
▁micro~~17689
▁statt~~721
▁Jud~~3206
▁Schulz~~11050
schöpfen~~13115
▁Kreide~~17076
▁überlege~~6233
▁Schuljahr~~1864
▁kri~~849
▁aufwuchs~~8548
▁Falcon~~16274
▁Mord~~13390
▁Resultate~~5963
▁Palästina~~4566
▁hoffte~~8169
▁Board~~13466
tempo~~10592
▁recycelt~~10562
▁Johann~~14591
stände~~2395
▁kenne~~3750
▁Parlament~~7031
▁Sanitär~~12401
▁religiöse~~3573
▁wiederverwertet~~15341
ociety~~14343
rofluid~~11483
ärchen~~14629
▁buck~~18136
▁Clip~~11632
▁Cat~~15479
▁thermische~~14912
▁Cap~~2794
▁niedlich~~15966
▁Car~~7083
▁verstörend~~16079
▁bezahlbar~~14039
▁spring~~16042
put~~13970
▁autobiograph~~17817
▁Graffiti~~15061
▁Menschsein~~3059
Jump~~13458
▁Caf~~8608
achtung~~10661
▁Cal~~8532
▁Can~~11530
▁Treibstoff~~13912
▁Mittagspause~~16762
säule~~13167
▁Einzel~~6067
▁Chef~~10104
▁Joseph~~7357
küste~~5682
▁Zug~~5085
▁Amsterdam~~17100
▁Monument~~4791
▁Chen~~10596
▁Experten~~6738
▁Zaun~~12990
▁Geometrie~~5302
▁Mainstream~~7556
▁Geschöpf~~311
▁Annahme~~2041
▁Begleit~~10382
▁Radar~~14624
▁Dringlichkeit~~14285
▁Wolke~~536
stellbare~~6842
▁intensive~~5501
uscht~~4011
▁Unglaublich~~12192
▁Milchstraße~~7823
▁Klick~~8340
▁Zeichnung~~8470
system~~924
▁anbieten~~2720
▁Doktor~~1506
▁Selbstvertrauen~~3070
klopfen~~15974
▁idylli~~8510
vertrag~~11021
▁Tasse~~10381
▁Kommentar~~2743
herrschaft~~14575
▁Ethan~~15084
▁Jungtier~~9144
▁Schrank~~13983
▁riskier~~8078
▁Sechs~~3601
▁Ko~~2719
▁Ki~~651
▁Point~~7208
▁Bel~~11277
▁essentiell~~10223
▁Ben~~3044
▁Belast~~13521
▁Ka~~4849
▁Bei~~1399
▁erforscht~~360
gängig~~8397
▁cocktail~~16495
pflaster~~3405
▁Patriot~~17716
▁Ber~~5414
▁angesehen~~10481
▁Ku~~8005
brachte~~9064
berquer~~7422
▁Vergrößerung~~8485
iaoping~~15922
▁erforsche~~14646
▁Kr~~4049
▁KI~~15833
▁Einkauf~~6502
▁erzeugen~~3926
▁Naturschutz~~993
▁Wodka~~17207
▁Badezimmer~~7740
▁Kni~~12531
schleuder~~11504
▁nahtlos~~15883
▁Apple~~11252
▁Orchester~~3901
▁Außen~~4027
▁beruhigen~~12000
▁bank~~10414
psycholog~~13038
▁Barriere~~9465
▁grand~~4403
▁Anklage~~7936
gendorfer~~11261
code~~11757
▁voller~~2852
▁Tatsache~~1116
icht~~247
▁Improv~~13596
▁einheitliche~~14604
▁Main~~14532
▁App~~6112
▁tägliche~~4908
element~~14485
▁Regler~~15950
händler~~4871
nsporn~~9167
eryl~~16547
▁Prize~~15059
▁bedeutete~~6768
▁Periodensystem~~13891
▁Business~~11401
atik~~13255
ualität~~1938
mechanism~~7448
▁vorderste~~10294
▁Schleife~~5478
klasse~~2148
gesellschaftlich~~2104
▁abbaubar~~4691
▁Basketball~~4393
▁verschiedener~~10734
▁Okay~~4562
▁Shakespeare~~3060
▁Vorschlag~~7062
▁Weltrekord~~10036
▁Ozean~~162
▁Morning~~11697
▁Tarahumara~~17251
▁Vakuum~~16035
▁DARw~~15982
▁Gesellschaft~~1018
▁sinnlos~~10491
▁empfäng~~16190
▁Guinness~~8424
▁tippe~~4583
▁beinhalte~~8782
▁visuell~~11493
gelände~~14073
cke~~4396
▁reine~~10740
fach~~5903
▁ho~~5636
▁Marokko~~15566
beziehen~~14432
▁Basis~~6249
▁produktiv~~5188
▁hilf~~5148
▁Privatsphäre~~12581
▁Philipp~~7716
berschall~~16175
ichler~~14592
▁anfäng~~6598
▁Sklaven~~11916
▁Zellulose~~6582
klatsch~~6136
▁respektvoll~~12077
▁Cesar~~16425
▁AI~~17607
▁Brigade~~6346
▁Vereinte~~5612
▁All~~5426
stehen~~1204
▁entlegene~~8403
▁Mikrowellen~~8619
▁Alb~~13623
▁Hudson~~7851
▁nachzudenken~~245
kontrolle~~4150
bring~~14190
Kaiser~~13310
▁WorldWide~~18294
▁Biosphäre~~14627
▁Alp~~479
▁Charles~~4644
▁Kachel~~16715
▁anwendbar~~3283
proben~~10182
▁rede~~6150
▁aufgeteilt~~1950
pause~~1254
▁Einkommen~~13964
erschütterung~~16705
Controller~~16018
ensoren~~13449
▁neigt~~7517
wiegen~~2373
▁Sprachen~~2665
▁prä~~2837
▁schlief~~11138
▁Hyäne~~15734
gestoßen~~614
tude~~3668
▁Format~~8265
Plattform~~15588
▁ethisch~~9742
▁Igbo~~15779
▁Völker~~4558
▁züchte~~8716
▁taxonom~~17739
▁zwei~~399
autor~~10487
▁überschritt~~14002
▁kann~~374
▁hominid~~13813
▁längst~~5595
▁Klavier~~4053
izzy~~18159
▁Jäger~~11764
▁Publikum~~2470
kreis~~9653
▁Idiot~~1307
▁Wang~~14242
▁ooh~~13861
▁kaputt~~1105
▁betont~~8025
▁Haustiere~~9671
h~~1659
▁Cra~~14206
▁Curitiba~~18087
▁Kontrast~~9914
▁nichts~~86
reiz~~3789
▁sitze~~8144
▁solid~~13684
▁Mikroskop~~10457
▁Freiheit~~1668
klappen~~865
verschwendung~~14132
ota~~16269
▁beauftragt~~8425
ition~~11384
trauen~~10994
▁Kräfte~~3552
▁direkt~~1810
▁How~~16714
frame~~17480
▁Plünder~~17376
▁Panik~~5813
▁bedarf~~9993
▁200.000~~5659
Source~~11861
▁erweckt~~11903
artikel~~7123
packen~~12563
geführt~~4388
erziehung~~2047
▁nuance~~16897
▁Universums~~8584
wirf~~9709
▁Spielen~~1001
▁retten~~5608
▁verteidigt~~13694
zeichner~~12770
▁Singapur~~1854
▁Aborigin~~16407
▁Batman~~10801
schleichen~~14153
trommel~~15760
▁bedrohlich~~12128
▁Kreuz~~6034
menge~~9860
▁abgelegene~~4739
▁Kiesel~~13812
▁Serie~~3910
zeichnen~~8774
▁funny~~17686
berzeugung~~2042
▁rig~~5498
▁Spieler~~1389
PL~~15024
▁Kalorien~~4968
▁verlasse~~15460
▁Version~~9410
egenteil~~1470
▁Ebola~~17107
▁Widerstand~~10934
▁einsetzen~~3346
▁literar~~14327
▁Fibonacci~~16985
ende~~3089
toilette~~14393
▁erzielt~~2076
▁Exemplar~~10695
▁000~~2898
▁se~~1336
ets~~10443
▁hungrig~~4954
▁sa~~5946
ett~~5201
etz~~6344
▁so~~266
▁Barry~~9974
▁Operation~~5387
▁Luftfahrt~~7478
▁Simulation~~12431
▁Unterhaltung~~4607
▁Marshmallow~~17361
▁st~~3386
▁when~~17889
gleichen~~8655
erkrankung~~9143
▁sp~~9537
ete~~2841
▁Elektroden~~2532
▁veranschaulich~~2480
▁geschaffen~~2191
ck~~904
ci~~8433
ch~~1847
co~~3953
lang~~5907
▁Dia~~12399
▁reichste~~11960
Code~~15743
▁physische~~2333
ca~~7015
Hex~~7160
ce~~3057
▁Lautstärke~~4426
cy~~10522
▁20.000~~8870
kommunikation~~13492
▁einzu~~2596
▁bist~~1299
labor~~2505
uck~~5069
uch~~4050
▁atemberaubend~~8082
▁Migräne~~12025
▁Nektar~~11508
gespräch~~1658
▁Jenn~~8240
▁verwirrend~~8953
handlung~~6117
▁professor~~16465
▁Partitur~~4187
▁African~~17391
▁1.4~~9512
▁zählen~~2014
▁emitt~~11691
▁Schuh~~12870
▁Doodle~~18023
▁vordringen~~10216
▁Aufführung~~3931
▁beachtlich~~12072
gue~~16856
▁holländische~~13537
▁entfliehen~~9585
▁verbringe~~1671
▁West~~3251
ists~~18340
▁widme~~9368
▁Besonderheit~~10906
▁Sonntag~~5075
▁Programmier~~8297
▁Progerie~~17503
▁Bedürfnisse~~6504
Stadt~~5078
▁Weisheit~~6235
Entwicklung~~9635
▁Wege~~2554
▁Reuters~~16899
rahmen~~5146
▁Show~~9980
licher~~11145
▁vorrangig~~5571
banish~~18343
▁vergeben~~11175
▁Kath~~9022
▁vierten~~8897
▁festgelegt~~8249
entropy~~18313
▁1.2~~8868
▁Game~~3774
Chromosom~~12084
▁wußte~~3652
oung~~11163
▁sorgt~~1879
▁blogg~~7681
▁Verletzung~~7934
▁repetiti~~18344
aya~~12540
▁operat~~16894
▁würdig~~6792
▁Amazonas~~11840
eur~~6401
▁Busse~~13276
▁predict~~18519
▁Asian~~17714
va~~6784
▁aufwachsen~~11127
▁Peru~~10141
▁aufrecht~~5119
ve~~6292
▁gesund~~5818
▁getroffen~~6720
▁Steigung~~2438
vi~~5853
▁fallen~~6246
▁Andrew~~7804
▁proportional~~1932
▁entsorg~~4921
▁Tiger~~8104
vo~~2835
sity~~17285
sitz~~11617
▁eigene~~398
▁Narkose~~14678
vu~~13882
▁0,0~~14570
sorgniserregend~~9943
▁mono~~12977
▁führt~~35
▁Andrea~~1698
▁Unternehmung~~16846
▁Israeli~~4556
▁gesucht~~7128
▁inspirieren~~3069
uerung~~10059
▁Gegend~~588
stöckige~~8083
▁Hyper~~3894
greifen~~1042
▁post~~4508
▁verflixt~~16162
▁Blogger~~11872
▁studiert~~3667
▁gewagt~~16824
▁Immunsystem~~7572
terrorism~~17112
▁laparoskopisch~~15331
kabel~~5307
ball~~5647
pho~~8748
▁juri~~13191
▁organisiert~~1576
iker~~2807
▁Oktopus~~373
bald~~678
▁Circle~~16579
phy~~7265
▁holen~~516
Stück~~4854
▁herum~~276
schleppt~~10744
▁Einsätze~~5901
▁absolut~~5512
▁offensichtlich~~1300
▁entspannt~~13098
angetrieben~~4234
off~~3119
▁Marine~~4649
▁Orangensaft~~16189
▁Buckelwal~~17006
▁Bearbeitung~~15328
▁Treibhausgase~~10162
cheln~~7247
sperre~~14402
▁sandwich~~17911
▁Clinton~~11411
Colombo~~17283
▁warm~~9335
▁übrigen~~857
▁Demokratie~~2782
▁visuelle~~10743
▁Enkel~~9148
▁Schwerpunkt~~12116
▁industrialisier~~6984
▁Karten~~466
▁abend~~7132
vorteil~~1352
▁befördert~~13657
▁Dinge~~1364
hnlichkeit~~7828
▁endgültig~~5801
▁Jersey~~9570
▁Cro~~13303
▁autoritäre~~16254
▁erzählte~~2947
osmos~~14603
▁Arche~~12287
▁84~~4866
▁schmeiß~~15470
Einfallsreichtum~~12943
▁Besitz~~9382
▁befördern~~11490
▁grösser~~1367
weg~~6159
▁Smol~~17746
▁tagtäglich~~7449
wei~~5968
▁Stand~~5969
▁Gewerbe~~9469
ige~~5255
▁Gowanus~~17594
day~~9494
▁durfte~~3535
script~~18457
▁25~~2707
▁Buddhism~~15310
▁natürlicher~~10055
▁Oxford~~6624
▁piep~~8108
▁22~~6418
▁meta~~7264
▁23~~6605
▁hochgradig~~17446
bindung~~14092
▁Größte~~12804
haut~~8068
▁erweitern~~5789
haus~~2811
▁Gemeinsamkeit~~9220
▁Redner~~13769
▁Stille~~8517
▁ersetzen~~7597
▁erweitert~~10472
▁Schlachtfeld~~7628
▁Hinrichtung~~17297
▁Windows~~10547
▁lege~~14952
▁Valenti~~9413
▁Armee~~4632
▁Eames~~15911
▁greif~~7531
Creek~~4714
▁Helligkeit~~9339
▁Ladung~~13902
▁voraus~~7932
liebe~~4072
▁Bäcker~~13729
▁Staate~~8702
▁riech~~11532
▁87~~1842
▁Tra~~4325
▁na~~3350
▁antiretroviral~~14059
▁28~~7633
▁ne~~7199
▁Staats~~11023
▁Reparatur~~7447
▁Tri~~8070
onnen~~10140
▁Tro~~10998
liebt~~4573
▁Migranten~~17095
▁Neumann~~15752
▁Tesla~~16410
▁Schlagzeile~~9962
▁Verbrauch~~6934
▁Ingenieurwissen~~8443
sthetik~~5497
fluss~~9005
▁fürsorglich~~14187
▁Ausdruck~~2802
grün~~8798
▁dankbar~~10510
ronic~~12451
▁angehen~~5567
▁Sound~~5331
▁Effekte~~3955
▁Genom~~7559
▁Budget~~4891
kolonie~~4749
▁hatte~~1557
▁Paulo~~15907
▁entmutigend~~10793
▁erwecken~~12350
▁vereinen~~12320
▁Bangladesh~~7631
▁viel~~1197
▁Kommunikation~~4555
▁Lab~~3870
▁Urknall~~8617
▁futurist~~5256
▁alltäglich~~14804
▁intellektuell~~12989
anstieg~~14300
▁Zustimmung~~15413
▁Trade~~13263
▁dekorative~~14559
▁Molekular~~9906
▁rev~~13775
▁gestellt~~4912
▁Favorit~~11541
wühlen~~11339
▁Heli~~11533
▁Mittelschicht~~15954
▁Künstler~~2663
fahren~~504
biologe~~13285
▁erstickt~~5870
AL~~17091
gelesen~~9927
▁unkontrolliert~~13437
▁meinte~~6204
▁Bilbao~~18289
▁update~~17982
▁änderte~~5081
▁sogenannte~~3893
▁Passage~~4379
▁Olivenöl~~17976
▁Ekstase~~10925
software~~13501
▁Ecuador~~14157
▁Zusammenspiel~~14451
▁Nutz~~14030
▁Viertel~~2896
▁Großteil~~124
▁Wandteppiche~~17178
▁Chicago~~6961
cus~~16602
year~~18464
▁sendet~~10716
▁aufbaut~~6914
merk~~8676
▁Folge~~7888
▁Beschreibung~~3081
▁mobilisier~~11191
▁kürzlich~~2403
▁Dickinson~~14864
▁synchronisiert~~14263
lehnen~~11836
▁Anhaltspunkt~~13011
▁poly~~9102
▁starb~~2963
▁Werbe~~9418
▁inter~~5029
▁Preise~~6848
▁pad~~17334
▁imitiert~~11060
▁stark~~1885
▁schrecklich~~2514
▁Admin~~17025
▁kon~~2712
▁Gärtner~~15091
▁start~~3247
▁bekäme~~12086
pool~~8157
Wayne~~16023
▁Nachfrage~~6469
onald~~10203
▁Dirigent~~17290
▁umgeben~~4996
▁erstmal~~3811
interest~~16544
▁Ernst~~1683
▁vorstellbar~~8789
Star~~14540
▁ihre~~683
~~15667
▁negativ~~11604
~~18582
▁Schlechte~~1071
▁patrioti~~16541
▁vergraben~~16499
▁komisch~~8231
▁brave~~16188
~~15664
¥~~18005
▁origin~~16829
▁gripp~~18074
¡~~18514
▁rod~~11838
£~~18018
▁Bildung~~1995
­~~17993
®~~16782
▁Blut~~2511
©~~16505
▁Deutsch~~12848
°~~3296
▁verborgen~~161
▁rot~~1845
▁gre~~13945
▁Blue~~8012
▁Entsalzung~~4724
▁nirgendwo~~2183
▁Gespräche~~11196
▁Insekten~~9720
▁las~~4540
treten~~794
▁Küsten~~5642
▁pac~~18433
▁Pol~~9198
▁Gibbon~~12202
▁winzige~~4867
▁Kneipe~~4376
▁Gesang~~11560
ino~~6783
▁lag~~3547
▁Gebirgs~~165
ine~~3316
ing~~211
▁89~~12057
ina~~4356
▁Kohlehydrate~~12632
▁Machthaber~~17767
▁versorgen~~426
▁Verstand~~2503
▁Crowd~~7836
▁Schläge~~6009
▁grad~~10650
▁at~~11884
▁Record~~14439
freundliche~~9414
▁muß~~3622
▁Konferenz~~8889
▁stammt~~5855
untersuchung~~9847
▁Phantom~~13384
▁Rückgang~~12406
▁geniess~~12466
▁21.~~2368
▁Anführer~~11007
▁Haupt~~3222
▁Zufriedenheit~~3761
polizei~~11640
▁Khali~~18479
infektion~~12053
▁Illinois~~6958
U~~1070
gedruckt~~12463
▁Lupe~~12081
▁rekonstruier~~12250
atriarch~~16377
▁Ruby~~17711
▁Interesse~~1812
▁hero~~15459
▁filter~~4841
niveau~~1953
▁Schöne~~12314
▁part~~11790
ories~~17066
▁Wachstumsrate~~16836
▁bringe~~12097
▁Tabelle~~1062
write~~13493
▁Maschine~~2804
▁hinterher~~6513
▁Herbi~~9035
▁Gefrier~~17421
ttel~~3828
berblick~~7165
▁Gang~~9009
shelf~~16643
▁unvollständig~~7537
Schriftstellerin~~9200
▁produziert~~782
▁fürchterlich~~11068
▁gerade~~104
▁Ziffer~~12759
▁brin~~18001
▁Kolumbien~~8647
▁graph~~9297
▁Office~~15891
▁Gräser~~11506
▁überwach~~9749
▁us~~14252
elekommunikation~~6884
▁Uran~~14852
▁Alisa~~17675
lace~~17165
▁romantisch~~15215
▁Nichtregierungs~~11880
▁rebel~~10954
▁Periode~~6522
östliche~~11267
▁nehme~~9289
▁tritt~~546
ali~~13108
▁gängige~~7159
▁Kosmolog~~8613
▁unteren~~2009
mate~~8257
Charakter~~10235
▁rare~~14109
▁Berechnung~~11227
▁60.000~~9762
äfen~~14335
▁Schenkel~~15295
▁Octo~~18585
worth~~13961
▁Zehn~~3570
▁profitabel~~16176
▁erwischt~~3522
▁Schwein~~9696
▁wolle~~5320
▁verbiete~~9119
▁area~~18531
▁Fremden~~13612
▁Dotcom~~9697
▁Rückgrat~~11629
stolpern~~15899
▁Würmer~~646
▁Schweiz~~9407
tank~~13699
▁Smart~~11800
▁Airbnb~~15578
▁Gore~~13111
▁glu~~18486
▁Up~~9615
▁WalMart~~17723
▁öffnen~~3635
▁Nukle~~10485
▁Austausch~~11556
▁faszinierend~~3126
▁öffnet~~6320
▁hing~~2409
▁Februar~~5658
Menschenverstand~~13277
rtigr~~18511
▁entfacht~~8383
▁Weltbevölkerung~~7673
cher~~8898
▁erziel~~1949
▁extremist~~17257
▁Hill~~5211
▁formen~~2612
▁Program~~16590
horn~~8456
chef~~6376
▁iTunes~~15592
▁Ode~~12158
▁Brand~~153
chen~~850
spect~~8276
▁spaziert~~8980
▁400.000~~8761
▁bedanke~~3363
▁impression~~16604
trag~~8343
▁okay~~3038
▁Zelle~~8749
▁versetzt~~2680
ür~~6847
▁Pei~~16745
▁warmer~~17098
pflicht~~10422
ahara~~11472
▁President~~11912
▁Vor~~1747
▁kalt~~702
▁registriert~~8193
▁Koralle~~9667
▁versetze~~6180
▁Säugling~~9108
üb~~6484
tanz~~10507
▁läuf~~3241
▁freundlich~~10614
▁zivile~~12161
▁unsere~~437
▁Gebäude~~3106
▁Wolf~~9870
▁angeklagt~~13269
▁CSI~~15380
▁Megawatt~~15848
▁fertig~~3447
menschen~~7567
▁fühlen~~1471
▁subjektiv~~8467
▁CO~~10518
▁saß~~6648
steckt~~7080
▁schoss~~7613
Inhaber~~10267
gli~~5055
▁Saurier~~13239
▁traditional~~16581
▁Hungersnot~~6830
▁studieren~~2357
▁enden~~5737
▁hervor~~5814
▁kostenlose~~11475
▁Liebling~~250
aku~~8900
Faktor~~3565
▁Energie~~638
▁Tiefe~~11
▁endet~~4201
Spruch~~6764
▁Arithmeti~~15753
stoff~~1827
aka~~16285
▁sexy~~7262
▁Cultur~~15934
▁Schwimmen~~7607
▁Abhängigkeit~~5090
Millionen~~13042
mail~~12864
Nachrichten~~16326
▁heutigen~~1773
▁Carlo~~8415
▁level~~18377
▁unbeweglich~~8695
▁Bewunder~~8468
▁Email~~7770
bre~~6808
▁Eva~~12237
▁zahlreich~~12076
▁operiert~~6419
▁Eve~~3050
vielfältig~~60
▁Bangladesch~~11692
zulaufen~~12489
▁Fach~~1799
▁urkomisch~~13592
▁komplexe~~688
found~~17916
▁Face~~15063
mitglied~~2637
▁technisch~~13181
▁sollten~~3576
▁gewonnen~~1589
⁄~~7277
▁drübe~~714
▁schlimmste~~8883
▁Fraser~~18257
besuch~~13986
▁Carson~~9183
stoppt~~5808
▁Einheiten~~6443
▁stieg~~6162
ical~~14379
▁Konzentration~~4856
▁Muster~~9881
isierung~~1238
▁adopt~~15228
▁Meisterwerk~~8420
▁Entfernung~~823
▁Wenig~~16021
▁Ausgangspunkt~~12701
▁begehrt~~17247
netzwerk~~11458
▁ramp~~16706
▁gerechtfertigt~~14526
mahlzeit~~13034
▁Akkord~~12151
▁Bestimmung~~11507
▁eingesetzt~~4329
▁klingen~~3129
▁Oberstufe~~15507
word~~14669
▁reichhaltig~~7296
ers~~1561
▁biblische~~16278
work~~13006
▁Mahatma~~14233
▁Ellenbogen~~5421
gestützt~~3698
oyle~~9606
wort~~7210
▁qu~~3448
▁Wut~~11748
ern~~556
▁Med~~8427
▁dauernd~~9248
▁Zwiebel~~14742
▁legen~~1164
▁Verlegenheit~~15477
▁weitergehen~~9960
illiard~~3320
▁Schlacht~~6354
uar~~9462
▁öfter~~9854
▁Sonnensystem~~8627
▁Philadelphia~~12888
▁Literatur~~3066
ual~~1958
▁zurückgekehrt~~10959
uan~~6898
▁reiste~~2952
uad~~1892
▁derjenige~~3779
▁progress~~12458
▁Star~~3806
ib~~8124
▁Stau~~7276
▁dome~~15096
▁flexible~~9440
▁Fri~~11612
▁Berk~~16686
ische~~2171
▁Sir~~6447
▁Sil~~7133
▁laufende~~10535
▁Sin~~966
kehren~~6950
▁lizensier~~10277
▁Performance~~11425
▁Sie~~194
▁dreidimensional~~351
▁Stan~~6258
▁Kämpfer~~6769
lah~~15263
▁schlimmsten~~6730
▁wählen~~2184
lag~~9855
▁tödliche~~13382
▁Chris~~3364
less~~13074
▁diagnostizier~~13691
▁skelet~~18494
▁Boeing~~14789
▁Iron~~15281
baren~~6770
lar~~11328
▁Schwartz~~17197
▁Glukose~~16719
▁psychedeli~~16764
▁Faszination~~12503
▁Schulden~~11809
▁gut~~681
▁Stipendium~~8874
▁erstellt~~8596
▁Linie~~4462
▁Diamond~~15417
▁austausch~~8333
▁kontrovers~~12545
green~~13717
▁Drehbuch~~17199
schneiden~~5355
▁beobachtete~~8358
▁Dialog~~6375
▁Rezeptor~~16059
▁zumindest~~3221
▁kontrahier~~16942
▁stammen~~9662
geschnitten~~4383
▁Diktatur~~17278
▁superstar~~17914
▁Highway~~13547
▁Surfer~~5336
▁Voraus~~3639
zen~~626
▁lerne~~2159
zel~~6036
zer~~5135
netz~~3342
posttraumatische~~13436
▁Kloster~~16277
▁gewinnen~~306
▁lernt~~6265
daho~~13013
▁Premierminister~~10603
▁Fleck~~2526
ntelligence~~17226
▁Elektroschock~~3457
tragen~~1713
▁Cheeto~~18137
▁Anthropo~~12218
▁Irland~~7862
▁verstecken~~1476
▁kilometer~~8167
▁Fertigkeit~~6449
▁Zins~~11662
▁gemischt~~12275
▁Behinderung~~4003
▁Maidan~~18512
▁auszu~~3927
verbindung~~12513
▁herrscht~~2200
▁Zellen~~5460
▁verkleiner~~3566
bane~~16815
band~~825
forscht~~10733
verteilung~~7033
▁festleg~~13225
▁vergessen~~337
▁Muffin~~16760
ther~~9310
bank~~9502
▁Schrei~~9481
▁position~~12402
sächlich~~15301
begrenz~~7430
▁Brokkoli~~12680
▁absorbier~~3288
▁biologische~~5079
l~~275
▁Scott~~4337
▁bedecken~~3336
▁Arzt~~6240
▁Schachtel~~7370
▁Dorfbewohner~~16552
▁herbeiführ~~14707
▁rechtmäßige~~16582
▁DARPA~~9722
▁verlangsamt~~9991
▁geographische~~7883
▁Lücke~~1865
▁unerwartet~~8935
wahrscheinlich~~9858
▁lot~~12760
▁sit~~5150
▁McG~~3739
▁Lehrbücher~~10478
digit~~18362
logy~~9952
▁agieren~~7013
▁reinigen~~7798
▁sin~~17848
▁merkt~~9219
▁sie~~94
▁Enric~~18048
▁Akronym~~15762
▁Teekanne~~14505
▁Aimee~~17477
nutzung~~10578
▁Verfügbarkeit~~6831
▁eye~~18438
▁Haie~~17046
ografische~~5712
▁Jones~~10750
Familienmitglied~~16099
piece~~15894
▁Wissenschaftler~~423
ntzündung~~5386
-1~~10079
stellung~~2304
▁verminder~~13282
▁Sinne~~2574
▁pay~~17513
▁Gefühle~~4474
▁ausgestreckt~~5406
▁Singularit~~17340
▁Amerika~~3180
standard~~10903
▁Service~~5376
tial~~14946
wiederverwendbar~~16693
▁geringfügig~~14787
▁Reich~~5019
▁Hinter~~5027
ange~~8942
Struktur~~13904
Parade~~13240
▁Wohlfahrt~~11934
~~15666
▁Discover~~8000
▁hinweg~~2245
▁li~~11183
▁Inti~~10356
▁entsteh~~828
▁Höhe~~473
▁möchte~~195
▁la~~3122
professionell~~1323
rench~~15941
▁le~~11833
▁wollt~~8573
ouTube~~8523
▁landete~~6334
▁47~~13401
▁langfristige~~13080
Kollegen~~10416
▁France~~12868
▁Tyrannosaur~~13220
▁water~~18092
▁Organe~~10149
▁Hüfte~~15315
▁aufeinander~~6472
Einkommen~~15915
griff~~7946
geist~~11770
▁Hausaufgaben~~7229
Abschluss~~10475
▁Ekman~~18160
▁ADH~~18187
▁Kur~~4784
▁Keyboard~~12149
▁Höcker~~17968
▁defensive~~16563
raten~~1195
▁violette~~17448
name~~13345
▁Erziehung~~8699
▁Lazarus~~14060
▁Peitsche~~10000
▁Veteranen~~17778
▁Spitze~~2433
▁erstaunlichste~~12278
5.000~~13636
laufen~~5289
▁Schaffen~~9421
▁Angriff~~6381
B~~1005
▁ESP~~17171
▁Umlauf~~12597
▁auslöst~~13737
mination~~11412
nahm~~6873
bündel~~8998
▁Plattform~~7052
▁Interessantes~~11096
wettbewerb~~10350
▁entwirf~~5286
mweltverschmutz~~10318
▁leitende~~14278
▁virus~~13909
▁Ehre~~2806
▁musst~~1312
▁virtual~~17863
▁Unterschiede~~2167
▁Instinkt~~11793
▁Kurzweil~~16839
▁betreffen~~10836
See~~5641
▁Multimedia~~15850
▁later~~16432
kte~~3355
▁Spreng~~12060
▁900~~2366
leihen~~7839
▁methodolog~~15960
▁Anatomi~~2521
▁10,000~~17354
▁tanzen~~1408
▁Kabinett~~15462
▁neugierig~~2879
▁Triumph~~2989
▁genutzt~~9036
bäume~~13823
▁konsequent~~2247
▁Verwandtschaft~~12225
▁folgen~~1311
▁Geige~~15386
▁TEDWomen~~6113
▁cochlear~~17858
▁Veränderung~~1582
▁Afghanistan~~1774
▁Mexikaner~~9182
▁hervorragend~~1905
▁Pferde~~4883
gier~~7569
▁Case~~16529
laden~~1663
findig~~9874
▁Spezielle~~9983
▁Köch~~12667
stühle~~10315
▁irre~~4029
▁Folien~~13439
▁markieren~~5768
▁Ihres~~5393
rati~~11665
▁abgeschalte~~15202
Unterbewusstsein~~6322
▁Geräusche~~3456
▁speziell~~4378
▁Schwach~~7658
▁Mont~~15820
▁Court~~16032
▁Syri~~4568
▁Lern~~1884
▁Roman~~9222
▁Chemie~~2458
Button~~15870
▁Führungs~~15180
▁überbrück~~11160
▁Mond~~5532
▁Mona~~4090
away~~16687
programm~~11433
phase~~8639
▁debattier~~13789
▁wichtigste~~1908
ological~~17461
▁drucken~~13745
▁lebensrettende~~7348
▁schwer~~1727
▁gewaltlose~~10937
▁verdoppeln~~12703
ünktlich~~11671
▁Nahrungs~~4910
▁Mühe~~4684
▁miser~~16927
▁paw~~17452
▁musikalische~~3872
▁redete~~12920
▁Niedergang~~17036
▁Cel~~548
▁wöchentlich~~2692
▁Model~~7334
▁Argument~~3389
ieren~~334
▁Kraft~~2805
reserve~~15504
▁zu~~37
mitten~~2415
▁Schriftsteller~~9246
mittel~~5492
▁Blumen~~4630
▁gespannt~~5749
sprechen~~5792
▁Verwund~~3759
▁plural~~16828
▁Erlaub~~861
▁beschuldigen~~13527
lasst~~8092
▁geheil~~10212
▁angewendet~~6454
teuerung~~1563
▁ungewöhnliche~~4093
▁Trillion~~16601
▁Rechtssystem~~15322
▁omni~~16993
udi~~12001
▁Variabilit~~14292
▁gemessen~~3318
hru~~16548
▁Lobby~~7723
▁worau~~7544
▁had~~18538
▁kommuniziert~~7869
▁Tolle~~8330
hri~~8202
▁Bez~~16173
▁Vorort~~11379
sehen~~2225
▁diverse~~14557
drohung~~6576
führung~~11816
itter~~10735
kologi~~10219
▁Cloud~~7905
▁arme~~1954
▁Or~~4249
di~~5208
▁bullet~~17966
oplankton~~4837
de~~101
▁Gewissheit~~11066
da~~1422
▁schützt~~5726
▁Bomba~~4112
▁Ob~~11031
▁Bombe~~12304
ziert~~2122
▁Oh~~680
▁einschränken~~1314
du~~9023
▁Bit~~7877
kapazität~~4672
▁Night~~4900
▁weggeworfen~~13632
▁85~~12247
▁Rucksack~~6327
▁unterlieg~~3553
▁Terabyte~~16298
▁verwundbar~~15028
▁informieren~~9817
▁held~~2801
rung~~7388
▁Industrie~~1587
▁kommen~~393
▁OK~~3385
▁hell~~9336
▁integrieren~~8273
90~~14301
▁pur~~17447
▁komme~~4603
agnesium~~15018
▁Here~~14261
▁1,500~~15964
▁Barrier~~17738
▁kommt~~640
▁erlaubte~~8679
▁Herz~~3024
▁Portugal~~2092
▁KB~~17995
▁zurechtkomme~~15910
▁Lovin~~17533
▁Herr~~3619
▁Richtung~~2084
smöglichkeit~~14119
▁true~~17654
▁Mineral~~13143
▁kritische~~2902
atur~~820
Cluster~~15830
Auto~~14803
▁gerichtet~~13356
▁Michelle~~11045
sourcing~~15890
▁Bereichen~~731
▁nachdachte~~11801
▁feminist~~15572
▁Seifenblase~~9271
▁Carolin~~12972
▁fortbeweg~~9750
▁Newton~~10338
erei~~2817
▁heikle~~10769
▁Harlem~~6123
we~~3656
▁Ausländer~~13489
wa~~2839
▁durchgehen~~10779
wo~~1765
▁Fischerei~~5693
aught~~16652
▁Minimum~~14291
wi~~7636
▁heiße~~586
ffekt~~12115
wu~~5022
▁gemein~~7394
▁infinite~~18475
▁epi~~12413
hal~~4756
intelligent~~13799
▁eindrucksvoll~~15991
▁Strasse~~5948
cop~~16800
▁design~~7733
ile~~2967
▁Grove~~15265
brau~~5261
ila~~14361
▁Berge~~474
ilo~~15351
ill~~529
▁RIS~~17648
▁Haare~~7856
▁ergibt~~2113
▁Aurora~~16187
▁auditor~~18244
▁Gott~~1184
▁gezwungen~~6459
▁Schnabel~~9117
vorhersagbar~~3390
▁innehalte~~10054
com~~7835
▁Evan~~5218
con~~10602
lterwerden~~7382
▁Herausforderung~~1641
▁Schmugg~~18069
▁Match~~7952
iche~~4291
▁delete~~4363
▁Nächste~~3703
▁Kuchen~~5108
▁teilzunehmen~~3638
▁Hind~~10956
▁wirken~~6863
▁Tänzer~~4342
▁Off~~8224
▁3000~~12378
▁einnehmen~~7058
sammlung~~10209
▁Weltfrieden~~8574
▁bemannte~~16161
▁Aha~~13409
▁spaghetti~~15352
▁bewiesen~~8392
▁Selasi~~18471
▁exklusive~~15582
▁bereichert~~11871
▁durchsuchen~~13858
mmer~~8211
▁Formel~~13360
▁Formen~~336
▁phase~~17351
schluss~~3879
▁glücklich~~1524
▁Constitu~~18516
axis~~10296
▁Figuren~~8491
▁dahinter~~6018
nordnung~~11358
cholester~~17592
▁Wiederhe~~14070
▁Bruder~~6153
▁show~~18252
▁Respekt~~4597
▁schrumpft~~11799
▁instinktiv~~4480
▁cycle~~18568
baum~~8673
▁Konzept~~987
▁erbaut~~13553
▁handle~~17674
▁French~~12357
▁Cole~~13247
fest~~3279
boden~~4441
▁Cola~~751
▁Beziehung~~4179
▁aufwacht~~16767
▁mikroskopisch~~8786
▁veranlass~~13440
ureau~~14360
▁akzeptab~~1677
▁steckt~~1924
▁Bruc~~5798
▁erklärte~~4515
▁GCSE~~17762
▁heran~~396
▁investieren~~4819
air~~2776
▁Brut~~6822
ain~~9365
▁Damen~~6070
▁stecke~~11695
▁Frauen~~2048
▁Moment~~1256
▁erlitt~~13810
▁schönste~~46
▁Schweiß~~15090
▁lauert~~11906
▁ratio~~15323
▁proportion~~16224
▁herab~~7601
vogel~~12847
▁Sofa~~2549
▁dagegen~~5390
▁Knöchel~~15319
sendung~~8341
Wirtschaftskrise~~12821
▁Carro~~13533
▁christliche~~4421
▁aussuche~~9355
▁diese~~138
▁Swiss~~17842
▁leid~~3245
▁geschrumpft~~9231
Geheimdienste~~13482
▁konzeptionell~~5153
schildkröte~~5638
Massenaussterben~~18132
▁Werkzeuge~~5345
▁Zykl~~951
▁Zwei~~8173
▁China~~6645
▁Nevada~~13538
▁Jane~~3030
▁verbannt~~7236
▁Praxis~~8445
▁buchstäblich~~2522
plin~~4339
gerechnet~~8255
▁Nachdenken~~11825
▁Schwestern~~2950
evic~~11650
beamte~~13756
▁Auffassung~~1093
Zeit~~7709
▁redet~~3823
verkehr~~10326
nia~~5428
hang~~6996
hand~~1768
▁Serviette~~14437
▁durchzu~~2440
▁reden~~1731
nährt~~5679
▁stick~~15116
Y~~3897
nis~~862
▁nette~~12583
felder~~10617
▁Wellen~~152
▁wi~~15949
▁bevor~~1030
kept~~14289
▁wo~~54
▁wa~~8978
svermögen~~7479
▁oder~~135
▁Erkenntnis~~4497
▁we~~2147
Dimensionen~~18080
gekommen~~606
▁Verstädterung~~7140
firmen~~13920
▁Tierärzte~~13317
▁Speicher~~14341
▁Bürgersteig~~14089
▁1980~~6942
▁Kurse~~8150
the~~643
▁modular~~8260
▁Innovation~~1061
ourne~~3932
kala~~13053
▁höchste~~8912
▁rabbi~~18282
▁Auswahl~~2830
▁magnetische~~14366
▁Glückskeks~~12585
▁kehrt~~14668
▁erdenkliche~~12095
▁überrascht~~3091
▁Einladung~~5219
▁naiv~~4629
▁thrive~~18338
▁Debora~~9823
▁alternative~~7188
puppe~~14809
lkatastrophe~~16192
▁asiatische~~13741
gebiet~~5648
▁Sichtweise~~4471
▁Imagination~~12020
ourage~~14223
▁beschreiben~~3083
▁Bleistift~~10015
▁nachts~~4529
▁Haushalt~~8575
vielversprechend~~3239
weist~~7523
▁Miss~~6116
boot~~32
▁Militär~~2441
▁Mist~~10392
▁Mandarin~~15773
board~~5335
▁Amphibie~~9060
weise~~519
basiert~~8360
▁span~~15524
▁Intellekt~~11177
plasma~~16423
▁national~~5730
▁Cairo~~17875
▁Asien~~1855
▁Rezension~~2885
▁Tolsto~~13056
▁verfügt~~7943
▁innen~~9360
▁Friedman~~8184
fusion~~16916
▁urban~~5136
rankenhaus~~4001
▁erkannte~~8350
▁inner~~7293
▁Werkstatt~~5241
▁Zentral~~11842
▁Martin~~5217
▁much~~17417
▁Anwälte~~13196
▁abgelenkt~~14653
▁Porträt~~16096
▁Tso~~13712
smodell~~4461
▁Erlös~~15639
▁Whoa~~7131
▁Gegenstück~~13884
▁wuchs~~6121
▁Kahn~~14481
▁Gail~~18330
▁improvisieren~~4344
night~~14267
▁Mach~~1291
security~~16089
▁neo~~11834
▁Mathematica~~15763
kosten~~5897
▁imperial~~11329
▁Präsentation~~7838
▁Einstein~~8402
▁gla~~12174
▁Bericht~~1087
▁dauern~~5962
▁Gallo~~5
born~~16696
▁serif~~15896
▁dauert~~713
bedingung~~7895
▁jonglieren~~9967
prüf~~6287
omics~~13173
▁Drogenabhängig~~8733
▁informelle~~17425
Amerika~~15994
Lee~~16211
lagern~~4878
endai~~11378
▁Provinz~~10597
/~~5842
▁Lebenslauf~~14819
▁wünschte~~11171
▁vermarkte~~7070
▁happiness~~18336
▁Zivil~~8871
lagert~~3048
▁aktiv~~907
gebrauch~~12910
▁text~~17734
wahrnehmung~~12754
▁for~~1758
bricht~~102
▁Fachzeitschrift~~15410
▁Millennium~~11154
▁restliche~~8710
▁pflegt~~14696
▁Halluzination~~11967
▁fortfahren~~8459
pla~~9780
▁Brunel~~18130
post~~13942
▁wohlhabende~~16838
Grad~~8960
bahn~~1965
▁hergestellt~~4763
trophy~~11089
▁Kohlendioxid~~14276
Ark~~16129
▁wette~~2893
obb~~16646
literatur~~14822
▁beseitigen~~7938
▁scrap~~17927
▁Sonnenschein~~16510
▁bestreite~~6729
▁Tieren~~281
▁1970~~12014
▁exploit~~15529
▁schnellsten~~15342
book~~16903
▁Differenz~~14340
▁Strand~~133
▁Urteilsvermögen~~16819
▁königliche~~2494
▁1975~~8413
▁Feuchtigkeit~~6573
▁suchte~~1242
▁drin~~568
▁Alberto~~15741
right~~11407
▁denken~~1046
nderungen~~6348
▁Glob~~5849
▁Leder~~11232
▁wieder~~575
▁aufbewahr~~9000
▁Dekade~~5864
wan~~10984
▁Boot~~2923
▁Mat~~2953
ürf~~7346
▁zunehmend~~2645
▁Klischee~~15442
▁lügen~~6360
Kreislauf~~16694
▁unveränderlich~~15393
▁Maz~~10981
▁May~~9892
▁Max~~3250
▁Mag~~572
▁Mad~~4083
▁Mac~~9254
way~~4786
▁Mao~~15920
▁Man~~6438
▁Earle~~5793
▁Mal~~831
werbe~~9837
war~~5508
▁Mai~~2619
▁Minute~~3752
▁wundersame~~5662
▁Re~~2221
▁Tausend~~9642
▁Pistole~~12281
▁Ra~~2050
▁Ro~~4746
▁maps~~17489
▁mochte~~2016
▁edit~~17401
▁Episode~~11276
bereit~~6740
▁bike~~17928
▁Ru~~3157
rauch~~4167
artige~~804
▁Position~~8624
Militär~~17730
trug~~2296
▁fortschreite~~14257
▁RG~~8218
gewalt~~13977
▁Kammer~~2382
▁letzter~~2311
▁Tablet~~8484
▁fundamental~~7481
▁RM~~12803
▁Belohnung~~7305
▁gebildet~~6640
▁Parallel~~11279
▁Kette~~9553
gemacht~~5352
▁Nanotechnologie~~3308
▁Butter~~15728
case~~17765
▁surreal~~14910
▁letzten~~728
ochai~~11858
▁schools~~17292
▁after~~17733
▁simple~~8756
▁geschätzt~~4949
▁Insasse~~8706
▁Somali~~12396
▁konstant~~9809
▁Arbeitskraft~~1265
▁schenke~~11555
ventive~~17864
▁Gelegenheit~~3058
face~~15109
▁große~~822
▁mystische~~15298
▁steigern~~12070
▁unsichtbare~~13341
▁vergaß~~15474
▁passiv~~8493
▁arbeitende~~9444
▁Puls~~16408
▁zäh~~5995
▁teurer~~2004
▁schlicht~~12105
▁Gleichgewicht~~10506
test~~2240
▁Kosmo~~14320
entlassen~~2110
▁gezüchtet~~9641
▁früher~~2218
▁lachen~~1474
▁Motorrad~~6518
▁akzeptiert~~3503
▁Zabbal~~18178
ianische~~11184
▁Galaxy~~17347
▁begleitet~~7922
▁Taiwan~~10591
ienstleister~~13512
▁Insel~~4740
▁assist~~18228
▁Wegbereiter~~15638
▁kurzer~~12239
▁file~~17777
▁building~~18150
▁Echtzeit~~2476
▁Snack~~11353
etze~~5619
▁beginne~~4533
▁eingefroren~~7622
itude~~18222
▁Heife~~15530
▁people~~15126
▁Güte~~9160
▁obsess~~17722
=~~16598
▁italienische~~7259
▁Häufigkeit~~15826
▁ski~~15854
▁McDo~~16523
▁Apollo~~7826
▁umgekehrt~~4470
▁ballet~~18319
▁funktionsfähig~~5317
▁export~~15171
▁Rezession~~13088
▁sky~~14807
▁Verständnis~~2315
▁stress~~18386
▁vergewaltigt~~6227
▁lehren~~13685
▁nehmen~~433
▁Auf~~654
▁begeistert~~2863
▁star~~6313
▁unmittelbar~~6210
konomie~~10222
▁begeistern~~10480
▁Marihuana~~12896
▁Aus~~5688
▁Anruf~~7743
▁Standort~~10840
▁Gegen~~2871
zone~~5716
▁platziere~~4192
graph~~7994
▁stolz~~8556
▁seriös~~1009
▁Rupien~~16561
▁Parfüm~~17445
▁beschloss~~2754
liches~~10669
rhythm~~16057
▁nice~~16119
▁Klient~~13349
▁jetzt~~453
▁Kickstarter~~16433
▁Ablenkung~~7267
▁Geduld~~7112
▁schwieriger~~994
▁Pick~~2858
▁MacCready~~16335
▁Britanni~~5026
▁Brent~~14479
▁herkommen~~4620
▁vorbereitet~~1869
▁gefolg~~9869
▁Shoot~~16313
▁übereinstimmt~~5270
▁Schicht~~8471
Tech~~13141
▁Sammel~~740
▁Liebe~~3754
▁gold~~16607
▁Stunde~~3418
▁golf~~17902
▁Mola~~18605
▁bewegende~~10306
gua~~9399
selber~~3248
▁administrative~~2209
gun~~1911
▁nochmal~~2566
p~~3297
gut~~4718
▁qualifie~~17731
▁Unbehagen~~12129
▁Architect~~16257
▁erstaunt~~7228
revolution~~1625
▁Strang~~12117
SW~~18113
ündung~~15904
berleben~~7926
verwaltung~~2260
▁entfern~~954
▁ignorieren~~9194
▁Ottoman~~18283
▁250~~8194
▁Zoo~~14955
▁Blasen~~10839
überschätz~~15102
säure~~867
▁widersteh~~12863
Ladenism~~17572
▁stimulieren~~14649
▁Love~~3042
▁untermauert~~14004
▁arm~~6857
▁arc~~18371
▁form~~2725
▁Märkte~~5167
▁befreien~~4686
▁MBA~~6611
▁besser~~1295
▁dim~~12884
▁Welle~~4619
▁art~~2918
▁Haw~~17176
burn~~16980
▁Har~~3051
▁My~~4184
▁Mu~~3959
▁Boy~~2621
▁Manager~~9305
▁wechseln~~3728
▁sushi~~18139
▁Bob~~4333
spinne~~11694
▁zurecht~~4268
gle~~5790
▁Hab~~12224
▁Mi~~6182
▁misstrauisch~~1297
▁Han~~13338
▁Me~~7563
▁Ham~~9581
▁Mc~~6261
▁Ma~~3898
▁Hai~~2915
▁Venter~~9782
buch~~7766
▁hinkriege~~12549
▁Durchschnitts~~10112
▁während~~2453
▁Intensiv~~6718
generator~~16948
▁erstreckt~~2826
versuch~~2733
▁MP~~4419
▁crisis~~18124
▁verhalten~~1047
möglich~~13972
▁Batterie~~9210
▁verschiedenste~~8327
▁Institution~~6944
▁business~~18129
lastic~~12524
▁abschalte~~17322
▁but~~17576
▁packen~~1021
erichterstattung~~17472
▁demokratisch~~15567
▁Zell~~7540
▁Versöhnung~~11179
▁unterstützt~~4219
▁Papp~~9411
▁Zelt~~8914
▁Held~~10031
▁ROV~~17912
▁hart~~1479
▁Scientolog~~16396
▁Helm~~13463
▁Hell~~12918
mobil~~12828
▁Papa~~6141
▁love~~15673
▁Swap~~17584
flüge~~12263
▁kostspielig~~14958
▁Hercul~~18086
leuchten~~3061
▁dimension~~17763
▁Betrachter~~12460
▁talent~~11092
▁bakterielle~~12434
bwechslung~~2717
▁Langlebigkeit~~7492
leuchtet~~8477
▁injiziert~~4479
regel~~4235
regen~~7440
pont~~9385
Feld~~4929
▁Umwelt~~4035
▁denkbar~~10501
▁Atala~~15932
F~~3807
club~~7095
▁aero~~17926
▁Medaille~~13127
mplitude~~16301
▁erteilt~~14460
▁fasziniert~~7760
▁Brenn~~5395
▁Abstammung~~10679
▁Orchestra~~17434
sklav~~16964
▁Afrikas~~5990
▁FedEx~~1513
▁erkannt~~5668
▁Ric~~16466
car~~5541
▁Privatsektor~~15828
geräusch~~9351
decken~~8500
▁Zusammenhänge~~10214
▁Guinea~~16573
can~~10752
cal~~15596
▁Eigentum~~6248
▁stressig~~10357
▁Instant~~14105
ibu~~2815
▁Kalkstein~~14490
▁Edit~~7993
▁Vorzüge~~15610
▁gewerbliche~~9479
▁Ikone~~10259
noch~~2085
▁Prinzip~~2822
chip~~9768
▁Spielzeuge~~9792
▁County~~16054
▁erwachsene~~10691
▁gespendet~~13302
▁vollbracht~~14331
topia~~5121
▁Materialien~~3326
▁Unterstützer~~12324
▁ankommen~~460
▁99.9~~16889
▁herausstellte~~9939
▁Methoden~~2192
▁Gedanke~~3880
▁hat~~85
▁Prothesen~~9752
▁erhielt~~4550
▁has~~10477
▁machte~~2678
▁quantitative~~15048
▁McChr~~6259
▁make~~17166
▁pharmazeutische~~11864
▁Gnade~~14191
▁Heilmittel~~13073
▁Arterien~~2515
,7~~10495
,4~~13116
▁Middle~~9526
▁hab~~1052
œ~~17922
schaut~~11080
▁jährliche~~2329
▁Defens~~9724
▁Solarzellen~~12439
,8~~7674
▁zirk~~13422
▁guitar~~18065
▁Konzert~~4221
▁Geschmack~~10109
▁erbärmlich~~7460
▁able~~11837
▁Griechen~~11766
▁muslimische~~10905
▁überqueren~~458
▁erfand~~3896
▁personalisierte~~8353
▁Cymatik~~18245
▁Vernunft~~6752
▁rauszu~~16315
▁Deb~~11767
▁Dec~~16857
▁Signal~~5362
▁teilt~~2059
▁Del~~10105
▁Einkaufszentr~~2139
▁überraschend~~1108
▁Der~~2913
▁typograph~~18549
▁Knorpel~~17989
▁puzzle~~18078
lichste~~5956
Ship~~16166
▁entsetzlich~~5825
kurs~~5774
▁ergänzen~~7187
▁Sozialarbeiter~~15235
Druck~~8801
▁Interview~~7072
ender~~6726
▁privat~~14427
▁schickt~~9522
ities~~7176
▁Victoria~~13849
ssystem~~648
▁konsistent~~14683
▁Dün~~13299
▁Einzelperson~~1155
▁Milliardär~~16169
▁kombiniert~~4326
coli~~16756
▁Helen~~15075
enden~~2726
▁grundlegende~~2040
ular~~2646
▁entdeckten~~2729
▁Chile~~1862
▁Child~~11151
▁Menschenmenge~~13626
verschwenderisch~~13816
▁gescheitert~~6429
▁Wachstum~~6991
▁schottische~~12810
▁toll~~853
▁schauen~~145
▁anerkennen~~12619
▁neck~~8067
▁destruktiv~~10899
RA~~15990
RB~~15027
▁infiziert~~1013
RL~~16213
▁Anblick~~10348
▁Asphalt~~14085
▁zweitgrößte~~6998
▁food~~17975
▁geraten~~9221
▁legal~~7029
▁verstanden~~9755
▁gekommen~~613
fline~~7809
▁Ausgaben~~1933
▁Mitleid~~11072
▁gestresst~~10383
▁ablenken~~8642
mba~~7908
sproblem~~9498
▁Seife~~12922
halb~~4703
▁Grenze~~197
half~~6521
not~~8378
▁Zahl~~5653
▁Anstrengung~~2303
▁Bra~~9373
▁reiß~~6149
▁lateinische~~10709
▁Obama~~11417
spielen~~6197
▁zerstören~~931
▁Opfer~~6543
▁einfallen~~9471
▁Rauschen~~8772
kern~~5239
rüstung~~10947
▁rank~~18286
▁Volks~~11291
▁gesendet~~4354
▁Kompetenz~~2819
▁un~~1322
▁um~~207
spieler~~3742
▁Angel~~8974
▁Wirtschaft~~1016
em~~538
el~~380
▁virtuo~~18351
en~~26
ei~~596
eh~~1586
▁vari~~3531
▁drängen~~8373
▁Radi~~8622
ed~~635
eg~~6425
ächte~~2812
▁Kabel~~5437
eb~~2600
▁erleide~~9145
▁bekämpfen~~7570
▁entsprechen~~10544
ex~~3590
▁gegeben~~3475
ez~~11283
▁2008~~3211
ew~~10347
ev~~8539
ep~~4755
es~~790
er~~192
betrieb~~8043
▁bauen~~5118
▁geworden~~1181
hhhh~~16655
▁Schreiben~~9448
▁Analphabet~~11254
▁beruflich~~1972
▁australische~~16090
▁Convention~~18134
▁Ausgabe~~13059
▁Mountainbike~~1613
angst~~17013
▁Kle~~5094
▁Hippocamp~~10708
▁Diagnose~~6681
▁schenkte~~15133
▁Streitgespräch~~17056
▁Exoskelett~~18239
▁hyperbol~~8220
▁Fahrzeuge~~8028
▁Westküste~~4458
zählt~~732
glück~~6725
▁befreit~~5091
▁ausdrücklich~~10843
▁zurückzu~~2231
ameisen~~16610
▁den~~38
gehoben~~2091
▁dem~~242
▁Laptop~~1318
▁Wilkins~~16793
▁radikale~~7554
▁Klassenzimmer~~3146
▁Person~~2576
▁der~~10
▁des~~12
▁Sachverhalt~~16182
lma~~8052
▁Heu~~10106
einheit~~2094
▁Bestrebung~~11034
▁Nahrungsmittel~~5103
liefert~~4176
▁Schatz~~14058
▁Piraten~~9480
▁zueinander~~7180
▁mine~~18226
▁zuvor~~2530
▁ausbalancier~~10279
▁Status~~7942
▁Küchen~~7730
▁spannende~~13809
▁gefühlt~~8904
▁Rhinovir~~17957
▁schlau~~2082
▁Jahrzehnte~~5993
▁Haken~~9554
▁weather~~18261
blind~~8976
xi~~6679
▁temper~~18266
▁wahnsinnig~~6918
▁algorithmic~~18521
▁Nachbarschaft~~6221
▁angemeldet~~10789
▁planetarische~~15551
▁risk~~17813
▁prompt~~16488
▁Anleitung~~9524
▁recht~~821
▁erworben~~12982
▁infant~~11570
▁verdeckt~~7911
▁riss~~9474
bibliothek~~13740
rine~~10399
▁Motivation~~8394
▁Planeten~~122
▁Niederländer~~3188
▁bewegliche~~8663
eranschaulichung~~8587
▁Gerüche~~5099
▁Hea~~16497
▁festzu~~7995
gewinn~~13150
▁stoppen~~4895
▁Station~~3412
zufinden~~7288
▁zwang~~5189
▁Einzelne~~3686
▁geringe~~7351
▁schießen~~662
▁forensic~~18190
▁glauben~~1387
friend~~18169
länder~~11301
▁Verzweiflung~~5506
nehmen~~655
▁Comics~~13129
▁Leib~~15107
▁flip~~18489
schreibt~~1287
schlecht~~3561
zucht~~12621
▁Saint~~15855
▁Luxemb~~1943
▁Ausrüstung~~6338
▁Leit~~11708
▁Craigslist~~15583
▁Neuro~~2477
anischen~~445
▁ideologisch~~15563
▁schließ~~9622
nehmer~~4731
▁Offenbarung~~8483
▁empfand~~7282
▁Mais~~6917
▁akute~~16126
▁Drogen~~6208
▁Fettleibigkeit~~9054
▁Gläubige~~10968
▁gewachsen~~9516
▁tolle~~3477
▁What~~14524
▁Fotograf~~15454
▁signalisiere~~15325
geht~~2848
▁Teenager~~2755
▁abkühl~~14378
▁Töchter~~8579
▁pragmatis~~10969
klemmt~~14938
▁Rekrut~~13989
▁merc~~17756
lüfte~~8419
▁Flughafen~~4608
▁Hallo~~2488
▁mode~~4402
▁Bahnhof~~14476
Mail~~3831
▁erleichter~~10455
▁jungle~~18515
oleum~~14759
▁Coach~~11231
▁atheist~~18063
uten~~5549
▁12~~6181
▁versicher~~8207
▁Indiana~~13393
▁beliebt~~4315
▁eingeschlossen~~11597
▁Notfall~~12382
▁Hama~~13328
▁groß~~748
▁Express~~12687
äugige~~16681
echanical~~16597
▁Nachtwey~~16588
▁überzeugen~~6427
▁ausgesucht~~5164
▁Po~~2875
▁Ph~~5678
▁Pi~~6218
▁Authenti~~12816
▁Veranlagung~~5785
▁Pe~~10173
▁Pf~~1187
▁14~~6844
▁Pa~~851
▁dunkler~~11598
▁Klang~~3920
▁Spinnen~~15103
▁Pu~~6621
widerstandsfähig~~58
▁enthüllt~~7707
▁Elektronik~~11242
pä~~2169
▁irgendwie~~410
eidung~~12398
▁PM~~15679
▁Koh~~14477
▁PH~~13901
▁Chaos~~3745
▁Aktien~~3694
▁begann~~2904
▁lustig~~1466
ance~~1894
▁Henry~~6154
▁Natasha~~18331
fahrzeug~~15203
runde~~8508
▁tweet~~7682
plünder~~11286
▁neueste~~9089
▁stabilisiert~~14147
▁PR~~5530
▁blieb~~6163
▁diffuse~~14918
▁rund~~3290
▁steuern~~2500
▁philosophische~~7184
▁Schreibmaschine~~16565
▁Tele~~15394
▁jüngere~~6186
▁Prämisse~~14426
▁Erreichen~~5061
▁Genen~~7585
▁Behälter~~11539
▁steuert~~14920
▁cover~~18545
höhe~~7641
▁Blatt~~3498
▁Labyrinth~~8916
▁inspirierend~~9443
▁wesentlich~~3099
Z~~8475
▁Protest~~11013
stair~~17662
▁Texte~~4243
▁durchsucht~~11713
▁fantastisch~~1504
▁intelligenter~~6074
▁Folgende~~3624
gebrochen~~8261
schläge~~7038
▁esoteri~~14843
▁Communi~~7867
▁Limonade~~16822
▁versteh~~3097
▁Flach~~13165
▁verbreiten~~4451
agentur~~14396
▁beeindruckt~~14891
▁weitergebe~~4046
schreibung~~8465
▁Kontinent~~953
▁Post~~7734
PJ~~9099
▁hindeute~~14715
▁geographic~~17978
▁mittler~~4409
▁etwa~~128
▁verbreitet~~3482
▁Test~~2442
▁Tric~~8540
▁Gilbert~~15607
▁Paare~~7213
held~~15475
▁Handels~~6901
▁rechnen~~14682
PO~~9306
▁Tee~~10197
▁begründet~~14001
förmig~~7476
▁Handeln~~11791
urdy~~17602
▁wall~~17224
▁wahllos~~13762
▁verweiger~~6551
▁Neue~~11915
▁Geschw~~15294
▁irrational~~3391
▁Nordirland~~16255
▁Landes~~1959
▁ganzheitliche~~7190
▁Monaten~~2706
▁Aktivistin~~9169
▁Schutz~~5556
Website~~16594
▁meldete~~8971
▁Linsen~~16179
▁Department~~18357
▁Besprechung~~11063
▁Elite~~7245
▁unge~~6639
▁Tel~~7576
▁Alex~~4318
heizt~~14424
▁wert~~1147
▁charmante~~12877
▁Fotografie~~13334
▁AlloSphere~~12417
▁192~~12373
▁Chemotherapie~~12175
3~~2327
reiten~~9073
wechsel~~3403
▁fürchte~~5114
▁Building~~13542
▁Eagle~~4185
▁Wörterbuch~~13031
▁erleuchtete~~16383
urban~~17893
▁sieben~~3515
▁Verpflichtung~~5625
▁sprach~~4565
▁Google~~4581
Wert~~3885
▁UV~~8452
▁ausreichend~~3954
▁Ich~~1210
▁älteste~~10621
▁Intellektuelle~~10885
teilung~~2063
▁Pseudo~~18075
▁könnten~~2696
▁Improvisation~~13603
▁way~~17934
▁übersetzt~~11750
männer~~7371
Team~~7637
mittelalterliche~~17163
▁Pier~~3056
▁Meta~~13306
▁Northwest~~4788
▁Gesellschaften~~10933
ischen~~1375
abgeordnete~~5889
Universität~~7250
▁üppig~~14466
▁rent~~17536
▁aufrichtig~~4491
送你葱~~18251
▁implement~~17435
nerzähler~~2644
▁Jungfrau~~10017
▁Everest~~6562
schnell~~2939
▁Portland~~11052
stimmt~~6731
▁sollen~~1198
▁Professor~~8380
▁Futter~~9684
▁heilig~~9026
isches~~4051
▁hingeg~~10320
struktion~~14238
▁Course~~8198
▁geschah~~1132
▁50-~~13070
▁hingeh~~4482
▁verschaffen~~1096
▁behandelbar~~15597
▁fixiert~~9201
ynagog~~16664
▁verzweifelt~~6014
Sache~~13697
▁Kalzium~~13224
▁Philosophie~~2666
▁entsetzt~~9850
▁gewisser~~4431
cycling~~15346
▁Everglades~~18469
▁elegant~~2996
▁aggressive~~6695
▁Senegal~~15362
▁stereo~~14630
▁fossil~~4966
▁Absicht~~3462
Stick~~13168
▁Asteroiden~~14313
▁Synthese~~14602
▁gewähr~~8061
▁Islam~~15562
▁andere~~305
▁gesehen~~84
▁Verschiebung~~11304
▁Front~~8997
▁Textnachricht~~15770
achse~~545
avian~~17443
▁Starbucks~~13765
▁Herde~~11847
▁passt~~4171
▁Geparden~~17444
▁symbol~~18056
steigerung~~14195
▁offenbart~~11601
▁Malerei~~8457
▁passe~~7299
hofft~~6430
▁Franzose~~14216
▁frische~~6307
eit~~3556
▁hinunter~~4713
▁3-~~8541
▁regional~~5168
bereiten~~5754
▁3.~~8922
▁geek~~17783
▁35~~2003
▁34~~3142
▁37~~7225
▁36~~5566
▁31~~14516
▁30~~2757
▁33~~13868
hintergrund~~2032
▁Salat~~12679
▁Trek~~17611
▁vermeintlich~~10191
▁Pyramide~~12651
▁39~~15640
▁Drittel~~3618
▁Serious~~10524
ein~~916
▁Fürsorge~~14189
Sharing~~14025
▁baby~~11314
ströme~~7214
schwingt~~14902
suppe~~4842
▁weiß~~366
metric~~14840
▁Adipositas~~17851
▁Blair~~15748
▁Anziehung~~14556
▁sh~~15337
▁folgende~~3593
strömt~~843
bias~~17627
▁loswerde~~9391
▁Para~~11030
▁herauszu~~1639
▁hängen~~8219
▁Versuche~~6046
▁Automatisierung~~16932
Israel~~4574
▁Darbietung~~14251
▁Impfung~~8225
litz~~6548
media~~17113
Prinzip~~10295
▁sw~~18454
food~~12638
transplantation~~15014
Charm~~2474
▁null~~11429
tür~~7310
▁triff~~571
▁betäubt~~14877
▁lesbisch~~10986
▁kleb~~8724
bedarf~~5667
Č~~18546
▁Poly~~4754
▁bestmögliche~~8197
iful~~10409
ć~~18246
▁setzen~~2268
▁Branson~~16172
L~~2626
stündige~~15478
▁Franc~~16555
gefordert~~2069
▁Pole~~2087
▁reist~~5325
▁Wolken~~8515
tradition~~14184
▁vorhersehbar~~3393
▁hineinsteck~~15623
wählen~~11197
▁Bonnie~~16055
theater~~9490
ī~~18473
▁Köpfe~~701
▁involviert~~6025
▁blu~~13215
▁kompliziert~~2507
▁Essenz~~11572
▁bli~~8988
▁Magen~~4795
▁Firewall~~14986
▁Pluto~~15137
▁atmospher~~17664
▁bla~~11146
▁punct~~10108
cca~~16959
lösung~~6939
üsse~~10186
▁schliess~~7519
▁Lindbergh~~15316
▁Maya~~16385
▁Schrödinger~~12442
▁Gangesgavial~~18153
▁effektivste~~13187
Service~~16914
▁Dunkel~~5551
▁gesagt~~222
bieten~~3877
▁coloniz~~18532
▁verschlimmern~~16111
▁Monarchie~~16921
▁Twitter~~3857
▁Dokument~~8837
▁pre~~8714
▁Mem~~14612
▁pro~~624
▁Cyborg~~16580
▁Schmuck~~9356
speed~~17561
▁Bengal~~18022
▁Sushi~~10527
▁mechanisch~~15404
▁Priorität~~14667
▁griff~~6739
▁offer~~15510
▁wesentliche~~1493
euros~~17615
▁kombiniere~~9652
▁Ji~~12598
Analyse~~16347
▁propriet~~18200
▁Stärke~~2256
▁schmecken~~9649
▁kurz~~1580
▁Ehefrau~~6552
▁einschließ~~14146
Technik~~10090
▁heterosexuell~~14055
invasive~~14579
▁offen~~5493
▁drücken~~440
▁dünn~~8806
▁Spaghetti~~15146
ami~~13045
▁wage~~2290
▁Arbeitskräfte~~10428
amo~~15447
▁Doug~~8949
read~~5037
▁Sibirien~~12269
giebig~~2716
allererst~~8328
▁aufgenommen~~4237
▁Petrischale~~13434
▁chinesisch~~13713
▁Argumente~~10103
amp~~3771
▁Autobahn~~7260
▁Kühe~~5175
▁Synchroni~~12145
▁auto~~1289
▁fish~~16118
dienst~~9564
▁Christi~~12538
▁grave~~17483
▁situations~~14950
▁Inneren~~7901
▁miterlebt~~6755
▁Bandura~~17591
▁Bühne~~3218
▁Tage~~2538
▁Phase~~8966
t~~118
▁CDC~~14075
▁Tribu~~15225
pflege~~3225
▁furchtbare~~10226
▁Bestäuber~~11515
Diagramm~~16791
▁Maeda~~12762
▁Kolonie~~280
fäng~~7252
▁sand~~6967
▁Leicht~~14548
▁Supermärkte~~12693
schiedenheit~~10884
▁Asperger~~13016
▁sank~~12253
Mart~~12015
▁verschlimmert~~15020
▁Gemein~~5584
▁dort~~347
Erlebnis~~4307
räumen~~3334
gerissen~~3414
▁Seth~~15953
▁mul~~17422
▁Gro~~15494
freiheit~~10293
▁Barbie~~16878
▁fettleibig~~4977
lassung~~8166
▁Zeitpunkt~~5024
▁Gra~~8947
▁Seide~~13935
zogen~~9966
▁Lago~~17185
▁außerirdische~~7694
▁flow~~18256
Alphabetisierung~~10973
▁else~~17412
Interface~~16144
▁Lage~~1048
willig~~5333
▁Begrenzung~~7968
▁Detektor~~9897
felt~~12102
▁weitgehend~~12914
▁verloren~~1227
▁dream~~18405
▁Fassade~~13607
ilhouette~~14596
habt~~3366
▁Reptilien~~9176
lvani~~10207
▁Zukunft~~1113
▁zugrunde~~2123
fragen~~8134
▁Vorstand~~10358
artig~~8866
raum~~357
▁Ecke~~6102
▁bewerte~~8285
▁Labor~~515
▁Penis~~14983
gründung~~12197
▁Orten~~4387
▁Tennis~~7954
▁jede~~1790
angriff~~12343
▁1947~~12291
▁bewohnt~~808
▁Geburts~~1444
▁Brahm~~18046
▁Diaman~~6546
▁versorgt~~2962
▁Steckdose~~9215
Computerprogramm~~14711
▁entstehen~~4845
berweisung~~17426
▁Ingenieur~~7528
▁innovativ~~1277
▁getötet~~4894
▁Avelile~~17393
▁done~~18224
▁Jeff~~12942
shaw~~14497
▁McDonald~~13714
▁merkwürdige~~14851
▁name~~12874
▁Zweig~~8668
▁Urin~~9181
▁Ritz~~12849
▁Expedition~~8002
▁simpler~~18271
Store~~16005
▁beschaffen~~6106
log~~7126
▁sterile~~14619
▁definieren~~1039
loh~~14752
beruf~~15428
lon~~6367
hertz~~9488
▁Wildnis~~4872
▁Flo~~12541
los~~992
lop~~9441
▁bewarb~~16449
▁sprint~~7099
low~~15758
lot~~8793
ographisch~~15210
▁kratz~~797
▁Ger~~7462
▁bedeutendste~~8479
omfort~~6946
▁Frieden~~4641
▁Gates~~6097
rechnet~~12609
▁Trends~~10929
▁Solidar~~13988
▁soziale~~1057
▁wirtschaftliche~~2102
▁Gewehr~~1032
J~~8038
▁tropische~~11545
▁Trinkwasser~~9061
▁Hütte~~12604
▁Terminal~~13619
▁yea~~4335
▁würde~~860
rechnen~~12228
▁gest~~9240
▁vorbereiten~~13771
▁Director~~14359
▁empfinde~~7748
hirn~~1260
▁Ehepartner~~11613
▁Kühl~~11995
▁finanzier~~11672
▁Düngemittel~~16106
zentr~~5002
▁Cliff~~17151
▁finanziell~~9954
▁Schokolade~~6547
▁pflück~~16309
Nobelpreisträger~~11161
▁Olympische~~13825
▁Command~~18316
▁Solarzelle~~13426
▁Händler~~6877
nerv~~10514
▁McKi~~17284
▁Kapitän~~4647
▁taucht~~4571
▁kleiner~~372
▁Grand~~10371
▁comics~~14863
oulder~~16851
▁meiste~~186
▁Sandel~~14791
▁Herzschlag~~9002
▁elementare~~8305
▁Union~~9114
▁Begründung~~13322
▁amateur~~11595
sorgt~~10317
▁Schädigung~~7522
▁DMCA~~10283
▁Mitgefühl~~4598
▁Stillstand~~5802
▁funktional~~10316
polar~~15256
▁Burger~~13715
▁doodl~~18024
▁pack~~13428
▁Katastrophen~~7502
▁käme~~5731
drücken~~4177
▁teilhabe~~12298
sekunde~~9233
▁Gäste~~13333
▁skat~~17671
▁Holzfäller~~16688
▁Verlauf~~5247
▁Kehr~~14347
▁Güter~~10238
▁Befehl~~6439
▁Sensoren~~525
▁schwimmen~~4765
philosoph~~12669
▁Bosnien~~10982
▁anfertige~~15350
zettel~~7255
uinea~~12191
quisition~~16885
▁regne~~11735
▁trug~~6517
▁Kasparo~~17728
▁Textur~~11523
▁Krawatte~~11652
▁Spiegelneuronen~~16869
gestrichen~~3368
▁örtliche~~8765
▁winter~~17385
konzept~~5195
▁bereu~~15637
▁maximier~~10856
▁Höhlenmalerei~~2639
▁zustande~~5978
▁Lava~~14644
▁Genetik~~9659
missbrauch~~16310
▁adapt~~13438
▁vergeude~~14405
▁Bindung~~9101
▁Fläche~~8753
erkeley~~5242
▁unruhig~~2697
▁drum~~16502
▁Rohstoff~~6809
▁Ballon~~13472
leite~~3507
▁Terminator~~16030
▁Schraub~~3438
Day~~18264
getränk~~4728
▁Westeuropa~~7337
▁Meeresgrund~~599
▁verspreche~~6936
▁schaute~~7363
▁Men~~10042
▁Korallen~~5603
▁Mel~~12356
▁kalte~~7625
▁begreife~~3392
▁versteckt~~3382
▁poop~~18417
▁Vi~~2738
▁verfügbar~~7469
liehen~~9519
frontal~~17938
very~~13597
▁schrieb~~2321
▁Va~~8423
fährt~~7446
▁versu~~13695
verb~~7990
▁Wall~~10213
▁Krokodil~~15675
▁Chance~~1535
▁Gulf~~18583
▁schmeckt~~8113
izz~~15803
▁Geldwäsche~~18082
▁evolv~~15885
▁arbeiten~~1217
▁leistet~~10659
▁trotzde~~2388
▁Artenvielf~~9639
▁VC~~17996
▁Stra~~9529
manager~~16533
oberfläche~~3923
katastrophe~~15500
▁Wesen~~255
▁Grammatik~~7790
▁vereinfachen~~8752
-2~~13682
▁arbeitet~~4137
kette~~12665
holfen~~4678
▁leisten~~1789
pul~~5330
▁zerstört~~4882
ausbrüche~~171
▁Jüngste~~10208
▁metropolitan~~14102
▁integrat~~18131
▁Capital~~16147
▁Kunstwerk~~8448
▁zerstöre~~14798
platten~~13488
atory~~17956
▁Geste~~14491
▁Kate~~7115
▁voran~~9196
Patient~~15008
▁Notiz~~6662
infiziert~~14056
▁grob~~3017
▁einfach~~935
▁Jarrett~~18166
▁Nachhilfe~~7230
onne~~16271
▁think~~18588
▁Einblick~~2288
rostitution~~16101
▁technology~~16724
▁völlig~~930
▁verkörpert~~12605
übertragung~~4148
▁Mathematik~~2155
▁Hummel~~15093
▁unterteile~~13683
invasiv~~16952
▁Stickstoff~~15156
▁neutrino~~18447
▁Breivik~~17766
▁Hummer~~16804
▁unterteilt~~11747
▁vorherseh~~3072
▁Bereitschaft~~16345
▁10.000~~4516
gged~~15519
weile~~4410
▁ausgestattet~~7927
▁verboten~~6534
handschuh~~17263
▁repariert~~7831
▁Flug~~2298
▁ehren~~9428
▁radio~~9853
angebot~~11528
▁ADHS~~13017
▁Dewey~~17583
▁Flur~~11438
amount~~5539
▁Säugetier~~9661
▁Flut~~2928
▁Box~~7834
akademi~~6317
▁existiert~~240
▁erfuhr~~6663
altech~~13883
Beziehung~~6205
▁griechische~~4064
▁ablehnen~~10863
▁kollabieren~~14011
▁fortschrittlich~~12626
▁pin~~17495
▁beachtet~~11974
▁wiedererkenn~~9392
halle~~10604
▁beachten~~4751
▁Gladwell~~9884
▁Kuwait~~15646
▁Schwa~~4708
▁besetzt~~15224
ressourcen~~5690
zunutze~~12893
▁Madagaskar~~12506
hren~~5985
▁kraftvolle~~6485
▁release~~18149
▁arktische~~14006
▁Hol~~512
▁psychische~~15142
▁Liste~~1590
▁lernen~~971
▁User~~15360
▁remix~~10246
▁community~~18288
orporation~~4980
▁veröffentlichte~~2316
▁fund~~15392
▁erwähnte~~7520
gebiete~~5761
▁Appeti~~5028
▁riechen~~5110
▁kooperieren~~8703
▁begriffen~~10685
▁Ausweg~~13199
▁normal~~674
▁Gebet~~9029
▁nenne~~5011
▁Verbrechen~~1259
▁Mandelbrot~~16627
▁Schlaf~~2823
▁Tour~~5328
▁Annäherung~~8069
▁Arme~~2567
▁Geisel~~6173
▁erschwert~~5291
▁verpflichtet~~13110
▁wärmer~~14280
▁ausdrückt~~13198
▁Diskriminierung~~11935
▁Thunfisch~~17047
▁begleiten~~13808
▁ungarische~~16052
▁747~~15849
▁Migration~~2031
▁Prophezeiung~~15299
▁steigert~~11459
▁Mediterrane~~14916
▁Adrenalin~~7263
▁Melodie~~3924
▁Reihe~~878
▁Rica~~5707
SS~~8605
▁character~~17459
▁Mikro~~353
▁Far~~15491
▁Entbindung~~13309
ST~~16209
▁Wirksamkeit~~14839
archiv~~2695
▁Hob~~7231
▁lack~~18004
SB~~16884
bevölkerung~~7421
▁Eindruck~~5639
SE~~16761
erala~~12384
▁Befriedig~~7088
▁beneide~~5537
▁akustische~~4058
▁comedy~~18326
▁Niels~~16840
▁Intervention~~13001
▁betrachtet~~4145
▁emergent~~15699
olumineszierende~~14648
zwingen~~11941
▁betrachten~~1904
▁Lösch~~17358
▁Mücken~~11540
▁Betracht~~11098
▁Schätz~~5747
hhh~~12784
▁Rwanda~~17634
▁Major~~17148
▁Anspruch~~8195
▁Gerade~~13332
▁Rick~~14434
▁realistisch~~10784
▁Elektro~~12444
▁Fragen~~2134
▁Low~~12653
▁Lord~~2821
▁redesign~~18368
▁verlangsam~~15385
▁Bestechung~~13640
▁gefesselt~~14390
▁Atomkraft~~12628
▁Programme~~4466
▁Hey~~6198
ft~~1282
▁verschiedene~~839
rude~~7802
▁Cyberkriminelle~~17279
▁Her~~3939
▁2006~~2690
olecular~~9907
▁2000~~1996
▁2001~~3715
▁2002~~5223
plikat~~9694
▁Stanford~~5379
tries~~18012
▁Freitag~~5072
▁schlecht~~1049
fe~~5058
ff~~2840
geschoben~~15754
fi~~541
▁Großstadt~~12196
▁mitmachen~~11182
▁misshandelt~~16398
a~~1007
trazin~~9034
▁Umgebung~~429
▁Who~~11674
berschrift~~11443
stapel~~7237
▁Graham~~11623
▁Gefecht~~6470
ï~~17287
▁Lob~~2886
▁13~~824
▁psychotherap~~5502
▁11~~2326
▁10~~1249
▁17~~4296
▁16~~5401
▁15~~2335
▁Wunder~~2604
▁19~~4957
▁18~~2709
▁Lithium~~15021
Film~~10245
keit~~1903
▁phone~~18415
▁einig~~9127
help~~18402
▁brachten~~8704
▁erschöpf~~8950
▁universit~~15969
Kopf~~14307
▁pyramid~~16215
▁have~~17014
▁Horn~~13205
örung~~15444
erox~~15040
▁Pilze~~12207
helm~~11583
hell~~13582
▁zerriss~~3542
▁Tausende~~2895
▁Agra~~16853
▁singen~~1034
▁Charakter~~4069
systeme~~5787
Schrift~~14469
▁wichtig~~743
▁Extremismus~~16667
▁Glaube~~11041
▁Verbot~~9121
▁Anwender~~15052
▁verblüffende~~9971
ranscript~~20
▁Evaluation~~12370
▁Pythagor~~14940
▁eloquent~~15547
▁Natur~~1356
▁Bernard~~17294
▁markiert~~1929
▁unvermeidlich~~10237
▁afrikanische~~6839
▁under~~16386
▁related~~17822
▁Wert~~1165
▁Browser~~8303
▁einzig~~12787
muskel~~6489
▁Kavita~~10927
▁übereinstimmen~~8321
cer~~11025
▁Ampel~~11376
▁Werk~~8480
▁them~~16923
grafie~~13928
▁Werf~~13099
▁Karikatur~~14618
▁glaubwürdig~~6456
verständnis~~7397
tausend~~2892
▁Tests~~14120
▁Beerdigung~~6155
▁interessierte~~3435
▁staatliche~~9916
finanzierung~~13081
▁konkurrieren~~9951
▁Meerestiere~~17684
iff~~3139
▁Cla~~14443
▁Teilchen~~12147
zugrundeliegende~~7047
▁little~~18225
▁Erklärung~~4488
▁chronische~~2555
▁Kilowatt~~15847
▁räumliche~~10713
ifi~~13229
▁lohnt~~3528
î~~18052
▁Spar~~13072
▁Gesetze~~5520
▁globalisierte~~13996
▁anschaulich~~8298
▁Städten~~4948
▁klare~~2201
▁vielseitig~~14538
fächer~~11851
▁Galois~~17973
▁Studio~~7071
▁überein~~12119
▁traditionell~~2044
Engine~~12727
witzer~~18391
▁Merkmale~~1402
▁her~~2430
▁errechne~~2398
▁versa~~14463
▁Tief~~12664
▁Umstände~~4233
▁Stalin~~13028
▁zusammenleb~~11148
▁zusammengefasst~~11940
▁Lamanite~~18450
7~~4299
▁gefüllt~~3331
▁heb~~6297
▁Fragment~~12016
▁fokussiert~~1568
▁Aust~~3031
▁list~~10466
▁Großzügig~~15186
▁Gedenk~~4590
▁Foie~~17872
▁CFO~~11088
▁who~~17646
▁Dakota~~11057
▁überschüssige~~15662
BC~~11461
▁verschafft~~13540
▁ausgestellt~~7024
▁gelebt~~7670
erhört~~16227
▁Zunahme~~7172
▁strukturelle~~11081
▁why~~9376
▁Beverl~~16198
ase~~9084
alisiert~~2713
▁Sonne~~810
▁streckt~~7957
pur~~4710
nähe~~4759
▁Pur~~3013
▁westliche~~2846
▁Dai~~14387
▁Dan~~3377
▁benutzte~~10552
▁Dam~~7352
▁Vietnamese~~10584
▁sc~~11582
▁Daf~~13770
▁Dad~~13135
▁Filmemacher~~3018
technische~~13795
▁Day~~4823
▁transplantier~~10067
tscheidungen~~7036
reedom~~16703
▁spinn~~14042
▁Dar~~6759
▁Das~~1330
▁Dap~~8148
▁favor~~17295
▁Verbrecher~~13388
▁Army~~6274
▁temporäre~~10554
▁Rückseite~~5113
▁Kreativ~~10395
▁Wilson~~5227
▁Pulver~~15097
▁Crack~~12481
▁Ezra~~16870
▁verdienen~~6016
▁Belüftung~~16966
fähr~~3179
▁Kontroverse~~12542
▁Serb~~10983
▁wander~~15641
▁Jahr~~923
▁gelassen~~2196
membran~~16060
▁Steve~~998
▁Garantie~~14929
▁dazugehör~~16080
▁salt~~16117
villa~~16549
räume~~4927
▁coach~~17523
▁komponiert~~4126
stürzt~~8917
▁verschluck~~16480
▁reduzieren~~7526
▁gesamte~~2180
natürliche~~12642
▁Award~~15654
räumt~~7249
▁Stämme~~8730
station~~3399
▁Pfeil~~9237
▁Knopf~~14049
▁Colombia~~17907
▁Gesichter~~2769
▁herunter~~4036
▁Ursprung~~4944
ncy~~13944
▁vermittelt~~2284
▁herumzu~~9821
pecial~~17338
▁Kuh~~9706
▁Flöten~~10638
▁Str~~7316
▁Lager~~7012
schwäche~~12992
läst~~761
lliance~~17039
▁skizziert~~10762
▁Null~~4016
▁1960~~11845
therapie~~9106
▁Transportmittel~~5235
▁vermitteln~~4061
▁abhol~~10796
ste~~1077
▁Institute~~10225
▁Personen~~2428
sta~~5411
▁Karbon~~13899
▁finanziert~~8119
▁trauern~~15831
▁Old~~12211
▁interessante~~3724
einfluss~~2652
▁Larry~~10187
Gemeinschaft~~8332
▁Asia~~9714
Wissenschaft~~10877
regulierung~~14577
▁ya~~18073
üchtig~~6553
▁wiederverwende~~10561
▁education~~18500
▁Sky~~13460
▁Rede~~4020
▁erwartet~~6216
▁Bedenk~~14375
▁Starck~~7717
ious~~14775
organe~~14160
▁nachzu~~5695
▁klettern~~8941
▁Skelettmuskel~~17834
▁Hilfsmittel~~11702
kara~~14421
▁vorhersagen~~14625
▁Mammut~~9597
▁Leitung~~7854
▁erwarten~~2153
▁Entwurf~~7007
▁Inseln~~14835
▁erhöh~~7592
Engineering~~15269
▁Terror~~4595
lig~~8080
lib~~17509
lic~~8435
▁können~~669
▁unterstützen~~618
▁reagiert~~2025
▁entdeckte~~4652
▁Friedhof~~2262
lit~~11446
liv~~1680
dichte~~6785
▁ideal~~5243
▁sparen~~5900
siedlung~~14103
▁fortzu~~5807
▁Häuser~~9302
▁Druck~~620
▁reagiere~~3655
▁Chirurgie~~14401
▁Offenhe~~1725
▁Beitrag~~7075
▁mothers~~14112
haltung~~1400
▁Sensibilität~~13835
sektor~~7045
▁Reflektion~~16672
kan~~559
kam~~8672
▁Zaubertrick~~12753
▁Scham~~10867
▁Tulle~~12785
kau~~7808
▁Rahmen~~3125
▁dar~~898
▁das~~7
▁UCLA~~15135
▁Fülle~~5645
▁Orientierung~~14959
▁biograph~~18592
▁mittel~~442
▁Weltall~~8844
▁Agrar~~12647
clear~~18144
▁Stereotyp~~13680
▁Durchfall~~14395
▁geliebt~~4118
▁Polic~~13925
▁UNO~~16452
▁nachdenk~~117
▁course~~18101
▁feststellte~~11373
▁warf~~7650
▁Herkunft~~10645
▁patent~~15036
▁pendeln~~10583
▁Stimme~~3908
▁Flüchtling~~15834
▁Mangroven~~17466
▁Wirbelsäule~~10667
▁gespielt~~1366
▁Nordpol~~7608
anzeige~~15581
▁Journal~~9947
▁fantasie~~15273
▁eingefangen~~11371
kontakt~~8127
▁angewandt~~2118
aufwand~~13558
▁Teile~~264
▁Interface~~3941
dimension~~12107
▁Stu~~14130
verfolgung~~17115
▁175~~11987
▁erwacht~~10337
▁Sand~~7910
▁Dorf~~2702
▁widerleg~~15450
▁Ursprünge~~12272
▁danke~~997
verse~~12004
▁symptom~~5489
▁allerding~~3583
▁fit~~10791
zerstörerische~~15443
▁Cortisol~~17245
▁Graph~~8371
einkommen~~5729
abend~~10782
▁Stapel~~12130
▁verstärkt~~1485
▁17.~~5031
▁eigentlich~~3137
szene~~2618
genutzt~~10052
▁Testosteron~~9081
Aktivist~~13979
▁erschreckt~~7127
king~~4157
▁kau~~4750
▁Mahlzeit~~10123
▁entschloss~~8670
▁unterschiedlich~~263
▁Illustration~~7536
▁kam~~2722
▁Irrtum~~11071
▁vor~~436
Schaltkreis~~13410
▁Mechanik~~14850
▁lebendig~~25
▁Blinden~~11700
▁fiel~~5405
▁Nuklear~~9893
▁SP~~8275
Freak~~13754
▁Kong~~12872
konzert~~15398
▁widerspiegel~~11101
aufwändig~~9331
▁Allianz~~16666
▁Feindseligkeit~~11426
▁kompakt~~4994
▁Anne~~2983
▁DDT~~9151
▁stellte~~3614
▁annehmen~~3538
▁publiziert~~14345
x~~698
▁feindliche~~11638
konzern~~6609
Me~~10097
▁Zeichen~~3243
▁menu~~18580
▁Boote~~12788
▁films~~18102
▁Abbildung~~7821
plausible~~18388
culture~~15440
▁Sherman~~17174
▁Cost~~5706
schwimmen~~7665
▁Luxus~~12945
Schlucht~~12212
▁Ola~~17732
▁ausgehen~~5077
Lösung~~17492
▁Fenster~~397
kunft~~8727
▁Apathie~~14219
opper~~9990
wirtschaft~~4881
Park~~13569
▁Name~~4116
▁Ackerbau~~11807
▁vermehrt~~12710
▁Hillis~~16726
▁Schwellenländer~~6989
▁Würde~~8566
▁über~~6
▁Tätigkeit~~2528
▁Atomenergie~~16132
folklore~~18567
▁interaktiv~~12763
▁Sonnenunterg~~13258
▁Tu~~8286
▁allein~~1695
Menü~~13720
▁symmetr~~9374
▁Vorder~~8921
▁Vorsicht~~5777
ison~~2781
▁Ta~~3922
wefelwasserstoff~~17423
▁America~~14755
▁geehrt~~14172
▁wilde~~13660
lehre~~11835
▁Wired~~12731
▁Spec~~10848
▁To~~4247
▁demoralisier~~12487
▁Kha~~9579
▁entwickle~~12715
verzerren~~11108
▁TV~~9584
▁exotische~~8461
glied~~10731
▁march~~17668
hbab~~17286
▁zeichnet~~4195
▁Matz~~3376
▁illustrier~~13616
schleife~~14980
▁zeichnen~~6711
▁speichern~~10211
▁Wonder~~14845
▁TM~~17083
▁Geschäftsleute~~13637
weh~~8926
wear~~18223
▁sonnige~~11734
▁implantier~~13419
▁Organspende~~15933
währ~~6077
▁neutral~~13968
▁Nation~~1078
▁Buddhist~~15303
▁on~~14461
▁Solomon~~18088
▁Garden~~14021
▁Karajan~~18118
▁Congress~~13365
▁Tötung~~18148
▁dick~~8821
▁Physik~~10891
▁Berufsleben~~11067
atops~~17157
wunde~~7820
eira~~17809
▁Abläufe~~13335
▁Massac~~9601
▁architektonisch~~14436
▁israelische~~4505
▁sucht~~232
▁Jackson~~11654
▁Bakterien~~592
▁Origami~~14729
▁rest~~8496
▁Kamel~~9650
▁Mutter~~2633
stamm~~12223
gebühr~~7240
damm~~7428
gestalt~~3948
Theorie~~10893
beispiel~~12841
▁beach~~9518
Women~~16357
▁laufe~~11611
▁Anästhesie~~14400
▁Joshua~~11345
▁Drohnen~~17454
durchschnittlich~~126
bestand~~4004
ada~~13688
▁antiqu~~16619
N~~3519
▁kämpft~~1008
▁erstaunliche~~7882
heute~~826
▁Cassini~~8636
▁verband~~9268
▁Medikamenten~~5491
▁Relevanz~~11410
▁verlockend~~11210
richten~~3108
▁werde~~1338
iya~~10616
▁schuldig~~1472
▁bus~~16109
Taste~~9309
▁Verkehrsstau~~17068
▁Kühlschrank~~3610
▁raffiniert~~16136
▁Stammes~~11404
▁zurückkehren~~6340
▁bug~~16663
▁springt~~6310
▁Afghan~~10965
shift~~17680
▁lächerlich~~7436
▁überarbeitet~~6038
richter~~6115
▁Diktator~~11126
pack~~3602
▁Alan~~13190
aufnahmen~~9959
stunde~~6960
bewegen~~10730
agte~~11413
▁Silicon~~9299
Gleichung~~12443
▁Ausblick~~12474
▁Frustration~~5999
▁Marshall~~9536
▁Enthusias~~6086
▁linguist~~15774
▁Stunden~~3420
veranstaltung~~4347
RCA~~15757
▁Internet~~1320
▁Apparat~~9820
steht~~8992
▁norm~~3675
▁reproduzieren~~10329
▁Arian~~17237
▁Imperi~~11332
▁Feier~~10781
▁altruist~~11855
▁visueller~~11984
▁Temperatur~~696
▁fortpflanz~~16341
▁biomedizinische~~16654
▁vergnüg~~17063
▁geduldig~~15489
einhalb~~7503
▁willkürlich~~10820
▁Empfehlung~~16329
▁betonen~~13065
Preis~~9423
▁Leah~~10987
▁rum~~6187
▁jüdische~~11290
▁beschweren~~14322
▁werfen~~6971
▁Blog~~10512
▁Left~~11152
▁personal~~15277
▁irgendeine~~4092
hepherd~~14783
▁Woman~~15472
▁Wil~~8833
Gesundheit~~17070
▁komm~~1572
▁ermutigen~~7801
▁1.000~~11690
▁Motive~~11876
▁Rose~~7179
▁pandemische~~5973
▁Rosi~~16022
▁lächeln~~12173
▁Ross~~4319
katze~~16392
▁Sache~~2571
▁bediene~~206
lin~~11264
Sequenzierung~~5852
▁verkauft~~4919
▁frustrierend~~10666
▁Auszeichnung~~12160
iert~~2056
▁gebrochen~~6336
▁bürgerliche~~14099
Teilchen~~16685
▁angreif~~11334
▁Krebs~~6682
▁eingestellt~~3847
▁Fußgänger~~15660
Internet~~17562
▁weinte~~4542
▁Marke~~3093
sfähigkeit~~1274
platin~~16496
ualifizier~~2127
▁Investoren~~8879
▁disruptive~~18076
▁Regierung~~2783
▁wohlhabend~~12591
märkte~~3718
▁Suchergebnisse~~17022
$~~12949
▁Weibchen~~710
▁zusätzliche~~3631
▁zöger~~7427
mütter~~2052
▁Dennett~~14761
▁magazine~~18443
▁here~~18146
▁jahrelang~~10001
vorgang~~2564
▁lief~~6048
▁verstopft~~17027
▁Jerry~~14573
Performan~~18053
ight~~9603
▁Brücke~~8109
stein~~584
▁Unterkünfte~~10438
▁Fahrzeug~~11427
▁Heather~~14266
▁Gentlem~~15902
gelegenheit~~9976
▁Placebo~~15602
▁Drähte~~7914
game~~16086
▁segel~~14445
▁gesprochen~~874
▁Teszler~~18432
▁Beobachter~~12104
▁liegt~~2257
▁Feuerwehr~~13829
▁führende~~9094
▁Allen~~14273
▁Ruhe~~7113
ruft~~1015
▁erotische~~17035
▁öffnete~~6202
▁Velcro~~17353
▁träumen~~8832
▁Original~~10330
▁statement~~16558
▁schwebt~~4271
▁Schul~~1253
▁7.~~8961
▁Schub~~7731
▁Big~~7837
▁79~~17502
▁78~~8872
▁engagier~~3068
bestimmt~~15701
▁Nino~~16509
▁japanische~~2160
▁Arena~~4231
▁71~~17532
▁70~~557
▁Folie~~5155
▁Schwärme~~10351
▁75~~120
▁74~~1841
▁77~~16742
▁76~~7343
▁Gamma~~9898
bersetzung~~6801
älen~~3449
journalism~~17780
▁schockierend~~9040
seitige~~11399
some~~13892
▁hundert~~344
▁Authorit~~18085
▁klar~~1126
economic~~18493
▁klau~~15938
▁Bedauern~~9229
▁symbolisch~~7632
▁Krücke~~6011
schuldet~~10442
▁Medicine~~17660
▁montiert~~9815
▁Kreuzung~~6091
▁schwul~~10924
ulosi~~17531
▁Michel~~11581
▁Hirnregion~~12422
▁mini~~17965
▁geladen~~6293
▁auslösen~~8399
▁Känguru~~15784
schön~~10008
▁Deutschland~~1715
▁Tyrann~~10490
▁teenager~~18453
▁temporal~~13164
▁Kernkraft~~13796
▁scanne~~10921
läd~~1984
▁Baseball~~6698
werkzeug~~5154
nthia~~16722
▁Düsen~~8035
schrieb~~10288
straße~~5260
▁Detail~~1957
▁gesch~~2529
▁Magie~~12881
▁Vorführung~~3104
▁Pfeif~~3115
▁gelernt~~1376
rum~~1329
acht~~6475
▁Montessori~~17188
▁Pamel~~15955
ummer~~8732
sten~~40
▁Familienplanung~~12387
ster~~7209
step~~17886
ummel~~3506
▁economy~~18584
rus~~6655
▁befreundet~~12560
▁semi~~15055
▁merkte~~6242
▁Collect~~13551
shine~~17631
führer~~1619
▁Korridor~~12330
Scan~~8476
▁Anreize~~3549
▁Eco~~10521
▁Nun~~7562
▁no~~5651
▁Zambia~~18291
▁Konzerne~~14152
▁geistige~~4002
▁Enttäuschung~~9224
▁Sprech~~13172
▁landesweit~~12670
▁Zirkus~~16872
▁handelte~~5269
▁geschmolzene~~7648
▁verheerend~~11069
▁Golf~~9932
führen~~1874
▁Wohnort~~11447
▁resultiert~~14082
Wörterbücher~~13839
▁Lippen~~11720
▁Krümmung~~8775
ör~~6302
reife~~10951
▁KIPP~~15823
▁bezeichne~~9362
führ~~11973
öl~~4706
▁coole~~6028
▁Grund~~2255
▁Metric~~17515
öf~~8723
rollt~~14368
▁experimentelle~~2585
▁traurige~~1672
▁wurde~~1379
▁liebte~~6779
▁Frequenz~~4412
▁Massaker~~16091
▁gesammelt~~2463
▁Code~~2658
▁Ver~~325
▁Angewohnheit~~11307
▁benötigt~~4969
▁404~~16569
pionage~~10468
▁limb~~16668
▁Francis~~14333
▁verständlich~~7169
▁Luc~~10631
▁beinhaltet~~6126
▁benötige~~7669
▁Alexander~~11309
▁wack~~379
▁brows~~17481
▁wach~~8331
▁Jahres~~4502
▁Applau~~4108
▁Form~~2632
▁Bert~~14613
▁streich~~4056
erlangen~~2208
▁rechne~~10389
▁Palette~~16074
▁Material~~3265
▁Verwandten~~8557
nagnoris~~18037
▁Jahren~~891
▁rebound~~18439
nächst~~1705
▁tiefste~~390
▁hoffnungsvoll~~13104
zität~~12817
▁spürbar~~2856
▁Eigenschaft~~1351
▁spin~~18373
▁bang~~14905
zenario~~5323
ternis~~719
verdien~~15130
gerät~~8930
▁Himmels~~6179
▁Sünde~~11894
politik~~3719
▁befinde~~163
▁Meeres~~13
▁mask~~16501
▁Kopie~~10483
▁verärgert~~15400
▁mineral~~17118
▁kritisiert~~9848
▁nachhaltige~~2780
▁tödlich~~10154
▁indirekt~~3690
▁Brennstoff~~14410
▁Gesundheits~~6252
▁Skizze~~12273
metall~~11525
▁Bürgermeister~~9532
sharing~~17449
▁kritisiere~~11607
▁ausgestorben~~10655
▁Darwinian~~17887
▁zerbrochen~~11265
▁bereit~~1828
▁augenblicklich~~14588
▁Pleas~~17606
▁Architektur~~4218
TV~~14797
▁Arbeitsleben~~10770
sozial~~6823
▁Innovator~~9887
▁Have~~17540
▁Bord~~2454
▁Bulgari~~1002
▁Regulierung~~5465
transport~~14137
Alla~~16003
haft~~1353
▁Mönch~~11928
▁Knall~~4202
▁Brunnen~~13649
AA~~2423
▁Ferris~~16596
AC~~7889
▁vermutlich~~873
▁gestalten~~2175
▁schlechteste~~2089
▁verbrenn~~11543
▁kostenlos~~7329
rlei~~3484
wohl~~93
▁Pepsi~~17557
▁finde~~597
▁nun~~1805
▁reizvoll~~12152
rück~~4554
▁vorgefasste~~17512
▁nur~~239
▁Breite~~464
▁TEDTalk~~11159
ook~~9682
▁Diagramm~~7525
▁Jahrestag~~15867
▁Guardian~~14035
▁verlässt~~13253
▁gestaltet~~3915
▁Dutzend~~2461
▁Berührung~~3199
▁eigen~~2877
e~~127
▁stabile~~14210
▁umzu~~985
▁garantiere~~10476
▁Aero~~15196
▁Polizei~~11018
▁One~~14511
▁männliche~~6254
ähnlich~~13786
▁realisieren~~11079
▁Chinesisch~~6675
▁Heimat~~4807
▁garantiert~~10832
▁inakzeptab~~14165
▁Rettung~~8428
▁Multitasking~~14702
▁Raumsonde~~14829
▁Landminen~~12026
gu~~7789
gt~~569
▁Wunsch~~5632
▁Onkel~~10946
▁verstand~~4576
▁seiner~~764
▁seines~~2370
▁atmen~~5819
▁Joe~~12928
▁0.1~~16783
▁Vertrauen~~5593
▁atmet~~5824
rauben~~14181
ge~~1961
▁Mike~~7761
ga~~4463
▁mapping~~18125
▁diskutiert~~2694
▁Pinguin~~9589
▁Rand~~7655
▁NIH~~13454
affe~~9748
▁Facebook~~3858
gh~~7605
*~~17605
▁Zigarette~~8141
▁Komplexität~~10814
▁Universum~~7965
▁Five~~15865
▁Lifesaver~~18044
▁ABC~~17373
▁Bewahr~~4666
▁Vulkan~~170
lichkeit~~2650
▁doppelt~~3630
▁bereits~~554
▁Geschäft~~1100
▁Glocke~~12150
▁vergiss~~12511
▁Forbes~~14169
▁damit~~561
▁Phrase~~11449
▁überhaupt~~358
▁Supraleiter~~18210
▁got~~4286
▁Make~~11014
▁Speed~~7091
wave~~18601
▁teilweise~~3982
▁sowie~~5624
▁Studierende~~8182
▁schwierige~~3733
▁Lebensform~~877
▁herunterlade~~6056
partikel~~3322
▁Safeway~~17645
▁royal~~18116
▁Hewlett~~17917
▁schätzt~~1064
▁mesh~~18174
ziger~~3564
▁vier~~552
▁Techno~~12829
▁tiefgreifend~~2724
▁moralisch~~12120
stift~~3088
▁schätze~~7306
▁Freundin~~8562
▁Taliban~~6441
▁trivial~~17453
zi~~3572
verleih~~15423
▁Vater~~2748
▁Männer~~5160
ze~~444
▁Lebensraum~~738
Friedenstruppen~~2842
blitz~~2938
yntax~~12260
▁Löcher~~1268
▁Ostküste~~4455
▁Amt~~14984
▁Radiologe~~9834
gekündigt~~11243
zu~~4037
füllen~~8385
▁fragment~~2093
Kultur~~10195
roboter~~8037
▁Photoshop~~9656
▁exquisite~~17980
gemeißelt~~8407
▁wachsende~~3961
▁floh~~15735
▁150~~2727
cell~~4100
▁15.~~12410
▁15-~~1859
▁Mahlzeiten~~4905
▁2030~~15122
▁applaud~~11442
▁Streber~~13842
▁Modedesigner~~15081
▁Speer~~9286
;~~225
▁electric~~18503
▁director~~17317
▁übersehen~~6094
▁Piano~~5213
▁0,~~9063
▁ausgeführt~~12903
▁ernährt~~4909
▁vollkommen~~7930
▁Sozial~~1083
▁durchführte~~2457
ozi~~6666
rausch~~14930
▁absolute~~9547
▁Entwürfe~~9546
▁einführte~~5831
▁Cru~~16397
teppich~~5576
▁ernähre~~4932
papier~~3699
▁vermischt~~9404
▁Co~~6613
▁Food~~7258
▁170~~9543
stöß~~9420
▁Minnesota~~14473
nterwäsche~~11136
▁Vase~~12755
▁Fledermaus~~14953
▁Logik~~1825
▁anregt~~7777
▁erwiderte~~13040
▁Michael~~8735
stücke~~2648
▁Bible~~14615
▁glaub~~10011
▁Flüsse~~4712
▁puls~~12447
▁Dori~~15455
▁PRI~~14217
werten~~6424
wie~~4122
▁schaut~~4158
▁verdräng~~6751
▁globale~~1753
win~~13329
▁mehr~~1153
▁Taucher~~17137
▁anpassungsfähig~~11361
▁sehnt~~8559
jüng~~3011
▁floating~~17595
▁Brustkorb~~6289
wir~~278
uatsch~~10230
▁NGO~~12307
▁Intuition~~3707
▁Elegan~~12592
icular~~17940
▁schloss~~9558
▁Benki~~17333
▁Erdöl~~14000
▁student~~8217
▁Nase~~1051
▁Christian~~11627
▁anhört~~12740
▁simp~~15859
kunde~~11641
öte~~6445
▁zentral~~4999
▁Nash~~4252
stärke~~1496
▁drastisch~~2029
▁Artefakt~~13171
▁anzuschauen~~3276
▁Zorn~~10324
▁Experte~~4132
▁Field~~15481
▁Experti~~10895
▁instabil~~9807
gi~~1666
▁Zu~~4306
lteren~~14173
▁gross~~4433
▁Zo~~4836
medizin~~6758
▁Signatur~~12441
▁Prosper~~18389
▁zuhause~~5745
▁Projektion~~12883
ebene~~3268
▁Billion~~13079
▁amerikanische~~5225
▁schwierigste~~6098
▁Za~~10975
▁streiten~~13228
hatte~~3670
▁zufällig~~2353
▁Akku~~6465
▁gewöhnlich~~8790
▁tour~~11584
▁feststelle~~8728
lapse~~18352
▁interstellar~~16482
▁bemerkte~~2851
▁Schaltkreise~~13415
▁improvisiert~~12824
stäbchen~~10135
▁zoom~~11419
sicherheit~~6922
▁Jahrtausende~~2504
lebst~~15065
▁naheleg~~13090
eimer~~13611
▁Antidepressiva~~17543
▁Kognition~~1431
▁planet~~14314
Zahl~~17243
Vortrag~~13767
▁Platten~~5326
▁Kollege~~10043
▁Parikrma~~17388
▁Handlung~~4066
▁Böse~~10806
▁konkret~~13412
▁Entwickler~~11874
▁Hannah~~17799
▁Informatik~~8299
▁heftig~~8519
▁planen~~5162
▁taub~~11687
zeitig~~5620
▁sogar~~389
▁Technische~~10488
▁institutionelle~~15513
▁tauchen~~488
▁ferngesteuerte~~8027
▁Mannes~~6125
▁darunter~~8367
▁Bösewicht~~9565
▁Wohlbefinden~~1066
▁Unterhalt~~15261
▁Emmanuel~~17002
▁Türke~~10593
▁Datenbank~~11715
hafte~~6629
gemütlich~~7143
▁feminine~~4831
▁Autismus~~9050
HIN~~17579
fare~~17538
▁upgrade~~17617
▁Rover~~12276
▁capture~~18163
▁überall~~1358
▁nutze~~14452
▁supermassive~~17344
peace~~17011
▁unterbrechen~~5305
▁tief~~340
▁nutzt~~7147
▁Laufen~~1447
uelle~~534
▁agnostisch~~16678
▁stattfand~~8003
▁fesseln~~190
▁tax~~17901
▁relax~~17254
▁Zitronen~~17633
▁gerecht~~9380
▁tar~~17953
▁tap~~6685
▁shopp~~14799
▁ohne~~500
streifen~~10087
▁tat~~6335
▁tau~~3338
▁plant~~12467
▁Enthüllung~~11768
▁tragische~~5598
▁tan~~7212
▁plans~~13067
▁drift~~15522
kapital~~6841
▁Verbündete~~11036
▁historisch~~10567
▁Liberal~~14590
▁philosoph~~14544
fälle~~3986
▁stelle~~6230
▁Bundesregierung~~2026
ping~~10089
▁Mechanismus~~9766
▁ARES~~17753
▁hydrothermal~~532
▁body~~17485
▁Membran~~9132
▁bare~~16841
▁stellt~~917
▁Rohstoffe~~7055
nommen~~9437
▁begehren~~10918
▁spray~~18152
▁mund~~17567
▁math~~15832
▁Merk~~8641
▁Geist~~3952
▁influenza~~17105
▁billige~~13136
▁Tasche~~3512
▁Effect~~17339
▁selbe~~2309
▁mate~~15429
nonymous~~16395
▁fühlte~~6244
▁Merz~~17748
▁Erforschung~~11348
▁Levin~~14880
▁Kürze~~7894
▁Tony~~6110
▁note~~4358
▁chill~~17789
▁lä~~9573
▁Kraftstoff~~13774
▁kulturelle~~3101
Strahl~~16183
▁verlieh~~6829
▁verb~~6474
▁bewusst~~576
nützen~~3524
ically~~18081
▁ultra~~13444
▁Cor~~12675
▁verlieb~~12530
idio~~16860
▁unbequem~~8138
▁harmon~~17129
▁irgendjemand~~3856
▁Sufi~~16365
▁Coh~~13475
charakter~~4043
▁Con~~10281
▁Com~~6993
front~~13631
▁Selig~~15594
▁verlier~~6799
▁Ungewissheit~~14750
▁Atelier~~15946
▁Marathon~~10851
projekte~~4033
▁seit~~888
▁Taxi~~7311
rennen~~5918
▁Rosling~~12904
▁nomad~~11804
▁erarbeitet~~6883
▁fate~~18380
▁barbari~~11195
▁deutsche~~2043
▁Reputation~~15872
▁Desert~~17506
▁seid~~8572
▁Heilung~~5826
▁Parasiten~~11360
ironment~~16336
▁Leben~~8
▁Flüchtlinge~~10570
▁sein~~901
▁aufzubauen~~5961
▁Mario~~17371
▁Mehrheit~~5919
gegeben~~3169
▁Dasein~~10764
▁Captain~~12485
über~~5930
▁kommerziell~~9341
ergebnisse~~1939
verständlich~~113
▁active~~17816
▁TED~~14
designer~~4523
▁Oberschenkel~~6330
▁Einwanderer~~16082
▁Sargasso~~5640
ille~~3117
pfeil~~9234
▁Green~~10538
wartet~~9495
▁ökologisch~~7399
wandeln~~4098
▁stabil~~892
▁sinken~~1762
▁sammelte~~10939
▁TEDGlobal~~9800
werden~~1646
gepackt~~4078
▁Urheberrecht~~10236
▁schärf~~15565
▁langweilig~~6599
geld~~3626
▁schöner~~4264
▁Maßstäbe~~8658
▁formt~~2464
▁Hip~~4381
ogue~~15591
▁aktiviert~~5468
▁Grim~~10256
bilder~~2561
▁militari~~17021
▁verwendet~~1987
▁seismi~~16831
eck~~4067
ech~~3520
klima~~12249
▁verwenden~~1832
▁vereinfacht~~8996
▁Fungi~~17941
▁Aktiv~~1283
▁57~~10115
▁56~~12832
▁Erd~~611
▁54~~12323
▁53~~7638
▁52~~9528
▁50~~259
▁Chicken~~12694
swachstum~~8091
route~~15677
▁Achtsamkeit~~15613
▁Beschleunigung~~14704
etera~~13871
▁58~~8527
▁Rehabilitation~~8551
▁erkennt~~5728
▁Orleans~~4805
▁Kondome~~7323
▁5.~~8910
▁zustimmen~~9343
▁göttlich~~16665
▁architecture~~17815
▁hinterfragen~~3721
▁Räuber~~2946
▁Einfache~~8554
räum~~12414
▁go~~14304
scanning~~17741
▁ausmachen~~1843
▁generations~~16832
leitung~~6733
▁Reisen~~5267
▁Verkäufe~~6891
▁erhitzt~~14724
▁fällt~~8944
mah~~11129
treiben~~5759
Flasche~~8937
▁Themen~~2341
kolleg~~9178
▁einem~~350
▁einen~~286
Shirt~~10777
folge~~5920
management~~10354
Stadien~~4397
▁Klassenkamerad~~14135
▁ansteigen~~3445
▁gutes~~3617
üben~~3234
▁heck~~13217
▁theoretisch~~5546
▁Umfang~~7057
ubunt~~15668
free~~14732
▁Feminismus~~11039
▁jug~~17260
▁Norm~~5559
DUM~~18456
▁Zusammensetzung~~2109
slücke~~10647
minute~~16613
▁Nord~~4780
▁interessanter~~3730
▁interessantes~~9708
▁aufge~~4385
▁Parasit~~15819
liste~~7303
natural~~18392
▁manche~~1603
▁grundlegend~~7023
▁genetische~~1443
feind~~8054
▁schwächer~~2687
▁Produktions~~4671
▁erzählt~~2643
bei~~6316
▁Zucker~~665
städt~~11741
bel~~2642
▁parent~~18551
▁Wahlen~~11190
▁kennen~~342
▁Walfang~~17012
wirkung~~13264
▁Listen~~13923
▁3,3~~10627
▁erzähle~~3219
▁gesetzlich~~12662
▁3,5~~1863
ber~~2086
kurve~~8251
afrikanische~~7054
▁popp~~17239
▁brillante~~11653
▁hin~~392
▁him~~11904
peicherung~~15050
▁Washington~~2786
▁dorthin~~2236
▁cri~~18522
▁Spinnennetz~~14370
▁versteckte~~2926
▁Juan~~11168
▁unternahm~~11888
▁Hubschrauber~~9019
▁Misch~~5329
ventil~~14369
▁obsolet~~8376
▁allgegenwärtig~~9880
▁his~~15260
▁hip~~17586
weisen~~2172
▁gegenwärtig~~10444
ark~~5702
▁Small~~17759
▁Riesenhaie~~18332
wöhn~~5955
able~~6947
▁Barack~~11782
▁wit~~11119
ably~~18448
prothese~~9758
▁mehrere~~339
▁Letzte~~3972
▁elektrisch~~8036
▁verlinke~~15276
▁summ~~4445
▁ähnliche~~2429
▁geschnitten~~8818
▁Kubik~~13222
▁Foto~~5399
▁übel~~8908
▁Klassik~~2796
▁andauernd~~6903
▁junior~~18602
▁Goldrausch~~17045
▁automatisier~~15144
stuhl~~14319
▁Hauptsache~~11398
übung~~6275
awa~~10615
▁Rechenschaft~~11682
ure~~6364
urf~~9292
urg~~1944
ura~~2711
▁Australopithec~~10628
▁pause~~16355
▁lausche~~16050
ausgebildet~~12934
uro~~15900
▁bald~~2499
umweltfreundlich~~12627
▁Schrö~~11260
kanäle~~9172
▁Trance~~7408
▁Sheikh~~13992
erfolg~~7238
▁Meerwasser~~125
ury~~3998
wäsch~~10085
▁Rauchen~~14872
ückkehr~~11302
gerichtet~~4214
▁Protagonist~~8492
▁Großmütter~~1190
▁faltet~~8810
▁nützlich~~3003
ladung~~16186
schein~~3615
▁Lama~~9651
▁eingehen~~10429
▁gegenübersteh~~8553
▁flash~~17428
▁komplett~~3832
▁Unstimmigkeit~~14032
inister~~18487
▁frank~~18429
elecommunication~~16803
▁bemerkenswert~~2742
▁durchdring~~5795
▁Schwierigkeit~~5285
▁empfangen~~12579
▁Kanal~~7857
▁hereinkomm~~13997
urchlässig~~8767
▁mühsam~~14200
▁Baby~~1211
▁City~~6122
▁Spann~~9660
▁Eich~~7806
▁Website~~7232
▁Schildkröte~~7294
▁bestimmt~~3345
rash~~12866
skraft~~6455
▁Kontroll~~9958
▁Gho~~13594
▁besteht~~229
▁Unterwasser~~407
▁Level~~3800
▁Bemerkung~~14762
aspekt~~7378
▁mich~~854
▁zertifizier~~4868
Packard~~5377
Athabasca~~13787
▁Gericht~~7962
kopf~~5929
▁einfache~~664
variabl~~14541
▁alumin~~17625
▁Gegenmittel~~9096
▁ermöglichte~~11812
▁Klei~~14192
kiefer~~13801
▁koennte~~17657
leben~~1020
▁1920~~13734
▁Bush~~8212
▁olympische~~14913
▁Ohr~~4367
▁einhundert~~7683
▁Blätter~~3500
hüpf~~11394
▁symbolic~~18587
immel~~10325
▁Personal~~14110
gras~~11848
grat~~8925
▁synapti~~15153
▁Fahrt~~9018
gram~~15916
▁Homer~~10707
▁evolution~~4468
▁Kollaps~~16114
gebäude~~13583
▁lease~~17173
▁beleuchtet~~14496
▁weigerte~~12937
▁selbst~~112
▁vagina~~13308
▁instrument~~16436
▁Heimatland~~2007
problem~~10575
konferenz~~6413
▁besitzen~~4753
▁Bewegungen~~3987
▁ansah~~6692
▁Messer~~2552
▁Hafen~~5046
▁Fäkalien~~13320
▁cor~~18437
▁Sun~~11862
▁stattfinden~~1685
▁Sue~~13724
tta~~6059
zufügen~~7000
▁Kompass~~10747
statt~~6084
▁down~~17486
▁geschlechts~~11729
▁Brooklyn~~9436
▁Tori~~18482
▁halte~~7432
▁Regen~~3271
state~~9739
▁ganze~~637
▁world~~17556
▁gegenwärtige~~3488
▁weiss~~1294
gemeinde~~9463
▁dagewesene~~8156
▁assessment~~18569
ken~~2492
▁ruin~~12483
kel~~4834
▁Achterbahn~~12790
▁durchführen~~7640
▁Vorteil~~1417
▁Movember~~16733
▁Begegnung~~3065
▁Schulbezirk~~16754
melde~~15026
▁Südasien~~12919
▁Mama~~11567
behälter~~13653
▁gil~~2227
▁Limb~~16381
group~~18302
▁Gesetzgebung~~16713
▁gib~~4546
▁Telefonnummer~~10361
▁Traum~~3227
▁Pantheon~~12177
▁vertrieben~~15405
▁ausgeglichen~~10787
Fahrer~~15995
▁Verzerrung~~13403
▁verschwendet~~1890
▁North~~3195
sein~~1492
▁Blauwal~~5709
geordnet~~6462
▁för~~411
▁verschwenden~~7418
ographic~~12190
▁Talente~~8400
ture~~14362
suchen~~12383
▁fra~~16404
▁Bedrohung~~13518
▁Sexual~~14054
▁biologischer~~10062
▁legislat~~15257
▁universe~~12580
▁lap~~18206
▁Afro~~14527
Fiction~~9796
▁ununterbrochen~~2710
▁Spuren~~5067
▁Frage~~2114
▁Holocaust~~12616
gesprochen~~3454
Musik~~11564
spiration~~15536
▁Segment~~8815
▁Cyber~~7762
▁Richter~~9551
▁Vorhänge~~10611
▁Klebe~~9904
▁Government~~18255
▁flag~~15162
▁130~~2427
▁Tschernobyl~~15077
▁fed~~17350
▁bevorsteh~~11942
cent~~11440
▁Stiefel~~14008
inhalt~~4796
rwin~~6379
▁Sara~~7918
▁trend~~12659
▁13.~~1761
▁angelegt~~5740
Stunden~~7217
cene~~17685
▁immer~~489
▁Harmonie~~10991
ierte~~1248
▁erneut~~6055
organism~~9134
▁unzufrieden~~1558
▁Paradi~~16128
▁Nicole~~9746
▁Taschen~~7309
▁Betrachtung~~8411
▁1.3~~14339
mittler~~6031
medikament~~15600
▁Kerl~~4039
zumachen~~5616
spricht~~2163
verhältnisse~~745
▁Lead~~16813
Politik~~14535
▁Abbott~~16002
▁Lichtstrahl~~7878
logisch~~7151
▁lab~~18421
stellige~~15426
▁Malaysia~~17097
▁einzigartig~~5354
▁ange~~6488
▁dazu~~2295
▁blöd~~10002
▁Potenz~~15521
▁Zuflucht~~15347
▁gesetzt~~2273
reaktion~~12892
zusehen~~3723
▁leise~~4323
ini~~8406
▁hölzerne~~14268
▁spannend~~5984
hütte~~5264
▁Virtual~~16827
wüchs~~6165
▁verschrieben~~15013
▁verwehr~~7959
ühl~~2684
▁Mysterium~~15382
ziehen~~927
ind~~2849
ühr~~5415
▁hump~~16506
▁veränderte~~6047
geschwindigkeit~~7493
Neurotransmitter~~5453
fonds~~15178
▁Hurricane~~17700
kosysteme~~13565
orbital~~16167
▁Genauigkeit~~6408
▁Rechte~~10254
▁sick~~9107
▁eventuell~~7438
▁sich~~149
▁Liefer~~13532
▁Gehäuse~~5304
▁Lautsprecher~~15903
▁Rechts~~5524
impfen~~5917
▁schicken~~4548
ultiplayer~~16438
▁defi~~15161
▁Wandlung~~15736
volk~~15546
▁Atheist~~3578
▁eröffnet~~8059
▁kündigte~~12033
▁Leser~~11121
▁Akustik~~14244
▁polio~~5871
▁ethische~~9795
▁Teleskop~~13874
▁Popcorn~~13047
▁Lesen~~1089
▁Details~~2595
▁degree~~18321
isch~~560
▁großzügig~~11105
schw~~8892
▁habit~~17220
▁chick~~18248
▁saisonale~~16753
▁Gedicht~~6480
i~~2992
▁Killer~~5700
▁OMG~~16669
well~~8398
▁allerbeste~~15599
▁Guerilla~~14509
bohr~~13216
sche~~6373
welt~~1360
▁Physi~~9779
scha~~7110
▁physikalisch~~17580
rausgefunden~~609
ified~~16007
▁Kolonien~~619
Agenten~~12426
ämlich~~1822
▁Prävention~~14046
▁benutze~~1315
▁triple~~18563
▁grab~~17629
▁Pakistan~~6104
iva~~14673
▁Hommage~~14448
▁Phillip~~16361
dose~~752
▁Times~~8186
▁Winkel~~3295
▁benutzt~~293
BP~~16138
est~~5996
möglichkeit~~2176
▁angehäuft~~6600
▁Skeptik~~9912
▁berechnen~~8820
▁Abweichung~~8282
milch~~9109
Be~~8311
▁Grösse~~1381
▁Zertifikat~~8253
▁Computerspiele~~12745
▁schluss~~8309
▁Crimin~~18204
▁multitask~~17429
▁Besatzung~~15449
▁berühren~~8800
▁sauber~~4888
▁bedeckt~~3269
zuwenden~~5600
▁suspendierte~~18593
▁Kreislauf~~5080
ualifikation~~8181
▁blickt~~11802
▁Nachbar~~6184
lärm~~12005
▁Fußabdruck~~9822
▁NPR~~18278
gging~~10494
▁crowdsourc~~16988
▁melanchol~~17001
▁Computerfreak~~13855
▁Instrument~~3904
▁revolutionier~~3361
Programm~~11947
▁Modelle~~2390
▁Milliarde~~3776
▁Krieg~~4519
Koordinaten~~16926
starrt~~8123
▁Röntgen~~8808
▁Shir~~11046
tles~~17
▁Democratic~~16472
▁verwoben~~9378
▁Krishna~~16887
ässe~~4413
schätz~~2870
sagen~~7196
▁Schimpansen~~10642
▁motivieren~~1494
▁unglaubliche~~947
▁sub~~8644
▁Problem~~110
▁Dekoration~~11441
gravier~~6347
lager~~8909
▁Leucht~~9325
▁pop~~12660
wächst~~1115
▁por~~3287
genau~~6745
▁Israel~~2951
▁Schmutz~~16789
atische~~9704
▁modern~~5115
▁Schmerz~~2484
motive~~13327
▁profitier~~3560
home~~14636
▁poo~~18416
lagen~~1797
▁inspiriert~~7778
▁schweben~~2760
▁Zwang~~10920
▁Tierart~~349
▁kostengünstig~~6619
ROM~~13175
▁Kriege~~5016
wende~~14677
▁korrupt~~13522
▁autonom~~17123
▁Szenari~~15808
▁duck~~17210
brüche~~5851
▁veg~~17826
▁Aufzug~~11430
▁Kriegs~~9735
▁ewig~~4040
▁Lebzeiten~~14344
▁Schlange~~4511
▁zahlt~~3536
▁Spaß~~1328
▁Katastrophe~~11110
▁Standards~~2179
trafvollzug~~13389
▁Tasmanien~~15785
▁Buchstaben~~12746
▁Verbindung~~2558
Origami~~14708
▁heisst~~5064
▁Staat~~1152
▁Kongress~~5888
▁Beweg~~9236
▁late~~12215
▁Curt~~18293
pt~~2036
▁Pla~~1673
▁separate~~13692
▁Samen~~9179
▁allem~~3598
▁scheinen~~7215
▁Galler~~16371
▁Nährstoffe~~12704
▁Cura~~18460
lbatross~~4783
▁aller~~1390
rankheitserreger~~12886
▁mathematisch~~15520
▁rotation~~18010
▁Dengue~~16087
▁Außergewöhnlich~~9298
▁Bewusstseins~~11932
▁Propeller~~4057
fische~~5743
▁schlage~~8744
kram~~6312
▁Oma~~12490
erkennen~~10775
▁Koch~~12690
▁rüber~~4631
gramm~~12758
▁cyber~~15015
▁utilit~~17964
▁Sata~~18121
▁determin~~12986
genoss~~12998
▁Presse~~9833
▁Designs~~7704
▁Seil~~9273
strasse~~12497
▁Sein~~14180
▁wurden~~34
imini~~7391
gruppe~~1575
▁lokal~~5170
▁dutzende~~11843
▁Rule~~17661
▁jung~~6437
museum~~10673
sländer~~12031
▁Vorstädte~~12678
▁abschneide~~1716
▁Kamen~~13148
inner~~612
▁Mytho~~12182
▁Ursachen~~7458
▁wiederher~~3989
Organisation~~11684
▁durchlebt~~13083
▁keine~~157
ematode~~16603
▁Channel~~8001
▁Columbia~~13549
▁Galerie~~14504
▁Todesstrafe~~13268
▁faszinierende~~8738
▁Glaubens~~2803
▁II~~15986
▁Langzeit~~4000
hu~~12801
neutral~~15540
hi~~6024
ho~~4395
echten~~7951
beat~~16036
▁motivation~~5886
ha~~3133
▁dachte~~3140
he~~5684
drüse~~9066
▁Weide~~11846
▁Honey~~15961
okratie~~1566
▁nötig~~2182
▁Nebenprodukt~~13105
haushalt~~9301
▁Out~~10996
▁Verhaltensweise~~3092
▁random~~15601
spritze~~14372
▁Our~~14601
▁sprachen~~4514
itis~~5866
▁homosexuell~~10976
▁geprüft~~12046
▁demographische~~14080
▁dieser~~365
▁drauf~~3783
▁tötete~~2922
▁mächtige~~5152
▁verfütter~~12682
▁Zufall~~4284
▁trink~~1222
▁Nigerian~~17259
▁draus~~9510
▁Lä~~9209
▁einge~~2981
isier~~15605
▁Meeresboden~~175
regal~~13575
▁diesen~~425
▁asthma~~18250
▁weitreichende~~15167
▁Eisenbahn~~5083
▁Völkermord~~2833
▁bipolar~~15022
tick~~15128
▁Geheim~~6214
▁stehe~~3214
▁gratuliere~~13693
▁Strahlung~~9935
folie~~14381
▁essen~~1665
▁Tamil~~16551
▁Eingabe~~8778
▁wählte~~4147
▁Werke~~10240
Fachmann~~14764
▁Läufer~~17248
▁verbring~~10684
▁etablier~~6954
▁steht~~1899
rmste~~12905
▁Vertrag~~13943
▁Einheit~~6387
▁Wett~~7082
▁knock~~17108
▁Gaza~~12279
esearch~~4650
▁zusammenarbeite~~3034
star~~5959
schütz~~9734
▁gespeichert~~4709
▁begangen~~3654
▁gehe~~4532
▁absichtlich~~5142
▁vergrößert~~4311
▁Bauernhof~~14149
▁Schweigen~~2980
▁geringer~~3474
▁bring~~13231
▁Dialekt~~12341
stab~~11534
▁Note~~975
▁Legastheni~~12295
stan~~6782
▁Strände~~4847
▁geht~~725
ürtel~~11763
▁Tote~~15806
▁Dopamin~~13432
hne~~8149
▁Teilnahme~~8007
▁Primzahl~~16984
▁vergangen~~8585
insel~~4811
▁vorstellt~~10748
▁Dublin~~9604
▁Egg~~9422
sucht~~10322
▁Illusion~~9256
runken~~3173
▁schütteln~~7956
▁3.5~~13400
▁Lifestyle~~17073
▁IT~~7011
▁Symbole~~13162
▁Wahrheit~~89
▁setze~~14870
▁Speise~~9683
▁Allgemein~~5547
▁Van~~10887
▁zusammengesetzt~~527
dynamik~~16673
▁Glanz~~16444
▁Schwangerschaft~~9033
▁braun~~13726
▁750~~6107
scheiden~~10785
▁Cartoon~~9888
sprachige~~9252
▁Rodrig~~13259
▁Röhrchen~~11366
▁Connecti~~10841
▁anwesend~~11162
▁Williams~~13396
▁Oprah~~15678
▁Hobby~~10180
▁dichter~~4457
▁militant~~18317
▁prim~~18324
aub~~7832
▁Stadium~~9731
▁Belgi~~13509
auf~~899
▁Zwillinge~~15151
▁Sonde~~16972
▁tendieren~~10342
gesteuerte~~12705
▁Sacr~~14455
aus~~602
▁römische~~14234
wandel~~13089
▁Millimeter~~4852
▁jeweil~~2204
Software~~15044
gesehen~~1540
Platz~~16631
pock~~2859
▁Gehry~~12819
▁verhält~~13425
▁Osterinsel~~12498
Grenze~~14848
▁afghanische~~6446
▁Alexandr~~6789
▁Krypto~~17971
Projekt~~9723
▁Volvo~~12909
▁bereitet~~6384
▁erholen~~3476
▁Dividende~~13121
▁email~~13705
▁Schneide~~7915
▁arbeitslos~~1792
▁Teilen~~2416
▁Interessen~~9461
▁Geschlechter~~10958
▁dehnt~~10727
look~~17054
▁Comic~~13145
zuhören~~3167
▁Repräsentant~~12534
▁head~~18162
▁Wurzel~~4277
▁Abschluss~~1788
▁Dor~~11535
▁Hefe~~15082
▁reisen~~4599
▁studie~~2354
frozen~~18312
▁Affen~~9668
▁laid~~17918
▁Don~~9263
▁Lebensdauer~~5766
▁Konsequenzen~~4803
▁vielleicht~~883
▁studio~~17825
▁drehe~~14949
▁selbstbewusst~~10916
upp~~9730
▁schicke~~11651
▁Gardner~~12749
▁Lizenz~~10261
stimmig~~4312
▁fest~~3780
▁impos~~15874
schlug~~13182
▁Filter~~11547
▁Kilogramm~~10156
▁Jabb~~17084
▁leer~~9173
Version~~13702
▁nein~~940
▁differenzier~~2168
▁Tech~~11422
übergreifende~~11892
▁Barbar~~12452
▁Epilep~~10719
▁leugne~~15183
helix~~12775
▁Bunker~~13023
▁städtische~~5932
▁Charter~~15824
▁abheb~~15705
▁aufgegeben~~3226
▁Biolumineszenz~~317
▁Weihnachtsmann~~18208
▁Umlaufbahn~~8633
▁unterscheiden~~7973
▁Heirat~~6483
▁Hände~~3845
▁Oscar~~12312
▁unterscheidet~~9136
ney~~2874
tipp~~7124
net~~8678
neu~~6139
berwachung~~1304
▁Walker~~8881
▁Rentner~~15321
▁hoffnungslos~~8700
▁angeboten~~3095
▁Ratte~~8915
▁bescheid~~15827
▁persönlich~~7192
▁spanische~~12837
▁Prostatakrebs~~16734
▁Apfel~~13721
▁Enzym~~9082
▁surge~~18199
ekhar~~14847
läuf~~6306
schüttelt~~4605
▁Prognose~~12702
▁ca~~3233
▁vermute~~1478
active~~16802
▁co~~16153
quite~~15371
▁Renn~~11075
▁attack~~8058
▁undeutlich~~14272
▁Story~~12878
grenze~~3558
▁my~~10829
maschinen~~6590
▁Präsident~~4850
▁selbstfahrende~~17190
▁Akte~~9571
ally~~16374
▁Zeiträume~~2244
▁Eric~~3777
▁verglich~~9433
beschreib~~14956
▁gesegnet~~10944
ellowstone~~13570
▁antwortete~~4553
▁raffinierte~~2889
▁Lebewesen~~285
dra~~5436
▁Pittsburgh~~3662
▁schädliche~~15881
▁mu~~4014
▁Disease~~18394
▁Bell~~3123
▁Smartphone~~8369
▁Connectome~~15141
▁sensation~~13473
▁physiolog~~17244
▁Ausbildung~~1017
▁bislang~~9154
▁gestartet~~5748
▁Fantasie~~5322
▁entwickelte~~5299
▁einmarschiert~~12110
▁irgendwa~~3168
schub~~5633
▁Trümmer~~14887
▁Schnittstelle~~4026
teufel~~14962
▁unnötig~~7416
▁Atlant~~13362
▁reflectiv~~18360
▁nutzte~~5141
▁Anregung~~14786
▁Knete~~15622
▁irgendwo~~832
▁Worte~~2575
▁Output~~14713
gestimmt~~12547
ußerung~~11731
Kathedrale~~4287
▁Viren~~5854
▁Gefangen~~11850
▁Helden~~5953
▁erster~~1744
ili~~10086
▁ersten~~424
ellow~~15094
▁schw~~7999
call~~16158
▁Fabrik~~4762
▁Hebr~~17177
Uhr~~10378
schwenk~~16328
krieg~~673
▁tektonische~~8895
▁flies~~12445
▁Verlierer~~16045
esichtsausdrücke~~12717
▁intensiv~~3407
▁parasit~~17639
▁dot~~9071
▁Schott~~5050
▁Minen~~12044
▁Regenbogen~~12921
▁Meilen~~5856
▁Soldaten~~4592
gewohnheiten~~12258
▁Korallenriff~~16110
▁Schlitt~~12456
V~~11817
wurf~~10449
ward~~5799
ware~~10101
▁interpret~~18579
▁Augenblick~~827
▁Auflösung~~8804
▁dog~~18176
OC~~14500
▁Hülle~~5252
▁McMurdo~~13747
room~~14814
frucht~~4988
▁Michigan~~6959
trotz~~933
▁Lynch~~14224
▁klebte~~14506
▁ma~~2714
▁Gefahren~~10004
▁Zement~~10530
▁Grundgedanke~~16065
▁altmodisch~~5262
▁wirksam~~6723
▁Hirnstamm~~9001
App~~15270
▁Astronomie~~14346
▁Umweltschutz~~9192
▁Spider~~17003
@~~12906
▁Schwarm~~12433
▁Fitness~~7094
▁Maske~~7077
▁11.~~6343
▁Hunderttausende~~14294
▁böse~~8901
▁Regenwasser~~9062
▁110~~3302
ollateral~~16768
befehl~~6386
▁Prozesse~~2359
mitglieder~~9595
▁beeindrucken~~6512
▁Brief~~7253
aging~~9908
▁Umfeld~~1880
▁Primaten~~9759
lügt~~11565
quot~~224
satz~~1099
▁germ~~15652
▁Leck~~13481
▁Senator~~16712
▁fusion~~17493
▁kurze~~1511
▁Erosion~~4965
▁Leiden~~10818
polis~~2910
ô~~18110
▁Calvin~~13392
▁Strukturen~~4178
▁individuelle~~1159
Fieber~~16592
▁Himalaya~~6817
▁warten~~3782
Ghraib~~15445
▁wartet~~900
▁transfer~~11951
rwärmung~~9190
▁wäre~~1935
▁primär~~8046
▁Smoot~~17676
▁Andy~~9027
▁potent~~5913
▁rechten~~7538
▁mark~~14465
▁funktionieren~~1534
▁erhellen~~13030
▁beleidigt~~14163
minent~~16085
gelassen~~5697
suche~~13856
▁Variable~~2397
scheibe~~3300
▁Griff~~9458
▁beleidige~~12257
▁Kulturen~~2630
▁Kindersitze~~17596
▁nützliche~~6753
▁Stuhl~~3980
▁verantwortlich~~1942
▁Ressourcen~~2234
▁Universität~~2012
▁grausam~~5435
▁Feuchtgebiet~~8717
▁Hospital~~3999
▁worden~~1196
▁Garret~~11844
Frage~~12240
▁Afrika~~4274
lumni~~12610
▁Gehirn~~1383
▁fantasy~~18578
▁Ejakulat~~17565
▁Phoenix~~14090
▁Neurochirurg~~17570
▁kühn~~12492
▁althergebrachte~~15127
▁Armut~~2745
timation~~17149
▁trainiert~~6697
▁Sattel~~16121
personal~~8718
Technologie~~9732
punkte~~2547
,~~10637
▁Rechteck~~12427
▁trainiere~~4013
▁Nervenzelle~~10714
▁gehören~~4991
Wolke~~8514
▁jedenfall~~4238
shire~~14028
▁tagelang~~15787
▁Element~~3632
▁versehentlich~~1157
Kampagne~~5949
geschaltet~~10285
ologie~~7463
▁Berücksichtig~~14143
▁hervorruf~~7981
▁Bauchspeichel~~12479
▁hotel~~18499
▁Aktion~~4820
▁geschmeidig~~16146
ania~~10227
▁digital~~8494
▁Praktik~~8603
▁Zone~~13843
▁Börse~~3489
▁Snoop~~17462
▁endlose~~4657
▁Zeitgenosse~~15288
▁Unterbrechung~~12799
▁Leber~~14158
▁fatal~~15756
▁Let~~9090
hampagne~~16989
▁religions~~18083
▁BG~~6105
Seite~~4589
▁folgte~~4161
India~~13561
▁Temporallappen~~8999
▁zieht~~6013
▁Digital~~8588
▁Republic~~14586
▁99,9~~8769
▁Beijerinck~~18009
▁Republik~~7327
▁upload~~18241
▁Dictionar~~12657
side~~5033
▁ziehe~~7396
▁These~~879
balone~~13878
▁charm~~17473
▁vorübergehend~~11245
▁Bestrahlung~~2520
aida~~16771
▁kapier~~7737
▁beeinflussen~~2548
medien~~11803
▁bildlich~~12010
riegel~~11677
▁Mischung~~7815
▁Verstorbene~~14664
▁DI~~11669
Stränge~~13579
▁Gründung~~11311
ISA~~8444
▁Vogelperspektiv~~17537
▁Konfrontation~~14139
▁Disziplin~~8501
Sandwich~~16786
stunden~~11204
▁Fossilien~~10646
▁schau~~11608
▁Abendessen~~3162
▁Homosexuelle~~18219
▁Pub~~9056
▁Brüste~~9873
▁Joy~~14607
manda~~6644
▁Hunger~~6835
▁egg~~18434
▁slash~~17788
▁Hoden~~9067
geteilt~~3508
▁organische~~2362
körper~~2517
▁kocht~~5105
▁Milgram~~18320
▁günstiger~~8825
▁Beratung~~9303
▁Gipfel~~451
▁Leonardo~~8408
▁Beijing~~16095
▁problematisch~~13866
▁Brillian~~16554
▁Transition~~13995
ometrische~~15051
▁passen~~3863
▁Danny~~16725
▁Hydra~~7602
▁Friedens~~4675
▁klinische~~2586
Geheimnisse~~11773
▁Drama~~3019
älle~~14417
▁Genuss~~7286
▁Achse~~566
▁Waage~~301
ish~~7084
fleck~~5757
▁Gemüse~~4870
ism~~12859
rinde~~10742
▁detailliert~~4736
▁Rassis~~8734
ise~~7465
▁beiseite~~7136
verfolgen~~10641
grade~~6463
▁kriege~~6555
▁pat~~16352
▁alte~~4793
zeln~~8817
zell~~9716
▁pan~~7053
▁auseinandersetz~~15657
▁pal~~10654
anwendung~~12065
strich~~11754
preis~~2887
▁kriegt~~7819
▁frisch~~3292
▁erst~~689
▁bestätigt~~6897
▁Nahrungskette~~4860
aktivität~~13174
▁Empfang~~6975
OT~~17519
▁Rod~~14494
▁Blei~~11144
▁effektiv~~5494
uswendig~~1235
stoß~~6319
▁Modern~~5268
▁Akteur~~11831
▁Scheck~~16778
▁stetig~~10689
schlagen~~6323
▁hinschau~~11519
▁komprimiert~~16027
▁Stammzellen~~10061
▁Symptome~~5360
▁Wölfe~~16727
▁fördert~~1430
▁Robotik~~15998
▁Jewish~~18375
▁erklären~~905
pflanzen~~7575
▁Sich~~10598
▁Robotic~~12729
▁minus~~7610
▁stimmt~~4170
▁zuhören~~972
▁gelehrt~~1176
▁auch~~243
▁Town~~15032
▁entscheidend~~1937
▁fördern~~1220
kitzel~~16038
▁stimme~~7424
▁betreut~~4131
bürger~~14828
schirm~~3272
▁Spektr~~16478
▁Prickly~~18077
▁Brasilien~~4931
rstellung~~8819
▁ausführen~~2572
▁Chirurg~~6687
▁Lungenkrebs~~14389
▁wüsste~~6524
▁gewisse~~3557
▁bizarr~~55
▁finite~~17345
▁Toyota~~11867
▁Leban~~18406
beginn~~11706
▁Augenbraue~~15373
pilz~~15439
▁Komm~~9496
▁Ratschläge~~3427
▁afr~~14520
▁crowd~~18147
▁Pflanze~~5181
modern~~13094
mine~~11189
▁Koma~~17198
▁nerd~~11128
▁aufgeblasen~~16039
komponente~~12390
gypter~~15212
ieroglyph~~17441
▁AV~~17059
▁spirituelle~~7205
▁train~~17967
▁Imitation~~15219
seek~~16012
▁gesteuert~~13881
▁opt~~15243
▁Stress~~4610
▁arch~~12507
▁Roy~~15480
▁Hirshhorn~~18396
▁Tafel~~2943
▁Verknüpfung~~13905
▁Drohne~~17064
▁unendliche~~7792
▁Interviewer~~16360
▁Verarbeitung~~8779
▁stirb~~6721
▁Stacey~~17146
▁regenerative~~15312
▁inform~~16359
▁definition~~16461
▁sondern~~233
ilanz~~5880
▁Gapminder~~14935
▁over~~15527
▁Große~~4097
▁Hmm~~8106
▁Bronze~~12561
XX~~18177
▁Libyen~~17152
verletzungen~~16708
Mitarbeiter~~12386
▁Nerven~~1419
▁trocken~~3256
koko~~17727
▁Kommun~~1151
▁Diego~~8441
▁Kenya~~15731
▁Rest~~5006
▁Seiden~~13661
▁voil~~15923
▁hohe~~1413
▁NASA~~8089
▁Dankeschön~~8544
▁aufnehmen~~8128
knochen~~8130
typ~~6042
▁Schweden~~7221
▁materielle~~7811
▁radikal~~1041
risiken~~15412
zieren~~10505
▁Produktivität~~1692
▁98~~8368
don~~7949
▁Morton~~18031
▁Organisator~~13987
dom~~6988
▁93~~7344
▁erschien~~2972
▁90~~1760
m~~244
▁96~~13490
▁95~~6069
Ernährungssystem~~5116
▁Winky~~18215
▁9.~~6044
▁weggehen~~11020
▁Bridge~~15361
Gewaltlosigkeit~~12301
▁Koalition~~16995
▁regel~~2584
▁Stein~~3036
▁Fachgebiet~~14709
▁Eno~~17587
▁Pleo~~18603
▁Toten~~7644
kus~~4389
▁Entdeckungen~~8085
▁40.000~~13194
▁exponentiell~~10144
▁Testperson~~3530
▁Wiederbelebung~~14069
▁expressive~~4165
▁Dienste~~15274
hören~~4216
schicken~~15078
▁Lebensstil~~7102
▁Flüssigkeit~~660
▁tragbare~~12924
Achse~~8315
▁will~~1038
dessen~~1162
▁Japan~~2152
▁Klimakrise~~15845
▁Barnett~~16139
▁funktioniert~~893
▁Rituale~~12142
Nullsummenspiel~~16043
ttle~~13719
▁Tool~~10275
▁Katalysator~~1341
rausgehen~~8503
erung~~3760
cortex~~18238
▁absurd~~978
▁dial~~17316
▁Mark~~3254
sammeln~~4884
▁Mari~~14397
▁Sänger~~4351
▁Produkt~~2101
▁Marc~~6786
▁ermordet~~10821
▁Skelett~~10622
▁Hubble~~14904
▁from~~11336
▁zielt~~9238
▁Marx~~11032
▁leben~~168
▁Homosexu~~10993
▁Nova~~13130
▁Mars~~8906
▁bleibt~~3344
▁entscheiden~~3452
▁soccer~~17829
ggression~~7649
bau~~4961
bar~~2685
wert~~3608
▁300~~547
▁Nagel~~12958
▁liebevoll~~15308
16~~12843
▁Sprecher~~4887
falten~~8755
▁Sprechen~~1448
▁vollständig~~2451
▁Neocortex~~17844
▁Bestseller~~14812
▁latent~~14281
▁volume~~15944
▁Great~~2985
bal~~10771
▁30-~~9042
▁kämpfen~~715
▁Banker~~6337
▁glaubte~~3731
▁fände~~9843
▁once~~18530
▁like~~4524
vertreib~~11587
▁Probleme~~736
▁stagnier~~6871
▁beträgt~~621
hypnoti~~16680
▁aufgestellt~~7153
PNV~~18397
▁stri~~15935
▁50,000~~16205
▁Technik~~205
▁fortgeschritten~~3973
▁Zutaten~~6127
▁inhaftiert~~8697
▁hmm~~11436
00~~4818
▁länger~~1373
▁Scheinwerfer~~16292
▁Dokumente~~13639
▁zweiter~~3946
▁Kinect~~16570
▁müde~~10665
Choice~~8290
web~~11048
▁Wann~~8495
rufen~~1523
▁zweiten~~1543
▁lung~~14321
▁Wand~~3037
▁Netz~~431
▁Verrückte~~3864
▁Blick~~3008
▁HyperCard~~18218
C~~2314
▁Fortschritte~~5627
Central~~13543
▁wider~~2146
ome~~7577
▁Die~~1667
sterblichkeit~~7578
omi~~1723
▁süchtig~~9582
omo~~15218
Drohne~~17923
▁Alice~~13585
▁Dir~~4371
▁Dis~~1896
▁erörter~~15813
▁hä~~7009
▁gespart~~15775
▁Serge~~8095
▁Faden~~12255
▁Klassen~~1976
▁medizinische~~3370
Link~~8034
unt~~1927
▁Bundes~~9955
▁Dienstag~~6267
▁universal~~1023
nhänger~~17870
sministerium~~14510
una~~13863
▁sämtliche~~12618
lizenz~~6676
▁Palm~~11910
ung~~154
studio~~9213
▁Pala~~8421
unk~~13095
▁überschreite~~14003
▁Area~~9539
▁industrielle~~1272
▁Zweiten~~12733
▁Bank~~11659
Center~~12376
▁umsetzen~~13675
▁Bang~~10305
▁Band~~4257
▁vordere~~6635
geklebt~~7318
▁wollen~~974
▁zurückgreife~~11102
▁gäbe~~3175
▁Baxter~~14493
ruct~~16434
▁legs~~6278
▁gegründet~~10960
▁Inspiration~~12087
▁legt~~302
▁erfreut~~11395
komplex~~14457
▁Einkommens~~12913
▁India~~13671
basis~~15079
▁Forum~~12559
Grund~~12551
drüsenkrebs~~12480
▁Klam~~7964
tiny~~17221
ting~~13346
▁fr~~1498
▁Klar~~3594
äcke~~6896
gebastelt~~7313
▁zwingen~~5979
▁Isabelle~~18070
▁Erzeugung~~12620
uffard~~17952
schutz~~3299
▁Wind~~3298
▁unausweichlich~~7758
▁Ellen~~11022
aufgabe~~3499
▁marschier~~5936
▁Fried~~11008
▁Baustelle~~11247
▁aufbereitet~~4695
▁Bonus~~10159
▁media~~15811
▁ac~~18091
▁ab~~174
▁stomatopod~~18232
▁Monster~~5536
▁fu~~13830
▁Junge~~4794
▁an~~176
▁am~~132
▁al~~15335
Zelle~~15716
Ch~~6415
Co~~10408
▁Dichte~~181
▁Spül~~14399
Dollar~~3612
▁stereotype~~16958
▁drohen~~7718
▁Pianist~~3969
▁stärken~~8546
▁hören~~1626
▁fo~~14779
▁Shackleton~~17549
iz~~3960
▁Ehemänner~~8577
▁Herbst~~11343
ip~~3511
is~~3063
ir~~5997
▁gemacht~~33
it~~1726
▁spot~~10790
iv~~1499
▁Berg~~5263
ik~~2616
im~~2037
il~~3340
io~~2739
in~~2287
ia~~1230
▁rock~~14987
ic~~7714
akt~~5681
ie~~1219
id~~2120
ig~~44
if~~2121
▁geo~~13557
sammel~~13487
▁Ellbogen~~14778
▁geh~~1574
▁gek~~9269
▁die~~29
▁beliebig~~12049
erebral~~4117
▁gef~~7620
▁schließe~~6229
aki~~5314
▁geb~~3242
▁dir~~1630
▁dis~~10048
▁Anordnung~~6280
▁vertreten~~880
DP~~15794
▁Ehemann~~4626
▁vorsichtig~~10114
▁get~~3172
▁Colli~~13044
▁unfähig~~6908
▁Comedian~~13604
▁Bildhauer~~10328
elli~~14298
▁stärker~~2217
▁schlug~~8040
▁Privat~~1657
ella~~13430
▁Mission~~3648
▁berechtigt~~14587
elle~~3357
▁transformative~~16913
Truck~~12374
kin~~12973
bunker~~15695
▁gewöhnlichen~~11214
etchup~~13035
▁erwisch~~15115
▁operational~~17666
▁NRO~~12365
▁leiten~~3708
▁Berater~~16248
materiali~~6593
T~~315
Vo~~11176
▁Gefolg~~10766
▁fliegende~~2455
ake~~11233
▁Ruhm~~6508
▁IGF~~18182
▁leitet~~8447
▁vertraut~~191
▁Kleidung~~8967
▁fantastic~~17757
▁verwirren~~12322
▁Vieh~~10146
▁nachweis~~5579
▁Nichts~~4915
▁Viel~~2339
▁Toiletten~~5480
▁Vier~~6260
lassen~~6776
▁geriet~~11920
▁erinnerte~~6152
human~~14663
▁Sri~~10426
▁figure~~12756
▁seine~~2107
▁Lähmung~~12408
iscipline~~18594
▁Algorithm~~8757
▁detail~~17619
note~~10258
▁nirgends~~16867
▁paralysi~~16957
▁aufwache~~1676
▁Demenz~~16225
▁besiegt~~6790
▁Flächen~~5137
▁far~~8638
▁brach~~5365
▁5,000~~16287
▁fan~~16998
▁Schmelz~~4698
▁Nein~~7242
▁volle~~8320
▁Neil~~9431
▁LinkedIn~~14818
▁höchsten~~1635
▁Lichter~~14647
▁George~~5515
▁sonderlich~~941
▁Vergnügen~~5220
▁freier~~13530
▁begonne~~5905
▁Tennessee~~13757
▁Angriffe~~15541
▁loslege~~7532
▁center~~16559
▁vorhanden~~5349
▁Tofu~~17644
▁Michoac~~17365
▁Jerem~~12292
▁Sandwich~~12875
▁Feminist~~10955
▁club~~17318
▁Dünger~~6843
▁grauenhaft~~7612
▁ansässig~~7686
▁Moskitonetze~~15165
▁obes~~17071
▁Stopp~~6144
Art~~9710
squalität~~3736
visible~~18398
▁chemische~~524
▁gedacht~~4459
▁Square~~13531
gekühlt~~14922
▁redundan~~17771
gossen~~12544
plica~~12558
▁Smithsonian~~15222
▁oben~~386
Arm~~9753
▁Zugriff~~11104
www~~17687
▁Abenteuer~~8094
vertrauenswürdig~~8463
200~~13709
▁chat~~18067
▁Date~~7092
maxim~~17075
▁Data~~16214
▁Kap~~14128
▁ancient~~16417
▁stimmen~~2124
▁Anomalie~~12994
▁Evolution~~1345
▁Federal~~14576
▁prognostizier~~6868
gebrannt~~14665
▁Rap~~15714
▁gepostet~~4504
gegriffen~~2516
▁Larven~~14868
▁leichte~~5429
▁glaubt~~5572
sichtlich~~5915
ibati~~16507
▁schwerer~~9270
▁Wissenschaft~~744
bra~~9672
▁Kai~~13918
▁glaube~~1124
▁sign~~15074
▁dynamisch~~9004
▁hatten~~562
burg~~3194
▁Village~~13548
▁Schl~~1699
▁Scho~~14998
▁Schi~~9645
▁zusammenkomm~~10366
ierende~~11919
▁manifest~~13156
▁lebhaft~~15630
istische~~6027
▁Schw~~3164
abteilung~~7868
paid~~17427
bewohner~~2762
▁Palin~~11992
▁verwurzelt~~8666
errichten~~6396
▁Teller~~3611
▁73~~8530
▁Montana~~13209
▁rauchen~~8140
zuwerfen~~13860
▁72~~10824
▁wieviel~~3523
▁Pläne~~11647
▁Betreuer~~12980
▁Look~~5240
▁epidemiolog~~17958
▁Französisch~~15778
▁Parabel~~2640
▁Tür~~5482
▁Ironie~~2683
▁Netzwerke~~5166
zug~~450
▁gewaltsam~~14226
▁flori~~13662
cock~~11352
▁ausrechne~~8684
bezüglich~~1107
▁Ungläubig~~2772
▁Fliegen~~2444
lief~~8824
▁Botschaft~~2927
▁Turing~~15755
▁strategische~~11648
▁stecken~~3510
▁beam~~18007
▁Bedarf~~8913
▁Symphonie~~4316
ception~~12725
▁Kopfschmerz~~17034
hnen~~1834
▁bieg~~470
▁beschleunigt~~4008
▁Vanco~~10758
▁kreiert~~9610
▁tick~~13069
▁Hunde~~5156
▁unbekannte~~199
▁Kombination~~6072
▁Bull~~7897
▁Montag~~8857
▁Social~~12347
Pachycephalosaur~~17155
▁zelebrier~~10215
▁slope~~18462
▁Abkürzung~~11221
▁vereinigen~~15252
bert~~8055
▁Investier~~15179
operieren~~5943
fahr~~3186
form~~74
▁Pixar~~17327
ampaign~~17261
läß~~14941
analyse~~11732
ford~~6353
▁exhum~~16092
berg~~2944
mbient~~12282
▁ergreifen~~4549
▁Flor~~8414
▁top~~16249
▁anspruchsvoll~~15396
▁Beleuchtung~~8044
▁enthülle~~8478
▁Umkreis~~11169
▁Fälschung~~15880
dampf~~4340
▁subventionier~~16124
positiv~~12055
▁Mount~~6561
▁Population~~8359
▁nigerianische~~8117
▁sink~~9862
millimeter~~17924
▁Lovelace~~13154
▁Kriminalität~~13624
diagnose~~12156
▁begegnet~~3398
▁eklig~~6514
▁Anekdote~~10658
▁Betreuung~~8365
rmostat~~15086
▁realisierbar~~16307
▁Stimm~~2862
▁wenn~~115
▁Lungen~~12633
▁herausfinde~~2203
ship~~5867
▁begegnen~~13064
▁mitochondria~~12238
▁gesteigert~~12071
verbesserung~~7490
handel~~1518
▁unabhängige~~1596
▁primitive~~10699
▁Mehr~~9344
▁beanspruch~~5703
▁verlieren~~6095
▁Mehl~~16962
▁Modell~~2418
ā~~17670
▁Bestätigung~~7975
▁Regierungs~~9675
▁lesen~~1250
▁Integr~~7003
▁weltbeste~~15804
▁unterirdisch~~16266
▁plausib~~16525
▁Verwirrung~~16919
▁mechanische~~14332
▁Sch~~582
▁SARS~~5975
▁protein~~16930
blut~~6565
▁Ragu~~18393
▁Stamm~~8667
▁experiment~~6714
▁seltsame~~774
▁heilen~~6772
▁Babys~~9965
▁sofort~~2723
▁lange~~604
▁Spalte~~570
ngste~~6212
räder~~10072
feld~~3360
▁hybrid~~14106
▁Inuit~~17169
abdruck~~10520
▁Debatte~~1900
▁baue~~12714
▁uralte~~9135
▁drink~~18295
▁definiert~~6744
▁suburban~~14100
institut~~6886
▁Journalisten~~2471
▁baut~~6699
▁Ertrag~~10158
▁analog~~10858
▁Pilot~~2732
▁fand~~6369
▁identisch~~8750
▁Foster~~16739
ophag~~10484
▁Platte~~842
produzent~~2677
▁verhäng~~16353
▁üblich~~2537
▁Benjamin~~7148
telefon~~11891
▁empfehle~~12707
▁Gewohnheit~~7747
mile~~15531
▁add~~6464
vergrößern~~3599
▁basiert~~7552
▁asphalt~~16702
▁Steak~~8565
▁journalist~~15285
marke~~12232
▁Lunge~~5817
▁links~~2582
▁Schmiergeld~~17184
▁Tonne~~14167
▁bewohnbar~~13563
markt~~5034
0~~10344
▁Hoo~~2623
meister~~3853
▁Waffen~~5941
▁Hof~~3105
▁Negative~~12546
▁sterben~~4615
▁private~~4418
▁Excel~~16033
▁sentiment~~15184
▁2020~~10175
▁TaskRabbit~~15580
▁Objekt~~4047
▁SOPA~~17516
▁Nummer~~5318
▁hässlich~~10492
▁männlich~~9078
▁problem~~16956
weltfreundliche~~10516
▁verlassen~~6495
▁Voice~~17470
▁seltsam~~4021
▁4.000~~5545
▁Gemeinde~~2636
▁enthielt~~3000
▁Tier~~1359
▁Hussein~~15305
▁Subjekt~~7966
▁Verdauung~~647
▁Standard~~1237
▁Kaffee~~1221
▁Zauber~~3021
▁Age~~10198
▁Neunjährige~~11142
▁steigen~~835
▁schwöre~~3580
nästhesie~~16320
▁Agn~~15502
▁amp~~11234
dis~~5000
ville~~4253
▁treu~~6359
Gru~~8015
▁konstruier~~14716
▁Adoption~~15236
▁Bären~~1372
▁bra~~12681
▁lebenslange~~6213
▁Harry~~10795
▁result~~14159
Test~~15100
Bild~~7827
▁treffe~~11657
▁hinweisen~~12510
▁explizit~~8256
verhalten~~8151
▁ehe~~3073
▁erschüttert~~11316
ches~~16284
▁gal~~13371
▁Todesursache~~14398
ssig~~9124
▁Tibet~~8654
▁Grundsätze~~10857
▁Saatgut~~6921
▁Wandel~~1043
▁stell~~10006
stritten~~7119
▁Aber~~8143
▁Kommentare~~4551
▁Symmetrie~~10739
▁Ultraschall~~9165
ausdruck~~1161
▁Rauigkeit~~18051
▁Breitband~~11820
▁Waschmaschine~~15940
▁Flüge~~16165
▁Math~~15912
▁Landschaften~~4449
▁Cameron~~6088
▁Casa~~15570
ruf~~7104
▁spekuliere~~7510
▁Thai~~8114
▁Zitter~~15951
▁Kätzchen~~1369
▁gelb~~1849
transportieren~~5015
nimmt~~299
▁Country~~15744
▁schmerzhaft~~3450
▁Intelligent~~14688
▁erhöht~~3301
▁dich~~1296
▁Malco~~9883
▁Matt~~8609
berlegung~~8269
▁promis~~17469
wusst~~12352
box~~2394
▁Verb~~3402
▁verknüpfen~~10704
▁Blau~~8047
▁arbeite~~1480
▁unterschätz~~7518
▁Sorgfalt~~9354
bot~~3684
bou~~13096
▁Charakteristik~~13208
▁gefallen~~4591
▁normale~~9658
springen~~6333
▁Group~~10286
▁schnell~~2049
▁Verträge~~13203
gnung~~14220
achi~~11087
▁Wald~~4440
▁Wale~~5051
elect~~14749
▁beabsichtigt~~14737
zelle~~9705
schmerzen~~16084
▁erlaubt~~2543
▁how~~17416
▁hop~~14052
▁Walk~~7090
▁lieb~~4575
▁Höhlen~~12932
▁hol~~15095
▁Teich~~11721
lesen~~2565
ermafrost~~14297
ache~~9504
schaftliche~~418
▁Zusammenfassung~~1681
entwurf~~17517
▁heiratete~~11237
▁hob~~9308
▁lies~~9482
zyklus~~9627
▁Sterne~~11636
▁fehlt~~4181
▁schmelzen~~4704
▁verfolgen~~5765
steigt~~383
▁Schwester~~6161
▁schaltet~~9011
staaten~~5126
▁Körperteile~~10053
▁Witwe~~10949
▁vermeiden~~4638
ologische~~9845
▁ausge~~5422
▁Abschied~~6778
▁bösartig~~11109
▁Aufnahme~~8594
▁Nerv~~5449
▁Neues~~6955
▁buffer~~15526
ood~~7167
▁Africa~~17553
gegen~~10319
fällig~~2264
▁aufbauen~~2682
oon~~12813
▁analysis~~18570
▁Sackgasse~~6589
appen~~6516
erfordern~~13803
▁geschieden~~4372
▁Dollar~~2412
▁animiert~~14048
▁enttäuschen~~2015
▁feiern~~1510
gläser~~14450
▁sorgen~~783
▁ästhetische~~10311
▁junge~~1776
klammer~~795
▁Hippocrat~~18103
ädagogik~~2214
▁Schadstoffe~~4855
ult~~5063
ulu~~13103
▁Rechen~~13700
▁Vorgabe~~2242
▁Hohe~~5521
▁zufrieden~~1549
flo~~8077
vy~~14857
▁archaeolog~~13875
▁feiert~~2865
▁Ticket~~12834
▁pass~~8351
▁Bali~~14036
claim~~16920
▁Balk~~1979
spüren~~2557
▁Ball~~9799
▁gewaltig~~5883
▁zuständig~~5691
▁gefärbt~~10137
▁angeblich~~7996
▁gefällt~~709
▁image~~16390
Behörde~~8713
▁Muh~~14748
Telefon~~16614
▁tele~~15706
simulation~~14897
▁Bezahl~~3641
▁Jura~~8226
▁Kommunikations~~3141
▁alter~~6039
▁ermutigt~~7178
▁interessiere~~3956
▁Franklin~~7149
▁gezeigt~~4099
▁zusammenschließ~~288
▁Kommandant~~12342
▁fall~~15958
▁hätte~~2854
▁interessiert~~3943
▁Cash~~16531
▁Sleep~~8528
▁Förder~~8698
▁Simon~~4063
▁Will~~6203
mar~~364
anzug~~3458
mat~~7984
▁kontinuierlich~~7527
▁quadratisch~~10718
▁desert~~17641
▁Samu~~13246
▁schwache~~14726
▁Autorität~~1638
mag~~10872
▁ga~~15113
▁jedwede~~4890
maßnahme~~8272
▁ge~~595
mal~~2078
▁guten~~2117
man~~3252
▁mama~~18173
▁Corp~~17276
ide~~9619
▁Spermien~~9171
▁Verleger~~10479
Droge~~17031
▁Gold~~9690
▁amüsant~~7098
antrieb~~12814
▁Nelson~~11937
q~~2126
▁Wahrnehmung~~8785
▁Voraussetzung~~2216
▁Versammlung~~10202
▁Cathe~~10398
▁ueber~~16684
▁Enrique~~13407
▁Benutzer~~9334
▁gehen~~957
▁Bruch~~5098
ennial~~16634
ulate~~14415
▁Sylvia~~5631
Wirtschaft~~16206
▁Olu~~18119
▁antreib~~639
wetter~~15498
immer~~147
▁hochwertige~~8163
ommission~~15415
▁did~~17120
▁erforschen~~6656
▁zurückkehrt~~9258
versicherung~~8982
lpreis~~13788
▁bewegen~~273
▁Native~~17241
▁Süß~~14553
▁Rad~~7985
▁mum~~8979
▁Like~~4587
geschaut~~7791
▁Horizont~~6712
thane~~16028
▁Körpers~~3415
▁Ram~~10928
bittert~~11827
gebracht~~3136
▁Tunesien~~17196
▁Rat~~10765
▁greifen~~3335
▁sexual~~17802
▁transgender~~18297
▁Sauerstoff~~656
Weihnachten~~11437
▁richtig~~530
landschaft~~5602
egulation~~16200
▁geschützt~~5522
flügel~~5053
rolle~~11271
▁memes~~16389
ächtige~~16226
▁grenzenlos~~8593
▁Regenwald~~934
▁Witze~~12623
irrt~~7919
▁Aufgaben~~1368
▁Vorhang~~10755
▁Canc~~16736
▁Eye~~12975
She~~8006
base~~17724
▁wunder~~5102
▁anzugeh~~7274
▁dad~~17144
▁Tornado~~16775
▁Infektion~~5385
▁Arten~~650
färb~~5412
▁überschreiten~~12577
▁Vorsitzende~~10269
▁Trick~~9812
ualle~~8051
ierten~~3532
▁für~~111
▁Expo~~10556
▁Schwingung~~12976
▁Meiste~~16888
dauert~~11921
▁fliegt~~2425
▁Genozid~~10875
rock~~10529
tauchen~~5934
▁hübsch~~13876
▁Julie~~17310
▁Anwältin~~17321
▁DNA~~6805
▁partner~~9370
▁Wichtige~~7032
▁Wilderer~~17378
▁Gute~~2799
▁Organisation~~2691
▁allererste~~6536
▁Container~~14136
▁Satz~~6404
▁400~~2324
girl~~16530
▁Brian~~4898
rannt~~6633
▁Rechten~~9994
▁anomal~~18064
▁fist~~17985
▁Hühner~~9074
eltern~~14420
▁Lego~~11603
▁Täler~~49
▁shak~~12180
▁zugehörig~~13342
▁ozeanische~~16508
▁Stimmung~~4405
▁Entscheidung~~1437
titution~~1172
▁müsst~~9470
meldung~~8237
▁geniale~~12684
▁nukleare~~8869
▁bekannte~~876
ließ~~5347
dioxide~~18141
▁eigentliche~~7141
▁transport~~17682
▁Keith~~14353
fel~~10652
sensor~~9814
▁zehntausend~~17348
▁1890~~14841
▁müsse~~2508
▁existentielle~~13517
▁sensible~~14735
▁FreeSpeech~~18562
G~~1006
ory~~8277
zuspielen~~3944
▁basis~~16990
ort~~6114
▁electronics~~18322
ors~~7721
▁anfühlt~~3688
spiel~~3747
▁Essay~~17609
erwerb~~15206
▁diskutiere~~10453
ork~~5234
gestopft~~12709
ori~~4971
▁geschehe~~1097
org~~2185
▁Tode~~11964
Licht~~8453
gott~~10005
▁Gesch~~12082
▁Mick~~10247
▁dazwischen~~4415
MF~~16591
▁herausziehe~~12171
▁busy~~16978
wurm~~667
frequenz~~15045
▁Weiter~~2206
▁Bestäubung~~15663
▁Produzent~~14155
verbrauchen~~13797
▁Auftritt~~15866
▁erwäg~~10057
frequent~~4439
▁Davi~~4436
▁Eigen~~7393
MA~~8618
▁BP~~16196
kappen~~4752
zulerne~~11215
▁notwendig~~5594
▁Dave~~66
▁Krebsart~~15782
häu~~10393
▁Bike~~16281
▁Konstruktion~~4159
▁Olive~~13975
▁Sorge~~10243
sozioökonomische~~16796
long~~15670
▁letzte~~1067
▁BL~~590
waffen~~12516
▁binär~~3080
nahmen~~9913
▁vermeidbar~~16992
▁Unmögliche~~6052
▁Wirkstoff~~15245
▁Bu~~6352
▁Br~~6673
level~~15010
▁gebete~~3166
▁geografische~~5089
▁entzieh~~12987
▁Spot~~5779
modernism~~14435
▁Habitat~~14101
▁Sport~~1404
▁Be~~2228
▁unbehaglich~~14914
▁sieh~~3514
▁Voraussage~~16170
▁Ba~~6365
▁Bo~~1293
Post~~7887
▁Subvention~~12683
kontroll~~15878
▁internationale~~5569
▁Bi~~6062
▁Waffe~~14806
ähle~~10862
▁element~~5981
▁hinzu~~5106
▁bewundern~~11685
▁Tiefsee~~720
▁Charlie~~13590
▁ausdehnt~~14903
▁Zielgruppe~~16968
▁normaler~~9007
▁Gitarre~~11600
▁sanit~~12361
▁benannt~~7769
▁Unterfangen~~9379
▁Osa~~17212
▁Tamiflu~~17793
▁geschockt~~11907
gypten~~5017
11~~8446
10~~6279
13~~8100
12~~8112
15~~10760
14~~2420
17~~3304
espür~~8615
19~~13076
18~~16403
▁Bruttoinlands~~6824
▁hunderttausende~~2392
▁rief~~4305
branche~~10387
Gerät~~8896
▁Ass~~11679
werk~~4725
▁Industrial~~16700
lich~~412
▁Juwel~~7902
lick~~14388
▁Küste~~4741
▁Kriteri~~14501
DG~~368
▁Partikel~~11716
▁Fremd~~13063
▁September~~4091
▁jagte~~12265
▁wahrhaftig~~14849
▁sorgfältig~~6282
portrait~~13402
▁Perspektive~~2731
▁Nordost~~5056
▁Ford~~11771
▁faktisch~~7336
▁Licht~~295
▁erlern~~7780
▁Schulköchin~~18441
▁investigative~~12769
wanderung~~16083
▁time~~17946
▁profitable~~12954
skulptur~~13166
potential~~17182
▁Einnahmen~~12380
foot~~17203
▁Ignoranz~~10897
▁dauerhaft~~3933
orado~~16850
▁Kapsel~~11755
▁Magnet~~13896
▁Ruder~~10778
▁bekamen~~6683
▁fiktive~~12533
▁wenige~~1913
▁Flugticket~~16009
▁Steuerung~~13913
soweit~~4984
track~~4188
▁hygien~~17775
Produkt~~11950
stimmen~~8791
▁Wimper~~6727
▁körperliche~~3837
▁Feinde~~4559
▁äusser~~16641
▁Bäckerei~~9214
▁tie~~11392
▁Gleis~~16053
▁Lynn~~17126
▁Kontakt~~8337
▁banne~~14265
▁widersprüchlich~~15629
▁interview~~6878
▁Methodi~~14334
▁wuerde~~12205
gehalt~~10853
liche~~3328
▁River~~13391
▁sheep~~18477
▁Vektor~~13427
MI~~14617
decke~~12246
▁grosse~~1385
monatige~~12495
licht~~2095
▁spendet~~16737
▁Fort~~3801
shop~~12602
WF~~15121
▁Bestandteil~~3100
shot~~11780
▁Saul~~14766
▁vertiefen~~12526
▁waren~~734
▁assoziiert~~10688
▁gang~~13985
▁Aglo~~17823
fassen~~10333
Bube~~16624
▁Minist~~17468
▁Meister~~1491
▁Effekt~~4370
▁ganz~~687
▁Glaub~~4494
▁con~~17420
▁kalifornische~~4769
▁neurologische~~12088
▁Vorgesetzte~~6426
▁Ventur~~15175
bringen~~724
nice~~14425
▁grundsätzlich~~7596
▁Ludwi~~16216
▁Wohnwagen~~5226
▁jünger~~7497
▁Studierenden~~8234
▁Umweltprobleme~~10553
▁this~~18400
▁Kamera~~693
istan~~12280
▁grossartige~~5811
▁Nathaniel~~17977
krebs~~6691
raising~~11686
▁billion~~1348
▁ignor~~12024
Studie~~1707
▁Progress~~14945
ger~~503
sulinresisten~~17850
ären~~2246
▁Glied~~15324
merken~~3790
▁entstanden~~881
▁synthetische~~9105
▁Global~~11901
investition~~16615
amento~~14456
▁versehen~~11944
▁sue~~17656
wasser~~708
▁Computermodell~~14901
▁Schizophren~~3991
gen~~616
gel~~3184
Architektur~~15698
▁Kenntnisse~~8241
▁Whiskey~~15375
▁Hitler~~16097
▁gefunden~~3078
▁Portrait~~12736
▁dämmert~~11235
schichten~~8454
▁bedeutungsvoll~~7976
▁Erstaunen~~6610
▁Lehrerin~~9442
▁Propheten~~11282
▁gedruckt~~9889
▁Opera~~3914
Methode~~14790
▁allzu~~7067
▁benutzen~~212
▁bearbeitet~~8536
▁ergab~~8338
▁band~~6566
▁Algebra~~13681
▁jogg~~14996
▁soll~~1125
▁Suchmaschine~~12939
▁solo~~17080
▁homogene~~12194
▁Sekunde~~1451
ütze~~1188
▁Angeles~~4716
▁bisher~~517
▁fehl~~9250
▁Lyrik~~14859
▁Jungen~~2917
▁nut~~16108
▁hole~~7773
▁hold~~17484
▁Grad~~462
▁verwirrt~~11725
▁Grab~~2066
▁Flugzeuge~~12842
▁Journalism~~11225
▁Gewinner~~11132
▁erschaffe~~12148
▁Spritze~~8963
▁integral~~10880
▁stink~~5045
▁holt~~11288
▁biete~~3033
▁Grau~~9695
▁Gras~~4443
Fernseh~~16071
▁erschafft~~12995
▁Fresh~~14386
▁Schlamm~~1186
▁Lip~~17191
▁Journalist~~6737
▁pathogen~~12894
▁Niederschlag~~12252
▁Instabilität~~7630
▁eindring~~9110
ju~~5834
▁Festival~~16388
▁verbraucht~~13036
▁Sequenz~~12771
▁ging~~1245
ji~~10120
tun~~5752
osphere~~12420
je~~4113
Kamera~~4144
ja~~3605
▁inklusive~~11881
▁Dschungel~~16378
fried~~10701
▁fraktale~~14932
▁stand~~2022
▁pen~~6137
▁Kindheit~~7226
▁Zurück~~13832
▁per~~1081
▁SPECT~~8994
tour~~9638
jo~~11074
▁Telefon~~6417
▁pet~~16303
▁Abwehr~~8050
datei~~16010
gemäß~~5552
▁größere~~756
daten~~2347
▁bemüht~~14429
rthritis~~10044
▁informiert~~7035
▁biologisch~~4690
▁transform~~2055
▁Joel~~15108
fa~~7896
ized~~17277
▁Smiley~~16806
wissenschaft~~3313
▁versprach~~11010
▁Maßnahme~~6520
▁Atomwaffen~~10876
▁Grausamkeit~~13275
▁weitermache~~4009
▁illegale~~12952
▁Kuppel~~8602
▁Vivian~~18205
▁Ausführung~~14564
▁Andromeda~~11765
▁Käufer~~6890
▁zurückleg~~8681
zustellen~~984
▁Wenn~~3451
industrie~~7872
▁ziemlich~~2493
rutscht~~3294
▁Dean~~13147
kultur~~5193
gearbeitet~~237
▁Seuche~~16785
▁Thom~~4486
▁Verzweigung~~14342
identifizieren~~3680
▁Ein~~2219
▁Erfindungen~~4989
▁Schach~~3855
ordne~~2779
igkeit~~2845
▁pea~~18418
▁Eis~~707
▁Transparenz~~1562
▁beschlossen~~6821
▁Linux~~11869
▁million~~1347
gelenk~~10064
▁Thor~~14581
^~~15942
steuer~~13421
▁ausgestrahlt~~13376
▁dringend~~5206
▁weiterer~~7268
▁vielfältige~~9363
▁diagonal~~13160
▁bit~~18554
▁Ost~~5054
▁intentional~~17581
▁begin~~17399
▁Gross~~4930
▁biotechnolog~~9626
▁schlimmer~~6215
gezeigt~~16772
▁Galapagos~~5721
▁wora~~7375
▁weiteren~~2323
Level~~15009
fenster~~4194
▁Stromnetz~~17490
dding~~17304
▁geometrische~~8770
▁Organization~~14392
▁Herzinfarkt~~14990
▁verbinden~~1906
▁Möbel~~5233
erzeugende~~16181
▁umweltbewusst~~16474
▁verbindet~~5450
▁gerettet~~9832
▁Figur~~10260
▁well~~17217
heitlich~~4245
▁Aaron~~17201
protein~~15928
ehlt~~10464
▁Strick~~17370
▁Phantasie~~1439
▁Weltraum~~5764
par~~1897
▁menschlicher~~911
▁kreisförmig~~10726
llerwichtigste~~7050
▁statisch~~8689
▁erfinderisch~~2223
▁Hirnzelle~~17618
▁alive~~17325
▁relevant~~7456
▁menschlichen~~2502
▁Ausland~~6256
Gebirge~~958
▁Republican~~10199
pan~~3440
▁Arab~~15334
▁Freundschaft~~8545
▁Rennen~~7154
▁genes~~16707
▁Tauch~~729
▁individual~~8266
▁Eindrücke~~13469
▁schwinde~~3581
▁gebaut~~3936
▁stellen~~1453
▁parallel~~7920
Nullsummen~~5171
▁Stunt~~13471
▁Arav~~16550
▁bowl~~18071
▁Galaxie~~14597
▁Endverbraucher~~16240
▁Brad~~14785
▁umkreisen~~9816
prozentige~~2588
▁eng~~6032
▁end~~2579
▁Familien~~2033
▁Susan~~9923
▁PowerPoint~~13511
▁Fiktion~~1438
▁Music~~3965
▁habe~~1137
▁ent~~2929
▁Macintosh~~16516
▁Musik~~969
▁bor~~14923
▁Hong~~13916
▁Cafeteria~~14458
kampagne~~7360
▁Mittelklasse~~11258
▁fällen~~10573
▁Fliege~~6652
▁Verkehr~~7182
▁Handschuhe~~3307
▁praktische~~3765
▁Säugetiere~~9133
▁gewünschte~~13350
▁Webseite~~4602
▁Erkenntnisse~~13476
▁Helfer~~12339
▁tend~~13387
▁Ungerechtigkeit~~11206
▁erreicht~~2233
▁Gehirnzellen~~7593
▁wortwörtlich~~14811
▁Dienst~~1622
▁prüfen~~5111
▁entfaltet~~6057
▁Descartes~~11114
quelle~~722
nick~~8754
▁Tun~~6341
tourism~~13100
▁em~~10292
▁el~~3062
▁voneinander~~955
▁Königskobra~~18154
▁Zeitspanne~~3762
▁gewohnt~~3246
▁hält~~1601
▁herauf~~9020
▁es~~150
▁er~~381
▁Total~~15615
▁Gruppierung~~11418
▁ex~~14062
▁elektrische~~5308
▁routine~~9940
▁Vermittler~~12606
▁Grundlagen~~2249
▁Copyright~~10194
▁Bremse~~7066
avi~~355
▁pakistanische~~16001
treuung~~10780
▁Kreise~~1931
temperatur~~11537
grid~~15689
geschlossen~~9765
▁Fachleute~~14329
mog~~2308
▁mangelnde~~14198
▁kürzeste~~7560
▁Kutsche~~15005
stoßen~~3881
▁Venedig~~14444
▁Ameisen~~1361
▁bloß~~3886
▁philanthropi~~16891
▁durchquer~~14883
▁Grenzen~~2252
▁formuliert~~5133
▁range~~16477
▁investiert~~1963
raine~~15973
pflanzt~~9717
▁Western~~5082
▁Dick~~3323
▁Dich~~6780
TA~~13939
getreten~~3212
▁klassische~~6383
▁Karte~~486
▁rust~~17124
▁bestellt~~10525
▁Lance~~15538
▁Szenario~~5599
▁Erwachsenen~~1403
▁UNAIDS~~17206
▁aufgewacht~~13408
▁nachahmen~~2496
▁menschlich~~10686
▁fordert~~1914
ante~~2838
▁60,000~~17541
▁gefährlichste~~41
▁Klassenräume~~14431
▁kreative~~1647
▁Matthieu~~15614
▁Krankenhaus~~3396
▁NBA~~16898
Neu~~9764
erschwendung~~10161
▁potentielle~~10810
▁Druckerpresse~~11667
▁gap~~18435
▁gas~~16886
▁gar~~778
itanium~~13914
▁Ocean~~17121
▁Lied~~5215
ieder~~4743
▁wählerisch~~16368
▁herstellen~~5192
ropaganda~~2998
vertreter~~14338
ellig~~13889
▁erwartete~~6177
▁gab~~238
▁eingestuft~~14921
▁Anwalt~~2131
ände~~2164
▁Verfassung~~10071
▁Monterey~~14661
ministerium~~16911
▁online~~4094
▁jährlich~~4938
▁bulldoze~~18508
▁passende~~8179
▁transformieren~~1342
▁Großbritannien~~2708
▁Sydney~~14961
▁Grundpfeiler~~17585
▁Call~~11439
▁Kaulquappe~~16331
▁Cala~~16986
▁Hypothek~~3697
gefäß~~11289
▁Kälte~~12473
▁Teil~~131
kä~~9756
▁thing~~17403
▁ähneln~~10732
▁folgt~~7307
▁Akademie~~13731
▁willst~~4115
▁Teig~~17794
Zeitraum~~3729
▁ELA~~18335
othy~~13399
isierende~~4369
uadrat~~625
▁Fang~~15992
▁eingerichtet~~6607
Körper~~18242
rührt~~11626
eval~~16612
▁Unterstützung~~5755
▁Laser~~789
▁beispiellose~~8339
▁erwähnen~~5023
▁Stücke~~4129
▁chaotisch~~12520
▁Kristall~~7713
▁take~~17408
ffentlichkeit~~7403
▁Auslöser~~8865
▁Zuhören~~12713
▁morgens~~1571
▁Sediment~~945
▁düstere~~4981
▁kreativer~~4175
▁McK~~13706
Ӓ~~17140
unterricht~~7235
nutzen~~8569
▁heart~~18495
▁Santa~~8436
▁dunkle~~5173
▁Zuhörer~~5373
▁scratch~~18181
▁gleicher~~7509
▁verallgemeiner~~13433
▁Coast~~17717
tiefe~~5544
▁flüssige~~13091
▁günstig~~7359
▁Histor~~8598
▁Wasch~~6491
▁Beute~~322
trey~~12965
▁boy~~14695
▁umgebende~~4857
Defizit~~6900
▁intend~~15275
▁verschob~~11710
▁einflussreich~~2259
▁spektakulär~~11698
Tetris~~18099
▁Recycling~~7779
einander~~3231
▁Anliegen~~7030
▁klatschen~~14253
▁Derek~~15791
egel~~4885
▁Human~~9340
▁klappt~~3374
Leute~~9397
ltar~~16882
▁bedroht~~6915
▁Solarenergie~~16134
ember~~12302
drehung~~14937
▁Statistiken~~9041
▁Rate~~14077
▁kürzer~~3444
▁darf~~6538
gesichts~~6243
▁miracle~~18553
▁denn~~371
USC~~11402
interesse~~5791
▁gesundheitliche~~15919
▁beschäftigte~~3455
▁portable~~17613
▁Generator~~16337
▁beeindruckend~~2112
▁Diagnos~~15608
▁Expansion~~14598
▁brechen~~8932
▁manage~~14991
generat~~12428
▁Spannung~~7206
▁behauptet~~7384
▁ärmste~~5899
film~~8084
fill~~14212
▁Lewi~~7604
▁Kiefer~~6583
▁Winter~~5710
▁Thu~~9535
effekt~~3883
▁Highschool~~13614
▁Sprünge~~9609
▁veraltet~~1231
richtung~~8201
Produktion~~10532
▁Bermuda~~5666
▁bisherige~~9541
field~~5052
▁Leidenschaft~~3026
produktiv~~5187
▁Thi~~11118
▁Blauflossenthun~~17044
▁Risikokapital~~5881
▁fluoreszierende~~13605
▁jugendliche~~1401
▁Novo~~15160
▁dahin~~2045
▁Propaganda~~14418
▁Bolivi~~17546
gesetzt~~2674
schwitz~~7953
sequenz~~8125
▁Schreibtisch~~11991
▁geteilt~~2603
▁Anfänge~~11797
▁Italien~~6709
▁erschreckend~~59
gesetze~~6432
▁Ermächtigung~~16279
▁Mikrofon~~4349
▁stumm~~10284
zieh~~6305
Shabaab~~16462
▁Julian~~10224
▁versucht~~1544
▁Schweizer~~9293
▁Ansammlung~~4777
▁überlebt~~5875
▁komponiere~~14449
▁verfeiner~~12259
u~~1734
▁Grameen~~12594
▁Meinung~~1040
▁kommunizieren~~3951
▁verleihen~~11035
▁Dschihad~~17571
▁versuche~~3156
▁geling~~4280
▁gewissermaß~~4062
▁Verlust~~2861
geboren~~3884
▁Lotterie~~13758
▁Ergebnis~~1432
dollar~~16994
▁Jerusalem~~11284
begriff~~2232
▁Taschenrechner~~14337
▁Durchbrüche~~7471
▁Mediziner~~6750
▁Keene~~18042
▁Jordan~~4732
▁gebe~~3310
▁Lehren~~15473
▁type~~18027
▁Christ~~6262
▁unerlässlich~~9900
▁Herren~~6071
▁Termiten~~10579
▁genetisch~~9077
▁signal~~14623
▁tropft~~12552
▁pension~~16710
▁Unendlichkeit~~7824
▁Dutch~~18358
▁Rezept~~13746
▁Adventist~~17991
▁eBay~~11877
▁skeptisch~~14774
▁Extrem~~8886
▁CAPTCHA~~17455
wässer~~920
moeglich~~17652
▁umgehen~~5775
▁Ve~~8422
▁Hund~~9204
▁Netzhaut~~13451
▁bar~~2941
▁bat~~3592
▁Aussicht~~5176
▁your~~17413
▁unterhielt~~14162
▁orange~~9666
richtig~~10854
assava~~18026
▁voranbring~~14517
aware~~17776
▁gebrauche~~1169
▁bad~~10800
▁inflation~~15390
▁reguliert~~9085
fall~~6068
rüber~~7759
ius~~549
▁Shaw~~3255
▁Shap~~16416
▁außerdem~~4693
▁ban~~15700
regierung~~2313
▁Fünftel~~9941
splitter~~9281
kontaminier~~9164
▁Abfall~~12957
grube~~9691
▁scatter~~17832
▁Bangalore~~6542
▁endlich~~5343
zentrum~~7017
tadore~~17252
▁Future~~17709
▁Drake~~16484
▁Anschluss~~7899
▁benenn~~5163
▁Daten~~419
▁galt~~1813
stufen~~9572
▁ziehen~~676
▁Eisberg~~3945
▁zeitlich~~12578
schüler~~3644
▁Erleuchtung~~15290
▁immense~~11256
▁Spielplatz~~3075
▁unternommen~~2030
▁Bäume~~8661
inblick~~10335
go~~852
▁leere~~750
▁Input~~4154
shmi~~6632
▁erreichbar~~5938
▁Unruhe~~7411
aba~~11531
Herangehensweise~~9371
▁terribl~~17577
konzentration~~17111
▁Blitz~~15482
▁Kapelle~~14474
▁Diebstahl~~15631
▁Isa~~10751
stechnologie~~6987
opter~~13237
trinken~~12112
publik~~4341
▁doing~~17329
▁Milch~~4950
klässler~~10503
▁Konsum~~2654
▁Demokrat~~7326
ordnung~~12699
öffentliche~~7069
▁Klappe~~10028
ckung~~14066
K~~2448
▁smartest~~17897
ggy~~13817
▁cingul~~9014
gemeinschaft~~12308
▁grass~~17343
▁manipuliert~~13907
▁Gebärmutter~~14121
▁Chromosomen~~7542
▁South~~11056
ansatz~~7530
▁Mächte~~12635
▁verdreifach~~7508
▁Slum~~2761
▁koennen~~17651
▁Wolkenkratzer~~10421
▁ängstlich~~9840
▁jüngste~~8185
▁Fakultät~~7198
▁zeigt~~791
▁Astroturf~~14813
▁Gruppe~~3103
▁Spezialist~~6700
meist~~6837
historiker~~15959
▁ferment~~15085
▁weitest~~6840
verschmutzu~~17547
▁jeweilige~~1934
▁Cousteau~~17138
stelle~~1623
▁zeige~~3362
▁Phänomene~~8731
▁Sechstel~~17974
▁lobe~~8549
▁speichert~~16391
▁Fahr~~10314
Sinai~~16679
▁Lester~~14569
▁anfangs~~8131
▁bloße~~11047
▁Luft~~2306
▁Mistkäfer~~18327
▁Aufruf~~10231
▁AO~~15793
▁anfange~~716
▁Koko~~15242
▁Direktor~~6757
▁wandte~~9401
▁Gänse~~14754
▁schütte~~9163
▁test~~3562
▁Behind~~11153
groß~~4797
▁bestraft~~11593
▁Schulsystem~~1703
▁malaria~~17621
▁Instanz~~10303
▁1940~~12852
▁Anweisung~~7906
schicht~~3262
▁wundervolle~~3461
▁Geschäftsführer~~12309
▁entspricht~~2374
two~~16721
▁Abertausende~~10776
▁riesige~~142
▁antworte~~2156
▁Programm~~5503
▁liest~~7754
▁Bestrafung~~11856
▁still~~4423
0.000~~7345
▁derzeit~~3963
landet~~6442
fresser~~4955
toleranz~~16122
▁rigid~~13821
▁Flossen~~14650
▁Umarmung~~7771
▁Flugzeug~~2417
▁Wechsel~~8692
▁relations~~17099
▁Munition~~16770
▁Trend~~7194
▁recycling~~10558
rgiftung~~13885
▁Kind~~1244
▁Pinsel~~8671
komm~~4697
▁ärgerlich~~11655
town~~14428
▁Ghana~~7892
▁chinesische~~6664
▁Princeton~~8326
der~~271
des~~1201
▁Act~~9999
▁Giftstoffe~~15432
▁Ach~~11614
▁Löwen~~10664
del~~3343
dem~~1807
den~~574
▁nutzbar~~10098
Regierung~~13267
illennium~~18045
▁verwechsel~~4799
▁Sammlung~~12508
▁Mother~~13707
▁wegwerfe~~1286
▁Nachkommen~~7587
▁Compan~~13672
▁Electronic~~17114
▁düster~~14495
▁Well~~12189
▁trat~~4322
▁Khan~~15172
gießen~~11006
▁Fähigkeit~~1275
▁Bezeichnung~~9633
▁Kinn~~6314
▁Welt~~200
spalt~~8432
▁obendr~~915
lux~~17299
▁traf~~4120
▁subtil~~13940
!~~415
▁Kompromiss~~8803
▁Sätze~~6146
ombin~~8099
ous~~13525
arzt~~5367
Admiral~~13732
▁Recherche~~9472
bekämpfung~~9560
vdutt~~16078
▁Magazin~~1072
▁verlor~~8171
▁reich~~577
▁flipp~~7241
▁Magellan~~17792
▁Wieder~~1814
▁Strich~~12879
Typ~~10878
▁sowjetische~~14274
▁Ameise~~14633
▁Prothese~~13445
Doh~~17471
▁druckt~~15056
ophonie~~14906
teils~~5922
▁Broad~~17088
▁hinzugefügt~~7507
▁lo~~6170
▁Muschel~~13894
▁geöffnet~~7355
▁365~~12355
▁Meeresfrüchte~~18117
▁quiet~~18481
▁bloss~~12167
blood~~13394
▁Abwasser~~13588
▁fashion~~16557
drängt~~9195
▁Gabe~~7719
teile~~254
▁fabelhaft~~11529
▁50.000~~3324
kaufen~~1528
▁Vent~~8029
verarbeitung~~12739
▁Macher~~12459
▁stigma~~14114
▁Schöpfung~~4460
linear~~17067
▁Kante~~8773
▁Verstärk~~4283
▁Steel~~4903
▁Vene~~14275
gesessen~~9432
▁aufgezeichnet~~4373
eath~~4031
▁Schutzgebiete~~16515
▁Smith~~2785
▁trage~~7297
▁Installation~~12430
zweck~~421
ckel~~9787
▁Wort~~4580
cken~~6728
▁Wahl~~1354
▁Nature~~13578
▁Selbst~~1160
▁Infinit~~15434
▁prop~~10174
▁play~~18365
▁Hochleistungs~~15977
▁Word~~9599
ffer~~8973
through~~17743
▁Allah~~17085
▁Nichol~~9383
▁Wahr~~9245
▁pH~~16928
▁such~~6701
▁Work~~12822
▁Zeitschrift~~16051
cker~~1674
25~~7275
▁god~~18066
20~~2318
▁Feld~~2310
holz~~6584
▁Abraham~~13178
rigen~~9072
▁spät~~4521
▁einfacher~~5117
▁Electro~~17298
late~~14523
▁Keep~~15406
▁Fels~~796
▁Kollision~~5773
▁Third~~13580
▁Kennzeich~~9688
bezahlt~~5893
2-~~10519
▁Alfred~~11350
▁Hirnareal~~17860
▁Ufer~~7803
freund~~7568
▁Vorgang~~2536
▁Schrott~~17491
▁Brasilianer~~17878
▁lim~~18209
▁bekämpft~~7573
▁check~~8146
▁blicken~~4983
▁method~~17988
▁Definition~~7441
▁Gelenk~~10038
▁Mahab~~17500
▁Epidemie~~11181
▁Over~~11086
▁Holz~~8382
▁relative~~2099
▁verschlüsselt~~13498
▁dezentralisiert~~15693
▁anderen~~1086
wunsch~~3850
▁Veranstaltung~~4225
▁unles~~16420
Laptop~~9284
▁klug~~6358
▁Girl~~11164
▁Archi~~16567
zeit~~1787
▁aufstrebende~~16917
▁berühmt~~10754
▁Gui~~12137
▁PCB~~9150
▁lie~~16402
▁Hosen~~6237
▁Hirsch~~13169
ißt~~9244
▁Dame~~8455
▁Maschinen~~6594
zentrale~~14441
▁Unsinn~~1331
fish~~17899
wandlung~~13186
▁leistungsstark~~13906
▁bessere~~1436
▁Bahn~~8631
▁ihres~~2932
▁ihrer~~427
▁kit~~10901
▁glücklichste~~11578
▁heruntergeladen~~12536
orient~~2271
▁traumatisiert~~16747
▁km~~5746
▁komplizierter~~5448
▁ko~~1721
▁kn~~4101
▁Verdächtige~~7139
▁Lotto~~16777
×~~18408
▁kg~~623
▁Sender~~9718
▁wachsen~~908
▁niedrige~~1955
▁Lärm~~8031
äufe~~6892
I~~2625
achtens~~7269
▁Kunst~~1455
print~~13122
▁dauerte~~3416
konflikt~~9950
▁Herzerkrankung~~12656
▁einhergeh~~1804
▁Gesetzen~~9917
▁Farbe~~3329
▁Hirn~~8887
ED~~10189
▁Südafrika~~7060
▁verstreut~~9868
▁Interpretation~~3905
▁Theorie~~8797
▁pessimistisch~~11187
▁Bruno~~10181
▁aktive~~8387
Uni~~7246
▁Webcam~~14662
kollektor~~12290
▁Wüsten~~11758
ER~~15984
▁anschaue~~4213
Energieverbrauch~~9346
Ei~~12397
▁asymmetrische~~8751
▁Restaurant~~4913
▁vermieden~~14209
▁Gene~~7586
▁Gleiche~~3230
▁Behauptung~~10812
▁bewertet~~1327
ã~~17812
▁anschaut~~4198
▁bestieg~~12462
▁festgestellt~~4267
▁Kosov~~15722
▁Nationalstaat~~15542
▁terrorist~~10470
▁Hazle~~16677
▁Eisen~~12465
á~~9453
▁Sudh~~17999
Empfänger~~6816
▁Audio~~13441
à~~13049
adesh~~6061
wagen~~13252
▁Universal~~14582
nach~~3596
▁wiegt~~7843
▁mytholog~~14871
▁AK~~14951
▁Kindergarten~~2053
▁Kondom~~6535
▁Atlantic~~17494
▁Silver~~13971
▁Thursday~~18544
▁Rakete~~8846
löschen~~5877
▁Korean~~13759
▁Existenz~~10232
produzier~~8314
▁Rep~~10992
tüte~~4833
forschung~~1240
kon~~1173
▁Tendenz~~8278
Screen~~4207
▁mit~~22
▁mis~~15213
▁schüchtern~~4123
▁durch~~376
▁Red~~3159
▁min~~15205
▁helfen~~4640
▁Reg~~4959
▁Antrieb~~290
nglischsprachige~~15648
▁Akademiker~~5371
Raum~~9525
kor~~100
▁mic~~17061
▁Biene~~11527
▁erfüllt~~3649
▁Beutelwölfe~~18367
▁gelegen~~8986
ý~~16660
odium~~15704
▁Vorbild~~11308
park~~7020
▁Diät~~2673
▁Davos~~15799
stätte~~5727
▁wunderbare~~2937
▁multinational~~4979
▁Trans~~5769
▁starten~~1029
▁Freizeit~~10504
Problem~~8357
kante~~8823
▁enger~~13009
▁Stoppschild~~14703
▁Schirm~~9217
▁That~~14045
▁Kerze~~16270
b~~1999
▁Online~~6414
▁gemalt~~8439
▁Werbung~~9314
Stammzelle~~16322
▁schade~~16929
▁Liebste~~4594
▁breit~~9953
▁Auswirkung~~3704
▁Geologe~~15988
▁Psychiatrie~~15603
tod~~14895
▁Az~~16546
▁Diskussion~~2024
▁Venus~~11553
▁Verkauf~~5062
▁plädiert~~15887
ichtung~~5606
▁Faser~~7903
hnliche~~10045
▁199~~5966
▁198~~733
▁guck~~378
▁Dodo~~12504
▁Unite~~14247
▁193~~2788
▁komplex~~4298
▁190~~7474
▁197~~6855
▁196~~7695
▁noch~~359
▁194~~2948
▁Neigung~~2460
▁zitiere~~7549
▁Masse~~11241
▁ökologische~~7173
▁millimeter~~17904
▁Premiere~~4089
gehörigkeit~~14179
▁wunderbar~~9467
aged~~18185
▁massiv~~9902
▁Lernprozess~~13854
▁demonstrat~~18449
palästinensische~~13978
▁Trivial~~17451
gestehen~~10341
zero~~9798
sstrategie~~7521
trip~~10088
▁dominant~~15549
ation~~356
▁Final~~13254
▁spreche~~9457
jenige~~8965
▁Pflaster~~15561
bett~~5558
Zackenbarsch~~16120
▁Bälle~~10131
▁Hono~~17074
▁mobil~~15658
denkst~~6301
▁Klempner~~16674
▁vergleichen~~8612
▁prime~~18345
▁honor~~3025
▁State~~4721
▁Optik~~13974
redet~~4543
▁Essen~~2961
▁Osteuropa~~11330
▁flog~~10606
stafrika~~11019
▁tanzt~~10021
▁Fund~~10634
▁Rechenmaschine~~11481
▁jemand~~1139
▁Funk~~8848
kb~~17498
ka~~97
▁transportiert~~4917
ke~~4259
peration~~16536
ki~~6643
ko~~3589
▁Steuerzahler~~12948
kl~~2446
▁englische~~2809
▁Roll~~10988
▁Hut~~4832
kt~~4173
▁Tim~~7315
▁enorm~~1956
▁Ober~~2810
▁ghetto~~18529
▁fMRI~~12011
▁Sala~~12068
▁fungi~~3266
▁besonderen~~5554
▁Medica~~6761
öhr~~14727
▁programmiere~~2498
▁Rebellen~~15072
▁action~~17913
▁empfindlich~~937
▁Darm~~14407
nutzer~~16912
▁Vorschläge~~13005
▁sekundäre~~6076
▁FO~~16406
schäd~~7546
▁University~~3665
▁programmiert~~1344
▁Milan~~16622
▁Bücherei~~8645
▁Salz~~13748
▁Plan~~5806
▁London~~2974
schwanz~~14741
▁Klippe~~471
rotten~~5845
leidenschaftlich~~2888
▁Woche~~909
▁herausragende~~10386
experiment~~10094
▁Play~~10803
▁Cambridge~~2342
▁bereitstell~~3942
▁Joystick~~434
8~~2949
▁Fa~~2641
▁befragt~~1555
▁autistische~~9051
▁ansteckend~~13837
▁Fe~~6765
▁flock~~13890
▁CP~~16400
Agnostiker~~16354
▁entstand~~6423
▁kind~~10290
▁Jahreszeit~~5713
▁Horse~~15692
▁Tomaten~~10127
▁heut~~4429
▁Pen~~9587
▁fluid~~18233
▁Kanadier~~16908
bertreibung~~11299
Bevölkerungszahl~~12915
▁Phtalate~~18440
▁Sally~~17225
▁25,000~~17542
▁63~~13629
▁angemessen~~3678
▁zeig~~11566
▁ALS~~15000
sprozesse~~9403
▁Schuppen~~14440
▁61~~15046
▁vernünftige~~5762
▁süd~~5735
Einträge~~11714
▁67~~9937
▁arbeitete~~7866
▁2.0~~8526
▁traditions~~11705
▁2.5~~12385
▁64~~448
▁Meldung~~1024
zuschlagen~~11474
▁mittlere~~7389
▁weiterzu~~1585
Fotograf~~17136
▁blend~~9350
▁effizienter~~4945
mildern~~12927
▁Größenordnung~~8630
hersteller~~16233
▁vermisch~~9338
Firma~~16246
▁leiden~~10608
▁vertrauen~~1628
aswam~~16263
▁Schritt~~1207
▁Sousa~~17397
▁spit~~13288
▁Foundation~~4651
▁Sphäre~~15402
siedeln~~9632
▁lunch~~18498
▁unabhängig~~5982
fang~~2979
▁Kontrolle~~2211
▁Käse~~12698
▁Nachweis~~10639
▁Health~~15776
▁spielt~~172
bücher~~9548
▁dominierende~~11796
▁existierte~~5042
sonst~~5374
ozo~~9091
▁anzusehen~~10420
▁Papier~~2365
▁Break~~15114
▁Fermi~~17610
▁spiele~~7292
▁Betrieb~~925
▁Muslime~~16046
▁Trust~~7367
▁Inder~~10424
▁Stärk~~11795
lässt~~6494
▁einzigartige~~5663
schlauch~~7855
▁mobile~~6391
▁Bemerkenswerte~~13301
▁Egypt~~18597
Sarko~~13645
ika~~7362
häuser~~4300
▁Vermögen~~11174
▁Stirling~~17624
foto~~12515
▁Bequemlichkeit~~12403
▁Sela~~10625
▁freiwillig~~10865
werbung~~12405
▁weinen~~4538
▁Jonglier~~9985
oreign~~16616
▁entzück~~14423
jährige~~1860
restaurant~~7701
▁Ansteckung~~17096
▁ausgerottet~~5804
screen~~17647
▁Tru~~13936
▁Vibration~~14243
▁come~~18123
▁schmutzig~~13119
▁Knackpunkt~~14286
▁Kohlenstoff~~5563
▁Pandemie~~15409
▁Vergeltung~~16098
▁Gebrauch~~6529
▁Shirk~~15512
▁Unterdrückung~~10932
▁Index~~13337
point~~4146
▁wirkt~~4327
▁Hancock~~14237
bai~~15644
▁größer~~478
▁ground~~12757
▁Milli~~13414
▁Tijuana~~18574
▁viele~~838
▁Moschee~~10972
▁Miz~~17573
▁Russ~~12338
flüssigkeit~~3261
▁dumm~~1357
▁außergewöhnlich~~2174
▁beschränkt~~10693
Khmer~~17879
▁Präsidenten~~7049
strategische~~18028
▁Denk~~2067
▁Leon~~14351
▁Deng~~15921
▁zwischen~~346
▁Schwarzen~~4827
▁Sammler~~7689
▁neuartige~~10039
▁Bilder~~136
arbeit~~1593
▁Jongleur~~9969
▁enem~~18016
▁veröffentlicht~~1378
▁genehmigt~~14467
4~~3200
▁Giant~~13101
▁Pakistani~~10425
▁Südwest~~15488
▁polymer~~9775
pharmak~~17569
▁region~~17752
▁schreib~~11813
gas~~2376
▁Unsichtbare~~3275
sprache~~7376
▁Hersteller~~9322
gan~~14138
▁ausgeprägte~~12038
▁lehnte~~14589
▁Explorer~~8014
▁Nordkorea~~16893
▁verzichte~~13281
▁Talk~~15
gab~~2239
▁April~~8563
Verbindung~~12570
▁zwa~~3408
▁vertikale~~10677
▁fließ~~9239
chten~~6910
Dink~~18216
▁Vorträge~~8890
▁ignorant~~11103
▁Empfänger~~13300
▁Widersprüche~~10340
▁schrumpfen~~2510
▁Puppen~~14869
▁involv~~13933
▁teuer~~9878
▁Access~~9357
Kassette~~12061
▁effiziente~~14151
▁Wasserkocher~~18571
▁Möglichkeit~~1643
▁Plankton~~4840
▁Baum~~8682
rap~~16185
▁Bauchgefühl~~16150
▁Schulter~~4163
wollen~~12741
Gregor~~11262
▁beschäftige~~3486
▁rühren~~11972
▁Abkommen~~10298
▁messen~~1704
▁Tower~~12850
▁Idee~~1333
▁persönlicher~~7921
fuß~~2942
▁Licklider~~17729
zieht~~4844
▁beschäftigt~~3084
▁Haiti~~10605
ymnosoph~~17707
recht~~1445
▁Wäsche~~12961
▁ermöglichen~~4136
▁Greg~~17125
▁Terroristen~~13516
▁Grey~~7381
rutsche~~14363
▁Anthon~~6200
▁only~~17402
▁Kolibri~~11509
▁good~~18526
▁Seattle~~12245
▁regnet~~15772
Arabien~~16586
löcher~~11369
▁schützen~~5531
berflutung~~14282
▁Musk~~16171
itch~~11351
▁niemand~~1895
▁lecker~~12956
▁Sprichwort~~12109
reisen~~5086
▁Sutherland~~13022
▁Unbekannte~~12100
▁Beste~~3773
▁Kurze~~8004
▁Bier~~1664
gemeinschaftlich~~8611
irstream~~5222
▁immaterielle~~17877
▁Flow~~14691
wirbel~~4782
▁Luke~~9307
▁längere~~14671
▁körperlich~~3835
▁Trocken~~10517
▁Anwendung~~3349
▁Hindernis~~10075
steller~~11602
stellen~~4588
▁skeptic~~18381
▁Aufkleber~~7314
▁Shi~~16077
y~~579
▁leidet~~13270
▁Anthropologe~~10635
▁Also~~4183
▁fell~~18270
▁mass~~13753
Massenproduktion~~12730
struktur~~653
▁Nah~~3976
▁Schriftart~~17782
▁illegal~~12067
▁aerodynamische~~16717
▁Johannes~~8165
▁girlfriend~~18488
▁Auftreten~~9044
rbeitsgedächtnis~~17804
▁vegetation~~18305
▁Schoß~~8458
▁frühe~~4380
▁erhalten~~4879
▁zunehmende~~4933
▁geleistet~~13698
▁Reserve~~6283
▁eignet~~3348
▁Erwachsene~~1145
source~~10500
▁morpholog~~12221
▁Duke~~9747
▁bestrafe~~11853
▁Projekte~~5183
▁fragen~~2154
▁Sicherheits~~8919
▁Rätsel~~8355
▁schizophren~~14472
gefügt~~8918
▁Anwesende~~11120
▁Anbau~~4963
bio~~12900
bil~~15237
apest~~14867
▁Beschwerde~~7534
▁Kettensäge~~18055
▁Gerät~~4432
▁agile~~13004
▁verlässlich~~11097
▁Molekularbiolog~~14936
▁Stürme~~12500
▁photo~~9771
erlebnis~~8412
▁Dynamik~~1363
▁Emp~~9053
▁Sommer~~5677
schlüsse~~4761
▁beurteilen~~10013
volt~~14095
▁Implant~~15016
▁Osmakac~~18480
▁and~~18
pflanze~~15092
▁erfolgt~~2064
flug~~7495
▁Uru~~9398
▁Watson~~14712
▁wovo~~3822
▁1994~~10569
▁address~~18142
▁schaue~~7742
ncyclopedia~~17229
▁Millenium~~7048
▁Grundsatz~~12607
▁ergänzt~~9910
▁fünfte~~7506
tasche~~11200
▁rasend~~6054
▁grill~~17943
▁erschaffen~~2940
▁Couch~~5332
▁Ziel~~2270
▁Event~~9520
▁zuhört~~6264
▁PET~~16937
▁Relativität~~14608
bruch~~603
amerikanische~~5717
▁Verlag~~9506
▁Barmherzigkeit~~10915
▁aufzeigen~~4028
▁qualvoll~~15636
▁Umwandlung~~3701
▁Assistenz~~6719
per~~4230
pel~~9871
▁Rasen~~14031
strahlung~~817
▁gegenseitig~~2890
energie~~4446
▁Infrastruktur~~5960
ped~~11100
▁share~~15869
▁Angebot~~8196
▁appetit~~10102
▁Mahmo~~17830
Box~~4375
▁gekennzeichnet~~9631
▁sinnvoll~~2266
▁dicke~~8429
Bot~~4068
▁gefaltet~~8764
O~~4229
▁voll~~855
▁mitgebracht~~13827
▁Lasche~~14254
▁ritual~~18155
uft~~6669
▁schreckliche~~5850
▁PISA~~1706
▁zwölf~~6174
▁solar~~14290
▁Fälle~~480
▁clever~~6684
▁compress~~18558
nden~~6659
▁auswirk~~9922
▁Nützlich~~9059
truck~~16312
▁meisten~~166
Freund~~16632
▁execute~~18504
▁meister~~10698
▁näher~~845
▁era~~15154
menschlich~~15882
▁monopol~~18057
▁Minister~~10600
▁wunderschön~~8116
▁ankam~~6968
▁schädigen~~16351
▁Außenseiter~~11852
▁Landwirte~~11839
▁zurücklehne~~15868
▁Schlimme~~5392
▁gegen~~1123
▁schäme~~12865
▁Hinweise~~5070
▁Klage~~17000
▁Raumfahrt~~15496
▁rauskomm~~6234
▁Eigentümer~~10266
Experiment~~3685
master~~17457
▁steh~~6303
▁anerkannt~~6457
▁Arsenal~~17208
Sauce~~17601
▁Carolina~~3196
verfahren~~4153
▁lebhafte~~11971
▁Entspannung~~7197
▁Durchschnitt~~3505
▁in~~9
▁Steuer~~2021
▁getrieben~~6734
▁challenge~~17744
▁demonstrieren~~9970
▁if~~16810
liegt~~10276
▁Sharp~~17320
▁is~~10125
▁katholische~~10582
▁Turbo~~15589
▁Leone~~11954
▁Daniel~~9981
▁herbeizu~~7680
▁vernetz~~7876
▁mischt~~15030
ierer~~13230
▁gelungen~~5833
▁molekulare~~9915
▁verbunden~~2583
▁SETI~~16479
▁nonverbal~~14817
serie~~6049
▁Did~~17936
konsum~~4733
♪~~13772
▁ungefähr~~921
▁agiert~~11326
▁vorfinde~~11250
▁Präsenz~~6804
▁gänzlich~~6905
jagt~~11076
▁Geoff~~17153
▁Meadow~~16849
▁Gutachte~~2325
direktor~~16545
▁Tue~~11416
▁geformt~~4477
▁Fuß~~706
planet~~8626
▁glänzende~~11524
▁Parkplatz~~10705
▁Lieferkette~~15129
▁Geld~~1936
Sense~~11873
▁politische~~2472
▁Jorge~~17049
▁fordern~~16635
Lehrer~~15712
▁Design~~3367
titel~~3568
▁verzweig~~15147
▁Diana~~12035
▁powder~~18423
▁Glühbirne~~5440
▁Ausschnitt~~8854
▁Diane~~16338
▁Beutel~~11512
▁geringste~~10860
▁vision~~15492
▁trocknet~~12172
unterschied~~2230
▁koordinier~~5725
zunehmen~~3693
▁vernichten~~5862
%~~121
▁Tuch~~13998
▁schreiben~~2469
eller~~9324
▁dient~~7002
▁mor~~15771
▁soft~~17852
▁unbedeutend~~5408
Kinsey~~17319
▁verhandel~~3085
▁kehrte~~12488
▁Bohnen~~13562
▁Saudi~~16135
▁mom~~18401
streif~~11994
▁Entropie~~13359
▁Torosaurus~~17158
▁vernichtet~~6388
▁folg~~10233
uanten~~10339
▁galaxie~~18376
▁not~~9377
▁Hurrikan~~9203
Man~~8836
▁Weblog~~15535
▁Zeiten~~6087
▁beide~~475
▁geeignet~~12590
ative~~3696
▁Ereignis~~5104
▁Applikation~~14988
▁Handgelenk~~3010
▁Baumkronen~~2434
▁Latte~~14367
▁Feedback~~5477
▁anpasst~~12593
▁press~~15378
▁Insulin~~13292
feder~~14657
▁prototyping~~17330
▁endete~~1759
wüste~~16776
▁general~~16769
▁Pollen~~11495
munition~~17234
▁Kraftwerk~~16019
▁Titan~~8640
▁Sensor~~9810
▁Hühnchen~~13722
▁Opium~~12121
▁entertain~~18501
▁hineinzoom~~8489
variabel~~16644
▁Stab~~15197
▁gay~~18296
Sahara~~17620
▁spontan~~11368
▁anfällig~~6002
Sicherheitsrat~~16455
gedreht~~2787
än~~6747
▁Trauer~~11749
▁bombardier~~10834
▁Mosc~~9162
ständigkeit~~9280
▁Geschehnisse~~13257
embl~~15157
▁Konstante~~12134
schmutzt~~4863
treue~~11380
▁prior~~18058
▁Gezeiten~~155
belastung~~11487
▁Territori~~5669
▁umarmt~~13606
▁Visualisierung~~10745
▁ethnische~~11703
hai~~11001
aw~~17545
▁gemeldet~~15822
▁uninform~~17868
ural~~17828
streu~~3016
▁Schritte~~1604
▁Englisch~~3130
▁reicher~~2857
▁Adria~~15367
▁Tattoo~~3009
▁Agenda~~10388
berechtigung~~10957
▁weite~~4814
▁blockiert~~9092
▁offene~~9621
▁Schifffahrt~~17544
intensive~~16528
▁Misha~~17273
▁unterhalten~~7301
▁Kalender~~12327
▁Stadion~~11397
▁1,1~~10423
▁reichen~~3820
▁Einrichtung~~5346
▁Staatsbürger~~17081
▁Shannon~~8247
geschätzt~~16699
nderung~~1488
▁banal~~12603
▁stamp~~14433
phobi~~3286
▁Mädchen~~4536
träglich~~3409
raußen~~484
▁zusammen~~236
▁weltgrößte~~16697
▁auftaucht~~936
▁Start~~8838
▁Farmer~~15118
▁Stufe~~1634
bereinstimmung~~12132
▁bestäub~~10117
▁Full~~16623
Aufnahme~~9944
▁basieren~~6802
einahe~~18403
▁Mittwoch~~13937
▁betreten~~5048
▁Historiker~~8862
▁SAN~~17695
▁herausfordern~~2241
▁besagt~~1802
▁kulturell~~11082
▁Kleinigkeit~~15011
▁Grün~~11546
▁Mörder~~12556
▁Mikroben~~13284
▁Erinnerung~~2610
▁sense~~18575
▁dieselbe~~4616
Verhaltensmuster~~12040
▁Da~~6397
▁vermisst~~15835
▁De~~2740
▁Di~~6678
▁Bewerbung~~8254
▁schaden~~13134
▁Kopf~~377
▁Do~~6793
▁Dr~~3260
▁Du~~1298
▁Regelwerk~~3861
▁Männlichkeit~~6132
▁Hause~~1573
▁electro~~18502
▁DA~~15558
▁allmählich~~13536
▁DH~~9979
▁schreien~~8139
▁DJ~~5324
az~~11278
denkt~~3628
entwicklung~~7008
▁platzt~~7623
▁taten~~3582
▁DR~~17774
▁bestätigen~~10291
mounted~~18354
svorsorge~~12388
Video~~8081
impuls~~13431
▁organ~~9791
▁scientist~~14325
Schlussfolgerung~~7501
wechseln~~11216
body~~17697
▁daher~~4809
▁Treue~~7366
▁Neutron~~17094
▁kilo~~15083
▁kill~~5879
▁car~~18267
▁fühlt~~1503
Professor~~15710
üchtert~~13701
▁falsche~~6001
Kortex~~10678
sinn~~2878
▁video~~17790
▁gefilmt~~13600
▁hochentwickelte~~12722
▁Retina~~16560
▁fühle~~5057
wachstum~~1420
▁can~~17052
▁verrückte~~9168
▁Haltung~~2866
▁harmlos~~5434
▁Namibia~~12368
▁Aminosäure~~13900
▁Alle~~5205
▁Glücklichsein~~15552
▁kommerzielle~~6864
▁Windenergie~~16133
30~~5074
▁Tahrir~~16630
▁Hyderabad~~16239
▁parameter~~17951
▁verlangen~~3588
▁Beleidigung~~14232
+~~9030
▁2,3~~8696
▁Aufstände~~14182
▁2,5~~452
▁versuchen~~507
▁Kellner~~13397
Ver~~2253
namen~~5035
erkranken~~9963
private~~13663
verkauf~~9211
▁eingebettet~~9225
▁first~~15707
FG~~10919
▁Boden~~661
Industrie~~10418
▁Bakterium~~775
▁diagnosi~~18273
▁bed~~1463
cha~~13646
▁wiederkehrende~~16289
che~~3339
▁fanc~~18577
chi~~4250
▁bei~~510
▁Feind~~1653
kologe~~13574
cht~~3834
chu~~9555
▁vergleich~~10676
kennt~~7118
▁Bessere~~1128
Fi~~8923
angestellte~~14326
▁Industrielle~~17479
schworen~~15532
▁human~~2957
igung~~3237
▁schläf~~5372
▁period~~13903
▁ausprobiere~~10531
stone~~15628
▁Schienen~~15192
▁Inter~~3895
▁Pollock~~16647
train~~5404
▁Willen~~2990
▁Save~~11923
tämme~~11479
▁Metern~~345
▁Famil~~12499
▁Nationalpark~~11055
▁bedrohen~~11642
▁Wolle~~15746
▁zweifellos~~14572
f~~967
▁Konflikt~~4483
▁Dörfer~~9187
▁Wingsuit~~13457
▁unseren~~508
▁eingebaut~~3903
▁unseres~~493
▁unserer~~370
▁unmöglich~~3102
▁geschaff~~1611
rätsel~~12748
▁cool~~6195
▁korrigiert~~2328
▁Nieren~~6690
▁Pacific~~4653
▁spielen~~1143
do~~2774
▁rudiment~~12589
▁Schatten~~12967
▁Dürre~~13667
▁Eduardo~~17873
YY~~16830
▁Irish~~18303
tropfen~~3289
strömung~~5644
spezialist~~14969
▁bestehen~~780
fett~~14201
▁Marionette~~12646
afi~~13260
▁Glück~~3849
▁Ströme~~13555
▁Solar~~10756
▁Gando~~17360
▁Bio~~615
uver~~10759
flüster~~4368
,000~~13941
▁Psychotherap~~15876
▁Ozeane~~53
▁Rhetorik~~11340
ausdenken~~5161
lieferung~~13764
▁teilen~~1689
aft~~13214
▁Eimer~~9185
▁Herstellung~~9402
▁Schande~~8396
▁Southwest~~16744
stock~~3439
▁Pocken~~5839
▁best~~13435
▁regulieren~~5786
▁Oz~~3022
▁Panama~~17106
▁jahrzehntelang~~11002
▁Tanz~~1457
▁Oakland~~9186
frau~~4683
▁Bedingung~~1058
kü~~6677
▁Tank~~13664
risiko~~6913
▁juristische~~5543
▁zum~~942
▁Korallenriffe~~16112
▁Beamte~~10431
beinige~~10753
▁schmerzt~~3001
▁Zeug~~858
Meter~~8940
▁bezweif~~7193
▁klein~~2728
▁LKW~~9882
▁Kanalisation~~14391
▁Antworten~~7425
▁Handel~~6976
ussergewöhnliche~~5828
▁Niveau~~1763
▁Lebenszyklus~~15661
▁zur~~324
▁half~~2916
▁Basi~~8434
▁amputiert~~17849
▁Conservati~~5724
ature~~6766
▁logarithm~~17364
maß~~7515
solv~~8180
▁arms~~10585
▁abhäng~~2158
meter~~4853
▁Adam~~4109
▁Arbeits~~1281
▁Intel~~15979
▁biochemisch~~3846
▁Verhütung~~14679
▁Königin~~13459
wände~~12933
▁Gyr~~9013
▁Bast~~7979
▁Kreativität~~1158
lf~~8516
▁rage~~13411
ld~~9466
le~~3330
▁schwere~~3397
▁entsprechend~~7417
▁entdeckt~~3312
la~~766
lo~~4125
ll~~3043
▁schockiert~~6528
sia~~15234
li~~4744
▁brasilianische~~13524
lt~~180
▁Geheimnis~~5359
▁council~~16503
▁relational~~17747
▁On~~9614
▁behindert~~11986
ly~~5210
dad~~16464
▁gear~~16349
spektrum~~12418
▁holte~~1750
▁Kid~~2601
▁Time~~7848
▁wiederbelebt~~1690
sätze~~2254
Zusammenstellung~~15283
nswers~~18265
▁positive~~3751
▁vermehren~~11499
▁beat~~16375
▁Referenz~~6985
zustand~~8449
▁Weibo~~18277
▁festgehalten~~3413
▁Neurologi~~16323
▁zitterte~~15466
▁Neurologe~~11968
▁primitiv~~10435
▁verantwortungs~~11084
Epidemie~~15790
▁Kim~~11557
▁Anwohner~~7186
▁Neurogenese~~18468
▁Mathe~~1090
▁Ooh~~18140
▁toast~~18490
rztin~~9838
▁Lieder~~1456
winkel~~9321
▁tolerant~~11338
▁Klänge~~6797
▁programm~~15164
▁sichere~~11143
▁Krebszelle~~9086
▁Variation~~8758
▁Gattung~~13316
essel~~7161
▁Chief~~14176
▁versammelt~~8324
▁CPU~~17534
▁weiterentwickel~~9137
▁wohltätige~~14188
▁schaffen~~995
▁utopisch~~5140
▁Kit~~5209
▁Denker~~9890
▁Kauf~~1901
rew~~2960
▁Atombombe~~12615
Sekunde~~13039
▁Economic~~15550
▁getan~~3434
rei~~4800
▁ungeschützt~~13339
▁Denken~~1044
▁Ganz~~7944
▁sir~~18436
▁tragen~~6911
▁Dumm~~11085
▁symmetrische~~14563
▁Carol~~4902
▁Bereich~~1060
trächtig~~11457
▁Net~~14773
▁Neu~~2978
▁New~~4320
▁Sitzung~~13021
▁standard~~13752
▁Greif~~15139
▁Vorkommnis~~15420
qua~~856
▁Sympathie~~11909
zapf~~11133
que~~754
▁weckt~~10513
qui~~8153
▁Fest~~5621
molekül~~2301
▁ultimative~~11042
quo~~1229
▁Neo~~1398
▁all~~262
NN~~7076
▁Restaurants~~11246
▁Fall~~400
▁point~~14768
▁Außerirdische~~14626
▁sage~~1292
reaktor~~15333
▁Lincoln~~13179
▁Falt~~8762
▁Terr~~9265
▁als~~184
▁alt~~1258
▁track~~6029
▁sagt~~1209
▁Landwirtschaft~~4990
▁Margaret~~14044
▁Abstraktion~~13343
strategie~~8322
▁Watt~~14287
▁Saal~~4272
▁Thunfische~~17042
zusammengestellt~~15738
▁Höhle~~13330
▁Ereignisse~~5388
▁Fundament~~10588
▁Brita~~16723
▁Common~~10273
▁traurig~~1050
▁Herzklappe~~12890
▁Abfolge~~7477
▁Spazier~~9206
detektor~~16302
▁Android~~12718
▁Club~~4303
achtet~~7724
▁Klebstoff~~9347
oline~~16026
▁gemoch~~16792
▁organisierte~~6999
nobelpreis~~11466
▁Bowden~~17170
speicher~~5564
▁Fehl~~3480
▁Archimedes~~17162
▁Hotelzimmer~~15888
paar~~12772
▁argumentiere~~5130
▁exoti~~6713
kostet~~9877
▁beständig~~7475
▁begrenzt~~5643
bit~~12446
▁orbit~~17937
einnahmen~~13125
▁Sh~~6544
▁Sachen~~2358
▁melod~~16411
▁argumentiert~~10807
ogi~~5199
spiegel~~13648
▁Wurf~~12838
theorie~~3518
oga~~7096
requisite~~12543
▁Schwelle~~4560
▁kenianische~~15655
▁eiserne~~5816
▁lawyer~~17193
▁großartige~~1507
▁Milieu~~17381
▁Wälder~~4456
▁Getreide~~4939
izon~~7514
▁gewollt~~11926
▁bedingt~~5588
unterbrochen~~8274
▁Herzkrankheit~~14079
▁Neugeborene~~9112
parate~~12783
▁CEO~~12946
▁Vergewaltigung~~11193
▁Turk~~13802
Stipendiat~~15468
▁Turm~~2413
▁plann~~17841
▁Turn~~11830
▁Sagan~~14854
▁Taten~~9012
▁Paradigma~~5776
▁Kairo~~16636
▁Recht~~2925
▁Nahrungssuche~~15419
▁dreams~~17315
schreiben~~7752
▁Autor~~4485
▁Autos~~5096
häufigste~~12009
▁BIP~~1080
▁Zwecke~~8802
biege~~13845
kunst~~4734
racht~~9575
▁or~~5719
▁net~~17663
▁neu~~735
▁Angst~~1651
▁new~~17313
▁etliche~~8374
▁Dimensionen~~5293
▁verdiene~~3220
▁ob~~92
▁Oliver~~3964
▁startete~~4611
▁of~~3666
▁Vorliebe~~8739
▁oh~~5344
▁ok~~10018
▁wohnt~~6004
mit~~401
▁Bienen~~10124
▁dritte~~4018
▁Lymphknoten~~9933
▁traditionelle~~1746
mut~~384
▁nationale~~1736
▁rekursiv~~17865
▁angesiedelt~~13927
ktionen~~3912
▁solche~~404
▁prima~~15659
▁Stephan~~7751
▁link~~8370
▁schlafen~~14009
▁mindesten~~3844
▁Ethiopia~~12381
nsas~~13785
▁dünne~~7863
▁Verbesserung~~1712
▁Jim~~2827
▁tag~~11693
▁SM~~16387
▁expo~~8938
▁port~~17274
▁Astronom~~11552
▁Mindest~~13197
▁Unsicherheit~~12101
▁Frederic~~11468
andtuch~~13826
▁giganti~~7997
▁hervorgerufen~~9138
▁Hondura~~16863
▁erect~~12214
text~~1174
äußert~~11717
▁Erkennen~~16063
▁rhythm~~4332
▁Januar~~8164
▁Faktor~~1717
▁Universen~~14600
▁verschieben~~13037
gestellt~~1629
▁auskenne~~14616
▁schwierig~~3584
▁Gespräch~~4830
▁wahrgenommen~~3682
▁verwunderlich~~13293
▁zusammenfüge~~13805
▁monatelang~~2018
▁Wolfram~~15766
bildung~~1720
töne~~4262
▁skalierbar~~15006
▁Sicherheitsgurt~~16861
▁geführt~~2088
▁Folgen~~1106
▁Vision~~2753
▁Rio~~2778
▁schlank~~14199
▁Spitzname~~16373
▁Werten~~7774
vater~~9261
▁reform~~17382
▁tru~~17293
▁Proz~~12548
▁übermäßige~~12636
▁Dhara~~16892
▁SR~~16174
▁Bewerber~~14250
▁soviel~~2377
zeichnung~~7710
▁Stadtplaner~~16256
▁LOL~~16327
▁Drehung~~6331
etwa~~6452
Erdnüsse~~11387
▁tri~~12862
▁Märchen~~1117
zeigen~~8888
▁irgendw~~7392
ausbildung~~8178
▁authentisch~~5273
nce~~16564
▁gras~~15112
▁Landkarte~~10828
▁Fü~~7401
▁Beutelwolf~~16414
schlag~~2281
schlaf~~5370
▁simpl~~18033
▁Erzähl~~2675
▁Fä~~779
▁erschuf~~13641
▁anfing~~1548
▁mikrobielle~~13295
karten~~9552
gefallen~~3191
eague~~17266
urchmesser~~10555
▁Muttersprache~~17814
fällt~~7881
▁Schere~~895
▁Stachel~~14640
▁voranzu~~5758
▁homo~~17109
▁Wüste~~10657
▁anschließend~~1711
▁lokalisieren~~12039
▁Scherz~~5143
▁größtmögliche~~13790
▁überraschen~~8741
▁täglich~~4916
▁DVD~~2703
▁sagen~~944
▁Beobachtung~~7068
▁gha~~11185
▁Ihr~~1031
fremd~~803
▁Maria~~4829
blatt~~3509
▁beinahe~~5803
▁verkaufen~~4873
▁Bogen~~9223
Bird~~12663
▁Lawrence~~10210
apos~~726
▁Shadow~~17159
ington~~3052
▁progressive~~17504
lip~~12959
kreuz~~9664
▁Prostituierte~~7356
▁Klatsch~~11709
▁original~~10229
▁Versorgung~~2224
▁anders~~1764
Gesetz~~15533
▁Archiv~~332
▁gleiche~~977
▁Rohr~~9903
S~~819
▁Kenntnis~~12571
▁entwerfe~~16020
▁Verhinder~~14118
isiert~~2647
▁regionale~~5687
▁ernsthaft~~4544
trogen~~3540
Gesundheitswesen~~3720
▁Ryan~~8242
buster~~2671
▁Kategorie~~7539
▁Nobel~~15745
▁Kra~~5358
▁Therapie~~5499
taten~~10041
[...]
