▁convenience~~6441
▁component~~2349
Uni~~11633
▁Hominid~~9471
▁current~~3405
▁Fleisch~~11630
four~~7794
▁Gould~~11959
ruct~~11242
▁boxes~~1804
▁currenc~~7718
▁holiday~~7167
communica~~9120
educ~~7472
▁Talk~~13
▁laptop~~1018
gab~~6393
▁proof~~2877
▁contract~~8538
▁Glenn~~9751
lord~~6563
▁meet~~1278
▁spell~~6542
▁construction~~7184
digit~~8727
▁cells~~1883
▁carry~~3550
▁Gandhi~~2305
▁cell~~2858
delt~~10775
▁megabyte~~12485
ltar~~7771
▁ruling~~7606
▁theater~~1133
▁ultraviolet~~7914
▁broc~~8673
▁Navy~~9016
akash~~10347
▁Patrick~~11440
▁Dyson~~10752
▁affluen~~10113
onie~~12183
oooo~~11709
▁Rodrig~~9101
▁radiologist~~6804
▁thought~~1247
▁background~~1442
▁Million~~2096
▁Victoria~~9495
▁agency~~6990
▁consider~~657
▁Missou~~8867
▁settl~~6684
▁Fusion~~10346
second~~6425
▁stereo~~6835
▁detector~~6846
▁humpback~~11657
Dog~~11522
▁controvers~~8592
▁grabb~~5347
▁Pop~~8668
▁Por~~6032
▁Optimist~~12566
▁fleet~~5506
▁fake~~3221
▁Pol~~10080
▁radioactiv~~11126
▁Extra~~12006
ronze~~8607
ated~~953
▁There~~4295
▁dem~~7492
daho~~8916
▁possible~~1367
▁Darwin~~7928
▁Nairobi~~8107
▁designer~~3239
▁enact~~11653
▁archaeolog~~5884
▁Depression~~3325
,500~~6205
▁artifact~~1583
▁starch~~7943
▁optimist~~8853
k~~923
▁exponentially~~6997
▁Spiel~~5941
▁Ring~~11496
▁240~~10107
▁Lange~~62
▁metaphorical~~8565
▁Laden~~10940
▁influen~~1993
▁hear~~318
▁heat~~3980
▁pounds~~519
▁Nick~~5739
▁blonde~~12084
▁pric~~8985
▁Radio~~6882
▁Brent~~9896
▁manner~~2194
▁ubiquitous~~6834
▁occurrence~~8048
▁head~~336
stern~~10264
▁heal~~4719
▁regular~~6735
▁Airline~~10165
▁500,000~~4277
▁Cowboy~~12902
▁Tipp~~10751
▁swam~~5338
<s>~~2
▁Bill~~61
▁intelligent~~1644
▁person~~1924
▁neurological~~8301
▁Chip~~8610
▁Testament~~7790
▁swap~~9108
▁ambition~~2330
▁Happy~~10609
▁miniaturiz~~7900
▁modest~~3039
holm~~4039
▁Pac~~11260
91~~2383
▁wonder~~510
hole~~3699
hold~~3485
▁stack~~1323
▁prevent~~4017
▁conceive~~3762
▁Pink~~10720
▁helpless~~5531
EDI~~9358
lves~~6723
▁existence~~7426
▁indicat~~7820
▁measurabl~~1696
wana~~9667
▁year~~729
wand~~9570
▁claim~~4060
▁Philharmoni~~10792
▁Bein~~12798
▁Schafe~~11100
Reality~~12822
▁beating~~4244
▁Mass~~10871
▁producer~~4891
Biafra~~11650
▁caterpillar~~6974
▁disable~~8897
motion~~8020
▁advoca~~7244
▁systems~~1324
LC~~7731
▁prohibit~~8879
▁Haiti~~7319
LL~~7071
▁Advanc~~8701
machine~~11067
how~~1022
hou~~7932
augen~~12858
hop~~3157
place~~4052
▁paleontologist~~9058
A~~1826
▁own~~1231
▁tough~~774
▁Leo~~8955
▁owe~~5589
▁nanoscale~~8528
▁TEDMED~~9112
▁Steven~~5940
▁MacArthur~~6907
▁Lem~~9432
▁Kelly~~8131
▁world~~179
▁woman~~936
▁mentor~~3002
▁Somerset~~9616
aving~~4940
▁thermodynamic~~12165
▁Situation~~12795
▁Ebene~~3674
▁Ricard~~8796
wink~~12238
▁strap~~4410
wind~~4037
▁surface~~523
blind~~9724
▁polite~~9814
▁protest~~7200
▁Acht~~12831
▁want~~173
acco~~10810
▁wann~~11467
▁matters~~1452
▁movie~~1942
▁slipp~~7221
▁Higgs~~11951
▁stimulation~~8259
▁hunger~~4794
▁profit~~1176
▁episode~~7629
▁instantly~~5417
▁bake~~7748
▁emphasi~~4896
▁Hous~~11046
▁crucial~~7457
fin~~6477
▁participate~~2427
▁antibod~~8835
▁computer~~385
▁valu~~899
▁proceed~~5502
▁John~~4461
▁Rhode~~6798
similar~~11274
▁Ahmed~~8445
▁symbio~~3711
tenance~~6274
▁astronom~~9826
▁consequent~~7455
▁Ariel~~2546
▁stretch~~3024
▁skeleton~~7334
▁Securit~~8469
▁property~~4388
▁Kentucky~~9183
▁nation~~5017
▁celebration~~7081
▁properti~~9031
▁regnet~~10778
▁lesson~~1467
▁Dor~~7940
▁Brook~~8840
▁plumb~~727
▁br~~4457
▁democratic~~9929
▁final~~1069
▁by~~27
▁emotions~~1110
▁downtown~~6626
▁be~~226
▁Regel~~12667
▁ba~~3168
▁joystick~~383
▁bo~~7505
▁harvest~~622
▁Mongol~~6529
▁bi~~1242
ru~~1264
▁cross~~4296
▁explode~~2605
▁weeks~~837
▁10.~~12150
ry~~2951
▁invest~~1500
re~~67
Python~~12055
ra~~313
▁synapse~~10339
▁Economi~~839
ro~~358
ri~~984
▁Church~~7583
▁curious~~2177
▁transcend~~5470
▁decade~~1566
▁exhibition~~3747
▁unchang~~8654
knit~~8925
▁crucifi~~10543
crony~~10764
ate~~169
ata~~9528
▁Peace~~7659
▁Russell~~9992
ath~~3451
upp~~5897
▁Guzm~~11876
▁Coca~~8478
▁initial~~2637
▁subtle~~9548
▁patient~~1922
▁lever~~997
▁institutionaliz~~8453
▁choreograph~~8336
vitro~~11609
▁relativ~~9988
wash~~3918
▁description~~2335
▁Mann~~9294
▁level~~1255
▁traits~~1044
▁creep~~8005
▁stomach~~3430
olds~~1332
basketball~~3160
xploration~~960
service~~12107
▁scroll~~5920
▁NSA~~9258
▁activist~~6383
master~~4413
▁primate~~6762
flection~~11713
▁satisfy~~7705
▁1930~~8427
genesis~~513
▁Fischer~~6291
▁trends~~7530
▁ecologist~~9331
cted~~7590
▁frame~~1643
▁mosque~~7561
▁Robin~~8763
▁move~~730
▁prevail~~5142
▁Jack~~9055
▁condense~~10075
Code~~10831
▁free~~2784
▁frei~~12507
tree~~8629
project~~6489
▁masse~~2866
▁determine~~6373
friend~~6976
▁HIV~~5096
tion~~1085
▁truth~~87
▁biomedic~~6857
▁distill~~9381
▁hardware~~2586
▁cobra~~12577
▁constituenc~~8462
▁Fellow~~7898
▁democrac~~8125
▁Deep~~7117
▁wreck~~10252
▁ingenious~~6035
▁Mind~~11938
▁planner~~9389
▁strategy~~5184
▁Mini~~6491
▁dough~~7683
▁celebrit~~11588
▁distinct~~6108
▁6,000~~7717
▁strategi~~5269
▁details~~2894
Bank~~12391
▁threaten~~5418
▁charming~~8824
▁north~~407
▁resilien~~55
▁Sil~~9590
▁pixel~~5742
mouth~~4710
▁Intelligent~~10918
letter~~11495
▁robb~~2219
▁away~~614
▁decorat~~5865
▁sketch~~6506
▁Leit~~12715
▁Samantha~~12296
▁supermarket~~6693
▁tape~~6853
▁Burm~~8198
lose~~9998
▁Burk~~11915
▁empirical~~9683
tech~~3765
▁manufactur~~6531
▁legitimate~~4526
came~~2124
▁wipe~~734
Marke~~11861
▁Nintendo~~8749
▁quad~~1455
▁cyborg~~11346
liest~~6189
▁methodolog~~10450
▁hello~~2991
lethal~~12319
▁Academ~~9118
▁Drink~~12846
▁giant~~319
▁testosterone~~6334
ment~~1307
▁coverage~~6812
▁Lakota~~12382
▁inflict~~7962
rich~~463
rice~~7602
▁chromosome~~5255
▁pharmac~~5116
▁undern~~5324
Account~~11869
motivat~~6281
wide~~3974
▁evident~~5182
▁communicat~~287
▁Propaganda~~11004
▁gathering~~1751
▁Album~~10271
▁warrior~~7427
▁innocent~~3884
X~~280
▁losing~~3552
▁criminal~~1007
▁film~~1941
▁fill~~2509
▁spaces~~2514
▁wrap~~3864
▁direction~~1569
▁Rasse~~12704
▁micro~~311
▁Dome~~4083
▁drugs~~3924
▁incident~~5433
▁success~~1300
blew~~6230
▁adaptive~~3204
▁mysterious~~4676
▁opening~~4436
▁Behind~~2711
Mart~~11439
etic~~5546
centric~~7873
▁Oregon~~6082
▁prevalence~~5105
▁organism~~5187
▁relate~~5568
▁Tyrannosaur~~9070
echanical~~10930
▁mega~~7182
▁autonomous~~10818
▁biotech~~5279
figur~~2773
▁eventually~~423
▁place~~666
Tri~~10913
ire~~3012
▁African~~3173
▁worse~~921
▁deserve~~4253
▁Ideal~~12155
▁Madonna~~5887
carbon~~6346
▁worst~~836
affe~~10034
▁Potter~~10401
ekhar~~10148
▁supermassive~~11909
▁Bernard~~12211
▁tempt~~2613
▁volatil~~4826
▁dein~~11730
dorf~~11703
▁MRI~~1887
▁ca~~3769
pite~~737
esis~~10882
▁Ferris~~11361
▁anniversar~~9723
▁subtract~~9976
▁Stand~~11404
▁SUV~~7118
▁practic~~9765
▁SUN~~6752
▁genital~~6316
▁grade~~4522
union~~8473
▁Block~~3805
▁Pat~~3316
▁external~~7639
▁fair~~3117
▁choir~~5936
.~~504
▁Pan~~1731
▁jazz~~3130
▁fail~~4484
▁welcom~~11289
▁shove~~7352
romegal~~11793
è~~12435
▁finish~~1234
▁welcome~~5065
life~~2659
▁tooth~~4072
pri~~1292
▁merg~~8865
child~~9671
▁rebel~~7577
▁abrupt~~9300
▁tinker~~8756
▁magnify~~11384
▁defecat~~8507
▁Erik~~10065
▁depth~~51
inch~~10937
▁President~~7267
▁depressiv~~12164
▁marginal~~1201
▁poacher~~11932
▁Northern~~4034
▁relegate~~10817
▁Fraser~~12647
▁contemplat~~8545
desto~~12497
▁historical~~7288
▁heck~~8298
▁Was~~6596
▁War~~2774
▁Way~~5462
▁flour~~11620
llows~~12200
credit~~8274
▁horrific~~4230
pulsion~~5606
▁stor~~3979
▁stop~~1102
▁narrative~~1944
▁Explosion~~12486
▁physical~~2794
▁position~~4433
electrifie~~10936
pocalyp~~10611
▁offering~~4381
▁closing~~6048
▁unprepared~~4721
▁Biolog~~11622
▁symbols~~9029
▁Penn~~7048
▁Islamic~~7309
geist~~8094
▁always~~1262
tung~~11464
▁Kelle~~11897
▁motion~~3020
▁school~~266
▁difficult~~598
▁cave~~1972
▁chase~~3802
▁Broadway~~9310
▁fundrais~~7303
▁Olymp~~8086
▁8.~~10053
▁surreal~~10200
▁advanc~~11214
▁Chinese~~3268
▁85~~8399
▁86~~8288
▁87~~1416
▁80~~2439
▁82~~4847
▁83~~6870
▁Maus~~12575
▁88~~9034
ctic~~6892
witzer~~6476
hai~~2380
hak~~4510
hal~~3394
ham~~3604
han~~5748
kon~~10308
▁heavi~~8647
▁libert~~7059
▁phase~~6034
▁mappe~~420
har~~4281
istan~~8420
▁Julia~~8664
▁Julie~~11624
▁guideline~~4335
▁age~~1100
▁prehistor~~9485
birth~~6329
▁ago~~838
▁campus~~7824
▁nest~~3416
▁research~~1678
▁Second~~9602
▁priest~~7170
▁IGF~~12601
▁yogurt~~8683
▁Russ~~11132
▁Anders~~12134
▁recall~~2638
▁traumatiz~~11475
▁crochet~~3462
▁pace~~4974
▁Designer~~3804
ction~~6073
▁recursive~~12321
▁household~~5983
▁pack~~458
ola~~3778
right~~1125
old~~915
▁boss~~1004
▁jurisdiction~~4049
▁eating~~3123
▁Giacometti~~10742
▁Aquarium~~3455
▁dying~~3432
animate~~5176
atrol~~11387
▁German~~1525
▁prince~~5672
ä~~12629
▁Rouge~~11438
▁Snack~~12512
for~~5378
▁just~~561
▁board~~1844
▁sociologist~~8130
▁quantit~~4815
▁Antoni~~11743
▁Head~~3065
▁opinion~~2176
▁chance~~1444
mpact~~11696
▁suffer~~7325
▁mystic~~7471
energy~~9454
▁Profit~~11908
▁fixed~~6222
▁practical~~3193
▁vault~~6632
▁Profil~~8594
▁fingerprint~~8074
▁Swap~~12105
▁Verfahren~~12659
▁disease~~2908
▁plankton~~3468
▁Swami~~11675
▁lifetime~~4624
▁geopolitic~~11075
▁response~~3921
▁possibilit~~1875
▁coincidence~~6388
o~~359
▁biolog~~5230
▁learner~~7245
▁creator~~7088
▁possibl~~5642
▁Wein~~10716
ncyclopedia~~11365
▁offshor~~11105
▁consum~~6331
▁aircraft~~1823
▁Gedanken~~12226
mba~~5522
son~~427
▁exaggerat~~8802
▁document~~3378
▁jealous~~4578
▁legitim~~11471
▁apparent~~3651
▁Neptun~~10151
▁Marc~~9291
▁BBC~~11589
spring~~10363
▁palette~~10869
▁function~~1893
▁pepper~~9437
▁Voyage~~6026
▁publication~~9174
▁critical~~601
▁mobiliz~~7598
▁Mitra~~12263
▁Genen~~12284
▁abnormal~~8254
▁Harris~~6293
▁subject~~1848
▁sector~~4885
▁wall~~2294
uer~~10675
▁walk~~1126
▁sympathetic~~5139
reiter~~9202
▁was~~471
▁war~~2747
▁wav~~9662
▁ceiling~~3788
▁wax~~2488
<unk>~~1
ugoslav~~7578
▁technological~~3029
▁Grill~~8602
▁ancestor~~3534
▁glamour~~12058
▁inconvenience~~10737
▁Athen~~10208
▁upper~~1454
▁roommate~~11297
exist~~9476
▁embass~~11607
▁Birmingham~~12080
▁PC~~8618
▁crumbl~~9862
▁prett~~1074
▁Glas~~5649
▁philanthropi~~5277
▁socket~~11686
monoxid~~11733
▁philanthropy~~4599
▁rivers~~4036
▁Gel~~9834
▁Geo~~9790
▁Gen~~4487
E~~1792
▁Geh~~12166
▁meaningless~~6020
▁listen~~758
▁CERN~~10134
▁robust~~5195
▁tweet~~5358
▁massive~~1714
▁Par~~5740
▁crystal~~5394
▁Get~~4426
▁Louis~~2416
▁sufficient~~4123
▁penguin~~6648
▁Ger~~8099
▁Trends~~12048
▁sentien~~8703
▁elementary~~7630
▁wetland~~6083
time~~2132
▁tacti~~10919
lium~~10145
▁Clay~~10594
▁Lex~~9009
▁proposition~~4893
▁Clar~~8661
▁heavy~~4411
people~~10326
▁Clau~~12463
▁ran~~2024
▁gallon~~6405
▁rap~~6931
osh~~10491
▁approache~~4268
▁rat~~6214
▁rau~~11997
▁raw~~3693
osa~~9062
▁ray~~6850
ose~~3431
▁Jarrett~~12582
▁Thre~~6221
▁candidate~~7845
▁Tricks~~12740
▁Cleve~~9891
ver~~2455
▁history~~745
▁burglar~~5619
▁interpret~~6818
▁Christopher~~1859
▁license~~4660
▁majest~~10149
▁notebook~~5431
▁fund~~2593
▁dawn~~4475
▁cigarette~~3435
▁funk~~9659
▁Australia~~4684
▁Best~~9352
▁comedy~~9344
▁Los~~5370
▁Rwanda~~2138
▁taste~~6697
▁Low~~6009
▁bound~~3576
▁unusual~~2896
▁delivery~~8498
erala~~8495
▁Fan~~6785
▁roll~~4274
▁Log~~7837
▁sapien~~7357
▁role~~3907
▁Plato~~7134
minute~~2470
▁monsoon~~9378
▁Wer~~10662
▁slug~~11385
▁Lamanite~~12824
▁contain~~3473
team~~7077
▁lag~~9794
▁Richard~~6911
▁enlighten~~6559
▁relay~~9230
▁relax~~4935
▁increase~~1154
constru~~7458
▁Treasur~~11098
ermaid~~10595
▁Ed~~3226
▁Lynch~~12291
▁handwrit~~5430
educate~~1494
▁Pandora~~7829
▁Jaipur~~9379
▁Valdez~~11081
▁matche~~7403
▁Garage~~12702
▁ride~~4345
extraterrestrial~~5375
▁protected~~3627
▁excerpt~~6909
▁gateway~~6623
▁Schar~~12918
▁dragon~~8576
Me~~10912
▁point~~1902
▁substrate~~11832
▁El~~751
Ma~~4750
▁bone~~5676
Mo~~6587
▁compensat~~11166
lange~~2981
▁Revolution~~988
▁monarch~~9798
▁catalog~~5368
▁twentie~~8066
magnetism~~9945
▁dreadful~~7625
▁smoke~~4928
▁cheat~~2552
▁Solomon~~12521
▁infinit~~10014
▁diver~~3151
MA~~6018
▁kiosk~~8619
▁know~~818
ML~~4066
▁geometr~~3800
▁inadvertent~~902
MI~~11956
▁none~~3564
MT~~11111
▁fire~~1250
▁ourselves~~883
▁Left~~2710
▁firm~~4738
▁Performance~~7859
▁leave~~1213
▁suggest~~1962
▁cooperate~~7802
▁Knee~~12387
▁Ep~~11592
▁Global~~7527
▁wheat~~8120
▁differ~~5199
▁purpose~~374
▁Koolhaas~~12345
▁Baseball~~12811
▁los~~10969
▁lot~~670
▁low~~2635
positive~~8284
La~~8984
by~~5623
▁Binde~~12259
▁inevitabl~~3302
▁Domin~~7320
▁log~~8002
▁quick~~1170
▁mean~~808
▁meal~~3515
▁CT~~7367
▁Peer~~10828
▁Nazi~~2262
▁Nah~~12803
▁Himmel~~11739
enhanc~~11375
▁CD~~3001
visual~~10825
▁CA~~5290
▁CC~~4065
▁CB~~3055
▁CL~~10911
▁Laura~~5963
▁meetings~~6089
▁remotely~~3669
▁EB~~9235
▁Cu~~9156
▁Speed~~5327
▁Savage~~8566
▁Tom~~2296
▁royal~~1868
▁embryo~~5293
▁Tod~~2827
▁discard~~7836
▁quasi~~11368
▁improvisation~~10514
▁Mexican~~5945
▁Ca~~397
skrit~~8335
▁Top~~10830
▁Co~~4608
▁Ch~~1733
▁ivory~~11233
Monkey~~11331
▁instabil~~5321
▁basement~~4011
▁Emmanuel~~11654
▁bark~~8789
▁shopp~~1609
▁Native~~9313
▁Serbia~~7572
▁sequenc~~4164
▁Brit~~2167
▁bare~~2215
▁computation~~9053
▁signature~~655
▁tale~~873
▁exchang~~9603
▁Brin~~5648
▁bars~~3155
▁devise~~3794
▁tall~~669
▁talk~~695
▁social~~823
▁Zander~~12052
▁drama~~2280
uark~~12441
▁Texas~~7685
▁Michelangelo~~7121
▁deliberate~~3680
atar~~10205
▁resembl~~9030
rgon~~7253
▁till~~609
▁style~~6602
conscious~~11901
▁tile~~5412
sp~~5212
▁neutrino~~10504
▁Sebastian~~9750
st~~619
▁remorse~~4386
▁WikiLeaks~~11838
so~~1421
▁Potential~~12802
▁tilt~~2088
▁generate~~664
▁sleeve~~3879
▁terror~~9285
▁paradi~~11026
▁Aristotel~~12249
▁razor~~6922
kong~~12689
course~~7508
▁hook~~4102
▁intersect~~6115
tta~~4278
▁comedian~~5360
▁Ort~~11001
ographic~~8363
▁stir~~9704
▁conform~~12000
▁tribal~~7838
▁masterpiece~~5861
▁forget~~299
▁attack~~1882
▁attach~~5403
▁boil~~573
eolith~~8407
▁Argentin~~10845
▁prejudice~~7569
▁Ork~~12301
▁antenna~~5877
▁super~~2302
iuk~~10901
▁Report~~11304
▁suspend~~8520
▁marsh~~7424
▁artwork~~9946
strom~~3996
Gordon~~8176
▁Crimin~~12335
\~~12491
▁submarine~~28
▁Cent~~7944
▁cats~~8235
▁abdomen~~10909
▁crave~~11068
▁Howard~~2309
▁tiger~~5657
▁distance~~659
▁glacier~~750
▁scaffold~~6771
viation~~5787
quarter~~8609
▁solar~~6023
▁Stage~~7854
kram~~12309
square~~9769
▁Religion~~12816
▁Carl~~3946
▁Baker~~3148
▁shatter~~6444
▁template~~6961
▁bucks~~3454
organic~~9529
▁confine~~5448
▁devotion~~6641
▁urine~~6390
▁Monopol~~11478
▁direct~~1386
▁trade~~3565
▁thrust~~258
▁seduce~~8250
▁instinct~~5534
▁emergent~~10221
▁critique~~10261
ble~~1139
bla~~5541
▁invit~~3734
▁Gardner~~8721
▁some~~33
▁shepherd~~7787
▁Morgan~~11699
▁container~~7330
▁Faul~~12068
▁collapse~~1898
▁summar~~1294
quite~~2220
▁Kong~~8814
▁Luca~~3408
▁defense~~5621
▁Lyndon~~10553
▁medium~~3162
Z~~5909
▁phosphorus~~11014
▁remain~~5213
▁Proton~~10194
▁forth~~3914
▁Jewish~~7766
▁injur~~5707
▁internet~~5456
▁staple~~5089
▁lightning~~10769
▁choice~~1606
ona~~11737
ong~~2544
▁Paol~~10841
one~~1343
▁moderate~~5211
▁Mushroom~~10538
▁Schnell~~12923
▁faint~~6865
▁persuasion~~11513
city~~5699
▁Leonardo~~5852
▁Authenti~~12376
▁outward~~1667
▁boat~~2205
▁displace~~6445
▁destination~~8848
2~~5954
typing~~3276
▁distress~~7591
▁behavior~~1619
▁therap~~3930
▁Prince~~2854
▁Ninja~~12362
▁confront~~3982
▁equi~~7248
▁Gius~~7027
▁existential~~9286
proving~~11295
▁Raja~~10368
▁Stop~~762
▁trouble~~1376
forward~~4909
▁Rumi~~11186
spora~~10357
▁tendenc~~7723
▁psychology~~7470
▁service~~1175
▁relief~~2732
▁antibiotic~~5210
▁facult~~5800
▁appearance~~5629
▁interrupt~~8257
▁yield~~7072
▁Solly~~10687
▁Daniel~~6906
▁Football~~12466
▁TEDster~~6184
▁congress~~4181
▁wider~~5603
▁Island~~4341
▁halt~~5867
wandering~~3613
▁decompos~~9168
▁Wiki~~11094
emen~~6389
▁unimaginabl~~6098
sam~~3363
▁fr~~1160
▁fu~~771
▁plastic~~3310
▁fl~~9244
▁evaluat~~10898
▁Zucker~~10434
borough~~6640
▁wrinkle~~12173
▁complicated~~3895
▁fe~~6338
▁makers~~1858
▁voyage~~200
▁cubicle~~10848
▁Irish~~11319
▁Suga~~11939
iscipline~~11893
note~~5240
▁demonstrate~~1863
take~~6201
rechtlich~~12660
▁crater~~11623
▁Erne~~10556
▁dragline~~12522
▁printed~~6564
▁reimagin~~8998
▁Trek~~12139
▁life~~7
▁evacuat~~7322
▁dispute~~10525
▁territor~~4058
▁cavit~~12558
▁Turing~~10756
▁microblogg~~12637
▁lift~~4352
▁Pixar~~11899
▁Technologie~~11109
▁conventional~~4965
▁entire~~1636
▁extrinsi~~11420
phil~~2888
drive~~5820
▁blogs~~8016
jacke~~8937
▁straw~~9595
▁Rap~~9346
♪~~9453
▁walls~~2963
▁airline~~11051
▁becom~~4628
▁syndrome~~8228
▁tun~~4113
▁Wright~~10816
▁Camp~~6207
▁related~~5860
▁tut~~2173
▁embed~~9850
▁twin~~6933
▁1950~~4154
▁seatbelt~~11500
▁region~~440
▁Country~~10173
▁mortality~~6888
▁more~~1056
▁contribut~~3445
▁owner~~3236
▁crossing~~5159
▁printer~~10433
liberation~~7595
▁EEG~~11245
▁checklist~~8930
▁Hass~~11708
▁formula~~6349
▁dogs~~6680
▁Bulgaria~~780
▁Garret~~8141
touch~~5891
▁Mul~~11511
▁Just~~4337
▁Sleep~~5956
▁Sixth~~12462
▁evidence~~1961
▁beaver~~9329
▁teme~~12589
▁specialist~~4680
▁sister~~2223
▁Mur~~4545
platte~~12176
▁wavelength~~6708
bombe~~11822
▁gorilla~~8367
▁onto~~2033
▁Live~~5932
▁addition~~5674
▁incremental~~5198
▁frag~~8893
▁conserve~~8907
▁transport~~3528
▁nuclear~~6175
where~~469
vision~~7484
▁costs~~1504
▁minimal~~6124
▁stimul~~3922
▁Japanese~~1623
▁government~~1538
▁wetsuit~~12853
▁collective~~2169
▁650~~3716
อร~~5666
อย~~5668
▁Impulse~~12683
▁Google~~2408
▁collaborate~~2870
▁regenerative~~10458
▁Atom~~8530
ff~~6659
decke~~8353
▁seventh~~4605
▁metabolism~~5172
▁Road~~9700
▁gloom~~4002
▁material~~498
▁Rawl~~12425
▁full~~1797
▁Jess~~11539
▁Liz~~11347
▁homogene~~1584
▁Geld~~12077
▁supplie~~4549
▁Lis~~2153
▁Isabel~~6607
▁significan~~7345
▁mantis~~11664
▁Picture~~11662
▁Lin~~5593
ud~~3337
▁Lib~~8106
▁contaminant~~3351
▁alpha~~8834
▁Honor~~2652
▁Lockheed~~11047
▁ruthless~~10455
▁donor~~4843
millionaire~~10643
s~~24
▁Galvao~~12680
▁Fuller~~5960
▁Geographic~~6197
expression~~905
▁circus~~11560
mann~~10920
hormon~~12290
▁quer~~5679
▁AAA~~11477
▁Ray~~9010
▁citizen~~9146
effective~~9446
Team~~12586
,~~5330
▁reasonably~~10613
▁Tradition~~12152
▁fraction~~3356
▁Norden~~12410
▁technologies~~1405
▁crude~~2277
▁necessar~~4810
▁emit~~10144
▁dancer~~3137
▁Franz~~7971
iges~~11889
▁Frank~~2112
Tetris~~12527
reflex~~3248
▁miss~~5123
▁Dallas~~10114
▁miracle~~3518
▁stopp~~2644
▁alle~~3723
▁voice~~2859
▁peacekeep~~8221
thousand~~10064
▁socio~~1557
gger~~3459
▁circulation~~8027
▁Open~~8501
▁industrie~~11107
▁stunn~~1529
▁Ana~~9900
▁Pharao~~10394
▁sites~~595
leiter~~12809
ived~~4591
▁guns~~7377
iven~~12314
▁thus~~4047
▁Micro~~8531
▁brand~~4527
▁burie~~6193
curricula~~5021
▁Tyle~~7207
▁Fern~~10853
▁responsibilit~~1550
▁intractable~~8909
ive~~534
▁pervasive~~5416
▁flirt~~10244
iva~~9920
brot~~11605
blau~~11740
▁20,000~~6176
▁scratch~~2809
▁complement~~4985
▁Ehrlich~~12064
▁worrying~~8951
▁explanation~~2634
▁Electronic~~10350
▁edge~~174
▁Chor~~12162
▁Citizen~~2288
▁centimeter~~6851
▁quiet~~3122
▁cope~~7369
▁manager~~6482
mont~~5633
▁lit~~5080
▁graceful~~341
▁lik~~9943
▁beacon~~8431
▁retail~~6565
otto~~1174
▁retain~~3437
▁reason~~1191
▁agnostic~~11180
▁unles~~2285
▁lie~~2281
eopard~~6328
erence~~4657
▁AV~~11697
I~~1957
▁Remix~~10267
▁excitement~~2735
▁demo~~2453
▁AB~~3050
▁AK~~10228
▁Stygi~~11546
▁nanotube~~9526
▁AO~~10791
▁agreed~~8325
▁Ar~~6510
▁Ap~~11847
▁throwaway~~3333
▁Au~~5124
▁Hum~~10029
▁decisive~~10322
▁developer~~7205
▁competitor~~8134
▁Ab~~4875
▁Ad~~4873
▁Ak~~5756
▁comparative~~6014
▁scanner~~1897
▁An~~3625
▁friends~~884
▁Al~~185
▁action~~2956
▁proposal~~5275
▁fame~~4550
being~~833
▁Pek~~4638
▁Pei~~12437
▁Pen~~3448
▁Per~~2196
▁Pet~~6245
▁creating~~978
▁Sousa~~11953
▁short~~703
▁calculus~~11503
ronto~~3703
itanium~~6234
▁heard~~1780
pox~~4158
▁last~~586
▁tumbl~~6215
▁Hancock~~9753
▁artist~~1996
▁political~~2121
▁Alphabet~~11469
▁couple~~343
instrument~~2851
▁youth~~5219
▁heart~~2286
exercis~~8748
▁shelve~~6637
▁tank~~6233
▁Allende~~6608
▁flu~~4220
▁involv~~8711
▁Creat~~10655
around~~251
▁objective~~5902
▁chimney~~491
▁Heinz~~12623
▁Sopran~~11392
▁ambulance~~10365
▁include~~1434
▁decentraliz~~10713
▁forecast~~9262
▁Kampf~~12224
world~~8328
therland~~7003
▁Integr~~10766
▁Kongo~~12187
▁Klein~~7808
▁global~~1319
clav~~11302
weight~~9441
▁whisper~~2268
▁ist~~8859
▁commentar~~10615
ggregat~~4042
▁performer~~1370
▁wrestle~~2748
▁Geoff~~11765
▁towel~~4927
▁powder~~10010
▁laughter~~1138
▁confidence~~2322
ddy~~4333
▁which~~490
▁report~~846
▁Oper~~12275
▁NATO~~8463
▁Republic~~5102
▁Abu~~10218
▁carbonate~~9511
evolv~~7930
▁stamp~~5706
process~~9236
▁Philosoph~~9808
power~~5616
▁hum~~3702
▁hub~~8670
▁Matrix~~1934
▁game~~1245
▁hug~~5435
▁disappointment~~6417
▁forever~~2931
▁hormone~~2803
▁app~~6428
▁religious~~2643
▁Meer~~9292
▁hut~~10399
▁Ohio~~10549
▁Irr~~12113
stone~~5225
▁spider~~9841
▁Latte~~12823
ack~~2886
▁Mister~~11658
ach~~5367
▁Pitt~~6660
tumor~~12312
▁millennia~~10129
act~~4805
acy~~1209
ffer~~6296
▁Enc~~10137
▁Party~~9582
▁End~~9140
▁inhabitant~~6986
▁passage~~3175
▁gear~~5068
▁Eno~~12272
legged~~7415
▁Karl~~7707
▁hypothesis~~4435
▁cycl~~4952
▁Ent~~11353
▁Tempe~~8821
▁plume~~10023
essen~~9296
▁Kara~~11248
▁Maya~~11202
▁McCain~~7892
NK~~11124
▁visceral~~10779
her~~4392
▁tourist~~8950
NC~~4414
▁crease~~11035
NG~~8409
▁complex~~2278
▁salut~~4919
▁vapor~~9786
▁Boot~~9415
Bird~~7814
▁savanna~~3195
Stick~~11821
lang~~7937
complete~~5252
▁term~~1082
▁act~~2461
witz~~10089
▁soon~~556
▁adult~~893
▁resonate~~7070
▁MoMA~~10842
▁Logo~~12639
▁Titan~~6037
▁ecological~~5141
▁whom~~3858
assi~~9698
▁extinction~~6359
▁assume~~3218
▁home~~785
asse~~6217
▁coast~~3384
▁homo~~9970
▁window~~347
▁waterfall~~6213
▁Elementar~~12585
▁muffin~~11690
▁squirrel~~5457
▁page~~1743
gone~~3493
ac~~245
ab~~2340
ad~~929
▁club~~2035
af~~7197
ai~~9383
▁potential~~820
ak~~1140
am~~3736
al~~292
an~~399
ap~~3606
as~~2425
ar~~410
au~~5613
at~~4315
aw~~5517
av~~5103
ax~~5494
az~~10198
▁excellence~~1466
▁distinguish~~6828
▁danc~~1135
▁Titanic~~78
▁charismati~~9501
▁Sam~~6628
▁350~~7099
▁dank~~12706
▁San~~1755
▁nach~~7844
▁Winnipeg~~10122
▁pure~~6737
▁principal~~1664
inancial~~11615
▁hack~~5516
phenol~~6345
▁Sar~~10888
▁mund~~8767
▁northwest~~3617
▁Allianz~~11896
▁operation~~3851
▁dispers~~4490
▁Stil~~10974
▁island~~3382
▁model~~1590
rman~~10442
aday~~8560
▁welche~~12662
▁complexity~~7459
▁fuzz~~9493
▁outrage~~6813
▁often~~1647
▁swing~~7446
▁stead~~5202
▁anywhere~~3180
▁steal~~2553
▁steam~~3701
▁grandchildren~~5354
▁steak~~5978
▁resolution~~6139
▁unfair~~1402
▁surveill~~6750
▁refra~~10971
▁statistician~~10610
sch~~7160
▁monitoring~~3998
▁UNESCO~~11934
▁nomad~~8115
▁Gift~~12805
▁Aimee~~12009
▁plugg~~5508
▁muscle~~1871
▁juvenile~~1086
etz~~7287
▁bombs~~6167
▁anyone~~2900
tz~~4788
▁nothing~~1192
▁Venezuela~~11705
tu~~7876
▁despair~~3938
▁Water~~5957
▁quote~~6487
▁teach~~1506
to~~3419
tail~~8508
▁Barrier~~12242
th~~1361
ti~~2513
▁genealog~~8386
te~~1977
ta~~1784
▁nuclei~~9978
▁congesti~~7123
▁produc~~1917
▁decay~~10539
▁Choir~~5931
▁coarse~~8410
▁liquid~~2457
▁optimiz~~1543
▁Wait~~10438
▁round~~2485
▁extrem~~11415
condition~~10202
▁mayor~~7318
▁skeptical~~11113
▁Alabama~~8102
▁sandwich~~6578
▁Brut~~11433
large~~8965
▁psychedeli~~11487
▁Jazeera~~8103
ifying~~3923
▁Whirlwind~~12612
▁Architectur~~9870
▁Teddy~~7055
▁destiny~~11564
▁sad~~815
▁sag~~11913
▁banjo~~11967
▁sai~~196
ngest~~7040
▁two~~113
▁correlate~~5804
▁sat~~4639
▁saw~~545
▁express~~3026
pass~~9810
▁vaccinate~~4189
▁say~~761
▁regime~~4014
▁Das~~12331
▁does~~578
▁Origin~~9828
clock~~1217
section~~1849
▁Trini~~10753
▁Blackberr~~10466
▁Network~~9275
▁EKG~~12256
▁Mississippi~~8804
ID~~10780
▁technologist~~8920
▁Region~~11518
▁Gas~~11958
▁Gar~~3315
▁Gau~~11429
▁Gay~~11925
▁sort~~94
▁Himalaya~~4757
▁invisib~~7703
▁Babylon~~7762
▁Gal~~6964
▁Far~~10578
▁Ei~~12171
▁da~~247
▁de~~894
▁Koko~~12778
▁founder~~6521
▁di~~3993
▁do~~434
▁dr~~3336
ymnasium~~7323
▁serial~~10992
▁du~~3251
social~~10702
▁frog~~5939
ein~~11962
itoris~~10733
▁Finger~~11466
▁epiphan~~5915
▁Libya~~11764
▁rev~~787
via~~8398
▁Free~~6580
vig~~1303
▁Frei~~11093
▁windmill~~9338
▁reaction~~4943
vin~~186
▁heads~~4949
vil~~9910
▁red~~629
vis~~6449
▁Transition~~9594
gosh~~6928
ating~~1305
▁executive~~6586
sparen~~12763
▁altruism~~8154
▁compliment~~10354
▁rubb~~3433
▁neighborhood~~4375
▁inhabit~~643
atalog~~11168
▁Beatrice~~12025
6~~1828
▁altruist~~11578
▁Rock~~7127
▁coordinat~~4094
▁hydrant~~6535
mord~~12240
more~~2482
door~~7321
▁Kyoto~~9421
▁remove~~2674
▁186~~6066
▁187~~7749
▁180~~502
▁183~~9813
▁18-~~8296
▁18.~~11641
▁Reservat~~11479
▁chalk~~9514
▁Levitt~~10294
▁Loren~~3719
▁Mohammed~~12143
unders~~8542
▁CRISPR~~12840
science~~2495
▁grateful~~7788
▁detriment~~11972
▁Life~~4108
wksb~~2911
▁obsessive~~8568
▁propose~~2447
▁scan~~6267
▁Manhattan~~6011
▁rebuild~~4502
learn~~8350
razine~~6299
▁Scot~~3618
lude~~2372
▁write~~1847
▁ill~~4377
▁Harvard~~4619
▁hobby~~7023
▁Program~~11486
▁Para~~10171
▁capita~~843
▁Pizza~~12076
▁Schwarzschild~~10183
▁deforest~~7294
▁multicultural~~5817
axis~~5803
information~~10588
▁Accenture~~11318
▁storm~~4276
▁Hand~~10928
▁store~~2587
▁agenc~~5098
▁story~~99
▁Picasso~~6060
▁Tanzania~~8214
▁assessment~~1412
▁purchas~~7725
▁agent~~4998
upta~~11853
entrepreneurship~~4785
▁Vinc~~12678
▁provoke~~2141
▁studies~~1757
▁playground~~2328
▁Placebo~~12790
omi~~7418
▁central~~2916
▁nitrogen~~10319
holera~~7465
▁3000~~12834
▁match~~2090
▁Blood~~7444
▁thank~~775
▁pancrea~~8556
▁strike~~4248
▁thunder~~5944
▁palace~~7988
▁Move~~4968
▁language~~1998
▁five~~732
▁fresh~~2487
▁Film~~8778
ith~~7778
iti~~2172
▁similar~~1491
ite~~1249
▁angle~~1388
ita~~7682
▁critter~~8111
▁sport~~7438
▁Knie~~12857
itz~~8793
ity~~1078
▁accus~~8249
▁Turkish~~6470
▁consist~~6999
▁wheel~~5981
▁banal~~11334
▁corn~~6300
▁Boom~~8747
▁cord~~3893
▁core~~3655
▁Landes~~12854
oubted~~10017
▁inclin~~1837
▁eternal~~4450
▁Chad~~11082
▁corp~~6594
▁volcan~~47
▁spawn~~4033
ally~~368
▁steril~~9123
▁pragmatis~~12078
▁GP~~11971
▁classic~~2114
▁pianist~~2892
▁House~~2127
▁GB~~11610
▁dozen~~1810
▁average~~112
▁incidental~~4961
▁Bar~~7967
▁Bat~~6668
▁Street~~3609
▁bats~~10227
▁apes~~6712
▁excruciating~~3881
▁Gr~~9318
▁presence~~4745
▁Gi~~8012
▁Bab~~7785
▁Insider~~11261
▁Bad~~10464
▁Go~~2105
▁Bag~~11269
▁Ga~~4748
found~~5718
▁Ge~~1188
▁Bam~~3823
▁Ban~~7279
▁arrogant~~11558
▁Hacker~~11858
▁Kon~~12452
▁faci~~8700
▁face~~365
▁reject~~5163
▁silent~~5235
▁fact~~300
▁societ~~8900
▁constitute~~7454
scribe~~3830
▁erst~~12929
▁Side~~6010
▁Action~~8275
▁Emma~~5988
▁rehab~~5969
▁prevention~~5185
▁lecture~~4611
▁lock~~4432
ć~~12498
▁athlete~~1162
▁prison~~6052
▁production~~3327
▁known~~1055
▁drain~~4957
▁square~~521
▁violence~~2201
rmel~~12723
▁virtue~~5826
▁switch~~3887
▁crew~~2232
▁Rift~~9468
▁virtuo~~2836
▁Civil~~6177
definition~~2329
▁RAM~~11947
▁customer~~1179
▁leisure~~9355
▁spatial~~7384
castle~~8001
▁realistic~~7440
fu~~6941
▁stem~~6273
▁intellect~~10338
▁hostilit~~7860
▁Vermeer~~11190
▁early~~1554
▁swim~~5307
▁proteomics~~10773
▁right~~345
▁rules~~2813
▁rotate~~10101
▁stet~~12590
trick~~11270
▁step~~935
▁jobs~~1385
▁Jerry~~9955
▁weak~~2824
▁commitment~~4267
▁Flickr~~10597
▁radiation~~653
▁tribes~~7291
jec~~10591
▁dynamic~~1052
▁confer~~5193
▁censor~~8299
▁Di~~4665
▁iron~~2017
▁stake~~4138
▁wear~~2684
▁height~~413
▁detergent~~6960
▁Orte~~11957
▁Mega~~10770
▁Birke~~11436
elling~~8493
▁attribute~~8357
▁cradle~~11428
▁Bosnia~~7571
▁precise~~3047
Shreddies~~12449
▁Gange~~6047
▁dwarf~~6208
▁veil~~7490
▁Demo~~8224
▁municipal~~9364
▁Amazon~~6614
▁Develop~~8845
▁Transport~~11084
▁assess~~5236
listen~~12195
▁reflection~~8598
▁conductor~~11870
▁higher~~158
▁Royal~~9759
▁Iranian~~2198
▁occur~~9791
▁permission~~7095
▁nah~~11988
Rhythm~~12593
▁spiritual~~3585
▁earning~~10630
▁decide~~2624
▁village~~5489
▁mason~~11572
▁Song~~3035
▁command~~4423
▁book~~1244
▁Sony~~192
▁frequently~~9673
▁valid~~9356
▁Hawaii~~3421
▁magician~~8733
play~~2724
▁opposite~~1143
▁Last~~11356
▁summer~~4061
▁Morgen~~10759
▁trauma~~8305
M~~1021
virus~~10954
plan~~7537
▁Java~~11231
▁Sel~~9706
▁Banjo~~12361
▁crank~~9918
▁whil~~9687
▁surrender~~5536
▁monolith~~5771
▁discoveries~~3958
▁Kennedy~~9159
▁additive~~11520
▁DH~~6903
▁dashboard~~11524
amme~~10651
▁carcass~~11354
▁whip~~4329
▁famous~~3588
▁DJ~~3814
▁favela~~2098
▁Home~~9328
▁failing~~4289
uga~~4546
▁comparison~~1334
▁Homo~~7356
▁bomb~~3115
▁Whoa~~4945
▁economic~~1345
▁disengage~~12090
▁left~~1648
▁Lip~~11798
▁cooler~~4053
▁explor~~5595
▁Pack~~7063
▁curator~~10290
▁admitted~~9931
▁100,000~~4971
▁crises~~4585
▁electrode~~1894
Muslim~~7798
▁Fowler~~12289
▁measurement~~1320
▁Avatar~~10021
▁Formen~~12671
▁zu~~12674
▁husband~~2235
▁comfortabl~~4841
dependent~~3533
▁into~~183
▁Schmidt~~10435
▁girls~~4358
▁Hippie~~11754
▁everything~~582
▁Twitter~~2819
▁accelerate~~2815
▁Faust~~11399
▁Iraq~~4531
violent~~7538
▁monogam~~9726
adapte~~7816
▁Altern~~12864
▁Sunni~~2745
▁daylight~~6228
▁planets~~9182
▁Aglo~~12849
▁selfish~~7172
set~~430
▁lexicograph~~9490
▁Muslim~~4262
For~~12205
▁optimal~~7491
▁Reform~~8124
▁brilliant~~5284
▁brin~~9735
▁pro~~2188
see~~10000
migration~~10995
sea~~357
▁hopeless~~9971
▁govern~~3971
▁brainstorm~~9840
▁kilo~~6148
trey~~8882
#~~2382
▁Fische~~12140
▁close~~674
▁upset~~7684
▁passport~~7196
▁Gravitation~~12367
▁Sudan~~8183
▁System~~2962
▁Such~~11490
chester~~10323
▁translator~~9967
available~~2471
ahoo~~8072
▁crashe~~10051
▁Pixel~~12168
▁scaveng~~3425
▁exhum~~10998
▁survivor~~2269
▁order~~731
▁Mozart~~2844
▁identical~~6107
▁upside~~6513
▁Leban~~3267
▁virus~~949
▁fiction~~1122
▁Butler~~10124
▁rewrit~~10036
▁microbes~~9111
▁internal~~5082
▁wave~~136
lash~~4898
▁plunge~~9854
load~~5072
▁anesthesi~~3841
▁origin~~6104
bell~~6272
▁harass~~611
Truck~~12588
▁motivator~~10376
▁metropolitan~~3678
bject~~9717
provok~~11041
▁Velcro~~11820
▁insane~~6588
surance~~4746
▁intestine~~10063
▁advice~~6250
▁dran~~10601
gatherer~~9941
▁newspaper~~4559
▁drag~~4249
▁mama~~9701
▁register~~5720
▁Alternative~~12709
▁Tele~~10858
▁Uni~~5892
▁draw~~1346
▁monk~~8199
▁impossibl~~2350
▁Stimulation~~12645
▁Miz~~12093
fire~~4200
infect~~4203
ainforest~~11340
▁Mit~~8391
▁Mir~~1951
mine~~7045
fund~~6552
▁Mil~~2310
▁awesome~~2801
▁Hack~~10699
▁Variabilit~~12810
▁Mig~~6756
▁Mid~~3418
▁finger~~563
outube~~12554
ingdom~~4294
▁je~~293
budget~~9587
▁ja~~5040
▁plaster~~8603
▁celebrate~~2075
Cola~~8479
ami~~7030
pound~~6116
▁night~~3241
▁gravitational~~9979
▁Wagen~~7025
von~~11301
▁enterprise~~8415
▁print~~2068
▁Boulevard~~11287
vor~~5044
▁beekeeper~~10696
nitha~~10729
▁Len~~2256
zzar~~7751
▁imaginative~~5227
▁neutron~~11718
▁Lei~~9614
▁Leg~~11204
▁Lee~~4460
▁Leb~~11816
▁paralyz~~3870
▁killing~~7146
read~~3608
▁Romo~~11941
▁condemn~~5155
▁dollar~~2612
▁elder~~5479
▁Rome~~3589
▁Let~~4655
▁Parkinson~~2907
▁Les~~7565
▁meadow~~9298
▁2,3~~11359
▁sei~~12352
▁amaze~~603
▁ensu~~1441
▁Hirshhorn~~12792
▁Sunday~~3636
focal~~11527
▁AIDS~~7901
kno~~9026
▁Buzz~~10827
▁black~~584
▁penetrate~~4141
maker~~7631
person~~2744
de~~2147
▁daydream~~8039
▁uns~~3698
▁country~~1322
▁Attenborough~~3181
▁Bilbao~~12707
▁mistakes~~2601
▁StoryCorps~~12861
▁Parasit~~12619
▁AMD~~11919
▁und~~6132
▁Craig~~6775
</s>~~3
▁Atlas~~5997
▁Portuguese~~11904
▁anonymous~~1228
▁mastery~~1156
location~~10232
▁Vati~~12624
▁noble~~4722
▁blueprint~~7222
▁node~~2757
▁expectation~~4798
lvani~~7049
▁diplomat~~9433
▁foreign~~4206
▁transmit~~3194
▁Aborigin~~12339
▁DUM~~12573
▁except~~585
ommittee~~4269
OL~~6522
d~~26
▁entrepreneuri~~8485
▁Machine~~5716
▁sponsor~~4867
OC~~9911
▁Media~~2832
▁capital~~4178
▁explosive~~4171
▁sensation~~2009
▁continuous~~1101
scape~~2251
▁Hmm~~5658
technologie~~9985
mässig~~12668
icious~~9937
▁humbl~~10154
▁leg~~2935
▁led~~2874
▁Investment~~12004
▁Glori~~6921
▁headache~~11681
▁alphabet~~8097
▁Fire~~3010
▁accompany~~9151
▁let~~844
▁Truth~~7874
▁respectful~~7111
▁cultivat~~4977
▁Training~~4473
▁audio~~7105
▁eBay~~8161
▁cold~~1123
▁department~~2561
▁incompatib~~7432
▁ball~~3164
▁pitch~~583
be~~1051
▁Cross~~4270
ba~~3973
bb~~6466
▁tuna~~11691
bo~~3407
▁Justi~~10441
bi~~2777
quivalent~~11748
bt~~7544
bu~~5336
▁Eu~~10551
▁Es~~8195
▁Er~~5380
▁climbing~~6220
▁Goldilock~~11192
▁irrelevant~~8436
▁boost~~4425
▁enjoy~~1239
▁Ex~~4845
▁EG~~8718
▁Rest~~9442
▁Cholera~~12732
▁permanent~~2872
▁declare~~2746
▁replacement~~5385
▁laser~~631
▁Diplomat~~11263
▁Hyp~~9257
▁remark~~2156
▁Hyo~~12719
▁EU~~1790
uffalo~~6690
osion~~2530
▁feather~~3854
▁diagnostic~~7896
▁gradient~~11505
▁hockey~~3161
▁slice~~6140
▁load~~4419
▁loan~~7803
appropriate~~4379
▁suggestion~~2574
▁Space~~6650
▁Helium~~12561
story~~5640
▁surprised~~2343
▁sang~~5005
▁Zeta~~9738
▁months~~1240
▁reproductive~~9330
▁expense~~7014
▁OECD~~847
▁Cochrane~~12581
▁misunderst~~7622
▁verbal~~10161
▁introduction~~3332
▁OPEC~~11029
▁institute~~5276
ator~~4107
▁Horse~~10712
tally~~2800
▁registr~~5703
▁jacket~~6203
▁innate~~8137
link~~6453
▁month~~4156
▁Kiki~~11626
atom~~6875
ling~~249
▁unit~~5773
line~~3511
▁4,000~~518
▁refine~~2505
▁mindset~~4962
▁England~~2245
▁carcinogen~~11076
uz~~11049
ut~~2846
up~~2039
us~~195
ur~~1119
um~~3696
ul~~460
uo~~3808
un~~898
ui~~5387
uh~~12180
uk~~6307
ue~~7801
▁arise~~5162
ug~~7562
▁bless~~3735
ub~~1850
▁memorial~~6290
▁human~~724
▁attain~~5529
▁formal~~363
▁loneli~~11677
▁behind~~1477
▁And~~5246
chan~~993
▁cartoons~~8241
▁sides~~4161
▁Strang~~11554
▁Kurs~~10890
▁location~~4498
▁sounds~~1218
▁forgot~~890
▁format~~5770
▁armor~~4177
▁stair~~5088
ulation~~3908
tari~~7187
ception~~8704
▁stranger~~9351
▁jelly~~219
▁doing~~375
▁Seth~~10881
▁limits~~1677
▁stain~~9149
▁intimacy~~7143
▁mechanism~~6766
▁proportion~~1340
▁Auge~~12086
▁Center~~4474
▁exhibit~~6013
▁shall~~8547
▁gain~~2621
▁flatter~~3102
▁mach~~8555
▁dung~~6981
▁unicorn~~5896
ago~~679
▁genug~~8860
land~~1427
▁pluripotent~~11232
▁election~~7109
age~~372
▁processing~~4593
terior~~3761
▁improv~~1203
▁Hono~~11702
▁epilep~~7388
▁Alpha~~11281
code~~10126
▁provocati~~5122
▁count~~589
sistence~~12044
▁Papua~~11561
▁reviv~~6260
▁speak~~663
▁Seide~~12884
▁joint~~6942
istic~~3758
▁feed~~3523
▁causal~~9572
▁demolish~~5552
▁Familie~~8913
▁feel~~1144
▁idealis~~11255
▁cable~~4661
▁transplant~~6772
▁feet~~230
▁passenger~~3640
▁longitud~~7398
▁diarrhea~~8506
▁garage~~9865
▁aspire~~3860
▁ballast~~11240
▁Lock~~5094
▁dismay~~8358
▁arts~~1134
▁Bart~~7107
▁Climate~~1732
tro~~2358
tra~~3146
▁Trauma~~12838
▁illness~~4716
▁Gallup~~6180
uel~~5728
hydr~~2477
▁Hock~~10876
▁opponent~~7110
▁questionnaire~~12292
▁cosmo~~9427
▁vegetation~~9997
▁boom~~4330
▁Whit~~5930
ode~~4897
▁focus~~1462
▁Sek~~9848
▁Hopkins~~9592
▁reference~~3768
▁peripher~~3656
▁photos~~3278
▁Sea~~4030
▁awful~~4155
▁See~~10061
▁Seg~~12684
▁Sex~~5009
▁process~~1013
▁Where~~4517
▁CDC~~9645
▁expression~~2119
▁regenerate~~10459
▁Jobs~~5848
▁staircase~~5921
lec~~10060
led~~3738
leg~~1254
lei~~9762
▁shooting~~482
▁steel~~4505
▁steer~~4441
ler~~2152
les~~246
let~~2030
▁ceramic~~10973
ley~~2301
fifteen~~9576
▁Oprah~~10692
▁you~~70
ctu~~4995
great~~11555
▁mutant~~10982
▁geek~~2779
▁user~~1655
▁toxic~~43
▁hominid~~8373
technolog~~6773
▁Willi~~7078
fetch~~11090
▁used~~1238
▁helicopter~~6287
▁Barnett~~11033
▁gyr~~3467
▁vital~~3906
▁amputee~~12433
▁use~~184
▁dentist~~8972
▁generator~~11171
artig~~12710
▁hostage~~4353
apping~~9054
▁Banker~~12571
▁because~~223
▁Ranger~~4512
▁invention~~3574
alencia~~6543
▁Garten~~10833
route~~12472
▁Strategie~~12832
▁cloud~~456
confidence~~8953
▁Vinci~~5853
▁recording~~7385
▁fever~~7005
zig~~9044
▁breakthrough~~5197
▁juggl~~6895
▁amputation~~10467
▁PDA~~11887
▁National~~3423
▁counsel~~5233
thema~~12097
▁marine~~4070
▁vaccine~~4146
▁sample~~2642
▁flesh~~9119
▁Shap~~11226
▁seize~~9160
▁monumental~~7148
▁Austria~~2740
potential~~12883
▁pursu~~6505
▁indicate~~6264
▁thrive~~501
▁bunch~~4468
ludge~~9463
▁enrich~~5776
▁fur~~6783
▁thumb~~2725
▁glow~~2789
▁Bla~~8716
▁Acumen~~10364
▁fun~~1027
▁speculate~~6265
▁3,000~~6209
▁writer~~3214
▁British~~1947
▁marathon~~7482
▁sea~~73
lock~~5346
loch~~11769
▁see~~120
ette~~8572
▁sex~~4367
▁latrine~~9857
etts~~6663
▁troop~~4742
▁set~~1651
▁sew~~2237
▁chuck~~7918
▁interne~~12922
▁biological~~5218
▁pick~~805
▁Sloan~~11294
▁developmental~~8896
▁Najmuddin~~12330
▁illustration~~4976
▁Kenne~~12514
▁passive~~5779
▁toys~~8719
▁letter~~5042
▁Fulbright~~4642
▁mold~~3826
intelligent~~9470
▁boundar~~1997
▁Theatr~~11403
▁parking~~5388
▁Mor~~10404
▁matched~~7102
Q~~2847
▁remarkabl~~3063
tier~~5488
▁Fortune~~11103
▁Mob~~8057
▁agricultur~~3575
▁teacher~~1499
▁coral~~4008
▁Skinner~~7830
▁pluck~~10656
▁series~~588
▁sculptor~~8523
▁corrosi~~2531
▁spouse~~8006
Community~~5962
▁Miller~~6496
▁he~~337
▁ha~~2444
▁ho~~5399
▁Philipp~~5396
▁Frau~~12751
▁Cuba~~9414
▁popular~~3092
Kaiser~~12557
▁retriev~~5781
▁rip~~2565
▁Room~~6601
▁needs~~3224
▁origami~~10062
▁Root~~6677
▁fascinating~~2370
▁grocer~~3235
▁anti~~2526
▁shoes~~2346
▁rid~~6452
▁Koran~~7556
▁rig~~10637
▁hijack~~10608
▁sculpture~~7128
▁channel~~1911
▁pair~~2493
▁meaningful~~1694
▁Francis~~7067
▁rote~~956
▁unlike~~2170
▁gender~~5555
▁Reuters~~11576
▁reservation~~6430
▁Bowden~~11786
▁Main~~9657
▁comprehensive~~9676
▁specific~~3090
▁replenish~~10566
▁brows~~10389
doch~~9507
▁Initiative~~7687
▁initiative~~4046
▁sanction~~8666
▁blame~~5540
▁oncologist~~4707
▁1800~~9424
Saa~~12863
eben~~12400
▁Dolby~~3729
▁Hyun~~12745
▁familiar~~172
▁file~~9270
glasses~~4641
▁reporter~~4201
▁kiss~~1094
▁sacrifice~~6896
mbstone~~11747
▁estimate~~3543
▁acute~~11025
▁reported~~7774
▁overlap~~8741
▁flute~~7347
▁community~~675
▁Almo~~12610
▁Implant~~12142
▁state~~900
matrix~~8040
▁Schule~~12739
Rumbaugh~~12754
▁Jun~~4273
▁never~~449
▁pond~~8054
▁Jud~~7775
▁Schulz~~7616
▁chaotic~~10195
▁therapist~~1905
▁kri~~4063
▁Falcon~~8585
▁Mord~~12234
▁shapes~~297
▁fisher~~4013
▁Board~~4852
tempo~~3165
▁yard~~5467
▁kenne~~12699
▁Abend~~12408
▁dust~~4602
ociety~~9139
rofluid~~7906
▁Smiley~~12772
▁Cat~~4931
▁remind~~2697
▁Cap~~2113
▁Car~~3593
gestalt~~11603
▁bypass~~10358
▁lumber~~4420
▁Manifest~~8934
Jump~~9350
▁Caf~~11136
▁astronomical~~10031
▁doctrine~~10448
▁Cal~~5725
▁problems~~593
▁Can~~6994
▁preach~~1967
▁spectator~~8544
▁double~~1564
▁Chef~~9451
▁analyz~~10207
▁Joseph~~5114
▁Monument~~3424
▁cousin~~6652
▁knack~~10844
uous~~7485
hertz~~10771
▁meister~~12489
▁refugee~~7178
▁intensive~~3933
▁ging~~11552
▁laborator~~7905
▁militant~~12413
system~~10703
percussion~~6398
▁retreat~~8949
▁idylli~~5937
▁carpet~~6471
▁sprint~~8992
▁Ethan~~10567
▁conc~~1586
▁riskier~~8873
isse~~8964
▁Ko~~4259
▁Ki~~10883
lot~~10289
ambiguous~~8312
▁Bel~~7750
▁Ben~~2299
▁Ka~~3471
▁Bei~~12336
▁cocktail~~7815
▁Patriot~~12223
▁desk~~8638
▁Ber~~7315
▁Ku~~5587
▁demand~~2154
▁innovation~~826
▁Bez~~11056
▁Kr~~9450
▁embodie~~11266
▁advance~~2767
▁KI~~12833
▁suspicious~~7547
omfort~~10211
sourcing~~8151
▁cultures~~1963
▁Harlem~~4317
▁Zipcar~~10826
psycholog~~11445
▁pronounce~~11228
▁necessit~~7467
▁sch~~10175
▁grand~~2976
▁disagreement~~10119
▁look~~123
▁both~~1726
▁industrial~~3630
▁Improv~~9343
▁quant~~7136
▁jug~~11096
▁loop~~3158
eryl~~11323
▁spray~~2467
▁bumblebee~~10307
▁Emil~~9736
▁Business~~8923
▁rabbi~~11408
▁East~~3198
▁boreal~~12338
▁unemploy~~1379
▁Shakespeare~~2314
▁crap~~962
▁northeast~~3626
▁Tarahumara~~11845
fidel~~5119
▁DARw~~10910
▁crab~~549
▁brew~~4899
▁tippe~~12876
cke~~8690
▁edit~~6576
▁treatment~~2917
▁hours~~1517
▁hill~~5350
▁customiz~~10829
ventive~~1665
▁hi~~2990
▁awareness~~2696
▁simplifie~~8390
▁Computer~~5791
▁Ali~~6509
▁star~~3563
▁All~~6583
▁stay~~2979
▁Alb~~9360
▁Hudson~~5487
bring~~8943
▁Alp~~417
▁Charles~~3307
▁accura~~8580
▁calculate~~4831
▁spreadsheet~~11039
▁church~~5874
▁hitchhik~~12274
▁week~~722
▁eyebrow~~10492
▁skyscraper~~7189
tude~~6025
▁bedroom~~5002
▁Igbo~~10783
familiar~~178
▁chair~~2902
sbro~~12576
▁chain~~3481
▁lobe~~6269
▁iPhone~~5411
▁Tempo~~12643
▁processor~~9822
▁championship~~2420
izzy~~10509
▁variet~~1759
▁painter~~8009
▁Idiot~~12222
▁alt~~12696
▁Snowden~~9260
h~~2365
▁puzzles~~8717
▁Curitiba~~12520
▁lifted~~4483
▁solid~~6204
rtigr~~12871
rapped~~3507
▁prompt~~4800
▁inspiring~~6551
▁partial~~5260
oma~~8340
Source~~12552
▁seeds~~4828
▁recipient~~4755
▁cylinder~~6127
▁bucket~~5825
▁rib~~9478
▁walks~~1316
▁shore~~3986
▁mustache~~10453
▁undergo~~5257
▁twist~~4321
▁amp~~3096
partisan~~9962
▁Die~~11724
▁safe~~5355
▁ozone~~10251
PA~~6182
▁prepar~~4342
▁summit~~5325
▁Serie~~10570
PJ~~6343
▁Test~~11789
PO~~6483
PL~~10262
▁rage~~6887
omo~~10059
▁truck~~8492
▁text~~2407
▁literal~~3044
▁literar~~9815
▁Fibonacci~~11638
ende~~8075
▁chemotherap~~8347
▁access~~2020
▁000~~12101
▁casual~~8746
▁se~~2705
ets~~7582
▁goat~~6694
▁sa~~3554
ett~~4636
▁radi~~6122
▁title~~2423
▁so~~202
▁Barry~~6898
▁Operation~~7268
▁sh~~131
▁Kumar~~11104
▁limited~~4882
▁st~~710
▁sw~~3450
▁amount~~1481
▁sp~~3352
ete~~11979
lager~~12730
heart~~7653
▁ghetto~~6041
▁shirt~~5550
ck~~9012
ci~~2143
▁motorbike~~5292
co~~2479
▁functional~~6763
ca~~6691
▁birds~~3182
Hex~~10949
▁execution~~10614
ce~~2072
▁filling~~5838
▁Christi~~8589
cy~~3937
▁Sophia~~10498
▁Kram~~11759
▁behaviors~~2344
labor~~9097
uck~~4412
▁hair~~627
uch~~4704
▁investigat~~6869
▁Jenn~~5419
▁Baxter~~9907
▁acquir~~11153
▁texture~~7933
▁emitt~~651
▁respect~~3283
▁jeopard~~4371
▁initiat~~7234
▁Mission~~5591
▁pat~~6692
▁cartoon~~6841
▁Bitcoin~~12806
▁Show~~10958
▁plutonium~~10657
räumt~~12666
banish~~7996
▁atmosphere~~1786
▁Kath~~6288
▁animation~~8883
▁Phantom~~11488
▁Game~~8924
▁Kate~~10700
oung~~7038
▁blogg~~8200
▁Canadian~~6310
▁Amazonas~~12332
eur~~8499
▁predict~~5200
▁Asian~~6731
va~~6573
▁Keene~~12464
▁Maz~~10383
ve~~75
▁Held~~12862
vi~~924
▁fallen~~1362
▁Andrew~~5454
▁ATM~~8623
▁Tiger~~9881
vo~~3885
sity~~157
archiv~~291
vu~~8364
▁complain~~1582
vy~~5041
▁mutation~~5254
▁Andrea~~1311
▁crook~~11965
▁Israeli~~3233
▁pose~~3548
▁parenting~~5029
▁complet~~8764
▁clear~~878
▁Hyper~~2882
▁infect~~784
▁post~~3230
▁Blogger~~12074
▁Pythagor~~10225
▁discovery~~201
▁cosmolog~~6015
▁hearing~~3049
terrorism~~11734
▁slate~~2247
▁Weibo~~12687
disc~~8379
ball~~6927
pho~~5480
▁juri~~12487
iker~~12199
▁CFO~~7632
▁Circle~~7419
phy~~4062
▁introduce~~1436
▁tickle~~2945
▁absolut~~10886
▁delicious~~5664
▁moves~~1890
▁Geiger~~11817
lliance~~11414
off~~2366
▁Marine~~3312
▁millisecond~~1899
▁Phase~~12488
▁permit~~686
▁Clinton~~7846
Colombo~~11862
▁warm~~6259
▁control~~1109
É~~12218
▁cockroach~~6738
▁inflate~~10099
▁justice~~4290
▁organization~~1659
less~~980
▁instant~~1272
▁Jersey~~6636
▁Echo~~6653
▁compell~~7617
osmos~~11416
▁84~~3488
▁Uniform~~11343
▁Bank~~4842
▁Honey~~10896
▁presentation~~5478
▁pregnan~~6256
▁town~~3444
▁retirement~~10526
▁robotic~~981
wei~~12147
weh~~11424
▁Buddhist~~8311
▁Gowanus~~12120
▁synchronize~~9341
▁Massac~~6661
▁competition~~6439
▁Buddhism~~10456
▁Oxford~~4620
5~~2426
▁meta~~5052
▁abundance~~9339
▁specimen~~7374
government~~1730
▁accent~~11034
haus~~6786
▁accelerator~~11059
spiring~~8013
five~~3341
taking~~1718
tick~~5557
▁Valenti~~6533
▁Eames~~10854
▁rehearse~~2440
▁infection~~3850
Creek~~3359
▁Tru~~9544
▁concentrat~~9460
entia~~10788
▁parabol~~9555
▁knowing~~1676
▁na~~7883
▁antiretroviral~~9632
▁humor~~5426
▁ne~~3483
▁Tri~~5634
▁Tro~~9200
▁no~~141
▁Neumann~~10754
▁Griffi~~10812
▁revisit~~12158
▁watch~~577
▁Donald~~11882
ronic~~7451
▁indication~~5259
▁Edinburgh~~11644
▁southwest~~11906
▁Sound~~11432
▁statistic~~6309
▁Budget~~10417
▁Law~~7858
▁Paulo~~10852
▁Bangladesh~~5322
▁viel~~12126
▁Lab~~2833
▁lurk~~10172
▁futurist~~3764
▁screaming~~5682
▁Kunst~~12436
▁lure~~241
▁connected~~2763
blowing~~10201
▁wheelchair~~9560
▁Trade~~4853
▁certificate~~5767
▁energy~~526
▁score~~3036
▁Favorit~~10177
▁Mathe~~11969
▁Heli~~11989
▁NGO~~8165
▁dry~~2452
stage~~2739
▁Kauf~~12029
▁Software~~12760
▁update~~2818
▁hump~~12094
▁preserve~~6146
▁bath~~6395
▁ideolog~~10618
▁conquer~~4732
▁buck~~4254
▁Ecuador~~9689
▁child~~1600
▁Bionicle~~12759
▁proven~~6355
▁Chicago~~4851
▁subsidize~~9459
▁enroll~~5715
▁TEDGlobal~~7180
▁Dickinson~~10162
▁Pascal~~10178
▁stare~~3691
▁klug~~12270
▁poly~~3391
▁ellipti~~11052
▁radical~~1326
▁stark~~4288
▁Pal~~3847
▁Admin~~12631
▁starv~~4772
▁start~~509
▁stars~~8018
▁grazing~~8142
▁pole~~7119
▁stuff~~238
onald~~7043
▁sprawl~~9649
function~~4378
~~11155
▁brigade~~5067
~~11156
▁negativ~~12628
▁mountains~~414
▁Opium~~10859
▁patrioti~~11321
▁equipp~~6238
▁brave~~4466
▁pollution~~3992
▁gripp~~10174
▁ecsta~~7523
▁organs~~7002
£~~12444
▁nature~~1048
▁luck~~4310
▁contradiction~~10654
▁announc~~3331
▁Mysteri~~12898
▁row~~7620
▁rot~~4833
▁university~~2579
▁Variation~~12722
▁Blue~~5592
▁bioluminescence~~283
▁Wind~~2352
▁favorite~~222
▁microphone~~3142
▁law~~3949
▁laz~~5058
▁lay~~4043
▁contempt~~11410
▁fisherm~~5636
▁lab~~1873
ino~~9088
ini~~2229
ind~~2151
ine~~3733
▁diplomatic~~11254
ing~~133
ina~~3145
▁Five~~7855
▁valve~~7908
▁contagio~~9734
▁Crowd~~5475
▁cyclist~~12471
▁emotionally~~7624
▁deplet~~8144
▁panels~~3798
▁mosaic~~11751
▁venom~~11577
skies~~9908
▁technical~~2019
▁experimental~~2580
variabl~~11872
▁mechanic~~8306
▁Khali~~12851
▁Illinois~~4848
U~~835
▁circular~~7392
▁childhood~~1555
▁pulse~~7381
▁Ruby~~12220
▁circulat~~9846
▁strand~~7185
▁hero~~4726
▁lim~~4346
▁filter~~7949
▁here~~74
▁investment~~1540
▁recreation~~10379
▁part~~115
▁park~~916
▁arbitrar~~9500
▁requirement~~4504
▁para~~3300
▁Herbi~~9752
▁IT~~5474
▁outcome~~1400
▁Gang~~10944
▁Black~~8601
▁Milgram~~12738
▁subjective~~5903
▁fierce~~6236
▁establish~~3616
▁graph~~5765
entropy~~9169
▁impos~~6258
▁Uran~~10150
▁Alisa~~12192
▁convincing~~5191
▁gelatin~~8069
▁Economic~~10612
▁browser~~5795
ali~~7885
▁unacceptabl~~1290
▁dragg~~7594
mate~~8869
▁driving~~1510
▁am~~1107
▁parasit~~7818
regal~~11146
▁Octo~~3807
▁grandmaster~~2814
▁tolerate~~5145
▁disgusting~~9860
eira~~12181
▁applie~~2476
▁fungus~~10717
▁crow~~7823
▁crop~~1769
Ghraib~~10546
▁accumulate~~5178
▁scoop~~11594
replication~~7233
▁demographic~~9566
tank~~10395
▁Smart~~8114
▁conclusion~~5144
▁teeth~~5575
▁relationships~~4534
▁Gore~~8991
▁hurt~~2265
▁behavioral~~2548
▁devastating~~4170
▁hing~~12219
▁representation~~8100
▁Februar~~4040
▁obvious~~1006
▁marriage~~4540
▁preview~~2971
▁giraffe~~11401
▁explain~~719
ches~~344
▁extremist~~11619
▁Hill~~3727
▁Florida~~6764
▁innovator~~6840
▁peek~~348
chef~~11394
▁iTunes~~10632
▁Ode~~10348
▁Brand~~8979
▁peer~~5693
▁former~~5859
chen~~11352
spect~~4225
▁teapot~~9919
▁those~~232
▁census~~10981
▁engine~~861
▁impression~~2636
▁compass~~7411
▁okay~~2295
▁microprocessor~~10650
ahara~~12503
▁utilitarian~~10408
▁south~~3605
▁McMurdo~~9435
politik~~11264
▁emulat~~6514
▁Lazarus~~9633
▁latent~~9787
tanz~~12295
▁gate~~5704
▁chaos~~2728
▁atom~~8522
▁Wolf~~7980
▁sustainability~~6074
▁Netflix~~10436
▁technician~~2443
egulation~~7946
▁Corp~~11550
▁shortage~~6816
▁fertil~~3573
gli~~2518
▁administration~~1688
▁Europe~~825
gle~~8760
▁Canad~~1428
akt~~12909
aki~~3809
▁Arithmeti~~10763
bunker~~8926
aka~~11134
▁sexy~~5049
▁creative~~991
ake~~8667
▁chemicals~~6297
▁Shackleton~~12072
secure~~5980
▁Carlo~~5858
echten~~12748
iz~~5850
▁trajector~~4006
bre~~4749
▁Eva~~10972
▁satellite~~1767
bra~~6713
▁Eve~~2306
Star~~12570
▁Look~~1337
▁Face~~6226
▁dazzling~~7912
▁babies~~891
▁fear~~1267
▁Carson~~6392
▁Neo~~12250
▁Russian~~6161
▁feat~~8331
▁commandment~~8297
▁players~~1075
▁homework~~5019
▁Pra~~11247
▁restrict~~1015
▁paraphras~~7240
aware~~3635
▁plac~~1610
▁contaminat~~6382
▁scripture~~7758
▁Levin~~10181
▁Berg~~12404
word~~5057
▁Voice~~8077
ers~~259
work~~3801
▁Harry~~7445
▁foresee~~2321
▁shipp~~3984
▁qu~~4934
▁play~~568
ern~~4055
▁association~~8260
▁legen~~3955
illiard~~10400
▁clogg~~11676
cited~~5037
uar~~6562
▁autobiograph~~7405
▁Literatur~~5362
ual~~2041
uan~~7312
uad~~8038
▁furious~~1984
▁progress~~4020
▁Lincoln~~9042
▁Star~~2771
▁imagination~~5206
▁flexible~~6548
▁Fri~~8983
▁Kamen~~9018
▁percent~~109
▁prioritize~~6434
▁Sir~~2162
very~~176
▁Sin~~4644
▁imprison~~9983
▁question~~961
▁instrument~~1092
▁Sie~~9049
▁vacuum~~10760
▁Stan~~4393
▁prostitute~~7673
▁inspire~~2319
lah~~5272
▁recommend~~6811
▁sensible~~4972
▁stomatopod~~12383
▁Chris~~2535
millimeter~~11016
▁skelet~~11173
▁widow~~7549
▁anyway~~3066
▁Iron~~10437
custome~~10730
▁microbi~~9014
law~~2395
▁compound~~3789
lar~~2645
▁Hallo~~12468
▁Schwartz~~11802
▁guy~~361
▁protagonist~~5924
▁outlet~~6413
▁gut~~3219
▁Hiroshima~~9793
▁frighten~~5309
▁Diamond~~10524
ical~~1630
▁dive~~587
▁ideological~~10617
freude~~12379
▁Phil~~11164
▁tenth~~10002
▁crust~~8552
▁gef~~9873
sceni~~9917
▁Highway~~9302
zen~~7157
zel~~10369
zer~~3675
▁slap~~5556
▁privilege~~4129
▁among~~1486
▁horrifie~~9423
▁dictate~~7175
▁tweak~~9214
▁crush~~606
▁joking~~6301
▁stoo~~2680
▁survived~~6192
▁balls~~6991
▁Cheeto~~12564
▁Anthropo~~9166
▁Andromeda~~8083
▁kilometer~~4110
▁kid~~964
▁dance~~1093
▁assembl~~7696
bane~~11517
▁kit~~1060
▁guys~~274
▁Chen~~7310
▁arena~~3062
▁altitude~~5328
ther~~597
▁rehabilitat~~5071
▁simplistic~~7452
l~~1766
▁Scott~~3131
▁hostile~~7351
▁Schachtel~~12609
▁astrolog~~11333
▁skull~~5395
▁marketing~~4818
▁elite~~5036
▁drastic~~809
▁Mechanism~~10927
▁six~~492
▁McK~~9405
▁sit~~384
▁McG~~2722
▁beehive~~10005
logy~~5179
▁saddle~~11532
▁sin~~4535
▁where~~52
▁sie~~10239
▁install~~1008
▁throw~~998
▁minute~~1807
▁tour~~2871
▁credi~~11201
▁Julian~~7057
▁drop~~2484
▁magic~~4793
▁disappoint~~1528
-1~~11257
▁uncertaint~~8307
▁intend~~4997
▁composer~~2841
▁Singularit~~12625
standard~~11835
▁Service~~6810
tial~~1994
▁blogger~~8156
▁intens~~2567
▁Reich~~11007
ange~~1734
▁hacker~~7810
Parade~~10596
▁endless~~3317
▁Discover~~5584
▁progressive~~7372
▁vehicle~~5602
▁Inti~~11825
▁lo~~922
▁la~~2368
▁barbari~~7690
▁le~~5840
▁playwright~~10402
ouTube~~5950
▁love~~236
▁France~~3287
▁reserve~~3596
▁water~~111
▁qualit~~999
topf~~12494
▁arrangement~~7466
▁patien~~4929
▁Kur~~3417
▁glamor~~10191
▁adolescence~~10176
▁conflicts~~10795
▁defensive~~9887
▁Kosov~~10728
▁tadpole~~11165
▁vulnerability~~9170
▁reproduction~~6983
▁minorit~~5697
▁spectacle~~11411
▁rope~~6219
B~~1959
▁ESP~~11787
▁restaurant~~3526
▁scope~~6117
▁elaborate~~6123
▁courtyard~~9377
▁clay~~7132
▁ESG~~12906
▁families~~4250
▁learn~~766
▁nitr~~11430
▁interdependenc~~8112
last~~9003
▁virtual~~439
▁Kurzweil~~11535
doption~~6884
▁Multimedia~~12777
▁mature~~10276
▁consumer~~1985
▁900~~1782
▁haunt~~9143
▁convince~~1604
▁10,000~~3237
▁bleed~~9154
▁Triumph~~2254
▁solution~~3009
▁TEDWomen~~4313
▁reinvent~~798
▁Afghanistan~~1369
osphere~~9777
▁Sutherland~~8919
gier~~12190
▁import~~3590
convenient~~12030
▁study~~967
▁irre~~4224
▁logical~~3787
▁penis~~10247
▁Mein~~10705
▁Mont~~9749
▁Court~~9336
▁nozzle~~9861
▁burst~~4348
▁engulf~~10003
▁Roman~~3207
Button~~11828
▁Herr~~12493
recht~~12657
▁Mond~~11474
▁Mona~~2973
programm~~10035
▁burning~~3882
ological~~5174
QQ~~12634
▁decoration~~8765
▁strict~~8728
▁pride~~2733
▁miser~~8349
▁Kor~~12308
▁seriously~~1296
▁Cel~~9782
ative~~2181
▁Model~~11437
▁editor~~6555
▁Kraft~~11150
▁triangle~~7399
reserve~~9059
▁galleries~~7991
▁broad~~4133
▁wonderful~~2214
▁Blumen~~10487
▁younger~~4361
▁plural~~11528
▁rescue~~6247
▁reinforce~~8270
▁omni~~8699
▁urbanization~~4950
▁electronics~~7724
hru~~9138
▁steward~~10653
version~~4524
hri~~5724
▁books~~2639
▁diverse~~2838
adequate~~7201
itter~~10506
▁Cloud~~5948
do~~2095
▁minutes~~1710
▁Or~~3076
di~~3725
▁bullet~~4196
oplankton~~3465
▁weapons~~4509
▁Oz~~2284
da~~680
▁Bomba~~2983
▁Ob~~11310
▁Bombe~~12897
▁arms~~802
▁Oh~~558
▁Ok~~9800
du~~6289
▁Bit~~8166
▁drown~~3126
▁installation~~4603
▁On~~2325
▁Night~~3510
▁help~~191
▁mild~~10204
▁strapp~~5681
▁expansion~~1352
▁held~~2195
rung~~8616
▁Industrie~~12515
▁OK~~2551
▁hell~~685
▁several~~639
90~~9796
agnesium~~10257
▁rejection~~6880
▁thick~~2499
▁1,500~~2762
▁lying~~6932
▁slime~~7230
▁heaven~~917
▁hysterical~~11631
▁Herz~~12002
▁Portugal~~1575
▁injection~~6254
▁KB~~12021
▁marginaliz~~11299
▁Lovin~~12065
▁Bolivi~~12071
▁piano~~2941
▁slash~~8139
▁true~~199
▁Mineral~~11073
atur~~5421
Cluster~~10806
▁feminism~~7605
Auto~~12613
away~~9599
▁Michelle~~7610
▁89~~8287
▁feminist~~7552
▁Tahrir~~11377
▁Carolin~~8886
▁Newton~~7135
▁charcoal~~10489
▁constellation~~8087
parate~~10472
▁altruistic~~8147
we~~2527
wa~~5527
wo~~2753
▁belief~~1545
▁optimism~~5262
wi~~3335
▁infections~~8283
wu~~12280
▁robots~~2950
▁infinite~~2342
▁KT~~12821
▁Power~~2928
▁believ~~3797
▁length~~1788
cop~~8525
▁design~~1097
ile~~7867
▁Would~~5979
▁Grove~~10430
tage~~8061
ilo~~10481
ill~~4984
▁RIS~~8731
▁squatter~~12442
ili~~2126
▁Aurora~~8092
▁Gott~~12735
▁Sultan~~12261
▁myceli~~10540
▁conviction~~9189
com~~897
▁Evan~~3731
ily~~3517
▁undergraduate~~5043
▁Match~~10922
▁Thank~~5974
▁delete~~9223
▁serve~~2279
▁pollutant~~3478
▁Hind~~7553
▁middle~~1816
▁caregiver~~8894
▁Off~~5744
▁banana~~8272
▁brach~~12056
▁Aha~~10768
▁spaghetti~~10340
▁main~~1472
▁corporate~~1171
▁scientific~~369
Kerry~~9928
che~~7058
▁field~~1328
▁maid~~2272
▁fan~~1297
▁Constitu~~9287
cholester~~11680
▁guid~~7879
▁Neil~~6545
baum~~11929
▁French~~6929
▁Cole~~9092
coherent~~1670
▁spectacular~~8036
▁Cola~~11813
▁educate~~4633
▁wisdom~~1654
▁crazy~~2825
otter~~10628
▁transgender~~9636
oreign~~11003
▁Bruc~~4144
▁grant~~6867
▁GCSE~~11767
▁globale~~12930
▁entrepreneur~~7007
air~~2097
▁ending~~5085
▁information~~1919
▁cookie~~4839
gne~~11689
▁decision~~1120
aid~~2508
ssociation~~4653
▁Serious~~7257
▁Vega~~7150
▁Carro~~9295
▁frontier~~8189
▁diese~~3367
▁Swiss~~9541
▁cubic~~9073
▁tone~~2441
▁beneficia~~7698
▁reception~~5477
▁morning~~1212
perform~~1325
▁air~~1724
▁simulation~~8527
▁China~~4637
▁Nevada~~9297
▁viewpoint~~7410
▁Jane~~2291
▁soap~~6461
▁aim~~5918
▁need~~645
▁sensitivit~~4489
plin~~3133
▁aid~~4207
wheel~~4556
evic~~8022
nia~~3876
rail~~2168
hand~~4706
▁mutate~~6341
▁Wide~~7434
▁what~~143
▁stick~~717
Y~~2690
▁prepared~~1404
felder~~11614
▁wi~~4577
▁mitigate~~11481
kept~~2578
▁privacy~~7324
▁wo~~2826
▁wa~~3243
ept~~7817
▁we~~66
▁Rebe~~12053
▁deception~~9090
▁urge~~4100
▁1980~~1351
the~~542
▁modular~~5772
▁Kafka~~7972
▁mouth~~536
▁flower~~7913
ourne~~8408
kala~~10013
▁Laur~~10158
ough~~9337
▁nail~~8758
▁headphone~~11099
▁Ski~~8649
▁pillar~~638
▁photographs~~446
▁Debora~~6797
▁alternative~~1910
▁stabilit~~7780
▁photography~~9142
▁fractal~~10223
▁Sky~~9267
aub~~12037
▁Liberia~~7543
▁Miss~~10582
▁Mist~~12761
▁recover~~3343
outheast~~2419
▁stupid~~1031
weise~~7843
▁span~~2737
▁balcon~~9905
plasma~~6778
▁national~~1077
▁leaving~~3492
▁Tolsto~~8954
▁Friedman~~5712
hantom~~12057
izing~~4291
▁urban~~3547
▁inner~~4359
▁Martin~~3730
▁legendar~~2822
▁quality~~1484
▁Tso~~9410
hampagne~~11643
▁satisfact~~7710
▁atomic~~8529
▁subconscious~~8612
embl~~7800
▁Gail~~8464
√~~11975
▁Pleo~~12927
night~~2125
▁Mach~~2828
security~~10996
▁on~~148
▁imperial~~7513
▁obey~~11981
▁negotiate~~4825
▁Einstein~~5847
▁gla~~8396
▁immortal~~4711
▁Gallo~~5
born~~4434
▁serif~~12518
auf~~12279
prüf~~12656
omics~~6900
▁Morning~~8042
▁straight~~3404
▁ferment~~10298
▁Laborator~~6789
Lee~~11086
▁disability~~3007
▁replie~~4552
▁grappl~~6638
/~~3292
▁happiness~~4760
▁concert~~7317
▁corporation~~7436
▁for~~103
▁Millennium~~7670
▁Motor~~7861
▁literally~~1889
▁fog~~8060
▁future~~870
pla~~4513
post~~8047
▁discourag~~6584
▁incorporat~~12368
trophy~~7633
Ark~~12245
▁Liste~~12458
▁obtain~~8582
▁glory~~8338
obb~~11250
literatur~~2317
▁Montana~~9063
▁defeat~~4735
▁jump~~2901
▁understanding~~1737
▁1970~~1348
▁microscope~~7217
▁documentar~~2180
▁Natalie~~7275
▁performance~~1418
▁supreme~~4903
▁deform~~8244
▁conscience~~8181
▁colleague~~1146
bound~~5995
▁Alberto~~10741
▁encode~~2598
▁squeez~~2978
▁Glob~~8452
▁perceive~~3279
wan~~9591
▁abandon~~4237
▁Mat~~8440
▁Mar~~6655
▁Map~~8422
▁squish~~9833
▁Eye~~10024
▁May~~6606
▁Max~~2448
▁Mag~~5906
▁Mad~~2968
▁Mac~~7013
way~~3257
▁Mao~~10860
▁Man~~6156
▁Earle~~4140
▁Mal~~7156
war~~6459
▁Mai~~10067
▁Minute~~8680
▁Re~~2351
▁Ra~~5895
▁Ro~~3387
▁links~~8327
▁Episode~~8575
▁Ri~~10197
▁Ru~~2396
▁effective~~3584
▁Position~~12350
trug~~12598
▁RG~~5737
▁build~~1314
▁greet~~8928
▁leverage~~4023
emia~~6308
▁seductive~~4239
▁RM~~8769
different~~11700
▁0,0~~12480
▁volcano~~151
▁enthusias~~4292
nsas~~9461
▁again~~628
▁aspect~~1935
ochai~~8148
▁schools~~800
▁after~~506
▁simple~~547
▁jumped~~6021
hotter~~10507
▁Somali~~8505
▁Jim~~2134
▁shock~~1923
▁lots~~3255
▁convict~~9103
▁schematic~~9993
▁abusi~~10372
face~~6968
▁seven~~1433
▁meritocra~~12212
test~~8113
▁headed~~4092
▁Kwa~~12271
▁thankful~~4944
▁habit~~5684
▁Imagination~~12604
▁stumbl~~6261
▁Galaxy~~10188
▁Taiwan~~7305
▁imitation~~7621
▁Insel~~12481
▁assist~~7560
ership~~7091
itude~~10814
▁Heife~~10603
▁obsess~~4910
▁charit~~8025
▁ski~~1163
▁observation~~4902
▁Apollo~~5464
▁ballet~~7984
▁intrigu~~5690
▁export~~8220
▁sky~~1699
▁bugg~~2547
▁Frederic~~7894
▁fluorescent~~6566
▁Brigade~~9347
▁laparoscopic~~10469
▁worked~~1301
▁giganti~~2937
▁quark~~10503
▁award~~4762
▁aware~~485
▁apolog~~4350
▁obligation~~7131
▁vaccination~~4183
▁slavery~~8201
▁Aus~~6667
▁Astroturf~~9664
▁Migration~~11120
▁Gegen~~9238
zone~~4453
▁heartbeat~~6275
graph~~5436
ibati~~11298
▁pseudo~~12510
▁advocate~~6890
▁stole~~7147
rhythm~~12482
▁restorati~~12375
ggie~~11048
▁biograph~~7746
▁Pick~~11028
▁MacCready~~11169
▁Britanni~~10386
▁Commission~~10999
▁Shoot~~11149
▁Korean~~1372
▁recogniz~~3707
▁Liebe~~12439
▁gold~~6720
▁provider~~4629
▁golf~~6871
▁Mola~~10719
▁error~~5824
gua~~6528
▁lens~~7036
▁administrative~~1657
▁forgiveness~~9102
▁spike~~5766
p~~2458
▁multipli~~6064
▁segregat~~1611
gut~~12618
▁qualifie~~6817
eclaration~~4982
rselves~~9109
▁multiple~~4190
▁catch~~381
revolution~~11923
▁bombsight~~12411
▁discount~~5784
▁code~~1987
▁iteration~~6112
▁elusive~~5579
cost~~4613
▁250~~5721
▁Zoo~~11235
▁filth~~8694
ST~~9630
Ladenism~~12092
▁Love~~2163
▁arm~~1872
▁arc~~6414
▁form~~696
sprung~~11579
▁are~~107
▁Welle~~12525
▁art~~1995
▁Haw~~8587
▁Scho~~10054
▁Har~~2307
▁My~~3033
▁smuggl~~8871
▁carving~~9247
▁Mu~~3285
▁Boy~~1954
▁Manager~~12127
▁Mr~~2103
▁Mo~~2742
spinne~~12373
▁Had~~9406
▁sunlight~~6524
▁Mi~~8881
▁Enric~~12476
▁Han~~8015
▁Hal~~4101
▁Ham~~6644
▁Mc~~6561
teacher~~11945
▁Ma~~2852
▁Hai~~10411
▁Venter~~6776
▁heartbreak~~6416
buch~~7759
▁prize~~4764
▁tube~~531
▁MS~~10116
▁MP~~3170
▁suspicio~~5607
▁declin~~6070
▁Institution~~12268
▁business~~850
lastic~~8581
▁intergala~~11364
▁hard~~1037
▁complete~~1341
▁harm~~4019
▁unsafe~~9661
▁Mountain~~2217
▁brochure~~8787
▁stimulate~~1104
▁ROV~~5612
▁secondar~~4287
▁shadow~~8884
▁Helm~~11719
▁born~~1453
▁packet~~3661
▁regulate~~6339
▁grati~~9385
▁copyright~~7035
▁horrible~~7220
▁danger~~6279
▁dimension~~1437
▁accidental~~8314
▁queue~~9367
▁nominate~~11199
▁messages~~2798
▁Cousin~~12584
regen~~9539
▁guru~~8939
▁calibrate~~11395
▁pathway~~1645
▁priorit~~1597
▁integration~~1809
▁Atala~~10870
F~~6905
club~~6940
▁aero~~9243
mplitude~~11145
▁Salat~~10314
▁Brenn~~10590
▁bitte~~12354
▁Aspen~~6953
▁outside~~2927
▁FedEx~~1172
▁expect~~1616
car~~3964
▁broadcast~~8023
cap~~4773
▁diameter~~7282
▁embedded~~6420
can~~4889
cal~~7987
▁hurricane~~10212
▁instruction~~5831
▁Instant~~12174
ibu~~3866
▁hospice~~4720
▁prayer~~6294
▁Edit~~5577
▁peak~~4191
noch~~2743
cular~~8233
chip~~4996
▁grandfather~~2240
▁usage~~5764
topia~~3666
▁novel~~1397
▁Mello~~2686
▁optimistic~~869
▁shaman~~12353
▁hav~~208
▁hat~~2571
hhh~~8754
▁yellow~~1420
▁has~~189
▁quantitative~~10281
▁McChr~~4394
▁make~~170
▁views~~3213
species~~8380
write~~3728
▁cities~~3514
▁had~~474
▁Middle~~3259
▁hab~~8376
▁Dhara~~11573
▁ham~~2029
▁feminine~~8356
,8~~3277
▁Major~~10349
▁able~~656
▁cafe~~4870
sklav~~12721
autor~~12641
▁Deb~~10644
▁Dec~~7265
▁Den~~8807
▁tectonic~~6198
▁Del~~10164
▁selective~~6687
▁inspired~~5438
▁typograph~~11668
▁puzzle~~7539
Ship~~11050
▁rocket~~4127
▁Berner~~11085
ender~~8880
▁convention~~7041
▁prosthetic~~6758
ities~~738
▁Common~~5379
▁traffick~~9739
▁vice~~2590
▁dominance~~4862
▁grind~~1287
▁taboo~~5055
▁Helen~~10293
enden~~8352
ular~~6225
cola~~8922
▁Chile~~1431
▁Child~~2709
▁dilemma~~3828
selves~~6462
▁veteran~~9051
▁magnetic~~9838
▁toll~~4925
▁foot~~371
▁migrant~~7183
▁neck~~9947
▁Bots~~11521
▁First~~7533
▁fool~~3795
RC~~5104
RL~~11088
▁broken~~865
▁summon~~6196
▁food~~618
▁legal~~3966
▁mourn~~10803
▁perimeter~~11547
fline~~5458
▁temptation~~11369
half~~3487
not~~4332
▁Bra~~7062
down~~7431
▁us~~31
▁Obama~~7849
▁up~~228
▁configuration~~2768
▁Rauschen~~9877
kern~~9464
▁Nollywood~~12428
▁rank~~845
▁McDonald~~9411
▁automatic~~1383
▁suffering~~7300
▁un~~177
▁um~~7213
▁Angel~~9508
▁storyteller~~1971
▁uh~~8828
em~~1293
el~~1184
en~~649
ei~~7739
eh~~4868
ek~~5011
▁object~~2699
▁Radi~~11778
ed~~164
eg~~6571
▁Toraja~~12587
wrestl~~2726
eb~~1938
trieb~~12726
ex~~2985
▁vary~~7015
year~~760
ft~~6075
ew~~2577
ev~~3064
ep~~1921
es~~152
er~~416
▁forbid~~918
hhhh~~11995
▁pregnanc~~6366
▁swirl~~250
space~~5429
▁accurate~~6876
▁Convention~~4097
estone~~9906
▁temper~~7144
▁Electro~~11878
▁Kle~~5731
▁Hippocamp~~12828
ummel~~12779
▁instinctive~~3210
▁negative~~7516
▁def~~2130
▁street~~4266
▁den~~3200
▁Osa~~11815
▁collision~~4132
▁Laptop~~6515
▁Wilkins~~11504
▁dirt~~919
▁Person~~11000
▁der~~3682
▁des~~736
▁deposit~~3372
lma~~5880
▁Heu~~12904
lright~~5223
▁unnecessar~~5156
care~~7437
▁Work~~8782
fa~~3959
▁hallmark~~7364
▁ignore~~8261
▁Status~~11262
▁pledge~~9819
▁times~~913
▁rod~~7478
▁Statue~~11565
▁embark~~8549
xi~~4666
▁Okeechobee~~12844
▁rise~~1363
▁algorithmic~~6126
▁risk~~1719
ition~~5709
▁computational~~5752
▁explore~~317
▁infant~~6351
▁Achilles~~6957
▁waste~~1451
▁simplicity~~9052
rine~~7169
▁diffusion~~10282
▁pour~~3209
▁address~~3935
▁orphan~~8215
▁Station~~9436
▁agenda~~7161
▁yeast~~10296
▁forensic~~7917
gging~~7237
▁sustain~~1671
▁powerful~~1682
▁squash~~901
nutrition~~4796
▁Comics~~12418
▁exceed~~1639
▁Leib~~10755
▁flip~~3941
public~~9960
▁Saint~~10446
▁Luxemb~~1487
▁seizure~~8303
▁aesthetic~~7120
▁Craigslist~~10627
▁Neuro~~9232
than~~6246
tangible~~10648
almon~~6715
▁program~~1870
▁defect~~6317
▁What~~2791
▁movement~~2906
▁glass~~3349
▁ordinar~~1632
▁destroy~~4007
▁merc~~4823
▁foster~~5535
▁mere~~5127
▁mode~~5075
Mail~~12685
▁judge~~6621
oleum~~10087
▁symmetric~~6512
▁probe~~8133
▁atheist~~2646
uten~~11814
institut~~10468
▁Indiana~~9195
orruption~~11583
▁glance~~11195
▁Hama~~9144
▁Smol~~12248
▁silence~~2248
▁Express~~9972
▁smell~~3614
SS~~6006
▁Po~~1572
▁Ph~~1773
▁electronic~~4500
▁Spar~~11779
▁Cape~~9677
▁Pe~~7017
▁Bro~~11472
▁planetary~~8678
▁Pa~~5947
▁sequence~~5204
▁Bru~~10781
▁Pu~~5304
▁lifestyle~~8644
▁Pr~~4106
▁animate~~8359
▁Koh~~9893
▁PH~~9524
▁Chaos~~12536
▁hope~~2079
▁headline~~1708
▁shield~~2463
ance~~1663
▁Luc~~7342
mbient~~7941
pattern~~12253
▁intuitive~~3211
▁Kol~~5689
blatt~~9990
▁PR~~3952
▁disclose~~9674
▁dependenc~~7370
▁runn~~933
▁farm~~3581
▁responsibl~~6820
▁cover~~1415
ectar~~7922
▁systematic~~2721
fifth~~6874
ground~~5320
▁grim~~3568
▁Protest~~8123
stair~~4368
▁Lawrence~~7029
▁grid~~1803
▁Therapeut~~11600
▁vessel~~3208
,4~~10497
▁esoteri~~10146
SW~~12537
▁operator~~4662
▁Communi~~5498
▁canvas~~3628
▁grip~~4233
sufficien~~11013
azi~~8604
▁telescope~~9506
▁Post~~6814
▁geographic~~5505
▁alien~~640
▁bracket~~10689
▁minister~~7316
▁Tric~~5964
▁wag~~4480
held~~11586
▁prove~~1032
▁symphon~~756
▁ignorance~~7507
▁serendipit~~6844
▁kindergarten~~1552
▁borrow~~4712
urdy~~12125
▁Ash~~10904
▁franchise~~11327
▁biofuel~~1771
▁stone~~5851
▁helmet~~9245
▁disconnect~~3760
hell~~6362
▁Ass~~8449
▁Um~~4242
▁Alex~~3118
▁accumulation~~3357
▁remov~~2712
▁Spence~~8361
Engineering~~10959
▁AlloSphere~~8517
▁192~~8491
3~~1749
▁Building~~5373
▁Teresa~~11974
▁annoying~~2402
▁fortune~~6163
▁resort~~5622
▁Ebola~~11729
▁Town~~10272
▁sibling~~7667
▁computers~~5207
▁withdraw~~4836
▁Ich~~10090
▁way~~305
▁prosecute~~11183
▁curtain~~6575
▁Pier~~2311
▁Meta~~7973
▁Northwest~~3420
mond~~7875
▁adapt~~989
▁specula~~5231
▁jumble~~5468
▁Stock~~4038
送你葱~~12636
▁package~~3508
▁large~~1458
▁surprising~~2792
▁Everest~~4582
▁Portland~~7618
▁Professor~~5886
▁Seminar~~12051
▁acquisition~~2347
▁trawl~~3466
▁Course~~5691
▁50-~~4272
▁500~~3663
COB~~12197
▁oxygen~~540
SHA~~11693
▁gadget~~7702
▁nonviolen~~8454
cycling~~4584
▁Everglades~~12843
▁elegant~~2261
▁aggressive~~4673
▁security~~4829
▁fossil~~3557
▁prototype~~2940
▁globaliz~~1335
▁feedback~~3836
▁redefine~~4714
▁Donnell~~11348
▁reliabl~~4812
▁inventor~~1862
▁Front~~9583
▁mysteries~~9431
▁slums~~2060
▁force~~1842
▁Starbucks~~9449
▁animal~~253
▁bottleneck~~12099
▁simultaneous~~6448
▁intellectual~~5808
▁healthcare~~4696
▁passe~~948
▁sc~~914
▁3-~~5966
▁regional~~4067
▁3.~~7339
▁living~~819
▁35~~1521
▁34~~2388
▁37~~5018
▁36~~3981
▁31~~10624
▁30~~2078
▁33~~9504
▁32~~8971
▁drip~~8596
▁39~~10666
eil~~778
ization~~958
▁nurse~~2435
▁elevation~~6133
▁baby~~937
▁city~~2431
metric~~10142
▁Blair~~10750
▁hate~~6918
▁polariz~~9964
▁Park~~6549
bias~~11372
▁thigh~~4444
▁stagger~~8484
▁disagree~~7641
▁mathematics~~1620
▁cite~~5261
Israel~~3272
develop~~9642
litz~~10604
media~~1983
▁when~~105
food~~8692
▁return~~786
Charm~~1860
▁null~~12023
▁collage~~6958
▁expansive~~5491
▁serving~~4906
Č~~12896
▁Poly~~10315
▁hide~~1149
▁synthesi~~9980
foam~~5572
▁Branson~~11055
ā~~12189
Splashy~~11659
▁bird~~3389
▁Pole~~5308
▁backpack~~2615
▁snapshot~~10009
▁devou~~5582
theater~~10203
ī~~12848
▁punch~~9823
▁presum~~3171
▁Shir~~7611
▁blu~~5794
▁Mom~~7965
▁bli~~7476
▁Firewall~~12635
▁Paris~~6443
▁attractive~~1608
wege~~10727
▁bla~~8381
▁punct~~8078
cca~~6569
▁comfort~~6901
▁coloniz~~5381
▁tipping~~9806
▁rifle~~10849
▁spade~~5147
▁lobby~~5401
▁statistical~~8062
▁support~~515
▁entrance~~6410
▁pre~~286
ch~~522
▁rectangle~~8526
▁account~~1658
▁improvise~~3139
speed~~3163
▁Bengal~~12344
▁answer~~1507
▁immune~~5280
▁offer~~1981
euros~~6996
▁Ji~~8625
▁acceptable~~9357
verse~~5774
▁Lucifer~~12269
▁offen~~7656
▁electro~~9505
disproportionate~~9665
real~~5530
▁illustrate~~3878
▁wage~~3592
▁craft~~2375
amo~~10548
▁colonies~~516
▁pray~~5576
▁party~~2394
▁strange~~621
▁Mott~~12605
▁strangl~~8028
amp~~7263
▁Synchroni~~9538
▁auto~~1000
▁hands~~276
▁grave~~1689
▁Summe~~11766
▁situations~~1398
▁spite~~3371
▁Bandura~~12115
▁something~~188
t~~21
▁striving~~9064
▁Tribu~~10851
▁Asteroid~~10428
▁synagogue~~11412
▁brief~~5507
▁Maeda~~8732
▁sand~~5183
▁tattoo~~2271
▁sank~~10565
▁screen~~2025
▁uncover~~5389
▁near~~2190
▁neat~~681
▁hamburger~~9106
▁reache~~4807
▁Gro~~12455
▁civilian~~8339
▁lower~~1527
▁engagement~~2332
▁Gra~~12013
emeral~~10359
platin~~11292
▁Lago~~11791
▁Page~~5730
▁tutor~~5020
▁teache~~4442
▁once~~1409
▁dream~~2436
▁auditor~~10330
▁section~~3040
ilhouette~~12148
▁herein~~12204
▁predominant~~7688
▁experiment~~2609
▁assignment~~5694
habi~~3388
uddle~~9114
argassum~~4031
▁theorist~~7502
▁bend~~3791
▁1947~~8432
▁1940~~8800
▁Brahm~~12470
▁sports~~1088
▁Diaman~~9549
▁Accra~~11795
▁Infinit~~10537
▁Avelile~~11950
▁Jeff~~8863
thanol~~9456
▁Christmas~~2393
▁name~~2992
▁messag~~10131
▁Athlet~~11339
▁eye~~3796
▁supposed~~1285
▁Expedition~~11727
▁simpler~~9882
▁Madagas~~3963
feld~~10008
log~~5265
▁spring~~642
▁assault~~10156
▁taxonom~~8847
loh~~11984
lon~~4449
▁penalt~~9104
▁Flo~~8423
start~~6159
lop~~6550
lov~~7573
low~~4519
▁spen~~1483
▁propriet~~2116
arez~~11880
▁Kni~~8586
▁tornado~~11497
▁Gates~~4301
▁yet~~165
▁yes~~740
▁summarize~~5844
▁Okay~~3260
J~~8745
▁Brown~~8177
▁curriculum~~5778
▁manufacturer~~6493
▁Ernst~~11309
▁janitor~~11746
▁yea~~3051
▁gest~~6733
▁Director~~7745
▁these~~239
▁sword~~6889
▁bored~~4597
▁manufacture~~10250
▁pharmaceutical~~8152
▁barrier~~6955
▁common~~2011
▁cyberattack~~12036
▁sculptural~~9890
▁Cliff~~8960
▁cruise~~8561
▁actress~~9715
nerv~~12247
▁McKi~~11865
▁extra~~1395
▁Grand~~5871
▁comics~~9004
oulder~~8876
udience~~10518
▁snapp~~11249
▁Union~~6158
▁amateur~~2837
▁parliament~~4880
▁DMCA~~7103
▁detach~~9644
▁worldview~~1946
polar~~10423
▁injustice~~7700
▁proud~~5972
▁Doodle~~12451
▁syringe~~6251
▁skat~~12001
▁shut~~6748
▁consciousness~~2155
pool~~5453
building~~9827
▁acid~~690
▁beautiful~~44
uinea~~10906
▁custom~~8292
▁Kasparo~~12230
▁scheme~~5558
▁riches~~2044
▁mentioned~~2233
▁winter~~4085
▁melt~~3347
lichen~~9334
▁thriv~~692
▁squeak~~10511
month~~3429
▁drug~~4689
erkeley~~3755
▁drum~~3060
otassium~~11283
▁evangelical~~6651
▁equation~~4389
▁Men~~9400
▁Mem~~11360
▁Mel~~8477
▁petrol~~9465
▁Med~~5873
▁snippet~~6165
▁Vi~~2053
▁slam~~9836
▁newborn~~6350
▁Chamb~~1794
▁Va~~5866
▁poor~~612
▁grown~~3695
▁Ve~~5863
▁appropriate~~2695
verb~~5574
minded~~4790
▁great~~125
▁epic~~6286
▁Cyr~~7742
▁narco~~12499
▁aisle~~10255
▁evolv~~694
▁VC~~12129
▁beyond~~781
▁Jones~~7413
▁Murray~~9319
-2~~11910
▁advertis~~6488
▁billionaire~~11053
rench~~6858
pul~~10501
▁shoot~~3249
▁rule~~2755
▁problematic~~9621
▁crime~~977
▁inhibit~~5245
▁Capital~~11036
▁embarrassing~~7626
▁breakdown~~8063
atory~~5775
▁cochlear~~12317
▁Telescope~~11061
▁predictabl~~2555
Patient~~12717
▁CSI~~10496
▁asphalt~~9647
onne~~12096
▁technology~~181
▁grow~~626
▁spacecraft~~6029
▁analyze~~3042
▁align~~1669
▁Breivik~~12266
▁Hummer~~6836
▁nine~~405
weile~~12299
▁cycle~~746
ommission~~11389
▁attitude~~2164
ureau~~7839
▁vector~~9213
▁radio~~3144
amount~~3965
▁why~~720
▁blunt~~8613
▁tea~~5628
▁ten~~1852
altech~~9525
▁pig~~3641
▁conference~~6194
▁pie~~9419
▁classmates~~11917
▁pin~~2751
▁benefit~~855
▁facade~~9180
halle~~12677
put~~8167
▁pit~~3116
▁stripped~~3776
▁Schwa~~12620
hren~~10356
▁lud~~10133
conventional~~9489
▁allocate~~8269
▁gaze~~2353
▁employment~~4625
▁realiz~~7563
▁bonus~~7009
▁remix~~7031
orporation~~8480
▁Cairo~~11383
▁spectroscop~~11275
▁disappointed~~7243
▁maps~~408
▁normal~~554
▁convuls~~8258
▁loyal~~10571
▁Mandelbrot~~11373
▁dissolve~~10299
▁Tour~~7977
▁prosthes~~10929
▁deaf~~8037
▁tight~~4417
▁implement~~1675
▁people~~210
▁Dai~~9851
▁747~~10820
▁plague~~10532
mounted~~5650
▁them~~268
▁penetrat~~11017
▁then~~364
▁Asperger~~8917
▁Melodie~~10163
▁semi~~3667
▁character~~2934
▁publish~~4904
▁survey~~1230
▁apply~~907
▁apple~~2607
▁Vietnamese~~7299
SB~~11237
▁excessive~~9130
▁describe~~2336
▁Congo~~5095
SE~~9249
▁above~~1221
ockpit~~8571
▁Niels~~11536
▁proliferation~~7495
▁modification~~6861
▁funeral~~5441
▁spread~~3256
▁decline~~4076
▁isolat~~5675
▁optical~~5599
▁bounce~~2469
▁Conference~~10718
▁Rick~~9867
▁family~~885
▁Winky~~12614
▁revelation~~9259
utilize~~8470
▁Lord~~2128
▁redesign~~7262
▁temperature~~570
▁happy~~1181
▁Hey~~1251
▁2008~~2428
▁2009~~1413
rude~~5121
▁Her~~2876
▁bounc~~10961
▁2006~~2023
olecular~~6854
▁2000~~1519
▁2001~~4452
▁2002~~3739
▁Microsoft~~8990
▁Stanford~~3846
tries~~5244
▁Furby~~12928
fe~~1183
▁Hel~~4616
▁Neanderthal~~8403
fi~~2619
▁Hea~~9047
a~~1429
▁timber~~9335
▁favor~~2185
▁Who~~3263
▁deceptive~~5965
▁Graham~~8011
ï~~11867
▁1.~~8282
▁13~~1360
▁12~~2667
▁11~~1748
▁10~~707
▁17~~3105
▁16~~3832
▁15~~1753
▁14~~3229
▁19~~7668
▁18~~2037
▁lifespan~~5229
▁Lithium~~11277
▁mockingbird~~12548
keit~~12669
▁centrifug~~10878
▁packag~~3500
help~~8938
▁seal~~9858
▁universit~~2688
▁pyramid~~8652
▁have~~140
▁Horn~~9056
erox~~8815
helm~~11038
▁consult~~3820
Barrel~~11357
▁clean~~2246
▁rent~~6560
▁logistic~~4263
ranscript~~18
▁Evaluation~~12049
▁singer~~2933
▁eloquent~~5004
▁Natur~~5999
▁applau~~9255
sensor~~9234
▁under~~356
▁approv~~4993
▁innocen~~11193
▁storytelling~~6474
▁therapie~~4991
▁composition~~1587
▁Kavita~~7524
cer~~9019
▁older~~2109
foot~~2216
▁persuade~~5140
▁plutocra~~12210
▁diabetes~~6318
▁Tier~~11219
▁proper~~3561
▁discuss~~3461
▁Dominican~~12320
iff~~7999
▁wander~~7394
▁clapp~~9764
ifi~~7174
▁someone~~2752
▁Surf~~12771
▁paragraph~~4933
▁Terminal~~12017
▁IBM~~6168
▁television~~5364
▁eager~~4647
▁Tori~~12855
Engine~~8705
▁curse~~7596
▁suspect~~4588
▁her~~1716
▁salv~~10811
▁versa~~4496
▁Stalin~~8933
▁NRK~~12870
▁Schwarz~~11911
7~~3109
▁versu~~5821
▁Fragment~~12550
▁Aust~~2292
▁list~~1511
▁expedition~~5586
▁unbelievabl~~688
bald~~11252
▁who~~797
▁Dakota~~7619
BC~~7753
▁sell~~3490
▁whe~~1391
▁marshmallow~~11918
base~~2464
▁möglich~~12676
ase~~5282
▁Gladwell~~6838
pur~~6630
▁Pur~~2274
▁shrimp~~610
▁smash~~8271
▁Dan~~2545
▁Dam~~5110
▁fourth~~1909
▁lack~~3028
▁Daf~~9452
▁Dad~~5091
▁Pub~~11671
▁Pin~~10128
▁Day~~3447
▁brick~~2293
reedom~~10931
▁Dar~~4709
▁ovari~~6327
▁Dap~~5687
▁soldiers~~4454
▁Army~~4406
▁electromagnet~~9839
▁Wilson~~3742
▁vertebra~~8577
▁Ezra~~7773
▁outrageous~~6101
▁sale~~2890
endai~~7828
▁Serb~~7586
Gru~~5596
membran~~3280
▁Steve~~776
▁concrete~~2502
▁bottle~~3375
▁salt~~6574
▁Volk~~12193
▁mammal~~6706
▁admission~~5702
▁coach~~4355
▁utilit~~3775
▁utiliz~~8474
▁react~~8936
▁reach~~2515
▁Award~~10674
▁mitochondria~~5256
▁prospect~~5768
station~~7450
▁Knopf~~12762
▁Colombia~~9922
ironment~~10476
▁Rede~~12681
▁intervene~~5181
▁subsidi~~8676
pecial~~3305
▁Kuh~~12159
▁mount~~10850
▁graffiti~~10288
▁1960~~1339
▁dislike~~10422
▁Monro~~10291
▁Cold~~9171
▁pandemic~~4219
▁mound~~8068
nce~~8633
▁bell~~8332
▁Institute~~6729
▁intuition~~2669
sta~~6055
▁understand~~1811
▁construct~~1257
passen~~10375
▁Old~~7789
▁cricket~~5938
▁Ola~~12236
▁female~~575
▁Larry~~7033
▁Asia~~1425
▁belt~~5503
▁ya~~8768
▁Olu~~12541
▁education~~791
▁nast~~4554
▁member~~6622
▁Karajan~~12538
▁Starck~~5397
ncy~~5532
▁equal~~1443
kara~~7997
▁sixth~~4521
▁stream~~3344
▁Terror~~11501
▁phrase~~4713
lib~~5038
lic~~5614
lin~~3555
▁ideas~~1281
▁collar~~8982
lit~~8706
liv~~704
▁ideal~~3683
▁feeling~~1168
▁Brunel~~12556
venge~~8784
kam~~938
▁day~~969
▁Tulle~~8755
kau~~12008
▁Pants~~9345
▁dar~~9240
▁das~~4922
▁UCLA~~10332
▁Mais~~12258
▁pilot~~1839
▁beauty~~4596
▁phthalate~~12812
ternis~~6856
▁Ituri~~11933
clear~~5168
▁hummingbird~~7923
▁debate~~1460
▁mitten~~12757
▁patent~~4594
▁Meeting~~12724
▁utopia~~11936
▁riot~~9707
▁digitize~~9322
▁SW~~11978
▁humiliat~~4477
▁Journal~~7865
▁manifestation~~5569
▁Rasmus~~11830
▁fragment~~1578
dimension~~11735
▁175~~2491
▁pollinator~~7927
▁Sand~~6404
▁170~~6615
▁collaborative~~6012
▁Dori~~10552
▁symptom~~3835
▁fit~~3023
▁Graph~~10762
abend~~12543
▁annual~~1750
circle~~6093
▁17.~~12621
▁fix~~3495
▁addict~~6617
▁Chop~~10793
▁kam~~12794
famous~~9263
▁acoustic~~2946
▁radar~~9606
▁Tony~~4311
▁ultra~~7634
▁Schau~~9936
Freak~~12781
▁conduc~~10968
▁Ranch~~12356
▁Anne~~2249
▁DDT~~6372
▁explicit~~5769
geld~~6721
x~~2087
▁small~~860
scanning~~4938
▁Airbnb~~10625
▁navigation~~9523
▁menu~~7020
▁Case~~11312
▁films~~1960
plausible~~10343
culture~~3712
▁chip~~6747
▁Juan~~7681
jury~~4990
▁before~~579
▁slogan~~8500
▁sustainabl~~4143
opper~~6910
▁Iraqi~~7769
▁booth~~3746
stall~~6591
▁debt~~8963
▁Saul~~10093
▁yo~~11548
▁poverty~~2061
▁über~~10688
▁multiply~~6553
web~~11846
▁symmetr~~7401
ison~~6411
▁Ta~~4327
▁America~~401
▁group~~699
spiration~~6276
▁Spec~~7479
▁subtitle~~2179
▁To~~3073
▁northern~~4226
▁TR~~11328
▁TV~~5063
▁Malaysia~~1814
▁bankrupt~~10431
▁intercept~~9265
▁debri~~3322
sensitive~~2631
▁provision~~1666
▁Wonder~~10135
▁TM~~3032
▁advis~~8497
▁Info~~12358
▁alter~~6422
▁multitask~~10049
format~~11311
▁neutral~~9568
▁Nation~~11903
▁suburbia~~9639
▁Lear~~5717
▁migrat~~3819
▁excavat~~5376
atops~~11770
▁dich~~8546
▁Orchestra~~10933
▁Vagina~~10725
▁Jackson~~8024
▁Adventist~~12423
▁rest~~2027
▁ultrasound~~6832
▁sacred~~9745
▁Columbia~~6042
damm~~9886
threaten~~9718
▁randomly~~8318
▁banker~~8008
▁beach~~118
Women~~4614
▁huge~~1103
▁Joshua~~7807
▁clothes~~6255
leigh~~8823
ada~~9748
▁antiqu~~952
N~~2399
▁Dublin~~6670
▁politic~~5460
▁Deutsch~~12544
folklore~~11792
▁correspond~~4648
▁knot~~10019
▁games~~2840
▁animals~~149
▁but~~139
▁underpin~~9597
▁violation~~5539
iya~~7328
look~~682
▁ballot~~11850
▁bus~~4963
Taste~~12326
▁desire~~5562
▁buy~~1185
▁costume~~8574
while~~2793
▁bug~~2550
▁Afghan~~4520
▁bulldoze~~5512
▁fission~~11463
▁signals~~2947
pack~~2655
Sarko~~9373
▁Alan~~9048
▁Silicon~~6480
▁voluntary~~7489
▁ancient~~3520
▁should~~877
ready~~723
▁oceans~~11
▁investigation~~1929
▁transfer~~7920
▁norm~~2692
▁mark~~648
▁Imperi~~11794
▁knob~~10531
gali~~3311
▁militari~~3598
▁religions~~7779
conflict~~7570
▁galax~~9975
▁leadership~~4398
▁rug~~7747
▁rub~~7852
▁rum~~7805
▁run~~1684
▁foundation~~1702
lig~~6967
▁strangers~~7461
▁speaker~~7050
▁functionalit~~6490
▁minor~~5363
▁streak~~11063
▁catalyst~~1035
▁Rosi~~10955
▁Ross~~3119
▁Armen~~11182
▁afterward~~6696
▁participat~~2320
่~~5667
▁deploy~~8908
▁scrutin~~4488
▁Bike~~12146
▁trash~~3319
▁Wale~~3619
Internet~~11523
▁Bohr~~11634
▁gentle~~4987
gt~~12894
▁Scientolog~~11210
▁orangutan~~8370
$~~6469
▁leather~~7716
chromosom~~8394
▁litigation~~10522
▁famine~~4766
▁derivative~~2702
▁magazine~~4999
lip~~9006
▁psychological~~4960
▁distinction~~6433
ight~~4533
stein~~11118
▁artificial~~6378
▁Heather~~9771
▁Gentlem~~12921
▁saturate~~11679
▁monopol~~7835
game~~8515
▁palm~~9307
▁oblivio~~8236
▁area~~735
▁lowest~~851
▁retire~~7441
▁entertain~~6795
▁Jerem~~8433
▁Target~~9843
▁statement~~5175
▁trillion~~8957
▁Schul~~4787
▁7.~~11646
signal~~10050
▁strawberr~~11483
▁79~~12026
▁78~~6179
▁Nino~~752
▁Arena~~8471
▁rainbow~~8851
▁71~~11698
▁70~~473
▁73~~5958
▁72~~7469
▁75~~108
▁74~~1414
▁77~~11473
▁76~~5107
▁Gamma~~12208
▁factories~~3400
▁Nachtwey~~11350
▁proportional~~1480
creation~~5289
some~~4447
▁tribe~~7848
▁Authorit~~9547
economic~~1558
▁Medicine~~7866
▁allgemeine~~12670
▁primitive~~7375
▁PMTCT~~9668
ulosi~~8217
▁Michel~~7976
▁rely~~1691
ntelligence~~10932
▁quest~~2276
ishman~~10899
▁atrocit~~7877
▁Tra~~6654
▁grandparents~~2111
▁printing~~6137
▁essay~~6599
▁Bunker~~12131
▁reli~~6862
▁2020~~7018
▁cohesi~~9370
▁staring~~6761
▁consideration~~2713
▁receiv~~5109
▁Detail~~12019
▁Rush~~8735
▁Tamiflu~~12285
▁spiritualit~~10040
rum~~7939
acht~~8981
▁Pamel~~10889
ummer~~11811
sten~~11465
kan~~9382
ster~~360
step~~6944
▁recap~~2790
¡~~12877
rus~~1005
▁cafeteria~~9880
▁Collect~~9312
shine~~10681
Scan~~11772
quisition~~11570
▁Eco~~7255
▁meat~~3538
▁refrigerat~~9686
▁Nun~~12360
▁pilgrim~~11125
▁Zambia~~11443
▁compose~~3037
▁reconcili~~7878
ide~~462
▁Gold~~7092
block~~9321
▁compartment~~9913
▁Lippen~~10706
rolle~~10586
▁Benki~~11902
▁KIPP~~10800
öl~~12829
▁manag~~2540
▁stiff~~9849
▁guess~~866
▁Meyer~~9392
▁assassinat~~9416
▁novelty~~8862
▁guest~~4610
▁empti~~4347
▁Code~~2653
▁Ver~~8080
▁sunflower~~10367
▁von~~8378
pionage~~7224
▁limb~~8878
▁empty~~607
▁wack~~10935
▁distribution~~3586
▁Ford~~8096
▁potato~~8679
▁affection~~8052
▁hygien~~5209
▁Lynn~~11742
▁hypothetical~~8035
ductive~~3709
▁trance~~5149
▁Fort~~4402
▁Minist~~11256
▁dragonfl~~12031
▁bank~~1841
▁basket~~4756
▁memoir~~10562
▁bang~~3041
▁band~~255
▁lamb~~8655
▁ADH~~8918
▁vor~~8344
▁Afrika~~10046
▁loo~~8105
▁layer~~2516
▁mineral~~9605
▁definite~~5928
naissance~~4975
metall~~12014
▁done~~1263
▁scream~~5624
dding~~6676
▁tedious~~9403
▁remedi~~8966
▁ooh~~5631
▁missing~~4255
▁Tesla~~11221
▁Pleas~~2403
TV~~11459
▁extract~~539
▁leap~~6671
▁Davos~~10796
▁Have~~11278
▁Bord~~9157
▁lean~~4783
▁disruptive~~6833
transport~~12860
▁leak~~6356
▁lead~~1186
▁Tropic~~4093
▁leaf~~4600
▁included~~7106
TA~~9545
AA~~1829
▁Human~~8412
AC~~3865
awkins~~10100
▁ritual~~8326
rlei~~12716
▁Kette~~12880
▁surprise~~867
▁Pepsi~~608
AL~~11714
▁nun~~10407
▁1900~~10560
▁nur~~8229
est~~40
▁TEDTalk~~7675
eval~~11507
▁Guardian~~9619
structure~~9516
feder~~11286
▁convert~~546
▁elevate~~11122
e~~130
▁whistl~~2376
▁convers~~7006
▁designers~~3254
▁Charlie~~9340
▁One~~4941
▁miraculous~~10419
▁bigge~~1057
▁corruption~~7313
▁algorithm~~6100
▁spin~~3892
▁Karma~~12334
▁reassemble~~11227
▁0.1~~6325
▁army~~2949
ge~~1277
▁Mike~~5427
ga~~3610
▁mapping~~4256
go~~6899
▁cult~~10528
▁Rand~~10748
▁CO~~7260
gi~~3427
gh~~5305
▁cingul~~6282
▁neighbor~~3244
▁residenc~~7869
▁Lifesaver~~12469
fried~~8687
▁attorney~~11960
ese~~7195
▁resident~~2987
▁mathematical~~5789
▁CAPTCHA~~11990
▁paintings~~1973
▁recycling~~9613
openhagen~~8208
▁Forbes~~9695
▁increasing~~1979
▁got~~76
▁Make~~3252
▁approach~~2564
wave~~6759
▁opera~~2839
▁PowerPoint~~9280
cellular~~8611
▁god~~7784
▁capabilit~~7902
▁Safeway~~12175
▁substitute~~8387
▁augmented~~5916
▁hallway~~7870
▁Hewlett~~12365
▁churn~~8627
▁ambitio~~1635
ziger~~9921
▁Techno~~8786
▁view~~378
▁Tob~~11271
▁trivial~~3863
▁emphasize~~5600
▁mimick~~7915
▁celebrity~~8940
ze~~1783
za~~4538
▁Amt~~12653
▁clock~~4334
zu~~10589
▁leading~~3374
▁Interface~~8160
▁lexico~~8780
▁flog~~11784
▁ears~~340
▁Sala~~8293
▁150~~229
cell~~2977
▁15.~~10108
▁15-~~1331
▁applaud~~7871
▁replac~~5297
▁earn~~2433
▁Speer~~10206
;~~38
▁electric~~3150
▁director~~1948
▁shit~~5129
▁Cra~~9731
▁lotter~~9444
▁ship~~3811
ozo~~6340
▁landfill~~9682
▁violat~~5538
▁Samu~~9091
▁Cro~~7542
▁absolute~~3943
▁Cru~~11211
▁Milli~~12397
▁concussion~~11444
▁shin~~5888
▁Leon~~11502
▁Tor~~11409
▁Food~~4970
▁pull~~1915
▁pretend~~4440
▁biofluorescen~~12827
▁Vase~~11317
▁messen~~1273
▁investor~~6183
▁vacan~~10679
▁Michael~~6096
▁Bible~~2648
ule~~8073
▁puls~~8537
▁PRI~~9551
wie~~7899
claim~~9653
win~~8831
▁embrace~~1627
▁widerlich~~11986
▁floating~~3318
▁tubes~~6847
▁three~~308
▁larger~~2929
frame~~6418
▁umbrella~~2468
icular~~6385
▁consistent~~1674
zelle~~12734
▁student~~1392
▁distract~~5278
▁Christian~~3172
▁animator~~9938
▁Nash~~3079
ithium~~10259
▁Moment~~12513
▁identifie~~1594
▁Field~~10569
▁Zu~~5420
▁gross~~4759
▁Zo~~7799
▁Mahatma~~9746
▁Prosper~~11582
▁Generator~~12640
▁Billion~~11666
▁Ze~~7332
appointed~~8730
▁Za~~7566
▁genomic~~10237
lapse~~9994
▁interstellar~~11280
▁borders~~8281
▁volunteer~~2738
▁elephant~~5914
▁zoom~~3380
▁Atkins~~11678
▁intention~~2596
▁SETI~~11276
control~~10042
▁planes~~8033
▁preserv~~769
▁Chance~~10664
▁planet~~110
▁general~~1283
▁interconnected~~7383
cott~~9000
▁icon~~424
▁Hannah~~12287
▁Solar~~10136
▁deficit~~4817
▁granted~~104
falls~~12574
▁kindness~~8656
▁through~~334
eit~~10155
▁unhapp~~871
▁creativity~~903
▁Lake~~4849
HIN~~12098
▁places~~159
▁ecolog~~7054
▁detect~~7390
▁ripple~~10879
▁bike~~2392
▁music~~757
▁Laufen~~12381
▁plane~~1824
▁tax~~1532
▁toilet~~3915
▁tap~~4986
▁survive~~1067
▁tat~~8136
▁tau~~5173
▁plant~~3368
▁tan~~3196
▁segment~~6143
▁plans~~7208
▁drift~~8551
▁trespass~~11955
▁tag~~1853
▁improve~~1153
▁criticism~~1258
▁Franklin~~4959
▁while~~1382
▁contest~~1410
▁ascend~~9768
▁antidepressant~~12070
▁distort~~2701
▁ARES~~12257
▁hydrothermal~~453
▁Bloom~~5828
▁handicap~~888
▁constitution~~7806
▁staff~~6600
▁math~~849
▁Merk~~12606
▁case~~352
▁gods~~3587
▁influenza~~11569
ruder~~10018
▁Merc~~6038
▁than~~160
▁mate~~285
nonymous~~10287
▁cash~~2673
▁Merz~~12252
▁that~~79
▁cast~~3968
▁prostate~~6367
▁note~~764
▁persist~~3852
▁verb~~5573
▁700~~467
▁independen~~2115
frontal~~1112
▁typically~~1621
▁events~~3806
▁whale~~4078
▁harmon~~7540
▁pollut~~3484
▁weigh~~1596
▁Con~~2772
▁Com~~4844
front~~9228
▁Selig~~10633
▁Cod~~10078
▁lung~~4149
▁logo~~3270
▁luna~~7112
modu~~7519
▁active~~721
▁Elephant~~11320
▁fate~~4010
▁surgical~~6866
▁Leber~~12429
▁Desert~~9375
▁figur~~1330
▁Inner~~12817
▁canopy~~1835
▁beginning~~569
▁poison~~3482
▁Captain~~8557
▁locate~~3622
▁wrote~~1742
▁TED~~12
mar~~7635
▁works~~714
▁Sargasso~~4029
ille~~8573
▁Greek~~2953
illa~~6849
▁corner~~4303
▁cocaine~~11567
▁Arian~~11837
▁stabil~~10214
▁Schrödinger~~8535
▁Rockefeller~~10461
▁empower~~1253
▁pant~~4384
▁Farm~~9852
▁argu~~1990
▁Anna~~8098
▁forms~~527
▁Maltese~~8584
▁Hip~~12005
ogue~~7493
▁Grim~~7086
▁horror~~6442
▁leverag~~8968
▁seismi~~11531
eck~~6597
ech~~7246
▁examine~~2584
ect~~6893
▁57~~6979
▁56~~8788
▁55~~5194
▁54~~8450
▁stri~~7589
▁52~~6604
▁50~~2065
▁stadium~~3159
▁Veteran~~12363
▁provid~~376
▁genetic~~1124
▁numerical~~8067
▁59~~11848
▁58~~5955
▁Rehabilitation~~12886
▁Orleans~~3443
▁give~~212
▁healing~~4989
▁Isabelle~~12500
▁challenges~~1470
▁Emergenc~~10710
mag~~8822
▁organize~~1215
▁generations~~1368
▁ga~~6620
▁superhero~~6629
quality~~5757
▁element~~2675
▁geneticist~~8362
management~~12454
▁romance~~9631
▁poll~~7623
mal~~7145
▁schedule~~975
ubunt~~10686
neurotransmitter~~3898
▁Nixon~~8636
▁Immigrant~~12789
▁Nord~~5013
▁chronic~~1913
▁announcement~~6537
liste~~9390
natural~~8648
▁pigeon~~9085
▁calorie~~3559
bei~~9122
▁expos~~4186
bel~~874
▁transformation~~4858
▁Listen~~7216
▁hippie~~8444
▁3,3~~11162
ber~~3107
bare~~12095
▁hin~~475
▁filmmaker~~2013
▁him~~2374
▁Washington~~2106
▁cri~~8803
▁hid~~2239
▁referr~~1220
▁LGBT~~7580
ventil~~11963
▁obsolet~~5835
▁hit~~2517
▁his~~335
▁hip~~3156
▁arsenal~~11812
▁Hampton~~8794
▁footprint~~6796
ark~~5597
▁painting~~5894
▁chord~~10513
▁collaboration~~1207
▁Barack~~8101
▁wit~~6468
ably~~1991
truck~~6402
▁summ~~5171
▁Foto~~12879
▁shoulder~~3017
▁violent~~42
▁Midwest~~4854
▁promote~~1111
connected~~9924
awa~~7327
▁habits~~5434
urf~~6475
urg~~3649
ura~~2868
▁Australopithec~~7340
insky~~8912
uro~~6376
▁bald~~5564
▁terminal~~4871
▁secure~~5356
▁deeper~~2926
Store~~11942
▁Brother~~6894
ury~~2912
▁reckless~~10371
▁extensive~~3018
▁unexpected~~5683
▁consultant~~7770
▁Lama~~7497
▁flash~~6920
▁Emotion~~10735
inister~~10787
▁Enlighten~~11137
▁discriminati~~8203
▁frank~~3926
elecommunication~~4808
▁Team~~12091
▁discriminate~~8290
▁Name~~11315
▁oil~~2506
▁franc~~10743
▁hardest~~2780
▁Baby~~6303
▁City~~3677
▁devastate~~9670
(~~11687
rash~~4188
▁sequester~~10683
▁specialize~~5513
▁Gho~~11251
▁Armstrong~~4580
▁Hut~~7292
libri~~7249
▁missile~~3238
mortality~~5283
▁neglect~~1549
Packard~~3844
▁protocol~~5471
▁odor~~9127
▁mice~~5224
▁Galler~~7756
▁alumin~~3779
▁Klei~~12539
▁headquarter~~9163
▁1920~~9425
▁mathematician~~10226
▁coerc~~11826
evolution~~10311
▁slight~~1568
▁symbolic~~5323
▁indoor~~8775
▁Personal~~10280
gras~~11670
grat~~4914
▁synapti~~10342
gram~~8065
ification~~3097
▁Homer~~7378
grad~~2658
▁engineer~~5521
▁output~~4806
▁vagina~~9125
▁according~~2811
▁Heiz~~11736
▁Messer~~8801
computer~~6590
▁Sun~~8150
▁Sub~~7893
▁metric~~5842
▁uranium~~11282
▁Tu~~6581
▁faster~~1364
▁generous~~7642
▁confusion~~6242
▁Brooklyn~~6547
▁halte~~12627
uuu~~12542
state~~3668
▁virgin~~6925
tte~~5548
▁wise~~4465
▁plea~~5026
▁wish~~2050
▁eco~~6975
▁superficial~~11601
±~~11976
Station~~11744
ken~~2666
kel~~10382
▁Movember~~11470
rock~~8947
▁Mama~~10045
▁gil~~12549
▁revolutionize~~2534
▁Rad~~11843
▁flick~~6642
▁impressed~~7732
ker~~8230
▁Pantheon~~12769
▁erupt~~507
▁commit~~2626
▁anxiety~~8309
▁mul~~9486
▁North~~1430
▁stagna~~4797
▁geometric~~6119
▁perform~~1375
▁breathe~~4150
▁appear~~2241
▁Palestinian~~9153
▁las~~12377
▁legislat~~7115
▁lap~~5935
▁Afro~~12731
Fiction~~12791
▁challenge~~1259
▁evolve~~3054
ographie~~12597
▁appeal~~7701
▁effort~~1625
▁Barbie~~11568
93;~~2384
▁Richter~~11750
▁Seventy~~9225
▁dysfunctional~~10415
▁1.8~~10917
▁fifth~~5228
▁130~~1832
▁fec~~9137
▁fed~~2231
▁fee~~3373
cent~~3572
▁Psychopath~~12796
ulate~~6463
▁Sara~~5526
▁trend~~2600
▁nois~~3136
▁key~~1157
▁fifty~~5729
▁flat~~5994
▁suspens~~9093
▁daunting~~7443
▁few~~1776
▁immer~~8521
▁contrar~~8267
▁collection~~2861
ota~~9522
▁Paradi~~11749
▁Nicole~~6757
▁Taschen~~11591
▁creation~~3178
▁branch~~6065
▁engage~~2318
▁Leah~~7576
▁Hillis~~11462
▁Kern~~12688
▁tomorrow~~763
▁reduction~~4217
▁1.1~~7191
▁Abbott~~10939
▁firing~~5654
▁clap~~9763
▁clar~~7211
▁glove~~2494
▁claw~~615
▁input~~3015
▁doubt~~4320
▁Bonnie~~10977
▁cement~~7264
▁shell~~560
hbab~~11866
▁poetic~~7955
▁Virtual~~5951
▁piss~~7826
▁precursor~~11606
▁submerge~~9150
▁Hurricane~~6403
orbital~~8536
▁Spin~~8540
▁sick~~816
▁Georgetown~~9121
▁slow~~1219
▁slot~~7833
▁warehouse~~4857
▁depress~~7729
ultiplayer~~2729
▁defi~~5760
▁resume~~11223
▁sniff~~8263
▁Guatemala~~12318
▁camera~~187
avian~~9076
▁Nagel~~9211
▁ambassador~~3306
▁Popcorn~~12607
▁concentrate~~3476
▁anecdotal~~10563
isco~~7066
▁degree~~406
▁ob~~6829
destruction~~7649
▁chick~~3428
▁categor~~5253
▁criticize~~1399
i~~2257
▁piece~~444
▁OMG~~11418
▁embarrassment~~11021
well~~2082
▁whiske~~10495
finishe~~5899
welt~~4195
▁Physi~~11178
scha~~12764
▁cup~~6352
▁cur~~4723
ified~~2012
▁cut~~3785
schi~~11732
▁partnership~~4160
▁grad~~4856
▁grab~~552
▁Pakistan~~4305
▁select~~1040
▁gram~~6987
▁Phillip~~12124
dose~~4364
▁Times~~5713
▁harder~~3662
▁third~~2664
▁gras~~12325
▁gray~~9333
Be~~6645
▁improbab~~10631
▁trailer~~3741
▁circuit~~9205
▁also~~216
▁microscop~~6131
▁squid~~320
▁Gecko~~12370
▁NPR~~11804
▁Nadel~~12878
▁bump~~2959
▁crowdsourc~~10677
▁uninten~~9641
▁spoken~~6520
▁Moderator~~10976
▁bumm~~10892
▁charge~~4068
urkey~~7307
▁Röntgen~~12652
▁engaged~~2849
▁serious~~782
tles~~15
▁Democratic~~5101
▁Krishna~~11571
▁battery~~4530
▁capture~~25
▁sum~~3713
▁21.~~12917
▁sun~~524
▁Congress~~6173
▁sub~~350
▁sue~~6819
page~~8817
▁pot~~7051
▁pop~~3176
omorrow~~10777
▁breath~~4151
▁Israel~~2225
▁racis~~6095
▁effect~~2845
▁corridor~~8456
▁modern~~3522
motive~~8783
▁toothpaste~~8868
home~~4130
▁poo~~8304
homa~~9559
ROM~~9037
broad~~4391
▁duct~~6859
traumatic~~9221
▁troubling~~11499
▁autonom~~6755
▁duck~~8996
▁veg~~8696
▁portrait~~5911
▁hidden~~2209
▁engag~~7229
Up~~3446
▁astonishing~~2462
▁Broad~~11711
▁alarm~~5620
▁brillian~~7163
kinder~~12919
▁particular~~1490
▁late~~1411
▁Curt~~7420
▁Pla~~9802
▁separate~~3399
▁grace~~9697
▁shout~~3085
▁Canyon~~7151
lbatross~~3415
▁aller~~10249
▁rotation~~10105
▁vicious~~7536
▁exceptional~~4246
▁litera~~7557
▁axe~~7400
▁Tests~~12128
▁Koch~~12718
▁butterfl~~9799
▁cyber~~5428
▁imperfect~~5214
▁determin~~6134
▁nett~~7825
▁prepare~~4438
▁Sein~~9902
▁interesting~~450
imini~~10043
▁Lunch~~11485
▁baffl~~7164
▁susceptib~~9772
▁Rule~~10966
atriarch~~10691
museum~~12104
▁distribute~~1449
pa~~5032
inner~~5976
▁7,000~~2192
▁Mytho~~8091
▁embrac~~3569
eah~~3298
ematode~~11367
▁climate~~1707
▁vibrat~~2948
▁notorious~~10836
▁II~~3326
ht~~3393
hu~~4953
▁vibran~~20
hi~~4260
ho~~4064
▁bridge~~5660
▁indicator~~6361
ear~~4682
eat~~6993
he~~5447
▁Scrapper~~12836
▁join~~1812
▁Secretary~~10585
▁agricultural~~4801
▁Zimba~~11924
▁Out~~4427
carriage~~9915
▁random~~6135
▁Cesar~~11238
▁Our~~8089
itis~~4172
▁probabilit~~2620
▁nuts~~7028
Alla~~10941
▁Margaret~~9626
▁Hawke~~10381
▁Stra~~6605
▁dominat~~1531
erin~~11661
▁shallow~~5343
▁represent~~2964
isier~~5611
▁slave~~8190
▁graphics~~6479
▁asthma~~6311
▁implicit~~10445
▁complication~~11330
▁caution~~8553
▁wind~~4518
▁wine~~2404
▁wing~~5076
▁Tamil~~11325
▁pipeline~~5807
▁introduc~~9916
▁Eisen~~9110
▁knock~~4543
▁Gaza~~8419
esearch~~3313
▁belly~~4479
star~~4397
▁dad~~2386
▁digg~~7346
▁probabl~~512
▁frontal~~6268
▁kangaroo~~10785
stab~~8665
▁Note~~11891
stan~~4537
▁Brazilian~~9580
▁buffer~~9658
▁violin~~10502
▁steroid~~6252
▁includ~~4586
hne~~5688
▁Ego~~12045
▁sneak~~2970
insel~~4573
▁critic~~9789
▁Egg~~6539
▁challeng~~1261
▁seamless~~10839
▁JR~~10286
▁3.5~~5352
▁Diabetes~~12116
▁Van~~9022
▁Lega~~8416
▁share~~1299
▁recreat~~7407
▁shark~~8973
▁Cartoon~~12914
▁enable~~1652
▁conduct~~2995
▁sharp~~8866
▁Connecti~~6886
▁outdoor~~3059
▁morph~~3920
▁palpabl~~2018
▁prim~~7951
▁diploma~~9164
▁Unite~~1189
▁rhino~~7354
ppel~~5369
▁macro~~8524
▁calv~~4443
▁Sergio~~12297
aus~~8637
▁technique~~4491
▁call~~428
▁calm~~6092
▁inconsistenc~~9618
▁crane~~7726
▁homicide~~11342
▁Gehry~~8779
▁Alexandr~~4734
▁Krypto~~12415
void~~3652
▁fisc~~10432
misunderstanding~~11363
▁many~~821
▁Schneide~~11458
▁Matthew~~9081
▁Comic~~12830
▁ghost~~8313
▁Wurzel~~12409
▁shap~~7453
▁camps~~6211
▁body~~652
▁studie~~5830
▁income~~8849
▁battl~~8084
▁Arka~~9930
▁laid~~1701
▁Don~~7158
sleep~~5409
▁studio~~4905
▁young~~1371
▁bodi~~5332
▁disast~~10160
▁soul~~5437
force~~7429
▁flame~~1298
▁Jabb~~11706
▁nein~~11157
▁bread~~5975
▁Tech~~7857
▁break~~803
▁underwa~~9895
▁meteorite~~11829
▁save~~4009
▁soup~~3469
▁Charter~~10457
▁trust~~1252
▁Nadi~~11763
▁absence~~4809
▁useless~~7975
▁grape~~10414
ney~~2171
tipp~~12011
net~~6061
neu~~11952
ever~~1237
▁Walker~~6185
▁collect~~373
▁cu~~4119
▁rats~~1053
million~~4592
▁indefinite~~5165
▁Aura~~10887
drew~~3782
▁surge~~9607
▁railroad~~8669
met~~6719
▁rate~~691
active~~5643
▁cl~~633
▁co~~4740
plex~~7416
▁Renn~~10774
▁Galileo~~10182
▁Comedy~~11704
▁audition~~8813
▁Bronx~~4318
▁Eric~~2750
litary~~6091
▁photosynthesi~~9212
▁stands~~6357
dra~~5242
▁Pittsburgh~~2687
▁Disease~~9175
▁Bell~~2369
▁pacemaker~~11272
▁physiolog~~9942
▁road~~4204
ippe~~11191
moral~~5166
org~~8374
▁Atlant~~9448
▁dialogue~~7073
▁batteries~~6406
▁halve~~9693
▁desalinati~~12059
ellow~~10309
call~~5473
▁uplift~~5064
▁Metric~~8058
krieg~~12039
▁fabulous~~7936
▁flies~~1830
▁dot~~630
▁Schott~~12916
▁cause~~2677
▁illusion~~6152
▁laws~~3983
▁don~~380
V~~5039
ward~~2084
ware~~6971
▁burden~~6400
▁dog~~3689
▁Force~~4422
▁AIMS~~12388
room~~2085
▁steep~~6227
▁Trag~~12603
▁Michigan~~4850
worth~~9562
▁Male~~11761
▁networks~~3694
▁Date~~12085
▁light~~264
▁spaceship~~1877
▁Johann~~11920
▁Spider~~11655
▁homosexual~~7567
▁talks~~2373
Screen~~12633
▁11.~~12228
▁110~~2490
▁culminat~~4112
▁aufge~~12665
rid~~8222
▁caves~~8858
aging~~1896
▁1918~~7795
quot~~197
▁dealing~~1180
▁marvel~~4134
RCA~~10758
polis~~2197
▁saying~~742
▁consent~~10521
▁subset~~10044
▁writing~~2183
▁Dotcom~~6724
▁dispos~~3531
▁item~~4561
▁skip~~4932
▁skin~~3799
▁rabbit~~8117
▁gravity~~8621
▁Smoot~~12196
▁Andy~~6292
▁potent~~4187
shaw~~9909
▁Swa~~6494
▁fuse~~5520
third~~3475
▁interactive~~6007
▁date~~4126
▁disseminat~~4881
▁astronomer~~7956
▁data~~370
▁twitter~~12106
▁hectare~~3551
▁Diagnos~~11452
▁Davi~~9132
▁chop~~9420
▁Hospital~~2913
ueen~~7487
▁arteries~~1884
▁coup~~7176
lumni~~8989
▁autops~~10738
▁Eigen~~12747
▁mutual~~3222
▁Phoenix~~9652
▁chok~~3321
tched~~3184
▁heritage~~5882
▁slid~~8736
osi~~9116
personal~~10072
▁slim~~4743
▁slip~~4431
▁inexpensive~~9853
▁avail~~4767
▁Element~~10079
ologie~~12784
▁skateboard~~3821
▁terrorists~~9284
▁hotel~~5112
▁erase~~10345
ania~~7064
▁digital~~4523
▁Zone~~12265
▁ironic~~5678
▁Snoop~~11994
▁patron~~10409
▁unsustainabl~~3570
▁content~~2736
▁plent~~2597
▁counter~~5408
▁interference~~5189
▁tower~~1821
▁Digital~~5992
▁anatomy~~1888
▁Beijerinck~~12440
went~~963
▁upload~~7101
▁Dictionar~~8658
side~~3607
bone~~6501
▁predator~~4117
▁These~~4913
▁enabl~~8127
balone~~9509
▁charm~~7959
▁Mulli~~8830
▁dishe~~3338
aida~~12490
▁Tasmanian~~10784
▁Stefan~~9531
▁stratospher~~11129
▁example~~822
ISA~~5883
▁productive~~3580
▁logarithm~~10530
▁curiosity~~2734
▁accomplishment~~10987
▁rhinovirus~~12390
▁restaurants~~5384
manda~~4635
▁assign~~6609
▁since~~1473
▁embarrass~~4700
India~~10857
linear~~9035
▁things~~234
▁Babbage~~9020
▁Beijing~~7554
Planet~~11860
▁Bu~~4462
▁Brillian~~11326
▁classifie~~9078
▁users~~6499
▁unravel~~5528
▁unlock~~2831
▁identify~~4089
logging~~10327
▁medi~~7439
▁Drama~~8003
▁fellow~~4558
ist~~2070
ish~~3434
fleck~~12565
▁neural~~1105
ism~~477
rinde~~11851
▁effects~~2881
ise~~2161
▁Rob~~6224
▁Blog~~10895
▁pay~~1498
grade~~5311
▁paw~~3595
▁models~~1801
▁par~~1975
▁adjust~~4416
▁pan~~4888
▁pal~~2994
▁disruption~~8891
▁Spot~~6664
cher~~8516
▁pad~~2523
▁pac~~4115
hood~~4324
▁erziel~~12675
▁Dunlap~~12797
OT~~10377
▁Rod~~9958
▁lightbulb~~10324
▁Modern~~8090
▁peel~~9036
▁smooth~~2512
▁transmitt~~6283
▁prosper~~11121
▁malignan~~10809
consistent~~11512
▁bicycle~~8494
▁plausib~~10341
▁vent~~454
▁probiotic~~9131
▁Sich~~7311
▁capitalist~~11058
▁Robotic~~8708
▁minus~~3293
▁exposure~~6342
▁enhance~~6704
▁Slow~~4967
clamation~~4879
uction~~6577
▁slum~~2081
ference~~4493
requisite~~3997
horn~~7428
▁chemist~~1712
▁lava~~10012
distance~~11218
▁version~~2592
▁taxpayer~~6831
▁musical~~1091
▁shows~~1366
▁sprinkle~~9847
▁couch~~1906
▁seek~~204
▁seem~~2919
▁finite~~4956
▁seen~~82
▁weakness~~5432
▁seed~~8707
▁children~~1450
▁Exxon~~11080
▁trait~~9950
▁afr~~2507
mino~~7970
modern~~4901
▁Critic~~12509
▁fell~~3862
▁Kanzi~~12756
▁nerd~~6503
▁keep~~2786
▁train~~931
▁trail~~10192
seek~~10950
▁opt~~9215
▁oven~~9696
▁arch~~5391
▁fence~~8898
▁intertwine~~8632
▁Interviewer~~11999
▁mammals~~6364
▁definition~~668
▁Oakland~~6397
▁dinosaur~~9057
▁over~~394
▁axis~~464
▁brings~~2920
▁Bronze~~12421
koko~~12540
▁Diego~~5881
▁girl~~3245
▁mortal~~10246
▁festival~~9747
▁Kenya~~8170
marin~~4924
▁cellulos~~4590
regulat~~3989
▁Happiness~~8502
typ~~272
▁stroke~~2905
▁99~~4216
▁98~~5832
don~~5445
▁Morton~~1703
dom~~7990
▁93~~5108
▁ensure~~1673
▁90~~1359
m~~64
▁96~~9264
▁95~~4283
▁94~~9859
▁9.~~8993
▁joke~~3681
▁rediscover~~1236
+~~2830
▁vodka~~11810
▁Stein~~10094
▁escape~~3772
▁gourmet~~8697
▁Toten~~12742
▁senior~~4503
kus~~12483
▁opposition~~7564
▁freeze~~5317
▁expressive~~3019
▁feature~~1526
▁encompass~~10561
▁conspirac~~876
▁will~~580
▁Marathon~~11841
▁Japan~~1615
▁Fil~~7601
▁recess~~971
▁wild~~3491
▁synesthe~~11625
▁Tool~~12302
▁afford~~1457
kul~~11037
▁Tasmania~~10786
▁blush~~11189
▁absurd~~765
▁dial~~4872
▁Mark~~4730
▁Mari~~9856
▁Amsterdam~~11722
▁gene~~934
▁landmark~~6435
ercover~~12523
▁Hubble~~10193
▁Novo~~10352
▁Glasgow~~12246
▁Marx~~7603
XY~~5908
▁highly~~1598
▁Nova~~9005
▁Mars~~6202
▁profession~~1502
▁Linda~~11291
▁soccer~~1136
ggression~~5337
▁promot~~1205
bar~~7650
▁repeat~~4694
▁300~~304
▁terrifi~~4147
▁employee~~1229
ucci~~8017
▁champion~~2360
▁volume~~3082
▁Great~~2250
bal~~6333
▁30-~~4446
▁employer~~1225
▁brown~~3897
ethical~~7206
▁reconfigur~~12237
▁Foster~~11396
▁like~~122
▁Indonesia~~9480
hypnoti~~11426
▁suit~~2595
▁Apple~~7730
▁50,000~~2500
▁Prize~~5273
▁shape~~1945
▁observe~~2955
▁hmm~~11551
▁Musk~~11054
00~~3453
▁reflect~~1612
▁renew~~4955
▁Kinect~~11338
▁WorldWide~~12711
Choice~~12389
▁Wann~~12749
▁desperate~~4251
▁Wand~~12032
▁Wang~~11115
▁Mobutu~~10355
▁Blick~~11602
▁HyperCard~~12617
C~~1736
▁Dia~~11236
Central~~400
▁death~~282
ome~~5499
▁ventilat~~11621
▁personal~~1271
▁secular~~1980
▁Alice~~10406
▁Dir~~11616
▁Dis~~10695
▁continu~~5247
▁romantic~~8659
▁professor~~4609
▁outsourc~~11108
▁spreading~~6284
unt~~2213
▁sho~~3464
▁universal~~794
▁principle~~2133
▁mistake~~3436
against~~403
una~~9502
und~~4084
▁Palm~~8185
ung~~1580
▁Pala~~5862
unk~~6243
▁Area~~6613
▁lake~~5319
▁smile~~7214
▁humble~~5335
▁exquisite~~4741
▁Wired~~8709
▁Bang~~5632
▁employ~~7090
▁Band~~2562
▁latter~~2203
▁poetry~~4727
▁rural~~2028
▁legs~~2599
▁NASA~~5644
▁mutilat~~10732
▁India~~4227
▁contribute~~1717
three~~8921
tiny~~637
ting~~421
▁inter~~2371
▁Dennett~~10092
äcke~~12750
interest~~6815
▁enlist~~8110
▁as~~207
▁Ellen~~7599
▁jerk~~4654
▁corrupt~~9290
▁at~~117
▁modalit~~10038
▁genetically~~6707
▁media~~1602
▁ac~~4994
▁ab~~4542
▁veterinarian~~9134
nowledge~~8487
tradition~~10621
▁an~~327
▁rare~~3524
▁al~~701
Ch~~10229
▁watershed~~8145
▁USB~~11669
Dollar~~12133
▁decode~~9401
▁damage~~4923
▁stereotype~~9393
▁argue~~1685
▁County~~10573
▁scaling~~11519
▁implie~~5537
Capitol~~9963
▁fo~~3183
▁marry~~7652
▁sometime~~4686
▁plan~~3690
▁Scottish~~8774
ip~~3647
is~~3664
ir~~3545
it~~788
▁spot~~1891
iv~~168
▁marri~~4656
ik~~7343
im~~2303
il~~565
io~~2055
in~~351
ia~~2889
▁rock~~634
ic~~48
ib~~4650
ie~~875
id~~1577
ig~~1248
if~~4116
▁geo~~9320
▁dig~~6467
▁did~~489
▁die~~2008
▁candy~~8895
erebral~~2993
▁delighted~~8179
▁Bush~~5733
▁dim~~7366
▁dir~~11651
▁dis~~2160
▁dip~~10302
▁div~~8583
▁get~~182
▁crows~~7809
▁Colli~~8948
elli~~9892
▁constant~~2999
ella~~9217
▁cogniti~~1115
▁squa~~10698
kin~~4623
▁drivers~~10048
▁reply~~8187
▁blade~~6924
▁operational~~8277
▁message~~795
▁province~~8324
▁premature~~6319
materiali~~11581
zog~~12369
▁Cultur~~10873
▁cassette~~8289
etera~~12251
▁pellet~~3354
▁baseline~~9959
▁upgrade~~8846
▁electron~~7916
▁Teszler~~12807
▁Krosoczka~~12583
human~~6945
▁Sri~~7193
▁figure~~1653
▁seine~~12477
▁racial~~8045
▁detail~~1496
masse~~8368
▁paralysi~~8510
▁shoe~~8812
▁fat~~6821
▁dictionar~~9491
▁influence~~2557
▁flex~~1920
▁far~~632
amara~~10953
▁shop~~3525
▁repertoire~~7581
▁show~~84
▁shot~~2080
▁LinkedIn~~9281
▁ABC~~11926
▁George~~3945
▁crocodile~~9477
▁Save~~8194
▁advent~~9669
▁fac~~4703
▁circuits~~1916
▁Tennessee~~9443
▁larva~~10318
▁rigorous~~3928
▁matter~~88
▁Michoac~~11921
▁Sandwich~~8818
▁airport~~3361
▁Feminist~~11874
▁Original~~12502
▁divine~~7796
performance~~10905
▁homes~~673
▁orgasm~~5000
shoulder~~6589
▁obes~~3562
Art~~12244
▁much~~203
▁maneuver~~1840
▁Square~~8182
▁redundan~~10378
plica~~8605
▁equit~~1439
▁sausage~~5316
Arm~~11184
▁equip~~1820
www~~11446
▁honeybee~~10701
▁kg~~7008
▁chat~~4494
▁cows~~3700
▁chap~~8460
maxim~~12553
▁Data~~11091
▁chas~~4626
▁abuse~~4316
▁participator~~8108
▁worry~~5157
▁believe~~1235
▁Puls~~11944
▁Federal~~9961
▁melde~~12700
▁Kal~~10068
▁Mathematica~~10765
▁translate~~1384
▁prescription~~1650
▁quart~~8425
▁emission~~8534
▁hammer~~3890
▁sign~~2649
burg~~2417
▁Village~~9305
▁Schl~~1312
▁fragrance~~9391
burn~~8140
▁Schi~~11694
▁manifest~~779
▁degrad~~5298
▁cursor~~8055
▁Schw~~11288
▁monkey~~6710
▁Teller~~8734
▁kids~~892
▁Cambodia~~6043
▁biomimic~~11836
▁99.9~~6118
▁emotion~~2808
▁ugl~~7236
▁kidd~~5627
▁flori~~11138
=~~11362
▁encouraging~~1208
▁affect~~909
lief~~9033
▁inside~~349
▁contradict~~9187
▁anecdote~~7358
▁hyperbol~~5738
▁encrypt~~9269
▁Vanco~~7421
▁tick~~2345
tennis~~5547
▁empathy~~5544
▁hurdle~~9467
▁Bull~~7995
▁Montag~~8056
▁wings~~6746
▁guard~~6087
▁slope~~9324
▁Solidar~~9586
bert~~5798
DNA~~8389
▁Coach~~7715
form~~7740
▁too~~715
ampaign~~11117
analyse~~7010
▁companion~~7665
ford~~4463
▁expert~~3004
atricia~~5180
▁agreement~~7113
▁Flor~~5857
▁top~~391
▁Liberal~~11935
▁fantasy~~2182
▁wilderness~~11753
▁sometimes~~3088
▁dense~~457
▁collide~~9876
▁Mount~~6190
▁evil~~7061
▁gab~~12445
▁transformative~~2047
▁drill~~9067
diagnose~~8246
▁percentage~~858
▁resolve~~4297
kor~~11725
rmostat~~10300
▁shake~~2795
▁protocell~~12459
▁sheep~~3642
▁domestic~~4890
ship~~2412
▁vocabular~~3771
▁crawl~~677
▁pleasure~~3205
handel~~2938
▁chart~~1417
▁40,000~~389
▁Pluto~~10334
▁Mehr~~12592
ourage~~12526
▁drought~~9386
▁unregul~~12460
▁mistrust~~10353
▁amphibian~~6323
▁SARS~~4221
▁protein~~3913
▁else~~1344
felt~~2717
▁concept~~768
▁financial~~1683
▁painful~~2568
▁Islam~~10970
▁Marshall~~6610
▁fascinate~~5422
▁Inuit~~11783
▁aristocra~~9956
billion~~759
▁task~~1058
▁Nest~~12837
▁ladder~~6218
▁suburban~~9643
▁idea~~142
▁fanc~~8662
▁Pilot~~12215
▁responsive~~7819
▁dressed~~6237
▁Lava~~12793
▁structure~~538
▁might~~1054
▁peculiar~~4814
invent~~7510
▁mandate~~4128
mile~~390
▁add~~2848
▁hallucination~~8225
▁incorporate~~6915
▁wrong~~2207
▁journalist~~1857
marke~~10118
▁outline~~4753
▁doctor~~1166
▁How~~4354
▁Hol~~436
0~~5953
▁Hoo~~1956
▁phenomeno~~3877
▁countries~~1321
meister~~9533
▁phenomena~~9039
▁precious~~6516
Rex~~11773
▁Hob~~6635
▁cru~~8819
▁private~~2707
▁indigen~~8411
▁Excel~~10965
▁sentiment~~7241
▁anchor~~3502
▁bother~~2560
▁facilitate~~9935
▁SOPA~~12050
prof~~1023
▁Philip~~8712
▁problem~~100
▁conservation~~773
▁Agu~~11421
▁4.000~~7139
▁precis~~3006
▁Hussein~~10452
die~~8791
▁Standard~~5879
▁Age~~5066
▁distant~~1327
▁sprout~~11092
▁Agn~~10587
dis~~4874
ville~~3080
▁academic~~2323
villa~~6631
▁abstract~~2583
▁mammoth~~6657
▁bra~~9179
worm~~9487
▁result~~856
▁tree~~6063
▁delicate~~9949
▁postcard~~7149
▁iPod~~1520
▁Give~~2718
bacterial~~2532
▁trek~~4194
▁metabolic~~6280
ssig~~5802
oyle~~6473
etchup~~8941
▁Tibet~~6046
▁merchant~~4824
▁stell~~11912
▁Aber~~12304
▁oops~~4159
▁careful~~1640
▁mixed~~8686
▁Math~~10856
▁extension~~5132
▁Cameron~~4293
▁tolerance~~7743
▁Casa~~10620
▁disintegrat~~599
▁Thai~~5665
▁30,000~~8496
▁Cash~~11314
▁That~~1028
▁feasib~~5130
▁cheese~~8691
▁dick~~9637
▁Guinness~~5868
▁Malco~~6837
▁Matt~~6008
▁detection~~6800
▁promis~~2442
▁fully~~5639
box~~3154
▁Verb~~12341
▁military~~1838
▁procedure~~6963
▁alert~~4926
shift~~5306
spezifisch~~12664
▁enforce~~3999
bot~~6742
bou~~7612
▁authorit~~1260
▁phone~~1017
▁Group~~4617
▁ganz~~11985
▁alcohol~~8007
achi~~5033
▁Wald~~11629
▁lunch~~1275
elect~~1043
▁attachment~~7643
▁hot~~483
▁Wall~~7052
▁how~~217
▁hop~~5705
▁Walk~~9537
▁Allen~~9776
▁hol~~3114
▁everywhere~~796
▁hoo~~9788
▁nudge~~7853
▁reassur~~8245
▁humanitarian~~4180
▁shave~~11060
▁hob~~6592
▁lies~~144
▁wake~~1289
aya~~8591
▁reorganize~~11799
▁thin~~5495
▁Alexander~~7781
▁mangrove~~11998
▁Nerv~~12194
ood~~325
▁Africa~~3091
sharing~~2924
▁flavor~~4028
▁disturb~~6842
oon~~4514
▁analysis~~1227
ook~~4863
▁holding~~889
appen~~11970
▁pleasant~~1514
▁squirt~~9844
▁Dollar~~11667
▁previously~~4136
apped~~7660
▁Beach~~3366
▁suppress~~7075
▁yester~~3370
▁pesticide~~6321
▁southern~~4275
▁thoughtful~~2175
▁Taliban~~4515
▁mention~~3599
flu~~8483
ult~~3624
▁Hebr~~2576
▁Hohe~~12533
flo~~3362
making~~1121
▁Ticket~~11992
▁Ha~~972
▁Bali~~9624
▁semina~~8959
▁underst~~324
▁Ball~~6791
▁stitch~~7637
▁exciting~~98
▁reduc~~7276
▁found~~697
▁image~~3232
▁Muh~~10081
▁tele~~4492
▁pioneer~~3970
▁substantial~~9466
▁Jura~~5745
▁tell~~69
▁rape~~7689
▁size~~296
▁college~~3942
▁Histor~~6000
▁philosoph~~2000
ping~~339
idio~~3818
▁throat~~10184
▁Simon~~2952
▁Will~~2255
▁shift~~3025
mat~~6336
▁interact~~1062
▁Wild~~6081
▁desert~~4736
▁infrar~~3013
▁go~~342
▁fantastic~~2860
mah~~7588
▁environment~~315
▁exhaust~~6240
▁ge~~1999
grow~~6952
▁guten~~12407
man~~2450
▁reconcile~~7515
▁Georgia~~9479
▁exten~~3177
▁Kha~~6643
▁Nelson~~8204
q~~7514
▁Golf~~12307
▁Danny~~11461
▁Cathe~~7168
▁Enrique~~9204
▁gambl~~10629
▁Standards~~8276
ische~~12255
▁overwhelm~~8348
▁Sylvia~~4022
immer~~132
immel~~12873
▁target~~1695
group~~2694
▁mum~~6262
▁Like~~4803
▁guerrilla~~9923
▁Horizont~~12264
thane~~1787
▁vertical~~3901
▁Ram~~7525
▁gauge~~8889
▁mud~~2504
▁Cyber~~9266
▁Government~~3722
▁Rat~~11640
▁sexual~~4374
mail~~8622
▁Mut~~10840
▁geschützt~~12661
▁neurogenesis~~12842
▁memes~~10722
▁buzz~~3191
▁skills~~1059
▁coffee~~943
▁Canc~~8341
She~~5588
▁13.~~10510
▁Commandment~~2641
▁smartphone~~5834
▁Trick~~12467
▁breed~~5929
▁für~~12447
▁most~~41
▁reduce~~1573
▁describ~~10110
nick~~8684
▁Sata~~12547
▁DNA~~3911
▁partner~~211
▁fatty~~6824
▁Gute~~12835
▁Container~~11980
▁400~~1746
girl~~11313
▁Brian~~3509
▁404~~11337
▁fist~~4507
▁Lego~~8000
▁shak~~4198
▁restore~~2904
titution~~7142
▁talent~~1353
▁punish~~7993
pock~~2159
dioxide~~9530
▁Keith~~9831
▁fish~~240
correct~~5793
▁1890~~10143
▁number~~698
▁plaque~~9996
lag~~7895
▁FreeSpeech~~12903
G~~3056
ory~~3383
▁basis~~4088
ort~~5164
▁repeated~~2715
ors~~2227
▁terabyte~~11143
▁Story~~4942
▁gentlem~~4285
▁Essay~~12402
ork~~3750
ori~~7910
▁clon~~6554
▁basic~~367
▁Stern~~10520
gott~~12305
▁Mick~~7076
MF~~10863
App~~10925
▁payoff~~8132
▁relation~~8475
Khmer~~12337
▁entitle~~4770
▁transmission~~8514
frequent~~8064
first~~10482
▁entry~~7711
▁flexibilit~~6902
▁genocide~~2139
▁vivid~~5905
timation~~6977
▁BP~~11078
▁convey~~3021
▁Dave~~65
▁worth~~1819
▁BG~~4306
▁Olive~~12457
afel~~12417
▁BL~~496
▁dried~~8345
▁streets~~1381
▁profile~~6223
▁Office~~10418
▁spoof~~12118
▁corporations~~3567
▁Br~~4486
▁guitar~~2875
modernism~~9868
▁Sport~~9903
▁Be~~1937
▁classify~~4632
▁unpredictabl~~10592
▁disorder~~8888
▁Ba~~3385
▁Bo~~3732
speaking~~10671
▁Bi~~4280
▁regulation~~6717
▁idiot~~1010
▁commercial~~4167
▁hurry~~2234
▁Pentagon~~10711
▁mosquito~~9069
▁cruel~~9107
▁airplane~~7511
▁sanit~~4282
▁sensitive~~739
ttle~~5027
▁useful~~2267
11~~5885
10~~4409
▁wrist~~2273
12~~5663
15~~7423
14~~1827
17~~7793
16~~8795
19~~3611
18~~9428
▁solv~~5827
▁calendar~~8451
protected~~7094
▁chief~~7662
▁needle~~9492
lich~~11382
lick~~7274
DG~~326
▁September~~2974
▁collaps~~11781
portrait~~10893
DP~~842
▁fruit~~4780
▁skirt~~2238
▁Licht~~9558
able~~658
▁20.~~11530
efficient~~4792
▁time~~432
▁20-~~10952
▁profitable~~8874
▁essence~~6839
▁magical~~3527
▁elect~~7042
▁Hungarian~~10975
green~~9246
orado~~11543
▁Magnet~~12644
200~~9408
▁tip~~553
▁surgeon~~4668
▁egalitarian~~11181
bett~~12393
track~~3355
▁Form~~11450
▁imitat~~8578
incidence~~6306
paid~~2678
▁restriction~~1270
▁victor~~5934
▁tie~~4583
▁filament~~623
▁typical~~2756
▁apartment~~7154
▁banne~~4560
▁friendship~~5968
▁interview~~4802
angst~~11044
▁sheet~~2610
liche~~11892
▁River~~4261
▁accumulat~~4598
▁Gran~~8418
▁Kapital~~12819
▁grosse~~12054
▁hybrid~~6151
▁chemistr~~1846
▁drink~~3112
▁decided~~2608
shop~~8631
WF~~10320
▁Benjamin~~4958
shot~~5078
▁geological~~9512
▁gang~~6739
▁seawater~~3397
▁crutch~~4245
▁Barbar~~8541
▁differentiate~~1629
▁nightmare~~3839
▁Ventur~~10440
▁implication~~4816
▁precipi~~9481
▁Ludwi~~11095
▁peaceful~~5344
ubert~~7968
▁this~~60
▁repair~~5249
kilometer~~4021
helix~~8743
▁billion~~713
▁ignor~~11966
▁Progress~~11491
ger~~1274
▁polar~~7532
▁arriv~~3620
▁optic~~5486
▁fall~~3084
▁architect~~3516
▁renovat~~6567
resistan~~7904
▁tightly~~8693
▁seat~~3856
▁calci~~9074
▁concern~~1563
▁seas~~3309
gel~~5169
▁bask~~2788
▁allow~~1900
▁Portrait~~11008
eller~~8590
▁valuable~~2290
▁base~~3480
▁generic~~5117
▁Opera~~2863
▁event~~3657
▁variation~~1485
▁cough~~12348
▁grain~~3539
▁sold~~3529
▁cattle~~4664
▁solo~~2446
▁hollow~~10690
▁Angeles~~5371
▁fraud~~9440
▁hole~~985
▁hold~~1128
▁Grad~~10580
▁Organization~~7891
▁Grab~~8753
▁Journalism~~12924
▁learning~~754
▁commodity~~3697
▁integral~~7498
▁stink~~9710
▁fulfill~~1178
▁Gras~~10335
▁integrat~~3817
▁fracture~~9519
▁commoditi~~2149
▁submitt~~5754
▁pathogen~~5251
▁jogg~~10884
▁carbon~~3978
▁Relation~~11371
ju~~2424
jo~~7953
ji~~6985
tun~~10077
▁envision~~1876
je~~2986
ja~~3386
▁turn~~225
▁pea~~5315
▁bureaucrac~~11712
ivity~~1159
▁stand~~116
▁lamp~~6495
▁cathedral~~3101
▁pen~~4566
▁well~~712
▁per~~520
▁SPECT~~6266
▁bureaucrat~~6674
▁recognize~~2899
present~~9402
▁patch~~3990
▁pet~~2672
▁slaughter~~3643
▁colony~~10236
▁queer~~7575
▁transform~~881
▁Joel~~10313
ized~~994
▁suicid~~10555
▁queen~~9820
▁Bridge~~9303
izen~~7488
▁spoke~~4659
▁encounter~~6036
▁assum~~6950
▁garden~~3672
▁hire~~863
▁Derek~~10789
▁recruit~~1641
▁static~~4428
▁swimm~~5334
▁Thom~~3215
▁surgery~~4669
income~~8967
▁manipulate~~6711
▁transaction~~4804
▁Schach~~9832
▁circum~~7247
▁Eis~~9899
▁diabetic~~9115
▁Linux~~8155
▁million~~711
▁Thor~~9966
▁stat~~9684
^~~12545
sound~~5069
▁shower~~6407
▁devastation~~9797
▁scatter~~6825
▁rational~~2633
▁Ost~~11515
▁intentional~~6685
▁Gross~~3536
▁terribl~~1401
▁word~~2573
▁Galapagos~~4091
▁smartest~~4302
▁worm~~532
cock~~7813
▁work~~767
▁snack~~8660
▁ethnic~~8044
▁examples~~2676
▁possession~~8837
▁activis~~7666
▁network~~2782
▁Figur~~12243
▁Rabin~~11131
▁activit~~514
▁Aaron~~11806
protein~~12394
▁Strick~~12622
par~~4737
▁kitchen~~5407
▁revenue~~9002
ongolese~~11618
▁prop~~4351
▁audience~~1856
▁relevant~~7242
▁wait~~716
▁Republican~~7032
pan~~129
▁Arab~~8446
oil~~8675
▁cheek~~9756
▁individual~~254
oid~~7371
▁parallel~~5208
▁unexplo~~162
▁Cheval~~11188
▁Arav~~11324
▁limitation~~5561
▁swamp~~9317
▁cheer~~5567
▁windshield~~2489
▁mother~~1965
▁pursui~~1721
▁mainstream~~4992
▁eng~~8956
▁end~~402
band~~8129
▁infiltrat~~9268
▁Susan~~6868
▁damn~~5264
▁pursue~~1556
▁Music~~2887
▁env~~3961
▁ent~~4739
▁Macintosh~~11305
▁measure~~1315
▁regret~~6421
▁exercise~~1129
▁operate~~4197
▁tent~~244
▁levitat~~10837
▁confirm~~5560
▁tens~~418
▁turtle~~4026
▁terrifying~~3837
▁admit~~2405
▁wedding~~7406
▁geographical~~5815
▁tend~~298
cursion~~8543
▁turbine~~8430
▁Tue~~4400
▁hundred~~493
▁dolphin~~1073
▁endeavor~~5809
▁angel~~10235
▁em~~3646
▁el~~4733
▁overcom~~3083
▁ground~~644
▁Social~~8186
▁Tudor~~11194
▁es~~3304
4~~2421
▁Total~~12151
▁pediatric~~3840
▁display~~1928
▁ex~~128
▁routine~~4403
▁Copyright~~7083
▁gather~~3498
▁geograph~~3645
temperatur~~10490
grid~~10708
▁adjacen~~3902
mog~~1725
▁dictatorship~~11649
▁Sufi~~11187
▁infrastructure~~4210
▁silicon~~8608
▁instance~~2897
▁intricate~~3094
either~~415
▁Western~~2148
anti~~4570
▁flaw~~7104
▁rust~~9760
▁Ahmedabad~~11946
▁pattern~~1904
▁adolescent~~5024
▁UNAIDS~~11809
▁flowers~~3299
ante~~5741
▁60,000~~6765
▁Matthieu~~10642
▁articulate~~2200
▁polish~~9099
▁gap~~1432
▁gas~~5339
▁gar~~3880
▁alive~~2936
▁Ocean~~4056
▁gav~~2264
▁sidewalk~~6579
colonial~~252
Gadget~~12010
ropaganda~~2263
ellig~~9050
▁fatigue~~7979
▁due~~4820
▁cooperative~~8126
boat~~3135
▁gal~~6956
▁online~~2975
▁DARPA~~6743
▁Sydney~~10233
▁Call~~10180
▁Cala~~11639
▁preferr~~5393
▁balance~~6457
▁volle~~11900
othy~~9199
▁lane~~10189
▁nut~~7827
▁Fang~~12530
▁surrogate~~11454
▁arrival~~7204
▁century~~1992
▁thorough~~5215
▁4,5~~12787
▁uncle~~7548
▁integrate~~7395
▁quirk~~8302
▁Bal~~6647
▁respirator~~10536
▁Fest~~12788
▁astounding~~5469
▁connectome~~10336
▁furniture~~3752
▁clinical~~1930
▁speculation~~5232
▁Santa~~5875
▁official~~2812
▁monster~~3956
▁flowing~~4430
▁melod~~2867
▁clip~~23
▁Khan~~10360
▁Latino~~12492
▁Egyptian~~10393
▁anything~~1518
cene~~9940
▁eigen~~12484
▁irrigat~~4774
▁weapon~~9178
▁Recycling~~12202
▁sir~~9842
▁swarm~~8050
▁roof~~5984
▁cube~~2961
▁mindful~~8978
▁fight~~581
▁room~~429
ember~~7266
▁root~~3972
▁Cyborg~~12427
▁dark~~39
▁Aero~~11170
▁disk~~10761
▁mechanisms~~5177
▁Franc~~11632
▁denn~~12420
USC~~7850
▁incubator~~11139
▁Bus~~7080
▁stunt~~9253
▁manage~~551
generat~~1656
deed~~2001
▁pound~~8698
film~~5641
fill~~1026
rotection~~9158
▁Thu~~2542
▁Cassini~~6033
▁Bermuda~~4048
▁MaKey~~12456
field~~3621
▁The~~198
▁Ein~~11243
▁Thi~~2765
▁insight~~5580
▁regain~~10767
▁cluster~~8256
▁phones~~5680
schwitz~~10544
important~~3903
▁dramatic~~495
13~~5652
▁strain~~3503
▁elicit~~9165
▁assumption~~3969
▁pinnacle~~10268
▁poem~~4539
▁expanding~~10443
u~~2326
▁poet~~4728
▁thanks~~2982
▁rich~~487
▁evening~~4917
▁Spirit~~10739
resolution~~5638
▁possess~~10558
▁junior~~11506
dollar~~2661
gu~~6646
Wayne~~10956
▁bargain~~10599
▁Jordan~~3377
▁circumstance~~4247
▁damaging~~9008
▁signal~~6426
▁pension~~10529
▁amazing~~3295
▁Dutch~~2415
▁compassion~~3284
▁player~~2730
▁polic~~11030
▁ecosystem~~709
▁Extrem~~11128
▁conflict~~3212
▁bias~~5786
▁Wal~~9145
▁polio~~4145
▁bar~~1509
▁bat~~613
▁your~~562
▁bay~~4057
▁orange~~6709
assava~~12453
▁victim~~4568
▁bad~~872
▁inflation~~10499
▁bag~~3463
▁Council~~10328
ius~~9783
▁Shaw~~2451
▁characterize~~10231
▁Festival~~11207
▁ban~~5030
▁cosm~~9688
splitter~~11306
▁psychiatr~~10638
▁chef~~1003
▁evocati~~8424
▁diagonal~~9028
▁Bangalore~~4567
▁ches~~2816
▁Future~~10217
▁chew~~4471
▁Drake~~11284
▁cost~~2617
▁Anschluss~~12808
▁Francesca~~11890
▁building~~2354
▁immense~~7558
▁Master~~6965
▁spectrum~~1562
▁spit~~7831
zero~~6787
▁controll~~1009
shmi~~4627
▁guarantee~~7226
aba~~927
▁biotechnolog~~6681
▁evaporate~~8958
▁values~~955
▁Spring~~8915
▁Isa~~7414
▁crash~~5291
opter~~9084
▁Facebook~~2820
▁ambiguit~~8310
▁scholarship~~6181
▁arrow~~6427
▁enthusiastic~~9804
K~~2036
▁fusion~~9968
▁puppet~~8650
▁grass~~7012
▁South~~4054
free~~4175
▁naked~~9289
▁skydiv~~9241
▁Slum~~2094
▁LOL~~11161
▁venture~~1679
▁senses~~8251
▁invoke~~1949
▁intent~~9556
aku~~6200
▁Cousteau~~11752
▁evolutionarily~~8906
▁Sprint~~12727
▁nurtur~~6558
▁putting~~3282
▁threshold~~5250
▁competitive~~1047
▁song~~804
▁pedestrian~~10676
▁empathiz~~5554
▁test~~1318
▁navigat~~10838
▁malaria~~4223
▁insult~~9694
▁Tim~~9198
▁retrofit~~9638
▁electricity~~7382
▁Ninety~~6885
▁disappear~~2663
▁Programm~~8159
▁still~~1064
▁ribbon~~661
▁preced~~9571
▁personalit~~2903
▁personaliz~~1634
▁rigid~~5012
▁failure~~4399
▁prolif~~3501
American~~6391
▁relations~~4645
▁Trend~~12682
▁ultimate~~1308
▁dysfunction~~9965
gged~~8218
town~~7654
▁Riverside~~5961
▁Ghana~~5510
▁Princeton~~5810
hour~~5010
der~~2474
des~~2519
ility~~5131
▁Act~~7085
▁Ach~~9948
▁Maxim~~12875
del~~8600
dem~~7545
den~~156
▁treasure~~4111
▁the~~9
▁Record~~9871
illennium~~4886
▁Zeit~~10715
▁enzyme~~6335
▁Mother~~9407
▁unifie~~9981
▁Compan~~6627
▁trap~~6478
ps~~5982
▁Well~~970
▁Leakey~~8375
▁vigorous~~10055
▁Montessori~~11797
▁trac~~3045
▁trad~~4869
!~~366
▁reclaim~~9951
▁juice~~5405
ombin~~6725
▁li~~6700
Admiral~~9422
vdutt~~10991
▁Magazin~~12060
▁burn~~1914
▁flipp~~5314
▁wife~~3247
▁deliver~~1440
▁crystalliz~~11366
▁Jesus~~6916
Doh~~10649
▁materials~~2465
ophonie~~12776
▁database~~8049
▁Garden~~3676
▁relevanc~~8635
▁aging~~5126
▁soybean~~3535
▁365~~8476
▁360~~8970
blood~~726
▁Osmakac~~12852
Atti~~11805
▁European~~4035
▁Vent~~5604
▁stigma~~6538
▁create~~624
▁Kante~~12708
▁Steel~~3513
▁Vene~~9778
▁Virgin~~12016
eath~~2770
▁telephone~~9388
▁Smith~~2104
ckel~~10790
▁liar~~10123
cken~~9089
▁Manufactur~~10362
▁Nature~~6076
▁Grace~~10985
▁philosopher~~9811
▁equator~~10387
▁hatred~~11179
▁Word~~6669
▁lungs~~6285
▁Allah~~11707
▁Nichol~~6517
▁suck~~5404
▁pH~~11595
▁such~~1329
▁struggl~~1642
cker~~5059
25~~5061
20~~1740
▁Feld~~12136
arian~~7060
▁Abraham~~9041
▁whims~~2362
late~~9046
▁Keep~~4690
▁judgment~~7518
pend~~4571
▁Third~~7534
▁generation~~1874
2-~~12157
▁migration~~7727
▁Alfred~~7812
▁phenomenal~~6672
▁Moral~~12646
▁bold~~1715
▁lucki~~5342
witsch~~12406
▁reality~~2700
▁pavilion~~7285
▁copy~~1591
▁bolt~~983
▁Over~~8945
▁lucky~~4176
▁relative~~840
▁reconstruction~~7289
▁Beatles~~9542
▁teaching~~1501
▁Girl~~7677
▁Archi~~11335
▁captur~~10600
▁calculating~~1805
▁digest~~533
▁Gui~~8317
▁push~~1553
▁prescribe~~8750
▁Dame~~10744
▁carrie~~5288
▁Siberia~~8406
house~~4679
fish~~4073
▁glorious~~4695
▁membrane~~6363
▁eyewitness~~9190
▁tinie~~9719
orient~~7886
▁km~~10187
▁Twa~~5836
▁ko~~9024
▁kn~~4506
▁kidnapping~~9193
▁Sherman~~11790
▁Gua~~10547
▁rehearsal~~3861
▁ka~~9761
▁inclusive~~8826
▁Two~~6206
▁witness~~2333
▁magnificent~~5912
▁prediction~~7929
Kinsey~~11894
▁absorb~~2481
print~~8805
spiel~~11885
▁disabilit~~2915
▁evaluation~~8490
▁second~~1130
ë~~12040
EN~~10757
▁biosphere~~9999
▁Hirn~~12346
▁desktop~~8128
ED~~9503
▁Ground~~10714
EC~~4846
pleasant~~9569
▁Bruno~~7026
▁pest~~6984
▁physician~~6830
ET~~6790
ribbe~~398
ER~~9557
▁terrorism~~8207
Ei~~12813
▁economist~~2549
▁thylacine~~11224
▁moralit~~2698
▁warning~~4424
ã~~12300
▁tapestr~~8337
raten~~12562
▁terrorist~~7225
▁Hazle~~11423
á~~9744
▁Sudh~~12431
▁forager~~10168
▁Audio~~11716
adesh~~4279
wagen~~12372
▁Universal~~9288
▁synerg~~1280
▁canno~~718
▁smaller~~676
▁heterosexual~~9629
▁elevator~~7122
▁forgive~~9875
▁members~~2110
▁webcam~~10027
▁Thursday~~9279
▁AI~~11949
zi~~8457
▁socially~~1063
▁excuse~~1692
▁Rep~~11720
▁mix~~1378
▁Transformation~~12867
▁sleep~~3240
▁mit~~6572
▁mis~~3883
minent~~5398
▁shareholder~~8486
▁durch~~12663
▁Red~~2398
▁min~~8278
▁residu~~10479
▁Reg~~11968
▁interest~~1390
▁Rem~~7754
▁mid~~354
▁mic~~3147
▁serotonin~~10867
odium~~10660
▁dimensions~~3792
park~~11803
yntax~~12075
▁though~~91
XX~~12594
part~~1988
▁multinational~~3566
▁Trans~~9546
▁stockpile~~10678
atmen~~12063
▁cleaner~~10533
b~~944
▁Online~~9497
▁institutional~~910
▁straightforward~~9754
▁justify~~7974
▁mood~~6497
▁pr~~8320
▁Az~~11322
▁moon~~3953
ô~~12567
▁states~~4004
▁199~~4214
▁198~~592
▁guck~~11663
▁keyboard~~6525
▁Dodo~~12753
urban~~11701
▁secret~~5459
▁associate~~2093
▁190~~5201
▁197~~4789
▁196~~5377
▁195~~2051
▁194~~2221
▁actor~~2681
▁accident~~3099
▁Masse~~12012
▁19.~~11642
▁millimeter~~3474
▁instead~~906
▁Trivial~~12416
▁eleven~~8219
built~~3829
▁divide~~1493
ation~~770
▁Final~~3824
▁boundary~~7391
▁exploration~~3957
▁releas~~3896
▁constrain~~3644
▁examination~~5898
▁leader~~4525
▁momentum~~4300
▁farmer~~4777
▁bilingual~~8334
▁Burger~~9412
▁mobil~~3786
▁thrill~~4437
▁prime~~2807
▁honor~~2123
▁State~~1190
▁holistic~~4988
▁prima~~6557
▁resonance~~6381
▁Essen~~11587
▁nickname~~11196
▁sauce~~10877
most~~8932
▁Fund~~7528
ennial~~10749
▁blue~~127
▁Carter~~5987
▁melanchol~~11652
▁afternoon~~5086
kb~~12374
ka~~6051
▁Ah~~2754
ke~~2146
peration~~7433
ki~~5727
ko~~945
▁placebo~~9725
kl~~8149
▁cliff~~412
▁Bett~~7822
▁strongly~~4701
▁solutions~~1265
▁Am~~3717
kt~~12160
▁unique~~3831
▁side~~269
▁enorm~~8343
▁chose~~2074
▁Ober~~9699
▁fMRI~~1864
▁fungi~~9227
coli~~8674
▁anthropologist~~8138
▁website~~5023
▁Dari~~7777
▁bench~~4980
öhl~~12551
▁University~~2689
rctic~~7259
▁Plan~~9043
▁London~~2242
▁flow~~1165
▁Fu~~8737
▁questions~~1603
▁Play~~3138
▁Fo~~4658
▁Fl~~2984
▁American~~3740
8~~2222
▁Fa~~7782
▁Bhutan~~4758
▁revolutionar~~5062
▁biologist~~594
▁flock~~5007
▁CP~~11213
▁kind~~237
▁king~~2010
▁Douglas~~6059
▁küssen~~10707
▁fluid~~544
▁compute~~9207
▁anticipate~~1408
▁Sally~~11827
▁therapeutic~~10984
▁Simulator~~12343
▁ALS~~10254
▁poke~~7834
▁stuck~~3169
▁admir~~5904
▁2.0~~6972
▁traditions~~7529
▁murmur~~8059
▁career~~942
ologe~~12559
▁nephew~~6532
▁blend~~5927
▁Piano~~12770
▁Pastor~~12780
controlle~~9222
▁nutritio~~9691
aswam~~11123
▁consensu~~4511
▁Foundation~~3314
▁Ahmadine~~11268
▁theory~~2616
▁reflectiv~~2521
discriminat~~7463
degree~~6229
fang~~10275
▁Gulf~~7640
▁Health~~6534
▁anthropolog~~8384
vascular~~10875
▁machines~~6150
▁Break~~9809
▁Fermi~~12137
▁relentless~~8899
▁Trust~~5120
▁urgent~~3724
▁narrat~~3499
▁Walmart~~9601
▁reframe~~10723
▁mobile~~1016
▁stigmatiz~~9628
▁fibro~~6826
ika~~7344
▁subway~~9342
▁raped~~4380
ozi~~10684
▁supplement~~10425
▁compete~~4621
▁Descartes~~7645
▁opportunity~~2312
▁woke~~3242
▁comp~~1661
▁Tun~~7627
▁come~~295
▁coma~~8685
solv~~5841
▁dump~~687
▁Index~~9147
▁craving~~5449
▁requir~~7098
bai~~10668
rad~~4467
▁button~~8579
▁chatt~~10041
▁dumb~~1030
▁Tijuana~~12907
▁Gapminder~~10224
▁dumm~~10957
▁rodent~~8264
▁shame~~5845
▁luxur~~7720
▁paradigm~~1471
▁Democrat~~7034
▁Deng~~10861
rasio~~11246
▁Schwarzen~~3458
▁progeri~~12027
▁submit~~5788
▁Bilder~~12758
dropping~~9242
▁Worldchanging~~11884
▁committ~~5442
▁pocket~~2614
▁outfit~~10805
▁assert~~11253
▁er~~3556
▁Giant~~7449
▁Pakistani~~7192
▁polymer~~6770
▁severe~~3940
gas~~8438
gar~~7152
▁dissipate~~2275
vana~~9543
gan~~1969
▁guilt~~1145
▁thirty~~2781
solu~~9554
▁Explorer~~5594
▁present~~3376
▁voices~~4235
▁spontaneous~~3874
▁bring~~438
▁tumor~~3849
Dink~~12615
▁ignorant~~6399
▁condition~~2208
fug~~10405
▁tail~~4864
▁heroin~~4363
▁heroic~~2117
▁Natasha~~10822
ful~~1025
▁comparabl~~7011
▁Sag~~9532
▁Baum~~11873
▁outweigh~~5154
century~~2076
▁proton~~9984
wollen~~8653
Gregor~~7738
▁Minnesota~~9889
firma~~12419
▁Tower~~8798
▁Idee~~3810
▁vanish~~9311
▁Licklider~~9025
▁imagine~~1131
▁reconnect~~3706
▁architectural~~6103
ymnosoph~~12217
▁Seoul~~9483
▁Greg~~11741
▁Gree~~8223
▁Grey~~5125
▁Anthon~~4369
▁dangerous~~1836
▁only~~214
▁Seattle~~8397
▁practitioner~~10634
▁assure~~4876
▁touch~~557
itch~~5625
▁debat~~9565
▁Vibrio~~10978
▁motivate~~2989
moment~~9567
▁replace~~5295
irstream~~3737
▁Flow~~12342
▁agree~~1595
▁Islamist~~11762
laden~~12546
▁communication~~2387
▁skeptic~~6860
y~~242
▁freedom~~1282
▁wide~~1758
▁native~~9426
▁illegal~~8870
shape~~647
▁without~~1132
▁Johannes~~5701
▁forehead~~7365
▁ankle~~10462
▁controversial~~8593
▁girlfriend~~8509
cut~~4699
cus~~6947
▁appliance~~10493
▁center~~1534
▁Reserve~~10685
source~~8827
▁morpholog~~8372
▁Duke~~5872
ag~~7326
▁hive~~10004
▁flight~~1720
bio~~12082
bil~~8265
apest~~10167
▁Nar~~9675
▁scrub~~11557
▁physiological~~6686
▁agile~~8911
▁angry~~4357
▁genius~~1622
▁anxious~~7969
▁photo~~6144
bit~~5070
▁Emp~~10410
▁photograph~~3859
▁realization~~5565
▁and~~16
▁parasite~~10799
▁Uru~~6527
▁Watson~~10058
▁any~~85
wir~~1038
▁globalization~~7692
▁laboratory~~442
back~~2704
▁grill~~11482
▁Sach~~7093
▁Couch~~12277
▁Event~~12161
▁Sacr~~9878
▁PET~~3395
▁insect~~6740
▁arrogan~~11147
scale~~1808
ellowstone~~9327
▁leopard~~10391
▁Lern~~12519
per~~3442
pel~~7250
energie~~10215
ped~~5925
▁Mahmo~~12306
Box~~9283
▁arrive~~3288
▁realize~~1631
▁cheap~~5100
Bot~~2957
▁bond~~2805
O~~4415
▁smack~~9536
▁Dick~~6973
uft~~12119
▁PISA~~1317
uff~~620
▁Animal~~6730
▁clever~~2554
▁compress~~6864
nden~~3936
▁execute~~10056
mbra~~10209
ounce~~3323
▁era~~5390
▁compar~~6546
▁benchmark~~1374
▁Minister~~7019
▁Larami~~12178
haps~~2925
▁carrot~~8646
▁inertia~~11380
▁creature~~227
▁belong~~379
phase~~12384
▁industrialize~~4861
▁untouch~~10891
▁eliminat~~5134
Sauce~~12766
▁Carolina~~2418
▁Cornell~~8976
▁submersible~~5601
▁dress~~7430
▁in~~8
▁im~~1895
▁excellen~~2787
▁if~~265
▁Sharp~~11895
▁lesbian~~7541
▁is~~53
▁Turbo~~11393
▁Leone~~8213
▁correlation~~1070
▁camel~~6698
▁it~~86
▁comprehensi~~9926
▁Oslo~~11381
▁instantaneous~~8188
▁changing~~1686
▁appreciat~~7252
▁platform~~4887
serie~~11745
▁Did~~7864
▁travel~~2224
▁Parliament~~5143
▁babysitt~~10527
▁medal~~10986
▁marketplace~~8043
▁telecom~~9277
▁Meadow~~9314
planet~~6022
▁lyric~~3069
▁Mahab~~12024
▁Photosynth~~11948
▁populations~~5829
▁Lust~~12804
▁Jorge~~11692
sort~~9080
▁Design~~2538
▁undermine~~7486
▁Solo~~12736
▁Diana~~8266
▁Bert~~9991
▁Diane~~11172
engineering~~6679
Land~~12555
▁vision~~2073
▁division~~6099
▁investigate~~4946
▁coalition~~9957
%~~10474
▁download~~2932
▁discomfort~~7568
▁mor~~7989
▁antidote~~11102
▁mov~~134
▁Saudi~~11031
▁mom~~6472
ellen~~2459
▁Torosaurus~~11771
▁educat~~9672
▁lettuce~~8671
▁galaxie~~6017
Man~~5669
▁Weblog~~12775
▁kilowatt~~10819
▁600~~466
▁firefl~~10396
▁Smithsonian~~10397
▁Philadelphia~~8833
▁capaciti~~10033
▁press~~386
fabricat~~10057
▁prototyping~~10647
▁prefer~~6877
▁Kepler~~10505
▁Alto~~3848
▁Sensor~~11419
▁visitor~~8929
▁gay~~7494
heim~~9901
Sahara~~6039
▁important~~831
▁spontan~~12572
▁intense~~3253
ieder~~12743
▁Mosc~~8792
▁determined~~6822
▁Mose~~10115
▁Mosk~~12785
▁Milch~~9398
▁brake~~4900
▁season~~2101
▁Territori~~9584
▁achieve~~1469
▁uninform~~11534
▁reptile~~6387
▁obstacle~~4142
▁constraint~~5816
mitten~~10577
▁Rosali~~8231
▁our~~290
▁Adria~~10486
▁scientists~~377
▁Okinawa~~12422
intensive~~9473
▁academi~~11599
▁Crick~~11435
▁refresh~~4407
▁dismantle~~7306
▁Shannon~~5762
▁Atlantic~~395
▁converge~~7336
▁disguise~~9740
phobi~~2478
▁prior~~4015
▁experienc~~6278
▁Start~~10426
▁1,6~~8291
▁fascination~~8567
▁Full~~11818
▁unveil~~8832
▁receptor~~10980
▁MTT~~10516
▁devil~~8004
▁separat~~9898
▁SAN~~12207
▁shortcut~~5571
▁experience~~1936
▁sense~~832
▁Da~~6401
▁De~~2056
▁economy~~790
▁schaden~~12378
▁textile~~10305
▁Do~~4370
▁Dr~~2456
▁Du~~5735
▁DA~~12079
▁rejuvenat~~5196
giving~~1478
▁DI~~8995
IUC~~3962
▁DL~~12313
▁DM~~7882
▁DR~~5097
▁orientation~~7402
▁superconductor~~12611
▁Walter~~10159
▁superpower~~4859
impuls~~10439
▁organ~~650
▁scientist~~6298
body~~859
▁cat~~6263
▁cap~~167
▁kill~~925
▁car~~1799
▁awake~~5812
▁valley~~46
▁generat~~6365
▁video~~22
▁anonym~~10120
▁float~~2083
▁Italian~~5008
▁can~~332
▁Namibia~~8488
▁Alle~~3720
30~~3634
▁Hyderabad~~11106
▁emerg~~3412
▁parameter~~3022
▁breakfast~~5749
▁salar~~8946
▁Hispanic~~10427
▁synchron~~8329
▁archive~~6432
▁culprit~~8639
namen~~8135
▁entrepreneurs~~853
▁communit~~4139
▁nonsens~~5234
private~~11484
FA~~6998
▁diagnose~~6807
▁first~~302
FG~~12405
▁combat~~4451
▁denial~~4702
▁diagnosi~~4674
▁bed~~2131
cha~~1276
▁saliva~~6784
▁attraction~~8461
chi~~3077
▁hike~~9251
▁bei~~6530
cho~~2954
▁Passage~~9784
cht~~12430
chu~~7331
▁comment~~2059
▁house~~541
Fi~~6523
▁bandw~~10670
burst~~5949
▁spear~~4050
▁back~~441
▁narrow~~1775
▁delight~~2129
▁period~~1672
▁knife~~1908
▁Intel~~10907
▁smiling~~2796
▁Inter~~1729
▁collaborator~~3000
train~~3932
clusion~~9430
▁wealth~~1497
▁premise~~4241
▁feeding~~3519
▁bioluminescen~~5618
▁Famil~~8935
▁Ital~~4683
f~~461
tunnel~~9612
▁biochemical~~2806
▁aside~~8663
▁cook~~3530
▁cool~~1081
transcendence~~11413
▁Pacific~~404
▁paint~~2503
▁Photoshop~~6703
▁rudiment~~7735
▁Eduardo~~12327
oline~~10052
fett~~12782
▁Marionette~~11400
afi~~9100
▁posture~~11148
▁Gando~~11916
▁Bio~~3358
uver~~7422
,000~~1754
▁picture~~451
▁begin~~289
▁gentl~~10022
▁Ox~~8885
aft~~8850
▁scarce~~4784
▁Southwest~~10576
stock~~7000
▁sensib~~9702
sis~~5258
▁funny~~671
▁Panama~~11728
▁take~~30
▁long~~231
elle~~12033
▁crapp~~8588
frau~~11863
▁toolbox~~9518
▁Charlotte~~10652
▁Tank~~12595
▁Big~~5476
berg~~5942
▁Point~~5003
▁ominous~~8322
▁laundr~~8877
▁inspiration~~6904
▁beast~~5581
▁thing~~505
▁Handel~~12881
▁dissect~~6326
▁think~~101
▁Basi~~10938
▁Conservati~~4095
ature~~6121
▁Of~~2714
▁Base~~7992
meter~~5635
▁Adam~~2980
▁deteriorat~~4184
▁nuance~~3005
▁Gyr~~3414
▁Bast~~1704
▁catastrophe~~5222
lf~~6827
▁supply~~4768
ld~~912
le~~1952
la~~1108
lo~~7520
ll~~261
▁Transform~~7678
sia~~7763
▁appreciate~~8617
li~~1662
▁philosophical~~4981
▁suitcase~~10073
lt~~7661
▁surplus~~4634
▁murder~~7462
▁council~~7842
▁relational~~12232
ly~~57
dad~~8437
▁beam~~5504
junction~~3888
▁Kid~~1939
▁Time~~5483
▁Darwinian~~6682
nswers~~12303
▁positive~~887
▁beat~~2749
▁bear~~1066
day~~662
▁affair~~7592
▁Neurologi~~12149
▁librari~~6040
▁unconta~~10390
▁primitiv~~11229
▁propagat~~9447
rought~~1822
▁nurture~~8300
astronom~~9692
▁father~~2064
▁Karo~~11613
▁company~~3745
▁library~~6603
▁Berk~~11431
▁Braun~~10663
▁impulse~~7389
▁federal~~1537
fare~~8354
activate~~9060
▁reign~~6779
▁tolerant~~7804
▁transferr~~8209
▁soprano~~10704
▁programm~~5790
▁Rover~~8414
▁Lance~~10607
▁Gibbon~~12281
▁CPU~~12066
▁evaporat~~12034
▁cultural~~2021
▁persistent~~3477
rew~~8944
▁highlight~~3790
▁traged~~4131
Sense~~8157
▁MOOC~~12528
▁Ganz~~12569
▁optimize~~3757
atter~~9315
▁Dumm~~12563
▁Carol~~3512
▁cartoonist~~8740
▁lonel~~8071
▁Net~~10097
▁Neu~~12179
▁athletic~~7669
▁New~~3120
▁demonstration~~2492
▁Kir~~7304
▁standard~~959
qua~~3346
▁brush~~9573
que~~3153
qui~~4930
quo~~10983
▁carpenter~~2589
▁barricad~~11141
▁all~~93
NN~~4908
▁Fall~~7153
▁sage~~10835
▁trace~~3403
▁Terr~~10471
▁societies~~1585
▁locomot~~10916
▁next~~1033
▁Hitler~~11006
▁petrochemical~~10477
▁track~~2438
▁split~~6106
▁shelter~~4258
▁Lotto~~12649
▁Watt~~10494
▁tricks~~7911
▁Brita~~5138
▁snail~~12201
▁Android~~8713
▁Club~~5656
▁exclude~~7506
▁genome~~5268
▁asteroid~~9807
▁winner~~5549
▁Here~~7359
▁wash~~3470
▁Archimedes~~11775
▁hungry~~3549
▁exoti~~4508
▁acre~~9167
▁pollination~~10682
▁Sh~~4569
▁Duolingo~~11991
▁reckon~~11868
ogi~~3718
udi~~10329
oga~~4918
▁false~~4240
▁prominent~~9884
▁whistleblower~~2359
loved~~5413
▁pornograph~~8872
▁lawyer~~1601
▁Probe~~12516
NT~~10945
▁automobile~~3166
izon~~10333
▁apart~~749
▁tar~~8285
▁octopus~~10020
▁encourage~~1256
▁ridicule~~10344
▁CEO~~6508
▁hyperactiv~~8240
▁epi~~6054
▁Turk~~9472
▁plann~~5151
▁Turn~~10047
▁Sagan~~10152
▁looked~~1338
▁behave~~812
▁dreams~~7604
▁scrambl~~9596
▁mono~~7963
ben~~2618
▁roads~~3591
▁drawing~~3320
▁amuse~~8724
▁or~~119
▁net~~382
▁neu~~8226
▁new~~205
▁fringe~~12028
▁Peru~~6995
ists~~1087
▁Oliver~~2885
▁anesthetic~~3927
▁of~~34
▁oh~~3825
▁shine~~452
▁across~~396
mit~~4080
▁neo~~1083
▁paintbrush~~6057
▁Route~~9011
▁mortgage~~2703
▁admire~~5876
▁exploit~~3967
▁lightweight~~3763
▁Stephan~~11529
ehen~~6424
▁toxin~~10534
▁Ethiopia~~4752
▁compris~~9148
▁sudden~~2606
▁rede~~10665
▁2,000~~4536
▁asymmetric~~6109
▁cloth~~4555
▁expo~~7283
▁port~~3615
▁surger~~7868
▁overhead~~8082
▁Astronom~~10030
▁strategic~~4884
▁stress~~3289
▁freeway~~3766
▁Hondura~~11549
▁erect~~5056
text~~9040
▁ELA~~12746
▁rhythm~~747
▁Januar~~5700
▁happi~~1177
haft~~10153
▁pinpoint~~9727
▁genuine~~5133
▁front~~260
▁meditation~~10444
▁unleash~~3250
▁Wolfram~~10772
▁hull~~6568
▁blank~~3812
▁circle~~4813
▁Vision~~9577
▁maintain~~3494
▁Rio~~2099
▁Ric~~8681
finger~~9086
aker~~2022
▁reform~~4799
▁tru~~1076
▁Proz~~11922
beat~~11290
▁bush~~9366
▁try~~433
▁SR~~11057
▁premi~~2972
▁Guinea~~8365
▁capsule~~8076
▁tri~~3781
▁risks~~4179
▁collaborat~~11541
▁contrast~~2660
▁homeless~~6536
▁congratulat~~2810
▁discussion~~2026
▁cabinet~~7709
▁simpl~~1393
▁delightful~~8333
▁recline~~11538
▁morbid~~10646
▁incarcerat~~6069
eague~~4678
▁along~~476
▁alone~~1310
▁brain~~1072
▁stabilize~~6249
▁duty~~4016
▁Gagarin~~10398
▁DVD~~2032
▁partners~~437
▁weird~~1193
▁expectanc~~5217
▁Mario~~12720
▁Maria~~3460
literate~~8122
▁diffuse~~10210
refore~~4778
▁repetiti~~3185
apos~~37
▁duration~~2566
▁Project~~5673
▁Shadow~~11774
ington~~2308
▁string~~2942
▁type~~499
▁original~~2585
▁certifi~~3489
▁engineering~~3008
▁hilarious~~8781
▁marvelous~~8729
▁Archiv~~9309
S~~1358
▁screw~~7069
▁demoralize~~8559
▁Boeing~~10109
▁Senegal~~10483
trogen~~6302
▁court~~8323
▁nervous~~2923
▁Ryan~~5759
buster~~2007
▁Kra~~3833
▁saving~~4252
▁depriv~~1061
transplantation~~6774
Design~~12359
▁blink~~4298
▁singular~~10130
▁blind~~4822
▁impair~~6368
▁Jo~~3132
▁Effect~~9634
▁Jh~~8513
▁clue~~3631
invasive~~1886
▁Je~~7791
▁disparit~~1459
ohn~~12752
▁Ja~~426
▁option~~2623
▁biblical~~9713
▁Ju~~4834
▁demobiliz~~12385
▁augment~~9237
iger~~6702
▁Lesterland~~9952
▁8,000~~6235
▁advancement~~7657
▁JA~~12135
▁sterile~~6673
▁Mode~~12695
▁retina~~9229
▁vegetable~~3671
ah~~2253
igen~~9136
▁conversation~~4469
▁stunning~~5991
▁Nikola~~8032
Center~~12926
▁default~~5074
▁humanity~~4771
▁Gersh~~10085
▁metal~~3350
▁dominant~~7079
▁earth~~3532
▁range~~147
▁await~~6153
▁chimp~~7368
▁argument~~5153
▁unconscious~~10096
bule~~6386
▁poop~~9855
▁fertilizer~~4776
▁Monterey~~10028
▁friend~~3275
▁orchestra~~2855
plain~~9396
ila~~9837
value~~895
ggle~~8070
defin~~4323
▁informal~~11142
▁massacre~~10997
▁arrest~~4837
IT~~9124
▁pool~~1354
▁multiverse~~10196
uit~~5073
▁single~~974
▁draft~~6102
▁PIPA~~11757
▁avatar~~7124
▁rear~~4948
▁Palestine~~3265
▁Rica~~4082
▁real~~301
▁Freud~~8243
▁Poet~~10157
▁defin~~4336
▁Rich~~9316
ically~~2339
▁read~~2640
▁frequenc~~3167
egel~~12679
▁Shuffle~~8744
▁psychotherap~~3934
▁reveal~~4121
▁rapid~~4212
▁Image~~10541
▁companies~~4747
▁Cor~~6072
▁chimpanzee~~7348
▁railway~~3679
▁MIT~~2651
▁viewer~~8751
▁Beverl~~11079
▁cereal~~7919
▁intermediate~~5135
▁Senator~~11449
aking~~6332
▁leaders~~1246
▁spoil~~7219
▁snor~~9720
▁drive~~431
▁swallow~~5440
▁snow~~6049
▁consequence~~5698
ious~~966
▁wood~~5839
▁Coh~~9254
▁coin~~5751
▁Sal~~8169
position~~3286
con~~3714
▁Plexiglas~~10584
▁malleab~~6598
▁Kris~~3947
▁vendor~~11684
▁preparation~~6210
▁Betti~~9730
▁Marcel~~193
▁route~~3521
▁Cost~~4081
▁made~~278
Gamble~~11849
▁remember~~946
▁array~~7396
▁voil~~11174
▁reunite~~10616
▁multi~~2723
absorption~~10645
▁glue~~6500
ade~~4516
▁protect~~2522
▁Marth~~8010
ought~~2588
adi~~4458
bank~~9365
▁even~~90
▁calculation~~7713
▁speech~~1034
▁attend~~5686
▁supernova~~9973
▁Taxi~~10076
hepherd~~10104
▁simulat~~5917
▁visualize~~6375
▁meant~~2067
▁means~~2843
▁fade~~8238
▁Kinder~~12859
▁Rosling~~8841
▁Engel~~12638
▁dissonance~~3104
▁heroes~~4208
like~~4724
▁LED~~2965
journalism~~10606
▁maggot~~10317
▁Holocaust~~10545
▁carve~~7481
▁pearl~~6937
journalist~~12229
▁Dean~~9017
▁Mitchell~~5734
▁Prophe~~12349
▁plummet~~9733
▁Toast~~12448
aeda~~11258
▁drove~~3653
▁vom~~5340
▁billboard~~8799
▁vow~~4541
▁vot~~9932
▁horizontal~~6492
▁man~~2930
▁Blend~~12100
▁utter~~5345
▁re~~1084
▁ra~~596
▁contingen~~11345
▁characteristic~~5136
▁aggregate~~4032
▁Gol~~10866
▁tradeoff~~6138
▁gift~~4646
▁authoritarian~~11116
ogen~~1926
▁persistence~~8742
▁Diese~~12692
▁Malawi~~9475
hose~~5490
▁Ushahidi~~11648
▁separation~~7456
Robot~~10915
▁Amy~~5093
▁democratiz~~10519
▁diamond~~2236
▁mail~~5410
▁musician~~3143
▁analytical~~8855
▁begu~~6084
▁Ami~~8887
▁review~~1745
▁oscill~~1763
▁Signatur~~7719
▁sampl~~4027
mmer~~5732
▁Balkan~~7585
▁motor~~5615
▁expose~~7362
▁dictator~~7651
anthrop~~7333
▁receiver~~11144
▁anticipat~~6231
▁space~~310
▁Cameroon~~5511
▁eagle~~11234
▁simplify~~6110
Grad~~11493
▁intersection~~9332
▁Zimmer~~12899
▁deconstruct~~4322
▁Selasi~~12845
▁symbol~~5900
guard~~6380
▁Thanksgiving~~8927
esteem~~8952
▁march~~4470
▁superior~~9376
ridge~~50
▁triangula~~7397
▁Science~~5780
spread~~7355
▁incentivize~~5806
▁handbag~~7694
▁myth~~3954
▁Hamburger~~10488
▁yell~~3110
▁resilienc~~8360
▁fields~~2884
bus~~7179
brand~~7755
sequel~~8738
▁isotope~~8395
▁other~~273
▁pause~~5782
▁recycl~~7256
▁helpful~~2313
▁Ukraine~~11012
bul~~6969
▁viruses~~4165
▁spirit~~5714
▁pencil~~2670
Athabasca~~9462
▁names~~2049
wise~~2158
▁Long~~3365
j~~3948
▁introvert~~8825
▁Kendal~~4325
▁odd~~6926
▁Urban~~9184
▁named~~2741
▁August~~7198
▁recommendation~~11628
▁fra~~5148
▁software~~2996
▁Gramm~~9774
▁1.6~~8466
▁1.7~~5310
▁1.4~~9666
▁1.5~~5753
▁1.2~~11379
▁1.3~~5106
▁treat~~995
▁transparency~~1204
▁snake~~4478
garten~~12694
▁Next~~8710
▁sanctuar~~11083
▁Mohamed~~10740
▁absent~~6440
▁Saturn~~6456
▁Donner~~12920
▁cybercrim~~10946
40~~3639
▁Syria~~3266
▁persuasive~~10880
▁Green~~7271
▁Financ~~9904
▁succumb~~10746
▁uniform~~5203
▁Grameen~~8624
▁shared~~1940
▁lend~~10802
▁Genome~~8413
▁transit~~9656
▁junk~~7047
ubb~~2378
▁chemo~~528
▁teenager~~2230
▁interface~~1892
▁intact~~3072
▁catastrophic~~10186
▁motivation~~1158
▁Somalia~~4202
▁highway~~5047
▁bookstore~~2891
▁perceiv~~10220
▁Albert~~5846
▁species~~590
▁bipolar~~10260
▁Sho~~2252
▁compet~~2184
iddle~~9766
▁Shi~~10990
▁missionar~~11721
▁She~~6934
▁trou~~7584
limited~~5996
▁Williams~~9197
▁produce~~1770
▁Belgi~~9278
▁triple~~8597
▁Feynman~~10066
▁topograph~~9299
▁product~~625
▁dyslexi~~8435
▁bruise~~7475
▁vocal~~8248
▁approximate~~321
▁Bonobo~~12755
▁my~~221
▁mu~~5374
▁trustworth~~8162
▁mo~~3637
▁dedicat~~3274
▁mm~~5670
▁mi~~7998
▁Trac~~5439
▁me~~604
▁deceive~~7931
▁ma~~4827
@~~8168
▁empath~~5545
▁hemisphere~~6753
risk~~8773
▁implant~~9203
▁mainframe~~10908
▁Jerusalem~~7760
▁ador~~7722
▁president~~3472
wich~~9304
▁cultivate~~4973
▁Guten~~11839
▁wallet~~10331
▁synthesize~~3912
wick~~10515
▁pigment~~9231
▁immigrant~~1541
school~~10583
▁Alaska~~11072
▁Jon~~4157
▁fatal~~4675
▁continent~~748
▁Job~~10658
▁Kohle~~11398
▁Take~~8816
venue~~3058
▁Joe~~8856
▁popp~~3269
Ge~~12108
▁Joy~~9986
▁patholog~~4671
▁growth~~1106
▁IDEO~~10847
▁Hydra~~5301
▁Batman~~7448
▁activat~~1903
▁major~~1570
▁itself~~218
▁least~~1505
▁flourish~~5451
▁proxim~~10846
▁Roh~~7239
▁evaluate~~6322
▁Ron~~3225
direct~~1206
▁neuroscience~~7412
▁Ror~~7954
▁linear~~3899
▁origins~~8366
▁lease~~8031
▁Rot~~4209
▁credit~~5563
▁leash~~8273
▁NFL~~11448
▁Roy~~10568
ltimo~~11776
▁hung~~1817
▁memor~~957
▁analyst~~11110
ograf~~6951
▁Juni~~11937
▁tire~~7978
▁Rolle~~12035
ain~~6507
▁hunt~~1065
conduct~~6852
▁Kuba~~12524
▁theme~~7284
▁obsession~~7227
▁Hindu~~8351
▁matern~~8388
▁shy~~2998
ZE~~9552
▁football~~1137
▁parrot~~6625
▁Magazine~~3330
pati~~6970
path~~9128
▁she~~947
▁Forum~~8606
▁sophistication~~5286
studie~~12003
▁Fried~~9413
▁translucen~~7644
▁USA~~3560
▁less~~1389
▁mislead~~11627
▁religion~~1080
▁elements~~3905
▁topic~~1744
▁Nobel~~4763
▁inferior~~8255
▁cortiso~~11508
▁Sto~~10234
▁pneumo~~10797
▁Holland~~2381
▁Friend~~10242
▁standardize~~5843
▁immun~~6769
▁Moog~~12504
visible~~3780
▁earthquake~~150
▁Moon~~6031
▁Fahren~~5312
▁upright~~7337
▁expand~~5318
▁warmer~~9785
▁clarif~~9729
▁Conne~~11525
▁Marke~~9609
▁price~~1461
▁interpretation~~2857
▁lesion~~11070
▁donation~~7483
▁extreme~~571
▁minds~~1912
▁honey~~9728
los~~7934
▁Lovelace~~9021
▁iceberg~~2878
▁cognitive~~5299
▁job~~1042
▁raise~~1539
▁method~~2581
▁barrel~~8961
▁lust~~7512
▁joy~~2731
ophag~~7232
▁workplace~~799
▁53~~7752
▁fuel~~3558
▁Nathaniel~~12403
me~~4448
▁succeed~~1617
Baptiste~~12235
ma~~481
onic~~3871
▁uncomfortabl~~3929
▁profound~~2046
▁replicator~~11831
essel~~12505
▁plug~~5493
▁Chicken~~9061
stadt~~11801
▁insist~~4705
mp~~4589
▁plus~~3291
▁enormous~~1800
▁escalat~~3541
▁Hu~~2437
▁bioma~~277
▁Simpson~~7108
estate~~7181
▁definitiv~~9737
▁oppos~~7593
▁tremendous~~4387
▁He~~976
▁past~~1592
▁international~~1333
▁pass~~353
▁payment~~4877
▁Shah~~7797
▁Ho~~2364
▁Hi~~1867
▁capitalism~~7708
▁suicide~~7468
bund~~12529
bung~~12578
▁birthday~~2066
▁fingertip~~3872
▁GPS~~9474
▁terrestrial~~6164
▁insulin~~9117
enz~~4581
charging~~6412
▁Ann~~8643
▁ridiculous~~1029
▁chicken~~6330
▁Arduino~~11244
▁persever~~9397
▁campaign~~1813
▁honest~~2391
▁accommodate~~4715
▁5.~~6930
amento~~9879
▁remnant~~9974
▁200~~303
▁investigative~~8739
▁electrical~~2594
▁Spanish~~6451
▁architecture~~3053
▁observer~~8308
▁Pragmati~~12535
vity~~314
▁irregular~~9977
▁horribl~~8688
▁condom~~4562
over~~2829
fall~~6212
▁combusti~~1798
▁astonishe~~7655
▁cherish~~5084
▁Balk~~12414
thesis~~529
▁Minorit~~11308
▁skill~~1599
ien~~5111
▁molecule~~1722
replicating~~11451
▁working~~224
▁continual~~7387
▁Fresh~~12895
ima~~7531
▁crippl~~4169
ime~~7983
▁bin~~2334
▁bio~~155
imi~~1765
cle~~2533
▁certain~~2528
▁committee~~10420
▁big~~126
▁husk~~4601
▁Programme~~12560
▁shocking~~56
▁ever~~80
400~~10380
lihood~~4779
▁bis~~6344
▁bit~~443
▁anger~~7125
▁prestig~~965
Mobile~~12532
▁Antarctic~~4079
▁farmers~~4754
▁Jill~~11151
tourism~~7363
▁neuron~~7386
▁joyful~~7982
▁awe~~2089
▁resurrect~~9096
▁distinctive~~9326
▁compassionate~~5542
▁hence~~5833
▁occupy~~7373
▁sediment~~743
▁workers~~982
▁bubble~~1479
▁domain~~4631
mplified~~8657
▁Comp~~8539
▁mammogram~~6801
▁litt~~3410
▁temperat~~10798
▁ought~~5150
▁Wood~~435
▁Come~~6582
▁portable~~10900
arijuana~~8836
▁synonymous~~5060
▁Winter~~12347
▁graduate~~1380
driving~~11964
▁Ornis~~11674
▁Christ~~5115
▁voter~~3216
tadore~~12869
▁cardiac~~6845
▁treadmill~~5028
▁Victor~~12239
▁English~~2377
▁bowl~~2630
▁carti~~6948
▁tags~~9353
▁frustrat~~7360
hang~~7691
ied~~5551
▁grasp~~2016
▁Agenc~~6744
▁Ang~~5854
▁tagg~~4114
▁scare~~5645
▁sling~~11222
W~~3011
▁zip~~4383
▁behav~~880
▁Kind~~11993
▁King~~2300
▁scenario~~3813
▁retrac~~555
▁shade~~7948
nix~~12534
▁Kino~~12153
filter~~11209
▁fashion~~3759
▁Access~~9273
ste~~9075
rand~~9869
rang~~8988
industrial~~3602
▁Guy~~7173
▁Gut~~10273
▁puff~~9079
Å~~12872
▁accept~~1463
▁Dietrich~~12213
nis~~6946
▁achiev~~1565
▁eastern~~3629
▁Virginia~~7856
▁pl~~10169
ê~~2367
é~~4894
▁po~~3623
eladu~~10138
▁pi~~5031
í~~9742
▁during~~2003
tor~~2054
â~~11154
top~~330
à~~11585
ç~~9372
▁race~~1079
▁Silver~~9574
▁friss~~12741
ú~~12651
▁Trott~~12774
ø~~11834
ton~~4731
▁underlie~~11526
ü~~12188
ó~~9741
▁pu~~4618
ñ~~1762
▁Roth~~9989
ö~~2776
tod~~8118
▁Dennis~~10694
▁beer~~1279
▁bees~~7921
▁Organism~~12170
stelle~~12642
▁demonstrat~~4765
▁pressure~~517
▁beef~~6689
conserv~~4069
▁climber~~3822
▁been~~81
▁captain~~4074
▁expenditure~~10230
▁farming~~3670
▁TaskRabbit~~10626
▁choosing~~2136
▁district~~7298
▁BMW~~7116
ology~~5811
▁deployment~~9177
▁compare~~2671
▁Snow~~11358
rag~~2511
▁tragic~~4005
fashion~~8875
▁neurons~~5296
▁Jenni~~9409
ran~~1456
▁enem~~1268
ram~~8511
Sharing~~12109
rat~~1002
ible~~4718
rap~~9077
▁organiz~~8999
▁promotion~~1241
▁Small~~12262
ray~~2988
▁products~~3329
▁significant~~4018
RB~~10265
-~~271
▁destructive~~7509
▁1991~~5933
▁1990~~1356
▁epidemic~~4390
▁1995~~7297
▁1994~~7290
miculit~~12826
though~~702
▁Egypt~~3594
▁97~~8029
▁different~~233
▁bizarre~~54
▁1982~~8252
▁local~~3003
▁achievement~~2324
́~~12885
flow~~10602
▁Innovation~~10366
▁infectious~~7133
▁soft~~7679
R~~654
ecause~~7522
▁recession~~8977
▁off~~636
▁fold~~6111
▁folk~~7574
▁sake~~6438
ermafrost~~9598
▁noise~~5608
▁1,8~~8294
Guru~~12473
▁1,1~~3452
▁1,2~~6174
▁1,3~~9821
▁1,4~~6593
▁reciproc~~10967
▁health~~829
▁1,7~~7024
▁invitation~~6436
▁formation~~6128
▁aerodynamic~~11422
▁laureate~~7676
▁Soviet~~6157
▁knowledge~~908
och~~8392
ock~~4445
▁Nu~~8426
▁Colorado~~9660
▁Right~~7114
Vo~~11159
▁broke~~5466
▁etc~~3098
▁labyrinth~~9767
watch~~5001
▁Polic~~7890
▁half~~393
aught~~1350
▁Hodg~~5359
▁Polio~~4173
▁hall~~3089
▁habitat~~45
▁trip~~5402
▁perpetual~~7089
▁Kim~~7958
▁inform~~6794
▁Beck~~6241
▁Kit~~3726
▁Paradox~~12138
▁Hotel~~2137
▁diagram~~5243
RI~~10868
▁historic~~7776
▁Se~~6939
▁Sa~~3187
urren~~11611
▁Sc~~1196
▁discharge~~3988
▁Subti~~14
▁So~~3068
▁inject~~1879
▁Si~~2086
▁hyper~~2850
▁CIA~~9161
▁finance~~8030
▁Su~~7308
▁St~~5006
▁Sp~~6665
▁misconception~~5822
▁devoted~~2834
▁disrupt~~10238
mut~~2228
mus~~4920
▁SM~~11206
▁SL~~10306
▁SI~~9520
▁Stephen~~5524
▁occupie~~7607
gabe~~8197
▁attract~~284
▁scholar~~4643
▁SP~~5783
▁SS~~10337
▁battlefield~~8355
▁Wirkung~~12673
▁toward~~2165
▁situation~~2604
▁usual~~1336
Carlton~~8385
▁Crash~~10942
▁automat~~10245
wear~~7663
▁perpetrator~~9191
istine~~8321
▁embryonic~~11152
▁Normal~~12438
▁Norman~~8790
▁HTTP~~11087
tzen~~12182
▁actual~~333
▁Redwood~~12225
▁200,000~~4041
▁Management~~11074
▁clouds~~5943
▁mat~~1118
▁mar~~7609
▁map~~3603
▁Zealand~~4075
▁may~~706
▁preconce~~6105
▁mag~~480
▁EPA~~6324
▁mad~~4356
▁consumption~~1607
▁translation~~9755
▁setting~~494
▁mal~~4795
bureaucratic~~1646
▁Tinker~~8757
▁thermal~~3353
▁nerve~~3891
▁chunk~~4907
simplification~~5300
▁observ~~2895
▁completely~~733
▁rubber~~6526
▁plot~~5823
▁qualitativ~~10897
▁balloon~~6914
▁respond~~1536
board~~2204
▁biomaterial~~9517
lept~~6544
▁INCRA~~12905
▁together~~256
▁IKEA~~8842
craft~~9484
catch~~4103
▁magni~~6024
▁Bono~~7082
▁Horror~~11023
▁Detroit~~8785
▁Bond~~11710
n~~213
▁migrate~~7693
▁forest~~3186
▁Volt~~11796
▁gorgeous~~3950
▁Jung~~9027
▁paradoxical~~2922
▁triumph~~4692
▁compuls~~7517
▁Toyota~~8153
▁Ensemble~~11871
▁Toxo~~12900
▁Misch~~12298
bilitat~~9711
▁enough~~605
▁explosion~~1796
▁conclude~~7881
▁1850~~9780
▁retrospect~~6485
▁dropping~~8401
▁Hund~~11198
▁Partner~~4174
▁Stone~~5386
▁awkward~~2118
▁from~~72
▁revolv~~5383
▁revolt~~11854
▁outbreak~~4163
▁Anti~~11020
▁sculpt~~6114
▁Spiegel~~9272
▁Arthur~~9716
▁servant~~9897
▁bathroom~~4343
▁device~~5414
pick~~11386
schen~~6908
action~~6086
scher~~8726
▁misuse~~11566
▁fuck~~7166
▁meaning~~1309
▁Humor~~12725
cycle~~4025
▁simulate~~9155
▁watt~~8429
▁Temple~~8806
▁Analysis~~9276
fusion~~11612
ocean~~355
▁Rotterdam~~2430
▁organic~~1779
▁bitter~~1523
▁Hunt~~12073
iche~~12392
▁graphic~~3046
▁interior~~3751
▁Medica~~7636
▁weight~~1781
▁involve~~2759
▁1500~~10240
▁launch~~4045
▁Na~~6050
▁Ng~~5719
▁Ne~~1291
▁Ni~~1761
▁No~~2708
▁chemical~~447
▁Fred~~8599
▁lion~~6701
▁fiddl~~8720
▁ministr~~7021
▁Luft~~5747
▁reputation~~9013
▁vitamin~~4222
▁NO~~11434
▁Mauriti~~8569
▁meter~~1834
▁styl~~6486
D~~1774
unter~~11537
▁Myhrvold~~10485
▁Atm~~11738
▁Janin~~12329
cultural~~7744
▁satisfie~~10454
▁somebod~~2693
▁western~~6058
sanitary~~4547
ige~~11077
▁emotional~~1117
▁naive~~3297
▁rough~~2510
▁Supernova~~12856
50~~3542
▁Manya~~12888
specific~~10465
▁impose~~9369
▁Russia~~4168
▁Johnson~~5609
hund~~6781
▁cent~~2627
▁Bernoulli~~11494
▁Catholic~~7301
▁Server~~10943
▁Jamaica~~9439
▁McNugget~~8689
▁opportunities~~1447
▁surviv~~6195
HO~~1791
HC~~10132
▁neuroscientist~~1861
ick~~5799
▁Kahn~~11544
ich~~3261
▁bow~~2943
▁bot~~6741
▁box~~95
▁boy~~2199
▁unhealth~~11101
Hu~~2543
▁Sprit~~8489
€~~12913
▁particle~~8051
▁invisible~~5617
▁bon~~7935
▁boo~~9722
▁landscapes~~206
▁Braille~~9172
▁Bergen~~12773
tour~~8319
corn~~5893
▁Olympic~~6936
▁Olympia~~1089
▁population~~530
▁golden~~8563
▁Negro~~6518
▁Wikipedia~~7046
▁portray~~3753
plus~~1747
▁value~~828
▁medicine~~1167
▁White~~8180
produc~~5801
▁nucle~~6736
▁Vietnam~~4464
▁viral~~7065
▁irrit~~2390
▁cybercriminal~~11859
ahn~~11176
ahl~~2260
two~~9395
ahr~~11833
▁Francisco~~1756
▁Copernic~~11636
▁Blind~~10278
▁live~~307
▁depend~~1624
▁occupation~~3931
▁master~~5758
▁Norwegian~~8558
▁microwave~~6019
▁sticks~~4349
▁Taylor~~7155
▁purchase~~7699
▁Randi~~11468
lage~~2174
▁correct~~2414
▁analytic~~9969
head~~1342
evelopment~~7671
▁sensor~~448
ure~~3748
▁echo~~8518
▁chopp~~6465
counterintuitive~~9499
mals~~12814
▁Stewart~~2135
▁horrify~~7209
▁Katrina~~10550
▁settlement~~3577
▁publisher~~7228
▁reef~~11018
▁Kill~~9561
muster~~12087
▁quo~~5785
▁hierarch~~8615
▁zoo~~3441
▁cutting~~2537
▁reactor~~10470
▁habe~~10091
nna~~3264
▁Eiffel~~9252
▁ceremon~~7269
▁188~~9429
▁realm~~6016
▁reall~~316
trip~~2778
assembl~~5814
▁vi~~3777
▁tackle~~2002
no~~6639
▁psycho~~8247
na~~564
▁va~~4192
ne~~1778
ng~~248
til~~772
tin~~5090
▁International~~3744
▁Hoffman~~6154
▁185~~5952
▁elbow~~3873
tig~~11273
tic~~543
▁bor~~7212
▁Air~~4421
▁adopt~~4099
▁panel~~5878
tasking~~12357
▁magnet~~9521
eute~~11717
▁sensory~~3909
▁Prime~~7314
▁democracy~~2102
▁exit~~5661
▁intervention~~5190
▁Moore~~3308
▁bailout~~8962
▁overall~~6130
▁rudder~~11239
nthia~~11457
▁griev~~10559
ica~~2057
▁Leviathan~~12630
▁Elizabeth~~2316
▁station~~5515
rob~~7579
focus~~1211
▁wireless~~10248
▁Okapi~~11931
▁Skeptic~~10794
conceivabl~~7464
▁centuries~~5910
ros~~5081
rot~~9133
row~~3190
▁molecular~~6863
▁enter~~1223
▁Litt~~4677
▁stereotypical~~10989
▁candle~~11127
▁client~~3081
▁Wagner~~3061
▁histories~~1974
▁Now~~9703
▁Not~~3290
▁Nor~~5014
Day~~10724
▁biochemist~~10312
▁exile~~6437
fspring~~6374
▁refrigerator~~2657
▁label~~3660
▁limit~~1700
▁visualiz~~8969
▁napkin~~4548
,2~~11378
▁Public~~7646
level~~7712
▁tool~~3686
▁font~~12267
Terrain~~9185
▁fantasie~~9098
▁Lady~~5796
▁devices~~4264
▁Beethoven~~9939
▁down~~243
▁sail~~2226
▁Sarah~~10554
▁prairie~~6079
▁apparatus~~10219
▁fond~~7499
▁tuberc~~8216
▁Tumor~~11608
▁representative~~4652
▁trees~~951
▁47~~9201
▁autist~~6314
trend~~5022
▁resign~~9779
▁Lehm~~10864
▁scar~~3976
▁hippocamp~~7379
▁Pearl~~6171
▁thousand~~419
▁Rang~~11114
▁freez~~574
▁pragmatic~~7559
port~~5372
▁autism~~6313
Champion~~2411
▁Geruch~~11987
eritage~~4096
▁scal~~9757
▁Mexic~~6585
retroviral~~11645
▁vegetarian~~7001
▁special~~180
▁depict~~6843
▁humanoid~~7335
▁nano~~2466
▁deepest~~6460
water~~4109
▁Ragu~~12786
▁classroom~~1649
▁graduat~~10903
▁hand~~572
▁hang~~5655
▁denominator~~11397
▁vote~~3217
▁Roosevelt~~7056
▁orthopedic~~6949
ional~~9325
▁Fox~~9894
▁activate~~3910
▁attempt~~5333
▁Beau~~12322
▁compil~~5443
▁fusiform~~8253
▁non~~1854
▁nourish~~6370
▁oxide~~11300
▁McDo~~11307
▁Humanit~~11351
▁exclusive~~3223
▁jihad~~12089
enicillin~~8852
▁site~~705
▁hanging~~4362
▁Typ~~8512
▁Forest~~9611
▁now~~445
▁not~~83
▁48~~7888
▁nor~~2338
▁sitt~~683
▁Popular~~7273
▁appetit~~2331
▁exponential~~7821
anda~~5525
▁worldwide~~4215
▁Industrial~~987
▁management~~3843
▁Asthma~~11498
▁evoke~~5570
▁decrease~~1187
▁brutal~~2140
oruba~~12186
▁amplify~~9795
arcelo~~9885
ulu~~5726
▁lawsuit~~10277
▁Level~~12047
▁Tunisia~~11673
▁coming~~411
▁myself~~2445
▁Tit~~11637
bility~~6129
▁Buffet~~8914
▁years~~708
▁burned~~2559
▁v~~2189
▁Technolog~~8702
▁decent~~3070
stream~~1881
▁p~~678
▁article~~4939
▁z~~1011
▁compromise~~1468
▁x~~5805
▁g~~4915
▁f~~1976
<pad>~~0
▁Port~~4312
▁c~~1349
▁b~~926
▁a~~175
▁dye~~6992
▁o~~1216
▁k~~920
▁i~~9282
▁h~~2243
▁W~~5509
▁V~~646
▁U~~1357
▁T~~17
▁S~~1793
▁R~~2258
▁their~~346
▁financ~~5118
▁Z~~8986
▁G~~841
▁F~~468
▁E~~834
▁D~~2769
▁C~~503
▁B~~1825
▁A~~2363
▁O~~3995
▁N~~4553
▁M~~2775
▁L~~3360
▁K~~777
▁J~~6935
▁I~~63
▁H~~1579
▁7~~5659
▁6~~1739
▁5~~5329
▁4~~1709
▁3~~1918
▁2~~4688
▁folks~~4344
▁0~~8772
▁?~~235
▁byproduct~~8987
▁;~~813
▁:~~6
▁9~~4485
▁8~~5662
▁cancer~~4667
▁&~~36
▁fighters~~4717
▁.~~59
▁-~~2764
▁,~~29
▁Suppe~~12690
▁mess~~3100
▁upward~~7736
▁importan~~2071
▁audaci~~8562
▁aus~~8377
▁Aviv~~10084
▁Suzan~~10095
▁arous~~9944
▁passion~~2287
rger~~11788
▁Hall~~3057
▁disaster~~753
▁Chi~~6716
▁unten~~6675
▁interconnect~~7408
midnight~~4687
▁Cha~~2357
▁system~~535
▁originate~~4166
▁Golden~~9374
▁Chr~~8085
▁sketches~~7162
▁hypothese~~9065
▁blow~~1789
▁fand~~12705
▁marble~~5465
▁tongue~~6938
▁revolution~~801
▁occurr~~2496
▁whack~~616
▁recogni~~5566
▁blob~~3648
▁little~~263
▁cumulative~~4529
▁blog~~5357
uvre~~5400
▁speed~~2092
▁Peter~~1885
▁please~~3855
▁surrounding~~3479
▁Hollywood~~2005
▁must~~1148
▁loud~~2266
▁Kuwait~~10669
▁muss~~11370
▁globe~~4162
▁Pipeline~~12340
▁hydro~~2486
▁Magellan~~12282
▁muse~~5967
fern~~11954
tern~~7460
term~~2914
name~~5651
▁impact~~1445
▁struggle~~4691
▁Methan~~11731
realistic~~9685
disciplinar~~8173
▁mushroom~~8371
▁Ridge~~10574
▁Photo~~8752
▁strength~~1681
▁Ottoman~~11185
▁disorders~~6315
▁Lu~~7706
▁Vivian~~12608
▁Shanghai~~1423
▁shredd~~2629
▁Janeiro~~9248
▁Lo~~3078
▁La~~3108
▁Le~~6248
▁slides~~2766
▁click~~5818
▁wrapp~~6458
▁ice~~2529
▁flush~~3916
rotten~~10449
profit~~4830
▁ich~~12446
▁Samarit~~9712
profil~~10121
▁ingenuity~~8864
▁cage~~6760
▁backward~~1151
▁recycle~~3340
▁LG~~7686
▁sympath~~8184
▁Arm~~9176
▁soldier~~3281
▁Odysse~~11376
▁Mau~~5849
▁24-~~10832
▁Are~~6656
▁Papa~~12117
wal~~9651
curable~~5128
▁institution~~4811
▁Art~~5423
▁good~~559
▁evolution~~1039
amma~~6369
turn~~7555
turm~~12144
enmark~~5016
msala~~12351
Touch~~12737
▁bloss~~10179
ture~~6447
▁Resnick~~12123
▁causing~~4229
dient~~10170
▁precaution~~3975
▁cowboy~~11296
▁Johnny~~4360
Hertz~~11220
dia~~7159
▁mediocr~~1464
▁manual~~8280
▁calamit~~8761
▁combin~~1465
▁choose~~2043
▁Pool~~11208
engineer~~5864
ial~~4059
ian~~1197
▁clash~~4937
designer~~11726
clinical~~9210
▁educational~~1687
▁snap~~2960
▁Monolog~~10726
white~~2166
▁class~~1515
▁lady~~5890
▁retaliat~~11010
alai~~7496
huh~~7966
▁color~~806
▁quadruple~~10429
ophile~~12209
▁humid~~9773
▁descend~~7550
hus~~6662
▁about~~106
▁dismiss~~8382
population~~5158
▁Elisabeth~~12041
▁protection~~3985
▁ask~~1200
▁sales~~6633
▁textbook~~7210
▁schmi~~12531
▁Book~~6595
▁finding~~1492
r~~163
▁bundle~~10680
▁Orange~~9654
▁rooftop~~7695
and~~3486
ane~~8232
▁Hunter~~8081
ang~~3197
ana~~5605
pro~~3401
ano~~6377
▁began~~1535
ani~~5677
prostitution~~7672
ank~~2297
ant~~2327
▁harbor~~9293
▁culture~~827
▁combine~~3125
▁Nathan~~10484
▁Mutter~~11043
anz~~12130
▁Blanc~~12496
▁November~~9105
▁transistor~~10147
▁annoy~~2389
▁Sue~~11316
▁Electric~~8715
▁cardio~~11509
quarium~~11022
▁pivot~~11163
▁Viagra~~8628
animation~~12925
mination~~7847
▁parachute~~4401
▁RNA~~5188
▁Singapore~~1424
▁participant~~9354
▁deeply~~4983
▁would~~486
▁brothers~~4243
▁Command~~11760
▁prophet~~3944
▁paper~~1723
▁seeing~~455
▁tack~~2178
statt~~11303
▁hast~~7792
▁prophec~~10672
▁modify~~9087
▁William~~8191
▁trigger~~5626
mber~~8809
▁Milan~~1953
▁Katzen~~12815
▁communal~~1982
▁merit~~5583
lux~~11879
▁Boltzmann~~12366
cortex~~1113
▁Press~~11344
▁authentic~~3220
▁tried~~665
▁considerabl~~5137
▁Gestalt~~12602
▁mouse~~5226
▁vacation~~1845
▁training~~4404
▁Wort~~12395
▁incentive~~2632
▁via~~5500
hack~~8630
trop~~9206
▁tu~~5708
▁mismatch~~9625
▁memorize~~7215
▁ta~~8554
▁Real~~10098
wood~~950
ossi~~8854
▁th~~6358
▁delay~~4439
▁to~~32
▁Malaria~~12915
▁visionar~~10579
▁earlie~~3638
▁Psycho~~10598
H~~5237
▁machine~~2122
▁Misha~~11857
▁inherit~~8892
▁negotiation~~7608
▁opium~~8315
▁Sahara~~8402
▁discrete~~6415
closure~~6805
▁engineers~~5514
▁Herschel~~9816
▁emergenc~~7280
▁course~~1589
▁curve~~3793
▁lips~~8053
▁Tablet~~12154
▁crunch~~2591
▁endanger~~6078
▁Universe~~5993
through~~9220
schatz~~9239
Syndrom~~12254
▁Ultra~~2454
▁Alligator~~12799
▁gro~~9579
▁elastic~~9001
▁gre~~2042
▁dish~~3917
▁gra~~6423
▁Gottes~~12733
▁application~~2524
▁Maldiv~~11756
▁Luther~~7887
▁metaphor~~3014
ehran~~3273
▁Mandela~~8205
▁occasion~~2063
amel~~10807
▁there~~135
)~~3067
▁advantage~~1045
voluntary~~10032
ways~~7737
▁General~~8448
▁ELAM~~12882
▁1953~~8777
▁table~~2628
gainst~~11355
▁verify~~4000
▁overlook~~9306
▁Schock~~11130
▁consequences~~3439
▁teenage~~2077
▁renewable~~9610
▁public~~1530
▁closed~~2761
▁Rabbi~~9705
▁reading~~848
▁moment~~262
▁Organ~~10874
Prince~~11584
▁estimates~~9575
▁Hercul~~12517
▁Video~~10384
▁manuscript~~6878
▁green~~1422
▁Jami~~10253
▁communicate~~2880
▁orphanage~~11011
▁surpass~~11442
▁Limb~~10921
▁fly~~388
color~~3868
pot~~4124
60~~5870
▁kne~~470
pol~~1396
▁Thing~~8771
arium~~6002
▁fle~~2211
▁fla~~7721
▁Think~~8164
▁gib~~8369
▁each~~1772
ivers~~10623
▁Dewey~~12103
▁nutrition~~4663
▁irrational~~2556
▁Defens~~6178
▁25,000~~8417
▁astronaut~~2298
▁Jean~~9094
▁vase~~8725
▁coordinate~~4497
▁signed~~6257
▁precipitat~~8400
▁Department~~6071
▁adaptation~~3179
minister~~8119
▁vast~~2004
▁quarter~~2191
▁lethal~~9188
pilot~~12214
case~~7361
▁conceptual~~3685
▁rating~~8041
▁stories~~71
▁affirm~~9708
cast~~5482
▁server~~9604
▁Dylan~~3129
▁Tunnel~~12495
▁Wi~~2283
▁Wh~~2410
▁Wo~~939
▁Wa~~8504
▁We~~2157
▁replicate~~6883
▁expensive~~1489
▁Buckminster~~11167
▁splint~~11604
▁jungle~~9482
▁Wu~~7704
▁WI~~11907
▁humans~~1041
▁sulfur~~689
▁passionate~~2186
author~~9349
XXX~~12800
▁Naja~~12386
check~~10564
▁marker~~7393
▁market~~2603
▁Mumbai~~5523
▁Material~~7258
▁feels~~3774
status~~12728
▁Wisconsin~~9082
▁populate~~3390
▁combination~~4286
▁speaking~~1127
ness~~932
▁shuttle~~9418
IM~~4612
changing~~7863
▁check~~2719
▁ripp~~2569
▁eliminate~~1269
▁Jay~~4326
▁sushi~~7261
heila~~4376
▁Jar~~9589
▁paranoid~~10083
eureka~~10388
▁behold~~4385
▁Geist~~12654
▁Instagram~~12043
▁areas~~591
In~~7272
model~~5869
▁chocolate~~4572
▁Pope~~9627
▁striking~~4211
▁tomato~~6988
ē~~11427
▁met~~2997
▁seasonal~~4087
kill~~3925
▁men~~3497
▁Rive~~10241
▁epidemiolog~~9620
▁glimpse~~1713
▁being~~567
druck~~12693
▁identification~~6718
▁puzzling~~10747
rose~~7952
▁discipline~~3048
▁Stadium~~12729
▁appointment~~10902
▁Holz~~6897
▁ancestr~~7349
▁Ton~~10709
▁pile~~3692
▁bleach~~11027
tik~~12216
▁Arche~~11590
▁pill~~1907
▁meme~~783
▁better~~882
▁develop~~190
▁mock~~3783
walk~~9469
Mann~~10074
▁Bau~~12185
▁boson~~12283
▁Nano~~11682
▁Hans~~6097
ggy~~11447
▁Bay~~6612
▁doodl~~8762
▁Hang~~4236
▁accompani~~3939
▁recombin~~10478
orker~~3121
xytocin~~2804
▁dollars~~1818
simulator~~6767
▁project~~2031
▁Symphon~~6649
▁clinic~~3867
▁Superman~~10403
▁Lewi~~5303
▁Labor~~12132
Protokoll~~12260
▁send~~2797
▁Tokyo~~2429
▁Archae~~9083
▁sent~~1551
▁loving~~9617
moor~~11840
▁PRISM~~9261
▁Segment~~11683
♫~~11197
▁sens~~6199
▁taxi~~5087
▁Rose~~8330
▁fast~~3038
▁Langle~~9162
▁jar~~8482
▁lose~~4299
▁taxe~~864
▁jaw~~7926
▁Bah~~10026
▁cute~~6695
▁Bai~~11559
▁horizon~~4685
▁loss~~4855
▁lost~~2413
▁PCB~~6371
_~~12206
▁brother~~4338
oo~~941
on~~1116
om~~4001
ol~~1161
ok~~1387
▁taken~~1561
oh~~940
of~~1096
od~~331
oc~~329
ob~~5598
▁Brust~~11961
▁flag~~3234
▁subscribe~~8626
stand~~1347
ow~~1815
ov~~3271
ou~~2691
ot~~3074
os~~930
or~~1304
op~~1777
▁provide~~854
▁Orang~~12912
▁hearts~~8193
▁workshop~~4122
▁Blu~~5455
Strateg~~12744
▁paid~~1516
tribu~~5901
rising~~1295
▁Robbi~~10641
▁were~~484
▁pain~~1865
▁sugar~~548
▁Wol~~6678
ehr~~12294
▁host~~6004
▁flood~~5099
strich~~9068
▁nutrient~~6768
▁Nike~~7728
▁uncertain~~11542
▁Wow~~6919
rwin~~8383
iaoping~~10862
▁facilit~~3827
▁increment~~11540
▁floor~~465
▁comic~~9015
▁App~~8158
▁Signal~~12901
▁issue~~1533
▁punishment~~2622
▁discover~~2048
▁LOLcat~~7251
▁programmer~~5989
▁shoreline~~9323
▁smok~~684
▁evolutionary~~3203
▁goals~~1697
▁jewel~~5518
▁beetle~~6745
▁confus~~3095
▁goal~~1660
▁contribution~~6980
▁Dream~~8714
▁Experiment~~2665
▁miserable~~1286
▁Hab~~12007
enopaus~~6823
ollateral~~10804
▁tissue~~5302
▁Theater~~9348
▁flap~~338
▁strip~~6959
▁sound~~409
▁bist~~11216
Space~~11212
taste~~11562
▁Pomp~~7286
▁West~~2449
▁velocit~~5216
liches~~10542
▁2010~~5590
▁genial~~5913
together~~6891
▁quantify~~6062
▁Brenda~~11476
diversity~~1628
▁monitor~~3919
operation~~12111
▁squeeze~~9387
▁Mercedes~~10951
▁sulfide~~488
▁2.~~6068
▁thirst~~9113
quator~~11755
▁purple~~10070
▁26~~4182
▁27~~4405
▁24~~3875
▁25~~2034
▁22~~4495
▁23~~4604
▁20~~1288
▁21~~1785
▁Klo~~12172
▁28~~5326
▁29~~4563
▁dinosaurs~~6360
▁fragile~~741
▁situat~~9540
▁coat~~2460
▁Rom~~10421
ICE~~8459
▁Mozambi~~8279
▁Caracas~~11977
▁envelope~~2679
▁coal~~8548
▁words~~1866
▁toddler~~10475
▁environmental~~6396
▁Juliano~~12866
▁innovative~~992
▁dropp~~4595
▁portion~~6277
▁Challenge~~10934
▁four~~2385
ories~~6504
▁nanometer~~2498
▁won~~973
all~~5777
lace~~9208
.000~~12432
▁worthwhile~~2625
▁weekend~~7734
ale~~1593
▁insert~~6962
▁Lead~~11695
▁balanc~~6792
Hop~~11888
▁mirror~~1618
▁wow~~5630
▁carrier~~4265
alt~~10813
▁Ekman~~12580
▁Europa~~10140
▁algae~~9226
▁traditional~~1547
▁jail~~9623
▁illiterate~~7733
▁Pre~~6809
▁Abdul~~12278
▁Pass~~2611
▁unthink~~4964
▁chamber~~8519
▁Pro~~194
▁bribe~~9368
▁smart~~2958
▁Wiese~~12110
▁Pri~~8642
▁wound~~5971
▁numb~~8641
▁thermo~~7945
▁Renaissance~~5926
far~~7341
▁consume~~3546
▁Memori~~11293
induce~~5415
▁journey~~2206
▁sphere~~3030
fan~~11940
▁toast~~9721
▁superstar~~8104
▁archeolog~~3773
▁playful~~1142
▁arithmetic~~10037
▁render~~6145
▁airbag~~10960
list~~11914
▁resource~~1668
▁themselves~~2212
▁rein~~1302
▁underestimate~~5238
▁Row~~10622
EM~~10284
▁visit~~3369
tel~~5281
ten~~525
▁reconstruct~~5922
▁rethink~~2472
rate~~1978
▁Farbe~~11598
design~~6688
▁ramp~~8838
chmal~~12328
ter~~2038
▁league~~9600
▁worker~~7188
rati~~8026
what~~4840
▁debut~~8088
▁intimidat~~9404
▁Saturday~~6044
▁panic~~4148
▁Brain~~2862
brief~~5349
▁peacebuild~~12865
▁duplicate~~6722
▁Volvo~~8843
▁milk~~4557
▁mill~~5736
▁breaking~~92
▁excite~~10304
▁contractor~~7203
▁David~~4
ahedron~~11635
racing~~5079
▁mile~~392
▁clam~~2918
▁pur~~3348
▁pup~~1970
▁Metall~~12765
▁Genom~~9553
▁put~~267
▁electora~~9927
▁propell~~2944
▁Gilbert~~10640
▁sentence~~4482
▁adversari~~12231
▁tension~~7129
▁white~~497
▁suppose~~5192
▁settle~~4238
▁Coke~~2656
▁Sandel~~10111
▁sure~~2785
▁surf~~137
▁copie~~7231
▁cake~~3659
▁surround~~3579
▁Maslow~~8614
▁male~~576
▁mall~~9640
▁intimate~~4574
▁germ~~5761
▁reminisc~~11203
▁glu~~1141
▁Feder~~12203
▁contact~~479
▁asset~~996
▁stirring~~7425
▁acknowledg~~4725
▁entit~~4630
▁Biomimi~~12399
smal~~10001
illion~~1012
▁exhilarating~~4693
▁scrap~~635
▁blast~~3174
▁built~~2856
▁1975~~5856
EP~~11808
▁--~~89
▁historian~~6170
▁Senat~~6353
▁transparent~~4528
▁fundamental~~3673
▁Butter~~10731
▁endur~~2100
▁dose~~3951
▁same~~617
glas~~10855
▁old~~1099
▁dissent~~10270
▁Islands~~3422
problem~~12506
known~~6142
▁delusion~~7521
▁spiral~~9045
▁underdog~~11133
▁threat~~8019
▁Bowl~~7841
▁tear~~2142
▁hospital~~2558
▁Architect~~11119
▁sync~~3767
▁Earth~~35
▁thread~~7614
▁negotiat~~2341
v~~6216
▁Morris~~11402
▁team~~1214
▁column~~4118
▁Jake~~9803
pont~~6519
▁writ~~1738
▁ways~~1626
▁creatures~~279
▁counterpart~~9513
▁freak~~5034
▁Vo~~10374
ū~~12847
▁wilde~~12478
breaking~~9510
▁privat~~12891
▁minimum~~7199
oyo~~7628
▁interven~~10865
w~~281
▁visualization~~5990
▁celebrat~~1169
▁interaction~~4472
▁rival~~10557
testament~~10581
▁Spa~~1795
▁unfold~~4205
▁ingredient~~4319
▁impoverish~~9933
▁blindfold~~11374
▁cooperat~~9271
▁medication~~7903
▁generalize~~9219
▁160~~323
▁journal~~6879
▁Carnegie~~2685
Player~~12910
▁Mary~~8442
▁illuminat~~2315
▁16.~~12121
Tech~~9835
▁psychologist~~8942
▁Henry~~4339
▁chariot~~5077
▁reverberat~~3071
▁Trip~~12501
▁power~~1943
▁Ur~~3583
▁Up~~6540
▁remote~~3381
mission~~5819
▁progression~~5205
▁Tee~~7039
▁rearrange~~10258
▁mustard~~11597
▁Un~~7994
▁Tel~~4708
▁rhetoric~~6803
▁weather~~1764
▁Eagle~~3034
▁UV~~5889
style~~7526
▁quit~~2434
▁US~~7907
▁annihilat~~9181
ompatible~~10303
▁physicist~~6799
▁identit~~1964
▁invent~~1406
▁quiz~~5692
▁neuro~~8146
▁UN~~8458
▁fluctuation~~12081
▁UK~~8178
nach~~4544
▁Multi~~10924
Shabaab~~11265
▁Meggendorfer~~8857
▁landscape~~641
L~~1958
▁ring~~3438
▁temporal~~6271
▁atmospher~~1711
▁psychiatrist~~10639
▁mytholog~~8095
▁algebra~~9394
▁Faiza~~12908
▁Doug~~6239
gue~~7022
▁Hawking~~9550
▁inmates~~6053
▁lives~~550
▁liver~~9690
▁ticket~~5046
▁circa~~10885
▁perspective~~725
▁Calvin~~9194
▁inquiry~~9812
▁Gayla~~12825
▁improvement~~1373
▁Flut~~12783
▁Jona~~7909
▁Capgras~~12691
▁Ritz~~8797
▁Gustav~~11973
▁Control~~10535
▁crayon~~7961
generation~~5221
▁sophisticated~~2187
▁laugh~~4921
▁bill~~2662
▁efficient~~3192
gun~~8550
▁surgeons~~4670
▁Information~~11002
▁tribute~~9995
▁efficienc~~4866
▁intrinsic~~9564
▁arrange~~4575
▁sperm~~6384
▁Skycar~~10373
ize~~789
gur~~3426
▁uncommon~~9224
▁Larg~~11064
▁branches~~1727
▁laughing~~1147
hili~~11336
▁images~~121
▁imager~~600
▁Zero~~9380
hill~~6966
▁spa~~3189
▁Robert~~4459
izz~~10963
▁Nations~~4012
▁pink~~6782
▁Invasion~~12177
▁Atheist~~12600
▁analog~~6136
▁welfare~~8202
▁egg~~3658
▁urchin~~10007
▁swear~~2647
▁release~~1925
▁luc~~6253
eanor~~7546
▁sweat~~2682
▁dead~~6188
▁Dach~~6780
People~~8234
▁deal~~2842
▁inequalit~~9622
▁author~~4071
▁Indus~~11688
▁prosperity~~8211
▁dear~~4372
▁lymph~~6872
fallen~~12701
▁linguistic~~8844
▁integr~~4865
▁Agra~~11545
▁advertisement~~4916
cose~~11453
▁mir~~11062
▁Studie~~12324
▁SMS~~8172
▁Cla~~8014
▁Studio~~6666
▁Cli~~10659
Sinai~~11425
▁spine~~2966
▁genes~~5287
script~~8034
▁self~~904
▁spinn~~4051
▁Pik~~1706
▁establishment~~10993
isch~~12141
▁cinema~~1989
▁Marco~~8820
▁petition~~8472
▁March~~3228
▁Steine~~11875
▁police~~6354
▁dinner~~2401
▁structural~~3904
▁curv~~6120
▁polici~~1544
▁could~~288
▁rainforest~~161
▁eradicat~~1266
▁cure~~4152
▁transition~~9593
▁curl~~2379
▁policy~~1474
▁search~~1019
king~~1243
kind~~5578
▁tradition~~6912
▁decisions~~1182
▁minimize~~2572
▁schizophreni~~2909
▁twenty~~4153
Pachycephalosaur~~11768
▁disco~~3152
▁tools~~2356
uditorium~~6149
▁Mandarin~~10776
▁lemon~~10808
▁cue~~7404
▁innovate~~5274
▁Institut~~12650
▁variable~~1806
▁linguist~~5444
▁750~~4307
▁record~~97
▁unbe~~6141
▁oppress~~7535
▁context~~911
▁Wil~~8192
▁Win~~8206
▁Wie~~12841
▁Treat~~10263
sche~~12443
▁chapter~~1851
▁Wir~~7100
▁perfume~~7938
▁pirate~~6570
gill~~537
▁neurosurge~~12088
▁Anderson~~2536
▁dialect~~8467
reach~~810
▁stock~~2602
iful~~5186
▁notice~~2758
▁occasional~~2270
▁multimedia~~10823
amas~~7964
70~~3106
▁hydrocarbon~~9455
▁distribut~~8481
▁resemble~~7380
▁loose~~6169
▁remarkable~~2058
▁Palin~~11200
▁mash~~7068
▁mask~~6232
▁MBI~~6855
▁worrie~~2014
destruct~~10141
▁adversit~~8564
▁mass~~3379
▁operat~~879
▁excess~~8901
gramm~~12889
▁unfortunate~~3402
▁washing~~9129
▁Supercomputer~~9845
▁high~~667
▁orchid~~7925
▁modifie~~6726
▁2030~~10321
▁Euro~~8810
▁kilogram~~4775
▁outskirt~~3654
wetter~~11782
▁synthetic~~6347
▁MBA~~4607
▁parent~~1698
▁rocks~~744
▁0.~~9781
▁marrow~~11135
▁platt~~12474
ies~~294
ier~~2939
traut~~12591
▁archetyp~~6125
▁Librar~~9173
▁confess~~7037
▁hitting~~5331
▁plate~~672
▁vulnerabl~~4090
hatte~~7840
▁biodiversity~~154
ief~~2259
▁Send~~11510
▁civilization~~3398
▁driver~~4951
▁salad~~8672
▁difference~~1435
▁telling~~1680
▁happening~~660
▁Presto~~10199
▁Talent~~11460
▁beginn~~11996
▁Arabic~~9186
▁Arabia~~11349
atorium~~11071
hin~~4751
▁conscious~~3894
dministration~~11883
▁rotat~~10102
▁mimic~~1869
▁Iceland~~8210
▁frustration~~4234
BP~~11032
▁Malthus~~11140
▁prevalent~~8645
▁drone~~11617
▁globally~~3540
▁convenient~~8620
iness~~6699
art~~3743
▁contemporar~~3754
▁win~~275
▁Denisova~~11563
ary~~1581
▁wie~~5543
▁wid~~2501
▁moisture~~7296
▁solve~~1407
ard~~1690
are~~9126
matic~~6732
ari~~5855
▁Patent~~11456
▁wir~~3886
arm~~2144
▁results~~1210
▁faith~~2120
▁Paul~~5743
▁mesh~~10016
▁Arno~~7016
▁preference~~8595
▁garbage~~3987
▁Chernobyl~~10295
creme~~8861
▁Box~~12046
▁Wurm~~6917
▁crisp~~9438
▁gradual~~7350
▁Regen~~12398
▁happens~~857
▁Guitar~~2879
▁Pollock~~11390
▁Heil~~12221
▁miles~~114
▁Sexual~~12801
▁universe~~5559
▁happen~~886
▁hawk~~7924
▁gecko~~11819
▁Hippocrat~~8286
▁Heid~~11417
▁Cooper~~5496
▁Edward~~7500
▁Bob~~3128
c~~1001
▁Thermo~~11780
▁reactiv~~7409
▁development~~1114
▁Kiva~~11927
▁trial~~1931
▁budget~~3504
▁Clark~~10661
▁reward~~5083
▁mind~~979
▁mine~~2091
▁ver~~3258
▁mini~~10301
▁battle~~4476
▁ethic~~3324
▁addiction~~5970
▁flying~~1833
▁Hof~~11800
▁Columb~~6162
▁tunnel~~10190
▁Me~~5270
▁Eli~~3994
▁cotton~~4565
pp~~4681
duk~~7786
pt~~3715
pu~~5519
▁Coast~~3199
chle~~9209
auto~~11685
▁illustrat~~7757
▁193~~2107
▁Hier~~12293
▁scene~~1950
pf~~6749
▁nonverbal~~10127
pe~~4698
ph~~2397
pi~~1927
▁Juli~~9743
po~~2304
▁exchange~~2668
▁Pension~~12632
▁Min~~7714
gen~~6728
▁whirl~~5452
▁For~~7638
▁inherent~~6793
▁immediate~~2045
▁crack~~478
▁email~~2799
▁Delhi~~6429
▁Feuer~~11807
▁penni~~7186
frozen~~3869
▁Valley~~6481
▁videos~~5755
▁impressive~~1524
▁hover~~5025
mple~~10222
▁concentration~~6270
City~~11785
▁School~~6541
ris~~4969
▁Violin~~10512
rin~~5553
▁doubling~~11556
▁resist~~7960
rie~~4912
▁paradox~~7137
ria~~3113
aged~~4640
shirt~~2683
▁primari~~3201
▁Scratch~~12599
▁Nil~~9457
▁beside~~1194
shire~~9615
▁miniatur~~8239
9~~2108
▁primary~~3141
▁block~~2006
▁labor~~4781
▁badly~~1495
▁disgust~~8342
▁computing~~9216
rö~~12839
▁one~~220
▁vibration~~9758
▁underly~~1546
▁bacteria~~500
▁Prickly~~12511
▁migraine~~8262
ession~~1024
▁oceanograph~~4086
▁testimon~~5813
▁Beat~~9007
▁peanut~~6989
▁liberal~~4791
▁roots~~3093
▁Northeast~~11009
▁trunk~~6056
▁thro~~8677
▁friction~~10964
ieroglyph~~11982
▁path~~3031
▁MA~~10923
▁tech~~6502
▁previous~~3633
▁liberat~~3334
▁Haus~~10782
▁Haut~~12768
self~~2893
propos~~700
▁Uganda~~6394
abilities~~8904
▁Wert~~12241
▁Instrument~~12626
▁defend~~2422
▁monstro~~3960
▁types~~306
▁empire~~7767
▁straf~~12890
▁Fond~~12163
▁Disney~~3087
▁chest~~4418
▁privatiz~~11574
▁relieve~~8237
stimul~~8890
▁Polar~~9192
▁sodas~~6511
▁darkness~~7238
alysis~~9527
▁judg~~6923
▁Schnabel~~12568
▁kidnappe~~8465
isela~~11856
▁1000~~10821
▁Boston~~2910
▁torture~~2716
▁Fin~~1426
▁bullshit~~7165
▁Privat~~12818
uza~~12323
▁Arizona~~9196
▁drunk~~9635
Aid~~2563
▁Jeep~~9066
▁100-~~4622
▁140~~322
Bonnet~~8227
▁yourself~~1522
tsch~~12233
▁stepp~~3756
▁steps~~1233
▁Kap~~12316
▁Kar~~8829
▁Kam~~6187
▁educator~~1438
▁Kan~~2289
▁Kai~~9535
▁Blitz~~12038
▁Derart~~11842
▁inhale~~10285
▁Pi~~6028
rthritis~~6943
▁14.~~10947
▁scandal~~9679
▁But~~5685
▁attention~~2823
▁Bur~~6244
▁backyard~~5985
▁District~~9608
▁theoretical~~4455
▁Bud~~6450
▁~~49
▁sink~~3396
▁regard~~5170
▁sinn~~10413
▁replica~~2582
▁nie~~11480
▁embodiment~~10667
▁sing~~1095
▁Hell~~9072
▁continue~~1355
mobil~~6090
rief~~6094
▁soil~~8268
▁kick~~1195
▁motorcycle~~6954
▁economics~~2706
▁Oscar~~8441
▁zone~~3413
▁practice~~1588
▁tenaci~~4232
riet~~9864
▁cry~~3246
anne~~11205
▁fastest~~10508
▁Galois~~12401
▁Skype~~5959
▁Fair~~3749
weit~~9071
▁instructor~~5722
▁Biospher~~12713
▁Oma~~9445
▁Jet~~5392
suppe~~11881
▁Jew~~7761
▁metaboliz~~7942
▁easi~~2783
▁aspiration~~2062
▁fountain~~10139
▁criteri~~9912
▁ease~~8759
▁independent~~1226
▁easy~~1173
▁broader~~2883
▁restoration~~6080
▁Bachelor~~5361
▁east~~3449
credible~~77
▁Woman~~9581
▁Chevy~~7126
▁Brett~~11406
▁science~~602
▁tide~~138
▁Twenty~~10385
▁rupee~~11329
▁Jupiter~~6455
▁por~~2480
▁Kinshasa~~5113
▁refer~~1199
▁exception~~4213
▁Funk~~12892
ache~~6348
▁rebound~~12122
▁resistan~~5266
long~~4193
▁plain~~6431
▁invite~~2869
▁fiber~~5485
▁cynic~~8455
▁Dimitri~~12015
▁Rockett~~12465
▁merge~~9496
▁status~~2821
▁Methodi~~12424
▁pipe~~7295
▁appall~~12167
▁Viking~~11040
▁statue~~7480
▁Jacque~~10351
▁Mediterrane~~7768
raising~~7474
▁statistics~~6304
▁Warren~~8905
▁Super~~6085
▁deck~~9650
▁dece~~4966
▁baker~~6409
▁Indian~~4761
▁Gabriel~~2853
▁office~~96
▁contributor~~5533
▁Thailand~~11175
▁classes~~1508
z~~1955
Horo~~12396
▁subsequent~~6337
▁Dead~~9399
▁presumption~~11441
▁leapfrog~~9648
▁Robinson~~8443
▁crowd~~7851
▁highest~~4782
▁museum~~2873
▁sprang~~9362
▁periodic~~5248
▁Brad~~10106
▁imperative~~8902
▁Senior~~7897
▁Zabbal~~12596
peace~~11660
▁gentleman~~5973
▁spill~~3900
▁Roll~~9417
▁deadline~~5763
▁overwhelming~~4744
▁jet~~257
gro~~9680
▁vague~~10894
raine~~3838
nice~~9863
dale~~2969
▁praise~~4895
▁weave~~10416
▁lump~~6806
▁peace~~2145
▁additional~~4429
▁Cradle~~7270
etropolitan~~8808
icker~~11405
▁Sabbat~~11341
▁rush~~5051
▁extend~~2835
▁Ruf~~12191
arten~~7674
▁Lanka~~7194
organism~~10297
▁various~~5048
▁collector~~5365
▁World~~2409
tete~~11097
▁equate~~10673
ket~~9801
▁NAND~~12479
▁conservative~~6978
▁Berlin~~9914
gang~~7981
▁cease~~4199
ardino~~12868
screen~~7950
▁women~~1548
▁Sanghamitr~~11905
▁Buddha~~10447
▁floss~~12114
▁cor~~7811
▁cop~~2218
▁cow~~6734
▁con~~1968
▁become~~171
▁grassroots~~11089
▁ratio~~6113
▁payload~~10926
▁tactic~~4271
▁explod~~9792
▁hinter~~3601
▁cod~~3016
▁acknowledge~~7600
▁550~~11898
▁deflect~~10166
▁800~~4308
fest~~11015
▁courage~~3301
▁Ganesh~~11886
ging~~4105
▁schizophrenic~~9888
P~~1735
spoon~~9732
▁stage~~2432
▁bladder~~10872
▁breast~~5351
▁immersive~~6419
▁falls~~2650
zeit~~8093
uthanasi~~12820
▁nose~~6160
▁Mess~~11877
▁FO~~11217
▁Good~~3721
rrh~~9681
▁Plus~~12333
fische~~10979
fold~~6312
▁Saddam~~10451
▁Venus~~7957
rry~~986
▁savage~~5382
makers~~1475
▁Engelbart~~12616
▁After~~8776
▁6.~~5353
▁politician~~5054
▁extinct~~7353
▁flashlight~~5637
▁pubert~~6320
▁68~~8994
Link~~5610
▁62~~868
▁63~~9363
▁60~~472
▁61~~10279
▁66~~10801
▁67~~6873
▁64~~1933
▁65~~1901
▁parents~~1513
▁invad~~7648
▁locked~~5919
▁twice~~3544
▁Self~~4615
▁Stirling~~12156
▁Sela~~7338
▁locker~~8404
▁Eigentum~~12655
▁prisoner~~6088
▁Generation~~9646
▁bombard~~10011
▁climb~~6191
▁Bueno~~11723
▁latitude~~3406
▁Sch~~2150
apparat~~12276
▁windows~~7278
▁Kaplan~~9830
▁hopeful~~4024
▁Luke~~6484
▁Parikrma~~11943
▁alleviate~~8175
▁w~~4838
▁shrink~~1878
▁budd~~4408
▁mystery~~3834
▁conjure~~9095
▁margin~~4819
-47~~11455
▁glad~~4936
volt~~10216
motor~~12112
▁Toaster~~12198
▁natur~~12686
▁birth~~1098
use~~5271
▁Lester~~9953
▁Patient~~10256
&~~10572
fen~~10015
fel~~12698
▁Sharo~~6634
▁land~~3506
▁lang~~10745
ush~~2244
▁scale~~270
▁victims~~4576
▁boys~~4314
fer~~2337
▁going~~68
▁album~~8421
▁degradation~~8640
▁every~~728
▁Cambridge~~1760
▁Sinclair~~7177
▁Katie~~12371
▁crisis~~3770
▁texting~~11160
▁trick~~3708
heit~~5313
ibera~~10292
▁transcribe~~11777
▁money~~1482
▁bombardier~~12412
▁FDA~~6714
ural~~3127
▁eat~~3111
▁ear~~3149
▁turbulen~~5152
▁depression~~1152
▁greenhouse~~3704
▁horse~~3496
▁Expo~~12145
▁secre~~4373
▁d~~928
▁Psychologi~~10635
▁recent~~5711
▁Fe~~8046
proof~~2473
▁fest~~7764
▁rain~~4835
▁groom~~11388
▁nanotechnolog~~2475
▁abstraction~~9152
▁NBA~~11575
tag~~9371
▁moral~~1986
▁Light~~8532
▁best~~1224
▁High~~6611
nagnoris~~12461
▁Cura~~12767
▁Buch~~5424
▁source~~3505
▁medical~~2541
▁Windows~~7277
▁Rutan~~11045
▁researcher~~1476
sie~~3075
▁Keller~~11824
▁Ooh~~9498
tension~~7084
administrator~~8121
▁PM~~10693
▁exam~~5035
▁Textil~~10361
hazard~~9982
▁sabbatical~~11259
▁aphid~~12169
▁competenc~~7872
▁numbers~~2193
▁Environment~~9805
bergen~~12184
▁abundant~~58
eher~~12450
light~~4135
▁P~~3456
▁cramm~~4911
▁ladies~~4284
▁5,000~~5492
▁Aristot~~9563
▁line~~1559
▁devote~~8722
▁link~~1614
▁Hong~~9534
▁Auto~~6788
fford~~5710
▁meeting~~1752
bble~~7087
▁kidney~~4672
▁Farmer~~12061
▁bust~~4382
▁diminish~~6619
▁Terminator~~10962
▁gha~~5167
▁busy~~4328
▁extraordinar~~1633
1~~2052
hildren~~3845
▁nonprofit~~7096
,7~~6147
▁regulator~~4878
▁factor~~824
,5~~6067
▁successful~~1638
▁perceptual~~11069
bye~~4697
▁cream~~8682
▁mothers~~5986
▁numer~~10500
▁door~~2355
orthodox~~11407
▁eyes~~209
Car~~9714
material~~10117
▁refuse~~4579
▁California~~3364
▁Hammer~~12018
▁cartograph~~9308
▁bottom~~153
▁Meter~~12893
trag~~4883
▁measur~~1377
▁relationship~~3027
▁ready~~2817
▁Zach~~9829
▁classical~~7004
Pro~~11715
▁mission~~4501
▁monument~~5406
▁accomplish~~7880
▁maxim~~8143
▁request~~6881
▁God~~2015
▁Hygiene~~10082
▁opposed~~5294
▁grassland~~8405
▁burial~~4340
related~~5220
▁Tweet~~10575
▁Sierra~~8212
▁Cup~~8503
ous~~1046
our~~1488
80~~3612
out~~1049
▁sovereign~~10310
▁sermon~~7171
▁1~~6027
▁whistle~~2361
▁galler~~3202
▁Kickstarter~~11241
▁Empire~~3597
▁maximize~~7074
▁2.5~~9458
▁factory~~7223
▁pump~~4649
alter~~7658
▁Nigeria~~4228
▁Iran~~3227
▁Str~~7504
▁aggressiv~~3294
▁whole~~566
▁days~~1503
▁river~~3134
▁Stu~~9678
▁Cello~~12426
▁cancel~~7190
▁Sta~~6077
▁cooperation~~7473
g~~312
▁120~~1831
▁Lindbergh~~10460
▁125~~9301
▁olive~~9578
▁12.~~12434
▁dopamine~~9218
lte~~9874
▁12-~~2282
organiz~~8171
▁with~~19
ungen~~9825
▁Tar~~9141
▁fridge~~3816
▁Dragon~~12508
▁Tat~~5497
▁Tai~~8316
▁Tan~~6616
▁Goliath~~9883
▁Tal~~6751
▁divorce~~4587
▁traffic~~4979
▁Morocc~~10619
▁Tag~~4104
▁Supreme~~9954
▁imagin~~3684
▁governor~~3457
▁Planet~~6001
elimina~~9866
▁economies~~862
▁eggs~~4044
▁zero~~1198
▁Friday~~3632
▁worship~~7772
▁interfere~~2575
▁walked~~2654
▁penguins~~11391
▁Direct~~11225
▁biodegrad~~3339
▁emerge~~5450
▁sight~~166
shelf~~6618
▁emissions~~1768
▁handle~~7130
▁Korea~~1365
KA~~12020
▁knee~~4331
▁apologize~~4481
▁framework~~3710
▁reefs~~10006
▁Hadron~~11065
▁mache~~12579
▁spectra~~11279
▁Evangeli~~12697
▁consol~~1576
▁transnational~~4606
▁dating~~5472
▁connect~~2727
▁unequal~~1448
▁silver~~2520
▁bull~~6913
▁tropic~~4185
▁bulk~~4821
▁Channel~~5585
▁Frankenstein~~6777
▁connection~~2802
▁bulb~~3889
angle~~8931
▁twelve~~9709
▁str~~3853
▁benign~~6808
rous~~2483
bling~~4651
▁Der~~11983
▁dwell~~3687
▁Energ~~8533
▁Nepal~~6045
▁spend~~1284
ologist~~3842
▁society~~792
▁Doctor~~10636
▁module~~10039
▁energiz~~9032
▁mechanical~~9817
▁sweet~~5092
▁Judi~~10605
▁sweep~~7832
▁Darfur~~11267
class~~1613
▁Bauer~~10721
▁projection~~2069
▁hunter~~8116
▁legislati~~10424
▁between~~1071
▁translat~~10473
▁silk~~9384
▁Mund~~12712
▁visual~~3043
neutral~~11672
▁sill~~5481
▁Ker~~8242
erial~~9655
▁Positive~~11514
▁deep~~10
▁Mill~~11647
▁ethical~~6754
▁Roger~~10103
ritt~~8723
CH~~9274
▁Milo~~8021
▁droplet~~11024
▁navigate~~7613
▁bright~~1567
ystal~~4395
▁commission~~3803
▁gesture~~2865
rried~~4954
ha~~1571
▁follow~~1014
▁Brazil~~3537
▁brains~~1036
▁Rachel~~1705
▁Museum~~5998
▁Divergen~~12703
▁adrenalin~~5050
▁chill~~10213
cuba~~8766
▁killer~~4077
▁Student~~12022
▁asking~~3262
▁fortunate~~4120
▁equivalent~~3553
▁essential~~2348
▁killed~~2202
▁nich~~6683
▁Penelope~~6295
▁daughter~~1966
brain~~7376
▁nice~~3086
▁manipulat~~2921
▁Ding~~12067
▁atoms~~2497
vier~~12062
▁baseball~~7329
view~~4860
▁outlier~~10266
Collider~~11066
▁reproduce~~1394
Script~~10412
▁JFK~~8811
▁Harbo~~6172
▁Know~~10834
▁discontinu~~9824
▁Zimbabwe~~8196
▁exact~~1512
▁hour~~2570
▁hous~~7202
▁microorganism~~8174
▁Education~~9925
still~~9361
▁robot~~425
▁oyster~~3600
▁strong~~1446
▁notion~~3977
▁Wei~~7664
▁primordial~~10523
▁Weg~~12315
▁harsh~~10185
▁Theodor~~4786
▁Web~~7435
▁spark~~793
RT~~11112
▁TEDx~~7862
▁bamboo~~9488
ability~~990
▁spare~~7477
▁McLuhan~~9038
job~~11580
▁recipe~~9434
▁Jazz~~10988
amer~~8839
▁compact~~3578
▁card~~3784
▁care~~830
▁genero~~4309
piece~~3665
▁keen~~7053
▁photographer~~4003
▁total~~5463
▁typeface~~10843
len~~3392
▁angiogen~~12310
▁Meme~~9023
grain~~9987
▁Bollywood~~11855
▁cars~~3650
▁Puppe~~10125
angiogen~~12311
eocortex~~12069
▁Sputnik~~6155
▁session~~5267
wald~~5425
▁...~~2539
munition~~11492
wall~~7254
▁index~~10994
uffard~~12042
▁curate~~2040
quatic~~3440
▁below~~1419
▁Forrest~~12286
▁scanne~~9872
▁kingdom~~1050
▁pollinate~~6982
table~~3815
▁substance~~4564
▁40~~1741
▁41~~3296
▁42~~5501
▁43~~5723
▁44~~1932
▁45~~896
▁46~~4456
cientific~~1855
▁qualify~~4098
▁49~~11215
▁Survey~~9934
▁Reddit~~11656
▁USDA~~8651
growth~~8109
▁orbit~~6030
▁commut~~7302
▁4,~~11158
▁receive~~2406
▁4.~~7138
RA~~10697
▁forward~~387
▁NIH~~9233
isten~~10269
▁trans~~4125
▁exist~~215
▁eighth~~7985
▁Styro~~8695
▁out~~124
▁perception~~852
▁news~~1150
▁willing~~2720
▁UFO~~11285
▁Nigerian~~5671
▁Persian~~7765
▁Serge~~5647
▁anomal~~8903
▁industry~~1222
▁typewriter~~11332
▁Fast~~10112
▁manipulation~~6705
will~~8447
ion~~508
▁excited~~2525
▁decipher~~10824
▁1,000~~4218
▁mental~~1232
▁readers~~7647
▁complacen~~1693
▁confident~~5263
▁ocean~~102
▁tired~~817
▁James~~2967
▁selection~~5285
avi~~5946
▁Kareem~~12273
▁Four~~4396
ava~~4729
▁web~~6624
▁blanket~~7293
▁change~~811
▁temporar~~7281
▁rose~~4978
▁mammograph~~6802
▁ruin~~5923
▁Alzheimer~~2898
▁Reagan~~7044
▁mixture~~10480
icher~~1313
itting~~10069
▁makes~~814
▁fabric~~7615
▁isolation~~8910
▁require~~1637
▁Swee~~10088
▁Swed~~5015
▁ego~~8980
▁disadvantage~~1542
▁instruct~~11005
▁Jungfrau~~9250
▁border~~4304
▁longer~~1068
student~~10517
▁Vel~~12102
▁FBI~~8975
pedal~~10914
▁neue~~12672
▁astrolabe~~12288
stonia~~10948
▁Monster~~10243
▁professional~~1090
logen~~10325
ARE~~12364
▁poster~~3231
▁distraction~~5053
▁Kunde~~12475
▁Shirk~~10593
▁Indi~~11019
▁Reis~~12911
partheid~~5696
boot~~9135
▁38~~10086
▁Rein~~2400
▁Monday~~6166
▁sci~~6848
▁promise~~1306
point~~3345
sky~~5746
▁groove~~1164
ometer~~10283
▁eight~~968
book~~7986
▁harness~~1843
▁perfect~~2760
▁dignit~~10370
▁applica~~7140
▁elegan~~10071
▁Eastern~~3409
▁Martian~~11489
▁winning~~4892
▁graze~~10316
▁decid~~9494
▁McCan~~11665
T~~3991
press~~4551
▁bacteri~~7218
▁Hasan~~12355
dimensional~~309
▁Gene~~6727
▁camp~~5348
▁vocation~~11596
▁Sheikh~~9588
perpetuat~~6446
▁pizza~~7447
▁came~~693
▁hydrogen~~459
▁answers~~5161
▁aber~~11928
▁wizard~~11823
▁Linu~~11593
▁blood~~1880
▁guide~~4257
▁College~~5837
▁bloom~~10025
▁ravage~~8346
▁Internet~~1020
▁iPad~~7697
▁unprecedented~~5695
▁Line~~8997
▁accelerat~~4947
▁Link~~6005
▁Mall~~7587
▁Creative~~7097
terflies~~7947
▁capabilities~~9515
▁civic~~6498
▁open~~1155
▁Heart~~11042
leau~~12887
▁incision~~11852
▁Latin~~3140
▁civil~~5146
▁Volks~~10392
▁Land~~10274
▁Lang~~11533
▁rang~~8439
▁stakeholders~~1202
▁dome~~6003
▁fern~~12227
▁diagnos~~10463
▁fault~~7235
▁van~~6379
▁accord~~7597
▁Independen~~7884
▁Maidan~~12874
nde~~11230
▁physics~~7503
▁underwater~~5341
▁Bach~~3103
▁define~~807
▁Back~~6658
▁Gil~~5160
▁Philippine~~3411
▁Jefferson~~7783
▁Chief~~7889
▁grandmother~~4365
▁avoid~~3303
own~~5045
▁calculator~~9818
▁Modul~~12714
owa~~9775
automat~~8295
▁intelligence~~4499
▁cellphone~~7680
▁skyrocket~~6305
brush~~7141
▁reverse~~3206
▁citizens~~1605
▁preoccup~~6408
▁Stacey~~11758
van~~3188
▁vari~~1574
val~~5239
▁Rama~~9359
transfer~~9663
*~~12083
▁coconut~~10736
▁offensive~~8468
▁adventure~~5646
▁tsunami~~2210
▁script~~7741
▁Warner~~5484
cliff~~11844
▁Und~~11177
▁temple~~3582
▁10-~~7442
▁natural~~2864
mutter~~7551
▁Ken~~6186
volume~~11516
▁Josh~~7417
▁Milk~~5461
▁100~~954
▁101~~5792
▁450~~8428
▁Kev~~3705
▁Fer~~3571
▁Jose~~5750
made~~5907
▁acquire~~4769
▁capacity~~3328
▁Li~~5797
▁encyclopedia~~8163
▁mountain~~146
▁wird~~12658
▁timing~~9770
▁Carrillo~~12648
▁decades~~4231
▁terra~~6454
0,000~~4832
▁Witt~~7501
▁assistant~~6556
atten~~9585
▁Byr~~3052
ez~~8079
▁gun~~8974
▁psychopath~~11553
▁later~~1560
▁grammar~~5446
▁slide~~3688
▁With~~5366
▁further~~422
▁Intervention~~12850
▁assemble~~8570
▁unknown~~4137
percent~~3342
▁Chandler~~3857
▁Tyrann~~8770
other~~328
▁almost~~755
incredibly~~362
rial~~8393
▁hyena~~10734
▁ongoing~~5241
▁longest~~145
▁logic~~1403
▁recently~~1728
▁officer~~4532
▁April~~5977
▁energetic~~8434
▁positiv~~12380
▁hunch~~5653
▁tuck~~6464
lö~~11930
▁supercomputer~~1802
▁fine~~4366
▁find~~511
Co~~11864
▁kite~~10815
▁gossip~~3124
▁Mik~~9256
▁infuse~~8634
