<unk>	0
<s>	0
</s>	0
en	-0
er	-1
ch	-2
▁d	-3
in	-4
ie	-5
un	-6
▁w	-7
▁s	-8
ich	-9
▁e	-10
an	-11
st	-12
as	-13
ei	-14
▁die	-15
▁a	-16
▁un	-17
▁m	-18
▁ein	-19
te	-20
▁S	-21
ge	-22
▁i	-23
on	-24
▁v	-25
ir	-26
sch	-27
▁z	-28
▁h	-29
ll	-30
▁n	-31
▁und	-32
▁das	-33
ar	-34
gen	-35
ten	-36
▁b	-37
es	-38
▁D	-39
hr	-40
▁A	-41
▁W	-42
▁zu	-43
▁k	-44
▁M	-45
▁der	-46
or	-47
ti	-48
ein	-49
em	-50
▁in	-51
der	-52
▁E	-53
au	-54
▁au	-55
▁wir	-56
▁ist	-57
it	-58
▁I	-59
al	-60
de	-61
den	-62
lich	-63
▁G	-64
ach	-65
▁f	-66
ben	-67
▁g	-68
ber	-69
ter	-70
ier	-71
▁B	-72
icht	-73
el	-74
▁ha	-75
ur	-76
▁ge	-77
▁ich	-78
▁K	-79
▁U	-80
▁es	-81
▁T	-82
▁an	-83
▁F	-84
ung	-85
se	-86
le	-87
▁er	-88
▁P	-89
▁sie	-90
▁L	-91
sen	-92
▁Un	-93
▁den	-94
▁Sie	-95
ro	-96
um	-97
ür	-98
mm	-99
nen	-100
▁ver	-101
ls	-102
▁nicht	-103
▁von	-104
▁dass	-105
re	-106
▁be	-107
eit	-108
▁eine	-109
is	-110
tz	-111
ck	-112
▁auf	-113
ser	-114
▁H	-115
▁Und	-116
ann	-117
ra	-118
▁so	-119
▁V	-120
▁mit	-121
eh	-122
▁R	-123
▁wie	-124
ind	-125
▁N	-126
enn	-127
▁als	-128
ig	-129
am	-130
us	-131
▁sich	-132
▁sch	-133
▁war	-134
eu	-135
▁l	-136
▁J	-137
at	-138
▁o	-139
schen	-140
über	-141
▁Z	-142
▁Ich	-143
ol	-144
▁t	-145
ent	-146
ahr	-147
tion	-148
ön	-149
▁sind	-150
ft	-151
be	-152
ehr	-153
▁für	-154
▁haben	-155
lle	-156
▁j	-157
▁hat	-158
ste	-159
▁aus	-160
▁man	-161
ag	-162
▁um	-163
and	-164
iel	-165
▁über	-166
il	-167
än	-168
ff	-169
▁"	-170
▁kön	-171
▁p	-172
eine	-173
▁Die	-174
▁Das	-175
och	-176
▁wer	-177
llen	-178
▁St	-179
▁Es	-180
▁In	-181
▁Sch	-182
▁Ge	-183
tw	-184
sten	-185
om	-186
ik	-187
▁Wir	-188
hl	-189
▁da	-190
▁Er	-191
eil	-192
▁dem	-193
▁diese	-194
▁was	-195
▁im	-196
kt	-197
ut	-198
ne	-199
▁ihr	-200
hen	-201
▁uns	-202
▁O	-203
sp	-204
rei	-205
▁wenn	-206
▁-	-207
▁dies	-208
▁einen	-209
chen	-210
▁C	-211
bt	-212
omm	-213
▁Ver	-214
isch	-215
▁des	-216
ern	-217
▁können	-218
▁unser	-219
▁je	-220
▁werden	-221
▁Men	-222
wei	-223
▁Pro	-224
▁Jahr	-225
ungen	-226
zu	-227
▁vor	-228
rau	-229
▁sein	-230
ehen	-231
▁oder	-232
▁Ar	-233
ieren	-234
gt	-235
elt	-236
scha	-237
ien	-238
▁An	-239
igen	-240
rü	-241
men	-242
▁ander	-243
▁kann	-244
ation	-245
▁aber	-246
▁einer	-247
▁wo	-248
▁auch	-249
▁1	-250
▁einem	-251
iert	-252
ri	-253
▁Be	-254
ken	-255
▁Aber	-256
▁nach	-257
anz	-258
▁Ein	-259
▁mach	-260
uch	-261
hnen	-262
▁mein	-263
ort	-264
▁wird	-265
▁bei	-266
▁sehr	-267
▁etw	-268
▁nur	-269
▁hier	-270
▁dar	-271
os	-272
tig	-273
▁all	-274
▁Menschen	-275
ht	-276
ör	-277
▁–	-278
aus	-279
fen	-280
▁ent	-281
hn	-282
ibt	-283
urch	-284
issen	-285
äch	-286
▁mich	-287
▁Re	-288
▁Le	-289
▁gibt	-290
▁--	-291
▁le	-292
▁sp	-293
▁dann	-294
lau	-295
▁wur	-296
hal	-297
tzt	-298
▁also	-299
ige	-300
ab	-301
og	-302
▁En	-303
ru	-304
schaft	-305
eute	-306
ischen	-307
und	-308
ing	-309
bl	-310
ill	-311
dern	-312
▁st	-313
▁noch	-314
rie	-315
▁etwas	-316
ät	-317
ommen	-318
tet	-319
▁her	-320
ang	-321
▁Welt	-322
▁sehen	-323
▁Sp	-324
ul	-325
▁habe	-326
ick	-327
ver	-328
▁wei	-329
bei	-330
agen	-331
▁vie	-332
▁dieser	-333
▁Als	-334
heit	-335
▁durch	-336
▁mehr	-337
ot	-338
▁mir	-339
ran	-340
op	-341
he	-342
▁kl	-343
roß	-344
lichen	-345
▁sag	-346
▁re	-347
her	-348
keit	-349
mal	-350
we	-351
all	-352
▁Was	-353
mmer	-354
ion	-355
ke	-356
acht	-357
▁gen	-358
00	-359
▁Au	-360
ffen	-361
▁Leben	-362
liche	-363
▁viel	-364
amm	-365
▁Wenn	-366
."	-367
▁2	-368
är	-369
▁alle	-370
üs	-371
tiv	-372
end	-373
fach	-374
klich	-375
▁zum	-376
uss	-377
ech	-378
▁ganz	-379
fü	-380
et	-381
▁unter	-382
▁mö	-383
▁wurde	-384
ess	-385
ähr	-386
▁Zeit	-387
bst	-388
rin	-389
ze	-390
▁wür	-391
▁Ihnen	-392
tzen	-393
▁ste	-394
ische	-395
▁machen	-396
assen	-397
oll	-398
▁groß	-399
for	-400
▁Gesch	-401
ass	-402
▁wirklich	-403
ob	-404
▁ab	-405
▁zwei	-406
▁einfach	-407
ungs	-408
cht	-409
▁immer	-410
wer	-411
▁bes	-412
▁am	-413
rück	-414
fl	-415
▁meine	-416
tern	-417
bar	-418
▁kon	-419
ah	-420
▁weil	-421
ner	-422
▁neu	-423
inge	-424
pt	-425
per	-426
▁fü	-427
▁r	-428
▁tun	-429
ad	-430
chte	-431
äu	-432
schie	-433
▁Also	-434
age	-435
aten	-436
nte	-437
▁bis	-438
▁Ihr	-439
glich	-440
inden	-441
▁hatte	-442
▁dieses	-443
▁unsere	-444
elbst	-445
ktion	-446
lie	-447
▁müs	-448
ehmen	-449
▁hin	-450
ster	-451
eiten	-452
che	-453
leich	-454
iz	-455
ger	-456
▁ihre	-457
ück	-458
ap	-459
gel	-460
▁diesem	-461
▁keine	-462
rach	-463
▁Leute	-464
▁wissen	-465
stell	-466
▁Gr	-467
dem	-468
omp	-469
olog	-470
hlen	-471
rä	-472
▁soll	-473
▁müssen	-474
ßen	-475
gend	-476
▁Man	-477
▁Dinge	-478
▁dam	-479
▁zei	-480
itte	-481
▁Zu	-482
▁viele	-483
▁sagen	-484
▁waren	-485
▁Ges	-486
▁diesen	-487
▁sagte	-488
est	-489
imm	-490
unden	-491
ichtig	-492
▁beg	-493
blem	-494
▁Jahren	-495
ild	-496
▁ger	-497
sam	-498
▁lie	-499
ist	-500
▁Kon	-501
▁eines	-502
zen	-503
du	-504
▁weiter	-505
▁Art	-506
▁Wie	-507
ammen	-508
kommen	-509
▁gew	-510
einen	-511
tier	-512
▁bin	-513
▁Vor	-514
ed	-515
ats	-516
▁Kin	-517
▁andere	-518
▁Or	-519
ichte	-520
▁jetzt	-521
fe	-522
▁wieder	-523
▁eigen	-524
det	-525
lan	-526
▁anderen	-527
▁Bei	-528
▁Der	-529
mer	-530
nis	-531
geb	-532
lleicht	-533
im	-534
▁zur	-535
pp	-536
ün	-537
▁würde	-538
war	-539
▁glau	-540
▁Problem	-541
▁selbst	-542
▁Aus	-543
▁alles	-544
del	-545
▁So	-546
zi	-547
ität	-548
ler	-549
▁damit	-550
▁Ch	-551
sehen	-552
▁ar	-553
eg	-554
▁nie	-555
▁verb	-556
ekt	-557
▁vers	-558
auf	-559
ers	-560
ati	-561
▁wen	-562
auen	-563
äl	-564
under	-565
iger	-566
eln	-567
yst	-568
ast	-569
spiel	-570
▁Mill	-571
ek	-572
▁geht	-573
tes	-574
▁gem	-575
änder	-576
▁Auf	-577
kl	-578
▁Jahre	-579
ystem	-580
beit	-581
▁du	-582
ale	-583
halten	-584
▁zurück	-585
off	-586
▁wel	-587
▁ber	-588
▁Frau	-589
inn	-590
▁ob	-591
rö	-592
ragen	-593
▁denn	-594
ED	-595
ak	-596
me	-597
ßer	-598
tige	-599
schl	-600
▁zus	-601
▁muss	-602
▁♫	-603
▁Ne	-604
angen	-605
▁gut	-606
nten	-607
zeu	-608
▁Um	-609
ächlich	-610
äre	-611
▁schon	-612
des	-613
amen	-614
▁Kinder	-615
▁TED	-616
aar	-617
▁heraus	-618
lei	-619
von	-620
echn	-621
pf	-622
vor	-623
▁Dan	-624
ell	-625
fahr	-626
▁verst	-627
▁möchte	-628
ok	-629
ionen	-630
stellen	-631
ringen	-632
▁Ide	-633
▁ihnen	-634
▁Her	-635
▁son	-636
▁Dies	-637
▁vielleicht	-638
ationen	-639
tigen	-640
▁Geh	-641
zent	-642
▁best	-643
▁Teil	-644
▁zusammen	-645
▁pass	-646
ahl	-647
ommt	-648
▁3	-649
▁letz	-650
▁drei	-651
alen	-652
atsächlich	-653
ug	-654
▁pro	-655
▁davon	-656
zie	-657
▁Geschichte	-658
itt	-659
▁arbei	-660
hne	-661
▁brau	-662
▁Nun	-663
cken	-664
rechen	-665
andel	-666
zä	-667
▁Techn	-668
▁dort	-669
▁Wissen	-670
▁Land	-671
ichten	-672
▁Fl	-673
uchen	-674
ater	-675
▁einige	-676
rag	-677
halb	-678
ha	-679
▁gleich	-680
▁Kl	-681
di	-682
form	-683
▁heute	-684
▁Hier	-685
▁Su	-686
ine	-687
▁inter	-688
atür	-689
000	-690
wo	-691
esen	-692
▁Bild	-693
ierte	-694
▁genau	-695
▁For	-696
tisch	-697
▁Arbeit	-698
▁hatten	-699
▁bet	-700
weise	-701
att	-702
aut	-703
ade	-704
▁Wer	-705
▁könnte	-706
▁Bl	-707
mlich	-708
ändern	-709
eld	-710
aum	-711
ologie	-712
▁ihn	-713
▁ir	-714
atz	-715
▁Nach	-716
▁kein	-717
▁Gen	-718
▁jem	-719
anden	-720
rage	-721
ennen	-722
ielen	-723
art	-724
unktion	-725
▁Diese	-726
irn	-727
▁Unter	-728
qu	-729
net	-730
▁darüber	-731
▁zw	-732
▁paar	-733
oren	-734
▁einz	-735
reich	-736
▁Inter	-737
▁wahr	-738
fr	-739
unde	-740
▁seine	-741
▁wollen	-742
▁woll	-743
öglich	-744
wick	-745
hm	-746
▁Wei	-747
igkeit	-748
▁wurden	-749
für	-750
fer	-751
▁Je	-752
▁gehen	-753
▁nun	-754
▁ben	-755
▁Ber	-756
▁Da	-757
▁werde	-758
alt	-759
▁meiner	-760
▁wichtig	-761
hren	-762
▁tatsächlich	-763
br	-764
äd	-765
▁verw	-766
?"	-767
ährend	-768
utzen	-769
gar	-770
atur	-771
schieden	-772
▁sondern	-773
eich	-774
vers	-775
ant	-776
▁grö	-777
▁besser	-778
▁neue	-779
▁Beispiel	-780
▁Al	-781
fol	-782
▁Ü	-783
▁ange	-784
deu	-785
ache	-786
▁Geb	-787
▁zie	-788
hör	-789
▁Ab	-790
▁Mit	-791
▁Tran	-792
tlich	-793
▁unserer	-794
atürlich	-795
ander	-796
eisten	-797
▁Mo	-798
▁weiß	-799
▁Ste	-800
▁dazu	-801
▁bek	-802
hin	-803
▁Wasser	-804
änd	-805
ker	-806
▁gab	-807
▁leben	-808
les	-809
ud	-810
▁5	-811
▁gu	-812
▁erzä	-813
▁vom	-814
ma	-815
▁Fre	-816
iv	-817
▁wäre	-818
ittel	-819
schei	-820
gie	-821
▁macht	-822
schein	-823
achen	-824
▁will	-825
▁denke	-826
▁ges	-827
teil	-828
eite	-829
alk	-830
▁gef	-831
▁kommen	-832
▁irgend	-833
▁denken	-834
▁entwick	-835
▁19	-836
ite	-837
▁finden	-838
▁gegen	-839
▁Mar	-840
▁denen	-841
utz	-842
ativ	-843
▁sogar	-844
▁Aut	-845
tit	-846
▁Des	-847
▁hät	-848
▁lang	-849
▁Mon	-850
▁Ent	-851
▁Grund	-852
▁gemacht	-853
▁einmal	-854
▁zwischen	-855
ften	-856
▁hei	-857
▁Tag	-858
▁gerade	-859
▁20	-860
▁Gehirn	-861
öff	-862
enden	-863
keiten	-864
▁funktion	-865
äh	-866
olle	-867
▁Frauen	-868
hem	-869
▁al	-870
▁Im	-871
▁Lebens	-872
▁interess	-873
▁erst	-874
▁Frage	-875
▁glaube	-876
ay	-877
▁geben	-878
geben	-879
▁kommt	-880
▁Über	-881
gan	-882
rün	-883
▁bedeu	-884
lück	-885
▁ex	-886
ingen	-887
▁näch	-888
ika	-889
▁Mal	-890
▁Trans	-891
ce	-892
▁ohne	-893
▁zeigen	-894
ue	-895
▁and	-896
▁dafür	-897
▁mus	-898
▁jeder	-899
alten	-900
▁ihren	-901
tschaft	-902
▁letzten	-903
▁4	-904
▁verl	-905
▁Daten	-906
ate	-907
▁Prozent	-908
od	-909
▁würden	-910
ys	-911
ierung	-912
▁nichts	-913
▁Eine	-914
erson	-915
▁sieht	-916
▁ersten	-917
▁passiert	-918
▁verschieden	-919
gef	-920
ikan	-921
ss	-922
achte	-923
chten	-924
gehen	-925
cher	-926
▁während	-927
▁konnte	-928
weg	-929
▁Reg	-930
rank	-931
▁Sub	-932
▁daran	-933
▁meisten	-934
▁warum	-935
tik	-936
▁verstehen	-937
▁Ph	-938
▁besch	-939
▁Ex	-940
nell	-941
▁Millionen	-942
▁Ihre	-943
ensch	-944
ult	-945
hrt	-946
stand	-947
sel	-948
unkt	-949
gew	-950
llt	-951
▁Med	-952
aufen	-953
ßt	-954
ord	-955
rupp	-956
örper	-957
▁lassen	-958
iele	-959
▁Hand	-960
▁mal	-961
▁sollte	-962
▁erste	-963
▁Uni	-964
▁Idee	-965
▁Talk	-966
ign	-967
oli	-968
ript	-969
ia	-970
▁sagt	-971
bs	-972
ße	-973
▁sicher	-974
▁etwa	-975
licher	-976
▁mensch	-977
ucht	-978
ren	-979
▁natürlich	-980
ramm	-981
▁10	-982
richt	-983
▁Me	-984
▁sollten	-985
cript	-986
ompu	-987
ergie	-988
yp	-989
titles	-990
▁Subtitles	-991
▁Transcript	-992
pro	-993
▁gel	-994
▁We	-995
▁schw	-996
stellt	-997
agt	-998
▁Geld	-999
▁komp	-1000
▁Weg	-1001
kte	-1002
tro	-1003
ogen	-1004
ckt	-1005
fte	-1006
▁Ger	-1007
ös	-1008
▁Person	-1009
▁könnten	-1010
▁War	-1011
ide	-1012
▁große	-1013
innen	-1014
▁Se	-1015
▁wollte	-1016
sicht	-1017
▁schnell	-1018
kun	-1019
▁Raum	-1020
tt	-1021
.000	-1022
▁dabei	-1023
▁ganze	-1024
▁ihrer	-1025
▁meinen	-1026
erst	-1027
▁geb	-1028
ernen	-1029
▁ja	-1030
▁gesch	-1031
▁scha	-1032
▁Inform	-1033
schied	-1034
▁meinem	-1035
▁sprechen	-1036
▁ziemlich	-1037
wir	-1038
▁Pl	-1039
aupt	-1040
lung	-1041
▁klein	-1042
▁bekommen	-1043
äng	-1044
ark	-1045
ären	-1046
▁arbeiten	-1047
ollar	-1048
▁Ä	-1049
▁jemand	-1050
▁Wo	-1051
▁Wissenschaft	-1052
als	-1053
onder	-1054
wie	-1055
ange	-1056
id	-1057
▁ins	-1058
omputer	-1059
dien	-1060
▁darauf	-1061
▁hör	-1062
▁ging	-1063
ele	-1064
ktur	-1065
jekt	-1066
▁System	-1067
▁Univers	-1068
ts	-1069
twort	-1070
▁Schl	-1071
▁kam	-1072
ho	-1073
▁Kre	-1074
hlt	-1075
▁El	-1076
▁nehmen	-1077
▁Mus	-1078
ution	-1079
amil	-1080
▁Plan	-1081
..	-1082
laub	-1083
urz	-1084
▁Ende	-1085
▁vier	-1086
kunft	-1087
▁Stra	-1088
finden	-1089
ic	-1090
eist	-1091
orden	-1092
utter	-1093
▁Sti	-1094
mus	-1095
▁Min	-1096
reiben	-1097
scheinlich	-1098
▁Kind	-1099
▁Gem	-1100
itz	-1101
ktiv	-1102
adt	-1103
ischer	-1104
▁weniger	-1105
nah	-1106
▁Mann	-1107
▁doch	-1108
▁kleinen	-1109
▁Entw	-1110
▁bereit	-1111
lo	-1112
▁Technologie	-1113
asch	-1114
sst	-1115
▁Dollar	-1116
gr	-1117
fall	-1118
äter	-1119
tr	-1120
▁unseren	-1121
▁bedeutet	-1122
▁Dank	-1123
▁Bo	-1124
pl	-1125
▁Verb	-1126
▁Y	-1127
▁Rei	-1128
".	-1129
zei	-1130
▁Te	-1131
arbei	-1132
iere	-1133
▁welche	-1134
▁Q	-1135
▁Computer	-1136
ennt	-1137
ganis	-1138
usst	-1139
▁Dann	-1140
▁Sache	-1141
▁bringen	-1142
▁ung	-1143
no	-1144
▁Famil	-1145
▁ihm	-1146
▁dir	-1147
▁schl	-1148
▁Möglich	-1149
annt	-1150
orgen	-1151
▁Mein	-1152
▁US	-1153
▁Denn	-1154
▁Körper	-1155
ruck	-1156
▁Energie	-1157
fühl	-1158
raft	-1159
▁Lie	-1160
tieren	-1161
▁sol	-1162
mp	-1163
▁gesehen	-1164
▁seit	-1165
▁dachte	-1166
▁eigentlich	-1167
▁All	-1168
▁möglich	-1169
fin	-1170
io	-1171
▁gest	-1172
ald	-1173
tete	-1174
mo	-1175
▁kleine	-1176
",	-1177
▁Gew	-1178
▁bestimm	-1179
▁brauchen	-1180
ga	-1181
▁Vers	-1182
▁zeigt	-1183
...	-1184
achsen	-1185
▁Bü	-1186
our	-1187
ust	-1188
oment	-1189
▁Weise	-1190
▁Kar	-1191
▁Fall	-1192
▁großen	-1193
▁Seite	-1194
▁200	-1195
raf	-1196
▁jeden	-1197
▁sei	-1198
ert	-1199
▁wenig	-1200
alis	-1201
▁Zukunft	-1202
schw	-1203
▁se	-1204
folg	-1205
▁Schu	-1206
schaften	-1207
▁Män	-1208
vol	-1209
▁ganzen	-1210
ätz	-1211
unter	-1212
▁Fil	-1213
▁Ha	-1214
▁ausge	-1215
▁en	-1216
legen	-1217
icher	-1218
ard	-1219
▁außer	-1220
enten	-1221
ultur	-1222
ierten	-1223
wegen	-1224
▁fin	-1225
▁Menge	-1226
nung	-1227
▁voll	-1228
▁keinen	-1229
mittel	-1230
▁Ja	-1231
ron	-1232
ernt	-1233
▁Tage	-1234
▁Groß	-1235
uten	-1236
▁Buch	-1237
lex	-1238
stellung	-1239
gramm	-1240
▁versuchen	-1241
▁6	-1242
rieben	-1243
▁Ko	-1244
opf	-1245
tiert	-1246
▁fün	-1247
▁hoch	-1248
denken	-1249
fft	-1250
ial	-1251
▁teil	-1252
▁Entwick	-1253
land	-1254
iss	-1255
▁Stu	-1256
▁Spiel	-1257
▁hätte	-1258
▁Woch	-1259
▁gesagt	-1260
▁schle	-1261
▁lernen	-1262
▁De	-1263
leben	-1264
▁indem	-1265
Ich	-1266
▁Grupp	-1267
wohl	-1268
eht	-1269
oten	-1270
ähn	-1271
schn	-1272
isten	-1273
▁Vort	-1274
tische	-1275
▁glauben	-1276
▁unglaub	-1277
▁te	-1278
zeug	-1279
▁seiner	-1280
▁später	-1281
sche	-1282
▁Augen	-1283
▁wunder	-1284
iar	-1285
▁vielen	-1286
achten	-1287
▁Den	-1288
▁Stadt	-1289
▁Am	-1290
enz	-1291
▁Afr	-1292
▁dan	-1293
▁Danke	-1294
elfen	-1295
▁Natur	-1296
▁Ort	-1297
▁Son	-1298
▁eigenen	-1299
dig	-1300
undheit	-1301
öffent	-1302
hol	-1303
▁Musik	-1304
öl	-1305
ormal	-1306
fahren	-1307
▁Sprach	-1308
ges	-1309
aden	-1310
▁Licht	-1311
▁gehör	-1312
ält	-1313
essen	-1314
▁beim	-1315
▁Warum	-1316
▁Gemein	-1317
ellen	-1318
▁stellen	-1319
▁Ob	-1320
nehmen	-1321
▁Ged	-1322
▁funktioniert	-1323
unst	-1324
gang	-1325
ausen	-1326
eten	-1327
▁fünf	-1328
asse	-1329
inner	-1330
ständ	-1331
▁konnten	-1332
▁besonder	-1333
hle	-1334
reichen	-1335
aß	-1336
▁Vielen	-1337
reis	-1338
▁schaffen	-1339
alität	-1340
setzen	-1341
▁Schul	-1342
tischen	-1343
ließ	-1344
▁Untern	-1345
ruktur	-1346
▁heißt	-1347
▁oft	-1348
▁get	-1349
▁fest	-1350
zeich	-1351
▁größ	-1352
eiden	-1353
stoff	-1354
▁Jetzt	-1355
▁Erde	-1356
▁fast	-1357
▁Produ	-1358
▁Moment	-1359
zeit	-1360
▁jedes	-1361
▁gl	-1362
▁rie	-1363
▁offen	-1364
▁Mutter	-1365
volution	-1366
▁sozi	-1367
ändert	-1368
lichkeit	-1369
▁Milliar	-1370
▁Vide	-1371
▁Wahr	-1372
itten	-1373
▁Probleme	-1374
▁nä	-1375
ause	-1376
ilder	-1377
▁helfen	-1378
ünst	-1379
allen	-1380
kel	-1381
▁Haus	-1382
▁Internet	-1383
▁Kam	-1384
▁Hin	-1385
nisse	-1386
▁Kunst	-1387
lekt	-1388
▁Lehr	-1389
wusst	-1390
▁gute	-1391
▁neuen	-1392
rum	-1393
eile	-1394
ichtige	-1395
satz	-1396
gefähr	-1397
spro	-1398
▁Gesell	-1399
▁nutzen	-1400
ition	-1401
▁lange	-1402
echs	-1403
so	-1404
▁8	-1405
yn	-1406
▁Ro	-1407
kon	-1408
▁aller	-1409
▁schwer	-1410
▁Gesundheit	-1411
▁fol	-1412
zahl	-1413
▁Mensch	-1414
fä	-1415
rat	-1416
▁Du	-1417
▁Sta	-1418
esser	-1419
▁weit	-1420
fangen	-1421
▁allen	-1422
ott	-1423
ip	-1424
ritt	-1425
▁anders	-1426
ahlen	-1427
▁c	-1428
▁wahrscheinlich	-1429
▁Form	-1430
▁erzählen	-1431
▁Ang	-1432
heiten	-1433
▁Qu	-1434
welt	-1435
▁verk	-1436
▁unserem	-1437
▁schön	-1438
▁herum	-1439
ven	-1440
euten	-1441
▁einge	-1442
▁genug	-1443
▁sah	-1444
glichen	-1445
duz	-1446
▁7	-1447
▁Rob	-1448
liches	-1449
th	-1450
ina	-1451
▁nächsten	-1452
▁star	-1453
▁Fot	-1454
▁erkl	-1455
▁begann	-1456
▁Gegen	-1457
▁Ideen	-1458
▁Met	-1459
▁weg	-1460
▁kennen	-1461
rieg	-1462
ossen	-1463
▁Design	-1464
▁betrach	-1465
chmal	-1466
zess	-1467
ösen	-1468
gleich	-1469
schaffen	-1470
▁Selbst	-1471
▁frü	-1472
▁Amer	-1473
▁klar	-1474
▁seinen	-1475
▁richtig	-1476
▁ne	-1477
chn	-1478
▁15	-1479
▁Lu	-1480
raum	-1481
bo	-1482
▁50	-1483
▁Bi	-1484
itu	-1485
▁USA	-1486
ph	-1487
▁gemein	-1488
▁ungefähr	-1489
▁größer	-1490
kten	-1491
▁100	-1492
andeln	-1493
sk	-1494
▁9	-1495
▁bauen	-1496
▁bisschen	-1497
▁Pu	-1498
ehn	-1499
gangen	-1500
▁30	-1501
▁Wor	-1502
▁bevor	-1503
reffen	-1504
hunder	-1505
scheid	-1506
▁Forsch	-1507
▁Mater	-1508
▁Mu	-1509
▁Dar	-1510
▁Zus	-1511
▁Fäh	-1512
▁Geschichten	-1513
asst	-1514
▁fal	-1515
▁jede	-1516
eim	-1517
▁New	-1518
setzt	-1519
▁verändern	-1520
▁blei	-1521
▁Planeten	-1522
▁At	-1523
▁we	-1524
elle	-1525
▁Informationen	-1526
▁nah	-1527
▁beh	-1528
zieh	-1529
kennen	-1530
▁liegt	-1531
▁Schule	-1532
▁wus	-1533
▁Di	-1534
utzt	-1535
▁kurz	-1536
akt	-1537
immt	-1538
itzen	-1539
▁Erfahr	-1540
▁Schw	-1541
ädchen	-1542
▁Arten	-1543
ium	-1544
llig	-1545
tigt	-1546
▁ihrem	-1547
▁recht	-1548
möglich	-1549
omen	-1550
▁verm	-1551
kay	-1552
ände	-1553
forder	-1554
jek	-1555
son	-1556
▁ro	-1557
▁Leuten	-1558
▁normal	-1559
▁seinem	-1560
▁ern	-1561
▁inner	-1562
▁hinter	-1563
umen	-1564
ras	-1565
▁Vie	-1566
ringt	-1567
▁Nicht	-1568
▁gehört	-1569
▁Projekt	-1570
▁ko	-1571
anzen	-1572
uche	-1573
▁Lin	-1574
▁gar	-1575
▁Für	-1576
ere	-1577
sy	-1578
ütz	-1579
▁überall	-1580
▁hö	-1581
äche	-1582
▁Exper	-1583
ett	-1584
▁darum	-1585
▁Antwort	-1586
▁Pati	-1587
rad	-1588
▁Fragen	-1589
▁stehen	-1590
▁Universum	-1591
los	-1592
▁Gebäu	-1593
▁Milliarden	-1594
ilfe	-1595
▁Afrika	-1596
werk	-1597
▁bem	-1598
eren	-1599
▁Kopf	-1600
▁Mode	-1601
▁nennen	-1602
▁Unternehmen	-1603
▁Netz	-1604
öhn	-1605
▁dich	-1606
▁Mädchen	-1607
▁Glück	-1608
▁sagten	-1609
▁anzu	-1610
▁Männer	-1611
▁sel	-1612
izin	-1613
▁Stud	-1614
▁Wirtschaft	-1615
▁schwier	-1616
▁Inst	-1617
▁Punkt	-1618
▁entwickelt	-1619
gung	-1620
riff	-1621
▁anderes	-1622
▁Film	-1623
▁reden	-1624
▁großar	-1625
▁eben	-1626
▁euch	-1627
twor	-1628
cke	-1629
▁Dieses	-1630
▁musste	-1631
pr	-1632
▁Lös	-1633
▁entde	-1634
auer	-1635
▁hal	-1636
bringen	-1637
gem	-1638
scheiden	-1639
rieb	-1640
sol	-1641
einander	-1642
änger	-1643
▁Robo	-1644
▁Zusammen	-1645
▁Jahrhunder	-1646
mpf	-1647
igkeiten	-1648
▁Auto	-1649
▁Zwei	-1650
▁spielen	-1651
aun	-1652
mand	-1653
gl	-1654
▁sti	-1655
▁Meine	-1656
ief	-1657
fang	-1658
▁bereits	-1659
▁de	-1660
▁Indien	-1661
ens	-1662
▁Minuten	-1663
▁pl	-1664
isches	-1665
ielt	-1666
voll	-1667
amens	-1668
zin	-1669
▁Bed	-1670
▁oben	-1671
▁halten	-1672
indung	-1673
▁Gesellschaft	-1674
anken	-1675
▁mo	-1676
▁Flug	-1677
system	-1678
▁benutzen	-1679
▁besonders	-1680
vi	-1681
▁Stimm	-1682
▁steht	-1683
▁Gl	-1684
▁ü	-1685
▁Video	-1686
▁hören	-1687
▁Bilder	-1688
▁fragen	-1689
▁erreichen	-1690
bare	-1691
▁Verhalten	-1692
▁Far	-1693
▁namens	-1694
▁erkennen	-1695
ib	-1696
▁Krank	-1697
▁verschiedene	-1698
ack	-1699
ahn	-1700
▁Stück	-1701
▁gerne	-1702
ow	-1703
ome	-1704
▁Kön	-1705
▁erh	-1706
▁Them	-1707
▁frag	-1708
andelt	-1709
▁darin	-1710
▁machte	-1711
▁Fü	-1712
man	-1713
▁Familie	-1714
▁Beg	-1715
▁Kor	-1716
pen	-1717
ommun	-1718
richten	-1719
zt	-1720
annte	-1721
akter	-1722
▁hätten	-1723
halt	-1724
▁einzige	-1725
▁glob	-1726
▁beein	-1727
geln	-1728
▁Neu	-1729
▁Vater	-1730
▁Sprache	-1731
ai	-1732
▁Ur	-1733
▁Macht	-1734
▁Entscheid	-1735
äft	-1736
▁Jo	-1737
▁sechs	-1738
▁Dem	-1739
rom	-1740
▁ho	-1741
▁ähn	-1742
gesch	-1743
▁Ergeb	-1744
setz	-1745
▁Par	-1746
endet	-1747
▁ch	-1748
▁erf	-1749
grund	-1750
ölker	-1751
▁Oder	-1752
▁Beweg	-1753
han	-1754
was	-1755
▁jedem	-1756
▁Organis	-1757
inen	-1758
itiv	-1759
ließlich	-1760
unge	-1761
▁gesam	-1762
▁Eltern	-1763
sych	-1764
▁Fir	-1765
▁Gruppe	-1766
ume	-1767
▁bef	-1768
▁Doch	-1769
bild	-1770
urs	-1771
mals	-1772
▁Fol	-1773
heor	-1774
▁statt	-1775
etz	-1776
ersön	-1777
▁Luft	-1778
▁bewegen	-1779
ock	-1780
inde	-1781
ützen	-1782
ings	-1783
kehr	-1784
▁Kultur	-1785
▁Weil	-1786
▁Sü	-1787
▁braucht	-1788
ezie	-1789
▁Bau	-1790
▁na	-1791
▁ries	-1792
▁Angst	-1793
▁entwickeln	-1794
blik	-1795
let	-1796
▁Durch	-1797
liegen	-1798
▁dr	-1799
tel	-1800
ase	-1801
ässt	-1802
führt	-1803
uer	-1804
▁Vielleicht	-1805
ider	-1806
▁for	-1807
▁wohl	-1808
▁Unser	-1809
rak	-1810
▁mag	-1811
punkt	-1812
▁Gener	-1813
▁Gefühl	-1814
▁Beh	-1815
▁tro	-1816
▁Eigen	-1817
▁vorstellen	-1818
▁Möglichkeit	-1819
▁glück	-1820
icherheit	-1821
▁führen	-1822
▁irgendwie	-1823
euer	-1824
führ	-1825
▁Arch	-1826
zeugen	-1827
deut	-1828
▁Arm	-1829
err	-1830
zug	-1831
genommen	-1832
one	-1833
ure	-1834
▁Stunden	-1835
▁verschiedenen	-1836
ehl	-1837
▁Po	-1838
▁erhalten	-1839
▁Wort	-1840
▁frei	-1841
urop	-1842
esse	-1843
▁heu	-1844
▁hoff	-1845
aktion	-1846
stehen	-1847
▁bemer	-1848
ank	-1849
▁Vortrag	-1850
▁To	-1851
▁Veränder	-1852
ismus	-1853
▁einzel	-1854
▁Roboter	-1855
▁einigen	-1856
schnitt	-1857
tem	-1858
▁manchmal	-1859
▁unbe	-1860
▁Masch	-1861
▁vorher	-1862
▁Br	-1863
▁Freund	-1864
▁Bereich	-1865
häng	-1866
▁Sinn	-1867
▁Kindern	-1868
▁Werk	-1869
äten	-1870
▁...	-1871
annen	-1872
anten	-1873
reten	-1874
▁Str	-1875
haupt	-1876
hemati	-1877
▁beiden	-1878
▁ändern	-1879
gestellt	-1880
▁Krebs	-1881
gte	-1882
▁Co	-1883
▁erw	-1884
reifen	-1885
▁besten	-1886
▁wollten	-1887
▁menschlichen	-1888
iken	-1889
▁Grün	-1890
▁Komp	-1891
▁drau	-1892
▁stell	-1893
▁Mat	-1894
▁Sachen	-1895
licht	-1896
ikro	-1897
▁Yor	-1898
▁Patienten	-1899
▁verwenden	-1900
▁Herz	-1901
▁alt	-1902
räsen	-1903
▁Hause	-1904
zustellen	-1905
ante	-1906
trau	-1907
▁eher	-1908
▁gemeinsam	-1909
gal	-1910
▁Hö	-1911
iges	-1912
vest	-1913
druck	-1914
▁Poli	-1915
eig	-1916
teten	-1917
▁nämlich	-1918
tigkeit	-1919
▁innerhalb	-1920
erweise	-1921
ks	-1922
▁per	-1923
▁Gebäude	-1924
▁erk	-1925
▁Gott	-1926
▁Regierung	-1927
▁unterschied	-1928
▁abge	-1929
▁sage	-1930
▁beginnen	-1931
isk	-1932
gabe	-1933
uchte	-1934
nov	-1935
▁Chr	-1936
eister	-1937
erikan	-1938
▁unglaublich	-1939
▁Rück	-1940
▁welch	-1941
▁Bezieh	-1942
▁verändert	-1943
▁Sol	-1944
▁Meer	-1945
▁brach	-1946
▁Heraus	-1947
ranken	-1948
blikum	-1949
ingt	-1950
abor	-1951
üt	-1952
▁bl	-1953
▁getan	-1954
bte	-1955
onen	-1956
▁los	-1957
▁ansch	-1958
uf	-1959
schlossen	-1960
denten	-1961
▁weltw	-1962
▁Gleich	-1963
▁Fahr	-1964
▁fand	-1965
racht	-1966
dr	-1967
ehe	-1968
▁versucht	-1969
▁Bab	-1970
▁Lehrer	-1971
▁Länder	-1972
min	-1973
blick	-1974
▁zwar	-1975
▁wegen	-1976
▁Umwelt	-1977
▁überhaupt	-1978
erk	-1979
onnen	-1980
völker	-1981
▁Krieg	-1982
▁Dieser	-1983
▁treffen	-1984
fel	-1985
hlte	-1986
führen	-1987
▁schauen	-1988
str	-1989
uß	-1990
berfl	-1991
▁aufge	-1992
▁gleichen	-1993
▁18	-1994
▁Lage	-1995
▁stellt	-1996
▁Entwicklung	-1997
arten	-1998
▁Richt	-1999
▁Publikum	-2000
bel	-2001
iff	-2002
lek	-2003
ängt	-2004
stens	-2005
▁Städ	-2006
▁Ziel	-2007
▁Anfang	-2008
▁Dr	-2009
▁Kn	-2010
▁beob	-2011
▁Na	-2012
▁Material	-2013
▁Essen	-2014
▁öffent	-2015
▁Programm	-2016
ax	-2017
▁China	-2018
baren	-2019
ans	-2020
ließen	-2021
ive	-2022
▁Sy	-2023
▁Erfahrung	-2024
enzen	-2025
▁allem	-2026
▁Herausforder	-2027
eint	-2028
uelle	-2029
▁nächste	-2030
▁gr	-2031
ende	-2032
▁Bet	-2033
▁rau	-2034
▁Prozess	-2035
▁Stellen	-2036
▁Pap	-2037
▁erstaun	-2038
itze	-2039
uren	-2040
▁Wochen	-2041
▁Grö	-2042
▁auszu	-2043
▁niemand	-2044
▁40	-2045
haus	-2046
ragt	-2047
äf	-2048
oss	-2049
▁Pf	-2050
▁jen	-2051
▁poli	-2052
sein	-2053
▁bel	-2054
▁dre	-2055
▁lei	-2056
dlich	-2057
nahme	-2058
▁Klim	-2059
▁folgen	-2060
zept	-2061
▁lin	-2062
▁Tier	-2063
▁Rest	-2064
ichtigen	-2065
ager	-2066
enne	-2067
ograf	-2068
arbeit	-2069
ve	-2070
fiz	-2071
ute	-2072
ative	-2073
nahmen	-2074
▁lässt	-2075
▁vö	-2076
▁Hilfe	-2077
▁Tiere	-2078
▁Zum	-2079
innern	-2080
lligen	-2081
▁produz	-2082
▁mussten	-2083
mö	-2084
▁'	-2085
ötz	-2086
auso	-2087
statt	-2088
stra	-2089
▁Bes	-2090
▁Frei	-2091
▁Nacht	-2092
▁Dingen	-2093
▁fühlen	-2094
sie	-2095
wär	-2096
▁Mittel	-2097
amp	-2098
▁tra	-2099
▁entf	-2100
▁falsch	-2101
▁Geschäft	-2102
▁Sicherheit	-2103
iet	-2104
▁bringt	-2105
▁weitere	-2106
▁fl	-2107
eigen	-2108
▁eigene	-2109
ienen	-2110
rieden	-2111
▁Kap	-2112
▁Tages	-2113
▁stimm	-2114
▁Verein	-2115
▁Freunde	-2116
▁erre	-2117
▁Denken	-2118
▁menschliche	-2119
▁Kont	-2120
achst	-2121
▁Situ	-2122
▁deren	-2123
▁erwar	-2124
▁tut	-2125
▁ster	-2126
ziehen	-2127
▁ersch	-2128
▁kamen	-2129
▁meines	-2130
▁Li	-2131
▁jed	-2132
▁12	-2133
eilen	-2134
▁unters	-2135
▁Dam	-2136
ächst	-2137
▁Grunde	-2138
elig	-2139
▁or	-2140
aler	-2141
▁erlau	-2142
▁Möglichkeiten	-2143
▁aufzu	-2144
▁wusste	-2145
▁Okay	-2146
▁Gedanken	-2147
▁Res	-2148
ektiv	-2149
ologien	-2150
▁dessen	-2151
lungs	-2152
antwort	-2153
falls	-2154
annten	-2155
▁Unterschied	-2156
scht	-2157
▁wor	-2158
▁worden	-2159
▁Struktur	-2160
▁Boden	-2161
▁Lassen	-2162
▁hervor	-2163
sph	-2164
fluss	-2165
troll	-2166
▁persön	-2167
▁Ma	-2168
▁Sk	-2169
▁grund	-2170
zip	-2171
stet	-2172
▁Job	-2173
▁Sek	-2174
▁lösen	-2175
bau	-2176
innt	-2177
▁Pri	-2178
▁berü	-2179
uchten	-2180
▁führt	-2181
▁jedoch	-2182
▁völlig	-2183
▁verschw	-2184
▁Elekt	-2185
▁exist	-2186
▁unten	-2187
ünstler	-2188
spir	-2189
▁Oze	-2190
zentr	-2191
achstum	-2192
bung	-2193
ahren	-2194
inger	-2195
ksam	-2196
tens	-2197
▁York	-2198
▁solche	-2199
sichtlich	-2200
icken	-2201
flanzen	-2202
▁schreiben	-2203
▁Ander	-2204
▁Archite	-2205
ub	-2206
Was	-2207
ande	-2208
ysik	-2209
▁Typ	-2210
▁Neur	-2211
bauen	-2212
▁Part	-2213
▁Ster	-2214
▁Team	-2215
▁obwohl	-2216
▁Staaten	-2217
▁gleiche	-2218
spr	-2219
▁Kü	-2220
drück	-2221
▁Thema	-2222
opp	-2223
ötzlich	-2224
▁Nein	-2225
▁Information	-2226
▁Pol	-2227
wesen	-2228
▁absol	-2229
▁damals	-2230
▁erinner	-2231
▁25	-2232
▁Ho	-2233
hält	-2234
▁Haupt	-2235
▁wären	-2236
▁teilen	-2237
▁Go	-2238
▁Lösung	-2239
ian	-2240
St	-2241
▁Bro	-2242
▁Per	-2243
▁sollen	-2244
tis	-2245
zellen	-2246
▁direkt	-2247
▁letzte	-2248
▁betrachten	-2249
ore	-2250
ürger	-2251
dition	-2252
▁Kraft	-2253
are	-2254
▁funktionieren	-2255
▁hunder	-2256
▁entscheiden	-2257
▁Schwe	-2258
▁fragte	-2259
▁suchen	-2260
▁überras	-2261
ämp	-2262
▁bleiben	-2263
▁ph	-2264
▁Mikro	-2265
▁Woche	-2266
▁besteht	-2267
ehm	-2268
rop	-2269
elten	-2270
zeuge	-2271
▁Nahr	-2272
ichter	-2273
▁Erfolg	-2274
ilden	-2275
▁Technik	-2276
aw	-2277
ond	-2278
wend	-2279
hören	-2280
▁DN	-2281
jekte	-2282
arbeitet	-2283
▁amerikan	-2284
gebung	-2285
ikaner	-2286
telligen	-2287
heorie	-2288
▁zuvor	-2289
▁Gesicht	-2290
trem	-2291
▁zehn	-2292
▁Kranken	-2293
▁Ländern	-2294
▁Viele	-2295
▁komplex	-2296
▁verbesser	-2297
cen	-2298
alter	-2299
zogen	-2300
▁Gesetz	-2301
▁Monate	-2302
▁genauso	-2303
wirk	-2304
▁ged	-2305
▁verd	-2306
▁sieben	-2307
▁Is	-2308
weisen	-2309
▁essen	-2310
▁schwierig	-2311
▁interessant	-2312
aren	-2313
bene	-2314
▁Ist	-2315
▁Tats	-2316
▁Familien	-2317
▁gefunden	-2318
▁Char	-2319
erstör	-2320
▁Liebe	-2321
▁Markt	-2322
▁größten	-2323
▁eins	-2324
spiele	-2325
▁Ihren	-2326
▁langsam	-2327
imen	-2328
▁Bru	-2329
ieten	-2330
langen	-2331
ausende	-2332
▁unseres	-2333
xt	-2334
▁Namen	-2335
alien	-2336
gegen	-2337
▁Fern	-2338
reiten	-2339
▁Wissenschaftler	-2340
rifft	-2341
▁Prin	-2342
▁Labor	-2343
▁Gol	-2344
atten	-2345
itein	-2346
▁Innov	-2347
▁verbunden	-2348
bes	-2349
igt	-2350
äuf	-2351
wert	-2352
▁Bedeut	-2353
▁Fähigkeit	-2354
ool	-2355
elbe	-2356
zeigt	-2357
▁benö	-2358
▁kaufen	-2359
▁sterben	-2360
▁gro	-2361
▁Hoff	-2362
▁Autos	-2363
▁größte	-2364
▁trotz	-2365
▁Modell	-2366
ja	-2367
ffe	-2368
▁sprach	-2369
▁zweite	-2370
unehmen	-2371
▁lesen	-2372
▁Fr	-2373
uellen	-2374
▁welches	-2375
gewöhn	-2376
▁Stand	-2377
▁nimmt	-2378
▁gescha	-2379
▁führ	-2380
tworten	-2381
▁mitein	-2382
sta	-2383
cker	-2384
jähr	-2385
aszin	-2386
▁Ozean	-2387
▁Sehen	-2388
▁gelernt	-2389
▁Blick	-2390
▁liebe	-2391
▁Zellen	-2392
▁erzählt	-2393
▁Bewegung	-2394
In	-2395
eut	-2396
auft	-2397
gaben	-2398
▁herauszu	-2399
▁Führ	-2400
dust	-2401
▁Tra	-2402
chter	-2403
igten	-2404
ählen	-2405
▁bitte	-2406
▁erschaffen	-2407
Das	-2408
sprochen	-2409
igit	-2410
line	-2411
▁Mil	-2412
▁Vir	-2413
▁Fort	-2414
▁Nation	-2415
▁erfolg	-2416
▁draußen	-2417
▁scheint	-2418
berfläche	-2419
▁erinnern	-2420
▁hinein	-2421
lin	-2422
▁Kri	-2423
ikation	-2424
▁Medien	-2425
völkerung	-2426
▁Technologien	-2427
ünf	-2428
fort	-2429
oral	-2430
▁Reihe	-2431
▁gegenüber	-2432
inne	-2433
▁Eis	-2434
▁dein	-2435
▁anderer	-2436
jen	-2437
▁Heute	-2438
▁Muster	-2439
▁beeinfl	-2440
▁Gemeinschaft	-2441
▁wissenschaft	-2442
ehler	-2443
ochen	-2444
lassen	-2445
▁schließlich	-2446
▁Fa	-2447
rift	-2448
wohn	-2449
▁hast	-2450
▁Europ	-2451
▁bewusst	-2452
ätze	-2453
äuft	-2454
▁erklären	-2455
▁Verbindung	-2456
ont	-2457
ffiz	-2458
▁jemals	-2459
iko	-2460
bten	-2461
gefühl	-2462
▁Schritt	-2463
▁Zahl	-2464
▁stark	-2465
agieren	-2466
olz	-2467
sum	-2468
ware	-2469
gliche	-2470
wasser	-2471
▁Alter	-2472
▁hinaus	-2473
bend	-2474
▁Wert	-2475
▁wachsen	-2476
▁Süd	-2477
▁nahm	-2478
▁gewesen	-2479
▁Natürlich	-2480
ance	-2481
▁Demok	-2482
▁Wahrheit	-2483
▁passieren	-2484
▁qu	-2485
fern	-2486
ament	-2487
ity	-2488
▁fanden	-2489
▁geworden	-2490
▁konzentr	-2491
▁sa	-2492
▁beginnt	-2493
zw	-2494
reck	-2495
▁Unsere	-2496
▁Tatsache	-2497
▁anfangen	-2498
▁miteinander	-2499
▁Erk	-2500
▁bist	-2501
▁sehe	-2502
gessen	-2503
▁Jahrhundert	-2504
ese	-2505
▁Ka	-2506
▁fr	-2507
▁Wahl	-2508
▁Jeder	-2509
ül	-2510
▁bew	-2511
sieht	-2512
älter	-2513
▁unterst	-2514
▁aussehen	-2515
▁Mathemati	-2516
▁glücklich	-2517
wand	-2518
▁Recht	-2519
▁kleines	-2520
mit	-2521
▁Är	-2522
▁daraus	-2523
▁60	-2524
lett	-2525
weis	-2526
▁Ris	-2527
▁Gewalt	-2528
▁deshalb	-2529
▁nachdem	-2530
▁Studenten	-2531
iden	-2532
zeugt	-2533
Sch	-2534
fäh	-2535
dustrie	-2536
▁Bildung	-2537
▁Forschung	-2538
▁80	-2539
▁mache	-2540
▁Bürger	-2541
▁Richtung	-2542
ator	-2543
lauf	-2544
schr	-2545
älfte	-2546
▁Anzahl	-2547
▁möchten	-2548
äß	-2549
zus	-2550
▁übr	-2551
ichtet	-2552
▁Platz	-2553
▁verloren	-2554
mu	-2555
▁tief	-2556
▁neben	-2557
hei	-2558
ppe	-2559
▁Metho	-2560
▁Sicht	-2561
▁schwar	-2562
unk	-2563
änden	-2564
ativen	-2565
ogra	-2566
▁danach	-2567
fon	-2568
tten	-2569
immer	-2570
▁Alle	-2571
▁Ihrem	-2572
▁länger	-2573
gn	-2574
▁Tem	-2575
▁Alles	-2576
▁Reise	-2577
merksam	-2578
▁gebaut	-2579
▁Tatsächlich	-2580
lang	-2581
hnung	-2582
ängen	-2583
▁Stimme	-2584
▁faszin	-2585
▁schlecht	-2586
era	-2587
▁tö	-2588
divi	-2589
▁wert	-2590
zeitig	-2591
▁Krankheit	-2592
▁verwendet	-2593
co	-2594
▁hil	-2595
▁kre	-2596
▁Teile	-2597
▁Während	-2598
wusstsein	-2599
▁Bedeutung	-2600
öst	-2601
▁perfe	-2602
▁Bar	-2603
▁Bel	-2604
▁Gal	-2605
▁Ihrer	-2606
▁plötzlich	-2607
durch	-2608
▁fort	-2609
dividu	-2610
▁Medik	-2611
▁elekt	-2612
▁Aufgabe	-2613
▁Aktiv	-2614
▁schrieb	-2615
ose	-2616
▁Prä	-2617
iment	-2618
reibt	-2619
▁Einige	-2620
▁bekommt	-2621
▁Situation	-2622
▁bi	-2623
▁findet	-2624
▁nachzu	-2625
▁kleiner	-2626
▁stellte	-2627
▁Umgebung	-2628
▁CA	-2629
kraft	-2630
▁acht	-2631
▁grün	-2632
motion	-2633
▁laufen	-2634
▁Vorstellung	-2635
▁kü	-2636
bert	-2637
▁versch	-2638
sprechen	-2639
▁benutzt	-2640
▁genannt	-2641
▁einzu	-2642
▁guten	-2643
▁leicht	-2644
▁gezeigt	-2645
ey	-2646
ies	-2647
▁Ru	-2648
▁Mag	-2649
esent	-2650
▁Viel	-2651
▁beschäf	-2652
iti	-2653
▁Fuß	-2654
trolle	-2655
▁techn	-2656
▁Deshalb	-2657
▁ru	-2658
dete	-2659
▁lau	-2660
▁ak	-2661
wart	-2662
teilt	-2663
affen	-2664
▁Sonnen	-2665
▁Straßen	-2666
▁entfernt	-2667
asen	-2668
digen	-2669
unkte	-2670
▁Foto	-2671
▁bewe	-2672
▁samm	-2673
▁Mitte	-2674
ternation	-2675
▁Veränderung	-2676
uell	-2677
änge	-2678
rauch	-2679
▁Wirklich	-2680
edizin	-2681
itäten	-2682
▁Rolle	-2683
▁erfolgreich	-2684
ram	-2685
▁Ju	-2686
elte	-2687
▁Nord	-2688
▁niemals	-2689
ines	-2690
▁Blut	-2691
▁Test	-2692
▁gefähr	-2693
haft	-2694
▁Dro	-2695
ehmer	-2696
äuser	-2697
▁fliegen	-2698
Wir	-2699
▁Tür	-2700
▁raus	-2701
▁erklär	-2702
▁wichtige	-2703
▁nachdenken	-2704
urt	-2705
▁Fä	-2706
lebt	-2707
ertig	-2708
itter	-2709
recht	-2710
▁beide	-2711
wachsen	-2712
omb	-2713
zep	-2714
▁tat	-2715
▁öff	-2716
▁sonst	-2717
▁Künstler	-2718
▁ur	-2719
mens	-2720
ollen	-2721
▁Hälfte	-2722
ari	-2723
▁hoffe	-2724
▁schau	-2725
▁Entwicklungs	-2726
▁Herausforderung	-2727
Pro	-2728
▁Gef	-2729
atisch	-2730
orf	-2731
plan	-2732
▁zer	-2733
▁höher	-2734
▁reich	-2735
▁Regier	-2736
▁Amerika	-2737
▁Medizin	-2738
▁verrück	-2739
▁erreicht	-2740
zü	-2741
liz	-2742
tzut	-2743
immel	-2744
▁Größe	-2745
▁neues	-2746
▁allein	-2747
▁Meinung	-2748
▁Rad	-2749
tzutage	-2750
▁soziale	-2751
app	-2752
▁DNA	-2753
lage	-2754
iegen	-2755
▁egal	-2756
▁Geist	-2757
▁199	-2758
▁Har	-2759
▁Nie	-2760
sphäre	-2761
▁kontroll	-2762
▁Tod	-2763
▁gek	-2764
▁bekam	-2765
▁mögen	-2766
▁Papier	-2767
▁extrem	-2768
▁liegen	-2769
▁veröffent	-2770
äss	-2771
▁Erd	-2772
▁rei	-2773
ändig	-2774
▁blau	-2775
▁einfache	-2776
▁Bä	-2777
uchs	-2778
▁Tat	-2779
▁toll	-2780
▁aktiv	-2781
▁alten	-2782
▁beste	-2783
▁zeige	-2784
▁Straße	-2785
▁sofort	-2786
▁Generation	-2787
▁Entscheidungen	-2788
iten	-2789
antast	-2790
▁digit	-2791
▁fahren	-2792
▁gingen	-2793
arbeiten	-2794
▁Prinzip	-2795
alls	-2796
ratie	-2797
dessen	-2798
▁bekannt	-2799
af	-2800
ame	-2801
raten	-2802
▁spricht	-2803
▁Wachstum	-2804
▁weltweit	-2805
sor	-2806
ales	-2807
gten	-2808
▁Wör	-2809
▁Chem	-2810
▁rein	-2811
findet	-2812
▁daher	-2813
▁Bakter	-2814
▁Revolution	-2815
▁Fähigkeiten	-2816
nt	-2817
rab	-2818
roh	-2819
ister	-2820
ierend	-2821
▁ziehen	-2822
▁gegeben	-2823
dert	-2824
stück	-2825
▁komm	-2826
▁Kolle	-2827
▁entst	-2828
▁Hinter	-2829
▁brachte	-2830
▁jemanden	-2831
get	-2832
itzt	-2833
viel	-2834
schieht	-2835
▁Kosten	-2836
▁genommen	-2837
wirtschaft	-2838
zte	-2839
▁Sh	-2840
▁Realität	-2841
▁komplett	-2842
▁geschieht	-2843
▁erfor	-2844
▁nennt	-2845
az	-2846
ezi	-2847
▁11	-2848
auber	-2849
▁Städte	-2850
kre	-2851
▁hinzu	-2852
jenigen	-2853
▁setzen	-2854
Die	-2855
ali	-2856
imp	-2857
▁Kil	-2858
▁Goog	-2859
▁empf	-2860
abhäng	-2861
▁stand	-2862
▁Bücher	-2863
struktur	-2864
▁geboren	-2865
▁Nachrichten	-2866
hand	-2867
isse	-2868
rech	-2869
ftware	-2870
▁Evolution	-2871
dung	-2872
auern	-2873
wissen	-2874
▁Strom	-2875
av	-2876
legt	-2877
echan	-2878
▁John	-2879
▁Preis	-2880
▁Zahlen	-2881
gebracht	-2882
▁schneller	-2883
inz	-2884
▁Zeu	-2885
▁Einz	-2886
▁wirtschaft	-2887
▁interessiert	-2888
ote	-2889
▁Maß	-2890
▁Tro	-2891
▁kur	-2892
ositiv	-2893
▁Sonne	-2894
▁inspir	-2895
▁herauszufinden	-2896
tim	-2897
▁Gel	-2898
istan	-2899
▁machten	-2900
▁Gesundheits	-2901
▁Vereinigten	-2902
gor	-2903
ssen	-2904
▁Tele	-2905
▁Psych	-2906
bildung	-2907
▁früher	-2908
▁Maschine	-2909
umm	-2910
deck	-2911
▁Dav	-2912
▁Phil	-2913
schlag	-2914
▁Fehler	-2915
▁Leiden	-2916
indungen	-2917
▁gesamte	-2918
erv	-2919
rägt	-2920
▁Firma	-2921
▁Kommun	-2922
▁Studie	-2923
▁lieben	-2924
▁Ergebnis	-2925
zer	-2926
▁Do	-2927
ällt	-2928
üssel	-2929
▁Politik	-2930
▁anstatt	-2931
▁lok	-2932
ätzen	-2933
▁nein	-2934
▁Schön	-2935
▁Europa	-2936
▁Schauen	-2937
ieg	-2938
▁Ton	-2939
daten	-2940
▁geschrieben	-2941
▁Car	-2942
▁Nur	-2943
igner	-2944
stein	-2945
▁Von	-2946
▁Ding	-2947
▁Zeich	-2948
▁absolut	-2949
ämpfen	-2950
▁defin	-2951
▁Auswirk	-2952
glie	-2953
obil	-2954
sell	-2955
▁App	-2956
▁tot	-2957
schul	-2958
▁Jahrz	-2959
schlagen	-2960
▁bas	-2961
▁übert	-2962
▁Wieder	-2963
▁Beziehung	-2964
merksamkeit	-2965
▁Bewusstsein	-2966
üss	-2967
▁Sau	-2968
▁gesprochen	-2969
ket	-2970
▁90	-2971
essour	-2972
▁tragen	-2973
▁zerstör	-2974
ente	-2975
▁Lei	-2976
ummer	-2977
ologen	-2978
trauen	-2979
▁Karte	-2980
▁Aufmerksamkeit	-2981
▁Kat	-2982
▁Google	-2983
▁Hoffnung	-2984
▁begannen	-2985
▁Oberfläche	-2986
tikel	-2987
▁Büro	-2988
▁Hoch	-2989
▁Erinner	-2990
▁dachten	-2991
▁Pflanzen	-2992
▁wichtiger	-2993
mar	-2994
rate	-2995
lungen	-2996
▁Produkt	-2997
!"	-2998
to	-2999
atte	-3000
fess	-3001
twas	-3002
ussen	-3003
gendes	-3004
▁Super	-3005
▁Mitgefühl	-3006
▁He	-3007
flik	-3008
nern	-3009
üler	-3010
tiger	-3011
▁Dorf	-3012
▁Ganz	-3013
ration	-3014
osition	-3015
▁großer	-3016
▁Schulen	-3017
beh	-3018
win	-3019
pfen	-3020
▁pri	-3021
iegel	-3022
▁Wohl	-3023
▁moder	-3024
▁kosten	-3025
▁gleichzeitig	-3026
▁OK	-3027
igens	-3028
▁Bill	-3029
▁enor	-3030
▁Regeln	-3031
▁stimmt	-3032
▁verurs	-3033
▁tä	-3034
isst	-3035
▁Zent	-3036
▁ernst	-3037
▁finde	-3038
▁ähnlich	-3039
▁Kontrolle	-3040
▁Menschheit	-3041
▁HI	-3042
▁fre	-3043
▁Wind	-3044
▁gern	-3045
altung	-3046
indest	-3047
▁zuerst	-3048
▁Einfluss	-3049
▁ermöglich	-3050
▁Innovation	-3051
▁Ad	-3052
▁Glau	-3053
▁Terr	-3054
▁junge	-3055
ierende	-3056
▁Behand	-3057
▁bewegt	-3058
▁Demokratie	-3059
ment	-3060
▁Ben	-3061
▁bein	-3062
▁gebe	-3063
eltsam	-3064
▁Druck	-3065
▁Molek	-3066
ull	-3067
nete	-3068
▁Ange	-3069
▁David	-3070
rick	-3071
▁Fin	-3072
gende	-3073
▁näher	-3074
▁Seiten	-3075
▁Gruppen	-3076
▁gearbeitet	-3077
ton	-3078
ezies	-3079
laufen	-3080
▁überw	-3081
▁Physik	-3082
▁ansehen	-3083
▁kompliz	-3084
▁richtige	-3085
▁sozialen	-3086
▁Frü	-3087
▁ehr	-3088
▁tran	-3089
▁Regen	-3090
▁ihres	-3091
▁verfü	-3092
▁Reaktion	-3093
▁Bevölkerung	-3094
▁16	-3095
ivil	-3096
verb	-3097
▁abzu	-3098
▁älter	-3099
▁bedeuten	-3100
▁passierte	-3101
▁großartige	-3102
▁sahen	-3103
▁vorbei	-3104
▁fantast	-3105
ko	-3106
Wie	-3107
ath	-3108
▁Hel	-3109
stimm	-3110
▁Sohn	-3111
▁Chris	-3112
▁bestimmt	-3113
▁verlassen	-3114
ile	-3115
▁14	-3116
abel	-3117
▁Baum	-3118
schung	-3119
▁Armut	-3120
▁Meter	-3121
izieren	-3122
ständnis	-3123
pfer	-3124
▁HIV	-3125
▁schlechte	-3126
▁Gu	-3127
itel	-3128
▁bed	-3129
▁nahe	-3130
itution	-3131
▁Himmel	-3132
▁Versuch	-3133
▁Experiment	-3134
▁beobachten	-3135
▁prak	-3136
▁finanz	-3137
▁Ressour	-3138
▁bemerken	-3139
▁versuchte	-3140
▁bestimmten	-3141
apan	-3142
▁Rep	-3143
herap	-3144
▁Orte	-3145
▁Schn	-3146
▁lern	-3147
▁Genau	-3148
greifen	-3149
▁Wörter	-3150
▁ö	-3151
▁Engl	-3152
ferenz	-3153
schluss	-3154
▁Grenzen	-3155
50	-3156
letz	-3157
▁Kan	-3158
▁Auch	-3159
▁stud	-3160
▁einzelne	-3161
▁Universität	-3162
▁On	-3163
▁Th	-3164
feld	-3165
▁Wel	-3166
▁Gene	-3167
bracht	-3168
▁Studien	-3169
▁Funktion	-3170
stes	-3171
▁Arbei	-3172
▁wider	-3173
▁spezie	-3174
▁Konzept	-3175
▁medizin	-3176
go	-3177
rig	-3178
iell	-3179
elegen	-3180
▁natür	-3181
▁Zugang	-3182
▁bleibt	-3183
▁offensichtlich	-3184
ac	-3185
fre	-3186
wür	-3187
▁Fisch	-3188
▁sitzen	-3189
indigkeit	-3190
ry	-3191
ützt	-3192
▁Hig	-3193
▁Vis	-3194
▁verg	-3195
ausend	-3196
▁Monaten	-3197
▁Bot	-3198
▁Spaß	-3199
eitung	-3200
▁falls	-3201
▁bessere	-3202
▁anschauen	-3203
orfen	-3204
▁bald	-3205
▁Eines	-3206
▁ständig	-3207
▁arbeitet	-3208
▁Mathematik	-3209
ix	-3210
ins	-3211
▁Gra	-3212
▁fehl	-3213
▁verbessern	-3214
aup	-3215
oph	-3216
schir	-3217
machen	-3218
▁richtigen	-3219
ons	-3220
ppen	-3221
▁end	-3222
tiker	-3223
▁Orten	-3224
▁Stelle	-3225
▁Software	-3226
▁vergessen	-3227
if	-3228
▁Sc	-3229
abil	-3230
iker	-3231
tert	-3232
▁000	-3233
▁201	-3234
ombin	-3235
▁Schüler	-3236
▁anf	-3237
atist	-3238
quenz	-3239
▁Mehr	-3240
▁Park	-3241
▁bilden	-3242
▁Arbeits	-3243
▁Vergangen	-3244
▁verlieren	-3245
▁br	-3246
▁Trä	-3247
blich	-3248
▁Webs	-3249
gemein	-3250
▁invest	-3251
ologische	-3252
▁Beispiele	-3253
▁internation	-3254
aul	-3255
ählt	-3256
▁Galax	-3257
▁Prote	-3258
▁fertig	-3259
▁großes	-3260
▁kannst	-3261
▁voller	-3262
▁Nachbar	-3263
▁arbeitete	-3264
▁Krankheiten	-3265
▁nachzudenken	-3266
räfte	-3267
▁Zeug	-3268
▁Gebiet	-3269
zeichnet	-3270
met	-3271
org	-3272
▁Sex	-3273
▁Poliz	-3274
▁Morgen	-3275
▁Spezies	-3276
sto	-3277
tra	-3278
üch	-3279
▁Ak	-3280
▁Hü	-3281
ufen	-3282
▁blo	-3283
▁vis	-3284
ograph	-3285
▁erlaubt	-3286
▁Personen	-3287
arte	-3288
ickt	-3289
▁Kern	-3290
▁Tagen	-3291
▁deine	-3292
▁wussten	-3293
▁Bakterien	-3294
▁möglichen	-3295
eits	-3296
klär	-3297
▁Asp	-3298
kommt	-3299
▁dahin	-3300
▁links	-3301
▁Frieden	-3302
▁aussieht	-3303
▁Vergangenheit	-3304
▁17	-3305
▁La	-3306
dass	-3307
igar	-3308
▁Vol	-3309
▁Wür	-3310
▁Feuer	-3311
▁Hände	-3312
▁denkt	-3313
▁echte	-3314
▁Konflik	-3315
▁zumindest	-3316
stru	-3317
▁gewinnen	-3318
▁Wirklichkeit	-3319
äst	-3320
▁Oh	-3321
zähl	-3322
eisen	-3323
erven	-3324
genie	-3325
press	-3326
▁seltsam	-3327
mt	-3328
üll	-3329
▁Fe	-3330
otor	-3331
▁Gut	-3332
ielten	-3333
reitet	-3334
▁produzieren	-3335
ama	-3336
▁Ku	-3337
▁Zw	-3338
▁Ebene	-3339
▁Können	-3340
▁führte	-3341
▁gebracht	-3342
▁Ern	-3343
▁Uhr	-3344
ächen	-3345
▁Mich	-3346
werfen	-3347
troffen	-3348
▁Nachricht	-3349
▁Kommunikation	-3350
▁Miss	-3351
▁Fotos	-3352
▁Terror	-3353
▁Theorie	-3354
▁überraschen	-3355
Un	-3356
▁Ord	-3357
▁rep	-3358
ulation	-3359
▁gesamten	-3360
iter	-3361
▁reg	-3362
äufig	-3363
teilen	-3364
▁versuche	-3365
▁Ergebnisse	-3366
▁heutzutage	-3367
▁Entscheidung	-3368
mäß	-3369
▁70	-3370
▁Op	-3371
▁Jed	-3372
▁winz	-3373
▁Firmen	-3374
▁befinden	-3375
▁Geschäfts	-3376
▁Det	-3377
▁Ser	-3378
ildet	-3379
werke	-3380
▁umzu	-3381
zimmer	-3382
▁moral	-3383
▁Geschw	-3384
▁morgen	-3385
▁schreck	-3386
▁erzeugen	-3387
▁irgendwo	-3388
ov	-3389
stä	-3390
amer	-3391
falt	-3392
reib	-3393
▁Oper	-3394
▁Worte	-3395
▁Architektur	-3396
volle	-3397
▁Sign	-3398
▁Wand	-3399
folgen	-3400
utzung	-3401
▁Daher	-3402
▁Gerät	-3403
▁Leist	-3404
▁nenne	-3405
▁Bienen	-3406
▁Sekunden	-3407
▁trotzdem	-3408
▁interessante	-3409
äte	-3410
▁Bus	-3411
altet	-3412
▁Dien	-3413
▁alte	-3414
▁hilft	-3415
▁manche	-3416
▁einzelnen	-3417
itär	-3418
▁Sym	-3419
▁geh	-3420
▁gekommen	-3421
ail	-3422
▁Ir	-3423
▁My	-3424
ital	-3425
▁bau	-3426
▁Elem	-3427
▁Linie	-3428
▁Stamm	-3429
▁aufre	-3430
▁riesige	-3431
▁solchen	-3432
ith	-3433
leb	-3434
ckte	-3435
ktor	-3436
holen	-3437
orben	-3438
twend	-3439
▁Sand	-3440
▁traf	-3441
▁Bühne	-3442
▁sowohl	-3443
▁Telefon	-3444
▁Präs	-3445
▁spielt	-3446
▁Netzwerk	-3447
▁erfahren	-3448
▁verbinden	-3449
▁Regierungen	-3450
▁et	-3451
eter	-3452
▁Gefü	-3453
▁stär	-3454
tierte	-3455
▁Kampf	-3456
▁Relig	-3457
▁Objekt	-3458
▁keiner	-3459
▁erklärt	-3460
▁entdecken	-3461
▁Auswirkungen	-3462
hang	-3463
▁Rau	-3464
sprach	-3465
stelle	-3466
▁Formen	-3467
ativität	-3468
▁Medikamen	-3469
▁unmöglich	-3470
Sp	-3471
sei	-3472
▁CO	-3473
merz	-3474
▁kaum	-3475
▁Gefäng	-3476
▁globalen	-3477
▁geschehen	-3478
▁Ressourcen	-3479
haf	-3480
grün	-3481
▁Ker	-3482
ffekt	-3483
▁uner	-3484
astrop	-3485
▁Invest	-3486
▁runter	-3487
▁Nahrung	-3488
grupp	-3489
scher	-3490
▁Vert	-3491
▁Monat	-3492
licherweise	-3493
▁Amerikaner	-3494
▁Wahrscheinlich	-3495
▁Nä	-3496
ehme	-3497
rist	-3498
schön	-3499
▁Heim	-3500
▁rund	-3501
wenden	-3502
änomen	-3503
▁Bezug	-3504
ffizien	-3505
peratur	-3506
▁sodass	-3507
▁aufgrund	-3508
▁ermöglicht	-3509
arm	-3510
anter	-3511
leist	-3512
sprün	-3513
▁Haut	-3514
▁hält	-3515
schritt	-3516
▁Landes	-3517
▁organis	-3518
▁bestimmte	-3519
▁tradition	-3520
hy	-3521
ou	-3522
▁21	-3523
ball	-3524
indet	-3525
▁erhö	-3526
assung	-3527
▁Meeres	-3528
▁jungen	-3529
▁retten	-3530
▁Glauben	-3531
▁dadurch	-3532
▁positiv	-3533
fg	-3534
ude	-3535
▁of	-3536
aben	-3537
▁Kur	-3538
▁psych	-3539
▁Organisation	-3540
▁198	-3541
▁neun	-3542
otwend	-3543
ssystem	-3544
ständig	-3545
▁irgendw	-3546
▁leisten	-3547
▁Verantwort	-3548
▁untersuchen	-3549
Oh	-3550
▁13	-3551
netz	-3552
umor	-3553
▁Eng	-3554
▁hab	-3555
▁tie	-3556
reise	-3557
▁Baby	-3558
▁Diag	-3559
▁Höhe	-3560
▁Kollegen	-3561
▁entdeckt	-3562
ologischen	-3563
aktiv	-3564
▁dritte	-3565
▁Erwachsen	-3566
▁Schlüssel	-3567
abr	-3568
gest	-3569
▁hol	-3570
emand	-3571
▁danke	-3572
ingungen	-3573
▁einander	-3574
▁betrachtet	-3575
▁Bas	-3576
▁Mars	-3577
▁Stre	-3578
▁dest	-3579
ierter	-3580
nungen	-3581
zahlen	-3582
▁Geräu	-3583
mitteln	-3584
▁Entdeck	-3585
▁gefragt	-3586
up	-3587
buch	-3588
iver	-3589
▁aut	-3590
asche	-3591
▁Chance	-3592
▁Geheim	-3593
▁verste	-3594
zunehmen	-3595
▁Gelegen	-3596
▁Ingenie	-3597
▁Methode	-3598
▁Systeme	-3599
▁sammeln	-3600
▁großartig	-3601
▁Verständnis	-3602
▁entschieden	-3603
uhr	-3604
seum	-3605
▁fing	-3606
▁Sinne	-3607
▁hörte	-3608
▁zeigte	-3609
▁schlimm	-3610
▁Flugzeug	-3611
▁Freiheit	-3612
▁verstanden	-3613
ährt	-3614
reche	-3615
stoffe	-3616
▁läuft	-3617
▁reduz	-3618
▁rechts	-3619
▁Ordnung	-3620
▁bestehen	-3621
▁normalerweise	-3622
▁Tr	-3623
dell	-3624
▁lebt	-3625
▁wann	-3626
tation	-3627
▁Zivil	-3628
▁Lernen	-3629
▁gewöhn	-3630
arbeiter	-3631
ierenden	-3632
schu	-3633
▁Lau	-3634
▁Tim	-3635
unger	-3636
▁Berg	-3637
▁Verl	-3638
aschen	-3639
ildern	-3640
ometer	-3641
▁Million	-3642
▁herausfinden	-3643
unt	-3644
ürf	-3645
fghan	-3646
▁Brust	-3647
▁Wesen	-3648
▁Geburt	-3649
▁Gehirns	-3650
▁arbeite	-3651
▁gestellt	-3652
▁übrigens	-3653
▁amerikanischen	-3654
fra	-3655
▁1,	-3656
▁Hy	-3657
önen	-3658
▁zufä	-3659
stände	-3660
▁Jahres	-3661
▁Transp	-3662
gleichen	-3663
▁zweiten	-3664
▁erzählte	-3665
▁schützen	-3666
▁Maschinen	-3667
lam	-3668
▁Lö	-3669
ekte	-3670
stre	-3671
▁tau	-3672
alist	-3673
▁gene	-3674
rochen	-3675
▁unver	-3676
▁Klimaw	-3677
▁Nerven	-3678
▁handelt	-3679
▁diejenigen	-3680
bet	-3681
tau	-3682
ürz	-3683
▁op	-3684
▁äu	-3685
alle	-3686
inder	-3687
▁Herr	-3688
▁Hirn	-3689
▁Inse	-3690
▁Sozi	-3691
▁höch	-3692
▁Außer	-3693
▁Verfü	-3694
▁hinge	-3695
▁Englisch	-3696
▁außerhalb	-3697
▁geschaffen	-3698
▁Krankenhaus	-3699
ct	-3700
ette	-3701
deten	-3702
▁Fluss	-3703
▁König	-3704
▁Gründe	-3705
▁kommun	-3706
arf	-3707
orn	-3708
▁Vo	-3709
▁ca	-3710
nehm	-3711
stern	-3712
▁Regel	-3713
▁befindet	-3714
ym	-3715
reg	-3716
Nein	-3717
ynam	-3718
▁eff	-3719
ießen	-3720
▁mäch	-3721
barkeit	-3722
▁Partner	-3723
▁einzigen	-3724
▁Bri	-3725
▁grü	-3726
▁Farbe	-3727
spektiv	-3728
▁messen	-3729
▁warten	-3730
möglichen	-3731
▁Designer	-3732
urg	-3733
▁Sa	-3734
zwei	-3735
riere	-3736
▁Disk	-3737
frikan	-3738
▁Besch	-3739
▁Damit	-3740
▁entwe	-3741
▁taten	-3742
unächst	-3743
▁Beginn	-3744
▁Jungen	-3745
▁behaup	-3746
▁bisher	-3747
▁Schönheit	-3748
▁grundlegen	-3749
lern	-3750
lose	-3751
onie	-3752
▁Bis	-3753
▁The	-3754
folge	-3755
schirm	-3756
▁Liebl	-3757
▁Finanz	-3758
▁Herzen	-3759
▁Artikel	-3760
stellungen	-3761
vat	-3762
▁Arzt	-3763
▁Wege	-3764
▁gesp	-3765
▁Drogen	-3766
▁herunter	-3767
▁Interesse	-3768
▁Behandlung	-3769
▁Wi	-3770
▁lag	-3771
enken	-3772
istor	-3773
dienen	-3774
gebaut	-3775
brechen	-3776
▁ebenso	-3777
▁herstellen	-3778
Ge	-3779
oge	-3780
stu	-3781
mann	-3782
ügen	-3783
üste	-3784
▁Wol	-3785
▁welcher	-3786
▁einfachen	-3787
▁Beziehungen	-3788
▁unterstützen	-3789
▁Mc	-3790
▁Win	-3791
▁bri	-3792
▁Noch	-3793
▁krei	-3794
▁Gespr	-3795
▁Poten	-3796
▁berühm	-3797
▁getroffen	-3798
Ja	-3799
kur	-3800
▁Ant	-3801
▁bean	-3802
▁Abend	-3803
▁Traum	-3804
mension	-3805
▁verhin	-3806
▁Lösungen	-3807
▁öffentlichen	-3808
aur	-3809
kam	-3810
▁Än	-3811
gibt	-3812
masch	-3813
produ	-3814
▁Anal	-3815
▁Finger	-3816
▁Nummer	-3817
▁Wunder	-3818
▁selben	-3819
▁mehrere	-3820
▁erwarten	-3821
▁Erfahrungen	-3822
schte	-3823
▁Quad	-3824
▁seines	-3825
vie	-3826
ourn	-3827
sser	-3828
▁akt	-3829
▁unge	-3830
passen	-3831
▁Ereig	-3832
▁benutz	-3833
zut	-3834
▁Cl	-3835
▁Ra	-3836
iels	-3837
stütz	-3838
imente	-3839
selben	-3840
ätzlich	-3841
▁Einzel	-3842
▁National	-3843
▁heutigen	-3844
War	-3845
hnt	-3846
urm	-3847
gnor	-3848
orge	-3849
▁Fen	-3850
▁Lond	-3851
▁umge	-3852
▁Inner	-3853
schiede	-3854
▁Kamera	-3855
▁Punkte	-3856
▁Instrum	-3857
▁Einkommen	-3858
▁Zeitpunkt	-3859
▁Veränderungen	-3860
bed	-3861
seh	-3862
öse	-3863
stag	-3864
such	-3865
▁Mär	-3866
▁Somm	-3867
▁belie	-3868
▁kultur	-3869
▁Erkennt	-3870
▁Komplex	-3871
▁entweder	-3872
▁San	-3873
achtet	-3874
fassen	-3875
▁sowie	-3876
wendung	-3877
▁Zeiten	-3878
dre	-3879
will	-3880
fälle	-3881
itann	-3882
maßen	-3883
▁Fakt	-3884
▁Name	-3885
▁drin	-3886
▁inte	-3887
▁Schwar	-3888
▁voraus	-3889
▁Gefängnis	-3890
Ver	-3891
▁schn	-3892
▁Tisch	-3893
▁Ärzte	-3894
gefunden	-3895
▁hundert	-3896
▁dasselbe	-3897
▁intelligen	-3898
▁Jahrhunderts	-3899
Es	-3900
ca	-3901
hre	-3902
▁Ok	-3903
▁Bio	-3904
ahmen	-3905
ument	-3906
▁Mitt	-3907
▁phys	-3908
▁setz	-3909
schrän	-3910
▁Einer	-3911
▁selten	-3912
▁außergewöhn	-3913
ane	-3914
▁kn	-3915
ails	-3916
gien	-3917
webe	-3918
eller	-3919
konom	-3920
krieg	-3921
▁Ball	-3922
▁Wohn	-3923
▁erwei	-3924
▁Stunde	-3925
▁Manchmal	-3926
▁erfunden	-3927
▁schicken	-3928
▁Industrie	-3929
▁verkaufen	-3930
▁unglaubliche	-3931
techn	-3932
unsch	-3933
ütter	-3934
▁cool	-3935
▁desto	-3936
▁äußer	-3937
▁Teilen	-3938
▁Worten	-3939
▁wenige	-3940
kung	-3941
▁Fel	-3942
▁Flü	-3943
▁hart	-3944
▁lust	-3945
▁vert	-3946
▁Japan	-3947
▁durchge	-3948
▁Produkte	-3949
maß	-3950
▁Pr	-3951
▁he	-3952
astik	-3953
isser	-3954
▁Auge	-3955
▁Jedes	-3956
▁Kreis	-3957
zusagen	-3958
▁wesent	-3959
▁ehrlich	-3960
▁ebenfalls	-3961
▁Leidenschaft	-3962
ka	-3963
▁km	-3964
hilfe	-3965
sagen	-3966
▁Komm	-3967
rücken	-3968
▁fällt	-3969
entlich	-3970
tischer	-3971
ulieren	-3972
▁Risiko	-3973
▁erleben	-3974
▁erinnere	-3975
▁Eigenschaften	-3976
anke	-3977
iete	-3978
räge	-3979
tiges	-3980
▁erle	-3981
▁jene	-3982
schutz	-3983
▁guter	-3984
▁gutes	-3985
▁nahmen	-3986
▁Individu	-3987
▁Projekte	-3988
alisierung	-3989
frastruktur	-3990
▁.	-3991
▁Haben	-3992
▁Farben	-3993
▁Freude	-3994
▁Schutz	-3995
▁emotion	-3996
▁gedacht	-3997
▁Vergleich	-3998
▁behandeln	-3999
▁Intelligen	-4000
▁Institution	-4001
kos	-4002
anda	-4003
sinn	-4004
▁500	-4005
▁London	-4006
▁fühlte	-4007
▁eigenes	-4008
▁Position	-4009
▁jemandem	-4010
▁Charakter	-4011
▁Verfügung	-4012
▁Kreativität	-4013
bald	-4014
ikas	-4015
oper	-4016
swer	-4017
weil	-4018
tember	-4019
▁Manche	-4020
itannien	-4021
▁unabhäng	-4022
▁wunderbar	-4023
forn	-4024
▁mer	-4025
bewer	-4026
dings	-4027
stieg	-4028
wärts	-4029
▁Junge	-4030
aliforn	-4031
▁globale	-4032
▁überleben	-4033
ana	-4034
kop	-4035
▁Erf	-4036
▁för	-4037
▁kri	-4038
Warum	-4039
seite	-4040
raucht	-4041
▁zeich	-4042
▁Afghan	-4043
▁frühen	-4044
▁lernte	-4045
▁Zustand	-4046
▁verrückt	-4047
▁Materialien	-4048
▁durchschnitt	-4049
prü	-4050
▁on	-4051
eigt	-4052
▁ans	-4053
▁wün	-4054
▁Liste	-4055
▁Werte	-4056
alismus	-4057
▁Bedürf	-4058
▁Tieren	-4059
▁Waffen	-4060
▁konzentrieren	-4061
"-	-4062
amb	-4063
gän	-4064
wech	-4065
▁Pal	-4066
lagen	-4067
▁Iden	-4068
▁bill	-4069
▁Suche	-4070
▁Ahnung	-4071
▁sobald	-4072
▁nachhal	-4073
oo	-4074
vel	-4075
flanz	-4076
frika	-4077
gress	-4078
▁Krie	-4079
▁Wald	-4080
▁fangen	-4081
▁Fenster	-4082
▁Statist	-4083
ID	-4084
eien	-4085
entr	-4086
rael	-4087
▁Pil	-4088
mmern	-4089
▁Grad	-4090
▁Kurz	-4091
▁mitt	-4092
erstoff	-4093
frieden	-4094
▁trifft	-4095
▁Biologie	-4096
▁Phänomen	-4097
▁größeren	-4098
▁angefangen	-4099
irt	-4100
ames	-4101
orgt	-4102
▁Ast	-4103
ielle	-4104
bieren	-4105
ochter	-4106
▁Schrift	-4107
britannien	-4108
▁Verantwortung	-4109
abe	-4110
othe	-4111
tend	-4112
▁komme	-4113
▁Region	-4114
▁öffnen	-4115
▁Freunden	-4116
sellschaft	-4117
▁Werkzeuge	-4118
▁24	-4119
▁Del	-4120
▁Sommer	-4121
▁geschah	-4122
▁Antworten	-4123
▁existiert	-4124
geg	-4125
▁Bu	-4126
▁Spr	-4127
vollen	-4128
setzung	-4129
▁gegangen	-4130
▁verbringen	-4131
Er	-4132
len	-4133
▁Mö	-4134
inos	-4135
hause	-4136
tifiz	-4137
▁Arme	-4138
▁Fran	-4139
▁Rede	-4140
▁iden	-4141
▁wirk	-4142
rachte	-4143
vention	-4144
▁Museum	-4145
▁Spitze	-4146
▁erzeugt	-4147
▁erstaunlich	-4148
ilt	-4149
ums	-4150
ärm	-4151
cebo	-4152
▁Kol	-4153
▁dür	-4154
▁kor	-4155
unkel	-4156
▁Erst	-4157
tigung	-4158
▁Bäume	-4159
▁Gehir	-4160
▁Zelle	-4161
▁verbl	-4162
ichtbar	-4163
▁Jahrzeh	-4164
▁Plastik	-4165
▁ursprün	-4166
▁Ausdruck	-4167
▁Unterstütz	-4168
▁aufgenommen	-4169
▁ermöglichen	-4170
▁kontrollieren	-4171
An	-4172
ammt	-4173
gier	-4174
ulti	-4175
▁197	-4176
▁eng	-4177
▁Nähe	-4178
▁echt	-4179
▁gehe	-4180
▁hört	-4181
▁west	-4182
utlich	-4183
▁Ansatz	-4184
▁Schiff	-4185
▁Westen	-4186
▁häufig	-4187
minister	-4188
▁Sauerstoff	-4189
iesen	-4190
ennung	-4191
▁Organ	-4192
▁entsp	-4193
ktionen	-4194
▁Klassen	-4195
▁Männern	-4196
▁Schluss	-4197
▁Tochter	-4198
▁spreche	-4199
▁begonnen	-4200
geschichte	-4201
▁Überleben	-4202
▁Gelegenheit	-4203
▁herzustellen	-4204
▁Infrastruktur	-4205
bü	-4206
▁,	-4207
▁Osten	-4208
▁Strate	-4209
▁chines	-4210
▁fallen	-4211
▁leiden	-4212
▁präsen	-4213
▁Erstens	-4214
▁Gefühle	-4215
▁genutzt	-4216
▁Karriere	-4217
▁einzigar	-4218
▁entstehen	-4219
▁Gi	-4220
auert	-4221
lange	-4222
stadt	-4223
▁Drei	-4224
stellte	-4225
hö	-4226
bol	-4227
▁Fo	-4228
▁Nor	-4229
▁typ	-4230
tiere	-4231
▁Wider	-4232
eutlich	-4233
haltung	-4234
▁wählen	-4235
zeichnen	-4236
▁größere	-4237
▁notwend	-4238
▁geschafft	-4239
üsse	-4240
▁300	-4241
▁Anti	-4242
führer	-4243
drücken	-4244
▁Knochen	-4245
▁entlang	-4246
▁handeln	-4247
▁Medikamente	-4248
▁Großbritannien	-4249
ami	-4250
bruch	-4251
▁Klei	-4252
▁ließ	-4253
formen	-4254
schauen	-4255
▁Häuser	-4256
▁Version	-4257
▁kämpfen	-4258
▁Nahrungs	-4259
▁riesigen	-4260
▁verantwort	-4261
fil	-4262
mel	-4263
▁di	-4264
text	-4265
▁Ins	-4266
frage	-4267
hlten	-4268
▁Glas	-4269
▁Müll	-4270
▁dank	-4271
▁nutz	-4272
nissen	-4273
orgung	-4274
rischen	-4275
▁Nehmen	-4276
▁bezahl	-4277
mosphäre	-4278
spektive	-4279
▁Polizei	-4280
▁mittler	-4281
▁Neuronen	-4282
▁Vielfalt	-4283
▁erlauben	-4284
▁Wirtschafts	-4285
▁Ep	-4286
ächt	-4287
▁Ele	-4288
▁Mut	-4289
atter	-4290
tität	-4291
▁Mond	-4292
▁nütz	-4293
▁trau	-4294
riffen	-4295
▁Massen	-4296
▁erwähn	-4297
▁irgendein	-4298
▁beeinflusst	-4299
ain	-4300
leun	-4301
otograf	-4302
▁Konsum	-4303
▁schaut	-4304
▁afrikan	-4305
▁dorthin	-4306
▁Interess	-4307
▁brauchte	-4308
▁deutlich	-4309
▁reagieren	-4310
▁Verhaltens	-4311
ört	-4312
▁iP	-4313
▁196	-4314
ilien	-4315
schlä	-4316
▁Brot	-4317
▁Todes	-4318
▁Karten	-4319
▁einfacher	-4320
▁Universums	-4321
▁Komplexität	-4322
▁Verbindungen	-4323
▁beeinflussen	-4324
▁Geschwindigkeit	-4325
SA	-4326
cy	-4327
ged	-4328
▁Denk	-4329
▁High	-4330
▁Rich	-4331
▁Will	-4332
▁flie	-4333
▁gilt	-4334
ations	-4335
▁fragt	-4336
▁niedr	-4337
▁sogen	-4338
kosystem	-4339
alisieren	-4340
▁Religion	-4341
▁Standard	-4342
▁Werkzeug	-4343
▁Botschaft	-4344
▁Entwicklungsl	-4345
▁Ei	-4346
Wenn	-4347
dent	-4348
holt	-4349
▁Sen	-4350
ident	-4351
▁Dort	-4352
▁Hall	-4353
▁Loch	-4354
indust	-4355
▁fühlt	-4356
▁langen	-4357
▁transp	-4358
▁endlich	-4359
▁wichtigsten	-4360
stab	-4361
mögen	-4362
neten	-4363
▁Prot	-4364
▁nehme	-4365
führung	-4366
▁Hunder	-4367
▁ändert	-4368
▁Begriff	-4369
▁Rä	-4370
▁Mir	-4371
atell	-4372
▁früh	-4373
▁Schlag	-4374
▁online	-4375
▁Ameisen	-4376
▁Materie	-4377
▁Insekten	-4378
▁produziert	-4379
▁Fortschritt	-4380
▁Gesellschaften	-4381
omin	-4382
▁Dis	-4383
▁Web	-4384
▁jün	-4385
akten	-4386
heben	-4387
▁Blog	-4388
▁Holz	-4389
▁Vari	-4390
▁Wett	-4391
cebook	-4392
änderte	-4393
▁Spielen	-4394
▁Facebook	-4395
▁Temperatur	-4396
▁politische	-4397
sh	-4398
üh	-4399
acken	-4400
igung	-4401
▁Heil	-4402
▁blie	-4403
▁Typen	-4404
▁fühle	-4405
▁hielt	-4406
▁kenne	-4407
▁legen	-4408
▁Klasse	-4409
▁Spiele	-4410
▁entsteht	-4411
▁stellten	-4412
▁weiterhin	-4413
▁Zusammenarbeit	-4414
dio	-4415
esp	-4416
zur	-4417
▁nö	-4418
gere	-4419
▁abst	-4420
▁okay	-4421
fallen	-4422
ährung	-4423
▁Beruf	-4424
▁Kohlen	-4425
▁kostet	-4426
▁Zentrum	-4427
▁dritten	-4428
▁vertrau	-4429
industrie	-4430
▁Produktion	-4431
▁überzeugen	-4432
▁Afghanistan	-4433
▁politischen	-4434
▁Durchschnitt	-4435
fäl	-4436
rug	-4437
pfel	-4438
view	-4439
älte	-4440
▁Sal	-4441
▁sex	-4442
ologe	-4443
osoph	-4444
▁Gold	-4445
istenz	-4446
▁Autor	-4447
▁Einsatz	-4448
▁entschied	-4449
▁Klimawandel	-4450
▁Zusammenhang	-4451
IDS	-4452
how	-4453
reu	-4454
spl	-4455
geht	-4456
ling	-4457
okra	-4458
▁Kir	-4459
eitet	-4460
▁habt	-4461
recher	-4462
▁seien	-4463
▁Kunden	-4464
▁nation	-4465
▁Unterschiede	-4466
fs	-4467
lim	-4468
ost	-4469
gern	-4470
mung	-4471
wahr	-4472
▁Kop	-4473
▁Tel	-4474
losen	-4475
▁anal	-4476
▁buch	-4477
▁inst	-4478
▁Opfer	-4479
steller	-4480
▁Wunsch	-4481
▁Städten	-4482
▁verkauft	-4483
▁Unterstützung	-4484
uk	-4485
anne	-4486
ämpf	-4487
▁Ken	-4488
impan	-4489
▁Brie	-4490
▁Deut	-4491
▁Eins	-4492
digung	-4493
iertel	-4494
spielt	-4495
wohner	-4496
▁Vision	-4497
▁passen	-4498
▁Gewicht	-4499
▁dagegen	-4500
▁Aufgaben	-4501
▁effektiv	-4502
▁gewonnen	-4503
▁Konferenz	-4504
▁Vertrauen	-4505
kn	-4506
vis	-4507
▁Hil	-4508
▁Hor	-4509
▁Pop	-4510
▁Tal	-4511
etter	-4512
markt	-4513
▁Band	-4514
▁Jede	-4515
▁Seit	-4516
▁krie	-4517
▁Babys	-4518
▁Klima	-4519
▁Schei	-4520
▁Virus	-4521
▁Vogel	-4522
▁Altern	-4523
zwischen	-4524
▁Objekte	-4525
zubringen	-4526
▁sü	-4527
renz	-4528
▁Bud	-4529
▁Zit	-4530
▁ind	-4531
▁2000	-4532
▁Haar	-4533
▁Jobs	-4534
▁Journ	-4535
tierten	-4536
▁Diskuss	-4537
▁Sekunde	-4538
▁Zeichen	-4539
▁Schimpan	-4540
▁behandelt	-4541
▁Intelligenz	-4542
▁Kö	-4543
afen	-4544
agne	-4545
tiver	-4546
▁Fein	-4547
▁Szen	-4548
▁vern	-4549
▁Genom	-4550
▁Offen	-4551
▁Reich	-4552
▁Titel	-4553
▁Jugend	-4554
▁verfüg	-4555
▁Richard	-4556
▁schafft	-4557
▁benötigen	-4558
▁Ausbildung	-4559
▁saß	-4560
dingt	-4561
laden	-4562
▁Letz	-4563
▁davor	-4564
aterial	-4565
▁Result	-4566
▁ganzes	-4567
▁klingt	-4568
▁letztes	-4569
▁modernen	-4570
▁Fernsehen	-4571
▁begeister	-4572
▁erstellen	-4573
▁erforschen	-4574
▁verursacht	-4575
Sie	-4576
amin	-4577
sver	-4578
▁Red	-4579
auran	-4580
lecht	-4581
▁Satz	-4582
▁akzep	-4583
dimension	-4584
▁Soldaten	-4585
ungssystem	-4586
▁Kilometer	-4587
▁Atmosphäre	-4588
▁Hintergrund	-4589
▁Landwirtschaft	-4590
ong	-4591
ikal	-4592
kauf	-4593
▁Los	-4594
▁Mex	-4595
▁Tre	-4596
immen	-4597
▁Auft	-4598
▁chem	-4599
▁spür	-4600
▁Handy	-4601
▁neuer	-4602
schloss	-4603
▁Drittel	-4604
▁Schwier	-4605
forschung	-4606
▁Forscher	-4607
▁überzeugt	-4608
▁übertragen	-4609
por	-4610
▁Bef	-4611
frist	-4612
halte	-4613
rücke	-4614
▁Eind	-4615
▁Iran	-4616
▁darf	-4617
▁erfü	-4618
derung	-4619
▁dauer	-4620
▁gaben	-4621
▁solch	-4622
klärung	-4623
▁Privat	-4624
▁Wandel	-4625
▁selber	-4626
alifornien	-4627
▁investieren	-4628
die	-4629
ruf	-4630
sse	-4631
otyp	-4632
▁Che	-4633
haben	-4634
ätsel	-4635
▁Gang	-4636
▁Affen	-4637
bereich	-4638
entwick	-4639
spieler	-4640
▁Kontakt	-4641
▁Zivilis	-4642
▁Gemeinde	-4643
▁Qualität	-4644
▁betrifft	-4645
▁dieselbe	-4646
▁unbedingt	-4647
tu	-4648
arch	-4649
ptop	-4650
▁Rom	-4651
krebs	-4652
schau	-4653
▁Kein	-4654
▁Stär	-4655
▁spiel	-4656
▁Online	-4657
▁hinweg	-4658
▁steigen	-4659
▁umgehen	-4660
▁erinnert	-4661
▁weiteres	-4662
▁Untersuch	-4663
asi	-4664
ford	-4665
keln	-4666
▁See	-4667
▁zuk	-4668
appen	-4669
zelle	-4670
▁Fach	-4671
▁Feld	-4672
▁West	-4673
▁ober	-4674
▁Schau	-4675
▁zentr	-4676
▁Kontin	-4677
▁alleine	-4678
▁Identität	-4679
▁verbreitet	-4680
▁beschreiben	-4681
▁wunderschön	-4682
▁Organisationen	-4683
▁herausgefunden	-4684
je	-4685
rup	-4686
▁Vö	-4687
▁us	-4688
▁Not	-4689
▁rel	-4690
ektor	-4691
ffent	-4692
▁Frank	-4693
▁gewal	-4694
▁Rücken	-4695
▁Sterne	-4696
▁lautet	-4697
athemati	-4698
sächlich	-4699
▁wiederum	-4700
▁verdienen	-4701
▁beschäftigt	-4702
▁entwickelten	-4703
üle	-4704
chtz	-4705
▁Gar	-4706
▁ant	-4707
eligi	-4708
▁Abst	-4709
▁Basis	-4710
herapie	-4711
▁Dienst	-4712
▁Fällen	-4713
▁Niemand	-4714
▁Profess	-4715
▁Korallen	-4716
▁benötigt	-4717
▁vollkommen	-4718
wissenschaft	-4719
▁Bedingungen	-4720
▁kommunizieren	-4721
ada	-4722
bank	-4723
iven	-4724
▁Dir	-4725
▁Wal	-4726
▁Paar	-4727
▁künst	-4728
▁sitzt	-4729
▁Themen	-4730
▁drehen	-4731
▁zukünf	-4732
undament	-4733
▁Mitglie	-4734
▁Wichtig	-4735
▁geführt	-4736
▁rechten	-4737
▁stecken	-4738
▁außerdem	-4739
0,	-4740
Re	-4741
digt	-4742
mmet	-4743
▁Dre	-4744
folgt	-4745
▁Gest	-4746
▁Irak	-4747
▁Verm	-4748
▁Zusch	-4749
▁haupt	-4750
▁spezi	-4751
▁verwir	-4752
▁Bildern	-4753
▁Einfach	-4754
▁buchstä	-4755
▁zurückzu	-4756
▁veröffentlicht	-4757
gs	-4758
ieß	-4759
ipp	-4760
▁Tw	-4761
▁at	-4762
bern	-4763
lege	-4764
▁Rat	-4765
▁Zwe	-4766
▁daß	-4767
▁Graf	-4768
▁auss	-4769
▁bloß	-4770
▁disk	-4771
▁geha	-4772
wirken	-4773
▁Trick	-4774
hältnis	-4775
▁Geräte	-4776
▁Nutzen	-4777
▁leider	-4778
programm	-4779
▁Führung	-4780
▁erwartet	-4781
▁gestalten	-4782
▁sozusagen	-4783
▁Lebensmittel	-4784
,"	-4785
hi	-4786
eils	-4787
▁Lang	-4788
iellen	-4789
▁tolle	-4790
▁wirst	-4791
organis	-4792
▁Satell	-4793
▁erstes	-4794
▁werfen	-4795
▁Kindheit	-4796
▁Tradition	-4797
▁auseinander	-4798
griff	-4799
urcht	-4800
▁Auss	-4801
▁grau	-4802
leisch	-4803
▁Kaffe	-4804
▁Masse	-4805
▁absch	-4806
▁dreht	-4807
geladen	-4808
quenzen	-4809
sichtig	-4810
▁Modelle	-4811
▁anderem	-4812
ungskraft	-4813
▁Milliarde	-4814
▁sicherlich	-4815
ox	-4816
grö	-4817
▁20.	-4818
▁Säu	-4819
▁prä	-4820
hafte	-4821
▁Kann	-4822
▁Lern	-4823
▁Paul	-4824
▁Text	-4825
aurier	-4826
▁Angel	-4827
▁Motor	-4828
▁töten	-4829
meister	-4830
▁bezahlen	-4831
▁individu	-4832
▁zufällig	-4833
▁praktisch	-4834
▁Bildschirm	-4835
▁Em	-4836
hört	-4837
serv	-4838
lette	-4839
▁Fabr	-4840
▁ausl	-4841
▁entw	-4842
▁vorh	-4843
▁Statt	-4844
▁Stoff	-4845
spielen	-4846
zeichen	-4847
▁Schwei	-4848
▁schöne	-4849
alisiert	-4850
richtung	-4851
▁Depress	-4852
▁Gesetze	-4853
▁Wahrnehm	-4854
▁besitzen	-4855
▁scheinen	-4856
▁vermutlich	-4857
▁Interaktion	-4858
Der	-4859
ace	-4860
änn	-4861
▁As	-4862
dige	-4863
ingu	-4864
iste	-4865
▁usw	-4866
etten	-4867
fügen	-4868
raben	-4869
zität	-4870
▁Bett	-4871
▁lief	-4872
iziert	-4873
zeiten	-4874
▁Keine	-4875
gewicht	-4876
▁Nichts	-4877
▁Sprachen	-4878
▁durchgeführt	-4879
Du	-4880
kri	-4881
ley	-4882
ehnt	-4883
▁Jul	-4884
fisch	-4885
macht	-4886
orien	-4887
▁Golf	-4888
▁Hund	-4889
▁sinn	-4890
jekten	-4891
▁Colle	-4892
▁weiss	-4893
▁wohin	-4894
ächtnis	-4895
▁einsch	-4896
▁steckt	-4897
▁nächstes	-4898
▁natürliche	-4899
▁verhindern	-4900
▁Ed	-4901
alte	-4902
icks	-4903
▁Mos	-4904
▁Syn	-4905
ächer	-4906
▁Port	-4907
▁steu	-4908
▁Mobil	-4909
▁Bauern	-4910
▁Erzähl	-4911
▁antwor	-4912
▁bitten	-4913
▁Schmerz	-4914
▁gegensei	-4915
▁repräsen	-4916
▁buchstäblich	-4917
▁interagieren	-4918
klus	-4919
▁Tex	-4920
▁Fest	-4921
▁Sehr	-4922
▁virt	-4923
andels	-4924
oppelt	-4925
▁Außen	-4926
▁Beine	-4927
▁Beste	-4928
▁Train	-4929
▁eröff	-4930
▁ignor	-4931
jährige	-4932
▁glaubt	-4933
▁religi	-4934
▁Leistung	-4935
▁Teilchen	-4936
▁Problemen	-4937
▁Erinnerung	-4938
uz	-4939
cks	-4940
band	-4941
fter	-4942
▁Ans	-4943
▁Zur	-4944
acher	-4945
▁Sein	-4946
▁hängt	-4947
▁Sorgen	-4948
▁kümmern	-4949
▁Galaxien	-4950
▁besseren	-4951
▁tausende	-4952
▁Präsident	-4953
▁einsetzen	-4954
▁schließen	-4955
▁verfolgen	-4956
▁wunderbare	-4957
▁überrascht	-4958
▁Institutionen	-4959
wood	-4960
▁Arg	-4961
▁Con	-4962
platz	-4963
▁Chir	-4964
▁Ecke	-4965
▁ausb	-4966
▁Stein	-4967
▁stolz	-4968
▁Gefahr	-4969
▁Israel	-4970
▁Videos	-4971
▁berech	-4972
▁erhält	-4973
▁sauber	-4974
▁sorgen	-4975
maschine	-4976
stellten	-4977
▁Patient	-4978
▁fragten	-4979
▁Elektron	-4980
▁Großteil	-4981
▁Gegenteil	-4982
▁verwandeln	-4983
rt	-4984
pre	-4985
rän	-4986
▁Sei	-4987
beweg	-4988
tigte	-4989
▁Bank	-4990
▁Mark	-4991
▁dunk	-4992
▁kürz	-4993
▁laut	-4994
▁Filme	-4995
▁Jungs	-4996
▁Staat	-4997
▁Stift	-4998
▁hohen	-4999
achtung	-5000
▁Heimat	-5001
▁kurzen	-5002
▁Kontext	-5003
▁falsche	-5004
indestens	-5005
▁Verstand	-5006
▁gelangen	-5007
▁entwerfen	-5008
▁Strukturen	-5009
rid	-5010
anst	-5011
▁Sep	-5012
▁verr	-5013
afrika	-5014
modell	-5015
treten	-5016
teilung	-5017
▁Meilen	-5018
▁dürfen	-5019
▁Gründen	-5020
▁fotograf	-5021
▁zunehmen	-5022
richtungen	-5023
▁verbracht	-5024
▁möglicherweise	-5025
lt	-5026
▁1.	-5027
idem	-5028
▁Log	-5029
rische	-5030
▁Seine	-5031
▁Gewebe	-5032
▁lieber	-5033
▁schlie	-5034
jährigen	-5035
▁täglich	-5036
▁irgendwann	-5037
▁Kohlenstoff	-5038
ffentlichkeit	-5039
▁interessanter	-5040
MS	-5041
tä	-5042
mon	-5043
▁Ol	-5044
adem	-5045
▁400	-5046
▁Bal	-5047
▁Col	-5048
eiste	-5049
▁Frem	-5050
▁Schr	-5051
sweise	-5052
▁halte	-5053
▁setzt	-5054
▁Bruder	-5055
▁Norden	-5056
▁Rahmen	-5057
▁Zuerst	-5058
▁aussch	-5059
▁verlie	-5060
▁Fleisch	-5061
gendetwas	-5062
▁Zweitens	-5063
▁weiteren	-5064
▁Augenblick	-5065
▁begeistert	-5066
▁Kalifornien	-5067
▁Schimpansen	-5068
ags	-5069
ara	-5070
dru	-5071
ogn	-5072
wahl	-5073
▁150	-5074
▁Ven	-5075
▁par	-5076
fahrt	-5077
ietet	-5078
utzer	-5079
▁Chin	-5080
▁Glob	-5081
▁priv	-5082
schule	-5083
▁Falls	-5084
▁Sport	-5085
▁Ziele	-5086
problem	-5087
▁Händen	-5088
▁verein	-5089
▁Verkehr	-5090
▁stärker	-5091
inosaurier	-5092
▁mathemati	-5093
▁gefährlich	-5094
zy	-5095
▁MI	-5096
inken	-5097
▁Aben	-5098
▁Sind	-5099
▁Temp	-5100
▁getö	-5101
▁Metap	-5102
▁Spekt	-5103
▁gener	-5104
▁kurze	-5105
ammlung	-5106
▁beteil	-5107
▁gehabt	-5108
▁schick	-5109
▁wächst	-5110
▁Stimmen	-5111
blichkeit	-5112
▁vollständig	-5113
air	-5114
rah	-5115
ämm	-5116
deln	-5117
▁Gri	-5118
usion	-5119
▁City	-5120
▁Volk	-5121
▁hohe	-5122
▁verh	-5123
atoren	-5124
▁Kamer	-5125
▁klass	-5126
▁bieten	-5127
ausenden	-5128
▁bemerkt	-5129
▁gewisse	-5130
▁Experten	-5131
▁Lieblings	-5132
▁hauptsächlich	-5133
Nun	-5134
ühr	-5135
▁Ox	-5136
bahn	-5137
läss	-5138
▁Tau	-5139
▁gep	-5140
▁Bras	-5141
▁Brenn	-5142
▁einst	-5143
▁nutzt	-5144
schrift	-5145
▁ausgeb	-5146
▁einiger	-5147
▁vorhanden	-5148
▁Experimente	-5149
▁letztendlich	-5150
bi	-5151
stau	-5152
▁Ama	-5153
▁Sil	-5154
reite	-5155
bliche	-5156
spiels	-5157
▁begeg	-5158
▁starb	-5159
▁Zimmer	-5160
▁erster	-5161
▁testen	-5162
▁Elektro	-5163
▁Emotion	-5164
▁Militär	-5165
▁Aktivität	-5166
▁angesehen	-5167
▁bestimmen	-5168
20	-5169
The	-5170
gyp	-5171
▁is	-5172
trag	-5173
▁neg	-5174
▁tue	-5175
deckt	-5176
langt	-5177
nimmt	-5178
▁Lied	-5179
häuser	-5180
▁Klein	-5181
▁krank	-5182
▁Mütter	-5183
▁Stress	-5184
▁Verletz	-5185
▁perfekt	-5186
▁schwarz	-5187
▁wenigen	-5188
▁Katastrop	-5189
▁September	-5190
▁mindestens	-5191
▁Unternehmer	-5192
▁öffentliche	-5193
▁amerikanische	-5194
▁verantwortlich	-5195
uh	-5196
äbe	-5197
anen	-5198
▁Ach	-5199
hingt	-5200
hlung	-5201
▁Beob	-5202
▁Austr	-5203
▁Klang	-5204
▁autom	-5205
▁lernt	-5206
▁regel	-5207
▁weder	-5208
▁Haufen	-5209
▁Laptop	-5210
▁Präsen	-5211
▁schönen	-5212
▁Außerdem	-5213
▁Restauran	-5214
▁Landschaft	-5215
▁versuchten	-5216
▁Investition	-5217
▁Perspektive	-5218
▁irgendetwas	-5219
▁interessieren	-5220
ael	-5221
amt	-5222
▁35	-5223
nost	-5224
▁Ehe	-5225
krank	-5226
▁Gren	-5227
▁teuer	-5228
agement	-5229
gegeben	-5230
▁Rätsel	-5231
▁deinen	-5232
▁England	-5233
▁Gehirne	-5234
▁Gespräch	-5235
▁Nationen	-5236
▁eingesetzt	-5237
▁NA	-5238
▁Com	-5239
▁Nan	-5240
swert	-5241
unken	-5242
▁halb	-5243
kehren	-5244
▁Algor	-5245
▁Bitte	-5246
▁Liter	-5247
hington	-5248
▁stelle	-5249
▁Twitter	-5250
▁getötet	-5251
▁gehalten	-5252
▁gewisser	-5253
▁schlimmer	-5254
▁arbeiteten	-5255
▁wichtigste	-5256
enk	-5257
far	-5258
▁Zä	-5259
abei	-5260
▁Fle	-5261
▁Jon	-5262
▁Mem	-5263
▁Sim	-5264
ckten	-5265
reien	-5266
▁Bein	-5267
▁plan	-5268
echsel	-5269
mutter	-5270
nehmer	-5271
▁Franc	-5272
▁Kohle	-5273
▁frage	-5274
▁wahre	-5275
▁Gedanke	-5276
▁Besonder	-5277
▁meistens	-5278
echtigkeit	-5279
▁Wettbewer	-5280
▁Satelliten	-5281
Be	-5282
fi	-5283
tin	-5284
schm	-5285
▁Uns	-5286
ierer	-5287
ähren	-5288
▁Gras	-5289
▁Mund	-5290
iertes	-5291
▁Dabei	-5292
▁könnt	-5293
▁wieso	-5294
bewesen	-5295
▁Grenze	-5296
▁Obwohl	-5297
▁nannte	-5298
gänglich	-5299
ologisch	-5300
verständ	-5301
▁entworfen	-5302
▁Erkenntnis	-5303
▁Washington	-5304
▁unterscheiden	-5305
Ar	-5306
ld	-5307
pfe	-5308
uft	-5309
▁Pe	-5310
atik	-5311
olly	-5312
orte	-5313
tial	-5314
▁Deb	-5315
▁Maus	-5316
gruppe	-5317
▁Folge	-5318
▁Radio	-5319
▁Schne	-5320
▁Solar	-5321
▁Trend	-5322
▁disku	-5323
▁kennt	-5324
▁meist	-5325
▁trägt	-5326
▁Beweis	-5327
▁Kräfte	-5328
▁gesund	-5329
▁erzähle	-5330
ternehmen	-5331
▁Diagramm	-5332
▁Zeitalter	-5333
▁beantworten	-5334
urf	-5335
▁Pa	-5336
fert	-5337
omit	-5338
letzt	-5339
▁Rand	-5340
▁herr	-5341
fragen	-5342
▁Innen	-5343
▁Laufe	-5344
▁holen	-5345
▁Fische	-5346
▁Zuhause	-5347
▁basiert	-5348
▁bekamen	-5349
▁dennoch	-5350
▁nochmal	-5351
▁Arbeiten	-5352
▁existieren	-5353
▁Dinosaurier	-5354
▁hoffentlich	-5355
by	-5356
wen	-5357
▁Ac	-5358
akte	-5359
▁Fig	-5360
▁Hör	-5361
▁Tie	-5362
asste	-5363
eiger	-5364
ieben	-5365
ischt	-5366
▁Tanz	-5367
▁Defin	-5368
▁eigent	-5369
▁lustig	-5370
▁Eindruck	-5371
▁normalen	-5372
▁allerdings	-5373
för	-5374
skop	-5375
wegs	-5376
▁Gas	-5377
▁Hei	-5378
▁Tom	-5379
ängst	-5380
▁aufs	-5381
rennen	-5382
▁lebte	-5383
atische	-5384
▁10.000	-5385
▁Kombin	-5386
▁dauert	-5387
▁mitten	-5388
▁starke	-5389
▁Spieler	-5390
▁fördern	-5391
▁schaute	-5392
▁aufhören	-5393
▁hunderte	-5394
▁ungewöhn	-5395
▁Politiker	-5396
▁Schwester	-5397
sa	-5398
Ein	-5399
ahe	-5400
leg	-5401
läu	-5402
res	-5403
heim	-5404
weit	-5405
▁Ind	-5406
▁kap	-5407
▁kom	-5408
▁Boot	-5409
▁dran	-5410
▁zuzu	-5411
▁Erleb	-5412
▁Niger	-5413
▁Lachen	-5414
▁Wesent	-5415
▁linken	-5416
▁vieler	-5417
▁College	-5418
▁Mission	-5419
▁erfinden	-5420
▁Entdeckung	-5421
▁verbreiten	-5422
▁hergestellt	-5423
▁unterschiedlich	-5424
2-	-5425
bas	-5426
kla	-5427
▁UN	-5428
▁el	-5429
▁zog	-5430
▁engl	-5431
▁Krise	-5432
▁Verbr	-5433
▁somit	-5434
▁total	-5435
ruption	-5436
ständen	-5437
▁hoffen	-5438
▁ließen	-5439
▁schlau	-5440
▁Gleiche	-5441
▁Nachdem	-5442
▁Quadrat	-5443
▁Methoden	-5444
▁Moleküle	-5445
▁Gegensatz	-5446
▁wichtigen	-5447
▁entspricht	-5448
▁untersucht	-5449
jahr	-5450
rige	-5451
▁21.	-5452
▁Toi	-5453
▁AIDS	-5454
▁Fehl	-5455
▁Impf	-5456
▁Lauf	-5457
▁Pfer	-5458
▁gäbe	-5459
▁trin	-5460
hängig	-5461
wiesen	-5462
▁Trotz	-5463
▁Minute	-5464
▁aufgew	-5465
▁echten	-5466
▁erlebt	-5467
▁Brasilien	-5468
▁Folgendes	-5469
issenschaft	-5470
▁Bewegungen	-5471
▁entstanden	-5472
▁entwickelte	-5473
▁vergleichen	-5474
ala	-5475
pft	-5476
▁su	-5477
berg	-5478
test	-5479
▁Imm	-5480
▁Tor	-5481
▁Wik	-5482
▁Dass	-5483
▁Stat	-5484
▁Konse	-5485
▁heran	-5486
▁musst	-5487
alisten	-5488
dlichen	-5489
istisch	-5490
▁Zucker	-5491
▁müsste	-5492
▁beinhal	-5493
▁erkannte	-5494
▁Forschungs	-5495
▁erscheinen	-5496
▁Generationen	-5497
utt	-5498
ates	-5499
samt	-5500
▁MIT	-5501
aufte	-5502
mäßig	-5503
uliert	-5504
▁Ganze	-5505
▁Insel	-5506
▁James	-5507
▁Viren	-5508
▁roten	-5509
fordert	-5510
▁Andere	-5511
▁Folgen	-5512
▁Irgend	-5513
▁Wellen	-5514
▁Elektri	-5515
▁Körpers	-5516
▁genauer	-5517
▁reichen	-5518
▁tausend	-5519
fähigkeit	-5520
▁Lebewesen	-5521
▁Wahrnehmung	-5522
▁persönlichen	-5523
yse	-5524
▁Ap	-5525
▁Sl	-5526
▁ag	-5527
hmus	-5528
osen	-5529
▁Bon	-5530
▁Dok	-5531
dient	-5532
▁fiel	-5533
▁schm	-5534
▁Jeden	-5535
isieren	-5536
ografie	-5537
▁Steuer	-5538
▁Spiegel	-5539
▁demokra	-5540
▁brachten	-5541
▁komplexe	-5542
▁verbindet	-5543
hte	-5544
ube	-5545
frau	-5546
nahm	-5547
omme	-5548
▁rad	-5549
rüben	-5550
agiert	-5551
werden	-5552
▁Ihres	-5553
ordnung	-5554
▁Fakten	-5555
▁Rechte	-5556
▁schien	-5557
▁vorber	-5558
▁Ansicht	-5559
▁Vorteil	-5560
▁bezahlt	-5561
▁entgegen	-5562
▁programm	-5563
▁schlagen	-5564
▁reduzieren	-5565
▁oh	-5566
ular	-5567
▁Fett	-5568
▁Zell	-5569
▁verf	-5570
riften	-5571
▁optim	-5572
schland	-5573
▁zahlen	-5574
▁Charles	-5575
▁Francis	-5576
▁relativ	-5577
▁Tausende	-5578
▁Netzwerke	-5579
▁Zuschauer	-5580
▁brauchten	-5581
▁Eigentlich	-5582
▁Organismen	-5583
▁persönliche	-5584
▁mu	-5585
▁ra	-5586
edia	-5587
▁Orig	-5588
▁mass	-5589
▁männ	-5590
aturen	-5591
▁Milch	-5592
▁Michael	-5593
▁Theater	-5594
▁gelesen	-5595
▁aufbauen	-5596
▁zunächst	-5597
▁Gemeinden	-5598
▁Individuen	-5599
▁persönlich	-5600
▁medizinische	-5601
,5	-5602
.,	-5603
oc	-5604
▁45	-5605
elev	-5606
imal	-5607
▁Hom	-5608
▁Ill	-5609
▁Beim	-5610
▁zeit	-5611
▁Garten	-5612
▁Wetter	-5613
▁analys	-5614
▁drüben	-5615
▁Buchsta	-5616
▁brauche	-5617
▁gehören	-5618
▁gestern	-5619
▁Einstein	-5620
▁Konflikt	-5621
▁kürzlich	-5622
▁Professor	-5623
▁identifiz	-5624
▁verbrachte	-5625
▁Elektrizität	-5626
▁grundlegende	-5627
▁verschwinden	-5628
▁traditionellen	-5629
ump	-5630
ogar	-5631
uman	-5632
ichen	-5633
eicher	-5634
muster	-5635
▁Etwas	-5636
▁Times	-5637
▁nötig	-5638
▁wobei	-5639
▁Doktor	-5640
▁auftau	-5641
▁histor	-5642
▁lebens	-5643
istische	-5644
▁Details	-5645
▁Operation	-5646
▁Wohlstand	-5647
▁entdeckte	-5648
▁vergangen	-5649
▁Definition	-5650
▁Korruption	-5651
▁natürlichen	-5652
la	-5653
üte	-5654
ffer	-5655
tive	-5656
vard	-5657
▁Tri	-5658
geber	-5659
ösung	-5660
▁Atom	-5661
▁Elef	-5662
▁Empf	-5663
▁gefü	-5664
▁jähr	-5665
artige	-5666
olitik	-5667
reisen	-5668
▁folgt	-5669
▁fängt	-5670
amerika	-5671
rauchen	-5672
▁Christ	-5673
▁Jemand	-5674
▁Kaffee	-5675
▁Linien	-5676
▁Normal	-5677
▁Sozial	-5678
▁kombin	-5679
▁normale	-5680
▁welchen	-5681
▁Hinsicht	-5682
▁Interessen	-5683
▁inspiriert	-5684
▁Mitarbeiter	-5685
▁erstaunliche	-5686
zon	-5687
öpf	-5688
▁la	-5689
anal	-5690
aust	-5691
▁Fer	-5692
▁Jan	-5693
passt	-5694
▁Auff	-5695
▁Dach	-5696
▁beit	-5697
▁rück	-5698
merzen	-5699
recken	-5700
ächeln	-5701
▁Armen	-5702
▁Weile	-5703
▁angeb	-5704
▁Aspekt	-5705
▁Mexiko	-5706
▁körper	-5707
▁verblü	-5708
sätzlich	-5709
▁Beweise	-5710
▁starten	-5711
istischen	-5712
▁Anderson	-5713
▁Elemente	-5714
▁Weltraum	-5715
▁abhängig	-5716
▁geändert	-5717
▁Abschluss	-5718
▁Arbeitspl	-5719
▁definieren	-5720
▁zusammenge	-5721
möglichkeiten	-5722
▁Schwierigkeiten	-5723
herr	-5724
mord	-5725
ühen	-5726
▁Exp	-5727
▁Les	-5728
▁Ter	-5729
wagen	-5730
▁Best	-5731
▁Eben	-5732
▁aufw	-5733
▁rede	-5734
endung	-5735
fische	-5736
▁Laden	-5737
▁Ausmaß	-5738
▁Grafik	-5739
▁Mechan	-5740
▁nieder	-5741
▁ausgest	-5742
▁spannen	-5743
▁Arbeiter	-5744
▁Kulturen	-5745
▁beschloss	-5746
▁gestorben	-5747
▁darstellen	-5748
▁beschlossen	-5749
▁entsprechen	-5750
ex	-5751
bli	-5752
ozi	-5753
▁No	-5754
aria	-5755
eise	-5756
klen	-5757
▁ruh	-5758
bares	-5759
omben	-5760
▁Blau	-5761
▁Sens	-5762
▁dram	-5763
▁ermu	-5764
▁Islam	-5765
▁exper	-5766
▁halbe	-5767
▁wechs	-5768
scheint	-5769
tisches	-5770
▁Träume	-5771
▁Umfeld	-5772
▁Voraus	-5773
▁bietet	-5774
▁eindeu	-5775
▁integr	-5776
▁stammt	-5777
ographie	-5778
▁Molekül	-5779
▁spielte	-5780
▁verfügbar	-5781
▁zerstören	-5782
spielsweise	-5783
▁Diskussion	-5784
▁Architekten	-5785
▁Deutschland	-5786
äne	-5787
▁Kä	-5788
ulpt	-5789
äuse	-5790
▁las	-5791
artig	-5792
meter	-5793
ungsk	-5794
▁Code	-5795
▁Fünf	-5796
rechte	-5797
▁passt	-5798
erseits	-5799
▁Darwin	-5800
▁George	-5801
▁Riesen	-5802
▁Schlaf	-5803
▁kurzem	-5804
▁meiste	-5805
▁tiefer	-5806
▁zählen	-5807
▁verschl	-5808
▁anwenden	-5809
▁behalten	-5810
▁langweil	-5811
▁Vorfahren	-5812
▁aufregend	-5813
▁erscheint	-5814
▁beobachtet	-5815
▁schlechter	-5816
osm	-5817
▁Gre	-5818
zieht	-5819
▁Ober	-5820
rieren	-5821
▁Pingu	-5822
▁gross	-5823
bliothe	-5824
▁Staats	-5825
▁allgem	-5826
▁ausger	-5827
▁Website	-5828
▁Vorstell	-5829
▁verwende	-5830
▁Emotionen	-5831
▁Erklärung	-5832
▁studieren	-5833
▁verhalten	-5834
▁aufzubauen	-5835
▁zugänglich	-5836
▁Zivilisation	-5837
▁beschäftigen	-5838
com	-5839
oth	-5840
umb	-5841
ymp	-5842
▁fäh	-5843
▁Null	-5844
▁eure	-5845
▁fuhr	-5846
▁zahl	-5847
▁Neben	-5848
▁bewer	-5849
▁motiv	-5850
▁wuchs	-5851
▁übrig	-5852
▁School	-5853
▁lebten	-5854
▁reicht	-5855
▁Angriff	-5856
▁Berechn	-5857
▁Maßstab	-5858
▁morgens	-5859
▁worüber	-5860
▁Nachbarn	-5861
▁Prototyp	-5862
▁aufgebaut	-5863
▁wesentlich	-5864
zz	-5865
ike	-5866
▁Hyp	-5867
▁Kom	-5868
▁bat	-5869
ehren	-5870
gerät	-5871
stung	-5872
▁Atem	-5873
▁TEDx	-5874
▁Teen	-5875
gehend	-5876
leitet	-5877
▁train	-5878
akistan	-5879
sprache	-5880
▁Bedroh	-5881
▁Besitz	-5882
▁formen	-5883
▁Geschen	-5884
▁annehmen	-5885
▁vermitteln	-5886
▁Ta	-5887
hrop	-5888
hung	-5889
tels	-5890
ancen	-5891
llekt	-5892
räume	-5893
▁Belo	-5894
▁heil	-5895
isiert	-5896
omente	-5897
▁Fälle	-5898
▁Gutes	-5899
▁Vögel	-5900
▁blieb	-5901
▁voran	-5902
▁zieht	-5903
ziehung	-5904
züglich	-5905
▁Batter	-5906
▁Helden	-5907
▁Persön	-5908
▁Robert	-5909
▁dauern	-5910
▁setzte	-5911
▁ersetzen	-5912
▁gewissen	-5913
▁zerstört	-5914
▁Verbesser	-5915
▁Australien	-5916
dit	-5917
ikt	-5918
ird	-5919
zig	-5920
flug	-5921
ilde	-5922
▁Kal	-5923
▁Sam	-5924
▁Zer	-5925
▁min	-5926
antas	-5927
anzös	-5928
▁Kerl	-5929
▁Pass	-5930
▁Verw	-5931
räumen	-5932
talien	-5933
▁geist	-5934
itation	-5935
rachten	-5936
▁Gewinn	-5937
▁Inhalt	-5938
▁Quelle	-5939
ätigkeit	-5940
▁Werbung	-5941
▁moderne	-5942
▁umgeben	-5943
▁nützlich	-5944
versorgung	-5945
▁beschleun	-5946
▁industrie	-5947
▁Geschlecht	-5948
30	-5949
aat	-5950
fir	-5951
til	-5952
ähm	-5953
ohnt	-5954
▁Ban	-5955
▁Heu	-5956
▁Urs	-5957
▁Zug	-5958
▁Wurz	-5959
▁Tests	-5960
▁World	-5961
▁Zweck	-5962
▁außen	-5963
▁sucht	-5964
chtzeit	-5965
▁Erwart	-5966
▁heißen	-5967
▁steigt	-5968
▁zusätz	-5969
▁Auswahl	-5970
▁Entfern	-5971
verbrauch	-5972
▁deswegen	-5973
▁Geheimnis	-5974
▁geschickt	-5975
▁Verhältnis	-5976
▁unabhängig	-5977
IP	-5978
igte	-5979
▁Pat	-5980
▁abl	-5981
samen	-5982
weile	-5983
▁Klin	-5984
▁Russ	-5985
▁stop	-5986
decken	-5987
haften	-5988
letten	-5989
sichts	-5990
▁Seele	-5991
▁Stufe	-5992
▁quasi	-5993
steigen	-5994
▁Größen	-5995
▁Rechen	-5996
▁Welche	-5997
▁treten	-5998
▁Bestand	-5999
▁Fischer	-6000
▁erkennt	-6001
▁erwähnt	-6002
▁seitdem	-6003
▁Echtzeit	-6004
▁Freundin	-6005
▁digitalen	-6006
▁langfrist	-6007
▁vermeiden	-6008
▁Medikament	-6009
▁fantastisch	-6010
▁stattdessen	-6011
yl	-6012
▁Ke	-6013
▁Tö	-6014
pern	-6015
raht	-6016
tere	-6017
wach	-6018
ward	-6019
antes	-6020
ember	-6021
gewal	-6022
rufen	-6023
▁Anim	-6024
▁Kamp	-6025
▁Sitz	-6026
▁miss	-6027
spruch	-6028
▁Zitat	-6029
▁unend	-6030
▁versp	-6031
▁vorne	-6032
▁Chemie	-6033
▁junger	-6034
▁stabil	-6035
▁Fernseh	-6036
▁Gericht	-6037
▁Kapital	-6038
▁Schnitt	-6039
▁gebeten	-6040
▁müssten	-6041
▁solcher	-6042
▁schwarze	-6043
▁sprachen	-6044
▁Bereichen	-6045
▁Situationen	-6046
▁Erinnerungen	-6047
par	-6048
▁wü	-6049
ging	-6050
▁Gro	-6051
▁Sob	-6052
▁wes	-6053
▁zut	-6054
fähig	-6055
▁2008	-6056
▁Resp	-6057
▁Tour	-6058
▁klin	-6059
einbar	-6060
▁Neues	-6061
▁brill	-6062
▁fähig	-6063
ognitiv	-6064
▁Inspir	-6065
▁Planet	-6066
▁Wolken	-6067
▁gelöst	-6068
▁herein	-6069
▁schaff	-6070
▁Erkrank	-6071
▁Malaria	-6072
▁berührt	-6073
▁Geräusch	-6074
▁Schatten	-6075
▁Zwischen	-6076
▁beeindru	-6077
▁entstand	-6078
▁erstellt	-6079
▁Erfindung	-6080
▁Kontinent	-6081
▁Philosoph	-6082
▁notwendig	-6083
▁Buchstaben	-6084
▁schrecklich	-6085
▁menschlicher	-6086
hü	-6087
sb	-6088
eid	-6089
pol	-6090
▁Ev	-6091
affe	-6092
frei	-6093
mitt	-6094
star	-6095
teln	-6096
▁Anw	-6097
▁You	-6098
gener	-6099
stren	-6100
uropä	-6101
▁Trag	-6102
▁Zahn	-6103
▁rief	-6104
ammelt	-6105
jemand	-6106
sprung	-6107
▁Anrei	-6108
▁Parad	-6109
▁kolle	-6110
fiziert	-6111
▁Effekt	-6112
▁Streit	-6113
▁enorme	-6114
issionen	-6115
wachstum	-6116
▁Fliegen	-6117
▁Verlust	-6118
▁Wissens	-6119
▁Bereiche	-6120
▁Strategie	-6121
▁Großmutter	-6122
▁beinhaltet	-6123
▁schlechten	-6124
▁überwinden	-6125
▁Erwachsenen	-6126
pu	-6127
pha	-6128
plom	-6129
ston	-6130
ulen	-6131
▁Bem	-6132
▁ide	-6133
▁syn	-6134
▁Stau	-6135
▁Wein	-6136
▁arab	-6137
▁fern	-6138
▁getr	-6139
▁ille	-6140
▁leid	-6141
▁Ägyp	-6142
ategor	-6143
tismus	-6144
▁Gemäl	-6145
▁Lager	-6146
▁Sogar	-6147
▁Tumor	-6148
▁beweg	-6149
▁enorm	-6150
diglich	-6151
▁Vorher	-6152
▁durchs	-6153
sprozess	-6154
▁Viertel	-6155
▁hierher	-6156
▁mächtig	-6157
▁steuern	-6158
▁Fortschr	-6159
▁gespielt	-6160
▁schätzen	-6161
▁Anwendung	-6162
▁Potential	-6163
▁Instrument	-6164
▁westlichen	-6165
▁Statistiken	-6166
aser	-6167
rett	-6168
▁11.	-6169
▁Air	-6170
▁Brü	-6171
eucht	-6172
rasch	-6173
▁Früh	-6174
bieten	-6175
ithmen	-6176
▁Start	-6177
▁betro	-6178
▁poten	-6179
▁veran	-6180
ungsver	-6181
wärmung	-6182
▁Damals	-6183
▁Schuld	-6184
▁Signal	-6185
▁Willen	-6186
▁dunkle	-6187
▁gering	-6188
▁hinten	-6189
besonder	-6190
▁Nachhal	-6191
▁Risiken	-6192
▁Student	-6193
▁konstru	-6194
▁welchem	-6195
▁überprü	-6196
▁Existenz	-6197
▁verbessert	-6198
▁feststellen	-6199
▁wirtschaftliche	-6200
fik	-6201
hls	-6202
osh	-6203
dium	-6204
iein	-6205
phen	-6206
▁Rot	-6207
▁Tun	-6208
artet	-6209
denkt	-6210
euert	-6211
ässer	-6212
▁Allt	-6213
▁Rake	-6214
▁Roll	-6215
▁Schä	-6216
testen	-6217
▁Süden	-6218
blichen	-6219
gründet	-6220
ikalien	-6221
samkeit	-6222
▁Blumen	-6223
▁Ozeane	-6224
▁Stärke	-6225
▁langer	-6226
▁vergrö	-6227
▁Geistes	-6228
▁Harvard	-6229
▁beinahe	-6230
▁liefern	-6231
▁äußerst	-6232
▁Lebenser	-6233
▁speziell	-6234
▁verteilt	-6235
▁Überrasch	-6236
▁beschreibt	-6237
verständlich	-6238
▁internationalen	-6239
ida	-6240
üge	-6241
▁Cy	-6242
eben	-6243
eier	-6244
mehr	-6245
▁Got	-6246
▁Rhy	-6247
▁the	-6248
karte	-6249
▁Alex	-6250
▁expl	-6251
geschw	-6252
▁Wieso	-6253
▁innov	-6254
▁Anteil	-6255
▁ergibt	-6256
▁heisst	-6257
▁kannte	-6258
atischen	-6259
▁Galaxie	-6260
▁Momente	-6261
▁lokalen	-6262
▁Aufnahme	-6263
▁kreieren	-6264
▁versteht	-6265
▁gemeinsame	-6266
▁veränderte	-6267
▁gegenseitig	-6268
▁kompliziert	-6269
▁unterstützt	-6270
▁bemerkenswer	-6271
nü	-6272
▁GP	-6273
▁hü	-6274
fron	-6275
gefü	-6276
gren	-6277
oßen	-6278
▁Bur	-6279
▁SMS	-6280
elben	-6281
endes	-6282
▁Prim	-6283
▁Hunde	-6284
▁Kapit	-6285
▁Kreuz	-6286
▁Motiv	-6287
▁Schle	-6288
▁Steve	-6289
▁Stuhl	-6290
▁unbek	-6291
einhalb	-6292
▁Gegend	-6293
▁Herren	-6294
▁Leider	-6295
▁Neurow	-6296
▁Schlei	-6297
▁Zauber	-6298
▁blauen	-6299
▁sparen	-6300
gelassen	-6301
qualität	-6302
▁Element	-6303
▁Fahrrad	-6304
▁Schreib	-6305
▁standen	-6306
▁Kongress	-6307
▁besuchen	-6308
▁beweisen	-6309
▁lediglich	-6310
▁verwandelt	-6311
▁Kombination	-6312
arb	-6313
Mail	-6314
rang	-6315
seln	-6316
▁Eth	-6317
▁Teu	-6318
undes	-6319
weite	-6320
▁Betr	-6321
▁Eier	-6322
▁Kurs	-6323
▁Mart	-6324
▁Mess	-6325
▁Stör	-6326
▁Thom	-6327
▁Wild	-6328
▁erwä	-6329
fernen	-6330
▁domin	-6331
gruppen	-6332
▁Nieder	-6333
▁Winter	-6334
▁belieb	-6335
amerikan	-6336
▁Lektion	-6337
▁gefällt	-6338
▁kreativ	-6339
besondere	-6340
▁Grundlage	-6341
▁aufnehmen	-6342
▁erweitern	-6343
▁wirkliche	-6344
▁fasziniert	-6345
▁übernehmen	-6346
▁gesellschaft	-6347
ash	-6348
▁99	-6349
okus	-6350
▁dur	-6351
chern	-6352
euern	-6353
linge	-6354
▁NASA	-6355
▁trag	-6356
▁Stock	-6357
zentrum	-6358
▁Brücke	-6359
▁soviel	-6360
ffizienz	-6361
▁Afrikas	-6362
▁Schicks	-6363
▁Aktivitäten	-6364
▁großartigen	-6365
▁schwieriger	-6366
▁Wesentlichen	-6367
▁vorzustellen	-6368
▁unglaublichen	-6369
En	-6370
bek	-6371
ris	-6372
vin	-6373
atis	-6374
omie	-6375
▁dün	-6376
▁fil	-6377
▁Trau	-6378
▁nerv	-6379
▁neur	-6380
▁Kabel	-6381
▁Links	-6382
▁Moral	-6383
▁Peter	-6384
wechsel	-6385
▁Astron	-6386
▁Danach	-6387
▁Epidem	-6388
▁meinte	-6389
▁Einheit	-6390
▁Wirkung	-6391
▁kriegen	-6392
▁gefangen	-6393
▁besondere	-6394
▁Einstellung	-6395
▁Stattdessen	-6396
Mo	-6397
Na	-6398
ams	-6399
anc	-6400
ory	-6401
beln	-6402
kton	-6403
äfte	-6404
kette	-6405
kreis	-6406
nungs	-6407
räger	-6408
▁Post	-6409
▁erhe	-6410
▁form	-6411
finder	-6412
ingern	-6413
▁Brief	-6414
▁Damen	-6415
▁Gehen	-6416
▁Küste	-6417
▁Pfund	-6418
▁Spezi	-6419
▁armen	-6420
reibung	-6421
stoffen	-6422
▁Gesamt	-6423
▁Kriegs	-6424
▁Market	-6425
▁Mengen	-6426
▁Teufel	-6427
▁kümmer	-6428
▁konfron	-6429
losigkeit	-6430
▁Ungleich	-6431
▁dahinter	-6432
▁elektron	-6433
▁mögliche	-6434
▁Bibliothe	-6435
▁Verbrechen	-6436
▁Bedürfnisse	-6437
▁geschlossen	-6438
▁Präsentation	-6439
▁faszinierend	-6440
ago	-6441
ata	-6442
bio	-6443
esie	-6444
omet	-6445
▁Cha	-6446
▁etc	-6447
boden	-6448
iveau	-6449
zesse	-6450
▁Gemü	-6451
▁legt	-6452
fahrer	-6453
geregt	-6454
holfen	-6455
▁Blatt	-6456
▁Kenia	-6457
▁Platt	-6458
▁Weihn	-6459
▁baute	-6460
▁stehe	-6461
fliegen	-6462
▁Führer	-6463
▁bauten	-6464
▁Absicht	-6465
▁Komment	-6466
▁effizien	-6467
▁Interview	-6468
▁fundament	-6469
▁Sicherheits	-6470
▁überraschend	-6471
Kon	-6472
aff	-6473
▁Lo	-6474
echt	-6475
mine	-6476
nose	-6477
reif	-6478
▁19.	-6479
▁Seh	-6480
▁Top	-6481
▁Ung	-6482
▁iPh	-6483
▁log	-6484
eiern	-6485
ücken	-6486
▁Merk	-6487
▁Rech	-6488
▁länd	-6489
▁Bauch	-6490
▁Würde	-6491
▁fährt	-6492
▁innen	-6493
▁still	-6494
▁verab	-6495
▁Kirche	-6496
▁begren	-6497
▁gelebt	-6498
▁intens	-6499
▁lachen	-6500
▁moment	-6501
atastrop	-6502
▁Respekt	-6503
▁Richtig	-6504
▁Zeitung	-6505
▁erhöhen	-6506
▁grundle	-6507
▁Deswegen	-6508
▁Schritte	-6509
▁Spektrum	-6510
▁Vorteile	-6511
▁darunter	-6512
▁digitale	-6513
▁perfekte	-6514
▁ähnliche	-6515
▁Südafrika	-6516
▁entfernen	-6517
▁kollektiv	-6518
▁Chemikalien	-6519
▁akzeptieren	-6520
▁beschrieben	-6521
Hey	-6522
gas	-6523
int	-6524
nach	-6525
▁erz	-6526
▁exp	-6527
▁sub	-6528
anger	-6529
biert	-6530
enter	-6531
ringe	-6532
▁Skla	-6533
▁baut	-6534
▁höre	-6535
▁seid	-6536
▁spät	-6537
▁zuge	-6538
hängen	-6539
stechn	-6540
▁Theor	-6541
▁drauf	-6542
▁schei	-6543
▁vorzu	-6544
▁Zufall	-6545
▁besagt	-6546
▁enthält	-6547
mensionen	-6548
▁Bildungs	-6549
▁Ereignis	-6550
▁Metapher	-6551
▁Pakistan	-6552
▁kognitiv	-6553
▁sichtbar	-6554
▁bekannten	-6555
▁eindeutig	-6556
▁gegründet	-6557
bevölkerung	-6558
▁Jahrzehnten	-6559
▁internationale	-6560
Wo	-6561
har	-6562
ruh	-6563
uni	-6564
ient	-6565
inkt	-6566
ukle	-6567
▁Ehr	-6568
▁Lar	-6569
▁Mor	-6570
▁Wäl	-6571
eskop	-6572
nchen	-6573
▁Cent	-6574
▁Inte	-6575
▁Koll	-6576
▁Tief	-6577
▁tats	-6578
ativer	-6579
drückt	-6580
eilung	-6581
gesetz	-6582
schiff	-6583
tigten	-6584
▁Wagen	-6585
▁Wüste	-6586
▁Kompon	-6587
▁Thomas	-6588
▁furcht	-6589
▁realen	-6590
derungen	-6591
funktion	-6592
scheidet	-6593
▁Hindern	-6594
▁Russland	-6595
▁leichter	-6596
▁verstehe	-6597
▁Geräusche	-6598
▁dieselben	-6599
▁gemeinsamen	-6600
▁Innovationen	-6601
▁Gerechtigkeit	-6602
▁afrikanischen	-6603
▁funktionierte	-6604
▁Nachhaltigkeit	-6605
ica	-6606
förm	-6607
iban	-6608
krie	-6609
urer	-6610
Techn	-6611
noten	-6612
staat	-6613
▁2007	-6614
▁rote	-6615
bücher	-6616
tragen	-6617
▁Einen	-6618
▁trans	-6619
▁Gottes	-6620
▁Hunger	-6621
▁anfing	-6622
ktivität	-6623
▁Musiker	-6624
▁Nigeria	-6625
▁Signale	-6626
▁erhielt	-6627
▁manchen	-6628
▁Erlebnis	-6629
▁Teenager	-6630
▁falschen	-6631
▁transpor	-6632
▁vertraut	-6633
▁weiterer	-6634
▁Überzeug	-6635
▁Transport	-6636
▁erforscht	-6637
▁gebraucht	-6638
▁verblüffen	-6639
▁automatisch	-6640
▁Fortschritte	-6641
its	-6642
önt	-6643
▁2.	-6644
▁23	-6645
ison	-6646
▁Ass	-6647
▁Emp	-6648
▁Sum	-6649
amour	-6650
▁Open	-6651
▁Verd	-6652
▁genü	-6653
▁mark	-6654
▁verz	-6655
ischem	-6656
kelett	-6657
▁Paten	-6658
▁schne	-6659
▁staat	-6660
▁super	-6661
▁Lungen	-6662
▁Pflege	-6663
▁Skulpt	-6664
▁ausgew	-6665
▁inform	-6666
▁leiten	-6667
bewegung	-6668
▁Gebiete	-6669
▁ansieht	-6670
▁besitzt	-6671
▁derzeit	-6672
erstörung	-6673
▁Zunächst	-6674
▁folgende	-6675
▁Francisco	-6676
▁Gesichter	-6677
▁Jahrzehnt	-6678
▁komplexen	-6679
▁Untersuchung	-6680
▁aufgewachsen	-6681
ney	-6682
ole	-6683
▁ök	-6684
itut	-6685
nütz	-6686
spar	-6687
▁Pan	-6688
▁Roh	-6689
▁Tit	-6690
▁wüs	-6691
▁Show	-6692
▁heiß	-6693
▁städ	-6694
System	-6695
lernen	-6696
quelle	-6697
▁Folie	-6698
▁extra	-6699
▁jener	-6700
▁Aktion	-6701
▁Amazon	-6702
▁Handel	-6703
▁Symbol	-6704
▁gewalt	-6705
▁ökonom	-6706
stration	-6707
▁Meister	-6708
▁glaubte	-6709
schriften	-6710
▁Mehrheit	-6711
▁zeichnen	-6712
▁Gegenwart	-6713
▁Geburtstag	-6714
▁zusammenzu	-6715
▁dargestellt	-6716
▁beispielsweise	-6717
-,	-6718
dro	-6719
icro	-6720
ores	-6721
öser	-6722
▁Ähn	-6723
aktor	-6724
ement	-6725
ätter	-6726
▁Laut	-6727
▁arme	-6728
▁froh	-6729
andert	-6730
bungen	-6731
kungen	-6732
▁Darum	-6733
▁Humor	-6734
▁Immer	-6735
▁Samen	-6736
▁vorge	-6737
andelte	-6738
fession	-6739
spiegel	-6740
zwungen	-6741
▁Anwend	-6742
▁Fabrik	-6743
▁Löcher	-6744
▁Symmet	-6745
▁Tonnen	-6746
▁Unfall	-6747
▁Weiter	-6748
▁anhand	-6749
▁bedeut	-6750
▁lokale	-6751
▁senden	-6752
▁Kapitel	-6753
▁Nutzung	-6754
▁führten	-6755
▁gewählt	-6756
▁zeigten	-6757
▁gefallen	-6758
▁Ernährung	-6759
▁Gedächtnis	-6760
▁angenommen	-6761
▁bezeichnen	-6762
▁weltweiten	-6763
▁Terrorismus	-6764
▁Konsequenzen	-6765
▁menschliches	-6766
▁unterrichten	-6767
▁medizinischen	-6768
cyc	-6769
▁75	-6770
ehrt	-6771
leib	-6772
▁600	-6773
▁Krä	-6774
ender	-6775
menge	-6776
üssen	-6777
▁Stan	-6778
▁Weis	-6779
bstoff	-6780
gesamt	-6781
reiche	-6782
unkten	-6783
▁Stahl	-6784
▁Wikip	-6785
▁blaue	-6786
▁günst	-6787
▁wofür	-6788
▁Kanada	-6789
▁Sobald	-6790
▁Völker	-6791
▁Welten	-6792
▁singen	-6793
▁verknü	-6794
▁willst	-6795
▁Wechsel	-6796
▁unglück	-6797
▁Anführer	-6798
▁geholfen	-6799
▁zurückge	-6800
leistungen	-6801
▁Ingenieur	-6802
▁Marketing	-6803
▁Unterhaltung	-6804
▁konzentriert	-6805
ao	-6806
kor	-6807
see	-6808
täu	-6809
tele	-6810
zipl	-6811
▁194	-6812
▁Akt	-6813
fällt	-6814
▁Dazu	-6815
▁moch	-6816
dliche	-6817
▁Ohren	-6818
▁repar	-6819
▁sowas	-6820
richtet	-6821
schafft	-6822
▁Dunkel	-6823
▁Schwer	-6824
▁altern	-6825
▁fingen	-6826
▁grosse	-6827
pflanzen	-6828
▁dauerte	-6829
▁Argument	-6830
▁Mikroben	-6831
▁bemerkte	-6832
▁schlafen	-6833
▁wechseln	-6834
▁Aufnahmen	-6835
▁Literatur	-6836
▁allgemein	-6837
▁kostenlos	-6838
▁schwarzen	-6839
▁vertrauen	-6840
▁überlegen	-6841
unternehmen	-6842
▁moralische	-6843
ih	-6844
ps	-6845
▁Sm	-6846
▁ok	-6847
iber	-6848
zial	-6849
▁DNS	-6850
▁Ros	-6851
▁Tab	-6852
illen	-6853
inter	-6854
lager	-6855
ordin	-6856
ttung	-6857
zepte	-6858
▁Dial	-6859
▁Fast	-6860
▁Mach	-6861
▁YouT	-6862
▁isol	-6863
schaut	-6864
▁Erdbe	-6865
▁Magie	-6866
▁Phase	-6867
▁bestä	-6868
▁demon	-6869
▁Eigent	-6870
▁einiges	-6871
▁unteren	-6872
▁zweimal	-6873
arbeitung	-6874
probieren	-6875
▁Resultat	-6876
▁Webseite	-6877
▁verstand	-6878
▁Billionen	-6879
▁beobachte	-6880
▁darstellt	-6881
▁scheinbar	-6882
▁Ausstellung	-6883
▁Stammzellen	-6884
wissenschaften	-6885
▁Klassenzimmer	-6886
▁grundsätzlich	-6887
own	-6888
wald	-6889
ätzt	-6890
ücke	-6891
▁Dia	-6892
▁Dör	-6893
▁Okt	-6894
▁kop	-6895
heira	-6896
osten	-6897
reibe	-6898
uhren	-6899
▁Nase	-6900
▁Ohne	-6901
▁Phot	-6902
▁Repu	-6903
▁Rock	-6904
▁prim	-6905
Dollar	-6906
▁Fokus	-6907
▁Hotel	-6908
▁Noten	-6909
▁Räume	-6910
▁Spann	-6911
▁gelie	-6912
▁wisst	-6913
stimmen	-6914
tierung	-6915
▁achten	-6916
▁reisen	-6917
▁weißen	-6918
▁Anstatt	-6919
▁Mittler	-6920
▁Quanten	-6921
▁Sternen	-6922
▁Verwand	-6923
▁YouTube	-6924
▁trinken	-6925
▁überein	-6926
schneiden	-6927
▁Bevölker	-6928
▁Geschenk	-6929
▁besseres	-6930
▁hinunter	-6931
▁positive	-6932
▁springen	-6933
▁Elefanten	-6934
▁Weltkrieg	-6935
▁Wikipedia	-6936
▁behaupten	-6937
▁betreiben	-6938
▁zufrieden	-6939
▁beibringen	-6940
▁Inspiration	-6941
gra	-6942
▁Tu	-6943
ackt	-6944
azin	-6945
iens	-6946
igan	-6947
steh	-6948
▁GPS	-6949
▁Pra	-6950
▁mon	-6951
▁sim	-6952
▁ums	-6953
aster	-6954
athie	-6955
behör	-6956
preis	-6957
schwe	-6958
stero	-6959
▁Chic	-6960
freund	-6961
kosten	-6962
okumen	-6963
zeigen	-6964
▁Autom	-6965
▁Dafür	-6966
▁Micro	-6967
standen	-6968
sterben	-6969
ältigen	-6970
▁grünen	-6971
▁hinauf	-6972
▁iPhone	-6973
ollywood	-6974
omputern	-6975
▁Chancen	-6976
▁Gemälde	-6977
▁Quellen	-6978
▁solange	-6979
▁tatsäch	-6980
▁Teleskop	-6981
▁Versuche	-6982
▁berichten	-6983
▁gebrochen	-6984
▁teilweise	-6985
▁versteckt	-6986
▁Prinzipien	-6987
▁speziellen	-6988
▁Darstellung	-6989
▁irgendjemand	-6990
▁verschwunden	-6991
geschwindigkeit	-6992
els	-6993
ips	-6994
äum	-6995
▁Wh	-6996
male	-6997
ober	-6998
ombe	-6999
▁Lab	-7000
barer	-7001
eidet	-7002
▁Brow	-7003
▁Stad	-7004
▁frem	-7005
ruppen	-7006
ysikal	-7007
▁Beute	-7008
▁Bevor	-7009
▁Hallo	-7010
identen	-7011
ließend	-7012
▁Flücht	-7013
▁Märkte	-7014
▁Status	-7015
▁europä	-7016
▁freien	-7017
▁landen	-7018
▁mechan	-7019
▁trafen	-7020
▁vieles	-7021
ierungen	-7022
isierung	-7023
▁Gedicht	-7024
▁Schaden	-7025
▁bekomme	-7026
▁drücken	-7027
▁erkannt	-7028
▁treiben	-7029
▁wertvoll	-7030
▁Schicksal	-7031
▁enthalten	-7032
▁Jahrzehnte	-7033
▁Restaurant	-7034
▁durchführen	-7035
▁Informations	-7036
▁Vorstellungen	-7037
▁Gemeinschaften	-7038
2.	-7039
kst	-7040
▁sk	-7041
back	-7042
hler	-7043
▁Nat	-7044
▁Pen	-7045
bchen	-7046
▁Jack	-7047
▁Jung	-7048
▁Mont	-7049
▁Soll	-7050
▁jung	-7051
dienst	-7052
karten	-7053
person	-7054
stands	-7055
werken	-7056
ätzung	-7057
▁Hilfs	-7058
▁enden	-7059
▁schwe	-7060
ahnsinn	-7061
gedacht	-7062
schläge	-7063
▁Abfall	-7064
▁Grippe	-7065
▁Kindes	-7066
▁Strand	-7067
▁dunkel	-7068
▁system	-7069
▁wirken	-7070
leistung	-7071
▁Einblick	-7072
▁schreibt	-7073
ordentlich	-7074
▁Spielzeug	-7075
▁Verstehen	-7076
▁einfaches	-7077
▁erwachsen	-7078
▁kreativen	-7079
▁Unterricht	-7080
▁Wettbewerb	-7081
▁sogenannte	-7082
▁Schließlich	-7083
▁voneinander	-7084
▁organisieren	-7085
dy	-7086
yr	-7087
hof	-7088
ift	-7089
kan	-7090
▁27	-7091
▁Mr	-7092
holz	-7093
mark	-7094
obel	-7095
▁Ost	-7096
▁mil	-7097
▁wid	-7098
avier	-7099
linie	-7100
okuss	-7101
teile	-7102
weich	-7103
▁1000	-7104
▁2005	-7105
▁2010	-7106
▁Ehem	-7107
▁Prop	-7108
messen	-7109
nommen	-7110
▁Chaos	-7111
▁Optim	-7112
▁Stämm	-7113
▁Sympt	-7114
▁lande	-7115
▁profi	-7116
▁teilt	-7117
▁Mangel	-7118
▁Schnee	-7119
schätzen	-7120
▁beenden	-7121
▁hielten	-7122
▁weshalb	-7123
▁Regionen	-7124
▁Weisheit	-7125
▁betrieben	-7126
▁betroffen	-7127
▁derselben	-7128
▁langsamer	-7129
▁Ereignisse	-7130
▁Frankreich	-7131
▁verglichen	-7132
gesellschaft	-7133
▁Algorithmen	-7134
▁nachgedacht	-7135
cin	-7136
irk	-7137
lad	-7138
stö	-7139
the	-7140
groß	-7141
plos	-7142
andid	-7143
gangs	-7144
▁Adam	-7145
▁Vier	-7146
▁Voll	-7147
▁lebe	-7148
▁merk	-7149
ammeln	-7150
punkte	-7151
ueller	-7152
ynamik	-7153
▁Armee	-7154
▁Paris	-7155
▁fehlt	-7156
▁produ	-7157
▁umher	-7158
antasie	-7159
artigen	-7160
▁Presse	-7161
▁Stücke	-7162
▁hängen	-7163
▁merken	-7164
▁spüren	-7165
▁musikal	-7166
▁verlang	-7167
▁Hunderte	-7168
▁Schweden	-7169
▁bekannte	-7170
▁beschrän	-7171
▁physikal	-7172
▁umfassen	-7173
▁unmittel	-7174
oberfläche	-7175
▁Depression	-7176
▁University	-7177
▁bezeichnet	-7178
▁inspirieren	-7179
▁Entdeckungen	-7180
▁Überraschung	-7181
oß	-7182
ire	-7183
ots	-7184
▁fe	-7185
▁Äl	-7186
andt	-7187
derm	-7188
▁Abs	-7189
▁Eff	-7190
▁Mel	-7191
▁Pho	-7192
hoben	-7193
ience	-7194
tritt	-7195
▁Gibt	-7196
▁Ruhe	-7197
▁fürs	-7198
▁land	-7199
▁resp	-7200
provis	-7201
würdig	-7202
zählen	-7203
▁Flüss	-7204
▁Lasst	-7205
▁Stern	-7206
▁Treib	-7207
griffen	-7208
rüstung	-7209
örtlich	-7210
▁suchte	-7211
▁worauf	-7212
▁100.000	-7213
▁Annahme	-7214
▁Aussage	-7215
▁Debatte	-7216
▁durchzu	-7217
▁gekauft	-7218
▁starben	-7219
▁unerwar	-7220
scheinend	-7221
▁Kampagne	-7222
▁Physiker	-7223
▁Schlacht	-7224
▁anschaut	-7225
schmutzung	-7226
▁bekämpfen	-7227
▁bezüglich	-7228
▁folgenden	-7229
▁antwortete	-7230
▁profession	-7231
▁wenigstens	-7232
▁Dimensionen	-7233
▁Psychologie	-7234
▁Lebenserwart	-7235
▁Sonnensystem	-7236
▁kontrolliert	-7237
kö	-7238
pe	-7239
flu	-7240
ham	-7241
zum	-7242
▁Py	-7243
hana	-7244
städ	-7245
tter	-7246
▁Lad	-7247
kehrt	-7248
onien	-7249
plant	-7250
zweif	-7251
▁Gute	-7252
▁Mass	-7253
▁Span	-7254
bringt	-7255
ranche	-7256
winkel	-7257
▁Feind	-7258
▁weiße	-7259
▁woher	-7260
ierungs	-7261
trieben	-7262
▁Astero	-7263
▁Bundes	-7264
▁Extrem	-7265
▁Handys	-7266
▁Pollen	-7267
▁ausser	-7268
▁gelang	-7269
▁heilen	-7270
▁lehren	-7271
▁überqu	-7272
ieinhalb	-7273
▁Chicago	-7274
▁besorgt	-7275
▁dokumen	-7276
▁neugier	-7277
▁stoppen	-7278
▁traurig	-7279
▁Freiwill	-7280
▁Kleidung	-7281
▁Proteine	-7282
▁besessen	-7283
▁genügend	-7284
▁Computern	-7285
▁Potenzial	-7286
▁umzugehen	-7287
▁versorgen	-7288
▁zunehmend	-7289
▁Entfernung	-7290
▁Sichtweise	-7291
▁irgendeine	-7292
▁Verbreitung	-7293
▁grundlegend	-7294
▁veröffentlich	-7295
gu	-7296
fit	-7297
kra	-7298
ses	-7299
▁lö	-7300
dach	-7301
▁Don	-7302
▁Sar	-7303
seher	-7304
teuer	-7305
these	-7306
▁half	-7307
▁hieß	-7308
▁jahr	-7309
▁nett	-7310
kultur	-7311
▁1.000	-7312
▁Angeb	-7313
▁Atlan	-7314
▁Eisen	-7315
▁Initi	-7316
▁Säuge	-7317
▁dynam	-7318
▁organ	-7319
▁platz	-7320
▁woran	-7321
▁Besuch	-7322
▁Boston	-7323
▁hörten	-7324
▁Kameras	-7325
▁Krieges	-7326
▁bestand	-7327
▁offenen	-7328
▁begegnen	-7329
▁definiert	-7330
▁Erwachsene	-7331
▁ausgesetzt	-7332
▁eingeladen	-7333
▁wahrnehmen	-7334
▁öffentlich	-7335
▁Instrumente	-7336
sterblichkeit	-7337
ias	-7338
ice	-7339
ics	-7340
tiz	-7341
use	-7342
emen	-7343
gelt	-7344
mack	-7345
ones	-7346
▁250	-7347
▁End	-7348
▁Hat	-7349
▁Hem	-7350
▁arm	-7351
▁erm	-7352
hängt	-7353
lesen	-7354
onent	-7355
unruh	-7356
▁Bang	-7357
▁Frie	-7358
▁Leon	-7359
▁Mosk	-7360
bilder	-7361
gelöst	-7362
unklen	-7363
▁Higgs	-7364
▁Roman	-7365
▁grüne	-7366
▁relev	-7367
fektion	-7368
▁Aufbau	-7369
▁Faktor	-7370
▁Fläche	-7371
▁Island	-7372
▁modern	-7373
▁schock	-7374
▁mittels	-7375
verhalten	-7376
▁Gebäuden	-7377
▁demonstr	-7378
▁genießen	-7379
▁Änderungen	-7380
▁Erwartungen	-7381
▁biologische	-7382
kün	-7383
▁Sä	-7384
oler	-7385
züge	-7386
▁Kra	-7387
▁Tin	-7388
rüche	-7389
▁Akte	-7390
▁Witz	-7391
manden	-7392
ritten	-7393
stücke	-7394
wellen	-7395
▁Kurve	-7396
▁Zentr	-7397
▁wovon	-7398
mitglie	-7399
schicht	-7400
▁Chirur	-7401
▁Schalt	-7402
▁deiner	-7403
▁dienen	-7404
▁rechte	-7405
▁sozial	-7406
bekommen	-7407
▁Taschen	-7408
▁Zweifel	-7409
▁ergeben	-7410
▁gezogen	-7411
▁gründen	-7412
▁niedrig	-7413
erkennung	-7414
▁Gesichts	-7415
ussendlich	-7416
▁Programme	-7417
▁basierend	-7418
▁irgendwel	-7419
▁Zerstörung	-7420
▁unsichtbar	-7421
▁Herstellung	-7422
▁Sonnenlicht	-7423
▁elektrische	-7424
▁vergangenen	-7425
▁wunderbaren	-7426
▁Bevölkerungs	-7427
▁Krankenhäuser	-7428
Bo	-7429
ban	-7430
Okay	-7431
ller	-7432
rise	-7433
same	-7434
ücks	-7435
▁Alt	-7436
▁Dad	-7437
▁Haw	-7438
▁Mac	-7439
halts	-7440
izont	-7441
küste	-7442
ünden	-7443
▁Biom	-7444
▁Hühn	-7445
▁Sing	-7446
▁diag	-7447
▁risk	-7448
▁seht	-7449
mechan	-7450
▁Cyber	-7451
▁Decke	-7452
▁Toten	-7453
▁Wegen	-7454
▁angen	-7455
eichern	-7456
▁Anders	-7457
▁Darauf	-7458
▁Diplom	-7459
▁Ganzen	-7460
▁Gemüse	-7461
▁Laufen	-7462
▁beherr	-7463
▁nachts	-7464
material	-7465
▁Angeles	-7466
▁Aspekte	-7467
▁Klavier	-7468
▁Schicht	-7469
▁doppelt	-7470
▁verstär	-7471
▁Zeitraum	-7472
▁ausgeben	-7473
▁bewirken	-7474
▁schauten	-7475
▁verdient	-7476
▁verliert	-7477
▁aufgeregt	-7478
▁bedeutete	-7479
▁beteiligt	-7480
▁folgendes	-7481
▁intellekt	-7482
▁reduziert	-7483
technologie	-7484
▁Bibliothek	-7485
▁wundervoll	-7486
▁grundlegenden	-7487
▁veröffentlichen	-7488
Wer	-7489
uar	-7490
▁ew	-7491
▁wä	-7492
atze	-7493
emin	-7494
ight	-7495
irbt	-7496
rast	-7497
xper	-7498
▁Dau	-7499
▁Tur	-7500
▁res	-7501
▁Ära	-7502
ünder	-7503
▁2009	-7504
▁Koch	-7505
▁Mamm	-7506
▁dick	-7507
▁entz	-7508
umente	-7509
▁Kongo	-7510
▁Tiefe	-7511
chester	-7512
ichtete	-7513
mittelt	-7514
▁Futter	-7515
▁Option	-7516
▁Schuhe	-7517
▁erhöht	-7518
▁winzig	-7519
▁grossen	-7520
▁nannten	-7521
▁Gegenden	-7522
▁ernähren	-7523
▁lebendig	-7524
▁momentan	-7525
▁reagiert	-7526
▁Geschäfte	-7527
▁Wachstums	-7528
▁anzusehen	-7529
▁unterwegs	-7530
▁Ingenieure	-7531
▁Richtungen	-7532
▁moralischen	-7533
▁vorbereitet	-7534
▁insbesondere	-7535
▁ursprünglich	-7536
wahrscheinlich	-7537
▁Lebenserwartung	-7538
ta	-7539
arr	-7540
ask	-7541
ola	-7542
züg	-7543
▁Wä	-7544
elen	-7545
inst	-7546
ärme	-7547
▁Prü	-7548
▁Ruf	-7549
▁Täu	-7550
▁imm	-7551
ahnen	-7552
auten	-7553
▁Beit	-7554
▁Dsch	-7555
▁Naja	-7556
▁deut	-7557
▁gele	-7558
▁kalt	-7559
▁naja	-7560
▁rech	-7561
flanze	-7562
gnügen	-7563
schaff	-7564
▁Erste	-7565
▁Große	-7566
▁Haiti	-7567
▁Scham	-7568
▁alltä	-7569
▁blind	-7570
▁schul	-7571
tztlich	-7572
▁Detail	-7573
▁Machen	-7574
▁Metall	-7575
▁angeht	-7576
▁erneut	-7577
abilität	-7578
▁Kategor	-7579
▁Neugier	-7580
▁Verkauf	-7581
▁beunruh	-7582
operation	-7583
schnitten	-7584
▁Erdbeben	-7585
berflächen	-7586
▁Afrikaner	-7587
▁Verfahren	-7588
▁begreifen	-7589
▁niemanden	-7590
gehensweise	-7591
zeichnungen	-7592
▁Teilnehmer	-7593
▁Mathematiker	-7594
▁fantastische	-7595
▁hinterlassen	-7596
▁dreidimension	-7597
▁Persönlichkeit	-7598
MM	-7599
gab	-7600
sun	-7601
▁sä	-7602
Talk	-7603
Welt	-7604
roht	-7605
tien	-7606
▁Hal	-7607
▁arg	-7608
ettet	-7609
stuhl	-7610
ähern	-7611
▁Flie	-7612
▁Gerü	-7613
▁Glet	-7614
▁Knie	-7615
▁Wann	-7616
▁Berge	-7617
▁Hitze	-7618
▁wirkt	-7619
▁Reisen	-7620
▁Street	-7621
▁fokuss	-7622
sproblem	-7623
▁letzter	-7624
schreiben	-7625
sprogramm	-7626
▁Erfinder	-7627
▁Ursprung	-7628
▁erfassen	-7629
▁wünschte	-7630
lichkeiten	-7631
produktion	-7632
▁Bedrohung	-7633
▁Schmerzen	-7634
▁spezielle	-7635
▁Dunkelheit	-7636
▁Regierungs	-7637
▁hinzufügen	-7638
▁kulturelle	-7639
▁ländlichen	-7640
▁eigentliche	-7641
▁verursachen	-7642
▁konfrontiert	-7643
▁interessanten	-7644
hai	-7645
ota	-7646
ägt	-7647
fone	-7648
ront	-7649
ziel	-7650
▁rot	-7651
atein	-7652
iness	-7653
teils	-7654
viele	-7655
▁Nutz	-7656
▁Nähr	-7657
▁Such	-7658
▁gebl	-7659
▁koll	-7660
gebiet	-7661
linien	-7662
messer	-7663
▁Alpha	-7664
▁Asien	-7665
▁Ghana	-7666
▁Indem	-7667
▁Obama	-7668
▁Teams	-7669
▁Zähne	-7670
▁garan	-7671
konomen	-7672
prozess	-7673
stausch	-7674
▁Medium	-7675
▁Yorker	-7676
▁Darüber	-7677
▁Inneren	-7678
▁schmerz	-7679
▁Chinesen	-7680
▁Gebrauch	-7681
▁erfüllen	-7682
▁glaubten	-7683
▁seltsame	-7684
▁studiert	-7685
▁visuelle	-7686
▁Innerhalb	-7687
▁Plötzlich	-7688
▁evolution	-7689
▁Brustkrebs	-7690
▁Verwendung	-7691
▁eingeführt	-7692
▁genetische	-7693
▁Internation	-7694
▁Terroristen	-7695
▁beigebracht	-7696
▁technischen	-7697
▁wiederholen	-7698
▁Normalerweise	-7699
Le	-7700
ds	-7701
car	-7702
ric	-7703
rot	-7704
▁ad	-7705
▁ti	-7706
arto	-7707
rien	-7708
äden	-7709
▁Bob	-7710
▁Box	-7711
ivers	-7712
reift	-7713
vater	-7714
▁Haie	-7715
▁Trin	-7716
öntgen	-7717
▁knapp	-7718
▁Flügel	-7719
▁Martin	-7720
▁Rezept	-7721
▁Schild	-7722
▁Sicher	-7723
▁Studio	-7724
▁kaufte	-7725
▁ration	-7726
▁General	-7727
▁Treffen	-7728
▁Verlauf	-7729
▁besucht	-7730
▁starken	-7731
▁Ägypten	-7732
▁Problems	-7733
▁Systemen	-7734
▁Training	-7735
▁berühren	-7736
▁kreative	-7737
▁lebenden	-7738
▁mehreren	-7739
▁vielmehr	-7740
▁Angelegen	-7741
▁Konflikte	-7742
▁Umständen	-7743
▁Vorschlag	-7744
▁weltweite	-7745
▁Heutzutage	-7746
▁beeindruck	-7747
▁langweilig	-7748
▁schwierige	-7749
▁vorsichtig	-7750
AR	-7751
wä	-7752
gut	-7753
ime	-7754
rim	-7755
way	-7756
ampe	-7757
osex	-7758
park	-7759
soft	-7760
▁Hir	-7761
▁Sur	-7762
änner	-7763
▁Bord	-7764
▁Chef	-7765
▁Euch	-7766
▁Jeff	-7767
▁Juni	-7768
▁Raub	-7769
▁fein	-7770
▁jüng	-7771
▁trug	-7772
▁älte	-7773
leicht	-7774
▁Sechs	-7775
▁rufen	-7776
▁weißt	-7777
▁zählt	-7778
enseits	-7779
fischen	-7780
fordern	-7781
systeme	-7782
▁Center	-7783
▁Marken	-7784
▁konsum	-7785
▁machst	-7786
▁neigen	-7787
▁oberen	-7788
▁schlug	-7789
aufnahme	-7790
▁Designs	-7791
▁Erinnern	-7792
▁Männchen	-7793
▁anhalten	-7794
▁anpassen	-7795
▁Mobiltele	-7796
▁Projekten	-7797
▁Schreiben	-7798
▁Eigenschaft	-7799
▁präsentiert	-7800
▁entscheidend	-7801
▁Gleichgewicht	-7802
kü	-7803
gin	-7804
une	-7805
▁2,	-7806
▁är	-7807
zusp	-7808
▁Hon	-7809
▁Mad	-7810
▁Mig	-7811
▁fru	-7812
▁ref	-7813
▁Übr	-7814
ppich	-7815
▁Arab	-7816
▁gere	-7817
bilden	-7818
design	-7819
fläche	-7820
irgend	-7821
terung	-7822
▁Carol	-7823
▁Prost	-7824
▁Schok	-7825
eichert	-7826
▁Wahlen	-7827
▁billig	-7828
▁höhere	-7829
▁späten	-7830
▁wahren	-7831
▁französ	-7832
▁liefert	-7833
▁schlägt	-7834
▁wieviel	-7835
▁Aufstieg	-7836
▁Autismus	-7837
▁Faktoren	-7838
▁Richtige	-7839
▁winzigen	-7840
▁Denkweise	-7841
▁ausmachen	-7842
▁mitnehmen	-7843
▁besonderen	-7844
▁Neuigkeiten	-7845
▁Wasserstoff	-7846
▁Nachbarschaft	-7847
▁bemerkenswert	-7848
▁außergewöhnlich	-7849
oh	-7850
ua	-7851
Ach	-7852
bie	-7853
ets	-7854
ius	-7855
agte	-7856
wort	-7857
zten	-7858
ätte	-7859
üren	-7860
üter	-7861
▁wär	-7862
Spiel	-7863
asern	-7864
metho	-7865
splan	-7866
ämpft	-7867
▁Ritu	-7868
▁hilf	-7869
▁sorg	-7870
fachen	-7871
▁Aller	-7872
▁Anruf	-7873
▁alter	-7874
▁manip	-7875
▁verkl	-7876
▁worum	-7877
twortet	-7878
▁Alters	-7879
▁Höhlen	-7880
▁Leiter	-7881
▁Niveau	-7882
▁abstra	-7883
▁fliegt	-7884
▁liebte	-7885
▁soweit	-7886
▁tanzen	-7887
▁wütend	-7888
gefallen	-7889
▁Italien	-7890
▁berücks	-7891
▁dankbar	-7892
▁entfern	-7893
▁Theorien	-7894
▁besuchte	-7895
▁gründete	-7896
ologischer	-7897
▁Belohnung	-7898
▁Vergnügen	-7899
▁ernsthaft	-7900
▁sogenannten	-7901
▁biologischen	-7902
▁leidenschaft	-7903
▁Einrichtungen	-7904
▁verschiedener	-7905
MMY	-7906
Man	-7907
abl	-7908
hel	-7909
prä	-7910
rel	-7911
uen	-7912
▁0,	-7913
▁hy	-7914
▁pf	-7915
UMMY	-7916
appt	-7917
dian	-7918
fand	-7919
ugen	-7920
▁Kuh	-7921
▁Mio	-7922
▁Mot	-7923
leger	-7924
▁Acht	-7925
▁Bier	-7926
▁Ener	-7927
▁Flor	-7928
▁Male	-7929
ichtum	-7930
melzen	-7931
utzend	-7932
▁Bibel	-7933
▁Enkel	-7934
▁Level	-7935
▁Misch	-7936
▁Subst	-7937
▁ruhig	-7938
▁unvor	-7939
station	-7940
▁Vertei	-7941
▁planen	-7942
▁vorhin	-7943
stimmung	-7944
▁Bericht	-7945
▁Spinnen	-7946
▁brechen	-7947
▁geteilt	-7948
▁Amerikan	-7949
▁Batterie	-7950
▁Fahrzeug	-7951
▁Schulter	-7952
▁Trotzdem	-7953
▁diagnost	-7954
▁erklärte	-7955
▁erwähnen	-7956
▁exponent	-7957
▁gesammelt	-7958
▁gestartet	-7959
▁dramatisch	-7960
▁investiert	-7961
▁elektrischen	-7962
Je	-7963
fig	-7964
ros	-7965
xis	-7966
▁28	-7967
Aber	-7968
gert	-7969
ille	-7970
sage	-7971
ßern	-7972
▁gra	-7973
alley	-7974
gespr	-7975
heuer	-7976
lever	-7977
oppel	-7978
riebs	-7979
stete	-7980
viert	-7981
▁Base	-7982
▁Kart	-7983
▁Live	-7984
▁Ment	-7985
▁hind	-7986
▁sens	-7987
▁spir	-7988
▁stre	-7989
fältig	-7990
genden	-7991
körper	-7992
lichem	-7993
schten	-7994
▁Beton	-7995
▁Block	-7996
▁Carto	-7997
▁Diabe	-7998
▁Gebur	-7999
▁Karik	-8000
▁frühe	-8001
▁radik	-8002
▁Geruch	-8003
▁Reihen	-8004
▁bildet	-8005
▁freund	-8006
▁lächer	-8007
▁nervös	-8008
▁stirbt	-8009
heiratet	-8010
▁Analyse	-8011
▁Anstieg	-8012
▁Flächen	-8013
▁Lächeln	-8014
▁Skelett	-8015
▁argumen	-8016
▁Behinder	-8017
▁Transpar	-8018
▁gelassen	-8019
▁riesiges	-8020
▁verfolgt	-8021
▁Microsoft	-8022
▁beitragen	-8023
▁berechnen	-8024
▁denselben	-8025
▁dazwischen	-8026
▁ignorieren	-8027
▁Präsidenten	-8028
▁wunderschöne	-8029
▁identifizieren	-8030
2,	-8031
IS	-8032
So	-8033
ep	-8034
500	-8035
▁to	-8036
ions	-8037
pass	-8038
rain	-8039
▁Amp	-8040
▁Wut	-8041
▁zwe	-8042
brech	-8043
lexib	-8044
ätten	-8045
▁Aufl	-8046
▁Benz	-8047
▁Camp	-8048
▁Dame	-8049
▁Feed	-8050
▁Glüh	-8051
▁Meet	-8052
▁Vern	-8053
▁vorn	-8054
andern	-8055
▁Demon	-8056
▁Küche	-8057
▁Sagen	-8058
▁human	-8059
▁jenen	-8060
▁mikro	-8061
▁molek	-8062
▁roman	-8063
dringen	-8064
fassung	-8065
▁Früher	-8066
▁Gipfel	-8067
▁Glücks	-8068
▁Großen	-8069
▁Hypoth	-8070
▁Organe	-8071
▁Rechts	-8072
▁gewiss	-8073
▁univer	-8074
anischen	-8075
▁Konstru	-8076
▁Röntgen	-8077
▁Schwarz	-8078
▁Science	-8079
▁Systems	-8080
▁erneuer	-8081
▁gesetzt	-8082
▁vernünf	-8083
ianischen	-8084
ulationen	-8085
▁Dokument	-8086
▁Gefangen	-8087
▁Pinguine	-8088
▁interpre	-8089
▁Motivation	-8090
▁arabischen	-8091
▁interaktiv	-8092
▁reparieren	-8093
schränkungen	-8094
▁glücklicher	-8095
▁zurückgehen	-8096
▁Schauspieler	-8097
▁mittlerweile	-8098
▁zurückkehren	-8099
▁Investitionen	-8100
▁Schriftsteller	-8101
▁Weltbevölkerung	-8102
üd	-8103
▁DH	-8104
▁Rö	-8105
▁cm	-8106
fung	-8107
räum	-8108
▁Kle	-8109
▁Ohr	-8110
▁eth	-8111
▁geg	-8112
▁wem	-8113
hlend	-8114
zifik	-8115
▁Brun	-8116
▁Füße	-8117
▁Nest	-8118
▁ehem	-8119
▁welt	-8120
auften	-8121
heimer	-8122
▁Immun	-8123
▁Logik	-8124
▁Szene	-8125
▁hoher	-8126
▁japan	-8127
aktoren	-8128
brochen	-8129
itieren	-8130
▁deinem	-8131
▁eingeb	-8132
▁gewann	-8133
▁wenden	-8134
ständige	-8135
▁benutze	-8136
▁dunklen	-8137
▁stimmen	-8138
▁verletz	-8139
▁Ausnahme	-8140
▁Gebieten	-8141
▁höchsten	-8142
▁leuchten	-8143
▁offenbar	-8144
▁Plattform	-8145
▁chemische	-8146
▁politisch	-8147
▁Jedenfalls	-8148
▁Reaktionen	-8149
▁nachhaltig	-8150
▁Anwendungen	-8151
▁Einfachheit	-8152
▁Oberflächen	-8153
▁Transparenz	-8154
▁genetischen	-8155
eme	-8156
hst	-8157
izz	-8158
tex	-8159
tic	-8160
xid	-8161
▁AB	-8162
▁BG	-8163
▁Ky	-8164
▁zü	-8165
kord	-8166
▁BIP	-8167
▁Wen	-8168
eiben	-8169
lösen	-8170
ossil	-8171
ülern	-8172
ürzen	-8173
üsten	-8174
▁2006	-8175
▁Saal	-8176
▁Trei	-8177
▁klet	-8178
▁leer	-8179
annter	-8180
fühlen	-8181
gänger	-8182
pflich	-8183
▁Figur	-8184
▁Guten	-8185
▁Serie	-8186
▁Willi	-8187
▁Wände	-8188
▁harte	-8189
▁jenem	-8190
▁korre	-8191
▁könne	-8192
▁Fertig	-8193
▁Proben	-8194
▁Rollen	-8195
▁Tränen	-8196
▁Wälder	-8197
▁hassen	-8198
aufgaben	-8199
ffizient	-8200
▁Anstren	-8201
▁Dutzend	-8202
▁Ursache	-8203
▁Verschw	-8204
▁Vorgang	-8205
▁angehen	-8206
▁höheren	-8207
▁kreiert	-8208
▁lernten	-8209
▁Epidemie	-8210
▁Hinblick	-8211
▁gerettet	-8212
▁hindurch	-8213
▁Effizienz	-8214
▁Weihnacht	-8215
▁Mitglieder	-8216
▁angemessen	-8217
▁emotionale	-8218
▁chinesische	-8219
▁wundervolle	-8220
▁Ungleichheit	-8221
▁traditionelle	-8222
ci	-8223
edy	-8224
ule	-8225
vir	-8226
▁26	-8227
▁my	-8228
baut	-8229
äger	-8230
ürzt	-8231
▁Rel	-8232
▁mar	-8233
▁prü	-8234
▁tre	-8235
agern	-8236
eiter	-8237
heore	-8238
selbe	-8239
vileg	-8240
weils	-8241
örder	-8242
▁Grie	-8243
▁Intu	-8244
▁Salz	-8245
▁char	-8246
▁lieb	-8247
eignet	-8248
fällig	-8249
klasse	-8250
leiter	-8251
rinzip	-8252
waffen	-8253
▁Marke	-8254
▁Tragö	-8255
▁saßen	-8256
▁verur	-8257
gebiete	-8258
gemacht	-8259
gerufen	-8260
üchtern	-8261
▁Atomen	-8262
▁Bedarf	-8263
▁Kommen	-8264
▁Zurück	-8265
▁kaputt	-8266
▁kommer	-8267
▁offene	-8268
▁reflek	-8269
▁schaue	-8270
▁öffnet	-8271
▁Büchern	-8272
▁Entsteh	-8273
▁richten	-8274
▁Feedback	-8275
▁Liebling	-8276
▁Stanford	-8277
▁aktuelle	-8278
▁gemessen	-8279
▁getrennt	-8280
▁heiraten	-8281
▁Gespräche	-8282
▁berichtet	-8283
▁Handlungen	-8284
▁gemeinnütz	-8285
▁Katastrophe	-8286
▁Konsumenten	-8287
▁Philosophie	-8288
▁anscheinend	-8289
▁irgendeinem	-8290
▁organisiert	-8291
▁schlimmsten	-8292
▁beeindrucken	-8293
dh	-8294
flü	-8295
▁36	-8296
▁Zy	-8297
burg	-8298
eins	-8299
inal	-8300
▁Arz	-8301
▁Get	-8302
▁Tum	-8303
▁att	-8304
▁bra	-8305
▁rum	-8306
▁ärm	-8307
krise	-8308
legte	-8309
ohlen	-8310
tiven	-8311
▁Klar	-8312
▁Näch	-8313
▁Smit	-8314
▁Star	-8315
▁Verz	-8316
▁häss	-8317
▁umso	-8318
geräte	-8319
ogramm	-8320
ziplin	-8321
ührung	-8322
▁Andre	-8323
▁Apple	-8324
▁Kugel	-8325
▁Polio	-8326
▁atmen	-8327
▁besei	-8328
▁bewir	-8329
▁stieg	-8330
▁öfter	-8331
staaten	-8332
▁Abhäng	-8333
▁Dialog	-8334
▁Fahrer	-8335
▁Valley	-8336
▁explod	-8337
▁potent	-8338
▁sonder	-8339
vermögen	-8340
zukommen	-8341
▁Erfolgs	-8342
▁Flederm	-8343
▁Handeln	-8344
▁Muskeln	-8345
▁Protein	-8346
▁Schokol	-8347
▁Sequenz	-8348
▁Wurzeln	-8349
▁bedeckt	-8350
▁schwere	-8351
alisierte	-8352
▁Entschul	-8353
▁Fotograf	-8354
▁Prozesse	-8355
▁Vermögen	-8356
▁früheren	-8357
▁nebenbei	-8358
▁verständ	-8359
▁Maßnahmen	-8360
▁mittleren	-8361
▁neugierig	-8362
ischerweise	-8363
ministerium	-8364
▁Funktionen	-8365
▁Population	-8366
▁Katastrophen	-8367
▁Unternehmens	-8368
▁Menschlichkeit	-8369
Fl	-8370
ony	-8371
▁Hu	-8372
▁Ug	-8373
aker	-8374
akul	-8375
ania	-8376
eige	-8377
gefä	-8378
gäng	-8379
kopf	-8380
wehr	-8381
▁120	-8382
▁195	-8383
▁Ann	-8384
▁Eur	-8385
▁Fal	-8386
▁Meg	-8387
▁Pin	-8388
▁Vag	-8389
andem	-8390
twick	-8391
uster	-8392
▁Last	-8393
▁hand	-8394
eigung	-8395
wendet	-8396
wählen	-8397
▁Leber	-8398
▁geöff	-8399
▁mobil	-8400
▁womit	-8401
politik	-8402
▁Budget	-8403
▁Muskel	-8404
▁Preise	-8405
▁Ratten	-8406
▁Therap	-8407
▁drehte	-8408
▁feiern	-8409
▁keines	-8410
schieben	-8411
▁Dadurch	-8412
▁gelegen	-8413
▁gewöhnt	-8414
▁jeweils	-8415
▁lebende	-8416
▁wirksam	-8417
formation	-8418
schreiten	-8419
▁Diagnose	-8420
▁Symptome	-8421
▁eröffnet	-8422
▁gesunden	-8423
▁kleinere	-8424
▁Architekt	-8425
▁Versuchen	-8426
▁benutzten	-8427
▁gezwungen	-8428
▁infiziert	-8429
▁nationale	-8430
▁schwimmen	-8431
▁Strategien	-8432
▁Wichtigste	-8433
▁inzwischen	-8434
▁unternehmen	-8435
▁Geschichtener	-8436
▁Universitäten	-8437
Sc	-8438
vo	-8439
Auf	-8440
Ges	-8441
ake	-8442
aku	-8443
▁Gö	-8444
Amer	-8445
ches	-8446
ämen	-8447
▁Abl	-8448
▁Aug	-8449
▁Nov	-8450
▁mel	-8451
▁ret	-8452
▁san	-8453
▁sym	-8454
▁ört	-8455
chtet	-8456
inson	-8457
weist	-8458
▁Ehre	-8459
▁Ever	-8460
▁Kühl	-8461
▁Leid	-8462
▁Myth	-8463
▁arch	-8464
▁gete	-8465
▁ment	-8466
archie	-8467
steine	-8468
▁Löwen	-8469
▁Smith	-8470
▁Sorge	-8471
▁Texas	-8472
▁islam	-8473
klusive	-8474
ogenese	-8475
quellen	-8476
▁Kredit	-8477
▁Sektor	-8478
▁beides	-8479
▁umwelt	-8480
▁verlor	-8481
▁vierte	-8482
mögliche	-8483
▁Blätter	-8484
▁Erstaun	-8485
▁Lehrern	-8486
▁Schnell	-8487
▁trocken	-8488
▁unsicht	-8489
▁zurecht	-8490
▁Gebäudes	-8491
▁Mitglied	-8492
▁ausmacht	-8493
▁schickte	-8494
▁verletzt	-8495
▁Änderung	-8496
▁Überwach	-8497
▁Internets	-8498
▁Nachfrage	-8499
▁Treibhaus	-8500
▁indischen	-8501
▁insgesamt	-8502
▁Organismus	-8503
▁regelmäßig	-8504
▁kulturellen	-8505
▁Verbesserung	-8506
wissenschaftler	-8507
▁Globalisierung	-8508
1.	-8509
Sh	-8510
sl	-8511
aps	-8512
bir	-8513
iop	-8514
tre	-8515
twa	-8516
▁65	-8517
pend	-8518
reht	-8519
▁Spe	-8520
▁Zie	-8521
▁abs	-8522
anzig	-8523
ektar	-8524
igend	-8525
ocken	-8526
reide	-8527
▁1960	-8528
▁1990	-8529
▁Brut	-8530
▁flog	-8531
▁heim	-8532
Wissen	-8533
assten	-8534
lament	-8535
leiten	-8536
ordnet	-8537
stoßen	-8538
▁Green	-8539
▁Hören	-8540
▁Lesen	-8541
▁Mount	-8542
▁Proje	-8543
▁Waffe	-8544
▁Wasch	-8545
Projekt	-8546
wandeln	-8547
▁Anweis	-8548
▁Januar	-8549
▁Metern	-8550
▁Tasche	-8551
▁Wander	-8552
▁echtes	-8553
▁frustr	-8554
▁jünger	-8555
▁nahezu	-8556
▁verlei	-8557
▁wartet	-8558
designer	-8559
tausende	-8560
▁Ausland	-8561
▁Fremden	-8562
▁geraten	-8563
▁heutige	-8564
▁verbrei	-8565
▁Diabetes	-8566
▁Hinweise	-8567
▁Sensoren	-8568
▁Wichtige	-8569
▁anbieten	-8570
▁anstelle	-8571
▁begrenzt	-8572
alisierten	-8573
zentration	-8574
▁Gletscher	-8575
▁Höhepunkt	-8576
▁Resultate	-8577
▁experimen	-8578
▁nachdenkt	-8579
▁weibliche	-8580
▁Lebensraum	-8581
▁Versorgung	-8582
▁übersetzen	-8583
▁analysieren	-8584
▁aufeinander	-8585
▁einzigartig	-8586
For	-8587
Und	-8588
bit	-8589
obi	-8590
ura	-8591
yto	-8592
▁22	-8593
tets	-8594
▁Bek	-8595
▁Jud	-8596
▁gif	-8597
eifen	-8598
etzen	-8599
fache	-8600
gebäu	-8601
gänge	-8602
llung	-8603
terte	-8604
▁1980	-8605
▁Bush	-8606
▁Mahl	-8607
▁Matt	-8608
▁hell	-8609
▁tanz	-8610
artner	-8611
schild	-8612
skraft	-8613
üchtig	-8614
▁Haare	-8615
▁Katze	-8616
▁Titan	-8617
▁freie	-8618
▁heben	-8619
▁schüt	-8620
▁wirft	-8621
▁Muslim	-8622
▁Vorder	-8623
▁innere	-8624
▁mochte	-8625
befinden	-8626
▁Letzten	-8627
▁beträgt	-8628
▁enormen	-8629
▁install	-8630
▁stammen	-8631
▁verließ	-8632
▁änderte	-8633
setzungen	-8634
▁Amerikas	-8635
▁Betracht	-8636
▁Schweine	-8637
▁Umstände	-8638
▁befreien	-8639
▁eingehen	-8640
▁erkunden	-8641
▁gegenwär	-8642
▁hingehen	-8643
▁sozialer	-8644
▁veränder	-8645
▁Übrigens	-8646
▁Experimen	-8647
▁Intuition	-8648
▁Symmetrie	-8649
▁antworten	-8650
▁vergleich	-8651
▁verpflich	-8652
▁verrückte	-8653
▁Journalist	-8654
▁Schwestern	-8655
▁Verteilung	-8656
▁revolution	-8657
▁wirklichen	-8658
▁Alternative	-8659
▁diskutieren	-8660
▁zukünftigen	-8661
▁Privatsphäre	-8662
▁komplizierter	-8663
do	-8664
sm	-8665
Gen	-8666
uth	-8667
▁Kr	-8668
▁Vi	-8669
enkt	-8670
erin	-8671
tika	-8672
ürze	-8673
▁Cor	-8674
▁Jer	-8675
asien	-8676
kohol	-8677
thmus	-8678
äufer	-8679
▁1950	-8680
▁Hill	-8681
▁Life	-8682
▁Mist	-8683
▁Stil	-8684
▁häuf	-8685
anlage	-8686
apital	-8687
brauch	-8688
ordnen	-8689
sitzen	-8690
spanne	-8691
zenten	-8692
▁Staub	-8693
▁beruh	-8694
▁dient	-8695
▁invol	-8696
▁misst	-8697
▁multi	-8698
▁spont	-8699
▁stets	-8700
▁Übung	-8701
duktion	-8702
raucher	-8703
schönen	-8704
▁Moskit	-8705
▁Umgang	-8706
▁Werden	-8707
▁ehemal	-8708
▁erlaub	-8709
▁füllen	-8710
▁höchst	-8711
jähriger	-8712
schalten	-8713
▁Auftrag	-8714
▁Ehemann	-8715
▁Verzwei	-8716
▁anfängt	-8717
▁höchste	-8718
▁setzten	-8719
▁Überall	-8720
schließen	-8721
▁Weibchen	-8722
▁ausgehen	-8723
▁bewahren	-8724
▁geöffnet	-8725
▁sinnvoll	-8726
wohnheiten	-8727
▁Ansichten	-8728
▁Statistik	-8729
▁bedeutend	-8730
▁physische	-8731
▁visuellen	-8732
▁Entstehung	-8733
▁Prototypen	-8734
▁Selbstmord	-8735
▁physischen	-8736
▁wiederholt	-8737
▁Flüssigkeit	-8738
▁Komponenten	-8739
▁unterhalten	-8740
▁chinesischen	-8741
▁festgestellt	-8742
▁irgendwelche	-8743
▁komplizierte	-8744
BI	-8745
Os	-8746
▁:	-8747
?",	-8748
any	-8749
uck	-8750
▁Et	-8751
dest	-8752
errt	-8753
ffin	-8754
uden	-8755
vent	-8756
▁Kör	-8757
▁Por	-8758
▁Pre	-8759
▁hüb	-8760
Inter	-8761
chron	-8762
fasst	-8763
größe	-8764
istin	-8765
llige	-8766
ridge	-8767
▁2004	-8768
▁Kenn	-8769
▁King	-8770
▁Kore	-8771
▁Manh	-8772
▁Urkn	-8773
▁Wäre	-8774
▁frie	-8775
▁trat	-8776
eitete	-8777
flogen	-8778
froren	-8779
▁Achse	-8780
▁Blase	-8781
▁Ernst	-8782
▁Gates	-8783
▁Pferd	-8784
▁selbe	-8785
▁verbr	-8786
gesetzt	-8787
▁Daumen	-8788
▁Sprung	-8789
▁Uganda	-8790
▁danken	-8791
▁keinem	-8792
gebungen	-8793
icherung	-8794
▁Dichter	-8795
▁Pflanze	-8796
▁ersetzt	-8797
▁gesunde	-8798
▁zuhören	-8799
▁Biologen	-8800
▁Kontroll	-8801
▁Konzepte	-8802
▁Schülern	-8803
▁Therapie	-8804
▁gefahren	-8805
▁jenseits	-8806
▁künstler	-8807
▁vorwärts	-8808
▁Abenteuer	-8809
▁Fahrzeuge	-8810
▁Mikroskop	-8811
▁Techniken	-8812
▁Toiletten	-8813
▁abgesehen	-8814
▁empfinden	-8815
▁kommerzie	-8816
▁produktiv	-8817
▁ähnlichen	-8818
krankheiten	-8819
▁Ausrüstung	-8820
▁ausgegeben	-8821
▁verstecken	-8822
abhängigkeit	-8823
▁Berechnungen	-8824
▁Wohlbefinden	-8825
▁hinsichtlich	-8826
▁intelligente	-8827
▁beeindruckend	-8828
▁repräsentiert	-8829
Pl	-8830
Te	-8831
tn	-8832
ya	-8833
Reg	-8834
obo	-8835
ops	-8836
wäl	-8837
▁BF	-8838
▁bo	-8839
irca	-8840
mode	-8841
orth	-8842
vice	-8843
▁Hai	-8844
▁Kok	-8845
▁Süß	-8846
▁emp	-8847
▁leg	-8848
heber	-8849
itute	-8850
rauen	-8851
▁rest	-8852
▁simp	-8853
drehen	-8854
mensch	-8855
▁Frühl	-8856
▁Gramm	-8857
▁Mathe	-8858
▁Satur	-8859
▁Schon	-8860
▁exakt	-8861
▁gehei	-8862
sperson	-8863
▁Explos	-8864
▁Nutzer	-8865
▁Stille	-8866
▁befest	-8867
▁entwar	-8868
▁kooper	-8869
▁werdet	-8870
▁ältere	-8871
beziehen	-8872
▁Raketen	-8873
▁Verhand	-8874
▁tauchen	-8875
▁verschm	-8876
▁Griechen	-8877
▁Illusion	-8878
▁Schwarze	-8879
▁Stiftung	-8880
▁Toilette	-8881
▁befassen	-8882
▁benutzte	-8883
▁einziges	-8884
▁erlangen	-8885
▁freiwill	-8886
▁geworfen	-8887
▁privaten	-8888
▁aktuellen	-8889
▁inklusive	-8890
▁Gestaltung	-8891
▁entdeckten	-8892
▁vermittelt	-8893
▁Unterwasser	-8894
▁Videospiele	-8895
▁angetrieben	-8896
▁profitieren	-8897
▁vorgestellt	-8898
▁Produktivität	-8899
PA	-8900
bru	-8901
emp	-8902
fro	-8903
gül	-8904
imb	-8905
ölf	-8906
bein	-8907
itar	-8908
lied	-8909
ühle	-8910
▁Mün	-8911
ekten	-8912
hafen	-8913
ismen	-8914
steht	-8915
sätze	-8916
teren	-8917
▁Dist	-8918
▁Gand	-8919
▁Spur	-8920
▁fair	-8921
▁real	-8922
undern	-8923
▁Derek	-8924
▁Onkel	-8925
▁Oxyto	-8926
▁Reden	-8927
▁Stich	-8928
▁altes	-8929
▁lasse	-8930
▁legte	-8931
▁leist	-8932
▁zwang	-8933
hlendio	-8934
stecken	-8935
sträger	-8936
▁Allgem	-8937
▁Ebenen	-8938
▁Klinik	-8939
▁Kuchen	-8940
▁Partei	-8941
▁konkur	-8942
▁muslim	-8943
eitungen	-8944
gegangen	-8945
ierendes	-8946
▁Magazin	-8947
▁Richter	-8948
▁bedroht	-8949
▁gelehrt	-8950
▁schöner	-8951
▁Baseball	-8952
▁Gefahren	-8953
▁schwerer	-8954
▁vergewal	-8955
▁überlebt	-8956
▁betreffen	-8957
▁unterhalb	-8958
▁Asteroiden	-8959
▁Standpunkt	-8960
▁technische	-8961
▁teilnehmen	-8962
▁Blickwinkel	-8963
▁Kooperation	-8964
▁vorhersagen	-8965
▁Depressionen	-8966
▁Nervenzellen	-8967
▁afrikanische	-8968
▁verschwindet	-8969
issenschaftler	-8970
▁erstaunlichen	-8971
▁ausschließlich	-8972
KW	-8973
Se	-8974
Wei	-8975
ani	-8976
eta	-8977
ood	-8978
uld	-8979
▁3.	-8980
▁32	-8981
Bahn	-8982
flie	-8983
hnte	-8984
pack	-8985
reut	-8986
uver	-8987
▁700	-8988
▁Anf	-8989
▁Anh	-8990
▁Mas	-8991
▁Tee	-8992
▁Zut	-8993
Mails	-8994
achel	-8995
firma	-8996
kunst	-8997
ronen	-8998
▁1970	-8999
▁2003	-9000
▁Appl	-9001
▁Fell	-9002
▁Hard	-9003
▁Penn	-9004
▁ethn	-9005
eltern	-9006
ithmus	-9007
lehnen	-9008
pflanz	-9009
steckt	-9010
straße	-9011
summen	-9012
ändler	-9013
▁Digit	-9014
▁Griff	-9015
▁Heran	-9016
▁Höhle	-9017
▁Meere	-9018
▁Multi	-9019
▁Prior	-9020
▁Werke	-9021
▁lasst	-9022
▁meint	-9023
bezogen	-9024
isierte	-9025
wertung	-9026
▁Alltag	-9027
▁Analog	-9028
▁Bomben	-9029
▁Fliege	-9030
▁Könnte	-9031
▁Oxford	-9032
▁Praxis	-9033
▁Ruanda	-9034
▁Schall	-9035
▁fließt	-9036
Programm	-9037
▁Alkohol	-9038
▁Drucker	-9039
▁Lichter	-9040
▁Weltall	-9041
▁berühmt	-9042
▁fließen	-9043
▁konserv	-9044
wesenheit	-9045
▁Ausgaben	-9046
▁getestet	-9047
▁jährlich	-9048
▁schreibe	-9049
▁zentrale	-9050
▁Kohlendio	-9051
▁erfordert	-9052
▁erhielten	-9053
▁errichten	-9054
▁komplexer	-9055
▁letztlich	-9056
▁schrieben	-9057
▁verteilen	-9058
▁Treibstoff	-9059
▁Widerstand	-9060
▁virtuellen	-9061
▁Operationen	-9062
▁nachhaltige	-9063
▁auszudrücken	-9064
▁wunderschönen	-9065
▁schlussendlich	-9066
Des	-9067
afe	-9068
agd	-9069
ary	-9070
kep	-9071
enti	-9072
hten	-9073
llos	-9074
trin	-9075
änen	-9076
▁Dat	-9077
▁Dün	-9078
▁Oel	-9079
▁Sus	-9080
▁spr	-9081
ahara	-9082
erung	-9083
ruppe	-9084
ttern	-9085
▁Bron	-9086
▁Egal	-9087
▁Etwa	-9088
▁Mama	-9089
▁hung	-9090
▁intu	-9091
▁live	-9092
▁löst	-9093
▁stra	-9094
▁üben	-9095
fällen	-9096
▁Front	-9097
▁Hölle	-9098
▁Knopf	-9099
▁Nobel	-9100
▁Smart	-9101
▁Trink	-9102
▁Wärme	-9103
▁begrü	-9104
lechter	-9105
projekt	-9106
▁Benzin	-9107
▁Bäumen	-9108
▁Intens	-9109
▁Knoten	-9110
▁Saturn	-9111
▁Stämme	-9112
▁Trends	-9113
▁Wirbel	-9114
▁clever	-9115
▁durfte	-9116
▁enttäu	-9117
▁festge	-9118
▁fuhren	-9119
ächtigen	-9120
▁Angebot	-9121
▁Beitrag	-9122
▁Betrieb	-9123
▁Entwurf	-9124
▁Inhalte	-9125
▁Schwanz	-9126
▁Schädel	-9127
▁gelangt	-9128
▁widersp	-9129
▁älteren	-9130
aktivität	-9131
▁Energien	-9132
▁Fantasie	-9133
▁Oxytocin	-9134
▁Speicher	-9135
▁Vorträge	-9136
▁behaupte	-9137
▁verliebt	-9138
▁Bedürfnis	-9139
▁Hollywood	-9140
▁Parlament	-9141
▁Zeitungen	-9142
▁niedriger	-9143
▁positiven	-9144
▁ungeheuer	-9145
▁übersetzt	-9146
▁Auswirkung	-9147
▁Elektronen	-9148
▁nationalen	-9149
▁umzusetzen	-9150
▁verringern	-9151
▁zukünftige	-9152
▁Mechanismus	-9153
▁verbrauchen	-9154
▁Korallenriff	-9155
▁zurückkommen	-9156
▁bemerkenswerte	-9157
▁einschließlich	-9158
Als	-9159
het	-9160
ise	-9161
kul	-9162
row	-9163
▁Nu	-9164
▁TV	-9165
agos	-9166
ippe	-9167
ival	-9168
komp	-9169
otto	-9170
stil	-9171
stär	-9172
uste	-9173
▁Fra	-9174
▁Joe	-9175
▁Nar	-9176
aller	-9177
orten	-9178
schel	-9179
umpen	-9180
▁Gast	-9181
▁Grav	-9182
▁Homo	-9183
▁Jose	-9184
▁Kond	-9185
▁Kosm	-9186
▁Thun	-9187
drücke	-9188
garten	-9189
gerung	-9190
kasten	-9191
mengen	-9192
mitten	-9193
▁Hyper	-9194
▁Kapaz	-9195
▁Nadel	-9196
▁Pause	-9197
▁Tempo	-9198
▁circa	-9199
▁herab	-9200
▁kraft	-9201
▁liebt	-9202
▁malen	-9203
▁zweit	-9204
edition	-9205
geboren	-9206
verkehr	-9207
zugehen	-9208
zustand	-9209
▁Ballon	-9210
▁Diesen	-9211
▁Konkur	-9212
▁Köpfen	-9213
▁Mannes	-9214
▁Pocken	-9215
▁Sieben	-9216
▁Werten	-9217
▁Würden	-9218
▁global	-9219
▁respek	-9220
illionen	-9221
▁Chirurg	-9222
▁klingen	-9223
▁kümmert	-9224
▁reicher	-9225
▁schönes	-9226
▁Bedenken	-9227
▁Sammlung	-9228
▁berühmte	-9229
▁gegessen	-9230
▁spannend	-9231
▁zweitens	-9232
▁Geschmack	-9233
▁Gleichung	-9234
▁Mittleren	-9235
▁Regenwald	-9236
▁gestaltet	-9237
▁hoffnungs	-9238
▁angekommen	-9239
▁ausdrücken	-9240
▁offensicht	-9241
▁allgemeinen	-9242
▁einzusetzen	-9243
▁Abhängigkeit	-9244
▁Arbeitsplatz	-9245
▁Erkrankungen	-9246
▁weiterentwick	-9247
ET	-9248
col	-9249
ena	-9250
kei	-9251
now	-9252
oto	-9253
uts	-9254
▁Ah	-9255
▁PC	-9256
ardo	-9257
eder	-9258
unft	-9259
äser	-9260
ünde	-9261
▁Alz	-9262
▁Hen	-9263
▁Jim	-9264
▁Lux	-9265
▁Tes	-9266
▁pol	-9267
▁ras	-9268
orter	-9269
sorge	-9270
srate	-9271
örung	-9272
▁Kilo	-9273
▁Lärm	-9274
▁beru	-9275
▁dumm	-9276
▁oper	-9277
binden	-9278
ingung	-9279
spunkt	-9280
wecken	-9281
▁5.000	-9282
▁Autob	-9283
▁Conne	-9284
▁Stick	-9285
▁derer	-9286
▁drück	-9287
▁rüber	-9288
▁tiefe	-9289
ichtigt	-9290
ilosoph	-9291
technik	-9292
▁20.000	-9293
▁Beinen	-9294
▁Dinger	-9295
▁Liefer	-9296
▁Poster	-9297
▁Tricks	-9298
▁kochen	-9299
▁treibt	-9300
forscher	-9301
▁Dennoch	-9302
▁Fußball	-9303
▁Glühbir	-9304
▁Manhatt	-9305
▁gewinnt	-9306
▁greifen	-9307
▁illegal	-9308
▁ärmsten	-9309
schaffung	-9310
▁Amazonas	-9311
▁Erschein	-9312
▁beachten	-9313
▁billiger	-9314
▁gesünder	-9315
▁Alzheimer	-9316
▁Einheiten	-9317
▁Erwärmung	-9318
▁Erziehung	-9319
▁Flughafen	-9320
▁erinnerte	-9321
▁scheitern	-9322
▁Elektronik	-9323
▁Gegenstand	-9324
▁verhindert	-9325
▁überprüfen	-9326
▁Anerkennung	-9327
▁schwierigen	-9328
▁zusätzliche	-9329
▁Kapitalismus	-9330
▁fotografiert	-9331
▁faszinierende	-9332
--	-9333
LA	-9334
zo	-9335
aya	-9336
eis	-9337
iat	-9338
ray	-9339
rix	-9340
uel	-9341
äme	-9342
öne	-9343
▁95	-9344
▁PM	-9345
flei	-9346
olum	-9347
well	-9348
▁Hut	-9349
▁Ref	-9350
▁Tän	-9351
leute	-9352
sucht	-9353
▁Ausl	-9354
▁Camb	-9355
▁Eric	-9356
▁Flag	-9357
▁Iron	-9358
▁quer	-9359
▁zugr	-9360
anders	-9361
esseln	-9362
gungen	-9363
jenige	-9364
ämpfer	-9365
▁Ignor	-9366
▁Mauer	-9367
▁Party	-9368
▁lagen	-9369
▁Europä	-9370
▁Howard	-9371
▁Kriege	-9372
▁Steven	-9373
▁Talent	-9374
▁schief	-9375
▁theore	-9376
▁tollen	-9377
geschäft	-9378
▁Autoren	-9379
▁Dritten	-9380
▁Dynamik	-9381
▁Handels	-9382
▁Spenden	-9383
▁Veranst	-9384
▁erfüllt	-9385
▁nirgend	-9386
▁trennen	-9387
▁zweites	-9388
zeichnung	-9389
▁Benutzer	-9390
▁Diplomat	-9391
▁Empathie	-9392
▁Interpre	-9393
▁gebildet	-9394
▁schießen	-9395
▁schnelle	-9396
▁zugrunde	-9397
▁Austausch	-9398
▁Flugzeuge	-9399
▁Orchester	-9400
▁Tätigkeit	-9401
▁angepasst	-9402
▁leistungs	-9403
▁verborgen	-9404
▁verlangen	-9405
bedingungen	-9406
▁Abendessen	-9407
▁Engagement	-9408
▁Gleichheit	-9409
▁Optimismus	-9410
▁allgemeine	-9411
▁beschützen	-9412
▁verbraucht	-9413
▁Zeichnungen	-9414
▁ausgebildet	-9415
▁verarbeiten	-9416
▁Kohlendioxid	-9417
▁schreckliche	-9418
▁Bürgermeister	-9419
▁unterscheidet	-9420
▁Nahrungsmittel	-9421
ux	-9422
urr	-9423
▁MR	-9424
▁kg	-9425
iene	-9426
itor	-9427
izop	-9428
klin	-9429
obby	-9430
oben	-9431
puls	-9432
rufe	-9433
sens	-9434
ters	-9435
tist	-9436
▁800	-9437
▁Ark	-9438
▁Cra	-9439
▁Mak	-9440
Masch	-9441
board	-9442
dacht	-9443
dustr	-9444
elles	-9445
igmen	-9446
ippen	-9447
lässt	-9448
risch	-9449
ulare	-9450
▁Fels	-9451
▁Gift	-9452
▁Gore	-9453
▁Prem	-9454
▁Rein	-9455
▁Tode	-9456
▁Watt	-9457
▁anre	-9458
▁befr	-9459
▁ulti	-9460
breite	-9461
gewebe	-9462
üttern	-9463
▁Apfel	-9464
▁Beide	-9465
▁Gehör	-9466
▁Köpfe	-9467
▁Zuhör	-9468
▁allzu	-9469
▁enthü	-9470
▁gigan	-9471
▁liest	-9472
▁offiz	-9473
▁reale	-9474
▁steig	-9475
▁verle	-9476
▁zogen	-9477
ektakul	-9478
▁Belast	-9479
▁Daniel	-9480
▁Gerade	-9481
▁Inseln	-9482
▁Kandid	-9483
▁Lieder	-9484
▁Mandel	-9485
▁Spuren	-9486
▁herbei	-9487
▁region	-9488
▁ultima	-9489
bteilung	-9490
izophren	-9491
reichend	-9492
▁Balance	-9493
▁Effekte	-9494
▁Flasche	-9495
▁Hinweis	-9496
▁Industr	-9497
▁Install	-9498
▁Letztes	-9499
▁Pazifik	-9500
▁erfasst	-9501
▁landete	-9502
▁winzige	-9503
▁Minister	-9504
▁einziger	-9505
▁schließt	-9506
▁verlangt	-9507
▁Allgemein	-9508
▁Animation	-9509
▁Cambridge	-9510
▁Fernseher	-9511
▁Fundament	-9512
▁erledigen	-9513
▁transform	-9514
▁täglichen	-9515
▁religiösen	-9516
▁Erfindungen	-9517
▁Erforschung	-9518
▁stattfinden	-9519
▁Erkenntnisse	-9520
▁Journalisten	-9521
▁Demonstration	-9522
▁abgeschlossen	-9523
Bl	-9524
EC	-9525
MA	-9526
ku	-9527
Sti	-9528
dam	-9529
das	-9530
dat	-9531
ope	-9532
▁Mü	-9533
▁Ul	-9534
alem	-9535
erte	-9536
geld	-9537
gels	-9538
strö	-9539
uzin	-9540
▁Bez	-9541
▁LED	-9542
▁Mul	-9543
▁Nad	-9544
▁Oft	-9545
▁Sir	-9546
▁Äth	-9547
otter	-9548
ource	-9549
rugen	-9550
strom	-9551
▁Fund	-9552
▁Seil	-9553
▁anti	-9554
▁halt	-9555
ktoren	-9556
ramide	-9557
▁Honig	-9558
▁Koran	-9559
▁Lehre	-9560
▁Olymp	-9561
▁Probe	-9562
▁Story	-9563
▁Volks	-9564
▁Weltw	-9565
▁auton	-9566
▁block	-9567
▁schme	-9568
▁schäd	-9569
ektiver	-9570
klichen	-9571
lichung	-9572
▁50.000	-9573
▁Besten	-9574
▁Dichte	-9575
▁Phosph	-9576
▁Szenar	-9577
▁leeren	-9578
▁reiste	-9579
▁Äthiop	-9580
erkennen	-9581
gekommen	-9582
probleme	-9583
temberau	-9584
werkraft	-9585
▁Figuren	-9586
▁Geburts	-9587
▁Oktober	-9588
▁Studium	-9589
▁Urheber	-9590
▁beendet	-9591
▁gefüllt	-9592
▁geredet	-9593
▁unangen	-9594
aufnahmen	-9595
igerweise	-9596
maschinen	-9597
▁Bewohner	-9598
▁Institut	-9599
▁Versagen	-9600
▁erzielen	-9601
▁wünschen	-9602
▁Täuschung	-9603
▁erzählten	-9604
▁hilfreich	-9605
▁perfekten	-9606
Technologie	-9607
geschritten	-9608
▁angeschaut	-9609
▁künstliche	-9610
▁zusätzlich	-9611
▁Allgemeinen	-9612
▁Nordamerika	-9613
▁kombinieren	-9614
▁Medikamenten	-9615
▁ungewöhnlich	-9616
▁wundervollen	-9617
▁ursprüngliche	-9618
'.	-9619
cl	-9620
äm	-9621
Geh	-9622
Men	-9623
hus	-9624
ßte	-9625
▁85	-9626
▁KB	-9627
Jähr	-9628
baum	-9629
bele	-9630
bell	-9631
klar	-9632
llte	-9633
loud	-9634
stel	-9635
stoß	-9636
ulin	-9637
verl	-9638
wich	-9639
▁Bür	-9640
▁Dop	-9641
▁Fro	-9642
▁Grü	-9643
▁Leg	-9644
▁Lou	-9645
▁ass	-9646
▁str	-9647
besch	-9648
bruar	-9649
formt	-9650
front	-9651
geord	-9652
riert	-9653
ville	-9654
werte	-9655
▁Phys	-9656
▁Riff	-9657
▁Schm	-9658
▁Wale	-9659
▁beur	-9660
▁kosm	-9661
▁sign	-9662
haufen	-9663
itiert	-9664
mittag	-9665
regung	-9666
▁Füßen	-9667
▁Haust	-9668
▁Käfer	-9669
▁Summe	-9670
▁Sätze	-9671
▁trage	-9672
agessen	-9673
▁Berufs	-9674
▁Brüder	-9675
▁Chines	-9676
▁Felsen	-9677
▁Katzen	-9678
▁Latein	-9679
▁Messer	-9680
▁lenken	-9681
▁person	-9682
▁spiele	-9683
▁tolles	-9684
getragen	-9685
ichteten	-9686
zumachen	-9687
zweifelt	-9688
▁Februar	-9689
▁Florida	-9690
▁Punkten	-9691
▁fühlten	-9692
▁suchten	-9693
ikationen	-9694
irtschaft	-9695
katastrop	-9696
tigkeiten	-9697
▁Fabriken	-9698
▁Frühling	-9699
▁Reichtum	-9700
▁Vortrags	-9701
▁Weltbank	-9702
▁bewerten	-9703
▁erschien	-9704
▁sexuelle	-9705
▁struktur	-9706
▁Anzeichen	-9707
▁Kreaturen	-9708
▁Kreislauf	-9709
▁geblieben	-9710
▁tausenden	-9711
▁wiederher	-9712
friedenheit	-9713
▁aufmerksam	-9714
▁auftauchen	-9715
▁chemischen	-9716
▁Gegenstände	-9717
▁anzuschauen	-9718
▁stattfindet	-9719
▁einzigartige	-9720
▁interessantes	-9721
▁programmieren	-9722
▁überraschende	-9723
▁Lebensqualität	-9724
wa	-9725
Aus	-9726
Ger	-9727
Ist	-9728
ino	-9729
las	-9730
low	-9731
mär	-9732
nei	-9733
que	-9734
sey	-9735
▁CE	-9736
able	-9737
anna	-9738
dere	-9739
gner	-9740
kind	-9741
lass	-9742
▁17.	-9743
▁191	-9744
▁Amy	-9745
▁Hol	-9746
▁Kab	-9747
▁Van	-9748
▁Vul	-9749
▁nör	-9750
▁weh	-9751
antom	-9752
attet	-9753
haber	-9754
stron	-9755
▁Ther	-9756
▁bele	-9757
▁herz	-9758
aufbau	-9759
bellen	-9760
handel	-9761
iegeln	-9762
immern	-9763
lässig	-9764
oppeln	-9765
ropfen	-9766
stande	-9767
werten	-9768
▁Brown	-9769
▁Kiste	-9770
▁Kluft	-9771
▁Laser	-9772
▁Lücke	-9773
▁Mäuse	-9774
▁Nahen	-9775
▁Welle	-9776
▁Woher	-9777
▁Wohlt	-9778
▁abend	-9779
▁endet	-9780
▁heiße	-9781
▁kauft	-9782
▁mater	-9783
▁schie	-9784
▁verne	-9785
brachte	-9786
fertigt	-9787
ildeten	-9788
streben	-9789
tragung	-9790
wirkung	-9791
▁Poesie	-9792
▁Schock	-9793
▁Spiels	-9794
▁Tenden	-9795
▁echter	-9796
▁erfuhr	-9797
▁senken	-9798
▁stoßen	-9799
▁synthe	-9800
▁widmen	-9801
▁Betrach	-9802
▁Indiens	-9803
▁Komprom	-9804
▁Rettung	-9805
▁Spitzen	-9806
▁Zentral	-9807
▁beschäd	-9808
▁diesmal	-9809
▁dreimal	-9810
▁grösser	-9811
▁inneren	-9812
▁nutzten	-9813
▁private	-9814
▁Business	-9815
▁Ignoranz	-9816
▁Objekten	-9817
▁Schlange	-9818
▁aufrecht	-9819
▁beziehen	-9820
▁inmitten	-9821
▁verfügen	-9822
▁zugleich	-9823
▁Übergang	-9824
▁Chirurgen	-9825
▁Einwohner	-9826
▁Großvater	-9827
▁Manhattan	-9828
▁Strahlung	-9829
▁anzugehen	-9830
▁ausführen	-9831
▁folgender	-9832
▁irgendwas	-9833
▁spektakul	-9834
▁vielerlei	-9835
▁virtuelle	-9836
▁Allerdings	-9837
▁Auffassung	-9838
▁Betrachten	-9839
▁Reichweite	-9840
▁Supermarkt	-9841
▁Wörterbuch	-9842
▁finanziert	-9843
▁geschlagen	-9844
▁trainieren	-9845
▁Schwerkraft	-9846
▁finanzieren	-9847
▁Bewusstseins	-9848
▁optimistisch	-9849
▁weitermachen	-9850
▁durchzuführen	-9851
▁sicherstellen	-9852
▁Untersuchungen	-9853
Ch	-9854
lv	-9855
▁y	-9856
ini	-9857
orp	-9858
röh	-9859
äus	-9860
▁33	-9861
▁CD	-9862
▁rü	-9863
,000	-9864
..."	-9865
ahre	-9866
arma	-9867
drom	-9868
fiel	-9869
icon	-9870
illa	-9871
kins	-9872
omos	-9873
quar	-9874
sitz	-9875
unen	-9876
ähmt	-9877
▁Bay	-9878
▁Flu	-9879
▁Ski	-9880
▁dum	-9881
▁met	-9882
ettel	-9883
▁Chip	-9884
▁Hals	-9885
▁Kauf	-9886
▁Lust	-9887
▁Song	-9888
▁deta	-9889
▁lehr	-9890
▁nied	-9891
▁ruft	-9892
fanden	-9893
reißen	-9894
rucken	-9895
öpfung	-9896
▁Absch	-9897
▁Appar	-9898
▁Behör	-9899
▁Genen	-9900
▁Hügel	-9901
▁Möbel	-9902
▁Somit	-9903
▁Straf	-9904
▁Taten	-9905
▁flüss	-9906
▁nukle	-9907
▁redet	-9908
▁tritt	-9909
▁zwölf	-9910
anlagen	-9911
behörde	-9912
fleisch	-9913
gebäude	-9914
hundert	-9915
pressiv	-9916
sonsten	-9917
▁Ameise	-9918
▁Andrew	-9919
▁Einmal	-9920
▁Filmem	-9921
▁Vagina	-9922
▁Wüsten	-9923
▁aussah	-9924
▁halben	-9925
▁vertik	-9926
gebnisse	-9927
▁Genauso	-9928
▁Königin	-9929
▁Manager	-9930
▁Schlimm	-9931
▁Streben	-9932
▁TEDTalk	-9933
▁bevorzu	-9934
▁detaill	-9935
▁militär	-9936
▁neulich	-9937
▁statist	-9938
wirkungen	-9939
▁Gewinner	-9940
▁Handlung	-9941
▁Norwegen	-9942
▁Schwefel	-9943
▁Tragödie	-9944
▁bedenken	-9945
▁erledigt	-9946
▁hundertt	-9947
▁häufiger	-9948
▁schaffte	-9949
▁sicherer	-9950
▁Führungsk	-9951
▁Rollstuhl	-9952
▁Schlechte	-9953
▁effizient	-9954
▁geschützt	-9955
▁gewaltige	-9956
▁vergrößer	-9957
▁westliche	-9958
▁Bandbreite	-9959
▁Religionen	-9960
▁klassische	-9961
▁überlassen	-9962
▁Mittagessen	-9963
▁abschließen	-9964
▁irgendeiner	-9965
▁präsentieren	-9966
▁Konzentration	-9967
',	-9968
Ber	-9969
häu	-9970
ima	-9971
mod	-9972
räf	-9973
yer	-9974
äub	-9975
Kopf	-9976
Plan	-9977
hrer	-9978
iser	-9979
zenz	-9980
ästh	-9981
▁Big	-9982
▁Jes	-9983
▁Mai	-9984
▁Neg	-9985
▁Ray	-9986
▁ang	-9987
▁jüd	-9988
▁sor	-9989
bogen	-9990
flung	-9991
ifest	-9992
▁2001	-9993
▁Benj	-9994
▁Dick	-9995
▁Euro	-9996
▁Hans	-9997
▁Held	-9998
▁Hung	-9999
▁Josh	-10000
▁Mary	-10001
▁Maße	-10002
▁Zehn	-10003
▁plus	-10004
iktion	-10005
ildete	-10006
tigend	-10007
uchsen	-10008
▁Brand	-10009
▁Brian	-10010
▁Dauer	-10011
▁Extra	-10012
▁Länge	-10013
▁Maler	-10014
▁Waren	-10015
▁linke	-10016
▁präzi	-10017
▁übers	-10018
anthrop	-10019
konstru	-10020
pflicht	-10021
setzten	-10022
tausend	-10023
▁Gehalt	-10024
▁Golden	-10025
▁Küsten	-10026
▁Republ	-10027
▁Winkel	-10028
▁akadem	-10029
▁einzig	-10030
▁erfand	-10031
▁kurzer	-10032
andelten	-10033
sorganis	-10034
▁Anreize	-10035
▁Ausgang	-10036
▁Heilung	-10037
▁Könnten	-10038
▁Planung	-10039
▁einzeln	-10040
▁vermute	-10041
▁zugeben	-10042
▁zwingen	-10043
minalität	-10044
▁Bedauern	-10045
▁Gewässer	-10046
▁Herkunft	-10047
▁Original	-10048
▁Rhythmus	-10049
▁Vernunft	-10050
▁Vielzahl	-10051
▁bedienen	-10052
▁betreten	-10053
▁relevant	-10054
▁Institute	-10055
▁Prozesses	-10056
▁Störungen	-10057
▁Vereinten	-10058
▁berühmten	-10059
▁definitiv	-10060
▁ermutigen	-10061
▁Management	-10062
▁ansprechen	-10063
▁ausgewählt	-10064
▁britischen	-10065
▁effektiver	-10066
▁einstellen	-10067
▁englischen	-10068
▁involviert	-10069
▁verdoppelt	-10070
▁Geheimnisse	-10071
▁Hindernisse	-10072
▁Mittelpunkt	-10073
▁Trinkwasser	-10074
▁zweieinhalb	-10075
▁Überzeugung	-10076
▁Stoffwechsel	-10077
▁Verletzungen	-10078
▁Verzweiflung	-10079
▁entschlossen	-10080
▁finanziellen	-10081
▁gewissermaßen	-10082
▁individuellen	-10083
Don	-10084
erz	-10085
lem	-10086
ora	-10087
osn	-10088
tzu	-10089
äck	-10090
Mein	-10091
kern	-10092
rier	-10093
vern	-10094
üben	-10095
▁10-	-10096
▁Dez	-10097
▁LKW	-10098
▁Mah	-10099
▁Tja	-10100
▁Wün	-10101
agten	-10102
ampen	-10103
dauer	-10104
ehrte	-10105
kamen	-10106
ortex	-10107
steck	-10108
ymmet	-10109
▁Güte	-10110
▁Jazz	-10111
▁Sexu	-10112
▁Wird	-10113
▁brei	-10114
lösung	-10115
physik	-10116
trover	-10117
ussten	-10118
ustern	-10119
zeilen	-10120
▁Leder	-10121
▁Media	-10122
▁Panik	-10123
▁beruf	-10124
▁dicht	-10125
▁etabl	-10126
gefasst	-10127
ährungs	-10128
▁Banken	-10129
▁Blasen	-10130
▁Buches	-10131
▁Küchen	-10132
▁Türkei	-10133
▁geheim	-10134
▁symbol	-10135
gefangen	-10136
schungen	-10137
▁Abstand	-10138
▁Anthrop	-10139
▁Beschäf	-10140
▁Johnson	-10141
▁Stephen	-10142
▁beliebt	-10143
▁bewegte	-10144
▁beängst	-10145
▁komisch	-10146
▁träumen	-10147
▁verhält	-10148
▁Blutgefä	-10149
▁Direktor	-10150
▁Mischung	-10151
▁Privileg	-10152
▁Skulptur	-10153
▁andauern	-10154
▁aufgeben	-10155
▁herrscht	-10156
▁mithilfe	-10157
▁neuesten	-10158
▁startete	-10159
▁unsicher	-10160
temperatur	-10161
▁Offenheit	-10162
▁atemberau	-10163
▁genetisch	-10164
▁mitteilen	-10165
▁probieren	-10166
▁speichern	-10167
▁Königreich	-10168
▁Leistungen	-10169
▁Simulation	-10170
▁angesichts	-10171
▁gewöhnlich	-10172
▁Widerspruch	-10173
▁Schreibtisch	-10174
▁darzustellen	-10175
▁exponentiell	-10176
▁individuelle	-10177
▁Bildungssystem	-10178
▁eingeschlossen	-10179
▁ursprünglichen	-10180
Mar	-10181
bew	-10182
gei	-10183
kür	-10184
ror	-10185
▁tr	-10186
arth	-10187
arzt	-10188
bole	-10189
dels	-10190
fabr	-10191
film	-10192
igem	-10193
ilem	-10194
odie	-10195
osop	-10196
▁FBI	-10197
▁Sec	-10198
▁biz	-10199
Gesch	-10200
athan	-10201
günst	-10202
iller	-10203
läuft	-10204
otten	-10205
right	-10206
stock	-10207
▁Agen	-10208
▁Bahn	-10209
▁Dreh	-10210
▁Farb	-10211
▁Mais	-10212
▁Neun	-10213
▁bahn	-10214
▁klug	-10215
▁tend	-10216
▁wein	-10217
istent	-10218
kinder	-10219
uchtet	-10220
▁Crick	-10221
▁Dreie	-10222
▁Falle	-10223
▁Lügen	-10224
▁Power	-10225
▁Slums	-10226
▁Vietn	-10227
▁Zigar	-10228
▁anerk	-10229
▁draht	-10230
▁teure	-10231
enntnis	-10232
legenen	-10233
schwing	-10234
theorie	-10235
▁Antark	-10236
▁Babies	-10237
▁Besser	-10238
▁Beutel	-10239
▁Glaube	-10240
▁Materi	-10241
▁Vorles	-10242
▁fossil	-10243
▁rennen	-10244
▁sinken	-10245
▁tiefen	-10246
▁vertei	-10247
▁Ärzten	-10248
alitäten	-10249
vielfalt	-10250
▁Antibio	-10251
▁Dopamin	-10252
▁Kolonie	-10253
▁Notwend	-10254
▁Zweiten	-10255
▁empfind	-10256
▁fordert	-10257
▁gedreht	-10258
▁hierfür	-10259
▁radikal	-10260
▁wodurch	-10261
▁überwäl	-10262
arenergie	-10263
▁Bescheid	-10264
▁Dezember	-10265
▁Eingriff	-10266
▁Phosphor	-10267
▁Sprecher	-10268
▁improvis	-10269
▁intuitiv	-10270
▁steigern	-10271
▁umsetzen	-10272
▁verboten	-10273
▁vielmals	-10274
▁Einzelnen	-10275
▁Meinungen	-10276
▁Schichten	-10277
▁Tausenden	-10278
▁anstellen	-10279
▁einnehmen	-10280
▁schickten	-10281
▁unendlich	-10282
▁vorkommen	-10283
▁wiederver	-10284
▁Schokolade	-10285
▁Umgebungen	-10286
▁lächerlich	-10287
▁wahrschein	-10288
▁Einrichtung	-10289
▁Hilfsmittel	-10290
▁beobachtete	-10291
▁experimente	-10292
▁großartiger	-10293
▁städtischen	-10294
▁Beschreibung	-10295
▁beizubringen	-10296
▁Sterblichkeit	-10297
▁entscheidende	-10298
▁Unabhängigkeit	-10299
▁fortgeschritten	-10300
Ab	-10301
NA	-10302
Kön	-10303
aby	-10304
beu	-10305
ble	-10306
hur	-10307
kar	-10308
okl	-10309
pal	-10310
put	-10311
tur	-10312
▁mü	-10313
Null	-10314
achs	-10315
delt	-10316
fass	-10317
neur	-10318
oole	-10319
reng	-10320
würd	-10321
zert	-10322
▁Dek	-10323
▁Rio	-10324
▁brä	-10325
block	-10326
ehnte	-10327
hielt	-10328
iefer	-10329
ision	-10330
loser	-10331
sches	-10332
uropa	-10333
verei	-10334
wandt	-10335
▁Farm	-10336
▁Samm	-10337
▁gekl	-10338
▁lass	-10339
▁wozu	-10340
berech	-10341
bergen	-10342
blasen	-10343
eichen	-10344
itiver	-10345
kräfte	-10346
ladung	-10347
ologin	-10348
rachen	-10349
reicht	-10350
üchern	-10351
▁Blogs	-10352
▁Bruch	-10353
▁Count	-10354
▁Sturm	-10355
▁Zenti	-10356
▁illeg	-10357
▁stärk	-10358
anische	-10359
flächen	-10360
ometrie	-10361
spruchs	-10362
▁Doppel	-10363
▁Filter	-10364
▁Hacker	-10365
▁Kurzem	-10366
▁Später	-10367
▁Stimmt	-10368
▁Wollen	-10369
▁genaue	-10370
sprecher	-10371
ulierung	-10372
wechseln	-10373
▁Laptops	-10374
▁Motoren	-10375
▁Muslime	-10376
▁Platten	-10377
▁Taliban	-10378
▁Tropfen	-10379
▁betonen	-10380
▁bewirkt	-10381
▁blicken	-10382
▁gerecht	-10383
▁regener	-10384
▁schwach	-10385
▁verdien	-10386
▁Fettleib	-10387
▁ankommen	-10388
▁eröffnen	-10389
▁intensiv	-10390
▁spielten	-10391
▁Autorität	-10392
▁Bewegungs	-10393
▁Dimension	-10394
▁Produkten	-10395
▁Unterhalt	-10396
▁auftreten	-10397
▁gewachsen	-10398
▁ähnliches	-10399
bewusstsein	-10400
▁Einkommens	-10401
▁Emissionen	-10402
▁aktivieren	-10403
▁bewältigen	-10404
▁verurteilt	-10405
▁überqueren	-10406
▁überwachen	-10407
▁Vorhersagen	-10408
▁tiefgreifen	-10409
▁Interessante	-10410
▁Klimawandels	-10411
▁Solarenergie	-10412
▁Unsicherheit	-10413
▁Wohltätigkeit	-10414
▁Aufzeichnungen	-10415
▁sicherzustellen	-10416
Kl	-10417
We	-10418
Wow	-10419
kap	-10420
kol	-10421
▁29	-10422
Test	-10423
gste	-10424
ical	-10425
ideo	-10426
öpfe	-10427
üten	-10428
▁Bew	-10429
▁Bör	-10430
▁Kub	-10431
▁Liz	-10432
▁Ted	-10433
▁klu	-10434
▁max	-10435
abeth	-10436
agert	-10437
allel	-10438
apier	-10439
dungs	-10440
elson	-10441
figur	-10442
ieber	-10443
iffen	-10444
itäre	-10445
kampf	-10446
obile	-10447
▁Kell	-10448
▁Lein	-10449
▁Prak	-10450
▁Reis	-10451
▁Sele	-10452
▁Stap	-10453
▁Tsun	-10454
▁Vieh	-10455
▁chao	-10456
▁euer	-10457
▁iPod	-10458
führte	-10459
graben	-10460
iction	-10461
terten	-10462
voller	-10463
▁Black	-10464
▁Liber	-10465
▁Luxus	-10466
▁Rauch	-10467
▁Werbe	-10468
▁befür	-10469
▁behin	-10470
▁chron	-10471
▁flach	-10472
▁konst	-10473
▁ständ	-10474
▁zivil	-10475
konomie	-10476
laubnis	-10477
ungslos	-10478
▁Akadem	-10479
▁Magnet	-10480
▁Steine	-10481
▁Virgin	-10482
▁Wortes	-10483
▁derzei	-10484
▁drüber	-10485
▁legten	-10486
▁unverm	-10487
fertigen	-10488
undation	-10489
▁Brücken	-10490
▁Einkauf	-10491
▁Konserv	-10492
▁Rechner	-10493
▁Unglück	-10494
▁Vertrau	-10495
▁Vorbild	-10496
▁ausländ	-10497
▁beginne	-10498
▁bezieht	-10499
▁blieben	-10500
▁kannten	-10501
▁negativ	-10502
▁züchten	-10503
otherapie	-10504
▁Hochzeit	-10505
▁Horizont	-10506
▁Personal	-10507
▁Spannung	-10508
▁basieren	-10509
▁geeignet	-10510
▁geleitet	-10511
▁globaler	-10512
▁soziales	-10513
▁streiten	-10514
unterricht	-10515
▁Auflösung	-10516
▁Bakterium	-10517
▁Feuerwehr	-10518
▁Hypothese	-10519
▁Karikatur	-10520
▁komplette	-10521
▁schafften	-10522
▁Expedition	-10523
▁Initiative	-10524
▁anzunehmen	-10525
▁verbrennen	-10526
▁vergrößern	-10527
▁Immunsystem	-10528
▁Restaurants	-10529
▁eingestellt	-10530
▁verzweifelt	-10531
▁Angestellten	-10532
▁Krankenschwe	-10533
▁Schlagzeilen	-10534
▁industrielle	-10535
▁unterrichtet	-10536
▁Entschuldigung	-10537
▁Offensichtlich	-10538
na	-10539
dex	-10540
geh	-10541
ish	-10542
▁Ag	-10543
▁Ye	-10544
▁fä	-10545
ahme	-10546
ehle	-10547
gase	-10548
ihad	-10549
ocht	-10550
udie	-10551
älen	-10552
▁1,5	-10553
▁Mur	-10554
▁Sow	-10555
▁dep	-10556
▁ele	-10557
▁gol	-10558
▁kat	-10559
amera	-10560
klang	-10561
ropie	-10562
sters	-10563
udien	-10564
uther	-10565
üster	-10566
▁2011	-10567
▁Käse	-10568
▁Lass	-10569
▁Lego	-10570
▁Long	-10571
▁Meme	-10572
▁Symp	-10573
▁fröh	-10574
▁schr	-10575
besitz	-10576
firmen	-10577
ittern	-10578
strate	-10579
uelles	-10580
weiten	-10581
▁Bären	-10582
▁Galer	-10583
▁Paras	-10584
▁Pläne	-10585
▁tötet	-10586
führten	-10587
▁Anreiz	-10588
▁Bergen	-10589
▁Frucht	-10590
▁Keiner	-10591
▁Methan	-10592
▁Newton	-10593
▁Nächst	-10594
▁falten	-10595
▁großem	-10596
▁jahrel	-10597
▁prüfen	-10598
computer	-10599
▁Demokra	-10600
▁Drohnen	-10601
▁Phantom	-10602
▁Umfrage	-10603
▁Urknall	-10604
▁William	-10605
▁ankommt	-10606
▁fesseln	-10607
▁gelingt	-10608
▁glamour	-10609
▁würdest	-10610
▁wüssten	-10611
fektionen	-10612
▁Flaschen	-10613
▁Lehrerin	-10614
▁Neandert	-10615
▁Robotern	-10616
▁erstaunt	-10617
▁geringer	-10618
▁nochmals	-10619
▁verdammt	-10620
▁Fischerei	-10621
▁Impfstoff	-10622
▁Selektion	-10623
▁Verlangen	-10624
▁jedermann	-10625
▁studierte	-10626
▁verkaufte	-10627
▁Brennstoff	-10628
▁Grundlagen	-10629
▁Stabilität	-10630
▁schlechtes	-10631
▁Algorithmus	-10632
▁Reihenfolge	-10633
▁ausreichend	-10634
▁effizienter	-10635
▁großartiges	-10636
▁Diskussionen	-10637
▁Konstruktion	-10638
▁beschleunigen	-10639
▁fantastischen	-10640
▁schrecklichen	-10641
▁Fettleibigkeit	-10642
▁Menschenrechte	-10643
▁transportieren	-10644
-1	-10645
Fre	-10646
aks	-10647
nel	-10648
vas	-10649
▁3,	-10650
▁55	-10651
▁EU	-10652
▁po	-10653
appe	-10654
espe	-10655
etho	-10656
face	-10657
osis	-10658
▁18.	-10659
▁Bra	-10660
▁Mer	-10661
▁Tax	-10662
▁bzw	-10663
▁eur	-10664
▁zun	-10665
flüss	-10666
hinge	-10667
llten	-10668
malen	-10669
ogene	-10670
rateg	-10671
zeige	-10672
ämpfe	-10673
äuber	-10674
▁Bern	-10675
▁Clin	-10676
▁Dikt	-10677
▁Halb	-10678
▁Nick	-10679
▁Papa	-10680
▁Pilz	-10681
▁Poly	-10682
▁Sher	-10683
▁Sowj	-10684
▁Wall	-10685
▁wach	-10686
▁witz	-10687
achtel	-10688
altete	-10689
brüche	-10690
leiden	-10691
ranten	-10692
senden	-10693
stimmt	-10694
tikeln	-10695
▁Endes	-10696
▁Kevin	-10697
▁Kopie	-10698
▁Pilot	-10699
▁Rande	-10700
▁Väter	-10701
▁Wende	-10702
▁breit	-10703
▁freue	-10704
oleranz	-10705
▁Albert	-10706
▁Arznei	-10707
▁August	-10708
▁Dörfer	-10709
▁Felder	-10710
▁Herzin	-10711
▁Judith	-10712
▁Kreise	-10713
▁Nelson	-10714
▁Pandem	-10715
▁Vaters	-10716
▁bricht	-10717
▁sendet	-10718
▁zutief	-10719
bereiten	-10720
gegenwär	-10721
schnitte	-10722
stheorie	-10723
änderung	-10724
▁Behaupt	-10725
▁Kleider	-10726
▁Sendung	-10727
▁Tendenz	-10728
▁Teppich	-10729
▁Töchter	-10730
▁Vietnam	-10731
▁Wohnung	-10732
▁brennen	-10733
▁fürchte	-10734
▁realist	-10735
▁schmutz	-10736
▁wahrhaf	-10737
bereitung	-10738
▁Anhänger	-10739
▁Benjamin	-10740
▁Freizeit	-10741
▁Glaubens	-10742
▁draussen	-10743
▁erwähnte	-10744
▁gebunden	-10745
▁gleicher	-10746
▁primitiv	-10747
▁Selbstver	-10748
▁Sklaverei	-10749
▁Standards	-10750
▁aktiviert	-10751
▁behauptet	-10752
▁getrieben	-10753
▁keinerlei	-10754
▁kognitive	-10755
▁religiöse	-10756
▁technisch	-10757
▁umgekehrt	-10758
▁Berechnung	-10759
▁Einführung	-10760
▁Foundation	-10761
▁Individuum	-10762
▁Investoren	-10763
▁Kunststoff	-10764
▁akzeptiert	-10765
▁biologisch	-10766
▁glückliche	-10767
▁zueinander	-10768
▁Anweisungen	-10769
▁Beobachtung	-10770
▁Schizophren	-10771
▁Verbraucher	-10772
▁aufzunehmen	-10773
▁beantwortet	-10774
▁eigentlichen	-10775
▁europäischen	-10776
▁gemeinschaft	-10777
▁systematisch	-10778
▁Arbeitsplätze	-10779
▁Notwendigkeit	-10780
▁mathematische	-10781
▁Interpretation	-10782
▁landwirtschaft	-10783
Fil	-10784
sal	-10785
spf	-10786
yle	-10787
äle	-10788
▁MT	-10789
▁RB	-10790
▁Ti	-10791
eget	-10792
empf	-10793
grad	-10794
herz	-10795
kömm	-10796
ören	-10797
ütte	-10798
▁Hey	-10799
▁Hub	-10800
▁Joh	-10801
▁Pla	-10802
▁Tar	-10803
▁Vit	-10804
▁erl	-10805
derte	-10806
ehlen	-10807
gehör	-10808
iland	-10809
liste	-10810
rägen	-10811
ugend	-10812
öhnen	-10813
▁Böse	-10814
▁Dete	-10815
▁fett	-10816
▁kont	-10817
▁russ	-10818
▁räum	-10819
achter	-10820
bereit	-10821
ilität	-10822
männer	-10823
raktiv	-10824
sektor	-10825
steten	-10826
▁Absol	-10827
▁Güter	-10828
▁Hafen	-10829
▁Künst	-10830
▁Leser	-10831
▁Proto	-10832
▁Seife	-10833
▁besie	-10834
▁coole	-10835
▁lehrt	-10836
▁unaus	-10837
imieren	-10838
kologie	-10839
leitung	-10840
osophen	-10841
schlüss	-10842
schrank	-10843
wohnern	-10844
▁Bereit	-10845
▁Jedoch	-10846
▁Obdach	-10847
▁Paläst	-10848
▁Solche	-10849
▁brauch	-10850
▁fassen	-10851
▁wüsste	-10852
freiheit	-10853
gesteuer	-10854
heimlich	-10855
ographic	-10856
zuhalten	-10857
zutreten	-10858
▁Glamour	-10859
▁Gründer	-10860
▁Symbole	-10861
▁Ursprün	-10862
▁fressen	-10863
▁gefolgt	-10864
▁gesucht	-10865
▁großzüg	-10866
▁korrekt	-10867
▁minimal	-10868
▁strateg	-10869
▁versagt	-10870
▁öffnete	-10871
ventionen	-10872
▁Gedichte	-10873
▁Getreide	-10874
▁Kalorien	-10875
▁Primaten	-10876
▁Sprechen	-10877
▁Substanz	-10878
▁besserer	-10879
▁dringend	-10880
▁normales	-10881
▁verraten	-10882
▁zutiefst	-10883
▁Computers	-10884
▁Datenbank	-10885
▁Explosion	-10886
▁Schweigen	-10887
▁auswählen	-10888
▁berechnet	-10889
▁erschafft	-10890
▁erweitert	-10891
▁kleineren	-10892
▁männliche	-10893
▁niemandem	-10894
▁Raumschiff	-10895
▁Stickstoff	-10896
▁Verpflicht	-10897
▁Zentimeter	-10898
▁anzuwenden	-10899
▁kombiniert	-10900
▁sorgfältig	-10901
▁Wichtigkeit	-10902
▁beherrschen	-10903
▁eingeschrän	-10904
▁gefährliche	-10905
▁konsumieren	-10906
verschmutzung	-10907
▁Nervensystem	-10908
▁erfolgreiche	-10909
▁vergewaltigt	-10910
▁Entwicklungen	-10911
▁Programmierer	-10912
▁repräsentieren	-10913
8,	-10914
ny	-10915
ect	-10916
neu	-10917
ody	-10918
vig	-10919
ßig	-10920
öch	-10921
▁Dü	-10922
▁Tä	-10923
▁Yo	-10924
▁ue	-10925
Inst	-10926
coln	-10927
ifiz	-10928
lles	-10929
paar	-10930
rümm	-10931
sätz	-10932
▁Ath	-10933
▁Law	-10934
▁Soc	-10935
▁sau	-10936
▁süß	-10937
anner	-10938
eiert	-10939
ennig	-10940
onanz	-10941
probe	-10942
riech	-10943
träge	-10944
▁Cous	-10945
▁Hell	-10946
▁Kalk	-10947
▁Rick	-10948
▁warm	-10949
dachte	-10950
haftes	-10951
ierbar	-10952
ketten	-10953
plätze	-10954
setzte	-10955
zenden	-10956
▁Atome	-10957
▁Höhen	-10958
▁Ratte	-10959
▁Rhyth	-10960
▁State	-10961
▁Tiger	-10962
▁Zwill	-10963
▁jagen	-10964
▁wiegt	-10965
digungs	-10966
ometern	-10967
passung	-10968
ühungen	-10969
▁Briefe	-10970
▁Garage	-10971
▁Gerüst	-10972
▁Impuls	-10973
▁Kochen	-10974
▁Reserv	-10975
▁Sinnes	-10976
▁assozi	-10977
▁elegan	-10978
▁gelben	-10979
▁halfen	-10980
▁kontin	-10981
▁mittel	-10982
▁vollen	-10983
▁weinen	-10984
basierte	-10985
gespräch	-10986
ierender	-10987
leuchten	-10988
lichsten	-10989
▁Gelände	-10990
▁Gestalt	-10991
▁Premier	-10992
▁Sklaven	-10993
▁Smartph	-10994
▁Vertrag	-10995
▁sammelt	-10996
▁sequenz	-10997
▁spontan	-10998
▁unschul	-10999
plizieren	-11000
▁Anliegen	-11001
▁Arbeitsk	-11002
▁Besitzer	-11003
▁Dschihad	-11004
▁Friedens	-11005
▁Nächstes	-11006
▁bewiesen	-11007
▁untersch	-11008
▁wahnsinn	-11009
▁Infektion	-11010
▁angeboten	-11011
▁begleitet	-11012
▁eingebaut	-11013
▁schneiden	-11014
▁wichtiges	-11015
▁Dankeschön	-11016
▁Großeltern	-11017
▁Kommentare	-11018
▁Weihnachts	-11019
▁beschränkt	-11020
▁beteiligen	-11021
▁gewaltigen	-11022
▁überdenken	-11023
▁Bestandteil	-11024
▁Durchmesser	-11025
▁durchlaufen	-11026
▁emotionalen	-11027
▁intelligent	-11028
▁verblüffend	-11029
▁verheiratet	-11030
▁Landschaften	-11031
▁beschleunigt	-11032
▁Größenordnung	-11033
▁Interaktionen	-11034
▁Interessanter	-11035
▁tatsächlichen	-11036
4.	-11037
7,	-11038
BM	-11039
CH	-11040
jo	-11041
200	-11042
abb	-11043
bri	-11044
ilz	-11045
med	-11046
ret	-11047
val	-11048
wol	-11049
▁II	-11050
▁pu	-11051
Komm	-11052
ckel	-11053
erry	-11054
izza	-11055
kurs	-11056
meld	-11057
onds	-11058
rans	-11059
seel	-11060
▁Alb	-11061
▁Kün	-11062
▁Lok	-11063
▁Sag	-11064
▁Tut	-11065
▁Wow	-11066
▁ann	-11067
▁Äqu	-11068
angel	-11069
armen	-11070
eiler	-11071
iffer	-11072
laubt	-11073
ließt	-11074
lings	-11075
opter	-11076
organ	-11077
oskop	-11078
pfern	-11079
rüsen	-11080
▁Juli	-11081
▁Prog	-11082
▁Tank	-11083
▁Weiß	-11084
▁betr	-11085
▁böse	-11086
▁lese	-11087
▁line	-11088
▁pein	-11089
▁serv	-11090
▁wild	-11091
bricht	-11092
gender	-11093
legten	-11094
schuss	-11095
▁2.000	-11096
▁Abrah	-11097
▁Baumk	-11098
▁Blind	-11099
▁Fried	-11100
▁Jesus	-11101
▁Jones	-11102
▁Lange	-11103
▁Sonnt	-11104
▁kämpf	-11105
▁leise	-11106
▁loszu	-11107
▁lügen	-11108
▁recyc	-11109
▁sicht	-11110
▁umgew	-11111
abdruck	-11112
kriegen	-11113
modelle	-11114
ografen	-11115
zentren	-11116
▁Allein	-11117
▁Anlage	-11118
▁Fasern	-11119
▁Kritik	-11120
▁Ozeans	-11121
▁Weißen	-11122
▁befand	-11123
▁binden	-11124
▁gelegt	-11125
ferenzen	-11126
minellen	-11127
schafter	-11128
▁Konvers	-11129
▁Koordin	-11130
▁abgesch	-11131
▁abhängt	-11132
▁anschau	-11133
▁archite	-11134
▁drinnen	-11135
▁versich	-11136
▁wandern	-11137
▁zuhause	-11138
kosysteme	-11139
▁Analogie	-11140
▁Entropie	-11141
▁Ungefähr	-11142
▁mächtige	-11143
▁typische	-11144
▁Alexander	-11145
▁Erlaubnis	-11146
▁Gemeinsam	-11147
▁britische	-11148
▁herstellt	-11149
▁interview	-11150
▁trainiert	-11151
▁typischen	-11152
▁verleihen	-11153
übergreifen	-11154
▁Fotografie	-11155
▁Werkzeugen	-11156
▁bescheiden	-11157
▁jedenfalls	-11158
▁Atomenergie	-11159
▁Traditionen	-11160
▁fokussieren	-11161
▁natürlicher	-11162
▁verbreitete	-11163
▁Studierenden	-11164
▁ausprobieren	-11165
▁außerordentlich	-11166
9,	-11167
CA	-11168
De	-11169
va	-11170
▁0	-11171
Mit	-11172
ios	-11173
▁7.	-11174
▁sc	-11175
Naja	-11176
Zeit	-11177
flos	-11178
fäll	-11179
ives	-11180
mmel	-11181
onym	-11182
vort	-11183
zell	-11184
▁2,5	-11185
▁Kro	-11186
▁Roy	-11187
▁ero	-11188
▁hom	-11189
▁kar	-11190
▁lan	-11191
▁maß	-11192
▁rob	-11193
▁umk	-11194
masse	-11195
ohnen	-11196
spezi	-11197
usste	-11198
▁2050	-11199
▁Ford	-11200
▁Funk	-11201
▁Gumm	-11202
▁Hipp	-11203
▁Matz	-11204
▁Mühe	-11205
▁Neue	-11206
▁Steu	-11207
▁Tast	-11208
▁Töne	-11209
▁Verk	-11210
▁Wolf	-11211
▁klop	-11212
▁stim	-11213
barung	-11214
becken	-11215
endete	-11216
ündete	-11217
ündung	-11218
▁Bogen	-11219
▁Ethik	-11220
▁Henry	-11221
▁Hosen	-11222
▁Magen	-11223
▁Miner	-11224
▁Sarah	-11225
▁Schad	-11226
▁Türen	-11227
▁lokal	-11228
▁verfl	-11229
▁überl	-11230
gezogen	-11231
örungen	-11232
▁Anwalt	-11233
▁Chinas	-11234
▁Fellow	-11235
▁Formel	-11236
▁Hennig	-11237
▁Histor	-11238
▁Kortex	-11239
▁Nadine	-11240
▁Rakete	-11241
▁Rennen	-11242
▁Seiden	-11243
▁Tiefen	-11244
▁Weizen	-11245
▁Wurzel	-11246
▁auszur	-11247
euchtung	-11248
isierten	-11249
reaktion	-11250
▁Anderen	-11251
▁Chromos	-11252
▁Lincoln	-11253
▁Meisten	-11254
▁Märkten	-11255
▁Origami	-11256
▁Silicon	-11257
▁Spanien	-11258
▁Sterben	-11259
▁Strecke	-11260
▁Tiefsee	-11261
▁Unfälle	-11262
▁Unglaub	-11263
▁Verrück	-11264
▁leichte	-11265
▁problem	-11266
▁präzise	-11267
▁umfasst	-11268
▁willkür	-11269
▁zuletzt	-11270
▁Beobacht	-11271
▁Gesetzen	-11272
▁Projekts	-11273
▁anderswo	-11274
▁getragen	-11275
▁indische	-11276
▁riesiger	-11277
▁schuldig	-11278
▁schweren	-11279
▁universe	-11280
▁woanders	-11281
verstanden	-11282
▁Angesicht	-11283
▁Besonders	-11284
▁Erzählung	-11285
▁Kommentar	-11286
▁Lektionen	-11287
▁Schätzung	-11288
▁Veröffent	-11289
▁anspruchs	-11290
▁aufstehen	-11291
▁bedeutsam	-11292
▁einfallen	-11293
▁gestohlen	-11294
▁moralisch	-11295
▁motiviert	-11296
▁rückwärts	-11297
▁schwarzes	-11298
▁wachsende	-11299
▁zentralen	-11300
versprechen	-11301
▁Beispielen	-11302
▁Interviews	-11303
▁Nährstoffe	-11304
▁Skulpturen	-11305
▁aufregende	-11306
▁diskutiert	-11307
▁durchgehen	-11308
organisation	-11309
▁Bürgerkrieg	-11310
▁Psychologen	-11311
▁Versprechen	-11312
▁finanzielle	-11313
▁gewöhnliche	-11314
▁staatlichen	-11315
▁Freiwilligen	-11316
▁persönlicher	-11317
▁wahrgenommen	-11318
▁Angelegenheit	-11319
▁Schizophrenie	-11320
▁einzigartigen	-11321
▁industriellen	-11322
▁Kommunikations	-11323
▁technologische	-11324
3.	-11325
8.	-11326
Syn	-11327
bul	-11328
ibl	-11329
krö	-11330
änz	-11331
▁37	-11332
▁4,	-11333
▁Sn	-11334
▁üb	-11335
ahen	-11336
fine	-11337
hern	-11338
quem	-11339
zung	-11340
▁Cal	-11341
▁Gig	-11342
▁Jur	-11343
▁Ron	-11344
▁Squ	-11345
▁Zun	-11346
▁hey	-11347
▁kan	-11348
▁med	-11349
▁pop	-11350
arden	-11351
blatt	-11352
oster	-11353
rippe	-11354
ynman	-11355
ärten	-11356
öpfen	-11357
öscht	-11358
▁Bell	-11359
▁Enzy	-11360
▁Grös	-11361
▁Hong	-11362
▁Jenn	-11363
▁Nano	-11364
▁Sich	-11365
▁Tony	-11366
▁Visu	-11367
▁hebt	-11368
alente	-11369
banden	-11370
deuten	-11371
eidung	-11372
imeter	-11373
ission	-11374
strahl	-11375
volles	-11376
ächter	-11377
▁Amate	-11378
▁Bombe	-11379
▁Detro	-11380
▁Earth	-11381
▁Ernte	-11382
▁Erwei	-11383
▁Freit	-11384
▁Inder	-11385
▁Moder	-11386
▁Pizza	-11387
▁Shang	-11388
▁Wolke	-11389
▁warst	-11390
ampagne	-11391
ichtern	-11392
wichtig	-11393
▁Beteil	-11394
▁Julian	-11395
▁Treppe	-11396
▁ausgel	-11397
▁denkst	-11398
▁flexib	-11399
▁flogen	-11400
▁geschn	-11401
▁kritis	-11402
▁merkte	-11403
▁schwei	-11404
▁spirit	-11405
atienten	-11406
faktoren	-11407
gebildet	-11408
olumines	-11409
probiert	-11410
schlafen	-11411
▁Antrieb	-11412
▁Feynman	-11413
▁Kollege	-11414
▁Mandela	-11415
▁Positiv	-11416
▁Stammes	-11417
▁aggress	-11418
▁allerer	-11419
▁bislang	-11420
▁daneben	-11421
▁geplant	-11422
▁praktiz	-11423
▁verwirr	-11424
▁Aussehen	-11425
▁Führungs	-11426
▁Parteien	-11427
▁erlaubte	-11428
▁fürchten	-11429
▁pflanzen	-11430
▁schenken	-11431
▁versorgt	-11432
▁Absichten	-11433
▁Berührung	-11434
▁benötigte	-11435
▁kleinsten	-11436
▁kritische	-11437
▁verknüpft	-11438
▁verletzen	-11439
▁zuzuhören	-11440
▁Äthiopien	-11441
▁Durchbruch	-11442
▁Konkurrenz	-11443
▁Nachdenken	-11444
▁Rückenmark	-11445
▁Säugetiere	-11446
▁Wohnzimmer	-11447
▁menschlich	-11448
▁motivieren	-11449
▁verdoppeln	-11450
▁verrückten	-11451
▁allgegenwär	-11452
▁architekton	-11453
▁mitgebracht	-11454
▁politischer	-11455
▁verwendeten	-11456
▁Experimenten	-11457
▁ausgestorben	-11458
▁entsprechend	-11459
▁tatsächliche	-11460
▁Durchschnitts	-11461
▁Interessantes	-11462
▁elektronische	-11463
▁fotografieren	-11464
▁intelligenten	-11465
▁Transformation	-11466
▁Einschränkungen	-11467
▁Premierminister	-11468
▁Verletzlichkeit	-11469
"?	-11470
Qu	-11471
Up	-11472
cel	-11473
con	-11474
▁ED	-11475
AIDS	-11476
Also	-11477
Tech	-11478
bast	-11479
belt	-11480
code	-11481
leid	-11482
opäd	-11483
quot	-11484
ueck	-11485
▁Idi	-11486
▁Kos	-11487
▁Lee	-11488
▁Lim	-11489
▁McC	-11490
▁Pet	-11491
▁Rem	-11492
▁Vin	-11493
▁hor	-11494
ichts	-11495
ickte	-11496
irurg	-11497
onach	-11498
riebe	-11499
rüger	-11500
stamm	-11501
▁Hang	-11502
▁Mike	-11503
▁News	-11504
▁Oran	-11505
▁Pion	-11506
▁Sech	-11507
▁allm	-11508
▁spaz	-11509
▁warf	-11510
Modell	-11511
cherch	-11512
derten	-11513
hafter	-11514
ilemma	-11515
indern	-11516
itären	-11517
rechts	-11518
schern	-11519
ummern	-11520
zieren	-11521
ördert	-11522
ützten	-11523
▁3.000	-11524
▁Arist	-11525
▁Geben	-11526
▁Larry	-11527
▁Minen	-11528
▁Perio	-11529
▁Scott	-11530
▁South	-11531
▁Stolz	-11532
▁Sucht	-11533
▁beleu	-11534
▁formt	-11535
▁gelei	-11536
▁greif	-11537
▁jenes	-11538
▁klare	-11539
▁wette	-11540
▁Ärger	-11541
atschen	-11542
eilchen	-11543
portion	-11544
▁Arthur	-11545
▁County	-11546
▁Fangen	-11547
▁Mythos	-11548
▁Patent	-11549
▁Profit	-11550
▁Raumes	-11551
▁Schach	-11552
▁Weisen	-11553
▁bedroh	-11554
▁folgte	-11555
▁freuen	-11556
▁grauen	-11557
▁landet	-11558
▁lauter	-11559
▁packen	-11560
altungen	-11561
behalten	-11562
fikation	-11563
menschen	-11564
springen	-11565
▁Branche	-11566
▁Einzige	-11567
▁Haltung	-11568
▁Wörtern	-11569
▁gelähmt	-11570
▁geringe	-11571
▁logisch	-11572
▁massive	-11573
▁stehlen	-11574
▁wartete	-11575
strahlung	-11576
ungsweise	-11577
▁Drittens	-11578
▁Frequenz	-11579
▁Hardware	-11580
▁Kolonien	-11581
▁Rauschen	-11582
▁Schalter	-11583
▁Vergewal	-11584
▁fossilen	-11585
▁größeres	-11586
▁hingegen	-11587
▁Geometrie	-11588
▁Schwellen	-11589
▁Verbrauch	-11590
▁angewandt	-11591
▁einführen	-11592
▁empfangen	-11593
▁ergreifen	-11594
▁erreichte	-11595
▁führenden	-11596
▁jederzeit	-11597
▁klinische	-11598
▁negativen	-11599
▁vertreten	-11600
▁wohlhaben	-11601
▁Elektroden	-11602
▁Kandidaten	-11603
▁Künstlerin	-11604
▁Netzwerken	-11605
▁Polizisten	-11606
▁einbringen	-11607
▁konvention	-11608
▁restlichen	-11609
▁unheimlich	-11610
▁wachsenden	-11611
ommunikation	-11612
▁Ergebnissen	-11613
▁Heimatstadt	-11614
▁Naturschutz	-11615
▁kollektiven	-11616
▁unabhängige	-11617
▁Alternativen	-11618
▁Hausaufgaben	-11619
▁programmiert	-11620
▁wesentlichen	-11621
amerikanischen	-11622
▁Wissenschafts	-11623
▁Zufriedenheit	-11624
▁untereinander	-11625
▁verwirklichen	-11626
▁interpretieren	-11627
.'	-11628
DA	-11629
Ne	-11630
aj	-11631
bä	-11632
li	-11633
nö	-11634
ETI	-11635
Ihr	-11636
ado	-11637
aka	-11638
cer	-11639
ink	-11640
ita	-11641
lob	-11642
mil	-11643
ova	-11644
pul	-11645
wan	-11646
▁DV	-11647
▁JH	-11648
▁Os	-11649
▁SO	-11650
▁ah	-11651
amie	-11652
auch	-11653
bart	-11654
fügt	-11655
hlst	-11656
iale	-11657
igma	-11658
iner	-11659
king	-11660
lson	-11661
orea	-11662
rand	-11663
rief	-11664
ruhe	-11665
trän	-11666
zone	-11667
▁10,	-11668
▁Cap	-11669
▁Dür	-11670
▁Ego	-11671
▁anz	-11672
▁flu	-11673
▁ult	-11674
motor	-11675
packt	-11676
wechs	-11677
▁Flut	-11678
▁Gall	-11679
▁Grau	-11680
▁Hilf	-11681
▁Leit	-11682
▁März	-11683
▁Pack	-11684
▁Panz	-11685
▁Pest	-11686
▁Seni	-11687
▁Sper	-11688
▁farb	-11689
▁stol	-11690
Source	-11691
drucks	-11692
füllen	-11693
ragend	-11694
reiber	-11695
städte	-11696
▁Algen	-11697
▁Genie	-11698
▁Klass	-11699
▁Korea	-11700
▁McDon	-11701
▁Saudi	-11702
▁Seide	-11703
▁Tafel	-11704
▁Zehen	-11705
▁baten	-11706
▁drast	-11707
▁erläu	-11708
▁gehst	-11709
▁gesen	-11710
▁missb	-11711
▁sorgt	-11712
Problem	-11713
erkrank	-11714
schafts	-11715
viertel	-11716
▁Archiv	-11717
▁Brookl	-11718
▁Comics	-11719
▁Erklär	-11720
▁Filmen	-11721
▁Finden	-11722
▁Flagge	-11723
▁Hektar	-11724
▁Konzer	-11725
▁Mittag	-11726
▁Pferde	-11727
▁Portra	-11728
▁Second	-11729
▁Stufen	-11730
▁Termin	-11731
▁Tänzer	-11732
▁absolu	-11733
▁autist	-11734
▁befrie	-11735
▁bringe	-11736
▁deprim	-11737
▁frisch	-11738
▁korrig	-11739
▁riesig	-11740
▁wohnen	-11741
breitung	-11742
geworfen	-11743
schlägen	-11744
standard	-11745
ästhesie	-11746
▁Anwälte	-11747
▁Distanz	-11748
▁Dörfern	-11749
▁Insulin	-11750
▁Robotik	-11751
▁entsetz	-11752
▁geformt	-11753
▁lächeln	-11754
▁steuert	-11755
▁streben	-11756
▁vernetz	-11757
eisterung	-11758
maßnahmen	-11759
schätzung	-11760
▁Annahmen	-11761
▁Atlantik	-11762
▁Behörden	-11763
▁Eigentum	-11764
▁Kliniken	-11765
▁durchaus	-11766
▁entschul	-11767
▁gesunken	-11768
▁recherch	-11769
▁transpar	-11770
▁Antarktis	-11771
▁Kapazität	-11772
▁Schlangen	-11773
▁Wohnungen	-11774
▁beschrieb	-11775
▁betrachte	-11776
▁erkannten	-11777
▁erschwing	-11778
▁hinterher	-11779
▁kommenden	-11780
▁philosoph	-11781
entwicklung	-11782
▁Erkrankung	-11783
▁Unterdrück	-11784
▁analysiert	-11785
▁angewendet	-11786
▁existierte	-11787
▁festhalten	-11788
▁generieren	-11789
▁klinischen	-11790
▁männlichen	-11791
▁schlimmste	-11792
▁übernommen	-11793
▁Antibiotika	-11794
▁Erzählungen	-11795
▁Filmemacher	-11796
▁aufgestellt	-11797
▁bahnbrechen	-11798
▁kostengünst	-11799
▁umgewandelt	-11800
▁unmittelbar	-11801
▁vorschlagen	-11802
▁Andererseits	-11803
▁Jahrhunderte	-11804
▁historischen	-11805
▁Artenvielfalt	-11806
▁transportiert	-11807
▁Führungskräfte	-11808
▁Zivilisationen	-11809
▁diagnostiziert	-11810
▁zusammenfassen	-11811
.:	-11812
4,	-11813
Vor	-11814
esh	-11815
▁42	-11816
▁46	-11817
▁BM	-11818
▁SW	-11819
▁Ze	-11820
Netz	-11821
ader	-11822
aner	-11823
fest	-11824
iche	-11825
▁350	-11826
▁Jac	-11827
▁Sav	-11828
▁Sel	-11829
▁fix	-11830
▁här	-11831
▁urb	-11832
aisen	-11833
ansas	-11834
atsch	-11835
azier	-11836
azine	-11837
digte	-11838
eitig	-11839
eline	-11840
genda	-11841
ianer	-11842
merkt	-11843
steri	-11844
union	-11845
zahlt	-11846
ämmer	-11847
ühren	-11848
ündet	-11849
▁Chor	-11850
▁Cola	-11851
▁Gefä	-11852
▁Hass	-11853
▁Just	-11854
▁Kühe	-11855
▁Wats	-11856
▁Zelt	-11857
▁bild	-11858
▁brut	-11859
▁iron	-11860
▁skal	-11861
kunden	-11862
rollen	-11863
steigt	-11864
teilte	-11865
untern	-11866
▁Ethan	-11867
▁Motto	-11868
▁North	-11869
▁Texte	-11870
▁Tinte	-11871
▁Unger	-11872
▁einig	-11873
▁exter	-11874
▁gefil	-11875
▁preis	-11876
▁solle	-11877
büchern	-11878
fahrung	-11879
ämpfung	-11880
▁Aufruf	-11881
▁Gandhi	-11882
▁Genome	-11883
▁Hauses	-11884
▁Indian	-11885
▁Joseph	-11886
▁Lichts	-11887
▁Liebes	-11888
▁Plätze	-11889
▁Räumen	-11890
▁Schein	-11891
▁Urlaub	-11892
▁abends	-11893
▁begrün	-11894
▁golden	-11895
▁graben	-11896
▁halbes	-11897
▁riecht	-11898
gebieten	-11899
zutragen	-11900
▁Ausgabe	-11901
▁Himmels	-11902
▁Hungers	-11903
▁Irgendw	-11904
▁Körpern	-11905
▁Zuhörer	-11906
▁agieren	-11907
▁anhören	-11908
▁gemeint	-11909
▁geschei	-11910
▁gewohnt	-11911
▁günstig	-11912
▁herkömm	-11913
▁hierbei	-11914
▁schufen	-11915
▁verdeut	-11916
▁weitaus	-11917
▁zwanzig	-11918
Industrie	-11919
kontrolle	-11920
leitungen	-11921
▁Halluzin	-11922
▁Haushalt	-11923
▁Leinwand	-11924
▁Merkmale	-11925
▁Shanghai	-11926
▁Strassen	-11927
▁Verkehrs	-11928
▁anfingen	-11929
▁anziehen	-11930
▁aufwuchs	-11931
▁erstmals	-11932
▁geglaubt	-11933
▁gelaufen	-11934
▁globales	-11935
▁jegliche	-11936
▁liebsten	-11937
▁negative	-11938
▁physisch	-11939
▁vermuten	-11940
▁Automobil	-11941
▁Leistungs	-11942
▁Rückseite	-11943
▁Vergessen	-11944
▁Zeichnung	-11945
▁aufhalten	-11946
▁emotional	-11947
▁kreativer	-11948
▁wiederhol	-11949
▁zustimmen	-11950
▁Überfluss	-11951
▁örtlichen	-11952
formationen	-11953
▁Ausschnitt	-11954
▁Verwandten	-11955
▁beseitigen	-11956
▁bestätigen	-11957
▁integriert	-11958
▁willkommen	-11959
stechnologie	-11960
▁Forschungen	-11961
▁ausgedrückt	-11962
▁ausprobiert	-11963
▁beeindruckt	-11964
▁institution	-11965
▁integrieren	-11966
▁konstruiert	-11967
▁schmerzhaft	-11968
▁Begeisterung	-11969
▁ausgestattet	-11970
▁gewöhnlichen	-11971
▁muslimischen	-11972
▁demokratische	-11973
▁festzustellen	-11974
▁identifiziert	-11975
▁experimentieren	-11976
▁veröffentlichte	-11977
Ph	-11978
▁?	-11979
ads	-11980
kru	-11981
log	-11982
set	-11983
tan	-11984
ufe	-11985
▁31	-11986
▁LG	-11987
▁Mi	-11988
▁NG	-11989
'000	-11990
Vort	-11991
agel	-11992
agon	-11993
bran	-11994
eilt	-11995
eres	-11996
gets	-11997
haut	-11998
idee	-11999
ockt	-12000
otte	-12001
stad	-12002
sthe	-12003
tech	-12004
umpf	-12005
wege	-12006
äufe	-12007
▁Agr	-12008
▁Bin	-12009
▁Bor	-12010
▁Fru	-12011
▁Fün	-12012
▁Leu	-12013
▁Nic	-12014
▁Som	-12015
Exper	-12016
ackte	-12017
bende	-12018
brett	-12019
fühlt	-12020
grenz	-12021
hänge	-12022
molek	-12023
reuen	-12024
äusen	-12025
öpfer	-12026
▁Affe	-12027
▁Dein	-12028
▁Diam	-12029
▁Dunk	-12030
▁Prie	-12031
▁SETI	-12032
▁Snow	-12033
▁Strö	-12034
▁Tenn	-12035
▁ewig	-12036
▁fuer	-12037
▁grös	-12038
▁hing	-12039
▁isst	-12040
▁nimm	-12041
▁sech	-12042
echnet	-12043
flügel	-12044
presse	-12045
produz	-12046
rungen	-12047
schrau	-12048
sslich	-12049
▁Grand	-12050
▁Graph	-12051
▁Haken	-12052
▁Human	-12053
▁Jäger	-12054
▁Kompl	-12055
▁Still	-12056
▁Warte	-12057
▁Wohin	-12058
▁eurem	-12059
▁magne	-12060
▁müsst	-12061
▁objek	-12062
▁sinkt	-12063
eistern	-12064
flossen	-12065
füllung	-12066
igungen	-12067
äuschen	-12068
▁Balken	-12069
▁Berlin	-12070
▁Erdgas	-12071
▁Feinde	-12072
▁Hühner	-12073
▁Ironie	-12074
▁Matrix	-12075
▁Meiner	-12076
▁Minder	-12077
▁Monter	-12078
▁Sowjet	-12079
▁Versch	-12080
▁authen	-12081
▁fehlen	-12082
▁kurzes	-12083
▁leitet	-12084
▁perfek	-12085
▁raffin	-12086
▁regist	-12087
gewiesen	-12088
schaltet	-12089
stellbar	-12090
▁Anzeige	-12091
▁Cricket	-12092
▁Delfine	-12093
▁Detroit	-12094
▁Häusern	-12095
▁Indones	-12096
▁Meeting	-12097
▁Mitteln	-12098
▁Nordpol	-12099
▁Rituale	-12100
▁Zugriff	-12101
▁Zuhören	-12102
▁aktiven	-12103
▁eingesp	-12104
▁erheben	-12105
▁geprägt	-12106
▁kontinu	-12107
▁solches	-12108
gebrochen	-12109
▁Abwasser	-12110
▁Mögliche	-12111
▁Streifen	-12112
▁Wahnsinn	-12113
▁drittens	-12114
▁ermutigt	-12115
▁geflogen	-12116
▁generell	-12117
▁rational	-12118
▁sicheren	-12119
▁versetzt	-12120
▁verwirrt	-12121
▁ältesten	-12122
Nullsummen	-12123
bewegungen	-12124
▁Biosphäre	-12125
▁Disziplin	-12126
▁Irgendwie	-12127
▁Kategorie	-12128
▁Parkinson	-12129
▁Probanden	-12130
▁Schwimmen	-12131
▁Transplan	-12132
▁ansonsten	-12133
▁ausgelöst	-12134
▁bestätigt	-12135
▁gestiegen	-12136
▁innovativ	-12137
▁komplexes	-12138
▁möglichst	-12139
▁umgesetzt	-12140
▁übersehen	-12141
▁Grundstück	-12142
▁Schlussfol	-12143
▁Vorhersage	-12144
▁Völkermord	-12145
▁bedeutende	-12146
▁entfernten	-12147
▁weiblichen	-12148
▁Anwesenheit	-12149
▁ermöglichte	-12150
▁transparent	-12151
▁verschaffen	-12152
amerikanische	-12153
▁Republikaner	-12154
▁größtenteils	-12155
▁langfristige	-12156
▁untersuchten	-12157
▁verpflichtet	-12158
▁Verschmutzung	-12159
▁durcheinander	-12160
▁Überzeugungen	-12161
▁auszuprobieren	-12162
▁physikalischen	-12163
5.	-12164
:"	-12165
Ex	-12166
ly	-12167
Ent	-12168
Ste	-12169
bus	-12170
gst	-12171
irm	-12172
lös	-12173
wis	-12174
ärt	-12175
▁48	-12176
Zahl	-12177
aßen	-12178
etts	-12179
hema	-12180
ican	-12181
irus	-12182
komm	-12183
last	-12184
rebs	-12185
weiß	-12186
zehn	-12187
ürme	-12188
▁10.	-12189
▁Bre	-12190
▁DVD	-12191
▁Gän	-12192
▁Las	-12193
▁Max	-12194
▁Reh	-12195
▁bot	-12196
▁dek	-12197
▁kün	-12198
▁leb	-12199
▁ser	-12200
Weißt	-12201
herum	-12202
ignen	-12203
jahre	-12204
mitte	-12205
ostet	-12206
reckt	-12207
samer	-12208
▁2020	-12209
▁Doug	-12210
▁Erbe	-12211
▁Jane	-12212
▁Mord	-12213
▁Prof	-12214
▁Rate	-12215
▁Renn	-12216
▁Ring	-12217
▁Skiz	-12218
▁Spir	-12219
▁inne	-12220
▁post	-12221
jektes	-12222
locken	-12223
onente	-12224
proben	-12225
swerte	-12226
▁Blume	-12227
▁Davon	-12228
▁Fahrt	-12229
▁Gange	-12230
▁Glied	-12231
▁Kurse	-12232
▁Liban	-12233
▁Pilze	-12234
▁Repar	-12235
▁Risik	-12236
▁Roten	-12237
▁Skala	-12238
▁Veget	-12239
▁Zunge	-12240
▁angel	-12241
▁ankam	-12242
▁ehren	-12243
▁fange	-12244
▁fügen	-12245
▁hinab	-12246
▁stieß	-12247
▁Älter	-12248
bestand	-12249
bleiben	-12250
gefühls	-12251
glicher	-12252
produkt	-12253
ragende	-12254
▁30.000	-12255
▁Faszin	-12256
▁Flüsse	-12257
▁Herbst	-12258
▁Insekt	-12259
▁Phasen	-12260
▁Redner	-12261
▁Sahara	-12262
▁Tempel	-12263
▁Würfel	-12264
▁geschm	-12265
▁griech	-12266
▁konkre	-12267
▁untere	-12268
▁unterr	-12269
ilometer	-12270
ituation	-12271
produkte	-12272
steuropa	-12273
▁Abweich	-12274
▁Charlie	-12275
▁Clinton	-12276
▁Erfolge	-12277
▁Genetik	-12278
▁Mitleid	-12279
▁Scheibe	-12280
▁Stewart	-12281
▁Tsunami	-12282
▁Welches	-12283
▁direkte	-12284
▁drucken	-12285
▁dunkler	-12286
▁erstmal	-12287
▁italien	-12288
▁nachden	-12289
▁oftmals	-12290
▁riechen	-12291
▁sowieso	-12292
▁teilten	-12293
Regierung	-12294
gerichtet	-12295
tschaften	-12296
▁Beginnen	-12297
▁Pyramide	-12298
▁Republik	-12299
▁Stimmung	-12300
▁gelungen	-12301
▁gewalttä	-12302
▁handelte	-12303
▁kopieren	-12304
▁radikale	-12305
▁verläuft	-12306
▁Anpassung	-12307
▁Bausteine	-12308
▁Beschleun	-12309
▁Frühstück	-12310
▁Künstlern	-12311
▁angezogen	-12312
▁charakter	-12313
▁englische	-12314
▁furchtbar	-12315
▁gefährdet	-12316
▁ignoriert	-12317
▁schwanger	-12318
▁seltsamen	-12319
▁unterhalt	-12320
▁wenigsten	-12321
Unternehmen	-12322
▁Hersteller	-12323
▁Kategorien	-12324
▁Nachmittag	-12325
▁anzufangen	-12326
▁aufstellen	-12327
▁ausbreiten	-12328
▁eineinhalb	-12329
▁finanziell	-12330
▁kontinuier	-12331
▁psychische	-12332
▁vergrößert	-12333
▁Botschaften	-12334
▁Fledermäuse	-12335
▁Gleichungen	-12336
▁Lebensunter	-12337
▁entscheidet	-12338
▁veränderten	-12339
▁Überwachung	-12340
▁Finanzierung	-12341
▁fundamentale	-12342
▁Korallenriffe	-12343
▁demonstrieren	-12344
▁nebeneinander	-12345
▁berücksichtigt	-12346
▁Geschäftsmodell	-12347
10	-12348
9.	-12349
BC	-12350
He	-12351
Zu	-12352
bry	-12353
bur	-12354
hor	-12355
mut	-12356
old	-12357
ona	-12358
pos	-12359
ugh	-12360
öss	-12361
übt	-12362
▁JA	-12363
▁PR	-12364
▁Up	-12365
▁wa	-12366
Gott	-12367
alog	-12368
bard	-12369
geiz	-12370
malt	-12371
pril	-12372
takt	-12373
ypen	-12374
ümer	-12375
▁192	-12376
▁Bol	-12377
▁Fan	-12378
▁Hum	-12379
▁IBM	-12380
▁Jar	-12381
▁Jet	-12382
▁Out	-12383
▁Ram	-12384
▁Sky	-12385
▁Tas	-12386
▁bez	-12387
▁hef	-12388
▁klü	-12389
▁pos	-12390
▁seh	-12391
ablen	-12392
attle	-12393
ideos	-12394
ottet	-12395
▁Beat	-12396
▁Brad	-12397
▁Coll	-12398
▁Darf	-12399
▁Fang	-12400
▁Guer	-12401
▁Kino	-12402
▁Rohr	-12403
▁Shak	-12404
▁Stim	-12405
▁Tabe	-12406
▁Ufer	-12407
▁Vaku	-12408
▁harm	-12409
▁vari	-12410
anfall	-12411
entrum	-12412
felder	-12413
genöss	-12414
gewinn	-12415
haftet	-12416
halter	-12417
oboter	-12418
sprodu	-12419
zähler	-12420
ächtig	-12421
▁Blitz	-12422
▁Bronx	-12423
▁Chile	-12424
▁Cloud	-12425
▁Dampf	-12426
▁Draht	-12427
▁Elend	-12428
▁Franz	-12429
▁Gross	-12430
▁Juden	-12431
▁Lueck	-12432
▁Nebel	-12433
▁Physi	-12434
▁Schlä	-12435
▁absor	-12436
▁eurer	-12437
▁event	-12438
▁orien	-12439
▁popul	-12440
▁raten	-12441
▁stamm	-12442
▁ueber	-12443
▁unber	-12444
analyse	-12445
blicken	-12446
oppelte	-12447
würdige	-12448
zession	-12449
▁Gegner	-12450
▁Integr	-12451
▁Lippen	-12452
▁Schafe	-12453
▁Schöne	-12454
▁Singap	-12455
▁Square	-12456
▁Teller	-12457
▁Univer	-12458
▁elektr	-12459
▁nutzte	-12460
▁teurer	-12461
▁trugen	-12462
methoden	-12463
versicht	-12464
örderung	-12465
▁Applaus	-12466
▁Experte	-12467
▁Fingern	-12468
▁Müttern	-12469
▁Schwein	-12470
▁Schweiz	-12471
▁Steuern	-12472
▁Stärken	-12473
▁begrenz	-12474
▁erlebte	-12475
▁gerufen	-12476
▁herumzu	-12477
▁rechnen	-12478
▁schätze	-12479
▁vereint	-12480
▁vielfäl	-12481
arbeitern	-12482
spersonen	-12483
stelligen	-12484
▁Angelika	-12485
▁Autobahn	-12486
▁Behälter	-12487
▁Brooklyn	-12488
▁Erzähler	-12489
▁Jungfrau	-12490
▁Kritiker	-12491
▁Lueckert	-12492
▁Schulden	-12493
▁auslösen	-12494
▁einladen	-12495
▁gestoßen	-12496
▁normaler	-12497
▁synchron	-12498
▁vorkommt	-12499
ologisches	-12500
▁Einladung	-12501
▁Kunstwerk	-12502
▁Metaphern	-12503
▁Schachtel	-12504
▁Scheitern	-12505
▁Trainings	-12506
▁Wichtiges	-12507
▁begriffen	-12508
▁jahrelang	-12509
▁versetzen	-12510
gehörigkeit	-12511
geschrieben	-12512
▁Aktivisten	-12513
▁Diejenigen	-12514
▁Geographic	-12515
▁Indonesien	-12516
▁Innenstadt	-12517
▁Irgendwann	-12518
▁beinhalten	-12519
▁engagieren	-12520
▁garantiert	-12521
▁vergleicht	-12522
▁verschwand	-12523
▁Erschaffung	-12524
▁Hoffentlich	-12525
▁Solarzellen	-12526
▁Sowjetunion	-12527
▁historische	-12528
▁künstlichen	-12529
▁verarbeitet	-12530
▁verschieben	-12531
▁Übersetzung	-12532
dimensionalen	-12533
▁Arzneimittel	-12534
▁Jugendlichen	-12535
▁Quadratmeter	-12536
▁Umweltschutz	-12537
▁Verteidigung	-12538
▁beschäftigte	-12539
▁überwältigen	-12540
▁Gelegenheiten	-12541
▁Treibhausgase	-12542
▁interessierte	-12543
▁ungewöhnliche	-12544
▁mathematischen	-12545
▁Familienmitglie	-12546
La	-12547
da	-12548
fa	-12549
lö	-12550
oy	-12551
App	-12552
ato	-12553
box	-12554
dis	-12555
eck	-12556
mte	-12557
pra	-12558
wel	-12559
zel	-12560
ädt	-12561
ürt	-12562
▁38	-12563
▁Sw	-12564
Boot	-12565
Eine	-12566
Mann	-12567
Show	-12568
bett	-12569
eife	-12570
ness	-12571
over	-12572
raut	-12573
öden	-12574
ütze	-12575
▁Dra	-12576
▁Feu	-12577
▁Hab	-12578
▁Jay	-12579
▁Käf	-12580
▁Lib	-12581
▁Moz	-12582
▁Que	-12583
▁Rap	-12584
▁ert	-12585
Achse	-12586
Bitte	-12587
DUMMY	-12588
forme	-12589
liebe	-12590
nosen	-12591
rigen	-12592
ächte	-12593
ästhe	-12594
▁Angi	-12595
▁Berk	-12596
▁Comp	-12597
▁Darm	-12598
▁Kreb	-12599
▁Mini	-12600
▁Pfad	-12601
▁Rose	-12602
▁dünn	-12603
▁käme	-12604
▁müde	-12605
ammern	-12606
auchen	-12607
gefügt	-12608
ingert	-12609
kreise	-12610
linder	-12611
länder	-12612
mäßige	-12613
ordent	-12614
regend	-12615
wollen	-12616
zyklus	-12617
ättern	-12618
▁Antik	-12619
▁Anzug	-12620
▁Bewer	-12621
▁DUMMY	-12622
▁Engel	-12623
▁Femin	-12624
▁Kanal	-12625
▁Nukle	-12626
▁Zwang	-12627
▁gelbe	-12628
▁schuf	-12629
▁suche	-12630
artiges	-12631
cycling	-12632
förmige	-12633
ingenie	-12634
kennung	-12635
lsystem	-12636
methode	-12637
minelle	-12638
nutzung	-12639
▁Agenda	-12640
▁Autoun	-12641
▁Essens	-12642
▁Fusion	-12643
▁Krähen	-12644
▁Lehren	-12645
▁Mentor	-12646
▁Nieren	-12647
▁Profil	-12648
▁Sender	-12649
▁Sonder	-12650
▁Umfang	-12651
▁Watson	-12652
▁Wright	-12653
▁austau	-12654
▁kalten	-12655
▁symmet	-12656
▁toller	-12657
▁wärmer	-12658
bewohner	-12659
eigerung	-12660
frequenz	-12661
ianische	-12662
ähnliche	-12663
▁Fiktion	-12664
▁Hundert	-12665
▁Notfall	-12666
▁Rechten	-12667
▁Redwood	-12668
▁Störung	-12669
▁Truppen	-12670
▁Wildnis	-12671
▁Zutaten	-12672
▁benannt	-12673
▁fördert	-12674
▁gereist	-12675
▁meinten	-12676
▁mysteri	-12677
▁saubere	-12678
▁veranst	-12679
▁verfolg	-12680
▁vierten	-12681
▁wünsche	-12682
ordnungen	-12683
schmerzen	-12684
▁Carolina	-12685
▁Christen	-12686
▁Gehirnen	-12687
▁Ursachen	-12688
▁absolute	-12689
▁annähern	-12690
▁befanden	-12691
▁forschen	-12692
▁gefroren	-12693
▁gewaltig	-12694
▁isoliert	-12695
▁kleinste	-12696
▁tauschen	-12697
▁verwandt	-12698
schränkung	-12699
▁Argumente	-12700
▁Durchfall	-12701
▁Fußgänger	-12702
▁Führungsp	-12703
▁Therapien	-12704
▁Versicher	-12705
▁attraktiv	-12706
▁aufweisen	-12707
▁eventuell	-12708
▁genannten	-12709
▁gerichtet	-12710
▁nirgendwo	-12711
▁starteten	-12712
▁umwandeln	-12713
▁DUMMYDUMMY	-12714
▁Hierarchie	-12715
▁Lebensstil	-12716
▁beurteilen	-12717
▁erschienen	-12718
▁freiwillig	-12719
▁wahrhaftig	-12720
gemeinschaft	-12721
▁Flüchtlinge	-12722
▁Gravitation	-12723
▁Kühlschrank	-12724
▁Prioritäten	-12725
▁unglücklich	-12726
▁ökonomische	-12727
▁Bestandteile	-12728
▁Kriminalität	-12729
▁herausstellt	-12730
▁manipulieren	-12731
▁spezifischen	-12732
▁ökonomischen	-12733
▁dokumentieren	-12734
▁konzentrierte	-12735
▁unglaubliches	-12736
▁Krankenhäusern	-12737
▁Verbesserungen	-12738
▁herausgestellt	-12739
▁Lebensunterhalt	-12740
Fi	-12741
sw	-12742
Stu	-12743
ano	-12744
ars	-12745
eiß	-12746
ila	-12747
oni	-12748
rey	-12749
üre	-12750
▁2:	-12751
▁4.	-12752
▁8.	-12753
▁EM	-12754
▁IQ	-12755
▁li	-12756
Glob	-12757
Hier	-12758
Vers	-12759
brot	-12760
heil	-12761
höhe	-12762
iums	-12763
mpor	-12764
oche	-12765
part	-12766
sehe	-12767
west	-12768
zern	-12769
öcke	-12770
ögen	-12771
▁12.	-12772
▁16.	-12773
▁Att	-12774
▁Cre	-12775
▁Erb	-12776
▁Gru	-12777
▁Mau	-12778
▁Sat	-12779
▁Vom	-12780
▁kle	-12781
▁lud	-12782
▁sur	-12783
▁öst	-12784
Schau	-12785
arter	-12786
asten	-12787
ering	-12788
halle	-12789
olera	-12790
oresz	-12791
reden	-12792
regel	-12793
sport	-12794
titel	-12795
üpfen	-12796
▁Coca	-12797
▁Hack	-12798
▁Haup	-12799
▁Mall	-12800
▁Quer	-12801
▁Wirk	-12802
▁besp	-12803
▁opti	-12804
▁quan	-12805
▁tote	-12806
ameras	-12807
atives	-12808
dichte	-12809
grippe	-12810
himmel	-12811
holung	-12812
legung	-12813
märkte	-12814
oteles	-12815
packen	-12816
sehbar	-12817
sprech	-12818
wander	-12819
wendig	-12820
▁Astro	-12821
▁Elite	-12822
▁Erden	-12823
▁Harry	-12824
▁Parks	-12825
▁Rente	-12826
▁Stirn	-12827
▁Veter	-12828
▁hyper	-12829
▁infiz	-12830
▁rasch	-12831
▁unkon	-12832
▁weich	-12833
▁weise	-12834
▁wilde	-12835
alteten	-12836
aufgabe	-12837
bewusst	-12838
branche	-12839
fressen	-12840
ination	-12841
issheit	-12842
medizin	-12843
▁Daraus	-12844
▁Denker	-12845
▁Dutzen	-12846
▁Ersatz	-12847
▁Fremde	-12848
▁Frosch	-12849
▁Gitter	-12850
▁Keller	-12851
▁Kokain	-12852
▁Lücken	-12853
▁Michel	-12854
▁Nachts	-12855
▁Schätz	-12856
▁Trauer	-12857
▁Tunnel	-12858
▁Umlauf	-12859
▁beauft	-12860
▁drückt	-12861
▁einher	-12862
▁endgül	-12863
▁ernten	-12864
▁leidet	-12865
▁liefen	-12866
▁pflanz	-12867
▁rettet	-12868
▁rollen	-12869
▁taucht	-12870
▁treffe	-12871
▁weiten	-12872
geleitet	-12873
omöglich	-12874
▁Bürgern	-12875
▁Cartoon	-12876
▁Cholera	-12877
▁Denkens	-12878
▁Fischen	-12879
▁Gewinne	-12880
▁Neuseel	-12881
▁Prüfung	-12882
▁Sondern	-12883
▁Spender	-12884
▁Stipend	-12885
▁Tausend	-12886
▁Trocken	-12887
▁Währung	-12888
▁anrufen	-12889
▁erstens	-12890
▁gefühlt	-12891
▁hungrig	-12892
▁mischen	-12893
▁schwamm	-12894
▁starkes	-12895
▁stärken	-12896
▁zusehen	-12897
▁zweiter	-12898
ständigen	-12899
zeichnete	-12900
▁Cartoons	-12901
▁Einsicht	-12902
▁Entweder	-12903
▁Errungen	-12904
▁Gewissen	-12905
▁McDonald	-12906
▁November	-12907
▁Reformen	-12908
▁Schaffen	-12909
▁Shakespe	-12910
▁Singapur	-12911
▁antreibt	-12912
▁beliebte	-12913
gesundheit	-12914
landschaft	-12915
ografische	-12916
ungsmittel	-12917
▁Empfänger	-12918
▁Erfüllung	-12919
▁Ressource	-12920
▁Tatsachen	-12921
▁Unternehm	-12922
▁abstrakte	-12923
▁kurzfrist	-12924
▁rekonstru	-12925
▁stärksten	-12926
▁tendieren	-12927
▁verhaftet	-12928
▁zeichnete	-12929
geschichten	-12930
▁Demokraten	-12931
▁Fallschirm	-12932
▁Mitgefühls	-12933
▁Perspektiv	-12934
▁Videospiel	-12935
▁Zeitspanne	-12936
▁bestimmtes	-12937
▁einfachste	-12938
▁gezeichnet	-12939
▁kritischen	-12940
▁merkwürdig	-12941
▁Aristoteles	-12942
▁Beleuchtung	-12943
▁Variationen	-12944
▁angegriffen	-12945
▁fortschritt	-12946
▁gespeichert	-12947
▁irgendeinen	-12948
▁kooperieren	-12949
▁körperliche	-12950
▁spezifische	-12951
▁Behandlungen	-12952
▁andererseits	-12953
▁demonstriert	-12954
▁gelegentlich	-12955
▁herausfanden	-12956
▁konkurrieren	-12957
▁musikalische	-12958
▁öffentlicher	-12959
▁Einstellungen	-12960
▁aufgezeichnet	-12961
▁demokratischen	-12962
7.	-12963
Al	-12964
Or	-12965
▁x	-12966
Gem	-12967
Lie	-12968
aal	-12969
bem	-12970
ene	-12971
eth	-12972
gur	-12973
ils	-12974
kle	-12975
ktu	-12976
mor	-12977
ows	-12978
rif	-12979
seg	-12980
sky	-12981
üht	-12982
▁SI	-12983
alie	-12984
blog	-12985
eith	-12986
ftel	-12987
hüll	-12988
umpe	-12989
Über	-12990
ähle	-12991
▁193	-12992
▁Are	-12993
▁Frö	-12994
▁Kid	-12995
▁Kul	-12996
▁MRT	-12997
▁Sha	-12998
▁fer	-12999
▁gez	-13000
▁kra	-13001
Beweg	-13002
anzug	-13003
brach	-13004
dring	-13005
echte	-13006
eihen	-13007
farbe	-13008
farkt	-13009
füllt	-13010
geist	-13011
heits	-13012
idmet	-13013
insel	-13014
lauch	-13015
läufe	-13016
offen	-13017
pidem	-13018
räder	-13019
sonst	-13020
thalb	-13021
turen	-13022
unges	-13023
▁100-	-13024
▁1900	-13025
▁1998	-13026
▁2012	-13027
▁Beam	-13028
▁Blei	-13029
▁Data	-13030
▁Harm	-13031
▁Jagd	-13032
▁läch	-13033
▁tier	-13034
Effekt	-13035
acheln	-13036
ameter	-13037
andten	-13038
gentin	-13039
gingen	-13040
region	-13041
räften	-13042
skrise	-13043
thesen	-13044
ularen	-13045
▁Anten	-13046
▁Busch	-13047
▁Bösen	-13048
▁Deine	-13049
▁Ecken	-13050
▁Hütte	-13051
▁Ideal	-13052
▁Jemen	-13053
▁Kathe	-13054
▁Lunge	-13055
▁Meile	-13056
▁Moore	-13057
▁Orbit	-13058
▁Paare	-13059
▁Raums	-13060
▁Schäd	-13061
▁betrü	-13062
▁ergän	-13063
▁lohnt	-13064
▁natur	-13065
▁obere	-13066
▁resul	-13067
▁sitze	-13068
▁verdr	-13069
▁zuver	-13070
Univers	-13071
altungs	-13072
bewegen	-13073
energie	-13074
gesehen	-13075
ichtung	-13076
stunden	-13077
urteile	-13078
version	-13079
wiegend	-13080
▁Bildes	-13081
▁Ebenso	-13082
▁Farmer	-13083
▁Kleine	-13084
▁Klänge	-13085
▁Letzte	-13086
▁Misser	-13087
▁Nathan	-13088
▁Pharma	-13089
▁Tasman	-13090
▁Waisen	-13091
▁beruht	-13092
▁düster	-13093
▁fehler	-13094
▁greift	-13095
▁jugend	-13096
▁redete	-13097
▁ungehe	-13098
▁ähnelt	-13099
Computer	-13100
jähriges	-13101
strecken	-13102
stritten	-13103
tationen	-13104
tzündung	-13105
▁Anlagen	-13106
▁Connect	-13107
▁Dienste	-13108
▁Konzert	-13109
▁Mustern	-13110
▁fordern	-13111
▁kauften	-13112
▁richtet	-13113
▁steckte	-13114
▁typisch	-13115
▁wuchsen	-13116
Konferenz	-13117
wertungen	-13118
▁Anspruch	-13119
▁Einzelne	-13120
▁Langzeit	-13121
▁Standort	-13122
▁einfluss	-13123
▁könntest	-13124
▁schweben	-13125
▁tägliche	-13126
▁vorlesen	-13127
▁zerbrech	-13128
▁Forschern	-13129
▁Rezession	-13130
▁Versionen	-13131
▁demselben	-13132
▁eintreten	-13133
▁entkommen	-13134
▁markieren	-13135
▁niedrigen	-13136
▁wertvolle	-13137
▁Bemühungen	-13138
▁Charaktere	-13139
▁Hoffnungen	-13140
▁Kilometern	-13141
▁Konflikten	-13142
▁Neuseeland	-13143
▁Zusätzlich	-13144
▁beliebigen	-13145
▁entschlüss	-13146
▁kognitiven	-13147
▁platzieren	-13148
▁verringert	-13149
▁verwendete	-13150
▁Anstrengung	-13151
▁Betrachtung	-13152
▁Dankbarkeit	-13153
▁Prozentsatz	-13154
▁absichtlich	-13155
▁klassischen	-13156
▁Letztendlich	-13157
▁Nationalpark	-13158
▁Wiederaufbau	-13159
▁konstruieren	-13160
▁ökologischen	-13161
▁Beschäftigung	-13162
▁Meeresspiegel	-13163
▁Verteidigungs	-13164
▁angeschlossen	-13165
sorganisationen	-13166
▁Weltwirtschaft	-13167
▁wirtschaftlich	-13168
▁überraschenden	-13169
▁Geschäftsführer	-13170
▁Halluzinationen	-13171
▁berücksichtigen	-13172
5,	-13173
Em	-13174
NG	-13175
Um	-13176
ye	-13177
▁ä	-13178
bon	-13179
itä	-13180
nik	-13181
ode	-13182
tum	-13183
▁5.	-13184
▁Ca	-13185
▁OP	-13186
ades	-13187
aida	-13188
amas	-13189
angt	-13190
dose	-13191
hamm	-13192
port	-13193
prei	-13194
rede	-13195
reen	-13196
sign	-13197
stro	-13198
tein	-13199
ußer	-13200
wies	-13201
ädag	-13202
äher	-13203
ärer	-13204
▁1,2	-13205
▁15.	-13206
▁30-	-13207
▁Ema	-13208
▁Fak	-13209
▁Han	-13210
▁Hof	-13211
▁Mod	-13212
▁Pir	-13213
▁Sin	-13214
▁Sun	-13215
▁elf	-13216
Krieg	-13217
Meine	-13218
diger	-13219
kugel	-13220
länge	-13221
ology	-13222
prech	-13223
rimin	-13224
ruckt	-13225
unker	-13226
äuben	-13227
ützer	-13228
▁Carl	-13229
▁Dich	-13230
▁Diät	-13231
▁Fass	-13232
▁Geht	-13233
▁Grab	-13234
▁Kong	-13235
▁Krab	-13236
▁Mumb	-13237
▁Note	-13238
▁Oben	-13239
▁Palm	-13240
▁Tans	-13241
▁Tatt	-13242
▁nord	-13243
▁visu	-13244
Global	-13245
echten	-13246
fabrik	-13247
inktiv	-13248
ktiver	-13249
ragten	-13250
school	-13251
tionen	-13252
önland	-13253
▁Altru	-13254
▁Bruno	-13255
▁Büros	-13256
▁Grenz	-13257
▁Herrn	-13258
▁Indus	-13259
▁Lande	-13260
▁Tauch	-13261
▁autor	-13262
▁euren	-13263
▁holte	-13264
▁klang	-13265
▁motor	-13266
▁toten	-13267
▁unbeh	-13268
▁verhe	-13269
▁wegzu	-13270
▁weist	-13271
▁wollt	-13272
artikel	-13273
bindung	-13274
dlicher	-13275
spunkte	-13276
▁Bühnen	-13277
▁Ganzes	-13278
▁Geduld	-13279
▁Helium	-13280
▁Pestiz	-13281
▁Portug	-13282
▁Recher	-13283
▁Stapel	-13284
▁bedarf	-13285
▁klasse	-13286
▁langes	-13287
▁nähern	-13288
▁reiche	-13289
▁teilte	-13290
▁unterm	-13291
▁veranl	-13292
▁vorant	-13293
▁weisen	-13294
handlung	-13295
istenten	-13296
ommunity	-13297
schlüsse	-13298
sprojekt	-13299
▁200.000	-13300
▁Blinden	-13301
▁Everest	-13302
▁Landwir	-13303
▁Monster	-13304
▁Pinguin	-13305
▁Protest	-13306
▁Rauchen	-13307
▁Talente	-13308
▁Tomaten	-13309
▁Verpack	-13310
▁Wünsche	-13311
▁aktuell	-13312
▁begehen	-13313
▁entwarf	-13314
▁koennen	-13315
▁löschen	-13316
▁stunden	-13317
▁unbesch	-13318
▁vernach	-13319
▁visuell	-13320
▁wechsel	-13321
▁zurzeit	-13322
▁Übungen	-13323
allererst	-13324
programme	-13325
▁Angriffe	-13326
▁Dasselbe	-13327
▁Einkaufs	-13328
▁Reporter	-13329
▁Rückgang	-13330
▁Tastatur	-13331
▁Versuchs	-13332
▁Virginia	-13333
▁begraben	-13334
▁bereitet	-13335
▁erwischt	-13336
▁markiert	-13337
▁möchtest	-13338
▁schieben	-13339
▁ungleich	-13340
▁vereinen	-13341
▁vergeben	-13342
▁verlässt	-13343
▁wiederzu	-13344
▁wörtlich	-13345
atisierung	-13346
▁Ausnahmen	-13347
▁Parasiten	-13348
▁Recycling	-13349
▁Schwanger	-13350
▁Techniker	-13351
▁einzelnes	-13352
▁katastrop	-13353
▁schnellen	-13354
▁stattfand	-13355
▁teilhaben	-13356
▁verpassen	-13357
▁womöglich	-13358
▁Aussterben	-13359
▁Betrachter	-13360
▁Meerwasser	-13361
▁angewiesen	-13362
▁auszusehen	-13363
▁beschaffen	-13364
▁praktische	-13365
▁regulieren	-13366
▁unangenehm	-13367
▁zeitgenöss	-13368
▁Überlebens	-13369
ungsvermögen	-13370
▁Angiogenese	-13371
▁Auseinander	-13372
▁Bedrohungen	-13373
▁Erscheinung	-13374
▁Erweiterung	-13375
▁Gesichtsaus	-13376
▁Richtlinien	-13377
▁Vermächtnis	-13378
▁langfristig	-13379
▁realisieren	-13380
▁untersuchte	-13381
▁versteckten	-13382
▁Gleichzeitig	-13383
▁Griechenland	-13384
▁Mobiltelefon	-13385
▁katastrophal	-13386
▁umweltfreund	-13387
▁unsichtbaren	-13388
▁Anstrengungen	-13389
▁Beobachtungen	-13390
▁Chemotherapie	-13391
▁eingeschränkt	-13392
▁Nebenwirkungen	-13393
▁Vorgehensweise	-13394
▁elektronischen	-13395
▁folgendermaßen	-13396
.-	-13397
Po	-13398
Aut	-13399
Ser	-13400
bez	-13401
ela	-13402
enh	-13403
igh	-13404
ohn	-13405
sex	-13406
ves	-13407
öre	-13408
▁6.	-13409
▁72	-13410
▁IT	-13411
Feld	-13412
aste	-13413
auto	-13414
eman	-13415
empl	-13416
frar	-13417
hole	-13418
korn	-13419
lade	-13420
merk	-13421
phin	-13422
rüch	-13423
umin	-13424
uzen	-13425
verw	-13426
öhne	-13427
öten	-13428
▁190	-13429
▁Dol	-13430
▁Ess	-13431
▁Gor	-13432
▁Hür	-13433
▁Twe	-13434
▁inn	-13435
arben	-13436
blase	-13437
famil	-13438
namen	-13439
opard	-13440
tiken	-13441
weren	-13442
wirft	-13443
äuren	-13444
▁Abed	-13445
▁Bald	-13446
▁Bart	-13447
▁Cany	-13448
▁Foie	-13449
▁Fuss	-13450
▁Hero	-13451
▁Koff	-13452
▁Rund	-13453
▁Sier	-13454
▁Taxi	-13455
▁bekl	-13456
▁impl	-13457
▁jetz	-13458
▁litt	-13459
▁null	-13460
▁orig	-13461
▁proj	-13462
▁reag	-13463
▁treu	-13464
attung	-13465
beding	-13466
dresse	-13467
einern	-13468
faktor	-13469
gelenk	-13470
ienten	-13471
letter	-13472
sionen	-13473
strafe	-13474
ächern	-13475
ütteln	-13476
▁April	-13477
▁Berat	-13478
▁Comic	-13479
▁Craig	-13480
▁Ferne	-13481
▁Hawai	-13482
▁Lewis	-13483
▁Rasse	-13484
▁Ruder	-13485
▁Sorte	-13486
▁beten	-13487
▁damal	-13488
▁dünne	-13489
▁gemäß	-13490
▁gewün	-13491
▁glaub	-13492
▁hohem	-13493
▁liber	-13494
▁mutig	-13495
▁volle	-13496
mäßigen	-13497
platten	-13498
raktion	-13499
schenkt	-13500
teilten	-13501
zahlung	-13502
▁Aktien	-13503
▁Belohn	-13504
▁Campus	-13505
▁Essenz	-13506
▁Falten	-13507
▁Flucht	-13508
▁Grösse	-13509
▁Götter	-13510
▁Innere	-13511
▁Krisen	-13512
▁Künste	-13513
▁Marath	-13514
▁Mozart	-13515
▁Mücken	-13516
▁Prophe	-13517
▁Sprich	-13518
▁Strafe	-13519
▁Unsinn	-13520
▁bewerk	-13521
▁endete	-13522
▁modell	-13523
▁scharf	-13524
▁wander	-13525
▁wonach	-13526
▁zweier	-13527
derweise	-13528
gerissen	-13529
hingegen	-13530
passungs	-13531
streifen	-13532
▁Bananen	-13533
▁Bindung	-13534
▁Eingang	-13535
▁Französ	-13536
▁Freitag	-13537
▁Geräten	-13538
▁Kondome	-13539
▁Kreatur	-13540
▁Melodie	-13541
▁Museums	-13542
▁Unsicht	-13543
▁abgeben	-13544
▁beeintr	-13545
▁durften	-13546
▁element	-13547
▁sichere	-13548
▁umsonst	-13549
▁waschen	-13550
abschluss	-13551
absichtig	-13552
scheidung	-13553
▁Betriebs	-13554
▁Biomasse	-13555
▁Grönland	-13556
▁Jonathan	-13557
▁Leonardo	-13558
▁Monterey	-13559
▁Motorrad	-13560
▁Priester	-13561
▁Repräsen	-13562
▁Schwelle	-13563
▁Szenario	-13564
▁Trennung	-13565
▁gewidmet	-13566
▁komische	-13567
▁massiven	-13568
▁niedrige	-13569
▁phänomen	-13570
▁reproduz	-13571
▁schreien	-13572
▁weiterzu	-13573
▁zeichnet	-13574
▁überlegt	-13575
▁üblichen	-13576
Amerikaner	-13577
▁Abschnitt	-13578
▁Batterien	-13579
▁Dokumente	-13580
▁Interface	-13581
▁Rohstoffe	-13582
▁Schöpfung	-13583
▁Teilnahme	-13584
▁angeblich	-13585
▁bekannter	-13586
▁entnehmen	-13587
▁identisch	-13588
▁verstärkt	-13589
verständnis	-13590
▁Baumkronen	-13591
▁Besonderes	-13592
▁Elternteil	-13593
▁Verletzung	-13594
▁Wochenende	-13595
▁Zigaretten	-13596
▁anderthalb	-13597
▁anzupassen	-13598
▁bearbeiten	-13599
▁instinktiv	-13600
▁simulieren	-13601
▁versteckte	-13602
▁verstärken	-13603
▁wahnsinnig	-13604
▁weitgehend	-13605
▁Behandlungs	-13606
▁Erklärungen	-13607
▁Philanthrop	-13608
▁Studierende	-13609
▁austauschen	-13610
▁befriedigen	-13611
▁beigetragen	-13612
▁islamischen	-13613
▁wunderbares	-13614
▁Übertragung	-13615
▁Perspektiven	-13616
▁hinterfragen	-13617
▁vergleichbar	-13618
▁Behinderungen	-13619
▁International	-13620
▁Jahrhunderten	-13621
▁Zusammenbruch	-13622
▁organisierten	-13623
▁physikalische	-13624
▁amerikanischer	-13625
▁beeindruckende	-13626
▁psychologische	-13627
▁Angelegenheiten	-13628
▁Voraussetzungen	-13629
▁zusammengefasst	-13630
IA	-13631
big	-13632
idi	-13633
ors	-13634
rav	-13635
van	-13636
wal	-13637
▁43	-13638
▁AM	-13639
▁DP	-13640
▁SP	-13641
▁UV	-13642
▁–,	-13643
alin	-13644
atom	-13645
hall	-13646
ibel	-13647
luft	-13648
then	-13649
unts	-13650
urce	-13651
ückt	-13652
ührt	-13653
▁Amt	-13654
▁Bün	-13655
▁Cat	-13656
▁Cur	-13657
▁Emm	-13658
▁Had	-13659
▁Inf	-13660
▁Kas	-13661
▁May	-13662
▁Mom	-13663
▁Ras	-13664
▁Tak	-13665
▁van	-13666
appte	-13667
freie	-13668
gerte	-13669
ilanz	-13670
ittet	-13671
korea	-13672
level	-13673
loses	-13674
rafen	-13675
rasil	-13676
rohen	-13677
örter	-13678
▁2030	-13679
▁Balk	-13680
▁Gelb	-13681
▁Horm	-13682
▁Isol	-13683
▁Jord	-13684
▁Kram	-13685
▁Send	-13686
▁Spag	-13687
▁Spar	-13688
▁Stig	-13689
▁Zero	-13690
▁aßen	-13691
▁gäng	-13692
▁gänz	-13693
▁läng	-13694
Design	-13695
Gemein	-13696
Mensch	-13697
bertät	-13698
dungen	-13699
ehrten	-13700
gesell	-13701
gängig	-13702
inente	-13703
inseln	-13704
ischte	-13705
kaufen	-13706
ochten	-13707
ängern	-13708
▁Apart	-13709
▁Child	-13710
▁Erdöl	-13711
▁Ersch	-13712
▁Gitar	-13713
▁Kamel	-13714
▁Linse	-13715
▁Netze	-13716
▁Polar	-13717
▁Route	-13718
▁Rover	-13719
▁ansah	-13720
▁besaß	-13721
▁bösen	-13722
▁malte	-13723
▁merkt	-13724
▁sagst	-13725
▁traum	-13726
▁tätig	-13727
▁Äußer	-13728
einheit	-13729
enhagen	-13730
lichste	-13731
romagne	-13732
utation	-13733
ächtige	-13734
▁Bestes	-13735
▁Delfin	-13736
▁Edward	-13737
▁Erstes	-13738
▁Exempl	-13739
▁Folien	-13740
▁Gewehr	-13741
▁Kriter	-13742
▁Luther	-13743
▁Master	-13744
▁Mumbai	-13745
▁Normen	-13746
▁Strich	-13747
▁Südpol	-13748
▁Vakuum	-13749
▁Vertre	-13750
▁Vögeln	-13751
▁Winden	-13752
▁Wunden	-13753
▁Zwecke	-13754
▁Zweite	-13755
▁bewaff	-13756
▁bewohn	-13757
▁brasil	-13758
▁deines	-13759
▁filmen	-13760
▁harten	-13761
▁israel	-13762
▁jeweil	-13763
▁stimme	-13764
▁tempor	-13765
▁vorder	-13766
▁Ängste	-13767
Maschine	-13768
effizien	-13769
stattung	-13770
▁Abraham	-13771
▁Ankunft	-13772
▁Aufwand	-13773
▁Bestech	-13774
▁Dilemma	-13775
▁Kartoff	-13776
▁Koralle	-13777
▁Ozeanen	-13778
▁Perform	-13779
▁Strasse	-13780
▁Träumen	-13781
▁anbauen	-13782
▁ausgeht	-13783
▁belohnt	-13784
▁bemühen	-13785
▁dringen	-13786
▁koordin	-13787
hältnisse	-13788
irdischen	-13789
istischer	-13790
liegenden	-13791
schlüssel	-13792
sterreich	-13793
▁Auslöser	-13794
▁Harmonie	-13795
▁Hühnchen	-13796
▁Meistens	-13797
▁Pandemie	-13798
▁Pubertät	-13799
▁Rückmeld	-13800
▁Tansania	-13801
▁Vollzeit	-13802
▁schlicht	-13803
▁tiefgrün	-13804
▁versagen	-13805
▁Hindernis	-13806
▁Schwarzen	-13807
▁Universen	-13808
▁antreiben	-13809
▁aussuchen	-13810
▁dauerhaft	-13811
▁dynamisch	-13812
▁entlassen	-13813
▁errichtet	-13814
▁geleistet	-13815
▁gesteuert	-13816
▁glamourös	-13817
▁gründeten	-13818
▁hinweisen	-13819
▁mitmachen	-13820
▁umbringen	-13821
wasserstoff	-13822
▁Aufklärung	-13823
▁Fotografen	-13824
▁Komponente	-13825
▁Kopenhagen	-13826
▁Schlimmste	-13827
▁angebracht	-13828
▁anzubieten	-13829
▁bevorzugen	-13830
▁enttäuscht	-13831
▁gesundheit	-13832
▁kostenlose	-13833
▁körperlich	-13834
▁versichern	-13835
▁Angestellte	-13836
▁Meeresboden	-13837
▁alternative	-13838
▁erneuerbare	-13839
▁unsichtbare	-13840
▁Gewohnheiten	-13841
▁Kindergarten	-13842
▁alltäglichen	-13843
▁teilzunehmen	-13844
▁verschmelzen	-13845
▁verständlich	-13846
▁zusätzlichen	-13847
gesellschaften	-13848
▁Veranstaltung	-13849
▁Zeitschriften	-13850
▁ausgesprochen	-13851
▁erfolgreichen	-13852
▁weitergegeben	-13853
6.	-13854
OL	-13855
Pe	-13856
üm	-13857
bod	-13858
hes	-13859
kör	-13860
mat	-13861
sag	-13862
▁44	-13863
▁Ew	-13864
▁Hä	-13865
▁aß	-13866
Groß	-13867
Jahr	-13868
Team	-13869
ahll	-13870
aute	-13871
chem	-13872
eley	-13873
etze	-13874
ilzt	-13875
ites	-13876
ittw	-13877
länd	-13878
mass	-13879
meer	-13880
onto	-13881
seen	-13882
sern	-13883
▁130	-13884
▁20-	-13885
▁Abt	-13886
▁Acc	-13887
▁Dal	-13888
▁Dod	-13889
▁Lex	-13890
▁Rab	-13891
▁Tha	-13892
▁Tok	-13893
▁blu	-13894
▁bös	-13895
▁inj	-13896
▁unf	-13897
▁zug	-13898
Druck	-13899
andte	-13900
apfen	-13901
dehnt	-13902
dreht	-13903
exper	-13904
fangs	-13905
mente	-13906
ocker	-13907
sburg	-13908
ssinn	-13909
ungel	-13910
ziell	-13911
zählt	-13912
äumen	-13913
▁2002	-13914
▁3000	-13915
▁Bach	-13916
▁Brem	-13917
▁Cels	-13918
▁Ekel	-13919
▁Ikon	-13920
▁Irrt	-13921
▁Lind	-13922
▁Link	-13923
▁Pitt	-13924
▁Sant	-13925
▁Woll	-13926
▁bege	-13927
▁mess	-13928
▁qual	-13929
▁sexy	-13930
▁strö	-13931
▁trop	-13932
▁Ärzt	-13933
behand	-13934
eidbar	-13935
emonie	-13936
fehler	-13937
fessor	-13938
größte	-13939
iarden	-13940
landet	-13941
opädie	-13942
prozen	-13943
schuhe	-13944
spitze	-13945
stream	-13946
werben	-13947
▁Agrar	-13948
▁Brett	-13949
▁Erder	-13950
▁Fleck	-13951
▁Hebel	-13952
▁Keith	-13953
▁Kyros	-13954
▁Notiz	-13955
▁River	-13956
▁Sieht	-13957
▁Simon	-13958
▁Suppe	-13959
▁Symph	-13960
▁Söhne	-13961
▁Unbek	-13962
▁Witze	-13963
▁nette	-13964
▁neutr	-13965
▁nutze	-13966
▁schar	-13967
Entwick	-13968
Syndrom	-13969
Theorie	-13970
findung	-13971
gration	-13972
grenzen	-13973
schulen	-13974
steuern	-13975
▁Action	-13976
▁Briten	-13977
▁Bäcker	-13978
▁Comedy	-13979
▁Disney	-13980
▁Hormon	-13981
▁Joshua	-13982
▁Mauern	-13983
▁Mosche	-13984
▁Myster	-13985
▁Panzer	-13986
▁Philip	-13987
▁Raster	-13988
▁Schaut	-13989
▁Sebast	-13990
▁Sierra	-13991
▁Sänger	-13992
▁Säulen	-13993
▁aktive	-13994
▁allmäh	-13995
▁bewahr	-13996
▁bittet	-13997
▁fällen	-13998
▁klaren	-13999
▁netten	-14000
▁schrum	-14001
▁unzähl	-14002
Menschen	-14003
ammelten	-14004
ifferenz	-14005
irdische	-14006
mechanik	-14007
personen	-14008
spolitik	-14009
strahlen	-14010
▁Alltags	-14011
▁Celsius	-14012
▁Dollars	-14013
▁Geister	-14014
▁Neigung	-14015
▁Project	-14016
▁Rosling	-14017
▁Seattle	-14018
▁Service	-14019
▁Spazier	-14020
▁Steinen	-14021
▁Vernetz	-14022
▁anstren	-14023
▁beschul	-14024
▁digital	-14025
▁erholen	-14026
▁erkläre	-14027
▁extreme	-14028
▁folgten	-14029
▁gefilmt	-14030
▁schlage	-14031
▁starker	-14032
▁südlich	-14033
▁vorherr	-14034
▁übersch	-14035
betrieben	-14036
ipulation	-14037
schichten	-14038
schiebung	-14039
ähnlichen	-14040
▁Aussicht	-14041
▁Chemiker	-14042
▁Freundes	-14043
▁Improvis	-14044
▁Lehrplan	-14045
▁Partikel	-14046
▁Rückkehr	-14047
▁abnehmen	-14048
▁bereiten	-14049
▁enthüllt	-14050
▁erwecken	-14051
▁peinlich	-14052
▁versehen	-14053
haftigkeit	-14054
▁Aufregung	-14055
▁Einnahmen	-14056
▁Mobilität	-14057
▁Schweizer	-14058
▁Umsetzung	-14059
▁annähernd	-14060
▁aufgehört	-14061
▁bemerkten	-14062
▁beruhigen	-14063
▁bewundern	-14064
▁einzelner	-14065
▁erwartete	-14066
▁loswerden	-14067
▁riskieren	-14068
▁vornehmen	-14069
▁übernimmt	-14070
herstellung	-14071
▁Ernährungs	-14072
▁Kompromiss	-14073
▁Konsequenz	-14074
▁Mahlzeiten	-14075
▁Millimeter	-14076
▁Smartphone	-14077
▁aufgegeben	-14078
▁gebrauchen	-14079
▁ineinander	-14080
▁ordentlich	-14081
▁verkauften	-14082
erkrankungen	-14083
▁Brennstoffe	-14084
▁Freiwillige	-14085
▁Genauigkeit	-14086
▁Philosophen	-14087
▁Produktions	-14088
▁Sehvermögen	-14089
▁Zeitschrift	-14090
▁glücklichen	-14091
▁informieren	-14092
▁natürliches	-14093
▁psychischen	-14094
▁schnellsten	-14095
▁unbekannten	-14096
▁Älterwerden	-14097
▁Konversation	-14098
▁Lautsprecher	-14099
▁Temperaturen	-14100
▁Verarbeitung	-14101
▁anschließend	-14102
▁französische	-14103
▁gefährlichen	-14104
▁nachhaltigen	-14105
▁persönliches	-14106
▁unterbrochen	-14107
▁Mobiltelefone	-14108
▁Verhandlungen	-14109
▁argumentieren	-14110
▁gemeinnützige	-14111
▁hervorbringen	-14112
▁komplizierten	-14113
▁Visualisierung	-14114
▁entscheidenden	-14115
▁faszinierenden	-14116
▁zusammenkommen	-14117
▁vielversprechen	-14118
3,	-14119
60	-14120
Bü	-14121
NC	-14122
PR	-14123
RA	-14124
Su	-14125
kr	-14126
Mag	-14127
ays	-14128
dar	-14129
ema	-14130
hod	-14131
hut	-14132
pop	-14133
yan	-14134
zed	-14135
▁IM	-14136
▁SS	-14137
Bild	-14138
Nach	-14139
alth	-14140
amib	-14141
auce	-14142
brid	-14143
diag	-14144
eide	-14145
enix	-14146
etro	-14147
orts	-14148
pert	-14149
telt	-14150
uana	-14151
öpft	-14152
▁20,	-14153
▁Act	-14154
▁Blu	-14155
▁Caf	-14156
▁Dor	-14157
▁Ell	-14158
▁Lyn	-14159
▁Nah	-14160
▁blö	-14161
aurus	-14162
bären	-14163
ftung	-14164
hetti	-14165
ingel	-14166
mherz	-14167
opath	-14168
seits	-14169
urger	-14170
weckt	-14171
ärmen	-14172
üstet	-14173
▁5000	-14174
▁Alan	-14175
▁Cour	-14176
▁Dias	-14177
▁Full	-14178
▁Gebe	-14179
▁Gran	-14180
▁Hamb	-14181
▁Hind	-14182
▁Logo	-14183
▁Play	-14184
▁Sach	-14185
▁Sieg	-14186
▁Yeah	-14187
▁auft	-14188
▁gelb	-14189
▁grob	-14190
▁häus	-14191
▁unzu	-14192
anntes	-14193
bahnen	-14194
bedarf	-14195
bienen	-14196
flucht	-14197
fungen	-14198
gesagt	-14199
grenze	-14200
hammed	-14201
lauben	-14202
lingen	-14203
rahmen	-14204
reiter	-14205
reuung	-14206
sender	-14207
usalem	-14208
zeugte	-14209
▁Allen	-14210
▁Apoll	-14211
▁Asthm	-14212
▁Athle	-14213
▁Atomb	-14214
▁Bruce	-14215
▁Domin	-14216
▁Favor	-14217
▁Kunde	-14218
▁Louis	-14219
▁Tolle	-14220
▁absur	-14221
▁diver	-14222
▁dumme	-14223
▁hasse	-14224
▁kluge	-14225
▁talen	-14226
▁verär	-14227
▁worin	-14228
▁Ästhe	-14229
anschau	-14230
auschen	-14231
fähiger	-14232
hielten	-14233
händler	-14234
inieren	-14235
planung	-14236
positiv	-14237
steiger	-14238
ulierte	-14239
usionen	-14240
zeugung	-14241
zurufen	-14242
▁40.000	-14243
▁Drohne	-14244
▁Furcht	-14245
▁Hawaii	-14246
▁Irland	-14247
▁Kannst	-14248
▁Killer	-14249
▁Kämpfe	-14250
▁Lampen	-14251
▁Linken	-14252
▁Margar	-14253
▁Monats	-14254
▁Montag	-14255
▁Mäusen	-14256
▁Reflex	-14257
▁Reform	-14258
▁Regime	-14259
▁Schaff	-14260
▁Sollte	-14261
▁Supern	-14262
▁Syrien	-14263
▁Tinten	-14264
▁Zeitra	-14265
▁brilli	-14266
▁extrah	-14267
▁gefiel	-14268
▁siehst	-14269
▁ähneln	-14270
ineering	-14271
regionen	-14272
versität	-14273
▁Atlanta	-14274
▁Dirigen	-14275
▁Johanna	-14276
▁Lernens	-14277
▁Merkmal	-14278
▁Patente	-14279
▁Schwimm	-14280
▁anfühlt	-14281
▁aufhört	-14282
▁bedient	-14283
▁begeben	-14284
▁begriff	-14285
▁beraten	-14286
▁breiten	-14287
▁chirurg	-14288
▁eigener	-14289
▁energie	-14290
▁geheime	-14291
▁informe	-14292
▁klicken	-14293
▁kopiert	-14294
▁redeten	-14295
▁spenden	-14296
▁stimmte	-14297
▁tödlich	-14298
▁älteste	-14299
▁Besucher	-14300
▁Gefühlen	-14301
▁Magazine	-14302
▁Mohammed	-14303
▁Schleimp	-14304
▁abhängen	-14305
▁besiegen	-14306
▁eingebet	-14307
▁erlernen	-14308
▁fluoresz	-14309
▁gelandet	-14310
▁geradezu	-14311
▁geringen	-14312
▁gespannt	-14313
▁gewissem	-14314
▁heiligen	-14315
▁jüngeren	-14316
▁klettern	-14317
▁kollabor	-14318
▁moderner	-14319
▁schrittw	-14320
▁Ästhetik	-14321
gestaltung	-14322
ikanischen	-14323
krankungen	-14324
▁Bedingung	-14325
▁Intellekt	-14326
▁Messungen	-14327
▁Parkplatz	-14328
▁Raumfahrt	-14329
▁Varianten	-14330
▁bestanden	-14331
▁drastisch	-14332
▁geschenkt	-14333
▁herkommen	-14334
▁hunderten	-14335
▁schönsten	-14336
▁Überblick	-14337
möglichkeit	-14338
sgeschichte	-14339
▁Politikern	-14340
▁Tageslicht	-14341
▁Verfassung	-14342
▁anerkennen	-14343
▁aufzugeben	-14344
▁begeistern	-14345
▁effiziente	-14346
▁frustriert	-14347
▁geschossen	-14348
▁herzlichen	-14349
▁informiert	-14350
▁potentiell	-14351
▁schockiert	-14352
▁ultimative	-14353
▁unendliche	-14354
▁verbleiben	-14355
▁verknüpfen	-14356
katastrophen	-14357
▁Frustration	-14358
▁Grundschule	-14359
▁Herzinfarkt	-14360
▁Infektionen	-14361
▁Jugendliche	-14362
▁Relativität	-14363
▁anschließen	-14364
▁aufgefallen	-14365
▁dreieinhalb	-14366
▁japanischen	-14367
▁unternommen	-14368
▁weitergeben	-14369
▁Erderwärmung	-14370
▁Geschlechter	-14371
▁Rechenschaft	-14372
▁angesprochen	-14373
▁herauskommen	-14374
▁körperlichen	-14375
▁militärische	-14376
▁respektieren	-14377
▁zehntausende	-14378
organisationen	-14379
▁Programmieren	-14380
▁Zusammenspiel	-14381
▁existierenden	-14382
▁schwierigsten	-14383
▁üblicherweise	-14384
▁Funktionsweise	-14385
▁zurückzukehren	-14386
▁Herzkrankheiten	-14387
▁offensichtliche	-14388
hh	-14389
kd	-14390
kä	-14391
Per	-14392
Wel	-14393
cus	-14394
ico	-14395
ily	-14396
mas	-14397
rip	-14398
ußt	-14399
yen	-14400
▁34	-14401
▁Ba	-14402
▁Ig	-14403
▁Lü	-14404
Dies	-14405
Kann	-14406
dite	-14407
impf	-14408
kund	-14409
kürz	-14410
loss	-14411
mach	-14412
nekd	-14413
näck	-14414
opft	-14415
rein	-14416
vier	-14417
ölfe	-14418
▁160	-14419
▁450	-14420
▁Gir	-14421
▁Hot	-14422
▁Jup	-14423
▁Nik	-14424
▁Non	-14425
▁Off	-14426
▁Oma	-14427
▁Pix	-14428
▁Tai	-14429
▁hel	-14430
▁hyp	-14431
▁wuß	-14432
Qaida	-14433
gemäß	-14434
iater	-14435
igste	-14436
syche	-14437
ählte	-14438
ärzte	-14439
▁Adop	-14440
▁Back	-14441
▁Bade	-14442
▁Bast	-14443
▁Clip	-14444
▁Dumm	-14445
▁Foot	-14446
▁Foss	-14447
▁Mand	-14448
▁Obst	-14449
▁Pier	-14450
▁Prov	-14451
▁Rass	-14452
▁Ross	-14453
▁Supr	-14454
▁faul	-14455
▁irre	-14456
▁lege	-14457
▁mult	-14458
▁quad	-14459
▁rauf	-14460
Moment	-14461
frarot	-14462
gründe	-14463
inchen	-14464
ombard	-14465
renzen	-14466
sparen	-14467
zettel	-14468
▁4.000	-14469
▁Alice	-14470
▁Bauer	-14471
▁Blüte	-14472
▁Darin	-14473
▁Ehren	-14474
▁Feder	-14475
▁Helik	-14476
▁Himal	-14477
▁Hülle	-14478
▁Julia	-14479
▁Lobby	-14480
▁Pille	-14481
▁Space	-14482
▁Synap	-14483
▁These	-14484
▁Union	-14485
▁White	-14486
▁beher	-14487
▁bizar	-14488
▁brand	-14489
▁braun	-14490
▁engag	-14491
▁führe	-14492
▁kürze	-14493
▁laden	-14494
▁legal	-14495
▁nahen	-14496
▁quali	-14497
▁reine	-14498
▁stört	-14499
▁weite	-14500
▁ängst	-14501
ational	-14502
bildern	-14503
flasche	-14504
ladesch	-14505
lichere	-14506
rottung	-14507
sprüche	-14508
uminium	-14509
▁Fahren	-14510
▁Gelder	-14511
▁Gesten	-14512
▁Geträn	-14513
▁Linsen	-14514
▁Macher	-14515
▁Maßstä	-14516
▁Puppen	-14517
▁Soldat	-14518
▁Stellt	-14519
▁auszut	-14520
▁beacht	-14521
▁essent	-14522
▁freier	-14523
▁geschw	-14524
▁kehrte	-14525
▁klappt	-14526
▁kollab	-14527
▁kommst	-14528
▁kontak	-14529
▁kämpft	-14530
▁lehrte	-14531
▁zusamm	-14532
biologie	-14533
ransplan	-14534
ssysteme	-14535
ungsvoll	-14536
▁Elefant	-14537
▁Fehlern	-14538
▁Goldene	-14539
▁Jupiter	-14540
▁Krieger	-14541
▁Libanon	-14542
▁Paradox	-14543
▁Pflicht	-14544
▁Sollten	-14545
▁Wassers	-14546
▁abläuft	-14547
▁anlegen	-14548
▁befreit	-14549
▁beweist	-14550
▁geliebt	-14551
▁gemerkt	-14552
[...]
