<unk>	0
<s>	0
</s>	0
▁,	-2.92143
▁.	-3.15753
s	-3.65725
▁the	-3.90106
;	-4.06931
▁&	-4.07229
▁and	-4.38198
▁in	-4.43037
▁	-4.50582
▁to	-4.52607
▁und	-4.54692
n	-4.54867
apos	-4.55851
▁die	-4.57147
▁of	-4.64516
▁a	-4.65466
en	-4.73072
▁that	-4.86998
▁I	-4.97518
▁it	-5.04704
▁das	-5.04911
quot	-5.0756
▁der	-5.0769
▁ich	-5.11635
▁you	-5.12992
y	-5.13267
▁we	-5.1886
▁is	-5.21277
▁ist	-5.21578
▁wir	-5.24254
▁es	-5.26865
t	-5.27412
▁zu	-5.3255
▁so	-5.33173
ing	-5.3631
ed	-5.41385
▁sie	-5.42296
▁was	-5.45978
▁this	-5.49322
-	-5.55549
▁?	-5.60227
▁:	-5.62634
e	-5.63625
▁ein	-5.64875
d	-5.67701
▁eine	-5.69103
▁an	-5.73582
ly	-5.7479
▁nicht	-5.81487
▁von	-5.81623
▁--	-5.8411
▁den	-5.89961
m	-5.90197
▁dass	-5.90798
▁mit	-5.98521
▁for	-5.98922
▁diese	-5.99993
▁auf	-6.04197
▁are	-6.07245
▁wie	-6.07654
▁have	-6.09856
▁what	-6.10799
▁Sie	-6.12239
▁on	-6.1383
▁but	-6.14298
▁with	-6.14539
▁be	-6.17804
▁man	-6.17899
▁can	-6.23617
▁sich	-6.23879
▁war	-6.25806
▁all	-6.26231
▁sind	-6.27886
re	-6.28402
▁aber	-6.2974
▁für	-6.30134
▁haben	-6.3275
▁wenn	-6.34293
▁about	-6.34588
▁there	-6.37298
▁also	-6.40269
er	-6.40478
▁als	-6.4064
▁at	-6.47285
▁do	-6.47788
▁er	-6.48434
▁not	-6.48567
▁um	-6.49339
▁one	-6.52376
r	-6.55005
▁im	-6.56437
▁as	-6.58877
▁my	-6.59211
▁like	-6.59232
▁people	-6.61236
▁-	-6.64082
▁from	-6.65527
▁if	-6.65821
▁dem	-6.6597
▁he	-6.67666
▁now	-6.71551
▁aus	-6.71751
▁uns	-6.73304
▁these	-6.76597
▁just	-6.78356
▁or	-6.79066
▁our	-6.79239
▁können	-6.79443
▁einen	-6.79988
▁über	-6.80889
▁oder	-6.81181
▁hier	-6.83838
▁werden	-6.8393
▁when	-6.84528
▁des	-6.85787
▁hat	-6.85988
▁because	-6.86621
▁think	-6.88521
▁know	-6.89406
▁how	-6.90278
▁out	-6.90793
▁me	-6.91143
es	-6.91647
▁get	-6.92012
▁by	-6.93203
▁auch	-6.9408
▁up	-6.94403
▁kann	-6.94863
▁einer	-6.95871
▁going	-6.96987
.	-6.98841
▁einem	-7.0107
▁them	-7.02003
▁nur	-7.0264
▁more	-7.02942
very	-7.03533
ve	-7.03719
▁see	-7.03798
▁us	-7.04206
▁dann	-7.04509
▁sehr	-7.04684
▁etwa	-7.04957
▁had	-7.05933
▁who	-7.06715
▁which	-7.07315
▁here	-7.07743
▁wird	-7.08493
▁your	-7.09337
▁some	-7.09408
▁would	-7.09656
▁Menschen	-7.11381
▁were	-7.12073
▁their	-7.12193
▁sein	-7.13044
▁will	-7.13044
▁nach	-7.13523
▁want	-7.1375
▁gibt	-7.15049
▁mich	-7.15655
▁meine	-7.18453
▁look	-7.18954
▁vor	-7.19254
▁da	-7.19262
▁go	-7.21273
▁time	-7.23745
▁has	-7.23822
▁sehen	-7.25337
▁dieser	-7.255
▁actual	-7.25615
▁world	-7.26385
▁noch	-7.26426
▁other	-7.2846
▁bei	-7.29761
▁habe	-7.30429
▁into	-7.31797
▁way	-7.3298
▁mir	-7.33689
▁don	-7.33722
▁could	-7.33836
▁ihre	-7.33922
▁where	-7.34094
▁no	-7.34982
▁alle	-7.36255
▁did	-7.38743
▁things	-7.39529
▁mehr	-7.39717
▁years	-7.40154
▁Welt	-7.40581
▁unsere	-7.428
▁make	-7.45875
▁viele	-7.48134
▁say	-7.48659
▁am	-7.49178
▁right	-7.50383
▁well	-7.51126
▁viel	-7.51171
▁durch	-7.51627
▁then	-7.51892
▁reall	-7.52389
▁zum	-7.5261
▁start	-7.52731
▁every	-7.52841
▁been	-7.5313
um	-7.53418
▁weil	-7.53726
▁wurde	-7.53922
▁keine	-7.5395
▁sai	-7.54712
▁würde	-7.56218
▁Ihnen	-7.56539
▁she	-7.56623
▁something	-7.5688
▁machen	-7.57669
▁wirklich	-7.57973
▁first	-7.58473
▁two	-7.58756
▁ihn	-7.60429
▁immer	-7.6094
ll	-7.6168
▁those	-7.61988
▁wo	-7.62621
▁nun	-7.62955
▁much	-7.63996
▁over	-7.64144
▁call	-7.64269
▁kind	-7.64641
▁than	-7.64917
▁andere	-7.65334
▁got	-7.65471
▁T	-7.66287
▁thing	-7.66385
▁take	-7.66618
▁need	-7.66737
▁tun	-7.67128
▁little	-7.67233
▁real	-7.67707
▁ihr	-7.67996
▁back	-7.68445
▁come	-7.69115
▁his	-7.69411
▁most	-7.69757
▁jetzt	-7.69939
in	-7.70382
st	-7.70968
▁talk	-7.71414
▁TED	-7.71846
▁work	-7.72272
▁sagte	-7.72884
▁Dinge	-7.73179
▁her	-7.73581
▁hatte	-7.73672
a	-7.73849
▁Zeit	-7.75973
▁life	-7.76121
▁bis	-7.76428
▁wissen	-7.77091
▁only	-7.78461
▁even	-7.78835
▁Leben	-7.79669
▁Leute	-7.79968
▁zwei	-7.80299
▁einfach	-7.80327
▁new	-7.83162
▁good	-7.84446
▁müssen	-7.85603
▁lot	-7.86134
▁many	-7.86275
▁sagen	-7.86632
▁does	-7.87255
▁du	-7.88331
▁different	-7.88487
▁;	-7.89401
▁bin	-7.89469
▁Art	-7.89991
▁through	-7.90415
▁Jahren	-7.91388
▁waren	-7.91964
▁denn	-7.92326
▁why	-7.92374
▁change	-7.92671
al	-7.93503
▁alles	-7.93552
▁diesen	-7.9415
▁seine	-7.94412
▁let	-7.94816
▁down	-7.95013
▁damit	-7.95695
▁mein	-7.96019
▁gut	-7.97031
around	-7.97688
be	-7.98685
▁anderen	-7.9875
▁ver	-7.99095
▁give	-7.99141
ies	-7.99325
▁may	-7.99361
▁use	-7.99434
▁vielleicht	-7.9955
▁selbst	-7.99622
▁zur	-7.99913
l	-8.00141
▁any	-8.00202
day	-8.00989
▁show	-8.01876
▁being	-8.02542
▁same	-8.02814
▁ob	-8.03267
▁ganz	-8.03655
▁try	-8.04671
▁Jahre	-8.05634
▁geht	-8.06724
▁three	-8.06747
▁wieder	-8.06958
▁put	-8.07191
▁great	-8.0722
▁un	-8.10365
▁doing	-8.10464
▁tell	-8.10626
h	-8.11514
▁muss	-8.1259
▁einige	-8.13555
▁kleine	-8.14114
te	-8.14782
▁part	-8.14989
▁10	-8.15232
▁schon	-8.15886
▁20	-8.16089
▁day	-8.18052
▁Talk	-8.1859
▁human	-8.18633
▁möchte	-8.18825
o	-8.20526
heute	-8.20597
▁konnte	-8.20636
▁percent	-8.21198
▁ge	-8.21439
tles	-8.22207
▁Kinder	-8.22421
ranscript	-8.22458
▁Subti	-8.22899
▁after	-8.2326
▁made	-8.23275
▁find	-8.23277
▁tatsächlich	-8.23339
▁fact	-8.23747
▁Geschichte	-8.24415
▁ab	-8.24529
▁ja	-8.25205
▁A	-8.25325
▁davon	-8.25793
▁welche	-8.26597
ung	-8.2713
▁year	-8.27325
▁drei	-8.27489
▁thank	-8.27626
▁own	-8.27987
▁turn	-8.28663
▁should	-8.2869
▁genau	-8.28795
▁happen	-8.29316
▁idea	-8.29458
▁dort	-8.29725
other	-8.29728
▁Ihre	-8.30578
▁ask	-8.31222
▁könnte	-8.31623
▁last	-8.32077
▁unter	-8.32242
▁create	-8.33617
▁thought	-8.33738
▁zurück	-8.34822
▁end	-8.34951
▁hatten	-8.355
▁important	-8.35626
k	-8.35678
▁big	-8.36075
▁kein	-8.3615
▁him	-8.36317
▁darüber	-8.36566
dem	-8.37078
▁Jahr	-8.37273
ten	-8.37424
▁before	-8.37484
▁werde	-8.38571
▁course	-8.38903
▁wollen	-8.39203
▁design	-8.39228
▁paar	-8.39535
▁gehen	-8.3978
▁again	-8.39796
▁Problem	-8.40024
▁ganze	-8.40191
body	-8.40194
▁gab	-8.4109
▁problem	-8.41091
▁live	-8.41175
us	-8.41203
S	-8.4156
▁never	-8.41714
▁je	-8.41723
▁denken	-8.41947
▁point	-8.42229
▁might	-8.42339
▁meiner	-8.42465
▁still	-8.42658
▁better	-8.42779
▁help	-8.43167
▁bit	-8.43242
w	-8.43541
▁neue	-8.43763
▁love	-8.43764
▁wollte	-8.43943
▁weiter	-8.44176
▁wurden	-8.44193
▁brain	-8.44465
▁lassen	-8.44687
▁story	-8.45053
▁nie	-8.45154
▁off	-8.45182
▁...	-8.46285
▁weiß	-8.46365
▁Beispiel	-8.46369
▁sondern	-8.46429
on	-8.46479
ally	-8.4652
▁million	-8.46755
▁sort	-8.46996
▁system	-8.47098
▁next	-8.47134
▁dazu	-8.47147
▁natürlich	-8.47277
▁jeder	-8.47354
▁während	-8.47853
▁place	-8.47938
▁few	-8.48215
▁S	-8.48603
▁Teil	-8.48795
▁B	-8.48884
▁play	-8.4917
▁doch	-8.49297
▁each	-8.49411
▁able	-8.49448
▁mean	-8.4957
▁unserer	-8.49575
▁water	-8.49868
▁long	-8.5008
▁wäre	-8.50253
▁ago	-8.50305
▁vom	-8.50675
▁unser	-8.5175
▁sogar	-8.51882
▁together	-8.51918
went	-8.51943
▁zusammen	-8.52094
▁macht	-8.52624
ther	-8.52756
▁technology	-8.53089
▁große	-8.53267
▁learn	-8.53822
▁denke	-8.54431
▁kommen	-8.5446
▁kam	-8.5499
ion	-8.55122
▁came	-8.55431
▁gerade	-8.55452
▁finden	-8.56515
▁ersten	-8.56648
▁einmal	-8.56758
▁ohne	-8.57135
▁question	-8.57164
▁zwischen	-8.57417
▁gemacht	-8.57829
▁eigene	-8.58142
▁found	-8.584
▁ging	-8.58993
▁between	-8.59018
▁Tag	-8.59338
▁dafür	-8.59721
▁geben	-8.60419
▁Arbeit	-8.60643
▁Frage	-8.60698
ic	-8.60753
▁glaube	-8.6082
▁data	-8.60858
▁jede	-8.61007
▁used	-8.6108
▁kommt	-8.61133
▁example	-8.61194
▁women	-8.61297
▁believe	-8.61428
▁Wasser	-8.61572
i	-8.61673
▁okay	-8.61704
able	-8.61759
▁erste	-8.61782
▁second	-8.61828
▁Internet	-8.61878
ok	-8.62168
c	-8.62269
▁too	-8.62282
▁Frauen	-8.62757
▁become	-8.62788
▁mal	-8.63117
▁zeigen	-8.63301
ity	-8.63769
▁New	-8.63867
▁done	-8.64373
▁per	-8.64471
▁sagt	-8.64658
▁understand	-8.6516
ting	-8.65349
▁passiert	-8.65776
▁light	-8.66516
▁Prozent	-8.66679
▁30	-8.68048
▁verstehen	-8.68349
ation	-8.68351
▁meisten	-8.6849
▁Land	-8.68774
▁whole	-8.6889
▁sollte	-8.69519
▁four	-8.69543
▁50	-8.69676
▁school	-8.69938
▁daran	-8.7037
▁jemand	-8.70709
an	-8.71729
▁dabei	-8.71803
▁working	-8.71808
▁Millionen	-8.7182
▁person	-8.71991
▁besser	-8.72519
▁ever	-8.72654
▁dachte	-8.72928
▁always	-8.73368
▁building	-8.73546
▁children	-8.73636
▁nehmen	-8.73661
▁fast	-8.74191
th	-8.74199
▁E	-8.74274
▁Idee	-8.74327
▁Gehirn	-8.74525
▁power	-8.74599
▁sollten	-8.75232
▁feel	-8.75613
f	-8.75994
▁letzten	-8.76504
▁Daten	-8.76511
▁wichtig	-8.76618
▁U	-8.76623
ge	-8.76841
▁reason	-8.76887
▁könnten	-8.77281
▁Bild	-8.77283
de	-8.77639
▁everything	-8.77649
▁ziemlich	-8.77857
g	-8.7795
▁five	-8.77962
▁away	-8.78367
▁Mal	-8.78547
▁small	-8.7881
▁stellen	-8.78903
▁möglich	-8.78998
▁darauf	-8.79052
▁kids	-8.7941
▁country	-8.7969
▁basic	-8.79829
▁Weg	-8.79835
▁al	-8.80618
▁Geld	-8.80796
▁leben	-8.80868
▁number	-8.8098
▁picture	-8.81037
▁high	-8.81101
▁sprechen	-8.81239
▁G	-8.81275
▁100	-8.81435
▁experience	-8.8204
▁information	-8.82618
▁eigentlich	-8.82738
▁bekommen	-8.82749
▁Ende	-8.83244
▁ihrer	-8.8333
▁OK	-8.8344
▁home	-8.83566
▁space	-8.83955
▁old	-8.8441
▁verschiedene	-8.84753
b	-8.85605
▁arbeiten	-8.85667
▁food	-8.85855
▁money	-8.86271
91	-8.86389
▁seit	-8.86484
making	-8.86563
▁project	-8.86992
▁means	-8.87192
▁half	-8.87198
▁best	-8.87238
ld	-8.87254
le	-8.87435
▁heraus	-8.87667
▁open	-8.8768
z	-8.87686
▁meinen	-8.87798
▁moment	-8.88132
▁case	-8.88529
▁vier	-8.88728
▁interesting	-8.8876
▁left	-8.888
ie	-8.89048
▁sense	-8.89306
▁pro	-8.89311
▁future	-8.89422
93;	-8.89657
▁global	-8.89842
ever	-8.90146
▁Technologie	-8.90156
▁weniger	-8.90301
quite	-8.90466
▁15	-8.90499
▁Raum	-8.90848
▁200	-8.91381
▁China	-8.91394
▁C	-8.91481
▁hand	-8.91514
▁enough	-8.91713
▁Dollar	-8.91964
or	-8.92274
▁car	-8.92405
▁health	-8.92573
▁Information	-8.92738
▁Grund	-8.92977
▁bedeutet	-8.93023
▁probabl	-8.93081
▁move	-8.93261
▁develop	-8.93467
▁hin	-8.9348
▁hard	-8.93877
▁normal	-8.94099
▁Sache	-8.94339
▁danke	-8.94501
▁begann	-8.94653
▁stand	-8.95028
▁zeigt	-8.95106
▁ihm	-8.95126
▁energy	-8.95144
▁musste	-8.9515
▁Dank	-8.95476
▁social	-8.95489
▁large	-8.96337
ce	-8.96397
ht	-8.96789
▁richtig	-8.97071
▁less	-8.97106
▁simple	-8.9712
▁stuff	-8.97131
▁without	-8.9715
▁Oh	-8.9715
▁Mann	-8.97317
▁bringen	-8.97457
erweise	-8.97491
D	-8.97738
▁build	-8.97763
ness	-8.97782
▁science	-8.9808
▁gesehen	-8.98203
▁group	-8.98592
▁Weise	-8.98667
▁Africa	-8.98799
▁re	-8.99059
▁Möglichkeit	-8.9909
▁brauchen	-8.99482
▁bring	-8.99687
▁imagine	-8.99692
▁unseren	-8.99739
▁business	-8.99963
▁process	-9.00156
▁D	-9.00199
▁sicher	-9.00299
▁Seite	-9.00408
est	-9.00476
▁Computer	-9.00524
ork	-9.00766
▁keep	-9.0084
▁such	-9.01134
▁prett	-9.01177
▁else	-9.01441
▁jedes	-9.01495
den	-9.01586
▁room	-9.01608
sten	-9.01665
u	-9.02139
▁beide	-9.02241
▁grow	-9.02447
▁coming	-9.02505
▁lange	-9.02609
▁anything	-9.02681
schen	-9.02708
ers	-9.03094
▁sei	-9.03227
▁heiß	-9.03241
▁piece	-9.03243
▁jeden	-9.0329
▁The	-9.03333
▁student	-9.03612
▁beim	-9.03781
▁allow	-9.03917
▁versuchen	-9.04308
▁dollars	-9.04342
▁Zukunft	-9.04389
as	-9.0444
▁body	-9.04592
▁side	-9.0497
▁Frau	-9.05054
▁später	-9.0524
▁wenig	-9.05592
el	-9.05719
▁countries	-9.05759
▁line	-9.06082
▁gegen	-9.06171
one	-9.0625
▁großen	-9.06383
▁System	-9.0647
▁Körper	-9.06596
▁hätte	-9.06642
▁wer	-9.06813
▁Menge	-9.0692
▁glauben	-9.06994
▁gleich	-9.07055
▁across	-9.07148
▁face	-9.07328
▁form	-9.07497
▁once	-9.07767
▁billion	-9.07823
▁gute	-9.07998
▁lernen	-9.08106
▁bad	-9.08612
▁government	-9.08675
▁far	-9.08686
▁set	-9.08709
▁lives	-9.08771
ment	-9.08813
▁hav	-9.09159
▁close	-9.09259
▁gesagt	-9.09635
▁computer	-9.09662
▁living	-9.09698
▁later	-9.09855
▁saw	-9.10213
zu	-9.10242
▁yet	-9.10274
▁H	-9.10365
▁seem	-9.1051
▁funktioniert	-9.10677
▁test	-9.10851
▁R	-9.10924
▁Energie	-9.10988
▁weg	-9.11009
▁Person	-9.11015
▁wahrscheinlich	-9.1117
▁remember	-9.1124
▁answer	-9.11491
▁Ort	-9.11506
ern	-9.11623
▁K	-9.1163
em	-9.11788
▁particular	-9.11923
▁care	-9.11956
▁while	-9.11994
▁times	-9.12153
▁language	-9.12412
wohl	-9.12455
▁lang	-9.12826
▁Erde	-9.12935
▁fünf	-9.13021
▁mind	-9.13041
▁Kind	-9.1321
▁makes	-9.13611
▁Probleme	-9.13744
▁book	-9.13887
▁Stadt	-9.14024
▁six	-9.14281
▁nein	-9.14504
▁seiner	-9.14683
▁Ihr	-9.14845
▁schaffen	-9.14869
mals	-9.1497
to	-9.15184
▁Männer	-9.15304
▁einzige	-9.15331
▁schnell	-9.15341
▁inside	-9.15376
▁thousand	-9.15824
einander	-9.15834
▁watch	-9.15835
▁Moment	-9.16128
▁top	-9.16191
▁family	-9.16321
▁young	-9.16812
▁single	-9.16837
▁Earth	-9.17039
▁almost	-9.17039
▁happens	-9.17064
▁nichts	-9.17251
▁Fall	-9.17805
A	-9.17837
▁both	-9.1795
til	-9.17993
▁walk	-9.18112
▁b	-9.18129
▁whe	-9.18157
▁M	-9.1818
▁sure	-9.18287
▁interest	-9.18518
▁American	-9.18616
▁certain	-9.18699
▁anders	-9.1881
▁40	-9.18813
▁planet	-9.19074
▁video	-9.19212
▁level	-9.19237
▁helfen	-9.19597
▁seen	-9.1973
▁nothing	-9.19754
▁Licht	-9.19899
▁nutzen	-9.20351
▁guy	-9.20368
▁under	-9.20655
▁Buch	-9.20832
▁problems	-9.20863
▁study	-9.21243
▁men	-9.21305
▁schauen	-9.21405
▁erzählen	-9.21822
▁Mutter	-9.21889
▁hope	-9.2192
▁realize	-9.22197
▁wrong	-9.22214
▁entwickelt	-9.22466
▁matter	-9.22467
▁possible	-9.22517
▁figure	-9.22588
ready	-9.22662
▁ungefähr	-9.22758
ch	-9.22789
▁share	-9.23069
▁cancer	-9.23101
▁Natur	-9.23178
▁ra	-9.23215
der	-9.23358
▁exact	-9.23414
▁final	-9.23618
▁neuen	-9.23758
▁child	-9.23774
▁Hand	-9.23951
▁amazing	-9.23964
▁ideas	-9.24071
▁days	-9.24096
▁true	-9.24292
▁history	-9.24295
ste	-9.24363
▁Ver	-9.24474
▁run	-9.24677
▁music	-9.24777
▁DNA	-9.24987
▁saying	-9.25022
▁USA	-9.25077
▁sah	-9.25091
▁beautiful	-9.25185
▁disease	-9.25632
▁city	-9.25922
▁State	-9.25977
▁control	-9.26024
▁Bilder	-9.26031
▁self	-9.26043
▁age	-9.2608
▁genug	-9.2642
▁someone	-9.26637
▁read	-9.26643
▁ways	-9.26812
▁head	-9.26947
chmal	-9.27214
K	-9.2739
ig	-9.27404
▁nächsten	-9.2746
▁land	-9.27466
▁Lebens	-9.27528
▁Projekt	-9.27641
▁order	-9.27797
▁universe	-9.28
▁Ideen	-9.28121
lich	-9.2856
▁couple	-9.28593
rum	-9.28702
▁überall	-9.2897
▁often	-9.2898
2	-9.29153
▁market	-9.29552
▁patient	-9.29917
▁kennen	-9.29918
▁gehört	-9.29972
ver	-9.30012
▁3	-9.30013
▁klar	-9.30072
▁bauen	-9.30104
▁since	-9.30107
▁stop	-9.30361
ü	-9.30397
▁heard	-9.30461
▁erst	-9.30786
▁solche	-9.30796
▁stories	-9.31171
▁art	-9.31259
▁looked	-9.31466
ä	-9.31598
▁hoch	-9.31674
▁myself	-9.31711
▁instead	-9.32
▁Ich	-9.32023
▁Schule	-9.32087
▁public	-9.32148
B	-9.32326
▁liegt	-9.32388
▁built	-9.32512
▁Design	-9.32627
▁sometimes	-9.32728
▁Planeten	-9.32751
▁Afrika	-9.32818
▁weit	-9.32845
▁Punkt	-9.32906
▁individual	-9.32961
▁bevor	-9.33035
▁follow	-9.33324
▁community	-9.33417
▁Fähigkeit	-9.33445
▁nature	-9.33463
▁issue	-9.33571
ur	-9.33597
▁hundred	-9.33688
▁model	-9.33953
▁80	-9.34157
▁difference	-9.34184
▁words	-9.34276
▁mov	-9.34538
▁species	-9.34567
▁Augen	-9.3462
la	-9.34728
▁environment	-9.34731
▁deshalb	-9.34803
▁Unite	-9.34913
▁Erfahrung	-9.34924
▁job	-9.34948
▁education	-9.34956
▁cells	-9.34978
▁word	-9.35094
▁besonder	-9.35147
▁verändern	-9.35279
▁niemand	-9.35284
▁research	-9.35335
▁60	-9.35497
▁Form	-9.35543
p	-9.35954
ieren	-9.35973
▁force	-9.36118
▁bitte	-9.36154
▁nennen	-9.36323
▁2	-9.36353
▁months	-9.36459
▁term	-9.36582
▁entire	-9.3665
▁Antwort	-9.36732
taking	-9.36816
▁game	-9.36825
it	-9.36827
▁woman	-9.36844
▁Musik	-9.36846
▁CA	-9.37053
▁12	-9.37059
▁letzte	-9.37303
▁India	-9.37637
sch	-9.38099
5	-9.3827
▁Auto	-9.38472
▁gleiche	-9.38531
▁America	-9.38885
▁natural	-9.38893
▁spend	-9.38923
▁de	-9.38945
▁completely	-9.39175
▁braucht	-9.39253
▁reden	-9.39254
▁herum	-9.39309
▁Milliarden	-9.39684
▁Fragen	-9.39732
▁sound	-9.39737
▁name	-9.39755
▁stehen	-9.4005
▁quick	-9.40219
▁Wissenschaft	-9.40251
▁An	-9.40335
▁Kunst	-9.40341
▁alt	-9.40369
▁hören	-9.40628
▁F	-9.4069
ar	-9.40766
▁Be	-9.4078
▁Mädchen	-9.4087
▁nächste	-9.41001
land	-9.41098
▁hear	-9.41107
▁P	-9.41282
▁spielen	-9.41335
▁house	-9.41508
▁heart	-9.41738
▁25	-9.41803
▁past	-9.41848
came	-9.41864
▁decided	-9.41933
▁gar	-9.41981
▁sechs	-9.42052
▁Spiel	-9.42381
▁euch	-9.42453
▁Leuten	-9.42531
▁huge	-9.42602
▁Google	-9.42716
▁though	-9.4275
▁Lösung	-9.42879
▁yes	-9.42929
man	-9.42952
▁Geschichten	-9.431
▁night	-9.43101
▁Arten	-9.43206
▁animals	-9.43393
▁God	-9.43511
▁friends	-9.43519
▁halten	-9.43594
▁itself	-9.43749
▁darin	-9.43784
ou	-9.43966
▁bereits	-9.44036
▁soziale	-9.44044
▁L	-9.44148
▁clear	-9.44336
7	-9.44551
▁steht	-9.44821
▁leave	-9.44868
▁benutzen	-9.44999
▁Minuten	-9.45102
▁ourselves	-9.45147
▁happening	-9.45543
▁Kopf	-9.4563
▁must	-9.4565
▁plant	-9.45771
▁schwer	-9.46047
ber	-9.46366
▁Gebäude	-9.4644
▁erreichen	-9.46673
▁along	-9.46773
▁machte	-9.46814
▁pay	-9.46917
▁hätten	-9.46989
▁places	-9.47056
▁third	-9.47172
▁weitere	-9.47274
▁oben	-9.47293
▁fragen	-9.4731
▁Gesellschaft	-9.47313
▁themselves	-9.47352
▁kne	-9.47422
▁kurz	-9.47426
▁society	-9.47648
▁minutes	-9.47731
▁erkennen	-9.47824
▁dich	-9.47893
▁Ab	-9.47916
▁mother	-9.48018
▁namens	-9.48077
▁front	-9.48103
▁program	-9.48177
▁company	-9.48185
▁Familie	-9.48282
▁sieh	-9.48618
▁Freunde	-9.48677
▁Sprache	-9.48878
▁works	-9.48902
▁Gefühl	-9.48915
▁stellt	-9.48928
ability	-9.4894
▁Film	-9.48974
▁discover	-9.49119
▁free	-9.49236
▁c	-9.49256
▁unglaublich	-9.49366
▁machine	-9.49623
▁bigge	-9.49908
▁state	-9.4998
amp	-9.50041
▁object	-9.50166
ra	-9.50328
▁innerhalb	-9.50461
▁Unternehmen	-9.50494
▁Indien	-9.50507
▁focus	-9.5063
haps	-9.50789
▁buy	-9.50893
ist	-9.51163
nach	-9.51343
▁soll	-9.51388
dessen	-9.51599
▁experiment	-9.51664
up	-9.51708
▁18	-9.51793
▁paper	-9.51908
▁irgendwie	-9.52055
▁J	-9.52256
x	-9.52294
▁Vater	-9.52347
▁hours	-9.52409
▁cell	-9.52453
▁Haus	-9.52495
▁audience	-9.52508
▁Krankheit	-9.52514
▁Gruppe	-9.52527
▁teacher	-9.52602
▁questions	-9.52711
▁Z	-9.52878
▁local	-9.52934
▁cause	-9.53088
▁versucht	-9.53366
▁listen	-9.5348
▁absolute	-9.53535
▁team	-9.53571
▁learning	-9.5361
▁air	-9.53858
▁O	-9.53983
▁menschliche	-9.53984
▁guys	-9.54
▁base	-9.54145
▁gesamte	-9.54187
▁wahr	-9.54223
▁cool	-9.54328
▁statt	-9.54424
▁seven	-9.54425
▁Chris	-9.54462
▁oil	-9.5464
ter	-9.54711
▁least	-9.54719
▁early	-9.54763
ische	-9.54897
▁90	-9.54936
▁difficult	-9.5517
▁happy	-9.5517
▁color	-9.5521
▁explain	-9.55321
heit	-9.5548
▁HIV	-9.55623
▁Angst	-9.55632
▁Gott	-9.55819
▁worked	-9.55849
▁einzelne	-9.55999
▁Video	-9.56133
▁poor	-9.56244
M	-9.56312
geben	-9.56382
▁vorstellen	-9.56426
eher	-9.56436
▁daher	-9.56446
▁Hause	-9.56484
▁Roboter	-9.56599
▁structure	-9.56868
▁Macht	-9.56923
▁beginnen	-9.56991
▁yea	-9.57106
▁schön	-9.57178
▁outside	-9.57184
▁entwickeln	-9.57225
▁obvious	-9.57302
▁Wort	-9.57515
▁bewegen	-9.57824
▁interessant	-9.57858
▁neu	-9.57968
▁Entwicklung	-9.58007
▁Stunden	-9.58198
▁short	-9.5821
▁erhalten	-9.58217
▁Verbindung	-9.58261
▁view	-9.58359
▁common	-9.5854
▁amount	-9.58586
▁wonderful	-9.58858
▁full	-9.59058
4	-9.59145
ämlich	-9.59168
▁gav	-9.59392
▁death	-9.59486
▁won	-9.59516
▁na	-9.59681
▁modern	-9.60034
▁David	-9.60128
8	-9.60492
F	-9.60669
either	-9.60705
▁Vorstellung	-9.60749
▁Glück	-9.60996
▁nahm	-9.61096
▁ändern	-9.61203
▁culture	-9.61278
▁deal	-9.61349
▁act	-9.61376
less	-9.61429
▁manche	-9.61472
iert	-9.61532
▁Dr	-9.61577
zustellen	-9.61609
▁damals	-9.6167
ive	-9.61776
▁fest	-9.61826
▁fragte	-9.61863
▁powerful	-9.61881
▁sage	-9.6203
▁scale	-9.6217
▁Eltern	-9.62176
chen	-9.62224
▁produce	-9.6226
▁Regierung	-9.62397
ja	-9.62411
▁verändert	-9.62454
▁behind	-9.62479
▁drive	-9.6248
▁Patienten	-9.62547
▁pattern	-9.62702
ro	-9.62718
▁fish	-9.62741
keit	-9.62801
▁during	-9.62846
3	-9.62914
▁verwenden	-9.62926
▁Sachen	-9.63053
▁online	-9.63096
▁image	-9.63198
▁systems	-9.63222
lt	-9.63268
▁area	-9.63285
▁exist	-9.63376
nimmt	-9.63413
▁pick	-9.63414
▁send	-9.63416
P	-9.63495
▁menschlichen	-9.63593
▁personal	-9.63641
▁falsch	-9.63797
▁black	-9.63822
▁cost	-9.63838
mal	-9.6386
▁aller	-9.63985
▁middle	-9.63988
▁einigen	-9.64106
▁Luft	-9.64139
▁Lehrer	-9.64154
▁Stück	-9.64364
▁century	-9.64466
▁wait	-9.64649
▁eight	-9.64672
▁Universum	-9.64895
▁riesige	-9.64968
▁beginning	-9.65001
▁support	-9.65313
▁news	-9.65334
▁besten	-9.65368
gehen	-9.65455
▁z	-9.65541
▁hinter	-9.65561
▁population	-9.65658
▁fand	-9.65662
▁Beziehung	-9.65674
▁Sinn	-9.65748
▁dar	-9.65807
▁Kindern	-9.65926
▁überhaupt	-9.66324
▁rest	-9.66372
▁groß	-9.66452
▁economic	-9.66497
▁Al	-9.66583
C	-9.66722
is	-9.66879
▁getan	-9.66923
gen	-9.67042
▁began	-9.67146
R	-9.67195
▁notice	-9.67227
▁ocean	-9.67244
▁führen	-9.67308
▁easy	-9.67505
▁oft	-9.67507
age	-9.67559
▁eyes	-9.67632
▁Länder	-9.6764
gerne	-9.67683
▁shows	-9.67708
▁perfect	-9.67847
▁total	-9.67865
so	-9.67885
▁size	-9.6806
▁extreme	-9.68158
▁Ziel	-9.68206
▁Ein	-9.68259
▁friend	-9.68328
doch	-9.68389
▁feeling	-9.68516
year	-9.68585
isch	-9.68783
▁dir	-9.68842
▁choice	-9.68879
▁doctor	-9.68879
▁begin	-9.68925
ous	-9.68958
▁zwa	-9.68967
▁70	-9.69039
▁Re	-9.69092
9	-9.69111
▁physical	-9.69225
▁Wirtschaft	-9.6928
▁lots	-9.69346
▁eat	-9.69584
ance	-9.69743
▁Lage	-9.69856
▁yourself	-9.69984
▁1	-9.70317
▁Krebs	-9.7037
▁hands	-9.70452
▁media	-9.70523
▁tut	-9.70535
old	-9.70571
▁treffen	-9.70721
out	-9.70776
▁present	-9.70804
▁führt	-9.7083
▁Publikum	-9.71
▁deine	-9.71015
▁liebe	-9.71147
▁wohl	-9.71181
▁rate	-9.71217
▁value	-9.71298
▁Tiere	-9.71337
▁John	-9.71496
▁Well	-9.71498
▁father	-9.71508
▁g	-9.71511
▁taken	-9.7158
gebracht	-9.71692
▁Herausforderung	-9.71861
▁Anfang	-9.71865
▁film	-9.7195
▁add	-9.7195
erst	-9.72457
▁green	-9.72477
▁major	-9.72589
▁11	-9.72752
▁völlig	-9.72756
fangen	-9.72812
▁Hilfe	-9.73116
against	-9.7319
▁Wissenschaftler	-9.73304
▁behavior	-9.73532
▁acht	-9.73798
▁befinde	-9.7382
▁center	-9.73893
▁falls	-9.73952
her	-9.73969
▁direkt	-9.73973
▁auszu	-9.74006
▁companies	-9.74022
▁surface	-9.74022
▁stay	-9.74024
▁week	-9.74038
▁save	-9.74044
felt	-9.74076
▁near	-9.74208
▁mag	-9.74221
▁allem	-9.74252
▁treat	-9.74376
▁Liebe	-9.7457
ant	-9.7465
▁Regel	-9.74772
N	-9.74778
li	-9.74803
▁zweite	-9.74833
▁lässt	-9.74899
▁complex	-9.74918
▁fühlen	-9.74951
▁movement	-9.74961
▁parents	-9.75012
▁safe	-9.75152
▁Kultur	-9.75199
▁longer	-9.75331
▁W	-9.75378
▁seeing	-9.75383
▁reach	-9.75472
▁World	-9.75488
▁genauso	-9.75519
▁blue	-9.75532
▁slow	-9.75677
▁anzu	-9.75716
▁heut	-9.75955
ha	-9.76016
schließlich	-9.76045
ry	-9.76086
▁jene	-9.76156
▁digital	-9.76194
▁Essen	-9.76224
▁bereit	-9.76266
▁access	-9.76278
▁p	-9.76445
▁phone	-9.76449
▁Situation	-9.76459
▁simpl	-9.76461
▁glücklich	-9.76614
▁bringt	-9.76692
▁Unterschied	-9.76973
▁resource	-9.7698
▁Gemeinschaft	-9.77045
E	-9.7707
▁unten	-9.77121
ol	-9.77121
▁sudden	-9.77164
▁cities	-9.77168
▁political	-9.77227
▁speak	-9.77455
▁stage	-9.77518
▁tried	-9.77609
▁betrachten	-9.78014
▁Bewegung	-9.78063
▁ent	-9.78072
▁erinnern	-9.78108
▁Selbst	-9.78277
▁plötzlich	-9.78488
▁challenge	-9.78576
▁red	-9.7861
▁anderer	-9.78622
▁canno	-9.7868
▁artist	-9.78709
▁wusste	-9.78761
ta	-9.78763
▁d	-9.79033
▁ground	-9.7913
▁record	-9.79182
where	-9.79195
▁eben	-9.79274
▁positive	-9.79366
▁Vortrag	-9.79417
credible	-9.79444
aught	-9.79665
▁low	-9.79812
▁Grunde	-9.79819
▁Reihe	-9.79829
▁los	-9.79936
▁step	-9.80057
▁junge	-9.8013
▁toward	-9.80199
▁wonder	-9.80225
▁condition	-9.80259
▁recht	-9.80317
▁Gedanken	-9.80343
▁reality	-9.80367
▁spen	-9.80562
ischen	-9.80832
▁organization	-9.80835
ab	-9.80844
▁nice	-9.80865
▁Verhalten	-9.8092
▁Tage	-9.81046
▁Typ	-9.81048
▁Richtung	-9.81189
▁write	-9.8121
▁hold	-9.81244
ri	-9.81269
00	-9.81345
▁expect	-9.81563
▁feet	-9.81822
▁animal	-9.81959
▁result	-9.82016
▁Thema	-9.8207
▁opportunity	-9.8217
▁cut	-9.82184
▁alte	-9.8236
▁girl	-9.82392
▁worden	-9.82405
▁lead	-9.82513
▁travel	-9.82566
▁service	-9.82629
▁growth	-9.82641
▁schreiben	-9.82729
▁größte	-9.8274
▁lösen	-9.82743
▁sieben	-9.82782
▁bestimmte	-9.82844
▁product	-9.82936
wegen	-9.82943
▁unterschiedlich	-9.82961
▁Markt	-9.82997
▁bekannt	-9.83073
▁sollen	-9.83313
▁einfache	-9.83419
▁Vor	-9.83889
▁N	-9.83947
▁field	-9.84076
▁humans	-9.8411
H	-9.84111
▁teilen	-9.84148
▁solve	-9.84158
▁South	-9.84163
▁Wochen	-9.84345
▁fight	-9.84352
▁Boden	-9.84375
▁14	-9.84401
bar	-9.84441
▁wären	-9.84661
ir	-9.84726
▁lost	-9.84919
▁Staaten	-9.84931
▁Du	-9.84959
▁English	-9.84973
▁shape	-9.84987
▁bleiben	-9.85001
▁weeks	-9.85013
ö	-9.85134
▁innovation	-9.85177
6	-9.85343
▁bestimmt	-9.8536
▁schwierig	-9.85549
▁Woche	-9.85561
▁attention	-9.85584
▁economy	-9.85584
ik	-9.85603
▁voice	-9.85686
ß	-9.85709
▁impact	-9.85789
▁So	-9.85956
▁bottom	-9.86016
mit	-9.86088
gone	-9.86116
▁besteht	-9.86229
ia	-9.86244
▁Tages	-9.86249
▁zweiten	-9.86367
▁Prozess	-9.86533
▁pass	-9.86629
at	-9.86646
▁Umwelt	-9.86696
▁suchen	-9.86822
▁Krieg	-9.86864
▁anyone	-9.86898
T	-9.86914
▁fun	-9.86917
▁Chinese	-9.87232
▁5	-9.87263
▁Modell	-9.87278
▁schlecht	-9.87296
▁bewusst	-9.87323
▁stellte	-9.87425
▁Gesundheit	-9.87431
▁approach	-9.87507
▁stark	-9.87588
▁action	-9.87634
▁memor	-9.87645
▁Mensch	-9.87671
▁Monate	-9.87742
▁pull	-9.87871
▁16	-9.87889
▁Jahrhundert	-9.87898
tage	-9.88027
▁größer	-9.88284
▁Mars	-9.88286
▁climate	-9.88296
▁material	-9.88308
▁hohe	-9.88329
▁zuvor	-9.88473
▁sitt	-9.8864
▁general	-9.88821
▁Namen	-9.88827
▁needs	-9.88876
setzen	-9.88914
zeit	-9.88935
▁Wissen	-9.89067
▁increase	-9.89119
▁average	-9.89119
▁knowledge	-9.89119
giving	-9.89121
▁weltweit	-9.89129
▁Muster	-9.89149
▁schrieb	-9.89246
▁San	-9.89287
▁risk	-9.89423
▁erzählt	-9.89544
▁dark	-9.89607
▁map	-9.89662
▁key	-9.8972
▁fly	-9.89843
▁forward	-9.89855
▁areas	-9.89885
▁benutzt	-9.89938
▁Labor	-9.89939
▁verbunden	-9.89969
▁Meinung	-9.89978
▁gefunden	-9.90305
▁klein	-9.90338
▁connect	-9.90357
▁born	-9.90393
▁fair	-9.90398
▁fall	-9.90458
▁deep	-9.90543
▁sea	-9.90548
▁fundamental	-9.90619
▁similar	-9.90637
▁lesen	-9.90663
▁books	-9.908
▁Haupt	-9.90827
▁Amerika	-9.90859
▁theory	-9.90956
▁technologies	-9.91049
▁gern	-9.91074
▁images	-9.91218
▁measure	-9.9123
▁Umgebung	-9.91258
▁genannt	-9.91259
▁white	-9.91291
▁Freund	-9.91386
▁amerikanische	-9.91418
▁camera	-9.91514
▁potential	-9.91522
▁bessere	-9.91654
durch	-9.91664
▁Ländern	-9.91742
▁scientists	-9.91832
ler	-9.91866
▁consider	-9.91914
ma	-9.91947
▁gelernt	-9.91981
▁hit	-9.92035
▁darau	-9.92089
,000	-9.92179
▁größten	-9.92203
▁What	-9.92349
▁Nacht	-9.92424
▁Schritt	-9.92515
▁We	-9.92548
▁Wahrheit	-9.92564
▁essential	-9.92565
▁Innovation	-9.9259
▁raise	-9.92795
▁runn	-9.9291
▁cover	-9.93005
▁Wert	-9.93048
▁sterben	-9.93106
▁continue	-9.93129
▁arm	-9.93226
▁17	-9.93251
▁neben	-9.93446
▁Revolution	-9.93512
▁Herz	-9.93653
il	-9.93705
▁zehn	-9.93977
▁strong	-9.94009
▁verwendet	-9.94243
raußen	-9.94332
ily	-9.94408
▁understanding	-9.94479
▁somebod	-9.94497
▁network	-9.94663
▁beginn	-9.94757
▁wrote	-9.94779
▁Medien	-9.94779
▁scheint	-9.9478
▁Er	-9.94793
▁Zellen	-9.94823
ate	-9.94855
▁movie	-9.94867
▁Tier	-9.94898
▁4	-9.94977
ul	-9.94989
▁London	-9.95011
▁erschaffen	-9.9505
ne	-9.95071
▁National	-9.95114
▁sit	-9.95152
▁fear	-9.95192
▁literally	-9.95247
L	-9.9525
▁train	-9.95426
▁Bedeutung	-9.95453
▁morning	-9.95453
▁national	-9.95655
▁Technik	-9.95669
▁Autos	-9.95698
▁Organisation	-9.9572
▁tools	-9.95761
▁break	-9.95885
▁egal	-9.95905
▁hast	-9.95955
▁village	-9.96132
▁chance	-9.96178
ian	-9.96197
▁gemeinsam	-9.96307
▁großartige	-9.96384
▁guess	-9.96587
▁Hände	-9.966
▁Forschung	-9.96601
▁late	-9.96673
▁source	-9.9669
▁No	-9.96743
▁creating	-9.96815
▁funktionieren	-9.96909
▁erklären	-9.96926
▁miles	-9.96936
▁Erfolg	-9.96958
▁West	-9.96969
▁international	-9.96997
▁leicht	-9.97
▁numbers	-9.97009
▁Kraft	-9.97022
▁gebaut	-9.97126
▁passier	-9.97295
halten	-9.97308
▁Team	-9.97342
▁meet	-9.97345
com	-9.97374
▁Bildung	-9.97409
au	-9.97458
▁ca	-9.97596
▁gewesen	-9.97741
▁kid	-9.97776
▁met	-9.97791
▁aufzu	-9.9792
selbe	-9.97988
▁blood	-9.97996
▁frei	-9.9805
▁CO	-9.98098
▁De	-9.98235
kaufen	-9.98251
▁sehe	-9.98296
▁richtige	-9.98406
▁gas	-9.98552
▁Aus	-9.98581
▁entfernt	-9.98659
1	-9.98665
▁solution	-9.98883
▁protect	-9.98892
▁500	-9.98898
G	-9.98905
▁activit	-9.99091
▁Un	-9.99172
id	-9.99318
▁Familien	-9.99327
▁Foto	-9.99335
▁kleiner	-9.99348
▁current	-9.99361
▁mache	-9.99479
▁War	-9.9951
son	-9.99553
▁Bücher	-9.99618
▁geworden	-9.99854
ism	-9.99861
ungen	-9.9989
self	-9.99955
▁möchten	-9.9996
▁page	-9.9999
hand	-10.0007
▁main	-10.0008
▁solar	-10.0016
▁Technologien	-10.0019
▁hospital	-10.003
▁among	-10.0033
▁stimmt	-10.0035
▁Tatsache	-10.0041
▁Europe	-10.0052
nstatt	-10.0061
ought	-10.0065
▁fire	-10.007
▁recently	-10.0071
▁essen	-10.0074
co	-10.0076
▁soon	-10.008
▁politische	-10.0087
jährige	-10.0102
▁wish	-10.0102
pecial	-10.0102
▁relationship	-10.0106
am	-10.0107
▁fanden	-10.0109
▁provide	-10.0117
ier	-10.0124
▁Afghanistan	-10.0126
▁Anzahl	-10.0127
▁Studenten	-10.013
▁telling	-10.0131
▁Zahl	-10.0145
▁erreicht	-10.0155
▁13	-10.0161
▁Gründe	-10.0162
▁einzu	-10.0167
▁sell	-10.0169
▁ähnlich	-10.0177
▁Stimme	-10.0191
▁private	-10.0195
ton	-10.0199
▁Mo	-10.0215
▁lab	-10.0224
▁truth	-10.0226
ut	-10.0231
▁Mittel	-10.0238
▁eye	-10.0238
▁office	-10.0255
▁Reise	-10.0263
▁ice	-10.0273
▁track	-10.0286
▁special	-10.0295
go	-10.0297
▁specific	-10.0302
▁situation	-10.0313
▁gezeigt	-10.0322
ful	-10.0331
▁non	-10.0342
▁öffentliche	-10.0356
▁Bevölkerung	-10.0361
▁blind	-10.0361
ling	-10.0361
▁sun	-10.0372
cy	-10.0372
▁bekommt	-10.0383
▁represent	-10.039
▁smart	-10.039
▁verloren	-10.0391
incredibly	-10.0392
▁robot	-10.0392
▁Aufgabe	-10.041
▁Web	-10.0418
▁tat	-10.0419
▁rich	-10.0437
▁Rest	-10.044
▁success	-10.0441
▁Sch	-10.0443
▁Material	-10.0444
▁generation	-10.045
▁Größe	-10.0457
▁alone	-10.047
▁touch	-10.0478
available	-10.0478
.000	-10.048
▁Rolle	-10.0481
▁Platz	-10.0484
▁street	-10.0489
▁findet	-10.0509
▁Gewalt	-10.0511
▁300	-10.0515
▁dead	-10.0538
▁früher	-10.0541
▁teach	-10.0543
▁easi	-10.0544
un	-10.0545
▁mass	-10.0558
▁offensichtlich	-10.0572
▁vision	-10.0572
▁table	-10.0574
▁effective	-10.0577
▁Teile	-10.0579
▁development	-10.0581
▁type	-10.0589
▁gegenüber	-10.0591
▁aussehen	-10.0612
▁known	-10.0614
▁allein	-10.0622
▁Veränderung	-10.0627
tiny	-10.0634
▁guten	-10.0636
how	-10.0644
▁worth	-10.0655
▁sign	-10.0655
▁Papier	-10.0659
▁suggest	-10.0664
▁industry	-10.0666
▁Sicherheit	-10.0674
▁kurze	-10.0682
▁komplett	-10.0686
▁attack	-10.0691
the	-10.0697
▁please	-10.0719
▁post	-10.0721
▁African	-10.0726
▁links	-10.0735
▁beste	-10.0738
▁box	-10.0762
▁several	-10.0767
▁search	-10.0767
▁Ja	-10.0768
▁writing	-10.0776
▁direct	-10.0789
O	-10.0791
▁message	-10.0792
▁beyond	-10.0792
▁Universität	-10.0801
▁changing	-10.0803
▁massive	-10.0814
▁cars	-10.0815
▁absolut	-10.0816
▁Hälfte	-10.0818
▁evidence	-10.0818
▁Europa	-10.0818
▁law	-10.0828
spricht	-10.0833
▁nine	-10.0848
▁sonst	-10.0848
W	-10.0856
ized	-10.0859
▁push	-10.087
▁evolution	-10.0871
▁usual	-10.0873
▁Generation	-10.0889
ko	-10.0892
▁Tod	-10.0899
▁Hoffnung	-10.0921
▁effect	-10.0921
▁Tat	-10.0925
▁vorher	-10.094
▁Mitgefühl	-10.0947
▁scientific	-10.0947
ft	-10.0959
▁Ge	-10.096
▁affect	-10.0964
▁asking	-10.0971
▁interessiert	-10.0978
▁Man	-10.0986
▁Wahl	-10.0988
▁versuchte	-10.1002
▁draw	-10.1004
▁Fehler	-10.1029
▁br	-10.1034
▁involve	-10.104
▁arbeitete	-10.104
▁größere	-10.105
▁Experiment	-10.1058
▁rules	-10.1062
▁bist	-10.1072
▁bekam	-10.1073
▁medical	-10.1077
▁zeige	-10.1079
führen	-10.1087
▁City	-10.1091
▁setzen	-10.1091
▁putting	-10.1093
iv	-10.1094
▁Eis	-10.1103
▁sofort	-10.1103
tra	-10.1103
▁f	-10.1112
ka	-10.1113
▁Facebook	-10.113
▁Realität	-10.113
▁Künstler	-10.1139
▁link	-10.1141
▁nenn	-10.1142
▁Bereich	-10.1152
▁Straße	-10.1155
▁Richard	-10.1157
▁V	-10.1157
▁24	-10.1162
time	-10.1162
▁wichtige	-10.1165
▁period	-10.1168
▁ziehen	-10.1179
deed	-10.1181
▁hoffe	-10.1183
▁Blick	-10.1183
hin	-10.1191
bei	-10.12
▁revolution	-10.1218
▁traf	-10.1218
▁Theorie	-10.122
▁Ding	-10.1221
stellen	-10.1224
▁Mitte	-10.1231
▁arbeitet	-10.1238
▁software	-10.1242
▁hinein	-10.1243
pe	-10.1259
▁21	-10.1262
▁compassion	-10.1263
▁forest	-10.1267
▁Maschine	-10.1274
▁practice	-10.1275
▁position	-10.1282
head	-10.1282
▁brachte	-10.1283
▁199	-10.1288
▁describe	-10.129
▁Straßen	-10.1294
▁region	-10.1315
▁baby	-10.1316
▁Schüler	-10.132
▁function	-10.1324
▁St	-10.1329
▁computers	-10.1342
▁conversation	-10.1344
▁gleichzeitig	-10.1344
▁Städte	-10.1348
▁schneller	-10.1349
▁langsam	-10.1354
▁Preis	-10.1374
▁trust	-10.1379
▁invent	-10.1381
▁laufen	-10.1389
▁fing	-10.139
▁gre	-10.1402
▁fahren	-10.1408
▁device	-10.1412
▁Gebiet	-10.1413
▁wind	-10.1416
▁month	-10.1424
▁connection	-10.1427
▁list	-10.1433
▁price	-10.1433
▁finding	-10.1442
▁19	-10.1447
▁wall	-10.1451
▁degree	-10.1458
▁Kosten	-10.1458
▁visual	-10.1459
▁ständig	-10.1473
▁carbon	-10.1476
▁tend	-10.1479
▁AIDS	-10.148
op	-10.1503
ti	-10.1504
▁creative	-10.1507
▁nation	-10.1524
▁role	-10.1535
▁Auf	-10.1538
▁sch	-10.1544
▁super	-10.1546
▁Entscheidungen	-10.1559
▁subject	-10.1561
▁Ebene	-10.1565
▁recognize	-10.1565
▁hole	-10.1574
▁geschieht	-10.159
▁favorite	-10.159
▁further	-10.159
I	-10.159
and	-10.159
▁raus	-10.1593
▁speed	-10.1603
▁geboren	-10.1604
▁Versuch	-10.1612
▁genommen	-10.1625
▁Studie	-10.1633
▁länger	-10.1636
▁store	-10.1637
tic	-10.164
▁Vereinigte	-10.1645
ger	-10.1668
▁Evolution	-10.1674
▁wann	-10.1674
▁übrigen	-10.168
▁gegeben	-10.1689
▁response	-10.1701
▁selbe	-10.1716
▁lose	-10.1717
▁journey	-10.1729
▁Demokratie	-10.173
▁benefit	-10.1732
▁boy	-10.1738
▁Nachrichten	-10.1749
▁La	-10.1755
▁song	-10.1759
▁Gesicht	-10.1766
▁Hey	-10.1778
▁hinaus	-10.178
▁molecule	-10.1785
▁equal	-10.1791
▁meaning	-10.1811
▁bewegt	-10.1819
▁Firma	-10.1819
tion	-10.1828
▁collect	-10.1835
ary	-10.1836
▁North	-10.1841
▁block	-10.1841
▁Struktur	-10.1843
▁Japan	-10.1846
los	-10.1852
▁kill	-10.1853
▁Zahlen	-10.1862
bringen	-10.1863
▁concept	-10.1868
▁extraordinar	-10.187
aus	-10.1879
▁dream	-10.188
▁wichtiger	-10.1886
▁liegen	-10.1914
▁sounds	-10.1916
▁Karte	-10.1922
▁hab	-10.1925
▁anyway	-10.1931
ci	-10.1938
▁fliegen	-10.1939
▁institution	-10.194
▁TV	-10.1942
▁Sonne	-10.1949
rought	-10.1953
▁Ergebnis	-10.1955
▁spread	-10.1976
▁wichtigste	-10.1983
▁University	-10.1985
▁Auswirkung	-10.1985
▁girls	-10.1985
▁treatment	-10.1986
▁skin	-10.1991
▁materials	-10.1993
▁games	-10.2
more	-10.201
ige	-10.2012
▁000	-10.2014
▁mehrere	-10.2022
▁require	-10.2029
▁großartig	-10.203
▁screen	-10.2031
▁6	-10.2036
▁bald	-10.2037
▁Aufmerksamkeit	-10.2042
▁herauszufinden	-10.2042
▁successful	-10.2043
▁transform	-10.2051
▁count	-10.2051
▁Bau	-10.2054
▁geschrieben	-10.2062
▁predict	-10.2066
▁road	-10.2068
▁Oberfläche	-10.2075
igen	-10.2075
und	-10.2106
▁Alter	-10.2115
▁Pflanzen	-10.2125
ien	-10.2128
▁adult	-10.213
▁character	-10.2131
▁Job	-10.2137
bald	-10.2142
▁außer	-10.2157
▁vergessen	-10.2168
weise	-10.2176
▁globale	-10.2178
art	-10.218
▁throw	-10.2188
▁US	-10.219
▁medicine	-10.2191
▁carry	-10.2191
▁ho	-10.2194
▁onto	-10.2195
▁rein	-10.2196
▁gesprochen	-10.2203
▁quality	-10.221
▁trotzde	-10.2211
▁pre	-10.2215
▁198	-10.2215
▁necessar	-10.2218
▁Produkt	-10.2219
▁Bill	-10.2219
▁tragen	-10.2231
▁El	-10.2232
▁violence	-10.2247
▁Kontrolle	-10.2249
▁außerdem	-10.2249
▁class	-10.2249
▁everywhere	-10.2255
▁traditional	-10.2271
system	-10.2289
▁tru	-10.2301
▁zumindest	-10.2306
▁lieben	-10.2307
▁happiness	-10.231
by	-10.2313
▁ones	-10.2313
▁Gruppen	-10.2314
▁Ozean	-10.2322
▁lebt	-10.2335
▁wild	-10.2348
▁sprach	-10.2367
▁version	-10.2396
▁context	-10.2396
▁Einfluss	-10.2396
▁sex	-10.2397
▁security	-10.2404
▁join	-10.2404
▁k	-10.2414
▁remain	-10.2426
ende	-10.243
▁plan	-10.2431
▁democracy	-10.2433
kt	-10.2439
he	-10.245
bo	-10.2459
▁Ergebnisse	-10.2459
▁direction	-10.246
▁offen	-10.2463
▁finde	-10.2466
▁Konzept	-10.2475
▁großer	-10.2475
▁führte	-10.2485
▁leaders	-10.2492
▁flow	-10.2495
▁Gemeinde	-10.2499
▁toll	-10.2502
▁Ma	-10.2505
▁Orte	-10.2506
▁eventually	-10.2516
▁exciting	-10.2516
▁led	-10.2517
▁nuclear	-10.2517
rry	-10.2523
▁foot	-10.2528
▁näher	-10.2542
▁moral	-10.255
▁gearbeitet	-10.2562
▁neues	-10.2566
ei	-10.2569
▁Schulen	-10.2592
▁Paul	-10.2597
▁Meter	-10.26
▁Menschheit	-10.2609
▁machten	-10.2612
▁verlassen	-10.2618
▁hour	-10.2626
▁offer	-10.2634
ac	-10.2635
▁Behandlung	-10.2639
ismus	-10.2641
▁beobachten	-10.2646
▁diejenige	-10.2655
▁etc	-10.2656
▁trees	-10.2657
▁Medizin	-10.2658
os	-10.2661
▁Programm	-10.2669
▁appear	-10.2669
▁Region	-10.267
▁trial	-10.267
▁mine	-10.2671
▁Objekt	-10.2673
▁Entscheidung	-10.2673
▁dein	-10.2675
▁finish	-10.2678
ize	-10.2683
▁fail	-10.2684
▁wussten	-10.2687
▁perspective	-10.27
▁schools	-10.2701
▁results	-10.2701
▁Ha	-10.2702
▁passierte	-10.2703
▁wachsen	-10.2708
denkt	-10.2709
▁unseres	-10.2722
▁mental	-10.2739
bi	-10.2754
▁depend	-10.276
▁fund	-10.2761
▁Reaktion	-10.2762
▁earlie	-10.2764
geht	-10.2772
▁shift	-10.2775
▁extra	-10.278
▁fit	-10.279
▁publish	-10.2791
▁echte	-10.2797
▁Strom	-10.2808
▁door	-10.2822
▁poverty	-10.2825
▁sitzen	-10.2826
▁unglaubliche	-10.2826
▁Wh	-10.2839
▁drug	-10.2849
uch	-10.2852
▁content	-10.2856
▁card	-10.2866
▁secret	-10.2868
ziehen	-10.2871
▁spielt	-10.2873
▁Monat	-10.2881
▁2000	-10.2893
▁waste	-10.2911
▁früh	-10.2913
ap	-10.292
▁tool	-10.292
▁standard	-10.2927
▁e	-10.293
▁photograph	-10.293
▁impossibl	-10.2951
per	-10.2953
▁voll	-10.2954
▁Software	-10.296
▁jobs	-10.298
▁square	-10.2992
stand	-10.2993
▁critical	-10.2994
▁Mr	-10.2996
▁Grenzen	-10.3014
▁crazy	-10.3014
▁Eigenschaft	-10.3015
▁fine	-10.3017
▁Dorf	-10.3018
falls	-10.303
▁sahen	-10.3045
▁Twitter	-10.3046
▁return	-10.3046
▁lesson	-10.3054
▁supposed	-10.3061
ine	-10.3064
rzte	-10.3071
▁Washington	-10.3078
▁possibilit	-10.3078
▁worse	-10.3078
▁Fälle	-10.3079
▁verbesser	-10.308
▁Gegen	-10.3082
▁Ka	-10.3087
▁Seiten	-10.3087
▁Iran	-10.3115
▁Sicht	-10.3116
▁connected	-10.3119
▁strange	-10.3128
wissenschaftlich	-10.314
satz	-10.3141
▁Politik	-10.3141
▁immediate	-10.3143
▁Erinnerung	-10.3143
▁Spaß	-10.3143
▁clean	-10.3148
▁bleibt	-10.315
ho	-10.3151
ated	-10.3155
▁erlaubt	-10.3156
▁400	-10.3167
▁wear	-10.317
▁35	-10.317
▁account	-10.3174
▁architecture	-10.3175
▁higher	-10.3185
▁Blut	-10.3193
me	-10.3202
▁plastic	-10.3206
▁Zugang	-10.3208
▁series	-10.3208
▁fertig	-10.3208
▁rise	-10.3209
▁Museum	-10.3212
▁Amerikaner	-10.3223
▁East	-10.3225
▁examples	-10.3228
▁Stelle	-10.3234
▁unmöglich	-10.3241
▁interessante	-10.3247
▁code	-10.3252
▁dieselbe	-10.3256
▁warm	-10.326
▁interact	-10.327
▁Beispiele	-10.3273
▁Sohn	-10.3273
▁hörte	-10.3277
▁Uhr	-10.3279
▁Gene	-10.328
▁check	-10.3281
▁He	-10.3283
▁ready	-10.3284
▁sub	-10.3291
▁enjoy	-10.3306
▁verlieren	-10.3312
▁Wind	-10.3312
▁fuel	-10.3315
▁named	-10.3328
▁anschaue	-10.3331
▁Monaten	-10.3336
▁Mathematik	-10.3338
▁launch	-10.3338
▁bacteria	-10.3342
▁aufgrund	-10.3348
▁abzu	-10.3348
▁letter	-10.3357
▁hielt	-10.3358
ood	-10.3362
▁Büro	-10.3371
▁bilden	-10.3373
▁emotional	-10.3375
▁original	-10.3377
▁deliver	-10.3378
▁stick	-10.3381
ish	-10.3383
▁includ	-10.3383
▁schaut	-10.3385
▁Gerät	-10.3402
▁George	-10.3404
▁Englisch	-10.3405
▁choose	-10.3405
▁communit	-10.3412
▁Zeug	-10.342
▁Bo	-10.3422
▁win	-10.3432
▁betrachtet	-10.3433
▁unfortunate	-10.3438
▁England	-10.3438
▁task	-10.3438
▁serious	-10.3439
▁minute	-10.3442
▁Sa	-10.3444
▁hot	-10.345
ah	-10.3457
▁kau	-10.3458
▁goal	-10.3459
ak	-10.3462
▁Studien	-10.3465
▁hilf	-10.3469
▁Vergangenheit	-10.3471
▁James	-10.3471
▁negative	-10.3472
▁schöne	-10.3473
▁Spezies	-10.3483
▁faster	-10.3487
▁Arm	-10.3491
habt	-10.3492
▁voller	-10.3492
▁larger	-10.3495
▁schlechte	-10.3501
ierte	-10.3504
▁irgendwo	-10.3505
▁co	-10.3516
▁dritte	-10.3534
na	-10.3537
▁Wirklichkeit	-10.3538
▁principle	-10.3538
▁aussieh	-10.3538
▁models	-10.354
▁Sinne	-10.3543
▁relative	-10.3544
▁8	-10.3545
▁vorbei	-10.3546
▁Flugzeug	-10.3547
▁cap	-10.355
sitzt	-10.3551
▁manage	-10.3556
ley	-10.3566
▁crisis	-10.3572
▁ehrlich	-10.3572
▁Armut	-10.3572
▁Finger	-10.3572
▁enter	-10.3576
▁sent	-10.3576
▁150	-10.36
▁Schul	-10.36
▁studies	-10.3601
▁explore	-10.3603
▁ultimate	-10.3606
▁wife	-10.3606
▁site	-10.3614
▁urban	-10.3615
▁tree	-10.363
▁colleague	-10.3639
▁complicated	-10.3639
▁above	-10.364
▁produzieren	-10.364
▁drugs	-10.3647
▁leider	-10.3647
▁sleep	-10.3652
▁Sh	-10.3659
▁Tür	-10.3662
ierung	-10.3666
▁9	-10.367
▁products	-10.3673
▁Bakterien	-10.3673
▁electricity	-10.3675
welt	-10.3678
▁peace	-10.3679
▁gewinnen	-10.3679
▁tolle	-10.3683
▁interview	-10.369
▁shot	-10.3694
▁bunch	-10.3708
▁MIT	-10.3708
▁nachzudenken	-10.3708
ad	-10.3725
di	-10.3738
▁none	-10.3742
▁writ	-10.3745
way	-10.3746
kept	-10.375
▁extrem	-10.3751
▁Nachricht	-10.3756
▁Dan	-10.376
▁college	-10.3776
▁fill	-10.3776
▁argument	-10.3779
▁Personen	-10.3781
po	-10.3787
▁lower	-10.3807
▁medizinische	-10.3808
▁except	-10.3809
▁versuche	-10.3809
▁male	-10.3809
▁fantastic	-10.3811
▁famous	-10.3817
▁neurons	-10.3818
▁decision	-10.383
▁Gen	-10.3843
▁expert	-10.3845
▁Morgen	-10.3845
▁concern	-10.3846
▁board	-10.3848
▁Firmen	-10.3849
▁reading	-10.385
though	-10.3851
ke	-10.3854
▁Orten	-10.3868
▁Das	-10.387
▁entscheiden	-10.3871
▁invest	-10.3874
▁communication	-10.388
▁afford	-10.389
pa	-10.3892
▁pain	-10.3895
▁lag	-10.3905
▁genetic	-10.3908
▁Kamera	-10.3911
▁tief	-10.3912
▁Bürger	-10.3913
▁Leistung	-10.3915
▁website	-10.3915
refore	-10.3916
▁ebenso	-10.3917
▁nenne	-10.3924
▁police	-10.3925
▁erzeugen	-10.3931
▁folgen	-10.3933
▁complete	-10.3934
▁visit	-10.3942
▁Designer	-10.3946
▁legal	-10.3946
lassen	-10.3947
▁Bäume	-10.395
▁families	-10.395
▁ermöglicht	-10.3962
▁Sex	-10.3963
lo	-10.3964
▁echt	-10.3978
▁zero	-10.3985
▁Architektur	-10.3989
▁Times	-10.3989
do	-10.3992
ster	-10.3992
▁performance	-10.3992
▁o	-10.4005
tro	-10.4008
▁increasing	-10.402
▁Einstein	-10.402
▁rund	-10.4033
▁wave	-10.4036
▁Worte	-10.405
▁meant	-10.4054
▁Linie	-10.4055
U	-10.4058
▁robots	-10.4073
▁eure	-10.4081
liche	-10.4085
▁surprising	-10.4091
▁physics	-10.4091
▁military	-10.4091
▁verbinden	-10.4091
▁training	-10.4094
▁Charles	-10.41
▁Systeme	-10.4107
▁oh	-10.4108
sehen	-10.4111
▁math	-10.412
▁reduce	-10.4121
▁Michael	-10.4127
▁purpose	-10.4127
▁erklärt	-10.4132
▁killed	-10.4147
▁Bank	-10.4148
▁Bewusstsein	-10.4152
▁path	-10.4154
▁Israel	-10.4156
▁Fisch	-10.416
ntweder	-10.4163
▁erfahren	-10.4172
▁erzählte	-10.4176
▁zeigte	-10.4177
▁sing	-10.4192
▁neun	-10.4193
▁accept	-10.4196
▁beauty	-10.4198
▁charge	-10.4198
▁Freiheit	-10.4198
▁Kampf	-10.42
▁geschehe	-10.4202
▁wirtschaftliche	-10.4213
▁press	-10.4214
▁anfange	-10.4217
pi	-10.4217
hi	-10.4225
▁verrückt	-10.4229
nächst	-10.4229
▁floor	-10.4234
▁address	-10.4234
▁entdecken	-10.4234
▁Projekte	-10.4236
▁excited	-10.4237
▁alive	-10.4238
▁career	-10.4239
▁st	-10.4242
▁Ressourcen	-10.425
▁entdeckt	-10.4252
▁Pro	-10.426
▁cheap	-10.427
▁sodas	-10.4272
▁heat	-10.4274
▁range	-10.4275
▁policy	-10.4278
▁smaller	-10.4283
▁Landes	-10.4296
ein	-10.4304
▁Fotos	-10.4304
▁Wörter	-10.4306
▁terribl	-10.4306
▁Aktivität	-10.4306
▁Sekunden	-10.4307
▁Anderson	-10.4307
▁perform	-10.4321
▁Ben	-10.4326
▁biolog	-10.4333
▁effort	-10.4343
▁older	-10.4352
▁herausfinde	-10.4364
▁mobile	-10.4365
▁particle	-10.4379
▁erfolgreich	-10.4381
▁town	-10.4384
▁feed	-10.4391
▁forms	-10.4392
▁Baby	-10.4401
▁expensive	-10.4416
▁brains	-10.4421
▁Na	-10.4424
▁rechts	-10.4428
▁hört	-10.443
▁handelt	-10.4431
▁mom	-10.4434
nehmen	-10.4436
▁Wachstum	-10.4439
ga	-10.4444
▁Pa	-10.4446
▁Go	-10.4447
▁erstaunlich	-10.4448
▁progress	-10.445
ug	-10.4452
▁Bühne	-10.4453
treten	-10.4453
kl	-10.4458
▁persönliche	-10.4464
▁decide	-10.4466
▁prevent	-10.4467
▁Druck	-10.4468
▁Do	-10.447
▁irgendwa	-10.447
▁gekommen	-10.4479
▁Gesundheits	-10.4479
▁nahe	-10.4481
▁schwarze	-10.4483
▁unique	-10.449
▁virtual	-10.449
▁respond	-10.449
▁retten	-10.449
▁dangerous	-10.449
▁Bezug	-10.449
▁Die	-10.4497
▁Regierungen	-10.4509
▁hält	-10.4511
▁lernte	-10.4511
▁läuf	-10.4512
▁wunderbare	-10.4513
▁gestellt	-10.452
▁vehicle	-10.4527
▁Telefon	-10.4527
legen	-10.453
▁amp	-10.4531
▁Himmel	-10.4533
▁rain	-10.4545
▁achieve	-10.4557
▁compare	-10.4558
▁teaching	-10.4559
▁wenige	-10.4563
▁Ordnung	-10.4564
▁Robert	-10.4564
▁skills	-10.4566
▁anywhere	-10.4571
leben	-10.4577
▁Tagen	-10.4593
▁report	-10.4599
▁constant	-10.4601
▁freedom	-10.4601
▁slight	-10.4602
▁bank	-10.4606
▁Formen	-10.4607
▁arbeite	-10.4614
▁Co	-10.4632
▁instance	-10.4639
▁Prinzip	-10.4643
▁decisions	-10.4655
▁trotz	-10.4656
▁improve	-10.4658
▁Nahrung	-10.466
▁jungen	-10.4663
▁Kollegen	-10.4663
▁runter	-10.4673
▁Nummer	-10.4676
▁gefragt	-10.4678
▁School	-10.468
▁bodi	-10.4681
▁cold	-10.4683
▁keiner	-10.4684
▁untersuchen	-10.4685
▁environmental	-10.4692
▁Punkte	-10.4701
▁Bast	-10.4708
ze	-10.4708
▁weight	-10.4709
▁fühlte	-10.4711
▁daughter	-10.4714
▁Botschaft	-10.4714
▁stars	-10.4715
▁7	-10.4716
▁protein	-10.472
▁Interesse	-10.4721
▁Bienen	-10.4727
▁humanity	-10.4731
▁income	-10.4731
▁web	-10.4737
▁sat	-10.4738
▁entschieden	-10.4743
▁dis	-10.4746
▁German	-10.4752
▁saß	-10.4754
ff	-10.4754
ale	-10.4755
▁production	-10.4756
aid	-10.4759
▁Chance	-10.476
▁Methode	-10.4769
kommen	-10.4775
▁Million	-10.4778
▁Netzwerk	-10.4779
▁verstanden	-10.4787
▁babies	-10.479
▁außerhalb	-10.479
▁Wege	-10.479
▁Artikel	-10.4793
▁Indian	-10.4803
▁sammeln	-10.481
▁Schlüssel	-10.4816
▁becom	-10.4816
▁Verständnis	-10.4828
▁convince	-10.4828
▁leisten	-10.4828
▁temperature	-10.4828
▁Park	-10.4828
▁Nigeria	-10.4834
▁sky	-10.4852
▁Recht	-10.4858
▁legs	-10.4865
▁ansehe	-10.4875
schaft	-10.4876
▁Wand	-10.488
like	-10.488
▁text	-10.4884
pf	-10.4888
▁cross	-10.4896
▁Ko	-10.4909
▁Arzt	-10.4909
▁transport	-10.4911
▁leg	-10.4914
▁bat	-10.4916
▁Ganze	-10.4926
line	-10.4928
▁fix	-10.493
▁warten	-10.4936
▁trade	-10.4937
▁shark	-10.4943
▁Krankenhaus	-10.4943
▁drop	-10.4947
▁driving	-10.4951
sche	-10.4952
ging	-10.4956
▁organism	-10.4957
▁bone	-10.4965
▁Plan	-10.4966
▁Los	-10.497
▁Fuß	-10.4982
▁schützen	-10.4982
▁sand	-10.4986
▁bed	-10.4992
▁jemande	-10.5002
▁park	-10.5005
bild	-10.5013
▁Netz	-10.5015
form	-10.5016
▁female	-10.5021
▁enormous	-10.5021
▁machines	-10.5024
▁familiar	-10.5029
▁starb	-10.5036
▁respect	-10.5058
▁Schönheit	-10.506
▁financial	-10.506
▁Feuer	-10.506
▁genes	-10.5071
▁scar	-10.5075
▁hundert	-10.5078
dimensional	-10.5079
▁irgendeine	-10.5083
bel	-10.5084
▁Kern	-10.5087
▁conflict	-10.5087
▁Gelegenheit	-10.5099
▁Religion	-10.5099
▁intelligence	-10.5099
▁forget	-10.51
▁Es	-10.5101
▁Wesen	-10.5103
▁wohin	-10.5107
▁drink	-10.5107
▁45	-10.5113
▁Tisch	-10.5125
▁magic	-10.513
▁stopp	-10.513
▁geschaffen	-10.5133
durchschnittlich	-10.514
▁Farbe	-10.5142
▁Herr	-10.5143
▁2008	-10.5147
▁Ton	-10.5151
im	-10.5152
▁active	-10.5157
que	-10.5162
▁Darwin	-10.5178
▁Beginn	-10.5178
▁Geist	-10.5179
▁solutions	-10.518
▁Western	-10.5181
▁remarkable	-10.5185
▁fallen	-10.5197
▁separate	-10.5204
▁target	-10.5218
▁müsste	-10.5223
ities	-10.5224
▁messen	-10.5225
▁significant	-10.523
ble	-10.5232
▁Auge	-10.5233
▁Meer	-10.5238
▁Haut	-10.5245
▁erzeugt	-10.5258
▁funny	-10.5259
if	-10.5259
lichen	-10.5269
▁meeting	-10.5279
▁Unter	-10.5279
▁See	-10.5282
▁cook	-10.5288
▁getroffen	-10.5298
punkt	-10.53
▁photo	-10.53
▁Hi	-10.5302
▁Version	-10.5311
pp	-10.5312
▁ex	-10.533
▁influence	-10.5331
ualität	-10.5334
▁September	-10.5338
▁corner	-10.5346
▁rule	-10.5347
▁Grad	-10.5354
▁politic	-10.5364
▁taten	-10.5375
ical	-10.538
▁herstellen	-10.5385
▁Adam	-10.5387
▁catch	-10.5392
▁bar	-10.5401
▁meter	-10.5405
▁bisher	-10.5405
▁hart	-10.541
▁pressure	-10.5419
▁Leidenschaft	-10.5419
▁gain	-10.5421
▁aid	-10.5422
isierung	-10.5423
▁dance	-10.5424
▁Name	-10.5435
▁Freude	-10.5444
▁Denken	-10.5445
▁remind	-10.5448
▁Gesetz	-10.545
▁miss	-10.5457
▁km	-10.5458
▁Werkzeuge	-10.5473
▁brand	-10.5473
▁erwarten	-10.5474
▁finger	-10.548
tragen	-10.5497
▁trouble	-10.55
bau	-10.5501
▁Maschinen	-10.551
▁survive	-10.5513
▁Zeitpunkt	-10.5514
▁Industrie	-10.5516
zunehmen	-10.5523
▁Zu	-10.5526
▁Harvard	-10.5541
▁genome	-10.5541
▁insect	-10.5542
▁Herzen	-10.5542
har	-10.5545
eath	-10.5546
▁useful	-10.5547
▁Abend	-10.5549
▁flying	-10.555
▁walked	-10.5554
ator	-10.5556
▁demand	-10.5561
▁brauchte	-10.5561
noch	-10.5561
sp	-10.5564
▁laut	-10.5565
▁creativity	-10.5582
▁Fluss	-10.5582
▁saving	-10.5583
▁interaction	-10.5585
▁Produkte	-10.5585
▁passion	-10.5586
▁hell	-10.5589
mögen	-10.5595
om	-10.5604
▁Band	-10.5605
▁decade	-10.5614
▁email	-10.5624
▁various	-10.5624
▁Operation	-10.5624
▁umzu	-10.563
▁roll	-10.5636
▁hervor	-10.5644
ca	-10.5659
▁nannte	-10.5665
▁race	-10.5671
▁dritten	-10.5672
richten	-10.5674
▁slide	-10.5675
▁Sand	-10.5677
▁Lernen	-10.569
▁costs	-10.5694
▁lokale	-10.5697
▁ha	-10.5705
▁fällt	-10.5707
▁tissue	-10.5707
zubringen	-10.572
▁dog	-10.574
skraft	-10.5746
▁honest	-10.5749
▁erinnere	-10.5749
▁geschah	-10.5749
▁produziert	-10.5749
▁Stunde	-10.5768
▁komplexe	-10.5771
▁speaking	-10.5777
▁television	-10.5791
▁wide	-10.5791
▁99	-10.5791
▁Test	-10.5794
▁fühlt	-10.5794
▁zufällig	-10.5797
▁circle	-10.5819
▁unit	-10.5822
▁forth	-10.5824
▁unterstützen	-10.5831
▁hair	-10.5833
▁failure	-10.5833
▁wealth	-10.5834
▁popular	-10.5835
▁starke	-10.5838
▁virus	-10.5845
▁nachdenk	-10.5847
▁Steve	-10.5853
▁Me	-10.5856
▁nochmal	-10.5861
▁Ne	-10.587
▁California	-10.5875
▁Polizei	-10.5875
▁fossil	-10.5875
▁central	-10.5875
▁heutigen	-10.5877
▁intelligent	-10.5883
▁types	-10.5894
▁rock	-10.5897
▁engine	-10.59
▁apply	-10.5901
ial	-10.5902
ub	-10.5906
▁konzentriere	-10.5918
▁supply	-10.5918
▁NASA	-10.5918
▁conference	-10.5918
▁erfunden	-10.5918
▁verkaufen	-10.5924
ible	-10.5925
▁Jungen	-10.593
ph	-10.593
all	-10.5931
▁sequence	-10.5939
▁Veränderungen	-10.594
V	-10.5942
fer	-10.5944
▁Werte	-10.5948
hält	-10.596
▁außergewöhnlich	-10.596
▁iPhone	-10.596
▁coral	-10.5961
▁edge	-10.5964
▁summer	-10.5964
▁shared	-10.5967
▁engineering	-10.5975
▁document	-10.5977
▁star	-10.5977
▁breath	-10.5977
▁Geschäft	-10.5979
▁schafft	-10.5982
▁paint	-10.5997
▁Partner	-10.6003
▁behandeln	-10.6003
▁Vergleich	-10.6005
ba	-10.603
▁Ch	-10.6037
▁Tom	-10.6039
kommt	-10.6043
▁Klima	-10.6043
▁Sommer	-10.6047
▁sexual	-10.6047
▁stress	-10.6048
▁fragt	-10.6059
wissenschaft	-10.6062
▁halbe	-10.6062
▁Thom	-10.6069
▁beat	-10.6069
▁aktiv	-10.6069
▁bear	-10.6076
▁rot	-10.6079
▁sp	-10.6089
▁beeinflusst	-10.609
▁Karriere	-10.609
▁Morton	-10.609
▁197	-10.609
▁seat	-10.6091
▁Peter	-10.6096
▁consumer	-10.6106
▁cultural	-10.6107
berg	-10.6109
▁Osten	-10.6115
ck	-10.6124
ud	-10.6129
▁double	-10.6133
▁infrastructure	-10.6134
sharing	-10.6136
▁hinzu	-10.6149
wise	-10.6156
▁schicken	-10.6157
är	-10.6158
▁legen	-10.6161
▁Suche	-10.6165
▁factor	-10.6165
ouTube	-10.6177
▁alternative	-10.6177
▁Ahnung	-10.6177
auf	-10.6177
▁gedacht	-10.6178
▁ran	-10.6179
▁Anwendung	-10.618
▁distance	-10.6183
▁brilliant	-10.6184
▁flu	-10.619
ise	-10.6193
▁triff	-10.6197
▁sowie	-10.6198
▁values	-10.6202
▁All	-10.6206
▁spot	-10.6213
▁balance	-10.6221
▁straight	-10.6221
▁speech	-10.6221
▁Fenster	-10.6221
▁Francisco	-10.6221
▁angefangen	-10.6221
▁Risiko	-10.6222
zen	-10.6222
gi	-10.6224
▁Traum	-10.6224
▁possibl	-10.623
▁grundlegende	-10.6231
▁surgery	-10.6232
▁Verantwortung	-10.6235
ben	-10.6242
▁gehe	-10.6252
▁Liste	-10.6252
▁tausende	-10.6257
▁endlich	-10.6259
▁Westen	-10.6262
▁jump	-10.6264
▁Position	-10.6265
▁feature	-10.6265
▁detail	-10.6272
▁belief	-10.6273
▁überleben	-10.6278
io	-10.628
▁ship	-10.6282
▁sad	-10.6283
▁station	-10.6284
▁radio	-10.6285
▁sample	-10.6288
▁höher	-10.6288
▁communicate	-10.6288
▁professional	-10.6288
▁mountain	-10.6299
vi	-10.6308
▁Kreativität	-10.6309
▁Vertrauen	-10.6309
▁accident	-10.6315
▁decades	-10.6319
▁underst	-10.6321
▁existiert	-10.6324
▁blaue	-10.6343
▁neighborhood	-10.6354
▁öffnen	-10.6354
▁Institution	-10.6354
▁aware	-10.6355
schreibt	-10.6357
▁prison	-10.6357
▁Forscher	-10.6358
▁anti	-10.6358
▁Zustand	-10.636
▁instrument	-10.6364
▁Jahrhunderts	-10.6365
▁recent	-10.6367
▁define	-10.637
▁layer	-10.6374
▁nachdenke	-10.6375
▁Gold	-10.6377
▁My	-10.638
▁capital	-10.6381
▁natürliche	-10.6383
raum	-10.6386
▁ausge	-10.6395
▁perfekt	-10.6396
▁dynamic	-10.6398
▁chair	-10.6398
▁196	-10.6398
▁societies	-10.6399
eck	-10.6415
▁komme	-10.6422
stern	-10.6426
▁thanks	-10.6441
▁worst	-10.6443
▁Materialien	-10.6444
▁2010	-10.6449
▁below	-10.645
ität	-10.6452
▁Gefängnis	-10.646
▁release	-10.6461
▁Wald	-10.6463
▁dunkle	-10.6473
▁verkauft	-10.6484
▁switch	-10.6488
▁sentence	-10.6488
▁Verfügung	-10.6488
▁Nähe	-10.6488
▁Biologie	-10.6488
fall	-10.6492
▁Ra	-10.6494
▁genutzt	-10.6503
▁afr	-10.6506
▁event	-10.6512
▁wählen	-10.6512
▁Objekte	-10.653
▁identit	-10.6533
▁profound	-10.6533
▁introduce	-10.6534
▁careful	-10.6535
▁birth	-10.6539
▁lief	-10.6541
▁glass	-10.6543
▁agree	-10.6543
rufen	-10.6546
▁ball	-10.6548
▁Kommunikation	-10.6557
▁inter	-10.6564
▁Spitze	-10.6564
▁responsibilit	-10.6579
▁technique	-10.6579
▁destroy	-10.6579
▁civilization	-10.6579
▁Lebensmittel	-10.658
▁capacity	-10.6583
▁Physik	-10.659
▁paid	-10.6591
▁scientist	-10.6595
side	-10.6599
▁advance	-10.6607
▁Worten	-10.6613
▁gelang	-10.6616
laden	-10.6617
▁oxygen	-10.6624
▁tremendous	-10.6624
▁kontrollieren	-10.6624
▁Wunder	-10.6627
▁atmosphere	-10.6629
ich	-10.6629
▁Islam	-10.6633
▁glaubt	-10.6633
fi	-10.6635
rin	-10.6637
▁ließ	-10.6638
ip	-10.6639
zusag	-10.6639
▁aufgenommen	-10.6647
▁erlaub	-10.665
mp	-10.6651
▁mach	-10.6651
▁Bio	-10.6659
▁gewisse	-10.666
teil	-10.6661
▁Mit	-10.6663
▁Su	-10.6665
▁Opfer	-10.667
▁behandelt	-10.667
arbeit	-10.6673
stehen	-10.6673
▁Vi	-10.6674
▁Professor	-10.6676
▁sustainabl	-10.6676
▁wood	-10.6677
▁elektrische	-10.6682
▁method	-10.6691
▁gebe	-10.6692
▁wahre	-10.6694
ot	-10.6694
▁serve	-10.6702
▁normale	-10.6704
▁Bedingung	-10.6716
▁sister	-10.6716
▁flight	-10.6717
▁minds	-10.6717
enden	-10.6723
▁kling	-10.6738
▁75	-10.6739
▁researcher	-10.6742
▁spreche	-10.6743
▁argue	-10.6745
▁fold	-10.6746
ör	-10.6746
▁ideal	-10.6752
▁Gehirns	-10.6759
ach	-10.676
▁Street	-10.6763
▁bridge	-10.6763
▁allerding	-10.6763
▁option	-10.6764
lichkeit	-10.677
J	-10.6771
▁citizens	-10.6774
▁capture	-10.6779
▁chemical	-10.6783
off	-10.679
ivity	-10.6793
▁Werkzeug	-10.6799
▁veröffentlicht	-10.68
▁23	-10.6803
▁Berg	-10.6803
▁Geschwindigkeit	-10.6809
▁Sauerstoff	-10.6809
▁muscle	-10.6809
▁twice	-10.6809
▁consciousness	-10.681
▁rapid	-10.6811
▁Wow	-10.6811
ib	-10.6812
▁falsche	-10.6817
▁boat	-10.6821
▁Tieren	-10.6824
▁Center	-10.6831
▁traditionelle	-10.6841
▁To	-10.6845
▁rote	-10.6847
▁workers	-10.6847
▁Tochter	-10.6856
▁ancient	-10.6856
▁begonne	-10.6856
▁Ausdruck	-10.6856
▁entlang	-10.6856
▁How	-10.6858
▁willing	-10.686
▁sicherlich	-10.6862
▁Ansatz	-10.6866
▁folgende	-10.687
▁highly	-10.6877
▁Konferenz	-10.6878
▁Drogen	-10.6892
gebaut	-10.6899
▁verursacht	-10.6901
▁smell	-10.6903
▁überzeugt	-10.6903
▁rational	-10.6903
▁threat	-10.6908
gang	-10.6909
▁Zelle	-10.6916
▁benötigt	-10.6919
▁challenges	-10.6933
▁gegangen	-10.6937
gt	-10.694
▁Mond	-10.6945
▁Schutz	-10.6949
▁Jung	-10.6949
▁Neuronen	-10.6951
für	-10.6953
▁Beine	-10.6954
▁10,000	-10.6957
rie	-10.6959
▁grosse	-10.696
▁Si	-10.6966
▁Wikipedia	-10.6997
▁classroom	-10.6998
▁abge	-10.6998
▁ähnliche	-10.6998
▁Infrastruktur	-10.7002
▁ändert	-10.7011
innen	-10.7013
▁alter	-10.7015
▁noise	-10.702
▁Green	-10.7021
▁birds	-10.7022
▁nutzt	-10.7024
▁Gefühle	-10.704
▁Plastik	-10.7045
▁notwendig	-10.7045
▁Großbritannien	-10.7045
▁letztendlich	-10.7045
▁sector	-10.7045
▁einfacher	-10.7045
▁lack	-10.7045
▁Ansicht	-10.7046
▁dying	-10.7046
ack	-10.7056
pite	-10.706
▁networks	-10.707
▁täglich	-10.7077
▁geschaff	-10.7088
▁effects	-10.7091
▁generate	-10.7092
▁Chicago	-10.7093
▁article	-10.7093
▁Motor	-10.7093
▁collective	-10.7094
▁Wandel	-10.7094
che	-10.7107
plan	-10.7113
▁net	-10.7114
▁gil	-10.7123
ex	-10.7127
▁rare	-10.7131
▁drawing	-10.7131
▁Pakistan	-10.7134
erstellen	-10.7135
▁weiss	-10.7137
▁architect	-10.7141
▁ermöglichen	-10.7141
▁disappear	-10.7141
▁hopeful	-10.7143
▁setzt	-10.7156
▁inspired	-10.7156
trägt	-10.7159
▁Antworten	-10.7162
▁Ecke	-10.7162
▁Geräte	-10.7164
▁broken	-10.7166
▁landscape	-10.7172
recht	-10.7184
▁beeinflussen	-10.7189
▁campaign	-10.7189
▁Ausbildung	-10.719
▁imagination	-10.719
▁micro	-10.719
▁dagegen	-10.7193
▁complexity	-10.7194
▁apart	-10.7194
▁relevant	-10.7194
▁Strategie	-10.7198
▁Bett	-10.7201
ssystem	-10.7203
of	-10.7205
ken	-10.7208
▁spät	-10.7221
▁erinnert	-10.7227
genommen	-10.7229
▁Big	-10.7235
▁notion	-10.7237
▁Materie	-10.7238
▁Unterschiede	-10.7239
▁laws	-10.7242
▁states	-10.7242
▁dorthin	-10.7242
▁Gesetze	-10.7244
▁moralische	-10.7245
▁gutes	-10.7246
▁Ca	-10.7247
▁Medikamente	-10.7256
round	-10.726
▁King	-10.7262
▁rid	-10.7268
▁bestehen	-10.7269
▁eating	-10.7273
▁cycle	-10.7275
▁And	-10.728
werk	-10.7282
▁Ah	-10.7286
▁reagiere	-10.7287
▁handeln	-10.7288
▁boys	-10.7295
▁Flug	-10.7303
▁illegal	-10.7303
▁random	-10.7303
▁Fortschritt	-10.7304
▁h	-10.7307
▁Ed	-10.7307
▁Farben	-10.7311
ina	-10.7315
▁Rede	-10.7315
erleben	-10.7319
▁operat	-10.7319
▁Gegend	-10.7322
▁erstaunliche	-10.7324
▁prove	-10.7331
▁praktisch	-10.7333
▁Identität	-10.7336
▁Komplexität	-10.7336
▁Middle	-10.7336
▁Baum	-10.7337
▁investment	-10.7337
▁continent	-10.7339
▁darf	-10.734
▁mo	-10.7341
▁Zeitung	-10.7344
▁algorithm	-10.7345
▁afrikanische	-10.7345
▁farm	-10.7364
▁Spiele	-10.7373
▁metaphor	-10.7375
▁Klasse	-10.7376
▁express	-10.7382
▁satellite	-10.7385
▁giant	-10.7385
▁grade	-10.7398
▁Teilen	-10.7399
▁graph	-10.7401
▁Mar	-10.7401
▁kostet	-10.7403
▁Jo	-10.7405
ran	-10.7407
▁Ph	-10.741
▁Lieblings	-10.7414
schaftliche	-10.7417
spiel	-10.7421
▁Muslim	-10.7423
zi	-10.7425
▁airplane	-10.7434
▁universal	-10.7434
▁monkey	-10.7434
▁yellow	-10.7434
▁GPS	-10.7435
▁mission	-10.7436
▁1,000	-10.7436
ard	-10.7437
▁College	-10.7437
▁westliche	-10.7441
ng	-10.7441
wa	-10.7443
▁Vielfa	-10.7447
▁Norden	-10.745
▁contain	-10.7451
▁Jobs	-10.7453
base	-10.7455
ang	-10.7458
▁engage	-10.747
▁Neuro	-10.7473
▁window	-10.7475
we	-10.7478
▁religion	-10.7479
▁nehme	-10.7483
▁reveal	-10.7484
▁ecosystem	-10.7484
▁Bildschirm	-10.7484
▁sogenannte	-10.7486
diversity	-10.7489
▁sick	-10.7493
▁Thi	-10.7502
▁multi	-10.7504
▁trick	-10.7507
▁entsteh	-10.7507
▁Insekten	-10.7509
ek	-10.7519
▁gap	-10.7521
▁relationships	-10.7525
▁whale	-10.7532
▁Temperatur	-10.7534
▁Zeichen	-10.7534
▁coffee	-10.7534
▁Boston	-10.7534
▁reward	-10.7535
▁lebte	-10.7536
▁moderne	-10.7537
▁Loch	-10.7537
▁verbreitet	-10.7541
lin	-10.7541
▁Wunsch	-10.7544
▁Vision	-10.7545
▁entschied	-10.7546
▁biological	-10.7552
▁wider	-10.7561
▁engineer	-10.7569
▁weiterhi	-10.7569
industrie	-10.7571
▁lass	-10.7582
▁bread	-10.7585
▁la	-10.7586
▁vast	-10.7586
▁missing	-10.7593
od	-10.7593
▁definition	-10.7595
▁bomb	-10.7598
▁chinesische	-10.76
▁grüne	-10.76
▁avoid	-10.7603
da	-10.7607
▁Stein	-10.7611
▁Bi	-10.7613
▁drin	-10.7614
▁inner	-10.7624
ffentlich	-10.7629
▁Mütter	-10.7635
▁kämpfen	-10.7635
▁Zusammenarbeit	-10.7635
▁clever	-10.7636
▁earth	-10.7636
▁kenne	-10.7639
▁Wir	-10.7645
▁gene	-10.7646
▁designers	-10.7648
▁basis	-10.765
▁Kontakt	-10.7657
▁con	-10.7658
▁wunderbar	-10.7663
▁deutlich	-10.7668
▁pack	-10.7674
▁rough	-10.7674
ow	-10.7677
des	-10.7681
▁neighbor	-10.7686
▁Intelligenz	-10.7686
▁component	-10.7686
▁application	-10.7686
▁Golf	-10.7687
▁Zeiten	-10.7692
▁Präsident	-10.7701
▁loss	-10.7705
ship	-10.7706
▁22	-10.7709
▁erwartet	-10.7711
▁fühle	-10.7716
▁Feld	-10.7717
▁wert	-10.7717
▁enable	-10.7723
▁Ent	-10.7724
▁tough	-10.7725
▁evolve	-10.7726
bare	-10.7733
▁Junge	-10.7734
▁High	-10.7736
▁Higgs	-10.7737
▁Obama	-10.7737
▁crime	-10.7737
▁radical	-10.7737
▁Paris	-10.7737
▁grand	-10.7737
▁investieren	-10.7742
▁davor	-10.7744
v	-10.7747
▁Zentrum	-10.7751
▁Neu	-10.7762
▁fuhr	-10.7764
▁Lo	-10.7765
▁Genom	-10.7768
fa	-10.7777
▁Klimawandel	-10.7786
igkeit	-10.7788
▁benötige	-10.7788
▁president	-10.7788
▁leadership	-10.7788
▁Arbeits	-10.7796
▁European	-10.7797
▁Virus	-10.7802
▁Gang	-10.7805
▁hearing	-10.7818
term	-10.782
DP	-10.7821
band	-10.7822
▁Waffen	-10.783
▁Asia	-10.7837
▁Gewicht	-10.7839
▁breast	-10.7839
▁interessiere	-10.7839
▁opportunities	-10.7839
▁vermutlich	-10.7839
▁Gewebe	-10.7839
▁technical	-10.784
▁dramatic	-10.784
▁Satz	-10.784
▁Einsatz	-10.7841
wächst	-10.7841
▁unlike	-10.7844
vor	-10.7847
▁surprise	-10.7857
war	-10.7861
▁devices	-10.7865
▁zog	-10.7866
▁Ni	-10.7867
▁em	-10.7874
▁labor	-10.7875
▁Nach	-10.788
▁creatures	-10.7881
▁Zusammenhang	-10.7891
▁competition	-10.7891
▁Holz	-10.7892
▁background	-10.7894
▁hunderte	-10.7895
▁blieb	-10.7899
▁commercial	-10.7903
▁neuer	-10.7905
ett	-10.7906
rüber	-10.7909
▁Kunden	-10.7919
▁desert	-10.7923
▁farmers	-10.7938
▁Unterstützung	-10.7943
▁husband	-10.7943
▁Great	-10.7943
▁British	-10.7944
▁recover	-10.7944
▁Titel	-10.7944
▁1990	-10.7944
▁outcome	-10.7944
▁scene	-10.7945
▁Life	-10.7948
▁painting	-10.7952
▁dreht	-10.7958
▁tumor	-10.7959
▁Brot	-10.7961
▁lernt	-10.7965
▁Mikro	-10.7965
▁vote	-10.797
▁efficient	-10.7973
▁Was	-10.798
▁bees	-10.798
12	-10.7985
▁Frieden	-10.7989
tin	-10.799
▁core	-10.7994
▁1960	-10.7996
▁weird	-10.7997
ue	-10.7999
▁w	-10.8
▁designer	-10.8002
▁Sekunde	-10.8004
ide	-10.8005
▁dahin	-10.8006
▁erforschen	-10.8007
▁controll	-10.8008
▁bubble	-10.8008
▁Handy	-10.8008
▁worry	-10.8009
▁musst	-10.801
▁Institute	-10.8012
▁bloß	-10.8017
▁schaute	-10.8032
▁solch	-10.8043
▁verfügbar	-10.8048
▁Atmosphäre	-10.8049
▁trip	-10.805
▁gewonnen	-10.8052
izing	-10.8054
▁expand	-10.8054
▁gemeinsame	-10.8061
▁Sun	-10.8061
▁beschäftigt	-10.8065
▁museum	-10.8069
▁persönlich	-10.8072
▁studie	-10.8078
board	-10.8096
▁600	-10.8097
rat	-10.8099
▁steckt	-10.8099
▁Wahrscheinlich	-10.8101
▁Martin	-10.8102
▁Städten	-10.8102
▁click	-10.8102
▁damage	-10.8102
▁Bar	-10.8105
▁reflect	-10.8106
▁entstehen	-10.8109
buch	-10.8112
▁fashion	-10.8118
▁invite	-10.8132
▁digitale	-10.8138
▁industrial	-10.8139
▁fully	-10.8142
▁Hirn	-10.8142
▁plann	-10.8143
hal	-10.8144
▁Har	-10.8151
▁Fernsehen	-10.8152
▁Sp	-10.8152
▁Höhe	-10.8152
▁Kilometer	-10.8154
▁Häuser	-10.8154
▁Ghana	-10.8154
▁Kenya	-10.8155
▁Basis	-10.8155
tally	-10.8157
▁streets	-10.8158
▁halte	-10.8159
▁relativ	-10.8159
▁mess	-10.8172
▁Aufgaben	-10.8172
▁ernst	-10.8175
▁produc	-10.8177
▁enorme	-10.8178
▁Universums	-10.8182
▁Affen	-10.8183
▁werfen	-10.8185
weisen	-10.8186
▁include	-10.8189
▁quote	-10.819
len	-10.8195
▁graduate	-10.8204
▁divide	-10.8208
▁contact	-10.8208
▁fascinating	-10.8208
▁durchgeführt	-10.8211
▁stem	-10.8211
▁2009	-10.8212
▁beschreiben	-10.8218
▁bio	-10.8225
▁Gesellschaften	-10.8228
ating	-10.8235
▁kümmer	-10.824
▁alleine	-10.8248
▁Super	-10.8256
▁surviv	-10.8257
▁Knochen	-10.8262
▁phenomeno	-10.8262
▁Hintergrund	-10.8262
▁Haiti	-10.8263
▁professor	-10.8275
▁übertragen	-10.8276
▁Phänomen	-10.8278
▁Soldaten	-10.8279
▁Per	-10.8285
eh	-10.8292
▁lustig	-10.8296
▁Le	-10.8307
▁signal	-10.831
▁Diskussion	-10.8316
▁begeistert	-10.8316
▁opposite	-10.8316
▁Valley	-10.8316
fe	-10.832
▁bottle	-10.8327
▁verdienen	-10.8329
▁promise	-10.8342
rausgefunden	-10.835
▁Se	-10.8359
▁Konflikt	-10.8361
▁Kräfte	-10.837
▁Gas	-10.837
▁Online	-10.837
▁unbedingt	-10.8371
▁geführt	-10.8371
▁combine	-10.8375
▁Glas	-10.8376
▁herunter	-10.8382
fahren	-10.8383
ists	-10.8392
▁app	-10.8394
▁Modelle	-10.8399
▁Ameisen	-10.8406
▁Karten	-10.8413
▁drehen	-10.8415
▁umgehen	-10.842
▁entwickelte	-10.8421
▁correct	-10.8422
▁behaupte	-10.8423
▁Um	-10.8424
▁Müll	-10.8425
▁buchstäblich	-10.8425
▁kommunizieren	-10.8425
▁Kontext	-10.8425
steigt	-10.8425
▁vollkommen	-10.8425
▁Untersuchung	-10.8426
▁Depression	-10.8428
▁lautet	-10.8428
▁coast	-10.843
▁Gute	-10.8432
▁versu	-10.8435
▁Sterne	-10.8436
▁plus	-10.8437
▁lucky	-10.8445
▁answers	-10.8454
▁dad	-10.8455
▁kreative	-10.846
arten	-10.8477
▁encourage	-10.8479
▁kulturelle	-10.8479
zeichen	-10.848
▁hauptsächlich	-10.848
▁stolz	-10.848
▁foreign	-10.848
▁magazine	-10.848
▁French	-10.848
▁chose	-10.848
▁Drittel	-10.8481
▁moon	-10.8482
▁Babys	-10.8484
▁erhielt	-10.8484
▁Politiker	-10.8489
▁mouth	-10.8491
hilfe	-10.8505
50	-10.8508
▁date	-10.8509
▁receive	-10.8513
▁Rand	-10.8515
▁gefährlich	-10.8531
struktur	-10.8535
▁advantage	-10.8535
▁Zivilisation	-10.8535
▁hinweg	-10.8536
▁Apple	-10.8536
▁religious	-10.8539
nden	-10.855
iger	-10.8561
▁pop	-10.8564
▁aspect	-10.8566
▁fantastisch	-10.8576
▁Begriff	-10.8579
▁baute	-10.8582
▁Code	-10.8582
▁Iraq	-10.8582
ite	-10.8585
▁älter	-10.8585
▁motor	-10.8586
tor	-10.8589
▁civil	-10.859
▁Science	-10.859
▁Faktor	-10.8599
▁forever	-10.8603
▁Jahrzehnt	-10.861
▁lebende	-10.861
▁Masse	-10.8611
▁27	-10.8612
▁Inhalt	-10.8615
arm	-10.8616
▁verbracht	-10.8625
▁responsibl	-10.8646
▁bright	-10.8647
▁perfekte	-10.8649
▁krank	-10.8662
▁spin	-10.8664
▁stecken	-10.8676
▁sold	-10.8681
▁members	-10.869
▁suffering	-10.869
▁Sport	-10.8697
▁Sozial	-10.8702
▁Sebastian	-10.8703
▁gestalten	-10.8703
▁Themen	-10.8704
▁adapt	-10.8706
zahl	-10.8707
▁Grafik	-10.8709
▁vollständig	-10.8711
▁untersucht	-10.8716
▁besitzen	-10.8717
test	-10.8727
▁Island	-10.8733
▁gift	-10.875
▁zer	-10.8754
▁photos	-10.8755
▁Fleisch	-10.8759
▁crowd	-10.876
▁reaction	-10.876
▁Angeles	-10.8761
▁Irak	-10.8761
▁wesentlich	-10.8762
▁soil	-10.8763
▁schließen	-10.8765
▁Milliarde	-10.8766
▁Einkommen	-10.8771
▁location	-10.8775
▁involv	-10.8777
▁Beste	-10.8779
▁electric	-10.8785
▁stream	-10.8792
ors	-10.8804
▁Erklärung	-10.8816
▁island	-10.8825
▁internationale	-10.8827
uck	-10.8837
▁häufig	-10.884
▁20.	-10.8843
▁bird	-10.8843
▁score	-10.8846
▁Mexic	-10.8863
▁Mission	-10.8871
▁Microsoft	-10.8873
▁1980	-10.8873
▁scheinen	-10.8874
▁Experimente	-10.8874
▁biologische	-10.8874
▁according	-10.8877
▁Fabrik	-10.8878
▁creation	-10.8881
zug	-10.8882
▁expression	-10.8885
heben	-10.8886
▁überrascht	-10.8889
ki	-10.8894
▁leading	-10.8894
▁Radio	-10.8903
▁Car	-10.8905
▁brother	-10.8907
▁verbringe	-10.8921
▁Wahrnehmung	-10.893
▁mathematics	-10.893
▁töten	-10.893
▁kürzlich	-10.8931
▁cognitive	-10.8932
▁schien	-10.8932
▁held	-10.8936
▁erkannte	-10.8938
▁hängt	-10.8939
▁related	-10.894
▁laugh	-10.894
11	-10.8951
▁dollar	-10.8956
▁Mu	-10.8962
▁bezahle	-10.8965
ru	-10.8966
▁Regen	-10.8968
▁Tumor	-10.8972
▁las	-10.8976
▁attempt	-10.8988
▁childhood	-10.8989
▁insight	-10.899
▁Tausende	-10.8992
▁wuchs	-10.8998
▁Laptop	-10.8999
▁Tim	-10.9002
▁Spielen	-10.9006
▁Ball	-10.9008
▁extend	-10.9008
▁typical	-10.9014
seite	-10.9016
seits	-10.9017
▁rechten	-10.9017
▁filter	-10.9022
▁Fische	-10.9036
▁interagieren	-10.9046
▁lunch	-10.9046
▁chain	-10.9047
▁spezielle	-10.9048
kraft	-10.9049
▁weapons	-10.9051
▁selten	-10.9052
▁Bob	-10.9052
▁fantastische	-10.9062
▁poll	-10.9065
▁dot	-10.9074
▁Jim	-10.9079
▁cloud	-10.908
0,000	-10.9084
▁bus	-10.9084
▁gesund	-10.9091
▁Frank	-10.9096
ization	-10.9103
▁verantwortlich	-10.9104
▁fresh	-10.9105
▁leaving	-10.9105
▁Rahmen	-10.9105
▁exercise	-10.9105
▁elements	-10.9105
▁Lektion	-10.9106
▁Kindheit	-10.9109
fährt	-10.9115
schlag	-10.9115
▁talks	-10.912
ative	-10.9123
▁Funktion	-10.913
▁überzeugen	-10.9134
▁genauer	-10.9138
▁mittler	-10.9138
uelle	-10.9157
▁Gespräch	-10.9159
▁newspaper	-10.9164
▁dürfe	-10.9164
▁fiel	-10.9164
▁verhindern	-10.9164
▁depression	-10.9165
▁Filme	-10.9167
▁emerg	-10.9168
▁conscious	-10.9171
▁kilometer	-10.9178
▁operation	-10.9184
▁tausend	-10.9189
▁pump	-10.9195
▁Wirtschafts	-10.9204
lose	-10.9206
▁regular	-10.9223
▁interface	-10.9223
▁display	-10.9223
▁Großteil	-10.9223
▁stuck	-10.9223
▁lachen	-10.9224
tag	-10.9224
▁proud	-10.9225
▁seltsam	-10.9225
▁entwerfen	-10.923
▁Militär	-10.9231
ob	-10.9232
▁verfolgen	-10.9235
▁Nicht	-10.9239
▁invisible	-10.9245
▁Po	-10.9247
▁Reich	-10.9258
gel	-10.9258
▁öffentlich	-10.9259
night	-10.9261
▁überraschend	-10.9263
▁innovative	-10.9265
▁vergleichen	-10.9271
sie	-10.9279
▁Kaffee	-10.9282
▁strategy	-10.9282
▁Schluss	-10.9282
▁mouse	-10.9283
▁sorgen	-10.9283
▁era	-10.9283
▁hidden	-10.9283
▁Landwirtschaft	-10.9284
▁bestimmen	-10.9287
▁Hund	-10.9287
▁Staat	-10.9288
▁tens	-10.9291
▁discovery	-10.9292
▁events	-10.9297
gestellt	-10.93
▁independent	-10.9302
ana	-10.9304
▁copy	-10.9306
▁Moleküle	-10.9308
▁genetische	-10.9309
▁harm	-10.931
▁deeply	-10.9312
▁Gefahr	-10.9313
▁aktuelle	-10.9314
▁traffic	-10.9326
▁usw	-10.933
ändern	-10.9333
▁spirit	-10.9338
▁platform	-10.9342
▁succeed	-10.9342
▁pair	-10.9343
▁odd	-10.9343
▁election	-10.9343
▁Verstand	-10.9344
▁Beweis	-10.9346
▁Boot	-10.9353
ew	-10.9354
▁könnt	-10.9357
▁robotic	-10.937
▁Ju	-10.9371
▁Schmerz	-10.9374
▁occur	-10.9378
▁einsetzen	-10.9381
▁folgt	-10.9382
▁Ziele	-10.9383
▁writer	-10.9384
▁Laden	-10.9385
▁debate	-10.9385
▁geh	-10.9389
▁Joe	-10.9393
▁basiert	-10.9394
isten	-10.9394
▁party	-10.9394
teilen	-10.9396
▁seriously	-10.94
▁economist	-10.9403
▁hurt	-10.9403
▁honor	-10.9403
▁mindesten	-10.9403
▁stammt	-10.9403
▁verwandeln	-10.9403
ffentlichkeit	-10.9403
▁That	-10.9404
▁Kon	-10.9405
▁schrecklich	-10.9406
pt	-10.9406
▁invention	-10.9407
▁river	-10.9413
▁band	-10.9415
▁suffer	-10.9416
▁holding	-10.9427
▁university	-10.9429
lange	-10.9431
tig	-10.9433
▁Interaktion	-10.9436
haus	-10.9443
ani	-10.9443
▁roof	-10.9463
▁Schwierigkeit	-10.9463
▁talent	-10.9463
▁Zimmer	-10.9463
▁Klang	-10.9465
▁match	-10.9468
▁curve	-10.9469
▁struggle	-10.9469
▁Unternehmer	-10.9469
▁mitten	-10.9469
▁Strukturen	-10.9471
▁tie	-10.9475
▁claim	-10.9477
▁row	-10.9478
▁Nutzen	-10.9482
well	-10.9484
▁Geburt	-10.9493
▁Spieler	-10.9493
▁Sprachen	-10.9501
▁BG	-10.9505
▁setzte	-10.9505
▁Und	-10.9506
▁Rätsel	-10.9524
▁empower	-10.9524
▁arrive	-10.9525
▁Bruder	-10.9525
▁Absicht	-10.9525
▁irgendetw	-10.9525
▁suit	-10.9525
ong	-10.9534
▁di	-10.9536
▁baut	-10.9538
▁ihres	-10.9538
▁250	-10.954
▁lie	-10.9558
▁Entdeckung	-10.9558
▁mid	-10.9571
▁Kreis	-10.9573
▁Rat	-10.9577
▁topic	-10.9581
org	-10.9585
▁ordinar	-10.9585
▁wisdom	-10.9585
▁getötet	-10.9585
▁General	-10.9586
▁vorhanden	-10.9586
ierten	-10.9587
▁disaster	-10.9588
▁zurückzu	-10.9589
▁Bush	-10.9589
▁bemerkt	-10.9591
▁tue	-10.9591
▁replace	-10.9595
▁multiple	-10.9599
rate	-10.96
▁Minute	-10.9603
▁foundation	-10.9604
▁Maus	-10.9606
feld	-10.9609
▁crash	-10.9611
▁metal	-10.9614
▁meat	-10.9616
eg	-10.9621
än	-10.9623
▁practical	-10.9629
▁Ba	-10.9632
zukommen	-10.9642
▁Kalifornien	-10.9647
bewegung	-10.9647
▁Augenblick	-10.9648
▁II	-10.9648
haft	-10.9649
▁TEDx	-10.965
du	-10.965
▁Tanz	-10.9652
▁galaxie	-10.9654
▁truck	-10.9654
schalten	-10.9655
▁motion	-10.966
▁eingesetzt	-10.9661
▁Folgende	-10.9662
▁pure	-10.9671
▁unabhängig	-10.9676
▁hop	-10.968
▁Di	-10.968
▁closed	-10.9685
▁desire	-10.9687
▁remove	-10.9688
▁cry	-10.9697
▁Individu	-10.9704
▁Nation	-10.9705
▁schlimmer	-10.9705
▁names	-10.9706
▁translate	-10.9708
▁Amazon	-10.9708
▁Uganda	-10.9709
▁beschäftige	-10.9709
▁Handlung	-10.971
▁discussion	-10.9711
▁Wi	-10.9712
▁dreams	-10.9713
▁transformation	-10.9713
▁morgen	-10.9719
▁engineers	-10.972
▁budget	-10.9722
▁Charakter	-10.9722
▁halb	-10.9723
▁Schimpansen	-10.9726
cher	-10.9736
▁erzähle	-10.9737
▁planets	-10.9742
▁strength	-10.9745
▁leader	-10.9752
▁Standard	-10.9763
▁bi	-10.9767
▁Texas	-10.9772
▁Zuschauer	-10.9772
▁narrative	-10.9772
▁clip	-10.9773
▁wunderschöne	-10.9775
▁Mund	-10.9775
▁voraus	-10.9779
▁pounds	-10.978
▁frame	-10.9783
acy	-10.9788
▁Erd	-10.9788
▁mix	-10.979
▁Massen	-10.9791
▁chemische	-10.9793
▁evolv	-10.9796
▁Li	-10.98
▁angesehen	-10.9802
▁Ar	-10.9802
▁dr	-10.9807
▁journalist	-10.9807
▁fac	-10.9809
▁Landschaft	-10.9811
▁profit	-10.9821
▁Arab	-10.9823
▁Gehirne	-10.9825
▁Mark	-10.9827
work	-10.9831
▁faith	-10.9834
▁Investition	-10.9835
▁Tradition	-10.9835
▁variet	-10.9835
▁anfing	-10.9836
▁DH	-10.9839
▁precise	-10.9846
▁hergestellt	-10.9847
Z	-10.9847
▁dozen	-10.9857
▁round	-10.9859
▁remote	-10.9866
▁gold	-10.9873
ure	-10.9873
j	-10.9874
▁rief	-10.9875
▁visuelle	-10.9885
▁Groß	-10.9889
▁quiet	-10.9898
▁grandmother	-10.9898
▁equivalent	-10.9898
▁mirror	-10.9898
▁1970	-10.9898
▁1950	-10.9899
▁smile	-10.9899
tech	-10.9902
▁bieten	-10.9902
▁2006	-10.9902
▁organize	-10.9904
▁garden	-10.9905
▁oceans	-10.9908
stein	-10.9909
▁bag	-10.9911
▁shock	-10.9915
isiert	-10.9917
▁unbe	-10.9919
pro	-10.9919
▁factory	-10.9922
life	-10.9926
bt	-10.9927
▁walls	-10.9928
▁höhere	-10.9928
▁Or	-10.993
▁Bein	-10.9933
▁Experten	-10.9935
▁Air	-10.9936
▁driver	-10.9949
▁Hunde	-10.995
▁Wal	-10.9954
▁verteilt	-10.9962
▁Umstände	-10.9962
▁Einstellung	-10.9962
▁artificial	-10.9964
▁Jack	-10.9967
▁bezahlt	-10.9967
▁consumption	-10.9968
▁Mitarbeiter	-10.9969
▁worrie	-10.9972
▁brief	-10.9978
▁Erkenntnis	-10.9979
▁Gedanke	-10.9983
▁nötig	-10.9985
▁knowing	-10.9991
▁spielte	-10.9994
▁Volk	-10.9994
sta	-10.9997
ank	-11.0004
▁einiger	-11.0004
▁inspiriert	-11.0006
qui	-11.0012
▁Januar	-11.0026
▁grundsätzlich	-11.0026
▁Stanford	-11.0026
▁entworfen	-11.0026
▁Zitat	-11.0026
▁erlebt	-11.0026
▁dinner	-11.0026
▁politician	-11.0027
▁unge	-11.0028
▁sichtbar	-11.0031
▁Star	-11.0044
wo	-11.0046
▁einge	-11.0051
orker	-11.0053
▁Perspektive	-11.0058
▁plane	-11.006
▁Netzwerke	-11.0061
▁author	-11.0062
▁proper	-11.0065
gegangen	-11.0066
▁th	-11.0066
▁Stimmen	-11.0077
▁dauert	-11.0083
▁po	-11.0083
desto	-11.0085
▁emotion	-11.0085
▁lies	-11.009
▁elephant	-11.009
▁epidemic	-11.009
▁opinion	-11.009
▁Haufen	-11.009
▁unterscheiden	-11.0091
qua	-11.0093
▁Metapher	-11.0096
greifen	-11.0096
▁distribution	-11.0097
▁Zeitalter	-11.01
▁unles	-11.0102
▁Top	-11.0103
▁string	-11.0106
▁Folge	-11.0113
▁stelle	-11.0113
▁organic	-11.0115
▁verbrachte	-11.0117
▁master	-11.0124
▁holen	-11.0126
▁enorm	-11.0126
▁offene	-11.0129
▁Grenze	-11.0133
▁surprised	-11.0133
▁nützlich	-11.014
▁Wie	-11.0142
▁Sorgen	-11.0144
▁Gi	-11.0144
▁Rot	-11.0146
▁Vogel	-11.0149
bu	-11.015
▁Videos	-11.0151
▁erster	-11.0152
▁Finanz	-11.0153
▁identify	-11.0155
▁laptop	-11.0155
▁Dinosaurier	-11.0155
▁Stress	-11.0155
▁weather	-11.0156
▁error	-11.0156
▁lay	-11.0157
▁Kohlenstoff	-11.0158
daten	-11.0163
▁sensor	-11.0165
▁65	-11.017
▁32	-11.0177
▁occurr	-11.0182
▁Nationen	-11.0183
▁nah	-11.0187
▁taste	-11.0191
▁mögliche	-11.0192
▁Jahrzehnte	-11.0198
▁load	-11.0198
▁brings	-11.0201
▁collapse	-11.0207
ick	-11.0207
▁authorit	-11.0212
▁dran	-11.0213
▁zukünftige	-11.0213
▁Lu	-11.0218
▁Laufe	-11.0219
▁dolphin	-11.0221
▁nervous	-11.0221
▁unterstützt	-11.0221
▁curious	-11.0221
▁joy	-11.0221
▁beantworten	-11.0221
▁Null	-11.0223
▁26	-11.0226
▁Elemente	-11.0227
▁Pat	-11.0229
▁Der	-11.0237
▁Galaxien	-11.0241
▁Bauern	-11.0248
▁equip	-11.0254
▁Hans	-11.0264
bereich	-11.0273
▁passt	-11.0274
▁galax	-11.0284
▁dry	-11.0285
▁Räume	-11.0286
stadt	-11.0286
▁Märkte	-11.0286
▁Brown	-11.0286
▁peak	-11.0287
▁2,000	-11.0289
▁bedeuten	-11.0292
▁Website	-11.0295
▁erhält	-11.0298
▁Mary	-11.03
▁Vorteil	-11.0302
▁realiz	-11.0303
▁surround	-11.0305
▁Lied	-11.0306
▁Not	-11.0308
▁zoom	-11.0312
▁spoke	-11.0312
▁Fl	-11.0314
▁statistics	-11.0324
▁gehalten	-11.0325
kosystem	-11.0326
▁due	-11.0331
▁Glauben	-11.0345
wand	-11.0346
▁abhängig	-11.035
▁discuss	-11.0351
▁emotions	-11.0352
▁Brazil	-11.0352
▁channel	-11.0353
▁rural	-11.0353
▁awful	-11.0353
▁skill	-11.0353
▁marriage	-11.0353
▁vertraut	-11.0353
▁Unterhaltung	-11.0353
▁Ausmaß	-11.0355
▁hoffen	-11.036
▁Sea	-11.0363
uhause	-11.0366
▁Schwester	-11.0379
over	-11.0392
▁killing	-11.0396
ped	-11.0405
ray	-11.0408
▁Aspekt	-11.0412
▁gäbe	-11.0419
▁intellectual	-11.0419
▁verbreiten	-11.0419
▁rocket	-11.0421
▁komm	-11.0422
▁marri	-11.0422
▁120	-11.0424
▁heran	-11.0426
▁Wettbewerb	-11.0426
▁beobachtet	-11.0427
▁soviel	-11.0428
▁fourth	-11.0436
kennt	-11.0437
▁besondere	-11.0438
▁versteh	-11.0441
▁Ro	-11.0443
leg	-11.0443
▁frühe	-11.0449
▁auseinander	-11.0457
▁Her	-11.046
stoff	-11.046
▁Rück	-11.0466
▁Weil	-11.0476
▁Führung	-11.048
▁solid	-11.0482
▁gesunde	-11.0485
▁crack	-11.0486
▁fortunate	-11.0486
▁perception	-11.0487
▁justice	-11.0487
▁wundervolle	-11.0489
▁Kohle	-11.049
les	-11.049
▁zugänglich	-11.0492
par	-11.0494
▁10.000	-11.0495
▁Klein	-11.0495
▁winzige	-11.0497
▁highest	-11.0499
▁theater	-11.0499
▁frage	-11.05
▁cure	-11.0501
▁Brust	-11.0502
▁ange	-11.0503
▁Mi	-11.0505
▁actor	-11.0508
▁21.	-11.051
▁erfinden	-11.0514
▁Insel	-11.0515
▁indische	-11.0517
▁bekamen	-11.0521
con	-11.0523
▁erstellt	-11.0523
▁glaubte	-11.0528
gekommen	-11.0531
▁rede	-11.0533
▁Cha	-11.0534
▁feels	-11.0537
weg	-11.054
▁govern	-11.0549
▁exchange	-11.055
▁Viren	-11.0554
▁analog	-11.0557
▁Produktion	-11.0563
cken	-11.0568
▁Kontinent	-11.0569
▁Nord	-11.0572
▁schwarz	-11.0573
▁existieren	-11.0577
▁mentioned	-11.0594
ete	-11.0594
▁Helden	-11.0595
▁ring	-11.0604
▁speziell	-11.0621
▁sugar	-11.0622
▁survey	-11.0622
▁Hollywood	-11.0622
▁feedback	-11.0622
▁fördern	-11.0622
▁gehören	-11.0624
gezogen	-11.0634
▁Annahme	-11.0638
▁ride	-11.064
▁Ehe	-11.0643
our	-11.0643
▁member	-11.0645
▁aufbauen	-11.0646
▁electrical	-11.0656
▁blau	-11.0662
▁beinhaltet	-11.0663
▁limited	-11.067
▁Eric	-11.067
▁reichen	-11.0686
▁Lebewesen	-11.069
▁Oxford	-11.069
▁Con	-11.0691
▁Zucker	-11.0691
▁Wesentliche	-11.0691
▁Derek	-11.0691
▁SMS	-11.0691
▁Japanese	-11.0691
▁employee	-11.0691
▁Heimat	-11.0692
▁tail	-11.0692
▁construction	-11.0693
▁fell	-11.0694
▁yester	-11.0694
▁Gleiche	-11.0695
▁entstanden	-11.0698
wisst	-11.0698
▁100,000	-11.0699
▁wenigsten	-11.07
lage	-11.0711
▁parallel	-11.0713
▁erwähnt	-11.0713
▁Teilchen	-11.0718
▁brauche	-11.0721
▁stone	-11.0722
led	-11.0725
▁Korea	-11.0727
▁zerstört	-11.073
▁virtuelle	-11.0739
▁soldiers	-11.0741
▁Krise	-11.0742
▁phones	-11.0747
▁agricultur	-11.0748
mann	-11.0749
▁consequences	-11.0752
▁ließen	-11.0756
▁speaker	-11.0757
▁Geschäfts	-11.0759
▁van	-11.0759
▁Brasilien	-11.0759
▁Foundation	-11.0759
▁Project	-11.0759
▁Wirkung	-11.076
▁Einrichtung	-11.076
▁Eindruck	-11.076
▁entspricht	-11.0761
▁Beweise	-11.0762
▁zerstören	-11.0769
▁Abschluss	-11.0769
triff	-11.077
▁Zwei	-11.0773
nis	-11.0778
▁Bedürfnisse	-11.078
bauen	-11.0785
▁Werk	-11.0787
▁Meilen	-11.0789
▁Träume	-11.0793
▁Organismen	-11.0798
▁seines	-11.08
▁technische	-11.0803
▁fat	-11.0803
▁Hu	-11.0805
cht	-11.0814
▁associate	-11.0819
▁seltsame	-11.0826
▁spider	-11.0829
▁transparent	-11.0829
▁tomorrow	-11.0829
▁evil	-11.0829
▁Malaria	-11.0829
▁operate	-11.083
wert	-11.0831
▁Garten	-11.0833
▁Mac	-11.0836
▁belong	-11.0842
▁Dach	-11.085
▁detect	-11.0855
ping	-11.0858
▁wheel	-11.086
▁users	-11.0867
▁Stand	-11.0869
▁scan	-11.0876
▁blow	-11.0882
▁Methoden	-11.0885
ort	-11.0896
▁Kapital	-11.0899
▁volunteer	-11.0899
▁property	-11.0899
▁verbindet	-11.0899
fish	-11.09
▁harder	-11.0901
▁kick	-11.0901
wegs	-11.0903
▁Text	-11.0906
▁automatisch	-11.091
▁lifetime	-11.091
ov	-11.0913
▁setting	-11.0914
▁steigen	-11.0914
▁chicken	-11.0917
ill	-11.0918
▁Hoch	-11.0923
▁fäng	-11.093
▁gather	-11.0931
▁Ernährung	-11.0941
▁climb	-11.0946
▁schlagen	-11.0949
port	-11.0949
▁95	-11.0949
▁Hai	-11.0952
▁Ad	-11.0954
▁Forschungs	-11.0957
▁behalten	-11.0962
▁Planet	-11.0962
▁drübe	-11.0966
leistung	-11.0969
▁ancestor	-11.0969
▁empty	-11.0969
▁entertain	-11.0969
▁fellow	-11.097
▁Füße	-11.097
▁demonstrate	-11.0971
▁erscheinen	-11.0973
▁grown	-11.0973
▁toilet	-11.0976
▁collection	-11.0978
▁reicht	-11.098
kon	-11.0982
▁Schrift	-11.0983
▁physische	-11.0985
▁mothers	-11.0994
▁fle	-11.0994
verständlich	-11.0998
maßen	-11.1
▁shoot	-11.1001
▁hide	-11.1003
▁künstliche	-11.1007
▁symmetr	-11.1011
▁Zug	-11.1015
▁angenommen	-11.1018
▁shapes	-11.1022
eln	-11.1024
▁extract	-11.1025
▁dimensions	-11.1027
getragen	-11.1028
▁sh	-11.1031
▁burn	-11.1034
platz	-11.1036
▁shop	-11.1037
▁Elektrizität	-11.104
▁pleasure	-11.104
▁Open	-11.104
▁malaria	-11.104
▁applie	-11.1041
▁zahlen	-11.1041
▁TEDTalk	-11.1041
▁initial	-11.1042
▁musician	-11.1043
Mail	-11.1044
ese	-11.1045
▁berührt	-11.1047
▁Post	-11.1054
▁gelesen	-11.1055
probieren	-11.1059
▁economics	-11.106
Gesundheitswesen	-11.1061
▁shoes	-11.1061
▁zählen	-11.1062
▁camp	-11.1068
▁weiteren	-11.1072
▁Generationen	-11.1072
▁losing	-11.1073
▁vi	-11.1076
▁entdeckte	-11.1078
▁Gates	-11.1081
gesehen	-11.1085
▁patent	-11.1085
car	-11.1093
▁grab	-11.1094
▁übrig	-11.1095
▁legt	-11.1101
▁eng	-11.1106
▁Smith	-11.1112
▁stupid	-11.1112
▁geändert	-11.1112
▁Hinsicht	-11.1112
▁reduzieren	-11.1112
log	-11.1112
▁Muskel	-11.1112
▁mark	-11.1113
▁flies	-11.1113
▁Wohlstand	-11.1115
▁2001	-11.1116
▁28	-11.1116
▁boom	-11.1118
▁definieren	-11.1119
za	-11.1119
ney	-11.1121
▁infect	-11.1123
▁kannte	-11.1125
▁Lauf	-11.1132
▁pig	-11.1133
selber	-11.1134
ari	-11.1145
▁Bewegungen	-11.116
▁matters	-11.116
▁verschieden	-11.1164
▁spaces	-11.1167
▁Act	-11.1175
▁Kombination	-11.1184
▁explor	-11.1187
▁orange	-11.1191
ker	-11.1191
▁teuer	-11.1191
▁Union	-11.1192
▁Weltraum	-11.1193
▁verbessert	-11.1194
▁grid	-11.1199
alität	-11.1201
▁geschickt	-11.1205
bility	-11.1208
▁Arbeiter	-11.1209
istische	-11.1209
▁biete	-11.1215
▁mistake	-11.1217
▁Fakten	-11.1218
▁reform	-11.1219
▁Uni	-11.1223
▁battle	-11.1224
wenden	-11.1225
del	-11.123
▁folks	-11.1233
rew	-11.1241
▁möge	-11.1242
▁meiste	-11.1243
▁verschwinden	-11.1243
mus	-11.1244
ischer	-11.1244
▁clinic	-11.1245
▁kompliziert	-11.1247
▁grün	-11.1252
▁Wein	-11.1256
▁Florida	-11.1256
▁Mexiko	-11.1256
▁chimpanzee	-11.1256
▁equation	-11.1256
▁gestorben	-11.1256
▁Schatten	-11.1256
▁brachten	-11.1256
▁bildet	-11.1256
▁Theater	-11.1258
▁flat	-11.1261
▁enem	-11.1264
▁stoo	-11.1264
▁Schiff	-11.1266
▁continu	-11.1266
▁wake	-11.1269
▁clinical	-11.1276
▁comfortabl	-11.1277
▁Rücken	-11.1278
▁gang	-11.1284
ag	-11.1285
hu	-11.1287
▁arme	-11.1289
▁generations	-11.1291
▁v	-11.1292
▁Details	-11.1295
▁linke	-11.1298
▁meinte	-11.1303
▁194	-11.1314
▁print	-11.1318
schrift	-11.1319
weite	-11.1321
▁Entwicklungsl	-11.1325
▁Spiegel	-11.1325
▁happi	-11.1328
▁Definition	-11.1329
▁Manhattan	-11.1329
▁eindeutig	-11.1329
▁joke	-11.1329
▁liberal	-11.1329
▁vergangen	-11.1329
▁Korruption	-11.1329
▁studieren	-11.1329
▁corruption	-11.133
▁gegenseitig	-11.1336
▁Lern	-11.1336
▁Kirche	-11.1337
▁pen	-11.1341
▁faszinierend	-11.1345
▁meist	-11.1345
▁Rob	-11.1346
▁viruses	-11.1348
▁management	-11.1352
▁klassische	-11.1352
▁Kerl	-11.136
▁verhalten	-11.1365
▁prime	-11.1367
▁Australia	-11.1368
▁Jahres	-11.1369
▁International	-11.1369
▁gay	-11.137
▁ursprünglich	-11.1371
technik	-11.1378
▁whom	-11.1384
▁aufregend	-11.1387
▁Cent	-11.1393
▁seek	-11.1395
▁leid	-11.1395
▁dealing	-11.1398
▁permanent	-11.1403
▁fasziniert	-11.1403
▁official	-11.1403
▁vessel	-11.1403
▁Homo	-11.1403
▁Freundin	-11.1403
▁combination	-11.1403
▁poem	-11.1404
▁review	-11.1404
▁Werbung	-11.1408
▁Hotel	-11.141
▁comment	-11.1416
▁Arbeiten	-11.1418
▁volume	-11.142
▁grain	-11.1421
gibt	-11.1425
▁zone	-11.1425
▁opening	-11.1426
▁Mut	-11.1427
▁weibliche	-11.1437
▁hack	-11.1438
tz	-11.1438
▁suppose	-11.1442
▁players	-11.1445
▁broke	-11.1445
▁Sam	-11.1451
▁Organ	-11.1452
for	-11.1452
▁Gore	-11.1453
▁Gesamt	-11.1463
▁Mad	-11.1465
▁Canad	-11.1466
▁Erste	-11.1466
sam	-11.1468
▁Armen	-11.1468
▁Vorfahre	-11.1469
▁Satelliten	-11.1469
▁construct	-11.1473
▁pocket	-11.1477
▁quasi	-11.1477
▁battery	-11.1477
▁heavy	-11.1477
▁Darstellung	-11.1477
▁illness	-11.1477
iz	-11.1477
▁gender	-11.1477
▁beispiels	-11.1478
▁Aktion	-11.1484
▁33	-11.1488
▁hang	-11.1489
▁beschlossen	-11.1491
▁credit	-11.1503
▁App	-11.1506
▁fähig	-11.1506
markt	-11.1508
zellen	-11.1511
▁Gebiete	-11.1511
▁assume	-11.1515
▁Molekül	-11.1519
▁note	-11.1521
▁spring	-11.1523
▁anstelle	-11.1523
theorie	-11.1529
▁derselbe	-11.1529
pan	-11.1538
▁fields	-11.154
▁beschloss	-11.1542
▁Patient	-11.1544
▁Chemie	-11.1551
▁maintain	-11.1551
▁physicist	-11.1551
▁trillion	-11.1551
▁incentive	-11.1551
▁humor	-11.1552
▁poetry	-11.1552
▁Linien	-11.1552
▁transition	-11.1554
▁besuche	-11.1556
▁erschein	-11.1561
▁crop	-11.1561
▁morgens	-11.1563
▁Signal	-11.1569
weile	-11.157
▁Emotionen	-11.157
▁steps	-11.1576
▁Zweck	-11.1579
ified	-11.1582
graben	-11.1586
▁leiden	-11.1586
ami	-11.1587
▁kreativ	-11.1587
▁Ereignisse	-11.1589
▁stärker	-11.1591
▁typically	-11.1593
power	-11.1599
top	-11.1606
▁Süd	-11.1608
▁deeper	-11.1609
▁signals	-11.1609
▁Viel	-11.161
egenteil	-11.1612
ious	-11.1613
▁Gewinn	-11.1613
▁gun	-11.1616
▁tape	-11.1621
▁Alzheimer	-11.1626
▁Cambridge	-11.1626
▁explanation	-11.1626
▁sweet	-11.1626
▁teeth	-11.1626
▁Okay	-11.1626
▁Saturn	-11.1626
▁definite	-11.1627
▁Berechnung	-11.1627
▁Deutschland	-11.1627
▁tall	-11.1627
wissenschaftler	-11.1627
▁darstellen	-11.1628
▁accurate	-11.163
▁Gericht	-11.1631
▁tiefer	-11.1632
▁äußerst	-11.1632
▁partner	-11.1633
▁gewählt	-11.1633
▁versteckt	-11.1635
ville	-11.1635
▁Brita	-11.1637
▁bill	-11.1638
fallen	-11.1641
raten	-11.1641
▁Anteil	-11.1641
▁parent	-11.1641
▁tear	-11.1642
▁appropriate	-11.1645
▁determine	-11.165
▁bike	-11.165
▁rights	-11.1657
▁conduct	-11.1658
▁momentan	-11.1658
schläg	-11.1674
▁nurse	-11.1677
▁Don	-11.1681
▁Kenia	-11.1686
▁schlechter	-11.1689
schw	-11.169
▁Start	-11.1695
▁winzig	-11.1698
▁Geheimnis	-11.1699
▁Köpfe	-11.1702
▁Second	-11.1702
▁encounter	-11.1702
▁sculpture	-11.1702
▁Maßstab	-11.1702
▁Winter	-11.1703
▁carrie	-11.1708
kind	-11.1709
▁status	-11.1714
▁plate	-11.1714
▁propose	-11.1723
eb	-11.1724
wirtschaft	-11.1724
▁Musiker	-11.1725
▁director	-11.1726
▁Gesichter	-11.1727
▁Gras	-11.1732
brechen	-11.1734
▁judge	-11.174
fach	-11.174
▁Steven	-11.1741
▁properti	-11.1741
gar	-11.1742
light	-11.1743
▁Kurs	-11.1744
▁Bereiche	-11.1747
▁voices	-11.1747
▁ersetzen	-11.1758
isieren	-11.1761
back	-11.1763
mittel	-11.1765
▁UN	-11.1766
▁annehmen	-11.1772
▁Wo	-11.1775
▁Ozeane	-11.1778
▁jung	-11.1778
▁Potential	-11.1779
▁irgendjemand	-11.1779
▁convert	-11.1779
▁vermitteln	-11.1779
▁Geschenk	-11.1779
▁Auswahl	-11.1779
▁Daniel	-11.1779
▁Swed	-11.1779
▁valuable	-11.1779
▁Umfeld	-11.1779
▁title	-11.1779
▁Rock	-11.1781
▁erforscht	-11.1781
▁ignore	-11.1784
▁presentation	-11.1786
▁broad	-11.1791
▁aufzubauen	-11.1791
▁customer	-11.1794
▁provid	-11.1796
▁nett	-11.1799
▁Instrument	-11.1801
▁mention	-11.1814
▁moves	-11.1814
source	-11.1814
▁derzeit	-11.1816
ziel	-11.1816
▁jedenfall	-11.1817
▁Prozesse	-11.1818
▁kalt	-11.1819
▁She	-11.1822
▁Stufe	-11.1826
fin	-11.1829
sicht	-11.1831
▁mittel	-11.1838
▁obere	-11.1839
▁Sal	-11.184
▁gross	-11.1841
▁tea	-11.1848
▁Br	-11.185
▁prototype	-11.1855
▁regard	-11.1855
▁existence	-11.1855
▁gebraucht	-11.1856
▁unglücklich	-11.1856
▁Ausstellung	-11.1856
▁aufge	-11.1857
▁hotel	-11.1859
▁Hallo	-11.1859
▁analysis	-11.1859
▁Batterie	-11.1861
▁Präsentation	-11.1862
▁cutting	-11.1863
▁Wetter	-11.1864
▁biologist	-11.1866
▁inspiration	-11.1869
▁Roman	-11.1879
▁Ingenieur	-11.188
▁vorne	-11.1884
▁85	-11.1888
▁Da	-11.1889
▁zentrale	-11.1896
▁Ruf	-11.1896
scale	-11.1903
▁sozial	-11.1903
▁Erwachsene	-11.1904
▁verwandelt	-11.1907
▁Nachbarn	-11.1908
geschichte	-11.1909
ris	-11.1911
tel	-11.1913
▁effektiv	-11.1913
▁arms	-11.1914
▁Mai	-11.1926
▁Löcher	-11.1933
▁criminal	-11.1933
▁ruhig	-11.1933
▁silence	-11.1933
barkeit	-11.1933
▁lawyer	-11.1934
▁verdient	-11.1934
▁passionate	-11.1934
▁worldwide	-11.1936
▁Südafrika	-11.1938
▁Zufall	-11.1939
▁protection	-11.1939
▁Nase	-11.1944
▁erkennt	-11.1946
gegeben	-11.1951
material	-11.1952
▁White	-11.1953
über	-11.1954
▁One	-11.1956
▁studio	-11.196
▁gelöst	-11.1963
ßen	-11.1968
▁celebrate	-11.1974
fähig	-11.1976
▁Effekt	-11.1977
pri	-11.1978
▁ten	-11.1978
▁konzentriert	-11.1979
▁tap	-11.198
▁Vögel	-11.1981
gruppe	-11.1983
▁Architekten	-11.1986
▁solv	-11.1995
▁Kulturen	-11.1997
▁teilt	-11.1999
▁fern	-11.2
mehr	-11.2001
▁Steuer	-11.2004
▁Lab	-11.2006
▁attract	-11.2008
▁Februar	-11.2011
▁Wurzel	-11.2011
▁liquid	-11.2011
▁silk	-11.2011
▁implication	-11.2011
▁Dunkel	-11.2011
▁collaboration	-11.2011
▁Meeres	-11.2014
▁sight	-11.2014
▁Seele	-11.2014
ight	-11.202
▁Bay	-11.2026
▁addition	-11.2038
▁ba	-11.2039
▁contribute	-11.2039
▁gespielt	-11.204
ual	-11.204
ür	-11.204
▁195	-11.2045
▁chemistr	-11.2047
▁Lager	-11.2051
▁Ru	-11.2054
▁gewissen	-11.2059
2-	-11.2062
ade	-11.2062
ile	-11.2066
▁estimate	-11.2067
▁heads	-11.2075
▁player	-11.2075
▁Erfindung	-11.208
▁facilit	-11.208
▁button	-11.2083
▁novel	-11.2086
▁attach	-11.2089
▁verfolgt	-11.209
▁technological	-11.209
▁conclusion	-11.209
▁Großmutter	-11.209
▁hydrogen	-11.209
▁LED	-11.209
▁Howard	-11.209
▁außen	-11.209
▁Entfernung	-11.2095
▁mortality	-11.2107
▁emergenc	-11.2109
rand	-11.2109
voll	-11.2113
hören	-11.2115
▁hall	-11.2119
▁tank	-11.2119
▁ma	-11.2124
▁inform	-11.2129
▁bor	-11.2132
ose	-11.2136
▁mathematical	-11.2137
oc	-11.2145
▁Verhaltens	-11.2146
▁relate	-11.2146
▁myth	-11.2149
gleichen	-11.2153
▁Aufnahme	-11.2154
▁zusammenarbeite	-11.2155
▁restaurant	-11.2157
fisch	-11.216
▁soft	-11.2161
schutz	-11.2162
▁700	-11.2166
▁Ex	-11.2168
▁Nor	-11.2169
▁CEO	-11.2169
▁calculate	-11.2169
▁illusion	-11.2169
▁vulnerabl	-11.2169
▁Stuhl	-11.2169
▁Bedrohung	-11.2169
▁psychology	-11.2169
▁lady	-11.217
▁north	-11.217
▁Brian	-11.217
organisation	-11.2173
foot	-11.2175
▁iron	-11.2177
▁Camp	-11.2177
▁sites	-11.2178
▁coal	-11.2178
▁peer	-11.2182
▁hate	-11.2189
▁gebete	-11.2196
▁habitat	-11.22
heim	-11.22
▁Red	-11.2201
▁zusätzlich	-11.2201
▁Medikament	-11.2203
▁Sprach	-11.2206
▁Magie	-11.2206
▁Show	-11.2211
▁entscheidend	-11.2211
▁programm	-11.2215
elle	-11.2215
▁politisch	-11.222
▁horse	-11.2226
Be	-11.2228
▁root	-11.2231
▁chart	-11.2231
▁Stärke	-11.2236
▁entstand	-11.2242
▁south	-11.2247
▁Verhältnis	-11.2248
▁emotionale	-11.2248
arbeiten	-11.2249
▁danger	-11.2249
▁Existenz	-11.2249
▁Teenager	-11.2249
▁unusual	-11.2249
▁Atem	-11.2249
licht	-11.2254
machen	-11.2256
met	-11.2257
▁10-	-11.2258
▁vermeiden	-11.2259
0	-11.2261
▁Anti	-11.2269
▁seid	-11.227
station	-11.2271
▁historical	-11.2271
▁feststelle	-11.2274
▁Neues	-11.2276
▁categor	-11.2281
sprechen	-11.2281
▁individuelle	-11.2282
▁sucht	-11.2283
▁embrace	-11.2285
▁Fe	-11.2287
endlich	-11.2299
sichtlich	-11.2301
▁manufactur	-11.2301
druck	-11.2307
sprache	-11.2311
▁Verlust	-11.2316
steigen	-11.232
▁cat	-11.2323
▁antwortete	-11.2326
▁zieht	-11.2327
funktion	-11.2329
▁Gemälde	-11.233
▁Studio	-11.233
▁fiber	-11.233
▁Viertel	-11.233
▁verglich	-11.233
▁beinahe	-11.233
▁shame	-11.2333
▁Rio	-11.2334
▁langweilig	-11.2334
holen	-11.2334
▁soul	-11.2336
▁Schau	-11.2336
▁Klinik	-11.2337
zig	-11.234
▁Buchstaben	-11.2342
▁trug	-11.2345
▁Momente	-11.2345
▁Mc	-11.2347
▁solcher	-11.2352
val	-11.2353
▁user	-11.2356
▁Pla	-11.2359
▁Diagramm	-11.2359
tun	-11.2362
▁Geräusche	-11.2362
▁schätzen	-11.2367
▁überlegen	-11.2367
▁beweis	-11.2368
▁allgemeine	-11.237
ep	-11.2371
▁Eins	-11.2371
▁hierher	-11.2378
▁Statistiken	-11.238
▁musical	-11.238
▁komplex	-11.2383
▁emerge	-11.2383
verhalten	-11.2385
▁Bereichen	-11.2392
▁bla	-11.2393
folge	-11.2394
▁details	-11.2399
▁Pi	-11.2403
▁weltweite	-11.2407
▁Echtzeit	-11.2411
▁President	-11.2411
▁client	-11.2411
▁kreieren	-11.2411
▁britische	-11.2411
▁englische	-11.2411
▁heisst	-11.2411
▁steel	-11.2411
▁loud	-11.2411
▁teilweise	-11.2412
▁Koran	-11.2412
▁Long	-11.2413
▁winter	-11.2413
▁nerve	-11.2414
▁Aussage	-11.2416
▁teenager	-11.2417
▁Kev	-11.2418
▁quant	-11.2418
▁definiert	-11.2419
▁maps	-11.2419
quelle	-11.242
rei	-11.2423
▁anschaut	-11.2423
▁industrielle	-11.2424
▁eigen	-11.243
▁adopt	-11.2435
▁liefer	-11.2438
kreis	-11.2438
vis	-11.245
▁steuern	-11.2453
▁sparen	-11.2453
▁11.	-11.2453
▁chemicals	-11.2456
van	-11.2474
ground	-11.2478
▁passen	-11.2478
schule	-11.2481
oo	-11.249
▁willst	-11.2491
politik	-11.2493
▁Australien	-11.2493
▁Pacific	-11.2493
▁arabische	-11.2493
▁überwinden	-11.2493
▁mathematische	-11.2493
▁Anführer	-11.2493
▁healthcare	-11.2494
▁entfern	-11.2494
▁gefällt	-11.2495
▁König	-11.2496
▁Look	-11.2496
▁prediction	-11.2499
▁infinite	-11.2499
▁statement	-11.25
▁cultures	-11.2501
▁tradition	-11.2502
versorgung	-11.2506
▁nest	-11.2509
uer	-11.2519
▁rat	-11.2527
eah	-11.2527
▁chip	-11.253
tisch	-11.2532
▁Interessen	-11.2538
▁victims	-11.2539
▁veränderte	-11.2541
▁dank	-11.2541
▁aufhör	-11.2542
▁Ho	-11.2548
▁Amy	-11.2552
▁religiöse	-11.2555
▁menschlicher	-11.256
▁former	-11.2566
▁schreckliche	-11.2572
▁decline	-11.2575
berraschung	-11.2576
▁Congress	-11.2576
▁Verbesserung	-11.2576
▁gelebt	-11.2576
▁Solar	-11.2576
▁ladies	-11.2576
▁Hunger	-11.2576
▁court	-11.2576
▁reference	-11.2576
▁fake	-11.2576
▁Stock	-11.2577
▁dahinter	-11.2577
▁drone	-11.2577
▁efficienc	-11.2581
▁Schulter	-11.2585
gh	-11.2585
▁Ausnahme	-11.2586
▁Par	-11.259
ory	-11.2594
▁bezeichnet	-11.2599
stück	-11.2606
▁Folgen	-11.261
▁Sicherheits	-11.2619
unter	-11.262
▁previous	-11.2627
▁rück	-11.2631
▁formen	-11.2633
▁Geräusch	-11.2637
chi	-11.2641
▁heißen	-11.2642
▁kosten	-11.2649
grund	-11.2651
konom	-11.2656
▁Risik	-11.2656
▁sprachen	-11.2658
▁NGO	-11.2659
▁Taliban	-11.2659
▁reagiert	-11.2659
▁symptom	-11.2659
▁Schlaf	-11.266
▁worauf	-11.266
ison	-11.2661
jo	-11.2662
▁ledig	-11.2663
▁label	-11.2664
▁telephone	-11.2666
lei	-11.2667
▁Bus	-11.267
▁height	-11.2671
▁icon	-11.2673
▁Süden	-11.2674
▁beach	-11.2675
▁ergibt	-11.2677
▁Moral	-11.2678
▁obes	-11.2678
▁automatic	-11.2679
▁quarter	-11.2683
▁Handel	-11.2683
▁nimm	-11.2687
▁Blumen	-11.269
▁Ur	-11.27
macht	-11.2701
▁besorgt	-11.2703
▁Kan	-11.2709
▁besagt	-11.2711
▁aufnehmen	-11.2714
▁hinten	-11.2717
▁linear	-11.2719
▁Belohnung	-11.272
▁schwieriger	-11.2721
▁aging	-11.2722
▁Grundlage	-11.2722
▁Spa	-11.2724
▁erkannt	-11.2732
▁weak	-11.2733
▁entgegen	-11.2738
▁Hinter	-11.2739
holfen	-11.2743
▁FBI	-11.2743
▁darstellt	-11.2743
▁Kongress	-11.2743
▁gravity	-11.2743
▁Fahrrad	-11.2743
▁Moore	-11.2743
▁kitchen	-11.2743
▁darunter	-11.2744
▁evolutionary	-11.2744
▁threaten	-11.2745
▁Metall	-11.2745
▁Nutzung	-11.2745
▁PM	-11.2748
▁schickte	-11.2749
▁length	-11.275
▁alien	-11.2753
▁Nein	-11.2753
▁sc	-11.2754
part	-11.2754
▁Tests	-11.2757
▁script	-11.2758
▁interessanter	-11.2759
▁hero	-11.276
▁stock	-11.2768
ender	-11.2768
▁Sir	-11.2769
tung	-11.2771
▁Schritte	-11.2772
gerät	-11.2775
▁react	-11.2776
▁therap	-11.2779
▁measur	-11.278
▁prepared	-11.2781
fälle	-11.2784
▁bare	-11.2786
▁sheet	-11.2789
▁Rose	-11.279
▁nor	-11.2791
▁Wall	-11.2792
mut	-11.2792
bung	-11.2794
▁Galaxie	-11.2808
▁Lee	-11.2808
▁forgot	-11.2812
▁ski	-11.2821
▁schwierige	-11.2821
▁Fach	-11.2821
▁shoulder	-11.2828
▁circumstance	-11.2828
▁fiction	-11.2828
▁lecture	-11.2828
▁privilege	-11.2828
▁sphere	-11.2828
▁snow	-11.2828
▁charit	-11.2828
▁Blatt	-11.2828
▁Andrew	-11.2828
▁Kabel	-11.2829
▁prize	-11.2829
▁observation	-11.2829
▁seht	-11.2829
▁doubt	-11.2836
bildung	-11.2839
▁hire	-11.284
▁Willen	-11.284
▁photographs	-11.2841
lon	-11.2842
▁season	-11.2843
▁lebendig	-11.2847
▁Kampagne	-11.2849
▁Pflege	-11.2852
▁Ray	-11.2856
wärts	-11.2867
▁Körpers	-11.2879
▁organ	-11.2897
▁cave	-11.2906
▁dirt	-11.2913
▁Schicksal	-11.2913
▁kollektive	-11.2913
▁psychological	-11.2913
▁molecular	-11.2913
▁Zähne	-11.2914
▁sustainability	-11.2914
ju	-11.2914
▁5,000	-11.2915
▁firm	-11.2917
▁Erwachsenen	-11.2917
uadrat	-11.2918
▁Unfall	-11.2919
▁bemerkenswert	-11.2921
▁Kar	-11.2925
▁trend	-11.2927
▁element	-11.2928
▁Jona	-11.2929
▁Am	-11.293
ham	-11.2932
▁bemerken	-11.2934
technologie	-11.2936
▁weiße	-11.2938
▁verstehe	-11.2938
▁Tor	-11.2938
▁Hall	-11.2942
▁19.	-11.2943
▁Damen	-11.2944
▁anwende	-11.2948
▁king	-11.2965
▁kriegen	-11.2965
▁cent	-11.2969
▁kontrolliert	-11.2974
ear	-11.2974
gesellschaftlich	-11.2974
▁Rechte	-11.2975
▁Interview	-11.2979
▁dinosaurs	-11.2986
▁shut	-11.2989
füllen	-11.2992
▁erhöh	-11.2993
forschung	-11.2998
▁Persönlichkeit	-11.3
▁hieß	-11.3
▁scheinbar	-11.3
▁Jesus	-11.3
▁reduziert	-11.3
▁Jeff	-11.3
▁primary	-11.3
▁Christian	-11.3
▁reverse	-11.3
▁variation	-11.3001
▁3,000	-11.3003
▁Weltkrieg	-11.3004
Fi	-11.3005
▁handle	-11.3008
▁animation	-11.301
▁terrorism	-11.3011
▁gefangen	-11.3013
schein	-11.3017
stock	-11.3021
▁Herren	-11.3022
▁cup	-11.3022
row	-11.3024
▁nachhaltige	-11.3028
▁limb	-11.303
▁atoms	-11.3031
upp	-11.3031
rus	-11.3041
merken	-11.3043
▁allgemein	-11.3043
spüren	-11.3044
▁800	-11.3045
▁situations	-11.3052
visible	-11.3062
▁Brücke	-11.3066
ica	-11.3067
unt	-11.3068
▁injur	-11.307
▁berühmte	-11.3079
▁Bu	-11.308
▁hyper	-11.308
▁höre	-11.3081
▁gründete	-11.3086
▁Allgemein	-11.3086
▁Chemikalien	-11.3086
▁Nachhaltigkeit	-11.3086
▁Respekt	-11.3086
▁advice	-11.3086
▁license	-11.3086
▁unexpected	-11.3086
▁gegründet	-11.3087
▁spectrum	-11.3087
▁drill	-11.3087
▁Day	-11.3087
▁Debatte	-11.3087
▁witness	-11.3087
▁Pfund	-11.3087
▁Verbrechen	-11.3088
▁organs	-11.3088
▁sowas	-11.3089
▁Grand	-11.3089
▁marketing	-11.3089
uellen	-11.3091
▁split	-11.3092
▁akzeptieren	-11.3093
▁kaufte	-11.3095
ied	-11.3095
ition	-11.3098
▁Plattform	-11.3098
▁wine	-11.3098
last	-11.3098
▁agent	-11.31
▁ernsthaft	-11.3103
▁pitch	-11.3104
▁Erkrankung	-11.3105
sinn	-11.3105
▁angle	-11.3115
▁Stellen	-11.3117
▁beschrieben	-11.3122
▁emissions	-11.3125
erung	-11.3131
▁Decke	-11.314
house	-11.3153
wie	-11.3153
▁Sitz	-11.3157
▁Phase	-11.3162
15	-11.3163
▁Signale	-11.3164
▁Gegenwart	-11.3174
▁Stephen	-11.3174
▁apparent	-11.3174
▁erweitern	-11.3174
▁inevitabl	-11.3174
▁insbesonder	-11.3174
▁sophisticated	-11.3174
▁staff	-11.3174
▁attitude	-11.3174
▁courage	-11.3174
▁thin	-11.3175
▁radiation	-11.3175
▁Spektrum	-11.3176
sity	-11.3177
▁Lego	-11.3177
▁academic	-11.3177
▁Newton	-11.3181
▁church	-11.3182
let	-11.3182
▁marine	-11.3183
▁intelligente	-11.3183
rad	-11.3186
▁komplizierte	-11.3187
▁Einheit	-11.3194
▁gewaltige	-11.3198
▁Ken	-11.3201
▁Armee	-11.3209
ball	-11.3211
▁recording	-11.3215
▁Gar	-11.3215
▁monitor	-11.3223
▁Can	-11.3236
▁Rad	-11.3237
wesen	-11.3238
water	-11.324
▁Programme	-11.3244
xi	-11.3244
▁input	-11.3245
cortex	-11.3248
▁mis	-11.3249
▁Wissens	-11.3254
▁contract	-11.3256
größe	-11.3262
▁Gerechtigkeit	-11.3263
▁dedicat	-11.3263
▁Klassenzimmer	-11.3263
▁Kanada	-11.3263
▁fruit	-11.3263
▁Saudi	-11.3263
kultur	-11.3263
▁böse	-11.3263
▁pollution	-11.3263
▁Marketing	-11.3264
▁medium	-11.3267
▁puzzle	-11.327
▁Law	-11.327
▁unsichtbar	-11.3272
▁zunehmend	-11.3276
stellung	-11.3282
▁behaviors	-11.3284
Ver	-11.3284
▁electronic	-11.3288
berleben	-11.3291
▁homes	-11.3298
▁abuse	-11.3298
▁earn	-11.3302
stoßen	-11.3307
▁mistakes	-11.3311
▁teil	-11.3311
▁Unterricht	-11.3316
▁limit	-11.3319
▁Fortschritte	-11.3321
▁participate	-11.3322
▁Tee	-11.3323
▁mechanical	-11.3325
ließ	-11.3329
film	-11.3332
▁Küste	-11.3333
▁Folie	-11.3334
ogen	-11.3335
▁zeichnen	-11.3336
▁challeng	-11.3343
▁Wüste	-11.3343
shalb	-11.3348
▁Titan	-11.3351
▁Wälder	-11.3352
▁Zeichnung	-11.3352
▁false	-11.3352
▁piano	-11.3352
▁Inspiration	-11.3352
▁drauf	-11.3352
▁meaningful	-11.3353
▁internal	-11.3353
▁Johnson	-11.3355
net	-11.3356
▁Therapie	-11.3358
▁Große	-11.3365
▁betr	-11.3367
▁Space	-11.3367
▁organiz	-11.3372
▁Samen	-11.3374
▁unterrichten	-11.338
▁investiert	-11.338
▁harte	-11.3383
▁dropp	-11.3384
▁orbit	-11.3385
▁phase	-11.3389
▁Pr	-11.339
▁geteilt	-11.339
zer	-11.3392
zone	-11.3402
▁Frei	-11.3407
▁hunt	-11.3407
▁wirkliche	-11.3408
▁beteiligt	-11.3414
▁grundlegend	-11.3415
▁Durchschnitt	-11.342
box	-11.3424
▁goals	-11.3425
▁Russia	-11.3426
▁photographer	-11.3426
▁receiv	-11.3427
arbeiter	-11.343
▁erhöht	-11.3433
▁trans	-11.3434
▁traurig	-11.3436
▁Streit	-11.344
▁select	-11.344
ility	-11.3442
▁Kapitel	-11.3442
▁ritual	-11.3442
▁chapter	-11.3442
destruction	-11.3442
▁Teilnehmer	-11.3442
▁Stammzellen	-11.3443
▁Riesen	-11.3443
▁advertis	-11.3443
▁vertrauen	-11.3443
▁severe	-11.3443
▁admit	-11.3443
▁loop	-11.3444
▁verließ	-11.3445
▁suck	-11.3447
▁Berge	-11.345
▁Schw	-11.3452
volle	-11.3453
▁Hill	-11.3454
▁Mama	-11.3455
literatur	-11.346
▁Wohnung	-11.3462
▁Fort	-11.3463
bot	-11.3464
▁storm	-11.3464
▁counter	-11.3465
▁organisiert	-11.3465
▁Gleichung	-11.3465
▁Betti	-11.3466
▁pilot	-11.3474
▁videos	-11.3485
ebene	-11.3485
▁lift	-11.3488
▁eggs	-11.3492
gesamt	-11.3492
▁clock	-11.35
▁burning	-11.3502
▁melt	-11.3503
istic	-11.3511
▁pet	-11.3515
▁Vorteile	-11.3515
▁funktionierte	-11.3516
▁innen	-11.3517
▁Fliegen	-11.3523
▁innere	-11.3526
▁William	-11.3528
▁ältere	-11.3528
▁umgeben	-11.3529
▁assumption	-11.3533
▁iPod	-11.3533
▁telescope	-11.3533
▁predator	-11.3533
▁flexible	-11.3533
▁Henry	-11.3533
gemacht	-11.3533
▁Terrorismus	-11.3533
▁Media	-11.3533
▁Wagen	-11.3534
trieb	-11.3534
▁exploration	-11.3535
▁Ki	-11.3537
▁elektronische	-11.3537
▁pile	-11.3539
▁lo	-11.354
▁expectation	-11.3541
▁messages	-11.3544
▁risks	-11.3545
▁1000	-11.3547
▁percentage	-11.3548
▁blog	-11.3551
▁mode	-11.3551
▁Konflikte	-11.3552
▁hunger	-11.3553
▁dogs	-11.3555
▁mad	-11.3558
▁basierend	-11.356
▁doppelt	-11.3561
ria	-11.3563
▁tour	-11.3564
▁Ford	-11.3567
▁finanzielle	-11.3572
▁kostenlos	-11.3574
▁behave	-11.3576
▁leichter	-11.3577
▁Wild	-11.3578
drücken	-11.3582
berzeugung	-11.3589
can	-11.359
▁29	-11.3592
not	-11.3593
▁comfort	-11.3598
▁sag	-11.3598
▁Gottes	-11.3599
▁Physiker	-11.3602
▁x	-11.3604
wir	-11.3604
▁perceive	-11.3605
▁Proteine	-11.3605
half	-11.3609
▁May	-11.361
▁stehe	-11.3615
q	-11.3616
▁liefert	-11.3618
▁Konsum	-11.3624
▁Alexander	-11.3625
▁Benjamin	-11.3625
▁ingredient	-11.3625
▁ländliche	-11.3625
▁psychologist	-11.3625
▁Fokus	-11.3625
▁afternoon	-11.3625
▁Literatur	-11.3625
▁Flügel	-11.3626
▁Nachbarschaft	-11.3626
▁ansieh	-11.3626
▁apartment	-11.3627
▁Komponente	-11.3627
▁Transport	-11.3629
▁vorbereitet	-11.3633
▁Mike	-11.3633
▁engaged	-11.3634
▁sink	-11.3634
schnitt	-11.3635
▁Serie	-11.3638
▁empathy	-11.3639
tu	-11.3639
table	-11.364
▁fan	-11.3641
ax	-11.3642
▁creature	-11.3644
▁appreciate	-11.3645
tier	-11.3646
▁Eier	-11.365
▁bezeichnen	-11.3651
than	-11.3652
▁Schuld	-11.3654
▁diverse	-11.3655
schau	-11.3656
▁Ach	-11.3658
20	-11.3659
systeme	-11.3659
▁Ingenieure	-11.366
▁ought	-11.3664
▁intuitive	-11.3667
▁undern	-11.3673
▁vermute	-11.3681
kan	-11.3696
maschine	-11.3703
▁style	-11.3708
▁abstract	-11.3715
▁Verwendung	-11.3717
▁cluster	-11.3717
▁Gedächtnis	-11.3717
▁Nelson	-11.3717
▁conservation	-11.3717
▁democratic	-11.3717
▁dictionar	-11.3717
▁stieg	-11.3717
▁froh	-11.3717
▁Ursprung	-11.3717
▁department	-11.3717
▁Stahl	-11.3718
▁Mehrheit	-11.3718
▁Russland	-11.3718
▁Bord	-11.3718
▁Fin	-11.3718
▁elder	-11.3718
▁instruction	-11.3718
▁underwater	-11.3719
▁Sonnen	-11.3722
▁paradigm	-11.3722
▁Milch	-11.3722
▁fo	-11.3726
▁Beruf	-11.3727
▁mountains	-11.3738
mat	-11.3739
▁Scott	-11.374
▁Tonnen	-11.3744
ification	-11.3746
▁Protein	-11.3747
vo	-11.3747
▁For	-11.3749
▁club	-11.375
▁wechseln	-11.3759
▁behavioral	-11.376
ehr	-11.3763
▁Wolken	-11.3769
▁sexuelle	-11.3773
▁Penn	-11.3774
▁Erlebnis	-11.3777
▁tu	-11.3784
▁Schuhe	-11.3785
▁55	-11.3788
bank	-11.3788
▁flower	-11.3792
RB	-11.3796
▁fu	-11.38
▁Fernseh	-11.3801
▁Element	-11.3803
▁fr	-11.3804
▁establish	-11.381
▁Lincoln	-11.3811
▁Symmetrie	-11.3811
▁concrete	-11.3811
▁mathematician	-11.3811
▁repair	-11.3811
▁Square	-11.3811
▁intervention	-11.3811
▁Kugel	-11.3811
▁Wände	-11.3811
▁Humor	-11.3811
▁sunlight	-11.3811
▁erneut	-11.3812
▁awareness	-11.3813
▁host	-11.3818
hafte	-11.3818
problem	-11.3819
▁Geburtstag	-11.3819
▁activist	-11.382
pho	-11.3823
▁Jane	-11.3827
▁route	-11.3831
▁Spielzeug	-11.3837
▁wovo	-11.3839
▁section	-11.384
▁vorzu	-11.3848
▁bemerkte	-11.3851
▁shake	-11.386
▁wieviel	-11.386
▁philosoph	-11.3861
▁dauerte	-11.3871
ind	-11.3874
▁Wellen	-11.3875
▁wachsende	-11.3877
▁Nano	-11.3882
▁Zell	-11.3886
oberfläche	-11.3888
▁Atom	-11.3891
▁Schnitt	-11.3896
use	-11.3901
▁Webseite	-11.3904
▁2.	-11.3904
bücher	-11.3905
▁Abraham	-11.3905
▁Silicon	-11.3905
▁physician	-11.3905
▁balloon	-11.3905
▁Mangel	-11.3906
▁Angestellte	-11.3906
▁Rick	-11.3907
▁Lachen	-11.3907
▁verletzt	-11.3908
▁Abfall	-11.391
▁Jones	-11.3911
tta	-11.3912
▁wirkt	-11.3912
gruppen	-11.3912
▁Akt	-11.3912
▁consume	-11.3916
ock	-11.3917
▁ausgebildet	-11.392
ches	-11.3921
graph	-11.3923
▁verb	-11.3924
▁männliche	-11.3925
▁eröffnet	-11.3927
▁swimm	-11.3934
üben	-11.3934
▁Elefanten	-11.3935
passen	-11.3938
▁42	-11.3942
geschaut	-11.3944
▁Resultat	-11.395
halb	-11.395
▁drücken	-11.395
burg	-11.3952
geschwindigkeit	-11.3953
▁mechanism	-11.3954
▁Jun	-11.3955
▁repeat	-11.3955
unternehmen	-11.3956
▁liebte	-11.3957
▁reisen	-11.3959
▁langsamer	-11.3965
führt	-11.3967
▁swim	-11.3973
▁Staats	-11.3974
▁üblich	-11.3975
tude	-11.3975
▁compar	-11.3977
▁Symbol	-11.3978
▁Stern	-11.3978
▁edit	-11.3983
▁schwere	-11.3984
Ge	-11.3985
gesellschaft	-11.3987
▁Student	-11.3987
▁singen	-11.3993
▁quit	-11.3997
▁confus	-11.3998
▁Außen	-11.4
▁bekomme	-11.4
▁Heim	-11.4
▁Beobachtung	-11.4
▁contrast	-11.4
▁dominant	-11.4
▁gekauft	-11.4
▁wüsste	-11.4
▁durfte	-11.4
▁motivation	-11.4
▁trigger	-11.4
▁Chef	-11.4
▁frank	-11.4001
▁framework	-11.4001
▁Mikroben	-11.4001
▁lifestyle	-11.4002
▁Entwicklungs	-11.4002
▁pour	-11.4002
▁afterward	-11.4003
▁präsentiert	-11.4004
▁productive	-11.4004
▁beliebt	-11.4004
▁backward	-11.4004
▁Verbreitung	-11.4007
▁presence	-11.401
▁Prize	-11.401
▁France	-11.4011
▁berühmt	-11.4011
▁violent	-11.4013
▁herein	-11.4013
▁cable	-11.4015
▁verrückte	-11.4016
▁verstand	-11.4017
▁schlafen	-11.4018
▁freie	-11.4018
tät	-11.4019
▁overcom	-11.4021
▁Versuche	-11.4023
▁einzigartige	-11.4024
▁desk	-11.4026
▁House	-11.4028
▁upper	-11.4029
▁border	-11.4031
▁meal	-11.4031
▁Blog	-11.4042
tte	-11.4042
▁Restaurant	-11.4048
▁Ereignis	-11.4048
▁Tony	-11.405
▁voran	-11.4057
▁welcome	-11.4057
schneiden	-11.4057
▁Au	-11.4058
lang	-11.4061
▁anger	-11.4065
state	-11.4065
atur	-11.4065
▁Instrumente	-11.4068
leite	-11.4069
▁Ohren	-11.4069
▁sa	-11.4072
▁entrepreneurs	-11.4074
reichen	-11.4075
▁begrenzt	-11.4081
pel	-11.4081
System	-11.4082
▁Chip	-11.4083
▁Führer	-11.4096
▁Maß	-11.4096
▁computing	-11.4097
▁Health	-11.4097
▁Asien	-11.4097
▁Bronx	-11.4097
▁cheat	-11.4097
▁Chaos	-11.4097
▁acid	-11.4098
▁heilen	-11.4099
▁hinauf	-11.4099
icher	-11.41
▁Doktor	-11.4102
▁birthday	-11.4104
▁hook	-11.4104
▁Matt	-11.4104
▁Grippe	-11.4104
▁protected	-11.4105
och	-11.4105
ifft	-11.4105
▁urge	-11.4106
▁participat	-11.4107
rang	-11.4108
▁nieder	-11.4108
▁Blue	-11.4111
▁2002	-11.4112
▁Todes	-11.4112
▁gesammelt	-11.4118
▁refugee	-11.4119
ane	-11.412
▁Konsequenzen	-11.4128
ush	-11.413
▁Gesichts	-11.4132
▁circuit	-11.4135
▁logic	-11.4138
▁poet	-11.4144
▁armen	-11.4146
tritt	-11.4149
▁Gedicht	-11.4157
▁Bell	-11.4159
▁sum	-11.4161
▁zusätzliche	-11.4164
▁nationale	-11.4165
▁pink	-11.4172
Dollar	-11.418
▁Haar	-11.4183
ories	-11.4184
nde	-11.4187
▁Stücke	-11.4191
bezüglich	-11.4191
▁sustain	-11.4193
▁36	-11.4193
▁Bibliothek	-11.4193
▁gefallen	-11.4193
genügend	-11.4194
▁Gandhi	-11.4194
▁Mandela	-11.4194
▁Shanghai	-11.4194
▁milk	-11.4194
▁Schaden	-11.4194
▁gewann	-11.4194
▁genius	-11.4194
▁Störung	-11.4194
▁clue	-11.4194
▁Prinzipien	-11.4195
▁Alex	-11.4195
▁Mathematiker	-11.4195
▁exhibition	-11.4195
handel	-11.4196
▁interactive	-11.4196
▁Ve	-11.4196
▁Afrikaner	-11.4197
▁Sichtweise	-11.4199
▁organisieren	-11.42
▁weigh	-11.4201
▁Informations	-11.4203
▁clothes	-11.4204
fassen	-11.4204
▁infiziert	-11.4206
▁Pe	-11.4209
▁bizarre	-11.4209
rö	-11.421
▁symbol	-11.421
▁fehlt	-11.4216
▁ausgesetzt	-11.4218
train	-11.4221
▁Aufnahmen	-11.4227
▁Trick	-11.4229
▁Korallen	-11.4233
▁clouds	-11.4234
▁zählt	-11.4235
▁Mengen	-11.4238
▁Fest	-11.4242
projekt	-11.4242
▁berichten	-11.4242
▁kognitive	-11.4249
ps	-11.4255
▁ko	-11.4256
▁arts	-11.4258
▁Zauber	-11.4266
ult	-11.4267
▁wora	-11.4268
schlagen	-11.4269
tern	-11.4269
▁trink	-11.4269
▁rescue	-11.4278
level	-11.4279
▁lebe	-11.4279
what	-11.428
▁Noten	-11.4281
▁resistan	-11.4282
▁bemerkenswerte	-11.4283
ire	-11.4288
▁Nadel	-11.4291
▁phrase	-11.4292
▁Arthur	-11.4292
▁heaven	-11.4292
▁städtische	-11.4292
▁knapp	-11.4292
▁steal	-11.4292
▁Ruhe	-11.4292
▁betrieben	-11.4292
▁wireless	-11.4293
unterschiedliche	-11.4293
▁Aufbau	-11.4294
▁enthalten	-11.4294
▁horrible	-11.4296
▁Budget	-11.4298
▁escape	-11.4298
▁shadow	-11.4299
▁frequenc	-11.4301
▁Aspekte	-11.4302
▁exception	-11.4305
▁coin	-11.4306
▁Kongo	-11.4306
▁Verb	-11.4309
▁intense	-11.4311
▁teure	-11.4313
▁Geistes	-11.4317
▁Mauer	-11.4317
▁Billionen	-11.4319
▁robust	-11.4325
▁schlug	-11.4328
▁vaccine	-11.4328
isches	-11.433
erei	-11.4334
▁finance	-11.4344
▁minister	-11.4344
raising	-11.4345
▁lying	-11.4347
▁Eve	-11.4349
laufen	-11.4351
gegen	-11.4357
▁Bang	-11.4357
▁besucht	-11.4361
▁faszinierende	-11.4366
▁obsess	-11.4374
▁flog	-11.4384
ology	-11.4384
▁Minister	-11.4385
▁DNS	-11.4391
▁Feynman	-11.4391
▁centuries	-11.4391
▁depth	-11.4391
▁mosquito	-11.4391
▁Christmas	-11.4391
▁stretch	-11.4391
▁Widerstand	-11.4391
▁frog	-11.4391
▁Leonardo	-11.4391
▁lehren	-11.4391
▁Herstellung	-11.4391
Central	-11.4391
▁Strand	-11.4392
▁unknown	-11.4392
▁reich	-11.4393
▁thick	-11.4393
▁improvement	-11.4394
▁Fund	-11.4395
sis	-11.4401
▁Status	-11.4401
▁jail	-11.4402
sfähigkeit	-11.4406
treffen	-11.4406
gleich	-11.4408
▁genießen	-11.4409
▁Paar	-11.4412
▁besuchte	-11.4434
▁typische	-11.4441
▁betreiben	-11.4446
▁But	-11.445
af	-11.4455
▁einzigartig	-11.4466
etz	-11.4469
▁Mode	-11.4469
akt	-11.4471
▁tiefe	-11.4471
▁refer	-11.4472
▁Jugend	-11.4473
schließen	-11.4485
denken	-11.4487
▁min	-11.4488
surance	-11.449
▁Dörfer	-11.4491
▁Lebenserwartung	-11.4491
▁Vorhersage	-11.4491
▁inzwischen	-11.4491
▁nachgedacht	-11.4491
▁nervös	-11.4491
▁thumb	-11.4491
▁verdammt	-11.4491
▁wütend	-11.4491
▁Schnee	-11.4491
▁autism	-11.4491
▁verschwunden	-11.4491
▁regelmäßig	-11.4491
▁verlangt	-11.4491
▁Pollen	-11.4491
▁Kleidung	-11.4491
▁Schweden	-11.4491
▁nose	-11.4491
▁vertical	-11.4491
▁revenue	-11.4492
▁busy	-11.4492
▁knee	-11.4492
▁hinunter	-11.4492
zentrum	-11.4493
In	-11.4494
▁Psychologie	-11.4495
▁Animation	-11.4498
▁Sternen	-11.4501
schauen	-11.4502
▁demokratische	-11.4503
bricht	-11.4508
▁durchführen	-11.4512
▁apple	-11.4515
▁Fett	-11.4515
▁se	-11.4518
mäßig	-11.4519
▁Epidemie	-11.452
▁sensitive	-11.4522
▁Mitglieder	-11.4523
▁empfinde	-11.4526
▁Wieder	-11.4528
▁cartoon	-11.4531
▁processing	-11.4533
führung	-11.4535
▁Entdeckungen	-11.4536
breite	-11.4536
▁beside	-11.4538
▁Einzelne	-11.4544
▁Knie	-11.4544
▁harvest	-11.4544
▁hängen	-11.4546
▁Kriegs	-11.4548
ima	-11.4566
▁Chancen	-11.4572
▁umher	-11.4576
▁wirken	-11.4576
▁Anruf	-11.4584
basierte	-11.4586
▁confront	-11.459
▁Gemüse	-11.4592
▁Kreatur	-11.4592
▁grateful	-11.4592
▁suspect	-11.4592
▁überlebt	-11.4592
▁Mäuse	-11.4592
▁polio	-11.4592
▁shall	-11.4592
▁microbes	-11.4592
▁besessen	-11.4592
▁sinnvoll	-11.4594
▁Hong	-11.4594
▁wünschte	-11.4594
▁getrennt	-11.4596
▁beachten	-11.4597
▁Eu	-11.4597
lit	-11.4598
▁europäische	-11.46
▁Sub	-11.4602
▁roads	-11.4603
▁gentlem	-11.4604
▁37	-11.4607
▁Kindes	-11.4613
▁beenden	-11.4614
down	-11.4614
▁conventional	-11.4617
▁danc	-11.4618
mber	-11.462
▁penguins	-11.4621
kam	-11.4622
▁staatliche	-11.4625
▁suchte	-11.4631
▁End	-11.4637
▁partners	-11.4637
mmer	-11.4638
▁surgeon	-11.4638
▁Detail	-11.464
▁Pre	-11.4654
no	-11.4661
▁Arme	-11.4663
▁Leiden	-11.4663
▁wahrnehme	-11.467
▁Zusammen	-11.4681
▁Angriff	-11.4681
bahn	-11.4682
programm	-11.4684
▁Human	-11.4686
▁cl	-11.4686
▁guide	-11.4686
▁wunderschön	-11.4689
▁mile	-11.4689
sätze	-11.4691
▁nachts	-11.4692
▁Illusion	-11.4694
▁Verletzung	-11.4694
▁aufgeregt	-11.4694
▁irgendwelche	-11.4694
▁Weisheit	-11.4694
▁Potenzial	-11.4694
▁brutal	-11.4694
▁Population	-11.4694
▁bekämpfen	-11.4694
▁plent	-11.4694
▁exakt	-11.4694
▁anscheinen	-11.4694
▁eingeladen	-11.4694
▁characteristic	-11.4694
▁Neuigkeit	-11.4694
▁regime	-11.4694
▁commitment	-11.4694
▁Sarah	-11.4695
▁bias	-11.4696
▁Kuh	-11.4697
▁100.000	-11.4703
wi	-11.4703
▁Age	-11.4711
lauf	-11.4712
▁laboratory	-11.4712
▁River	-11.4715
▁bestand	-11.4717
▁Nerven	-11.4717
▁electron	-11.4721
▁grass	-11.4722
▁weiterer	-11.4726
▁folgenden	-11.4726
▁pr	-11.4727
▁ears	-11.4728
nderungen	-11.4735
0.000	-11.4739
▁freue	-11.474
▁Algorithmen	-11.4744
▁öffnet	-11.4744
▁Pu	-11.4745
muster	-11.4748
▁classic	-11.4752
enz	-11.4754
▁Brit	-11.4758
ros	-11.4758
▁command	-11.4763
kel	-11.4766
▁Wa	-11.4773
▁Wohn	-11.4776
▁dumm	-11.4781
▁kleinere	-11.4781
▁typisch	-11.4791
▁import	-11.4793
▁zufrieden	-11.4795
▁bedroht	-11.4797
▁betroffen	-11.4797
▁regret	-11.4797
▁romantic	-11.4797
▁versorgen	-11.4797
▁Tätigkeit	-11.4797
▁Kurve	-11.4797
▁session	-11.4798
▁download	-11.4799
▁Durch	-11.4802
▁Erzählung	-11.4804
▁overall	-11.4809
▁Analyse	-11.4809
ologie	-11.481
▁Wale	-11.4813
▁Schlag	-11.4813
gu	-11.4813
▁motivate	-11.4814
▁raw	-11.4818
▁Schicht	-11.4818
▁positiv	-11.4819
▁passive	-11.482
ruf	-11.482
▁primitive	-11.4821
5.000	-11.4826
▁Kr	-11.4827
▁Grün	-11.4828
▁Fa	-11.4831
▁gelangt	-11.4834
▁Afrikas	-11.4835
▁Boy	-11.4849
▁Witz	-11.4851
▁SW	-11.4851
▁rhythm	-11.4855
▁studiert	-11.4857
▁pan	-11.4862
▁seal	-11.4862
lic	-11.4864
gas	-11.4864
▁educational	-11.4864
▁install	-11.4865
ufgewachsen	-11.4865
▁heutige	-11.4868
▁gewisser	-11.4873
▁erstmal	-11.4874
▁Bericht	-11.488
va	-11.4884
truck	-11.4885
▁Van	-11.4888
▁cow	-11.489
▁Videospiele	-11.4896
ain	-11.4896
▁mate	-11.4897
▁Fläche	-11.4899
▁Detroit	-11.4901
▁Erfinder	-11.4901
▁Gulf	-11.4901
▁Stewart	-11.4901
▁konfrontiert	-11.4901
▁neugierig	-11.4901
▁vorsichtig	-11.4901
▁kreiert	-11.4901
▁Rettung	-11.4901
▁Geruch	-11.4901
▁Sonnenlicht	-11.4901
streben	-11.4902
▁Larry	-11.4902
▁deserve	-11.4902
▁1.000	-11.4904
▁lion	-11.4904
▁pill	-11.4905
▁hormone	-11.4906
fressen	-11.4906
▁dankbar	-11.4907
reise	-11.4909
▁Business	-11.491
▁needle	-11.4911
▁verliert	-11.4912
▁einst	-11.4916
▁implement	-11.4919
rgestellt	-11.492
▁div	-11.492
▁Box	-11.492
▁leer	-11.4927
▁stoppen	-11.4929
▁aim	-11.4934
▁geo	-11.4934
▁Israeli	-11.4935
▁worm	-11.4937
▁comp	-11.4937
tail	-11.4938
▁übernehme	-11.4939
▁par	-11.4939
▁classes	-11.494
▁August	-11.4942
▁transplant	-11.4946
▁boxes	-11.4946
▁cast	-11.4947
▁laser	-11.4947
ät	-11.4949
▁Nick	-11.4953
▁wartet	-11.4953
▁Geschäfte	-11.4953
▁Tiefe	-11.4954
▁poster	-11.4968
▁Dimensionen	-11.4977
▁schluss	-11.4982
▁beibring	-11.4983
▁Who	-11.4983
▁flowers	-11.4984
hood	-11.4985
▁manager	-11.4987
▁technologische	-11.4989
typ	-11.4991
▁legte	-11.4996
netz	-11.4997
▁bekannte	-11.4999
▁voneinander	-11.5
ase	-11.5
▁Congo	-11.5002
▁Philip	-11.5003
▁Motivation	-11.5006
▁Zerstörung	-11.5006
▁corporate	-11.5006
▁curiosity	-11.5006
▁ernähre	-11.5006
▁fascinate	-11.5006
▁identical	-11.5006
▁kaputt	-11.5006
▁gestaltet	-11.5006
▁Brustkrebs	-11.5006
▁strike	-11.5006
▁Watson	-11.5006
▁Joseph	-11.5006
▁Redwood	-11.5006
▁toxic	-11.5007
▁Nobel	-11.5007
▁Carolina	-11.5008
▁Sonnensystem	-11.5008
lasst	-11.5009
lig	-11.5011
▁flag	-11.5013
▁bewirken	-11.5015
▁Dienstleistung	-11.5018
▁Haie	-11.5019
strahl	-11.5021
▁confidence	-11.5026
▁tax	-11.5031
▁inequalit	-11.5032
▁wiederholen	-11.5035
▁feeding	-11.5037
▁Brief	-11.5043
▁starten	-11.5046
flogen	-11.5052
▁Bab	-11.5058
▁pool	-11.5062
schicht	-11.5066
▁flip	-11.5069
▁tube	-11.507
▁breathe	-11.507
▁absorb	-11.5071
vin	-11.5071
▁gezogen	-11.5074
▁smoke	-11.5074
▁Fan	-11.5076
▁Ri	-11.5078
unk	-11.5081
▁Live	-11.5086
▁trat	-11.509
geschlagen	-11.5097
▁Kreuz	-11.5097
grade	-11.5098
atom	-11.5104
▁Latin	-11.5104
swachstum	-11.5106
▁pit	-11.5106
▁kon	-11.5108
▁Blau	-11.5111
▁cloth	-11.5112
▁Wärme	-11.5113
▁begegnen	-11.5113
▁diagram	-11.5113
▁agenda	-11.5113
▁column	-11.5113
▁awesome	-11.5113
▁Zweifel	-11.5113
▁knock	-11.5113
▁Frankreich	-11.5113
▁minimal	-11.5113
▁painful	-11.5114
▁selection	-11.5115
▁wash	-11.5115
▁Harry	-11.5115
▁vital	-11.5116
▁Song	-11.5118
▁durchzu	-11.5119
▁Pass	-11.5132
▁herauszu	-11.5135
▁reserve	-11.5136
call	-11.5139
▁Fahrer	-11.5142
▁Fahrzeug	-11.5146
▁mat	-11.5147
▁verbring	-11.515
▁philosopher	-11.515
▁Will	-11.515
wagen	-11.5152
▁analyze	-11.5153
▁lokal	-11.5155
▁Marken	-11.5157
clear	-11.518
flu	-11.518
dra	-11.5181
▁hinterlasse	-11.5181
▁inspire	-11.5186
▁Marke	-11.5188
haltung	-11.5188
▁Diagnose	-11.5191
krieg	-11.5194
fertig	-11.5197
▁films	-11.5199
▁Last	-11.5206
▁Stift	-11.5207
dependent	-11.5212
▁narrat	-11.5212
ali	-11.5213
gypten	-11.5218
▁Hitze	-11.522
▁Blätter	-11.522
▁Erdbeben	-11.522
▁Option	-11.522
▁privacy	-11.522
▁veröffentlichen	-11.522
▁Neugier	-11.522
▁Berlin	-11.522
▁Bibel	-11.5221
▁greenhouse	-11.5221
▁continuous	-11.5221
▁Krankenhäuser	-11.5221
▁Egypt	-11.5222
▁ergeben	-11.5222
▁Chile	-11.5222
▁gründen	-11.5224
lock	-11.5225
▁rely	-11.5227
wood	-11.5227
▁County	-11.5229
▁protest	-11.5232
▁Level	-11.5234
▁wound	-11.5238
▁Dame	-11.5238
▁Russian	-11.524
cha	-11.5242
aging	-11.5242
▁AB	-11.5243
▁Presse	-11.5247
▁tag	-11.5253
ram	-11.5254
▁dicht	-11.5256
▁Stiftung	-11.5258
▁Argument	-11.5261
▁technisch	-11.5265
▁hous	-11.5273
▁eigentliche	-11.5276
▁strip	-11.5276
cent	-11.5277
▁Za	-11.528
▁favor	-11.5285
ji	-11.5286
▁Einzel	-11.5295
▁bedeutete	-11.5297
sprozess	-11.5301
▁implant	-11.5302
▁item	-11.5304
▁SS	-11.5307
icht	-11.5308
▁laughing	-11.5309
cut	-11.5317
tial	-11.5317
▁Achse	-11.5318
▁prisoner	-11.5319
▁Mathe	-11.532
losen	-11.5328
▁importan	-11.5328
▁Futter	-11.5329
▁Rwanda	-11.5329
▁SETI	-11.5329
▁chocolate	-11.5329
▁library	-11.5329
▁miracle	-11.5329
▁mushroom	-11.5329
▁musikalische	-11.5329
▁vegetable	-11.5329
▁arrest	-11.5329
▁Sektor	-11.5329
▁cooperation	-11.5329
▁Denkweise	-11.533
▁breed	-11.5331
▁erfüllt	-11.5336
▁till	-11.5337
▁Good	-11.5337
▁plans	-11.5339
linie	-11.5339
▁Vorträge	-11.5341
▁pose	-11.5346
▁anzusehen	-11.5349
▁Meere	-11.5351
▁dunkel	-11.5353
▁slides	-11.5354
▁traged	-11.5354
ippe	-11.5355
▁pin	-11.5359
king	-11.5362
▁attend	-11.5365
artige	-11.5367
▁elegant	-11.5368
▁antworte	-11.5369
▁shell	-11.5374
▁fordert	-11.5376
▁Stil	-11.5382
nahmen	-11.5384
▁kritische	-11.5385
▁mächtig	-11.5387
Mo	-11.539
▁Inter	-11.5392
▁Hunderte	-11.5393
▁dress	-11.5394
▁höchsten	-11.5396
▁spreading	-11.5399
▁Autor	-11.5402
▁intensive	-11.5402
kin	-11.5404
▁spiritual	-11.5416
rice	-11.5419
sein	-11.5419
▁secure	-11.5428
▁schlimm	-11.5429
▁astonishing	-11.5439
▁earthquake	-11.5439
▁Louis	-11.5439
▁distant	-11.5439
▁letztlich	-11.5439
▁angry	-11.5439
▁verursachen	-11.5439
▁barrier	-11.5439
▁Geographic	-11.5439
▁footprint	-11.5439
▁mystery	-11.5439
▁neural	-11.5439
▁halt	-11.5439
▁reduction	-11.5439
▁stack	-11.544
▁Kopie	-11.544
▁Ana	-11.544
▁2030	-11.544
▁surf	-11.544
▁Verfahren	-11.5441
▁Sequenz	-11.5441
▁Euro	-11.5441
öl	-11.5442
▁salt	-11.5443
▁Kategorie	-11.5444
▁Global	-11.5446
▁Handys	-11.5449
▁ear	-11.545
▁Party	-11.5453
▁Fer	-11.5454
▁kleinste	-11.5456
▁CD	-11.5456
▁fixed	-11.5457
▁magnetic	-11.5459
▁Pan	-11.546
dia	-11.546
▁dauern	-11.5461
fu	-11.5462
reich	-11.5463
▁Erwartungen	-11.5464
▁klinische	-11.5468
lf	-11.5469
▁li	-11.547
▁recogni	-11.5471
▁eingeführt	-11.5474
long	-11.5474
▁berichtet	-11.5475
ita	-11.548
▁Toten	-11.548
tries	-11.5481
▁letzter	-11.5482
▁irgendein	-11.5484
▁ursprüngliche	-11.5487
▁engag	-11.549
▁Mess	-11.5496
gli	-11.5497
fällt	-11.55
▁genetisch	-11.5505
zahlen	-11.5509
▁lung	-11.5513
nderung	-11.5514
▁army	-11.5515
▁dense	-11.5516
sterblichkeit	-11.5516
zentr	-11.5523
gründe	-11.5526
▁Mach	-11.5528
Ma	-11.5528
schi	-11.5533
▁Organe	-11.5534
▁erklärte	-11.5535
▁immense	-11.5539
▁Pinguine	-11.5543
▁dig	-11.5544
▁Ross	-11.5547
▁DVD	-11.555
▁Geschmack	-11.555
▁November	-11.555
▁Vagina	-11.555
▁berühren	-11.555
▁globe	-11.555
▁conclude	-11.555
▁bicycle	-11.555
▁sweat	-11.555
▁Gipfel	-11.555
▁Angelegenheit	-11.555
▁flood	-11.555
▁rush	-11.555
▁Clinton	-11.555
▁isolat	-11.5552
richtung	-11.5553
▁2020	-11.5553
▁medi	-11.5554
▁Gleichgewicht	-11.5554
▁trace	-11.5556
geführt	-11.5557
▁Initiative	-11.5558
▁colony	-11.5559
▁Delhi	-11.5561
▁bedeckt	-11.5564
▁rebuild	-11.5565
rlei	-11.5565
▁erfüllen	-11.557
▁Jean	-11.5572
version	-11.5573
▁bedenken	-11.5573
▁parking	-11.5574
ulation	-11.5575
▁Warum	-11.5576
▁Preise	-11.5581
▁dramatisch	-11.5582
▁Dia	-11.559
ola	-11.5594
▁Ta	-11.5598
▁ugl	-11.5599
▁Cel	-11.5601
▁Thu	-11.5608
▁springen	-11.5609
▁Feind	-11.561
▁rum	-11.5618
ika	-11.562
press	-11.562
▁printing	-11.5622
ierende	-11.5627
rag	-11.5629
▁exten	-11.5632
▁tech	-11.5633
▁agreed	-11.5635
▁leere	-11.565
▁Link	-11.5659
▁Ku	-11.5659
▁Elektro	-11.566
▁frustrat	-11.566
▁extinct	-11.566
▁Vietnam	-11.566
▁correspond	-11.5662
▁Gletscher	-11.5662
▁Parkinson	-11.5662
▁Aufstieg	-11.5662
▁Medium	-11.5662
▁economies	-11.5662
▁narrow	-11.5662
▁IBM	-11.5662
▁jegliche	-11.5662
▁causing	-11.5662
▁simplicity	-11.5662
▁befand	-11.5662
▁Männchen	-11.5663
▁Fellow	-11.5663
▁pyramid	-11.5663
▁hinzufügen	-11.5663
▁fluid	-11.5663
win	-11.5669
▁dreidimensional	-11.567
▁autonomous	-11.567
▁blame	-11.567
▁gesch	-11.5672
▁Kir	-11.5674
falten	-11.5675
änge	-11.5678
hour	-11.5678
▁Krieges	-11.568
karte	-11.5682
fen	-11.5685
▁neutral	-11.5691
kehren	-11.5693
auto	-11.5694
▁Ideal	-11.5695
▁Ber	-11.5705
▁Hinweise	-11.5706
▁unteren	-11.571
▁brothers	-11.5719
▁Bier	-11.5731
▁spoken	-11.5732
▁Versorgung	-11.5733
pox	-11.5735
pol	-11.5738
▁borders	-11.5741
▁Schweine	-11.5744
lö	-11.5745
▁citizen	-11.5749
▁startete	-11.575
▁350	-11.5755
teile	-11.5761
bul	-11.5763
▁Inneren	-11.5763
▁wise	-11.5764
▁beeindruckend	-11.5767
▁accelerat	-11.5767
▁Polio	-11.5767
gewiesen	-11.5768
▁wundervoll	-11.5771
▁gewinn	-11.5775
▁Gebrauch	-11.5776
▁Cartoon	-11.5776
▁Charlie	-11.5776
▁Niveau	-11.5776
▁dazwischen	-11.5776
▁obstacle	-11.5776
▁participant	-11.5776
▁defense	-11.5776
▁rainforest	-11.5776
▁Entwurf	-11.5776
▁Ungleichheit	-11.5776
▁shelter	-11.5776
▁discipline	-11.5776
erlangen	-11.5776
▁concert	-11.5776
▁judgment	-11.5776
▁household	-11.5776
▁cash	-11.5776
▁Verlauf	-11.5777
▁file	-11.5777
▁schuf	-11.5779
▁ignorieren	-11.5779
Projekt	-11.5779
▁database	-11.578
▁saubere	-11.5781
▁stirb	-11.5782
▁optimistisch	-11.5783
▁golf	-11.5784
▁Wichtigste	-11.5785
▁Drei	-11.5787
▁älteste	-11.5788
▁dump	-11.579
▁Terroristen	-11.5791
▁sides	-11.5791
▁neigen	-11.5792
▁zurückgehen	-11.5792
ura	-11.5796
▁bond	-11.5796
▁gra	-11.5799
züge	-11.5802
▁Nutzer	-11.5805
▁stor	-11.5805
iges	-11.5809
krise	-11.5809
▁microscope	-11.581
▁uncle	-11.5812
nsas	-11.5817
▁plot	-11.5817
▁Richtige	-11.5824
▁schnelle	-11.5825
schreiben	-11.5828
▁figur	-11.5832
einhalb	-11.5834
▁brach	-11.5845
▁tip	-11.585
▁shooting	-11.5852
▁physikalische	-11.5853
▁theme	-11.5856
▁fe	-11.5857
▁Trend	-11.5859
▁Teufel	-11.586
▁personalit	-11.5862
▁shipp	-11.5865
▁lens	-11.5866
▁donor	-11.5868
▁bend	-11.5869
▁illustrate	-11.5876
kopf	-11.5876
zieht	-11.5879
cker	-11.588
▁Summe	-11.5883
letzt	-11.5886
▁paintings	-11.5888
▁Albert	-11.5889
▁Angebot	-11.5891
▁Klavier	-11.5891
▁Shakespeare	-11.5891
▁Vergnügen	-11.5891
▁asteroid	-11.5891
▁Joshua	-11.5891
▁pretend	-11.5891
▁Kiste	-11.5892
▁stepp	-11.5892
▁Beton	-11.5895
▁Islamic	-11.5895
▁PC	-11.5896
▁niedrig	-11.5896
▁Spannung	-11.5897
gefallen	-11.5899
▁ok	-11.5902
▁Fünf	-11.5903
erin	-11.5905
▁leiten	-11.5905
▁heroes	-11.5906
▁48	-11.5907
▁hip	-11.5908
▁Haare	-11.5909
▁Laser	-11.5909
▁Figur	-11.5917
▁sales	-11.5918
▁Leiter	-11.5919
▁Miss	-11.5923
▁vierte	-11.5927
▁domestic	-11.593
▁anpassen	-11.5932
strom	-11.5934
▁Pole	-11.5935
▁finanziert	-11.5937
▁bo	-11.5937
ech	-11.5942
kor	-11.5942
fern	-11.5945
▁committ	-11.5946
▁Schmerzen	-11.5946
▁billig	-11.5947
▁gray	-11.5948
ette	-11.5948
▁verliebt	-11.595
ture	-11.5953
▁Leber	-11.5954
▁wach	-11.5957
▁historische	-11.5962
wind	-11.5963
reißen	-11.5963
▁younger	-11.5965
team	-11.5967
HC	-11.5974
ark	-11.5984
▁benutze	-11.5986
▁Male	-11.5988
▁Dutzend	-11.5989
▁gefährliche	-11.5994
▁lock	-11.5996
▁functional	-11.5996
rising	-11.5998
▁jährlich	-11.6002
▁psycho	-11.6007
▁glücklicher	-11.6007
▁adjust	-11.6007
▁Einfachheit	-11.6007
▁Nächste	-11.6007
▁ceiling	-11.6007
▁ersetzt	-11.6007
▁excuse	-11.6007
▁gerettet	-11.6007
▁lächerlich	-11.6007
▁orchestra	-11.6007
▁silent	-11.6007
▁umgekehrt	-11.6007
▁erfand	-11.6007
▁viral	-11.6007
▁fliegt	-11.6007
▁liver	-11.6007
▁Virginia	-11.6007
▁Italien	-11.6007
▁promote	-11.6008
▁Vorschlag	-11.6008
▁Greek	-11.6008
▁1900	-11.601
▁defend	-11.6012
class	-11.6012
▁sports	-11.6013
▁demographic	-11.6013
point	-11.6014
figur	-11.6014
▁Mio	-11.6015
▁suicide	-11.6015
▁Infektion	-11.6017
▁50,000	-11.6017
ward	-11.6018
▁Ballon	-11.6019
▁Computern	-11.602
▁Saal	-11.602
design	-11.6022
▁benutzte	-11.6024
gle	-11.6024
▁nachhaltig	-11.6025
▁Jugendliche	-11.6028
▁cord	-11.6028
▁windows	-11.6029
▁portrait	-11.6031
alter	-11.6032
▁Stoff	-11.6033
▁Blind	-11.6035
▁floating	-11.6036
stelle	-11.6036
oid	-11.6036
▁Kal	-11.6049
▁argu	-11.6052
▁breaking	-11.6054
▁Nu	-11.6054
ath	-11.6058
sgeschichte	-11.6062
nahme	-11.6069
▁neuron	-11.6069
made	-11.607
leiter	-11.6072
einheit	-11.6074
gan	-11.6077
gelegt	-11.6087
urg	-11.6088
▁wiederholt	-11.6089
▁hingeh	-11.609
▁30-	-11.6091
▁Regierungs	-11.6091
▁höchste	-11.6092
energie	-11.6102
ember	-11.6104
spieler	-11.6105
▁limits	-11.611
▁killer	-11.6112
▁Gespräche	-11.6125
▁Flüssigkeit	-11.6125
▁Hölle	-11.6125
▁Würde	-11.6125
▁conservative	-11.6125
▁crucial	-11.6125
▁external	-11.6125
▁furniture	-11.6125
▁gefährdet	-11.6125
▁gestartet	-11.6125
▁procedure	-11.6125
▁senior	-11.6125
▁geschützt	-11.6125
▁transparency	-11.6125
▁Brooklyn	-11.6125
▁flash	-11.6125
▁gesture	-11.6125
▁befreien	-11.6125
▁ausgewählt	-11.6126
▁mutig	-11.6126
▁skeleton	-11.6126
▁Philosophie	-11.6127
▁minus	-11.6127
▁headline	-11.6128
▁dignit	-11.6128
▁LG	-11.6129
▁Psychologe	-11.6129
▁Brand	-11.6129
▁optimistic	-11.6129
emen	-11.613
▁Werbe	-11.613
▁inspirieren	-11.613
▁horizontal	-11.613
▁rechte	-11.6132
▁erfuhr	-11.6133
▁sang	-11.6133
▁Treffen	-11.6135
▁Brüder	-11.6136
hai	-11.6137
zero	-11.6139
▁disorders	-11.6141
▁ausmacht	-11.6142
▁ausmachen	-11.6143
▁Andere	-11.6149
▁chest	-11.6149
▁Child	-11.6151
▁evening	-11.6152
Zeitraum	-11.6159
▁tick	-11.6161
▁entscheidende	-11.6162
▁Gel	-11.6166
▁axis	-11.6166
▁prefer	-11.6167
▁Tri	-11.6171
rine	-11.6178
▁worker	-11.6178
▁immune	-11.6182
▁Speicher	-11.619
wasser	-11.6193
▁überraschende	-11.6197
▁Pra	-11.6203
essen	-11.6207
▁indicate	-11.6209
▁drehte	-11.621
▁Ze	-11.6211
▁ökonomische	-11.6213
will	-11.6213
gabe	-11.6214
▁eingebaut	-11.6214
▁dienen	-11.6216
▁Medica	-11.622
▁drum	-11.6222
pul	-11.6223
▁photography	-11.6227
▁Mont	-11.6236
▁Stamm	-11.6238
▁Symptome	-11.6238
▁abhäng	-11.624
wachsen	-11.624
are	-11.6241
▁Ihres	-11.6242
▁exploit	-11.6244
▁Einwohner	-11.6244
▁McDonald	-11.6244
▁Täuschung	-11.6244
▁desperate	-11.6244
▁origami	-11.6244
▁yield	-11.6244
geschäft	-11.6244
▁frighten	-11.6244
▁bulb	-11.6244
▁utter	-11.6244
▁adventure	-11.6244
▁Zwischen	-11.6244
▁fragment	-11.6244
▁spill	-11.6244
▁Funk	-11.6244
▁Zahn	-11.6244
▁Verteilung	-11.6245
uff	-11.6245
▁Vorgang	-11.6245
gefühl	-11.6245
▁Ethiopia	-11.6246
▁Flächen	-11.6246
▁Papa	-11.6248
probleme	-11.6248
▁objective	-11.6249
▁Hypothese	-11.625
▁repräsentiert	-11.625
▁tower	-11.6252
▁representation	-11.6252
dollar	-11.6253
▁Fliege	-11.6258
▁20,000	-11.6261
▁Juli	-11.6262
wei	-11.6262
▁consistent	-11.6262
pot	-11.6263
▁professionelle	-11.6264
▁corn	-11.6264
▁educate	-11.6267
▁interpret	-11.6269
▁ga	-11.627
▁inspiring	-11.6272
▁Let	-11.6273
▁Wut	-11.6275
▁Böse	-11.6275
fragen	-11.6279
▁wi	-11.628
wan	-11.6288
▁Port	-11.629
▁inventor	-11.6297
▁invit	-11.6298
▁mere	-11.6299
▁widme	-11.6305
▁psychische	-11.6306
▁generat	-11.6307
▁complain	-11.6312
▁1.	-11.6314
room	-11.6316
▁Dec	-11.6319
punkte	-11.632
▁tri	-11.6332
▁ethical	-11.6336
▁schaue	-11.6338
▁disorder	-11.6347
▁Farm	-11.6347
alt	-11.6357
▁Stu	-11.6359
▁sexy	-11.636
▁April	-11.6364
▁Autismus	-11.6364
▁Transparenz	-11.6364
▁scenario	-11.6364
▁übersetzt	-11.6364
▁gebildet	-11.6364
▁gewöhnt	-11.6364
▁Dialog	-11.6364
▁Verteidigung	-11.6364
▁Globalisierung	-11.6365
▁Logik	-11.6365
▁Olympic	-11.6365
▁Lewi	-11.6365
▁ticket	-11.6365
▁Coca	-11.6365
▁queen	-11.6368
▁Chen	-11.6368
dioxide	-11.6368
▁cute	-11.6369
rich	-11.637
▁Bas	-11.6371
▁wertvoll	-11.6372
▁sheep	-11.6372
▁klug	-11.6373
▁planen	-11.6374
▁Pferd	-11.6377
▁Küche	-11.6378
▁intend	-11.6378
▁könne	-11.6379
▁distribute	-11.6385
▁kn	-11.6396
sort	-11.6399
▁mächtige	-11.6405
▁ungewöhnlich	-11.6408
▁observ	-11.6408
▁Kameras	-11.6415
▁strategi	-11.6416
menge	-11.6417
▁brechen	-11.6418
fache	-11.6425
▁Tal	-11.6436
▁versch	-11.6438
▁kaufe	-11.6441
▁el	-11.6441
▁imagin	-11.6445
▁Laufen	-11.6458
▁signed	-11.646
frozen	-11.6461
ago	-11.6464
ini	-11.6465
▁norm	-11.6466
acht	-11.6468
▁geschlossen	-11.6471
▁Chi	-11.6472
itz	-11.6478
▁transfer	-11.6478
▁Schlacht	-11.6483
▁gelbe	-11.6485
eil	-11.6485
▁72	-11.6486
▁Front	-11.6486
▁angepasst	-11.6486
▁description	-11.6486
▁korrekt	-11.6486
gedreht	-11.6486
▁Bruno	-11.6486
▁Ausrüstung	-11.6486
▁Einschränkung	-11.6486
▁Betrieb	-11.6486
▁Umgang	-11.6487
▁feiern	-11.6487
▁Nachfrage	-11.6487
▁kochen	-11.6487
▁restore	-11.6489
▁Höhepunkt	-11.649
▁Rover	-11.649
▁Santa	-11.6491
▁tale	-11.6491
▁3.	-11.6492
kurs	-11.6492
▁compell	-11.6493
▁boss	-11.6493
▁Bible	-11.6493
▁Seh	-11.6494
century	-11.6498
minute	-11.6498
ui	-11.6499
▁Wenn	-11.6499
▁opposed	-11.65
▁dive	-11.6501
▁Szene	-11.6501
▁wa	-11.6502
▁Bildungs	-11.6503
▁landete	-11.6503
oma	-11.6504
▁verschiedener	-11.6511
▁erwähnen	-11.6516
▁elect	-11.6526
chte	-11.6531
▁resist	-11.6531
ino	-11.6537
▁aside	-11.6537
▁Schreiben	-11.6544
räume	-11.6544
abilities	-11.6545
soweit	-11.6564
▁bezieh	-11.6568
▁schlau	-11.6571
▁Fahrzeuge	-11.6571
modell	-11.6574
▁gesetzt	-11.6575
▁änderte	-11.6575
▁Friedens	-11.6576
being	-11.6576
▁Präsidenten	-11.6578
▁pray	-11.6578
igung	-11.6579
▁Schauspieler	-11.658
▁rating	-11.658
▁Ger	-11.6585
▁priorit	-11.6585
▁stimmen	-11.6586
lösen	-11.6588
lagen	-11.6589
prozess	-11.6589
nna	-11.659
▁occasional	-11.6598
▁weapon	-11.66
▁pi	-11.6603
▁ruin	-11.6604
▁atmen	-11.6605
▁accomplish	-11.6608
▁Indus	-11.6609
▁niedrige	-11.661
▁Soviet	-11.661
▁calculation	-11.661
▁irrational	-11.661
▁reputation	-11.661
▁unbelievabl	-11.661
▁authentic	-11.661
▁embedded	-11.661
▁Spring	-11.661
▁blend	-11.661
▁Nahrungsmittel	-11.661
▁Effizienz	-11.661
▁Wright	-11.661
▁verbraucht	-11.661
▁sensation	-11.6611
▁Weltbevölkerung	-11.6612
▁engagement	-11.6612
▁Standpunkt	-11.6614
▁mold	-11.6616
▁Umfrage	-11.6616
▁Atlantic	-11.6616
▁38	-11.6618
▁dient	-11.6623
▁Dick	-11.6625
▁Ehre	-11.6625
▁gelb	-11.6626
▁eingehen	-11.6627
▁loan	-11.6629
isse	-11.6632
▁Katastrophe	-11.6635
dienst	-11.6635
▁Teams	-11.6635
▁aggressive	-11.6636
▁breite	-11.6638
▁Carl	-11.664
▁einzig	-11.6643
▁Jay	-11.6652
▁Koch	-11.6653
▁smok	-11.6654
town	-11.6657
▁tanzen	-11.6661
▁improv	-11.6661
▁Wahlen	-11.6661
play	-11.6662
trag	-11.6666
kosten	-11.6668
flo	-11.6669
bert	-11.6672
ncy	-11.6672
▁Resultate	-11.6676
ake	-11.6679
▁conflicts	-11.6684
▁höchst	-11.6693
▁seed	-11.6697
▁Sahara	-11.6701
▁Dienst	-11.6705
▁umso	-11.6708
möglichkeit	-11.6708
▁TEDster	-11.6708
▁Proben	-11.6709
uk	-11.671
far	-11.6714
▁Bei	-11.6715
▁gelassen	-11.6715
▁gest	-11.6716
pass	-11.6717
gesichts	-11.6719
merk	-11.6726
▁Nordamerika	-11.6726
verkehr	-11.6731
▁senses	-11.6731
▁schwimmen	-11.6732
▁sport	-11.6734
esearch	-11.6734
▁compound	-11.6735
▁reparieren	-11.6735
▁request	-11.6735
▁ridiculous	-11.6735
▁scratch	-11.6735
▁terrifi	-11.6735
▁örtliche	-11.6735
▁definitiv	-11.6735
▁drove	-11.6735
▁sharp	-11.6735
▁vermittelt	-11.6735
▁Daumen	-11.6735
▁Größenordnung	-11.6735
▁jüngste	-11.6735
▁poison	-11.6735
▁systematic	-11.6735
▁brown	-11.6735
▁Richter	-11.6735
▁Entstehung	-11.6735
▁lake	-11.6736
▁aussah	-11.6736
▁laughter	-11.6736
▁Pause	-11.6736
▁Simon	-11.6737
▁Gestaltung	-11.6737
kul	-11.6739
▁node	-11.674
▁Schätzung	-11.674
▁treiben	-11.674
▁berechnen	-11.6745
▁BIP	-11.6747
▁mice	-11.6748
▁quer	-11.6751
▁Milo	-11.6752
▁Seil	-11.6753
▁Verkehr	-11.6756
▁Gut	-11.6758
▁Training	-11.6761
▁Eastern	-11.6772
omi	-11.6775
▁aufrecht	-11.6781
▁Dichter	-11.6786
ivität	-11.679
▁Leid	-11.6797
▁meetings	-11.68
zuwenden	-11.6802
▁boundar	-11.6803
▁komplexer	-11.6807
chu	-11.6807
▁erfolgreiche	-11.6809
▁uh	-11.681
▁observe	-11.681
effekt	-11.6823
▁Wach	-11.6824
▁Spar	-11.6825
▁Cal	-11.6833
▁Mitglied	-11.6835
▁graphic	-11.6836
▁jeweil	-11.6837
▁spezifische	-11.6843
▁fürchte	-11.6846
▁löst	-11.6849
▁struggl	-11.685
bit	-11.6854
▁Atlant	-11.6859
▁reject	-11.6859
▁Anstieg	-11.6861
▁Anstrengung	-11.6861
▁Church	-11.6861
▁Monterey	-11.6861
▁Tragödie	-11.6861
▁circa	-11.6861
▁fulfill	-11.6861
▁öfter	-11.6861
▁Fantasie	-11.6861
▁mutation	-11.6861
▁domain	-11.6861
▁verschwand	-11.6861
▁aircraft	-11.6862
▁MRI	-11.6862
▁translation	-11.6862
▁Schädel	-11.6862
▁capitalism	-11.6863
▁limitation	-11.6864
▁zurückkehren	-11.6864
▁spell	-11.6864
▁Vermögen	-11.6864
▁intention	-11.6865
▁Fischer	-11.6866
▁Rezept	-11.6869
▁hindurch	-11.6869
▁molekulare	-11.6871
,	-11.6871
▁Min	-11.6871
▁Palm	-11.6879
▁airport	-11.6879
▁golden	-11.6879
▁Konsumenten	-11.6884
▁granted	-11.6887
cellular	-11.6889
▁Durchschnitts	-11.6893
▁gear	-11.6893
teils	-11.6895
▁klick	-11.6898
▁44	-11.6902
▁130	-11.6905
mar	-11.6908
right	-11.6913
meister	-11.6916
▁Ski	-11.6919
▁bother	-11.6923
▁Tour	-11.6926
▁Funktionen	-11.6927
formen	-11.6928
je	-11.6928
gehört	-11.6946
▁Stille	-11.6946
unwahrscheinlich	-11.6951
tik	-11.6959
werte	-11.6963
▁seeds	-11.6968
ache	-11.6973
▁bow	-11.6979
▁Oberflächen	-11.6981
person	-11.6983
▁Len	-11.6984
▁reiste	-11.6989
▁Bedarf	-11.6989
▁Mumbai	-11.6989
▁Sätze	-11.6989
▁guarantee	-11.6989
▁guilt	-11.6989
▁Everest	-11.6989
▁resident	-11.6989
▁Lächeln	-11.6989
▁Rosling	-11.6989
▁appeal	-11.6989
▁versicher	-11.699
▁erfasst	-11.699
▁Black	-11.699
▁Seattle	-11.699
▁copyright	-11.699
▁borrow	-11.699
▁Edward	-11.699
▁probabilit	-11.699
bruch	-11.699
▁export	-11.699
▁slice	-11.699
▁profile	-11.6991
▁Geoff	-11.6991
▁gemessen	-11.6991
▁Auftrag	-11.6992
meter	-11.6993
▁trends	-11.6993
▁mentor	-11.6993
iff	-11.6995
▁Marine	-11.6996
▁lane	-11.6998
▁wirksam	-11.6999
cus	-11.7002
▁Patent	-11.7004
▁Pri	-11.7004
▁reduc	-11.7007
American	-11.7008
Technologie	-11.7008
▁Maßnahmen	-11.7008
▁Weltall	-11.7009
▁reicher	-11.7009
▁mu	-11.7009
▁explosion	-11.701
ably	-11.7011
▁Ang	-11.7011
▁Ursache	-11.7011
▁komplette	-11.7012
▁Sorge	-11.7012
▁Waffe	-11.7013
▁asset	-11.7013
▁fifth	-11.7013
tsch	-11.7015
▁190	-11.7016
▁Hacker	-11.7016
▁resolution	-11.7019
▁preserve	-11.7025
▁Architekt	-11.7029
▁Ok	-11.7032
▁Aber	-11.7037
▁origin	-11.7039
▁depress	-11.7049
▁unterrichtet	-11.7058
▁schlimmsten	-11.706
▁französische	-11.7062
eur	-11.7068
▁Bur	-11.707
▁tauchen	-11.707
nseits	-11.7075
rück	-11.7076
▁Ron	-11.7076
hnen	-11.7076
blick	-11.7077
änder	-11.7079
▁magische	-11.708
liste	-11.708
aktiv	-11.7088
▁tribes	-11.7089
▁Taschen	-11.7089
▁Lang	-11.7091
▁192	-11.71
▁günstig	-11.71
▁Inhalte	-11.7101
▁Sta	-11.7106
▁komisch	-11.7106
lar	-11.7108
▁activate	-11.7108
▁mammals	-11.7109
▁Dis	-11.7111
▁fabric	-11.7116
störung	-11.7116
▁pie	-11.7117
▁Sehen	-11.7119
unterschied	-11.7119
▁intrigu	-11.7119
▁Erziehung	-11.7119
▁gezwungen	-11.7119
▁Buddha	-11.7119
▁Elizabeth	-11.7119
▁Käfer	-11.7119
▁Tränen	-11.7119
▁candidate	-11.7119
▁diabetes	-11.7119
▁intuition	-11.7119
▁skull	-11.7119
▁Kooperation	-11.7119
▁football	-11.712
▁demonstration	-11.712
▁Alice	-11.712
rger	-11.7121
▁Menschlichkeit	-11.7121
▁subtle	-11.7121
▁Bürgerkrieg	-11.7121
▁Force	-11.7121
▁Block	-11.7122
eopard	-11.7123
▁replicate	-11.7123
▁globalization	-11.7123
▁Arabic	-11.7123
▁Frequenz	-11.7126
▁erfordert	-11.7126
gestoßen	-11.7127
▁Anweisung	-11.7128
▁Sammlung	-11.7129
▁bold	-11.7129
▁Terror	-11.7131
▁upset	-11.7131
▁31	-11.7133
▁Anzeige	-11.7134
▁Löwen	-11.7134
möglich	-11.7135
anz	-11.7135
▁mochte	-11.7143
▁industrie	-11.7145
▁volle	-11.7146
nahm	-11.7148
▁Katze	-11.715
▁unternehmen	-11.715
▁tuna	-11.715
▁These	-11.7153
▁gebrochen	-11.716
▁gemein	-11.7161
▁audio	-11.7165
fund	-11.7168
nce	-11.7169
▁Partei	-11.7169
ähnliche	-11.7171
bilder	-11.7171
▁wette	-11.7172
▁Lieder	-11.7174
▁enden	-11.718
cal	-11.718
olds	-11.719
▁Eisen	-11.7195
▁Handeln	-11.7198
▁offenbar	-11.72
▁moralisch	-11.7201
ori	-11.7202
▁redet	-11.7206
äre	-11.7206
▁i	-11.7208
▁habit	-11.7211
aving	-11.7211
▁fehlende	-11.7212
▁Erkenntnisse	-11.7216
▁murder	-11.7221
▁Lichter	-11.7224
▁vari	-11.7225
▁integrat	-11.723
zeug	-11.7232
▁Katastrophen	-11.7232
▁nahezu	-11.7232
smal	-11.7237
▁Lehr	-11.7239
▁electronics	-11.7239
▁Felder	-11.7241
▁Time	-11.7243
▁unver	-11.7244
▁schaffte	-11.7245
▁alarm	-11.7249
spitze	-11.725
▁Früh	-11.725
kräfte	-11.725
▁Schokolade	-11.7251
▁Apollo	-11.7251
▁Beijing	-11.7251
▁Mozart	-11.7251
▁absurd	-11.7251
▁analysiere	-11.7251
▁diskutiere	-11.7251
▁geöffnet	-11.7251
▁identifie	-11.7251
▁inklusive	-11.7251
▁pioneer	-11.7251
▁smooth	-11.7251
▁spectacular	-11.7251
▁twist	-11.7251
kunst	-11.7251
▁Polizist	-11.7251
▁neuroscience	-11.7251
▁abandon	-11.7251
▁Blickwinkel	-11.7251
▁Onkel	-11.7251
▁leap	-11.7251
▁partnership	-11.7251
▁Mount	-11.7251
▁lamp	-11.7252
▁angehen	-11.7252
▁indigen	-11.7253
▁193	-11.7254
▁Ga	-11.7254
▁Ohr	-11.7254
▁Ausland	-11.7256
rung	-11.7256
▁darkness	-11.7259
▁Diabetes	-11.7259
▁wing	-11.726
▁20-	-11.7262
▁geeignet	-11.7264
▁hello	-11.7267
▁simulation	-11.7267
▁schw	-11.7267
▁Sendung	-11.727
▁Vier	-11.727
▁Service	-11.7271
▁Bauch	-11.7272
friend	-11.7273
fahr	-11.7279
rid	-11.728
▁Alternative	-11.7281
▁Sensoren	-11.7285
low	-11.7286
Me	-11.7287
real	-11.7288
some	-11.7296
spielen	-11.7296
zimmer	-11.7296
see	-11.7297
ahn	-11.73
eit	-11.73
▁Wachstums	-11.7303
▁Fels	-11.7305
▁rap	-11.7307
achtet	-11.7308
inblick	-11.7309
▁Hä	-11.731
▁Konzepte	-11.7311
▁soap	-11.7312
▁polici	-11.7314
code	-11.7315
uß	-11.7316
▁coat	-11.7317
▁Tra	-11.7317
stände	-11.732
▁15-	-11.7325
▁universit	-11.7325
▁zwingen	-11.7326
Spiel	-11.7328
isierte	-11.7328
▁Werke	-11.7332
▁Fotografie	-11.7337
▁Wichtige	-11.7343
▁Benutzer	-11.7349
▁körperliche	-11.735
▁unendlich	-11.7351
▁ta	-11.7354
▁physisch	-11.7355
▁Flugzeuge	-11.7357
▁Up	-11.7365
▁decrease	-11.7366
▁Führungs	-11.7373
▁stet	-11.7381
▁excellen	-11.7383
▁Skelett	-11.7384
▁spontan	-11.7384
▁Anpassung	-11.7384
▁Jordan	-11.7384
▁Weibchen	-11.7384
▁diskutiert	-11.7384
▁theoretisch	-11.7384
▁Ocean	-11.7384
▁Privatsphäre	-11.7384
▁herausfand	-11.7384
▁japanische	-11.7384
▁freak	-11.7384
▁Mountain	-11.7384
▁hungry	-11.7384
▁sandwich	-11.7384
▁Lord	-11.7384
▁textbook	-11.7384
▁resolve	-11.7385
▁fortune	-11.7385
▁passenger	-11.7385
▁hardware	-11.7385
▁wow	-11.7386
erkeley	-11.7386
▁Juni	-11.7386
▁Scham	-11.7386
▁northern	-11.7386
▁achievement	-11.7388
▁geraten	-11.7389
▁Jami	-11.7391
▁Abenteuer	-11.7391
▁Brother	-11.7391
▁Dean	-11.7394
▁Play	-11.7395
▁vorwärts	-11.7395
▁Explosion	-11.7397
▁There	-11.7399
▁biologisch	-11.74
▁pace	-11.7401
▁stammen	-11.7404
▁Nations	-11.7405
▁tricks	-11.7407
▁verschwinde	-11.7408
Bahn	-11.7408
baren	-11.741
▁fed	-11.7414
strecken	-11.7414
erfassen	-11.7415
▁plain	-11.7416
▁Alle	-11.7417
▁Lake	-11.7421
▁treib	-11.7423
generation	-11.7425
▁anbieten	-11.7431
▁Spur	-11.7434
▁Probe	-11.744
▁Julian	-11.7443
▁Marc	-11.7448
▁pregnan	-11.7457
▁diver	-11.7459
▁Kit	-11.7461
▁Ratten	-11.7462
▁Schwestern	-11.7466
▁lit	-11.7467
▁Pen	-11.7467
mitten	-11.7467
pflanzen	-11.7467
▁langfristige	-11.7468
▁ill	-11.7469
▁ka	-11.747
▁copie	-11.7471
▁experimental	-11.7471
fahrt	-11.7473
ez	-11.7476
▁schöner	-11.7477
▁auto	-11.7478
▁nette	-11.7483
▁Fremden	-11.7486
hne	-11.749
▁terrorists	-11.7494
▁43	-11.7497
bett	-11.75
▁deck	-11.7503
▁kauft	-11.7508
wellen	-11.751
▁gewöhnlich	-11.751
▁Schriftsteller	-11.7512
▁Cu	-11.7512
▁Kilo	-11.7515
▁Wasserstoff	-11.7517
▁deploy	-11.7518
venue	-11.7518
▁Privat	-11.7519
▁Abhängigkeit	-11.7519
▁Dynamik	-11.7519
▁Intuition	-11.7519
▁Keith	-11.7519
▁Urknall	-11.7519
▁pandemic	-11.7519
▁trajector	-11.7519
▁chief	-11.7519
▁sauce	-11.7519
▁ärmste	-11.7519
▁Entschuldigung	-11.7519
▁Lärm	-11.7519
▁stroke	-11.7519
▁Simulation	-11.7519
▁Enkel	-11.7519
▁approv	-11.7519
▁getestet	-11.7519
▁gradual	-11.752
▁drift	-11.752
▁Sierra	-11.752
▁ausreichend	-11.752
▁isoliert	-11.752
üsse	-11.752
▁Hügel	-11.752
▁Länge	-11.7521
▁keyboard	-11.7521
▁erneuerbare	-11.7521
▁Luther	-11.7523
▁editor	-11.7525
▁Vorder	-11.7527
lag	-11.7528
▁pipe	-11.7528
▁hilfreich	-11.753
▁Tiger	-11.7531
phy	-11.7533
▁intellektuelle	-11.7533
▁consequence	-11.7533
▁unterhalten	-11.7534
scha	-11.7538
▁span	-11.7538
▁rent	-11.754
▁sail	-11.7542
▁präsentiere	-11.7542
▁zuhören	-11.7544
▁glad	-11.7546
▁Dinger	-11.7546
force	-11.7546
▁willkommen	-11.7547
▁pal	-11.7552
▁Ram	-11.7552
redet	-11.7553
▁Unternehmens	-11.7554
▁liebt	-11.7555
▁Kreise	-11.7556
▁package	-11.7561
▁Pflanze	-11.7561
bersetzung	-11.7561
▁pause	-11.7563
▁fremde	-11.7564
▁verlor	-11.7567
▁radikal	-11.7568
▁schwerer	-11.7569
▁ethic	-11.757
▁wirtschaftlich	-11.7571
▁Alters	-11.7582
▁profession	-11.7583
nia	-11.7585
▁geistige	-11.7585
▁beschränkt	-11.7586
▁stabil	-11.7593
fliegen	-11.76
▁officer	-11.7601
▁Hinweis	-11.7606
▁integrate	-11.7612
▁kümmert	-11.7614
gua	-11.7615
set	-11.7616
▁surrounding	-11.7617
identifizieren	-11.7625
aufgabe	-11.7627
▁besonderen	-11.7629
▁Besitz	-11.7634
▁diagnose	-11.7636
erlei	-11.7638
produktion	-11.7641
▁Pol	-11.7641
▁Hut	-11.7648
▁vernetzt	-11.7649
▁Dad	-11.7651
rctic	-11.7651
▁Reis	-11.7653
star	-11.7654
▁Norm	-11.7655
▁Alkohol	-11.7656
▁Mittlere	-11.7656
▁Wohlbefinden	-11.7656
▁aesthetic	-11.7656
▁außerordentlich	-11.7656
▁ehemalige	-11.7656
▁helicopter	-11.7656
▁supplie	-11.7656
▁uncomfortabl	-11.7656
chten	-11.7656
▁Variation	-11.7656
▁paralyz	-11.7656
▁Reichtum	-11.7656
▁Ruanda	-11.7656
▁Aufzeichnung	-11.7656
▁reinvent	-11.7657
▁Beschreibung	-11.7657
▁freiwillig	-11.7657
▁Schlechte	-11.7657
▁verstecken	-11.7658
▁festgestellt	-11.7658
▁laid	-11.7658
▁Schock	-11.7659
▁variable	-11.7659
▁Lebensraum	-11.766
▁glacier	-11.7661
▁radi	-11.7661
entwicklung	-11.7661
▁qu	-11.7662
▁Regenwald	-11.7663
▁essence	-11.7664
▁initiative	-11.7667
▁KB	-11.7669
▁Filter	-11.7669
▁Now	-11.7671
issen	-11.7674
▁flach	-11.7676
▁Hindernisse	-11.7677
▁Are	-11.7677
▁verurteilt	-11.7678
▁bewahren	-11.7678
▁agricultural	-11.768
treiben	-11.7681
lässt	-11.7681
▁Brad	-11.7682
▁Toilette	-11.7688
fällig	-11.7688
▁psychologische	-11.7689
▁Haushalt	-11.769
▁discoveries	-11.769
▁fließ	-11.7698
▁Blase	-11.7703
▁formula	-11.771
field	-11.7711
▁neuro	-11.7711
wirtschaftliche	-11.7715
▁bath	-11.7718
▁pursue	-11.7719
▁Fä	-11.7721
▁farmer	-11.7722
▁magical	-11.7724
bus	-11.7728
swert	-11.773
▁Prototypen	-11.7733
▁Weiß	-11.7733
▁craft	-11.7735
▁Farb	-11.7735
▁fotografiert	-11.7737
▁dish	-11.7739
▁Talent	-11.7742
▁sozialer	-11.7743
▁Mall	-11.7745
▁proportion	-11.775
▁pu	-11.7756
leidenschaftlich	-11.7767
▁zurecht	-11.7772
dichte	-11.7772
stab	-11.7773
▁reefs	-11.7774
han	-11.7776
▁abstrakte	-11.7779
▁Mom	-11.778
ständig	-11.7787
unterricht	-11.7791
▁Hawaii	-11.7793
▁wings	-11.7793
temperatur	-11.7794
xytocin	-11.7794
▁Knopf	-11.7795
▁Tempo	-11.7795
▁genocide	-11.7795
▁recruit	-11.7795
▁sorgfältig	-11.7795
▁ungeheuer	-11.7795
▁zwölf	-11.7795
▁züchte	-11.7795
▁relax	-11.7795
▁automobile	-11.7795
▁gelehrt	-11.7795
▁breakthrough	-11.7795
▁erkunden	-11.7795
▁Wilson	-11.7795
▁bump	-11.7795
▁trash	-11.7795
▁Jewish	-11.7795
▁dringend	-11.7795
▁Gegenstände	-11.7796
▁Craig	-11.7796
▁Strecke	-11.7796
▁Verhandlung	-11.7796
▁teilnehmen	-11.7796
▁Frühling	-11.7796
▁vorhersagen	-11.7796
▁Oxytocin	-11.7796
▁Zero	-11.7796
▁boil	-11.7796
▁jelly	-11.7796
srate	-11.7797
▁Datenbank	-11.7798
▁extinction	-11.7798
▁Danny	-11.7798
▁fisher	-11.7798
ius	-11.7799
▁südlich	-11.78
mine	-11.78
▁grandfather	-11.7801
▁polar	-11.7804
▁output	-11.7805
▁sill	-11.7809
▁Pläne	-11.7809
werten	-11.7811
▁Planung	-11.7812
▁burst	-11.7813
▁reactor	-11.7815
▁reef	-11.7816
▁lud	-11.7817
▁dinosaur	-11.7817
▁Rasse	-11.7819
▁98	-11.7822
tischen	-11.7828
fügen	-11.7834
▁Trends	-11.7834
▁logisch	-11.7834
▁Tasche	-11.7839
▁printer	-11.7843
▁Nervenzellen	-11.7845
uten	-11.7848
▁Gra	-11.7853
hus	-11.7856
asse	-11.7857
ahr	-11.7858
▁Metern	-11.7865
lte	-11.7868
ruft	-11.787
▁agenc	-11.7877
statt	-11.7882
▁Bert	-11.7886
▁profitier	-11.7886
kleid	-11.7886
▁unabhängige	-11.7887
▁ausschließlich	-11.7888
Mails	-11.7888
sprech	-11.7892
▁Ei	-11.7896
artig	-11.7896
▁hid	-11.79
▁Höhlen	-11.7901
▁führende	-11.7902
▁puts	-11.7903
ddy	-11.7906
ili	-11.7907
inner	-11.791
▁terror	-11.7914
▁heiße	-11.7915
▁Teleskop	-11.7917
▁expos	-11.7918
▁anfäng	-11.7919
▁prä	-11.7925
▁branch	-11.7927
▁Alpha	-11.7934
▁east	-11.7935
▁disturb	-11.7936
gewebe	-11.7936
▁Besondere	-11.7936
▁Department	-11.7936
▁Studium	-11.7936
▁fabulous	-11.7936
▁herstellt	-11.7936
▁surveill	-11.7936
▁trivial	-11.7936
▁Benzin	-11.7936
▁Treppe	-11.7936
▁chaos	-11.7936
▁currenc	-11.7936
▁Tesla	-11.7936
▁Schwanz	-11.7936
▁clay	-11.7936
▁comparison	-11.7936
▁herzlich	-11.7936
▁synthetic	-11.7936
▁Produktivität	-11.7936
▁biodiversity	-11.7937
▁Treibstoff	-11.7937
▁Kuchen	-11.7937
▁Antrieb	-11.7937
▁Schall	-11.7938
▁winner	-11.7938
▁portion	-11.7938
▁exam	-11.7938
hren	-11.7939
▁Kong	-11.7939
▁1995	-11.7941
▁neck	-11.7941
▁verteilen	-11.7944
▁attractive	-11.7944
▁locate	-11.7946
▁Güter	-11.7949
▁entsprechend	-11.7949
▁Winkel	-11.795
▁vorgestellt	-11.7954
▁cliff	-11.7955
▁Bel	-11.7956
▁via	-11.7958
▁ausgegeben	-11.796
▁twin	-11.7967
▁Nest	-11.7968
▁geringe	-11.7968
▁coole	-11.7968
▁Original	-11.797
▁leverage	-11.7971
▁tötet	-11.7972
▁ausgehen	-11.7973
amerikanische	-11.7974
▁schreibe	-11.7979
▁dimension	-11.7981
▁Gelände	-11.7981
▁Lama	-11.7983
▁terrorist	-11.7984
▁Schwarze	-11.7988
▁fange	-11.7991
gainst	-11.7992
▁locked	-11.7992
▁harmon	-11.7995
▁beträgt	-11.7998
▁proof	-11.8002
▁Steine	-11.8005
▁Pop	-11.8007
aka	-11.8008
▁Ausgaben	-11.8008
fische	-11.8017
▁underly	-11.8021
▁gefahren	-11.8022
▁camel	-11.8022
▁Mil	-11.8023
▁Beach	-11.8023
ttle	-11.8027
▁dick	-11.8031
▁sammelt	-11.8032
fremd	-11.8032
▁Reisen	-11.805
stätte	-11.8061
▁müsst	-11.8061
schluss	-11.8062
kette	-11.8064
▁bedeutende	-11.8068
▁komplizierter	-11.8076
▁Feedback	-11.8077
▁quest	-11.8079
▁Digital	-11.8079
▁Antarctic	-11.8079
▁Jerusalem	-11.8079
▁Phoenix	-11.8079
▁Versicherung	-11.8079
▁begleitet	-11.8079
▁kombiniert	-11.8079
▁motiviert	-11.8079
▁shrimp	-11.8079
▁vagina	-11.8079
▁Canyon	-11.8079
▁Praxis	-11.8079
▁dialogue	-11.8079
▁convey	-11.8079
▁federal	-11.8079
bedingung	-11.8079
▁elite	-11.8079
▁Bürgermeister	-11.8079
▁Ehemann	-11.8079
▁1930	-11.8079
▁ooh	-11.8079
▁bullet	-11.8079
▁Balance	-11.8079
▁Ernst	-11.8079
▁stunt	-11.808
▁fool	-11.808
▁tragic	-11.808
▁Erforschung	-11.808
▁neat	-11.8081
▁debt	-11.8081
▁verhindert	-11.8081
▁southern	-11.8081
▁leak	-11.8082
bergang	-11.8082
▁Amazonas	-11.8082
▁Scheibe	-11.8083
▁tropic	-11.8083
gelaufen	-11.8083
▁Staub	-11.8083
▁amaze	-11.8084
▁begreife	-11.8084
▁ensure	-11.8085
▁Susan	-11.8085
▁garage	-11.8086
▁Geschlecht	-11.8086
▁kg	-11.8086
▁behauptet	-11.8087
▁nutrient	-11.8088
▁Kontroll	-11.8088
▁vieler	-11.8088
▁Emil	-11.8091
▁negativ	-11.8092
▁globally	-11.8092
ritt	-11.8094
▁tent	-11.8094
▁Kath	-11.8097
▁tired	-11.8098
ände	-11.81
air	-11.8101
chan	-11.8101
▁weh	-11.8103
▁Ober	-11.8104
▁Watt	-11.8107
▁opera	-11.8109
▁programmiere	-11.8109
▁richtet	-11.8109
gelassen	-11.8111
▁erinnerte	-11.8112
Boot	-11.8113
Programm	-11.8113
Cola	-11.8113
▁Höhle	-11.8114
ically	-11.8115
▁tension	-11.8115
▁trenne	-11.8116
▁Acht	-11.8118
tiere	-11.8118
▁Statistik	-11.8119
▁Asteroiden	-11.812
▁geling	-11.8121
▁echtes	-11.8122
▁angetrieben	-11.8123
haut	-11.8123
▁Rollen	-11.8124
▁resilienc	-11.8124
firma	-11.8127
▁beetle	-11.813
▁geworfen	-11.8134
▁Einblick	-11.8136
▁wollt	-11.8137
▁demo	-11.8138
▁duck	-11.8141
▁formal	-11.8145
cer	-11.8148
▁schief	-11.8148
▁Gefahren	-11.8151
▁schließ	-11.8152
▁le	-11.8155
▁programmer	-11.8158
▁cop	-11.816
bre	-11.8166
boden	-11.8167
▁Mari	-11.8182
▁Dichte	-11.8184
▁hing	-11.8185
scher	-11.8188
iti	-11.8192
▁award	-11.8196
▁wage	-11.8201
gerufen	-11.8206
▁einschließlich	-11.8211
▁ratio	-11.8213
kte	-11.8214
rob	-11.8216
zelle	-11.8218
▁entdeckten	-11.8218
▁zwang	-11.822
▁Gestalt	-11.8221
▁inject	-11.8223
▁Alaska	-11.8224
▁Bewohner	-11.8224
▁Jupiter	-11.8224
▁Sylvia	-11.8224
▁mysterious	-11.8224
▁recipe	-11.8224
▁substance	-11.8224
▁verdoppelt	-11.8224
▁verringern	-11.8224
▁Disziplin	-11.8224
▁islamische	-11.8224
▁besaß	-11.8224
▁deutsche	-11.8224
▁Kennedy	-11.8224
▁inherent	-11.8224
▁käme	-11.8224
▁Beitrag	-11.8224
▁Orchester	-11.8224
▁entwarf	-11.8224
▁expectanc	-11.8224
▁naked	-11.8224
▁supermarket	-11.8224
▁collaborative	-11.8224
▁Elektronik	-11.8224
▁impression	-11.8224
▁colonies	-11.8225
▁Einsicht	-11.8225
▁ecological	-11.8227
▁realm	-11.8228
▁vulnerability	-11.8229
sitz	-11.8229
▁präzise	-11.823
▁zurückkommen	-11.8233
▁optimal	-11.8233
▁verzweifelt	-11.8234
▁Ital	-11.8235
▁dear	-11.8236
▁Hyper	-11.8236
▁Bruc	-11.8239
▁installation	-11.824
▁Alan	-11.8241
▁ausdrücken	-11.8243
▁tunnel	-11.8244
▁highway	-11.8245
▁entrepreneur	-11.8246
▁militärische	-11.8249
▁sacrifice	-11.8252
▁überprüf	-11.8254
▁roots	-11.8258
third	-11.826
fläche	-11.8261
▁tribe	-11.8262
▁Stämme	-11.8263
▁schwach	-11.8263
av	-11.8264
▁defin	-11.8266
▁investor	-11.8268
▁faci	-11.8268
stan	-11.827
wort	-11.8274
forscher	-11.8274
▁glückliche	-11.8274
▁announc	-11.8279
▁Pilot	-11.8281
▁Poster	-11.8285
▁populations	-11.8286
gebiet	-11.8287
▁0	-11.8288
▁umfassende	-11.8289
produkt	-11.8292
Energieverbrauch	-11.8294
erkennung	-11.8295
üge	-11.8296
▁fragile	-11.8298
maß	-11.8298
verbrauchen	-11.83
▁Kauf	-11.8301
ille	-11.8307
turm	-11.8311
liv	-11.8313
▁Denk	-11.8314
▁hanging	-11.8317
▁ungewöhnliche	-11.8318
▁Raketen	-11.8318
▁symbols	-11.8319
▁statistical	-11.8322
sia	-11.8324
▁gewöhnliche	-11.8324
sea	-11.8326
▁fanc	-11.8328
▁gewaltig	-11.8331
13	-11.8331
▁walks	-11.8332
▁determined	-11.8334
▁Oel	-11.8336
anda	-11.8338
▁plug	-11.8341
gab	-11.8343
▁Journal	-11.8345
orient	-11.8347
▁Bitte	-11.835
▁34	-11.835
hang	-11.8351
▁computation	-11.8354
put	-11.8356
▁paradox	-11.8356
▁Besuch	-11.8358
▁nachzu	-11.8366
▁youth	-11.8368
ante	-11.8368
▁capita	-11.8368
▁cheese	-11.8369
▁simultaneous	-11.8371
▁Bangladesh	-11.8371
▁Empathie	-11.8371
▁Schöne	-11.8371
▁akzeptiert	-11.8371
▁district	-11.8371
▁medication	-11.8371
▁Strahlung	-11.8371
▁Tibet	-11.8371
▁burie	-11.8371
▁Branche	-11.8371
▁verknüpft	-11.8371
▁Mikroskop	-11.8371
▁Schreibtisch	-11.8371
▁ignorance	-11.8371
▁verlangen	-11.8371
▁devil	-11.8371
▁Pocken	-11.8371
▁Konstruktion	-11.8371
▁Anhänger	-11.8371
▁Cyber	-11.8372
▁Nike	-11.8372
lip	-11.8372
▁Mechanismus	-11.8372
▁Erwärmung	-11.8372
▁Gegenstand	-11.8372
▁ultra	-11.8373
▁highlight	-11.8374
▁4,000	-11.8374
▁tendenc	-11.8374
▁dust	-11.8379
▁Nun	-11.8379
▁Betracht	-11.838
▁Behinderung	-11.838
dacht	-11.8381
▁riesig	-11.8382
▁Manager	-11.8382
▁suggestion	-11.8382
▁Eigen	-11.8383
eten	-11.8383
▁march	-11.8384
▁experienc	-11.8386
▁verblüffend	-11.8387
▁ermutigen	-11.8387
▁spray	-11.8392
▁acquire	-11.8403
▁Fehl	-11.8405
▁Fernseher	-11.8408
▁gefüllt	-11.841
▁soldier	-11.8411
▁erect	-11.8414
haben	-11.8416
▁On	-11.8417
▁relations	-11.8418
▁Station	-11.8419
book	-11.8419
lium	-11.842
▁Emission	-11.8423
▁Ob	-11.8424
▁Chirurg	-11.8429
ome	-11.843
▁Evan	-11.8436
insel	-11.8437
▁repeated	-11.8441
kontrolle	-11.8446
▁ökologische	-11.8446
▁marker	-11.8447
▁washing	-11.8447
▁mail	-11.8449
▁Meme	-11.8451
▁liebste	-11.8452
▁greifen	-11.8454
▁effizient	-11.8457
▁strangers	-11.8458
uit	-11.8459
▁personaliz	-11.8466
▁radikale	-11.8467
▁balls	-11.8474
▁irre	-11.8476
zustand	-11.8476
▁Bedürfnis	-11.8476
▁organische	-11.8478
▁employ	-11.8479
oon	-11.8485
▁heirate	-11.8489
tausend	-11.849
▁Arabisch	-11.8493
▁Vo	-11.8496
▁Held	-11.8498
▁sensory	-11.8506
▁Techniken	-11.8512
spalt	-11.8514
▁hearts	-11.8518
▁addict	-11.8518
leitung	-11.852
▁Council	-11.852
▁Glühbirne	-11.852
▁Väter	-11.852
▁expansion	-11.852
▁gesünder	-11.852
▁kombiniere	-11.852
▁schmerzhaft	-11.852
▁überwältigend	-11.852
▁Nährstoffe	-11.852
▁Octo	-11.852
▁contemporar	-11.852
▁erledige	-11.852
▁verwandt	-11.852
▁consist	-11.852
▁Arbeitsplätze	-11.852
▁NSA	-11.852
▁condom	-11.852
▁rope	-11.852
▁arrow	-11.852
▁array	-11.852
▁Arbeitsplatz	-11.8521
▁rocks	-11.8521
▁Gleichheit	-11.8521
▁geliebt	-11.8521
▁Heilung	-11.8521
▁leise	-11.8522
▁Right	-11.8522
▁Kid	-11.8524
▁Prüfung	-11.8524
▁Bescheid	-11.8524
▁verarbeiten	-11.8526
▁Kapazität	-11.8526
▁EU	-11.8527
▁Innen	-11.8528
teilung	-11.8529
flug	-11.853
▁beobachtete	-11.8532
ay	-11.8534
▁Management	-11.8535
▁alltägliche	-11.8537
sagen	-11.8538
▁20.000	-11.8539
▁Kim	-11.854
▁sir	-11.8541
▁Spenden	-11.8541
betrieb	-11.8542
▁trainiere	-11.8544
itter	-11.8547
ellen	-11.8549
▁Lungen	-11.8551
▁damn	-11.8551
jury	-11.8553
▁crossing	-11.8554
▁7.	-11.8558
ington	-11.856
lot	-11.856
interest	-11.856
▁recycle	-11.8562
▁0.	-11.8562
▁manual	-11.8564
look	-11.8566
staat	-11.8568
▁reported	-11.8569
▁viewer	-11.8571
▁tägliche	-11.8571
▁Leser	-11.8573
▁beer	-11.8574
▁magnet	-11.858
▁Han	-11.858
▁bang	-11.8585
▁wünschen	-11.859
bble	-11.859
▁dung	-11.859
▁sin	-11.859
liege	-11.8592
▁def	-11.8596
▁shopp	-11.8596
▁panels	-11.8596
geräte	-11.8598
▁unbekannte	-11.86
ury	-11.8603
reicht	-11.8604
▁gerecht	-11.861
▁Fo	-11.8612
▁beschleunigt	-11.8612
▁consum	-11.8616
aba	-11.8616
▁Tricks	-11.8617
▁sicherer	-11.8619
▁climbing	-11.8621
▁gathering	-11.8621
▁assembl	-11.8623
wechsel	-11.8627
▁Far	-11.863
▁gemeinnützige	-11.863
▁believ	-11.8636
▁pole	-11.8639
▁pot	-11.8643
rous	-11.8657
getreten	-11.8657
bekommen	-11.8658
ange	-11.866
▁Katzen	-11.8662
grad	-11.8663
▁Free	-11.8664
ction	-11.8664
▁Wei	-11.8665
▁arriv	-11.8666
▁routine	-11.8672
▁Afghan	-11.8672
▁lasse	-11.8672
▁Völker	-11.8672
▁glamor	-11.8672
▁Flughafen	-11.8672
▁Himalaya	-11.8672
▁Optimismus	-11.8672
▁combat	-11.8672
▁multinational	-11.8672
▁unfair	-11.8672
▁unterscheidet	-11.8672
▁verborgen	-11.8672
matrix	-11.8672
▁valley	-11.8672
▁luxur	-11.8672
▁Baseball	-11.8672
▁generell	-11.8672
▁Seife	-11.8672
▁punch	-11.8672
▁architectural	-11.8672
▁beschützen	-11.8672
gegriffen	-11.8672
▁Ladung	-11.8672
▁Austausch	-11.8672
▁Abendessen	-11.8672
▁slavery	-11.8672
▁honey	-11.8672
▁primari	-11.8672
▁Columbia	-11.8673
▁strand	-11.8673
▁euer	-11.8673
▁mood	-11.8674
▁Apfel	-11.8674
▁fl	-11.8674
▁mask	-11.8675
▁homework	-11.8675
▁96	-11.8675
▁1994	-11.8676
▁Haltung	-11.8677
▁Maße	-11.8678
▁pathway	-11.8678
▁interpretation	-11.8679
▁berechnet	-11.868
▁ignoriert	-11.8682
▁Individuum	-11.8685
▁verrate	-11.8685
▁Kredit	-11.8686
▁Sc	-11.8688
▁Personal	-11.8689
orientierte	-11.8692
▁rüber	-11.8693
ordne	-11.8699
▁Halb	-11.8701
▁vergleich	-11.8702
▁palm	-11.8703
▁niedriger	-11.8703
Sahara	-11.8714
▁grave	-11.8715
space	-11.8715
▁aufregende	-11.8716
▁weitermache	-11.8716
▁Mannes	-11.8716
▁Magazin	-11.8724
iness	-11.8724
▁Oper	-11.8731
▁erschien	-11.8736
▁Nahrungs	-11.8736
weit	-11.8736
▁beliebige	-11.8737
▁schießen	-11.8742
▁communicat	-11.8742
▁Anreize	-11.8747
▁para	-11.8752
▁failing	-11.8753
▁concentrate	-11.8756
zubauen	-11.8763
▁Pet	-11.8765
▁Tele	-11.8766
▁poly	-11.8769
kamen	-11.877
▁Bla	-11.8774
▁Spuren	-11.8774
La	-11.8775
pla	-11.8779
▁Straf	-11.8782
▁Gewinner	-11.8782
▁dancer	-11.8786
▁unmittelbar	-11.8788
frage	-11.8789
▁grob	-11.879
gesetzt	-11.8792
gänge	-11.88
▁Pferde	-11.8809
▁expanding	-11.8809
fluss	-11.8811
▁erziel	-11.8814
▁Eigentum	-11.8815
▁Magnet	-11.8818
▁Mais	-11.882
▁gering	-11.882
▁ego	-11.8821
▁spannend	-11.8822
▁suspend	-11.8822
körper	-11.8822
▁hierarch	-11.8823
▁Francis	-11.8825
▁Analogie	-11.8826
▁Privileg	-11.8826
▁alcohol	-11.8826
▁compromise	-11.8826
▁cricket	-11.8826
▁expedition	-11.8826
▁gegessen	-11.8826
▁muslimische	-11.8826
▁sacred	-11.8826
▁scheitern	-11.8826
▁vacuum	-11.8826
Jährige	-11.8826
▁Kohlendioxid	-11.8826
▁creator	-11.8826
▁Dutch	-11.8826
▁geplant	-11.8826
▁umfasst	-11.8826
▁bribe	-11.8826
▁Autorität	-11.8826
▁merkte	-11.8826
▁1,2	-11.8826
▁abgeschlossen	-11.8826
▁Kapitalismus	-11.8826
▁assignment	-11.8826
▁Gift	-11.8827
▁Hochzeit	-11.8827
▁Fischerei	-11.8827
▁blicken	-11.8827
▁Riff	-11.8827
▁Julia	-11.8828
▁Iranian	-11.8828
▁native	-11.8829
▁Faser	-11.8829
▁grasp	-11.883
▁Rechen	-11.883
▁bewirkt	-11.883
▁acknowledge	-11.8831
▁trage	-11.8832
▁grandchildren	-11.8832
▁Geschäftsmodell	-11.8832
▁measurement	-11.8834
dom	-11.8835
▁ethnische	-11.8836
▁50.000	-11.8837
▁drivers	-11.8839
ership	-11.884
sonst	-11.8843
▁Institut	-11.8844
▁Veranstaltung	-11.8846
▁Lehre	-11.8848
wal	-11.885
▁gewissermaß	-11.8851
▁coordinat	-11.8853
▁prepare	-11.8854
▁zuzu	-11.8854
▁bars	-11.8864
sucht	-11.8865
▁reliabl	-11.8869
▁klare	-11.8871
▁Salz	-11.8875
▁aufeinander	-11.888
▁comic	-11.8884
▁traditionell	-11.8886
thane	-11.8887
▁geleitet	-11.8889
▁Grab	-11.8893
shelf	-11.8895
szeit	-11.8897
▁degrad	-11.8898
▁Flasche	-11.8905
▁Unterwasser	-11.8905
kb	-11.8911
▁Kommunikations	-11.8912
▁parasite	-11.8912
▁producer	-11.8922
▁stands	-11.8925
die	-11.8927
▁beendet	-11.893
▁joint	-11.8937
▁mechanisms	-11.8939
▁shocking	-11.8941
uanten	-11.8942
▁spa	-11.8943
▁Pilz	-11.8945
baum	-11.8945
▁Gleich	-11.8948
▁capabilit	-11.8948
▁Nichts	-11.8951
▁Bomben	-11.8953
risch	-11.8953
urkey	-11.8955
regel	-11.8957
paar	-11.8959
ahl	-11.896
▁Biologe	-11.896
schieben	-11.8963
▁stattfinden	-11.8963
▁Zentral	-11.8964
▁erweitert	-11.8965
▁warning	-11.8965
▁neueste	-11.8967
▁Mel	-11.8968
▁fate	-11.8969
geist	-11.8974
▁Wechsel	-11.8979
▁recommend	-11.898
▁allzu	-11.8981
▁Engagement	-11.8982
▁Jefferson	-11.8982
▁Mühe	-11.8982
▁Namibia	-11.8982
▁Portugal	-11.8982
▁Sputnik	-11.8982
▁TEDGlobal	-11.8982
▁choosing	-11.8982
▁grösser	-11.8982
▁hypothesis	-11.8982
▁iPad	-11.8982
▁territor	-11.8982
▁threshold	-11.8982
▁thrill	-11.8982
▁tweet	-11.8982
stöß	-11.8982
▁Tendenz	-11.8982
▁Bindung	-11.8982
▁Kelly	-11.8982
▁extension	-11.8982
▁Sprung	-11.8982
▁Bonobo	-11.8982
▁Thailand	-11.8982
▁Where	-11.8982
▁Apparat	-11.8983
▁Wörterbuch	-11.8983
▁versagt	-11.8983
▁Republican	-11.8983
▁blink	-11.8983
▁contribution	-11.8983
▁Einheiten	-11.8984
▁primate	-11.8984
▁warf	-11.8987
▁Hilfs	-11.8989
cke	-11.899
▁Weltbank	-11.8992
▁dumb	-11.8992
▁Programmierer	-11.8996
▁helpful	-11.8996
uad	-11.8996
▁Rechner	-11.8998
▁Verbraucher	-11.8999
▁uncertaint	-11.8999
▁billiger	-11.8999
▁Dave	-11.9
fähigkeit	-11.9
▁Erfindungen	-11.9002
▁involviert	-11.9002
▁dreimal	-11.9007
▁lenken	-11.9008
▁geblieben	-11.9011
▁Zone	-11.9015
▁AK	-11.9018
▁Genie	-11.9021
▁magni	-11.9021
▁tackle	-11.9021
▁Säugetiere	-11.9024
▁toys	-11.9024
▁mechanic	-11.9029
assembl	-11.9029
▁Lücke	-11.9033
▁Nachbar	-11.9033
▁Schlange	-11.9034
▁Hals	-11.9036
text	-11.9037
▁wertvolle	-11.9038
oh	-11.904
▁fliegende	-11.9044
stage	-11.9045
▁studierte	-11.9049
▁agency	-11.9049
eat	-11.9055
▁ne	-11.9058
▁shirt	-11.9059
▁Kriege	-11.9065
▁wieviele	-11.9067
▁weiterentwickel	-11.9067
▁cartoons	-11.9072
▁Welle	-11.9078
nick	-11.9078
▁Autoren	-11.9086
▁heb	-11.9092
ada	-11.9095
act	-11.9096
therapie	-11.9097
▁Judi	-11.91
▁spiele	-11.91
▁herab	-11.9104
▁Figuren	-11.9104
▁Fahrt	-11.9106
▁luck	-11.911
▁heilige	-11.9116
▁dose	-11.9122
mission	-11.9124
▁mimic	-11.9125
▁compete	-11.9127
▁Griff	-11.9129
▁Wunde	-11.9135
▁introduc	-11.9136
▁Rauch	-11.9138
▁Stan	-11.9139
▁47	-11.914
▁instinct	-11.914
▁anonym	-11.914
▁Thank	-11.914
blätter	-11.914
risiko	-11.914
▁Oktober	-11.914
▁Pazifik	-11.914
▁Schwerkraft	-11.914
▁dopamine	-11.914
▁erledigt	-11.914
▁leather	-11.914
▁nördlich	-11.914
▁Substanz	-11.9141
▁civic	-11.9141
▁unangenehm	-11.9141
▁Voraussetzung	-11.9141
▁Sudan	-11.9141
▁fraction	-11.9141
▁optimism	-11.9141
▁Venus	-11.9141
▁Auffassung	-11.9141
▁Mentor	-11.9141
▁Montana	-11.9141
▁nonprofit	-11.9141
▁simp	-11.9141
▁chromosome	-11.9141
▁Egyptian	-11.9141
▁Versagen	-11.9142
▁kidney	-11.9142
▁concentration	-11.9142
▁permission	-11.9142
sprung	-11.9143
▁strategic	-11.9143
▁appearance	-11.9144
▁stake	-11.9144
▁Mutation	-11.9144
▁selfish	-11.9145
▁coach	-11.9146
▁zweieinhalb	-11.9146
▁owner	-11.9146
▁Route	-11.9147
▁filmmaker	-11.9147
▁Chor	-11.9149
ket	-11.9149
▁praktische	-11.9149
▁erheblich	-11.9151
▁Sunday	-11.9151
ept	-11.9152
▁verkaufte	-11.9155
▁30,000	-11.9156
▁Cloud	-11.9156
▁stieß	-11.9156
programme	-11.9156
▁whistle	-11.9156
▁liest	-11.9158
▁anzuschauen	-11.9158
schiff	-11.9159
brachte	-11.9166
ware	-11.9166
▁Por	-11.917
▁Nadi	-11.9171
smöglichkeit	-11.9174
▁autonom	-11.9175
schritt	-11.9175
▁upside	-11.9176
▁bound	-11.9178
deckt	-11.918
▁sendet	-11.9181
▁projection	-11.9181
▁Kreislauf	-11.9181
▁Gr	-11.9183
▁Bewusstseins	-11.9188
bezogen	-11.9192
▁manipulate	-11.9192
▁Ameise	-11.9195
▁folgender	-11.9195
▁ac	-11.9195
▁abend	-11.9203
▁Designs	-11.9205
pur	-11.9207
▁17.	-11.9208
▁Genome	-11.9209
▁tags	-11.921
avi	-11.9211
▁Prototyp	-11.9212
gram	-11.9213
▁Doppel	-11.9213
▁ausführen	-11.9215
▁soup	-11.922
▁Journalisten	-11.922
▁Carol	-11.9221
▁weinen	-11.9222
▁Dir	-11.9223
▁trainiert	-11.923
▁classical	-11.923
position	-11.9231
wich	-11.9234
▁Del	-11.9235
park	-11.9238
▁Cor	-11.9239
▁Les	-11.9239
▁Schild	-11.9251
lösung	-11.9252
▁mixed	-11.9256
▁imager	-11.9267
▁spark	-11.9269
▁sanit	-11.9272
▁Rechts	-11.9272
▁Nigerian	-11.9275
▁prior	-11.9276
▁instant	-11.9278
▁verbreitete	-11.928
ai	-11.9282
▁unsichtbare	-11.9285
▁Organism	-11.9289
▁horizon	-11.9294
spiegel	-11.9294
ueen	-11.9299
▁Kranken	-11.9299
ohn	-11.9301
▁Deutsch	-11.9301
▁Disney	-11.9301
▁slave	-11.9301
▁Dopamin	-11.9302
▁Pyramide	-11.9302
▁Töchter	-11.9302
▁anxiety	-11.9302
▁aufmerksam	-11.9302
▁curriculum	-11.9302
▁spontaneous	-11.9302
▁wheelchair	-11.9302
▁scharf	-11.9302
▁unheimlich	-11.9302
▁snake	-11.9302
▁regulation	-11.9302
▁Stoffwechsel	-11.9302
▁broadcast	-11.9302
▁Anfänge	-11.9302
▁Italian	-11.9302
▁glow	-11.9303
▁Liberia	-11.9303
▁Tafel	-11.9303
gehoben	-11.9304
▁infant	-11.9304
▁describ	-11.9304
▁bediene	-11.9304
▁tanzt	-11.9305
▁mindset	-11.9305
▁verfügen	-11.9305
istisch	-11.9306
▁brave	-11.9306
▁Rachel	-11.9307
▁endet	-11.9307
▁electrode	-11.9307
▁aufwuchs	-11.9308
▁Johnny	-11.9308
▁expose	-11.9308
Geheimnisse	-11.9309
▁Mist	-11.9311
▁Lesen	-11.9312
▁Ego	-11.9313
▁Einkommens	-11.9314
▁Horizont	-11.9314
▁hitting	-11.9317
▁Bergen	-11.9317
▁shit	-11.9319
zeitig	-11.932
▁stattfinde	-11.9322
▁Sprecher	-11.9324
▁universelle	-11.9324
▁Poe	-11.9325
▁tritt	-11.9327
▁Extra	-11.9327
▁achiev	-11.9328
▁86	-11.9332
räumen	-11.9333
▁fusion	-11.9334
▁Mag	-11.9335
ev	-11.9339
▁Elektronen	-11.9344
matic	-11.9347
▁zahlreiche	-11.9348
related	-11.9348
fühlen	-11.9348
▁woke	-11.9349
▁incident	-11.9351
▁durchgehen	-11.9356
▁Ham	-11.9356
post	-11.9357
▁Besitzer	-11.9358
▁memes	-11.9358
▁tile	-11.936
dis	-11.9361
lacht	-11.9362
▁entschlossen	-11.9363
pfel	-11.9364
▁ansprechen	-11.9371
immer	-11.9372
▁Juan	-11.9373
▁trap	-11.9382
▁Fahr	-11.9383
▁insist	-11.9384
▁öffnete	-11.9385
freie	-11.9389
▁mild	-11.939
▁litt	-11.9392
▁klingen	-11.9392
▁verständlich	-11.9394
▁Neil	-11.9396
▁cosm	-11.9396
stücke	-11.9408
▁Fundament	-11.941
▁Mir	-11.941
lash	-11.941
▁lehrt	-11.9411
▁shine	-11.9412
▁guck	-11.9413
▁senk	-11.9414
verse	-11.9418
ühl	-11.9419
▁Falt	-11.9421
▁450	-11.9426
▁Toiletten	-11.9428
▁Inseln	-11.9432
▁eröffne	-11.9434
▁Cola	-11.9435
▁finanzier	-11.9437
▁Magazine	-11.944
▁konstruiert	-11.9442
▁stranger	-11.9443
▁dünne	-11.9445
bb	-11.9446
▁Effekte	-11.9449
▁Güte	-11.9451
▁kluge	-11.9454
▁shin	-11.9455
▁heal	-11.9455
sländer	-11.9456
▁echter	-11.9458
▁Möbel	-11.9459
ttel	-11.946
medizin	-11.9465
faktor	-11.9465
▁refuse	-11.9465
männer	-11.9466
▁FDA	-11.9466
▁Konzentration	-11.9466
▁Phosphor	-11.9466
fabrik	-11.9466
▁Bangalore	-11.9466
▁Cameron	-11.9466
▁Direktor	-11.9466
▁Getreide	-11.9466
▁analysiert	-11.9466
▁antibiotic	-11.9466
▁erstaunt	-11.9466
▁motivieren	-11.9466
▁theoretical	-11.9466
▁tsunami	-11.9466
▁verheiratet	-11.9466
▁Bedauern	-11.9466
▁endanger	-11.9466
▁closing	-11.9466
▁Nepal	-11.9466
▁Streben	-11.9466
▁Töne	-11.9466
▁Distanz	-11.9466
▁Wolfram	-11.9466
▁Tanzania	-11.9466
▁Hilfsmittel	-11.9466
▁Flüsse	-11.9466
analyse	-11.9466
▁Ausschnitt	-11.9467
▁marketplace	-11.9467
▁Kluft	-11.9467
▁tongue	-11.9467
▁nerd	-11.9467
▁Garage	-11.9467
▁Jackson	-11.9467
▁doodl	-11.9467
▁Coke	-11.9467
▁singer	-11.9467
▁collaborator	-11.9468
▁Mischung	-11.9468
▁kiss	-11.9468
▁Flut	-11.9469
▁Lago	-11.9469
▁capabilities	-11.947
isela	-11.947
maßnahme	-11.9474
▁Stone	-11.9475
▁185	-11.9475
▁confident	-11.9476
▁Demonstration	-11.9476
▁beantwortet	-11.9477
▁Automobil	-11.948
▁homeless	-11.9481
▁Impfstoff	-11.9482
▁Kunststoff	-11.9482
-2	-11.9488
thiopien	-11.9491
▁god	-11.9493
qualität	-11.9495
uction	-11.9497
free	-11.9498
förmige	-11.9499
▁anhalten	-11.95
▁Messer	-11.9507
link	-11.951
▁cats	-11.9512
▁häufiger	-11.9515
▁Formel	-11.9515
▁Offenhe	-11.9516
▁Medikamenten	-11.9517
region	-11.9521
geschrieben	-11.9522
ular	-11.9522
▁evolutionäre	-11.9523
human	-11.9523
▁Kam	-11.9524
behörde	-11.9524
▁Kolonie	-11.9525
ups	-11.9526
▁herrscht	-11.9527
▁interior	-11.9527
üb	-11.9529
lief	-11.9531
▁Interessante	-11.9532
▁konzentrierte	-11.9534
tete	-11.9534
▁rotate	-11.9537
▁egg	-11.954
▁victim	-11.954
▁schau	-11.9541
rotten	-11.9545
▁Tu	-11.9547
▁pulse	-11.9549
▁aktive	-11.955
löschen	-11.9551
cca	-11.9552
▁betreten	-11.956
▁Skulptur	-11.956
▁mittlere	-11.9562
▁tar	-11.9562
▁regional	-11.9566
▁rats	-11.9575
NG	-11.9576
▁nuts	-11.9578
▁Jet	-11.9582
▁Wett	-11.9583
▁wartete	-11.9584
▁sticks	-11.959
▁Beck	-11.9595
▁künstlerische	-11.9598
gebung	-11.96
cle	-11.9605
▁appreciat	-11.9606
▁Wohl	-11.9612
▁specialize	-11.9616
▁Fotograf	-11.9626
▁Kor	-11.9627
▁Lis	-11.9628
▁exhibit	-11.9629
▁Alltag	-11.9629
▁distinct	-11.963
▁Technolog	-11.9631
rechnung	-11.9632
▁Gewohnheit	-11.9632
▁Installation	-11.9632
▁Käse	-11.9632
▁Nicole	-11.9632
▁PowerPoint	-11.9632
▁Vernunft	-11.9632
▁Verwaltung	-11.9632
▁Verzweiflung	-11.9632
▁chamber	-11.9632
▁eBay	-11.9632
▁hybrid	-11.9632
▁uniform	-11.9632
▁Jacque	-11.9632
▁Widerspruch	-11.9632
▁troop	-11.9632
▁Mittagessen	-11.9632
▁Bud	-11.9632
▁leaf	-11.9633
▁grausam	-11.9633
▁Plätze	-11.9633
▁Tropf	-11.9633
▁vereint	-11.9633
verbindung	-11.9633
▁Dauer	-11.9633
▁Gewässer	-11.9633
▁signature	-11.9633
▁pride	-11.9633
▁Nathan	-11.9633
▁Gehör	-11.9633
▁barrel	-11.9633
▁Rhythmus	-11.9633
▁Unfälle	-11.9633
▁draus	-11.9633
▁versorgt	-11.9634
▁baseball	-11.9634
▁crew	-11.9634
▁subway	-11.9634
▁Bad	-11.9634
▁addiction	-11.9635
▁Tinte	-11.9635
▁cake	-11.9636
▁stamp	-11.9637
▁Jill	-11.9637
▁Jenni	-11.9637
▁Interpretation	-11.9637
▁PR	-11.964
▁anzugeh	-11.9641
▁distinguish	-11.9641
▁March	-11.9641
▁detector	-11.9642
▁Deze	-11.9643
▁psychopath	-11.9643
▁lucki	-11.9643
▁Maya	-11.9643
▁innocent	-11.9644
▁bewegte	-11.9647
▁bush	-11.9648
▁komische	-11.9649
▁factories	-11.965
▁log	-11.9652
▁auftauchen	-11.9655
▁constraint	-11.9657
▁cri	-11.966
▁Master	-11.966
▁sixth	-11.966
▁fastest	-11.9666
kabel	-11.9669
▁Origami	-11.9673
▁restliche	-11.9673
take	-11.9676
▁Hör	-11.968
▁update	-11.9681
while	-11.969
▁Mehr	-11.9694
▁hasse	-11.9701
▁views	-11.9702
▁ending	-11.9703
▁rape	-11.9703
▁süß	-11.9705
▁46	-11.9708
▁Hol	-11.9709
räumt	-11.9709
liches	-11.971
▁formt	-11.971
anne	-11.9712
▁suchten	-11.9712
▁interaktive	-11.9712
▁Anreiz	-11.9718
spect	-11.9719
▁Nah	-11.972
For	-11.9725
▁miserable	-11.9727
ück	-11.9728
Pro	-11.9729
▁Pink	-11.9732
▁Chirurgen	-11.9734
▁mm	-11.9734
▁logical	-11.9736
mitglieder	-11.9737
▁Amt	-11.9739
▁additional	-11.9745
uel	-11.9749
▁Demokrat	-11.9751
▁bats	-11.9755
▁pad	-11.9755
▁wrap	-11.9761
▁grad	-11.9762
▁folgte	-11.9768
ode	-11.9772
▁Trans	-11.9777
ardino	-11.9779
licher	-11.9781
▁Küchen	-11.9783
aday	-11.9785
▁kleb	-11.9789
▁habits	-11.9794
▁Vereinte	-11.9799
ociety	-11.9799
▁Erscheinung	-11.9801
Syndrom	-11.9802
▁Gravitation	-11.9802
▁Zuhörer	-11.9802
▁glamour	-11.9802
▁ultimative	-11.9802
▁Bewertung	-11.9802
▁Gerüst	-11.9802
▁RNA	-11.9802
▁Teppich	-11.9802
▁amateur	-11.9802
▁jazz	-11.9802
▁jahrelang	-11.9802
▁Trinkwasser	-11.9802
▁Großvater	-11.9802
▁garbage	-11.9802
▁Herkunft	-11.9802
▁Führungskräfte	-11.9802
▁cyber	-11.9802
▁intimate	-11.9802
▁banana	-11.9802
▁reproduce	-11.9802
▁bestätigt	-11.9802
▁MoMA	-11.9802
▁Unsicherheit	-11.9802
▁commission	-11.9802
▁Supermarkt	-11.9802
▁Methan	-11.9802
▁terra	-11.9802
▁träumen	-11.9802
▁annual	-11.9803
▁repräsentiere	-11.9803
▁mapping	-11.9803
▁integriert	-11.9804
▁dawn	-11.9805
▁dial	-11.9805
▁Abstand	-11.9806
▁Doug	-11.9808
▁UV	-11.9808
▁Tru	-11.9809
▁Gross	-11.981
▁Königin	-11.981
▁verhält	-11.9814
menschen	-11.9815
▁Partnerschaft	-11.9815
▁Altern	-11.9816
geber	-11.9818
▁register	-11.9818
▁lobe	-11.9819
▁ewig	-11.9821
ED	-11.9822
▁12-	-11.9823
▁unsicher	-11.9823
▁Bildungssystem	-11.9824
schäd	-11.9824
▁beam	-11.9825
▁attribute	-11.9826
▁Meister	-11.9827
▁einfachste	-11.9828
▁52	-11.9828
reaktion	-11.9829
▁gigantische	-11.9831
▁sens	-11.9835
▁Küsten	-11.9838
lager	-11.9839
▁Handels	-11.9841
▁Verkauf	-11.9844
▁Diplomat	-11.9847
▁Glaubens	-11.9848
▁direkte	-11.9848
▁furchtbar	-11.9848
▁hob	-11.9852
▁Mother	-11.9858
Kopf	-11.9863
▁Korean	-11.9863
▁format	-11.9866
▁Profit	-11.9873
designer	-11.9875
Tech	-11.9876
union	-11.9884
änderung	-11.9886
▁panel	-11.9889
rief	-11.989
▁Werten	-11.9894
drive	-11.9894
▁Jud	-11.9896
▁Grundstück	-11.9897
▁effektiver	-11.9897
▁flowing	-11.9899
▁geb	-11.99
block	-11.9901
▁geheime	-11.9903
▁bored	-11.9903
▁befasse	-11.9905
▁zusammenzu	-11.9909
Hu	-11.9909
aged	-11.991
▁benötigte	-11.9913
▁Mord	-11.9914
▁erwähnte	-11.9916
frei	-11.9921
gängig	-11.9923
namen	-11.9923
achtung	-11.9924
▁umsetzen	-11.9925
▁engagiert	-11.9928
▁Ali	-11.9932
reiche	-11.9933
▁kurzer	-11.9934
▁Blasen	-11.9938
imi	-11.9939
▁Such	-11.9939
▁exponential	-11.9942
glasses	-11.9942
▁tight	-11.9943
▁rivers	-11.9945
▁preserv	-11.9945
▁existierende	-11.9946
ook	-11.995
eben	-11.9951
etic	-11.9952
losigkeit	-11.9957
▁Spin	-11.9959
▁geometr	-11.9967
▁vot	-11.9967
▁hill	-11.9968
ordnung	-11.9969
mond	-11.9971
▁Dreh	-11.9971
▁bra	-11.9973
bertragung	-11.9973
▁Kosov	-11.9974
gebäude	-11.9974
▁Knoten	-11.9974
▁1,5	-11.9974
▁Währung	-11.9974
vergrößern	-11.9974
▁Academ	-11.9974
▁Ignoranz	-11.9974
▁Michigan	-11.9974
▁Mögliche	-11.9974
▁Natasha	-11.9974
▁Ushahidi	-11.9974
▁acoustic	-11.9974
▁chaotisch	-11.9974
▁diamond	-11.9974
▁gelähmt	-11.9974
▁lügen	-11.9974
▁überqueren	-11.9974
▁Flagge	-11.9974
▁Wohltätigkeit	-11.9974
▁chimp	-11.9974
▁chronic	-11.9974
▁contrar	-11.9974
▁triangle	-11.9974
▁verboten	-11.9974
▁Unabhängigkeit	-11.9974
▁probiert	-11.9974
▁Solarenergie	-11.9974
▁fence	-11.9975
EDI	-11.9975
▁Klick	-11.9975
▁enforce	-11.9976
▁representative	-11.9976
▁generous	-11.9976
▁Raumschiff	-11.9976
▁included	-11.9976
▁Menschenrechte	-11.9976
▁Diego	-11.9976
▁weekend	-11.9977
▁compassionate	-11.9977
▁Barry	-11.9977
▁Kommun	-11.9978
▁workplace	-11.9978
▁detection	-11.9979
▁schenke	-11.998
▁graphics	-11.9982
▁Northern	-11.9982
▁enhance	-11.9984
▁Regal	-11.9985
▁genetically	-11.9985
▁vergleichbar	-11.9985
▁reflection	-11.9988
▁Konzert	-11.9989
▁vergewaltigt	-11.999
zeichnen	-11.9992
▁herauskomm	-11.9992
▁transmitt	-11.9994
▁Norwegen	-11.9995
▁traditions	-12.0001
▁160	-12.0001
ziger	-12.0003
▁Bären	-12.0004
born	-12.0007
▁vorkommen	-12.0008
▁Leone	-12.0009
▁Tan	-12.0011
schaften	-12.0013
▁Pilze	-12.0015
▁Brücken	-12.0016
boot	-12.0019
▁institutional	-12.0021
▁misst	-12.0023
▁quad	-12.0026
▁merkwürdig	-12.003
leuchten	-12.0033
Modell	-12.0038
▁Muslime	-12.0039
labor	-12.004
▁mobil	-12.004
▁Zweiten	-12.0042
▁exponentiell	-12.0042
clock	-12.0045
anlagen	-12.0047
▁4.	-12.0047
▁spinn	-12.0048
▁landet	-12.0048
▁Besten	-12.0052
▁Moon	-12.0052
▁tone	-12.0053
sky	-12.0055
▁purchase	-12.0055
▁180	-12.0055
alai	-12.0055
lesen	-12.0057
▁Taten	-12.0057
▁Insekt	-12.0061
▁interessantes	-12.0066
bereiten	-12.0067
▁derzeitige	-12.0068
▁53	-12.007
aker	-12.0074
law	-12.0074
▁eingestellt	-12.0076
vier	-12.0078
▁überwach	-12.0078
leute	-12.0079
page	-12.0089
hack	-12.009
▁Felsen	-12.0091
▁qualit	-12.0091
▁Kurze	-12.0098
▁Geschlechts	-12.0098
aku	-12.0099
▁lieb	-12.0099
rische	-12.0099
▁ironic	-12.0105
▁Oma	-12.0105
▁Kur	-12.0107
läuf	-12.0108
▁Maria	-12.0121
transportieren	-12.0123
▁Schichten	-12.0125
▁irgend	-12.013
▁chas	-12.0131
▁combin	-12.0134
▁romantische	-12.0138
▁sketch	-12.0139
▁Genen	-12.014
merkt	-12.0143
▁virtue	-12.0145
kü	-12.0146
▁crystal	-12.015
Herangehensweise	-12.015
▁Bakterium	-12.015
▁Goliath	-12.015
▁LKW	-12.015
▁Margaret	-12.015
▁Matrix	-12.015
▁Michelangelo	-12.015
▁Philadelphia	-12.015
▁bräuchte	-12.015
▁burden	-12.015
▁crawl	-12.015
▁dilemma	-12.015
▁fröhlich	-12.015
▁glimpse	-12.015
▁remix	-12.015
▁verwirrt	-12.015
▁confirm	-12.015
▁unemploy	-12.015
▁tattoo	-12.015
▁cotton	-12.015
▁versetzt	-12.015
▁Court	-12.015
▁ausgezeichnet	-12.015
▁twenty	-12.015
ströme	-12.015
▁crush	-12.015
▁externe	-12.015
▁rethink	-12.015
▁akademische	-12.015
▁impressive	-12.015
▁fotografiere	-12.015
▁phosphorus	-12.015
▁Selbstmord	-12.015
▁Königreich	-12.015
▁Hack	-12.015
krankheit	-12.015
▁canopy	-12.015
▁speichern	-12.015
▁Panik	-12.0151
Krankenschwester	-12.0151
▁Hmm	-12.0151
▁Autobahn	-12.0151
▁uralte	-12.0151
▁shout	-12.0151
▁streng	-12.0152
▁Warren	-12.0152
▁fortgeschritten	-12.0152
▁Sturm	-12.0152
▁winning	-12.0152
▁Sorte	-12.0153
▁Ernte	-12.0153
▁hi	-12.0153
Gordon	-12.0154
▁97	-12.0154
▁nano	-12.0155
▁Sag	-12.0155
itis	-12.0156
▁Hersteller	-12.0157
skop	-12.0157
▁Liter	-12.0157
▁Astronom	-12.0157
▁Vega	-12.0158
landschaft	-12.0158
▁slime	-12.0158
▁static	-12.0159
▁prevention	-12.0159
▁geek	-12.016
▁Williams	-12.016
▁eingeschlossen	-12.0161
▁rubber	-12.0162
▁1991	-12.0162
▁angel	-12.0165
▁Tode	-12.0165
ibera	-12.0166
▁anticipate	-12.0166
▁competitive	-12.0167
▁interrupt	-12.0167
▁cod	-12.0167
▁programmiert	-12.0167
▁Ring	-12.0171
▁serving	-12.0171
▁Gran	-12.0172
Welt	-12.0174
wiegen	-12.0175
▁streiten	-12.0176
▁effizienter	-12.018
motive	-12.0183
▁instantly	-12.0185
▁Bart	-12.0186
▁blogs	-12.0186
▁Symbole	-12.0191
▁körperlich	-12.0196
gging	-12.0198
▁wedding	-12.0201
▁Ker	-12.0204
▁Türke	-12.0204
augen	-12.0206
▁tagg	-12.0207
▁Sin	-12.0208
▁6.	-12.0208
▁verbrennen	-12.0209
zieh	-12.0209
▁beginne	-12.0212
iker	-12.0215
▁vent	-12.0217
▁Montag	-12.0218
▁Trag	-12.022
▁hunter	-12.022
four	-12.0221
lvani	-12.0225
tauchen	-12.0226
▁breit	-12.0227
▁lauter	-12.0228
▁nutzte	-12.0228
Test	-12.0228
▁5.	-12.0231
▁aktuell	-12.0233
▁Listen	-12.0235
▁naive	-12.0235
gun	-12.0242
▁2,5	-12.0242
▁rose	-12.0245
▁Net	-12.0245
▁jet	-12.0247
▁aktiviert	-12.0247
▁rennen	-12.0249
▁infection	-12.0252
don	-12.0257
▁explode	-12.026
▁Abu	-12.0261
▁Ost	-12.0261
▁Hell	-12.0263
▁Bach	-12.0264
▁ethnic	-12.0269
▁ink	-12.0269
▁aktivier	-12.0274
▁basieren	-12.0275
▁corporations	-12.0276
▁navigate	-12.0279
lagerung	-12.0281
nutzung	-12.0288
▁140	-12.029
gur	-12.029
kologi	-12.0291
fordern	-12.0298
lehnen	-12.0299
▁Roll	-12.03
▁ankommen	-12.0302
▁Fußball	-12.0304
▁gleicher	-12.0306
izen	-12.0306
willig	-12.0307
track	-12.031
▁intensiv	-12.0312
▁redete	-12.0314
netzwerk	-12.0317
▁makers	-12.0317
▁sw	-12.0322
rwärmung	-12.0327
aktivität	-12.0327
haufen	-12.0328
▁Phantom	-12.0328
▁shrink	-12.0328
▁Anwälte	-12.0328
▁CRISPR	-12.0328
▁Expedition	-12.0328
▁Palestinian	-12.0328
▁Tsunami	-12.0328
▁Vulkan	-12.0328
▁Zentimeter	-12.0328
▁awkward	-12.0328
▁beeindruckt	-12.0328
▁beschleunigen	-12.0328
▁bewältigen	-12.0328
▁gefolg	-12.0328
▁gewohnt	-12.0328
▁pharmaceutical	-12.0328
▁pizza	-12.0328
▁prosthetic	-12.0328
▁steigern	-12.0328
▁terrifying	-12.0328
▁unprecedented	-12.0328
▁wörtlich	-12.0328
▁Spanish	-12.0328
▁glamourös	-12.0328
▁schwanger	-12.0328
▁Hawking	-12.0328
▁Selektion	-12.0328
▁ubiquitous	-12.0328
▁enterprise	-12.0328
▁straightforward	-12.0328
▁Immunsystem	-12.0328
▁fertil	-12.0328
▁Kühe	-12.0329
▁Schl	-12.0329
▁Auflösung	-12.0329
▁Luxus	-12.0329
▁cruel	-12.0329
▁marry	-12.033
▁Redner	-12.033
▁betonen	-12.033
▁watt	-12.033
▁sponsor	-12.033
▁visualization	-12.033
▁refine	-12.0331
▁tödliche	-12.0332
blatt	-12.0332
▁agreement	-12.0333
▁archive	-12.0333
gereist	-12.0334
▁jüngere	-12.0335
▁disconnect	-12.0337
▁settle	-12.0337
▁stärkste	-12.0337
▁Rollstuhl	-12.0338
az	-12.0339
▁organisierte	-12.0339
▁Galerie	-12.034
fried	-12.034
oga	-12.034
▁Asian	-12.0342
chle	-12.0342
▁athlete	-12.0343
▁geprägt	-12.0344
▁Journalist	-12.0344
▁Abschnitt	-12.0347
▁200,000	-12.0348
▁endless	-12.0355
▁scanner	-12.0355
▁gods	-12.0355
▁brillante	-12.0357
▁gesucht	-12.0357
▁reine	-12.0361
fiel	-12.0367
cost	-12.037
▁Wichtig	-12.037
iest	-12.0371
80	-12.0375
▁transportiert	-12.0375
▁Mor	-12.0385
load	-12.0387
▁previously	-12.0398
world	-12.0399
▁Profil	-12.04
▁100-	-12.0403
ulu	-12.0403
setzung	-12.0407
▁Bombe	-12.0408
klang	-12.0409
▁Geburts	-12.0413
▁Glaube	-12.0414
ano	-12.0416
▁Banken	-12.0417
ngste	-12.0422
wissen	-12.0422
cted	-12.0427
ifi	-12.0434
▁funktionierende	-12.0435
▁Welten	-12.0438
▁Algorithm	-12.0438
ough	-12.0438
▁announce	-12.044
▁auftreten	-12.0446
▁kit	-12.0448
▁Falle	-12.0449
▁Briefe	-12.0449
▁Merkmale	-12.0449
▁Jon	-12.0452
▁mega	-12.0453
▁Blogs	-12.0453
squalität	-12.0454
▁Roh	-12.0455
▁bewerte	-12.0458
ford	-12.046
▁gib	-12.0461
trick	-12.0464
▁Neanderthal	-12.0466
▁bot	-12.0469
▁Vorbild	-12.0473
▁125	-12.0474
decken	-12.0474
▁Ann	-12.0475
▁Kurz	-12.0476
▁reale	-12.048
▁Slums	-12.0481
▁Parlament	-12.0486
▁dispos	-12.049
urf	-12.0499
slosigkeit	-12.05
▁dynamisch	-12.05
▁Mär	-12.0502
▁Christ	-12.0504
▁goat	-12.0506
▁genaue	-12.0508
▁blank	-12.0509
krebs	-12.051
▁Berührung	-12.051
pläne	-12.051
▁Audio	-12.051
▁Babbage	-12.051
▁Behauptung	-12.051
▁Chinesisch	-12.051
▁Edinburgh	-12.051
▁Fettleibigkeit	-12.051
▁Nichol	-12.051
▁OECD	-12.051
▁Peace	-12.051
▁Treibhausgase	-12.051
▁Venezuela	-12.051
▁Wünsche	-12.051
▁ausgestorben	-12.051
▁benannt	-12.051
▁ceremon	-12.051
▁despair	-12.051
▁ermutigt	-12.051
▁neuroscientist	-12.051
▁verstärkt	-12.051
▁zutiefst	-12.051
▁spiral	-12.051
▁storytelling	-12.051
▁Power	-12.051
▁Sowjet	-12.051
▁Stabilität	-12.051
▁cousin	-12.051
▁harness	-12.051
▁daneben	-12.051
▁flourish	-12.051
▁zwanzig	-12.051
▁compress	-12.051
▁Regime	-12.051
▁geformt	-12.051
illiard	-12.0511
entropy	-12.0511
▁prüfen	-12.0511
▁Tiefsee	-12.0511
▁Roger	-12.0511
▁verfügt	-12.0511
▁Freizeit	-12.0511
▁Einführung	-12.0511
▁educat	-12.0512
▁Vertrag	-12.0512
▁Leban	-12.0512
▁Blitz	-12.0512
▁Somalia	-12.0512
▁stole	-12.0512
▁lean	-12.0513
▁seas	-12.0513
aeda	-12.0513
▁Zelt	-12.0514
▁steer	-12.0514
▁Barbar	-12.0515
▁Food	-12.0515
▁Out	-12.0516
▁59	-12.0516
▁Pfad	-12.0517
▁bislang	-12.0518
▁Sho	-12.0518
▁shore	-12.0519
▁wahrhaftig	-12.052
▁zahlt	-12.0521
▁1.2	-12.0522
▁Sklaven	-12.0523
fleisch	-12.0526
▁Kino	-12.0527
▁occasion	-12.0528
karten	-12.0529
▁optische	-12.0532
▁intens	-12.0533
▁Club	-12.0534
▁Wüsten	-12.0535
werkzeug	-12.0536
▁visuell	-12.0538
▁Interface	-12.0538
▁ironisch	-12.0539
▁fatal	-12.0539
ennig	-12.0539
▁Rom	-12.0541
▁arise	-12.0542
▁Schlagzeilen	-12.0543
▁Nature	-12.0547
führer	-12.0549
▁overwhelming	-12.0549
▁fokussier	-12.055
brach	-12.0557
▁cooperate	-12.0562
▁Grundlagen	-12.0562
loved	-12.0563
▁reli	-12.0563
nfolge	-12.0564
▁guns	-12.0566
amme	-12.0568
▁beteilig	-12.0568
▁Hab	-12.0571
zel	-12.0575
▁18.	-12.0575
▁Elite	-12.0577
liegende	-12.0577
▁Sil	-12.0578
▁langfristig	-12.058
ffer	-12.0581
▁1.5	-12.0583
▁teilte	-12.0585
▁mitzu	-12.0586
▁flipp	-12.0586
äge	-12.0586
worth	-12.0588
grow	-12.0589
▁journal	-12.059
▁strongly	-12.0594
denkst	-12.0594
▁Lehrerin	-12.0595
▁Spitzen	-12.0595
hielt	-12.0599
▁Reform	-12.06
million	-12.0603
▁wiegt	-12.0603
kamera	-12.0607
▁hervorruf	-12.0609
▁IT	-12.061
▁gewachsen	-12.061
▁meint	-12.0611
▁Hal	-12.0617
▁lese	-12.0619
▁releas	-12.0619
▁Gemein	-12.0621
▁mechanische	-12.0621
▁contribut	-12.0621
wohnen	-12.0622
▁Walk	-12.0624
▁burned	-12.0627
gebiete	-12.0633
▁survived	-12.0636
▁Mur	-12.0643
pping	-12.0644
hak	-12.0656
▁Khan	-12.0656
▁fließen	-12.0659
▁hör	-12.0661
anischen	-12.0664
▁taucht	-12.0665
▁Danke	-12.0668
face	-12.0671
amo	-12.0671
▁Brut	-12.0672
▁auswähle	-12.0678
ER	-12.0679
▁Schiffe	-12.0679
▁compet	-12.0684
▁slums	-12.0685
▁einnehmen	-12.0689
▁Tempe	-12.0692
▁Weihnachts	-12.0695
▁Glamour	-12.0695
▁Götter	-12.0695
▁Jäger	-12.0695
▁Kalorien	-12.0695
▁Nachmittag	-12.0695
▁Notwendigkeit	-12.0695
▁Portrait	-12.0695
▁Tokyo	-12.0695
▁Tänzer	-12.0695
▁encouraging	-12.0695
▁gorgeous	-12.0695
▁kosmische	-12.0695
▁materielle	-12.0695
▁microphone	-12.0695
▁precious	-12.0695
▁silver	-12.0695
▁Ethik	-12.0695
▁bewiesen	-12.0695
▁gelegentlich	-12.0695
▁konsumieren	-12.0695
▁Spanien	-12.0695
▁bzw	-12.0695
▁Cousin	-12.0695
▁ähnelt	-12.0695
▁aufgezeichnet	-12.0695
▁delay	-12.0695
▁Graham	-12.0695
▁Murray	-12.0695
▁Transformation	-12.0696
▁Nervensystem	-12.0696
▁ongoing	-12.0696
▁Vieh	-12.0696
▁juggl	-12.0696
▁transformative	-12.0696
▁proposition	-12.0697
▁Feder	-12.0697
▁schuldig	-12.0697
▁redesign	-12.0698
▁billige	-12.0698
▁tiger	-12.0698
▁unfold	-12.0698
▁Gal	-12.0698
▁Friday	-12.0699
▁1975	-12.0699
▁gentleman	-12.0699
▁zusammenfassen	-12.0699
▁jedermann	-12.0701
▁frontier	-12.0701
▁campus	-12.0702
▁Gründer	-12.0702
▁blogg	-12.0703
▁Sue	-12.0704
▁Energien	-12.0704
▁loose	-12.0705
▁interconnected	-12.0705
▁upload	-12.0705
▁Dich	-12.0706
▁Investoren	-12.0706
▁ernste	-12.0709
▁rang	-12.071
▁Inder	-12.071
▁fassen	-12.0713
egel	-12.0714
schuss	-12.0716
▁aspiration	-12.0722
▁Peru	-12.0725
▁jagen	-12.0725
▁hardest	-12.0726
▁Love	-12.0726
▁identifiziert	-12.0727
▁Pf	-12.0728
▁Erfolgs	-12.0729
▁Klassen	-12.0731
▁markiert	-12.0731
▁bowl	-12.0731
▁administration	-12.0736
▁internet	-12.0736
▁drüber	-12.0738
Ch	-12.0742
▁Fakt	-12.0744
schrieb	-12.0746
kä	-12.0747
▁server	-12.0754
▁Schwarz	-12.0755
▁900	-12.0755
lehrer	-12.0761
▁Freud	-12.0765
▁Drohnen	-12.0767
▁lap	-12.0768
place	-12.0768
filter	-12.0772
kosysteme	-12.0773
Zahl	-12.0773
▁entscheide	-12.0774
▁Nar	-12.0776
▁Schwein	-12.0778
freiheit	-12.0783
▁Kommentare	-12.0788
ways	-12.0789
tick	-12.0792
▁Dimension	-12.0795
▁bedeutend	-12.0796
chef	-12.0796
known	-12.0796
▁jaw	-12.0797
▁Home	-12.0797
rot	-12.0797
istan	-12.08
▁kostenlose	-12.0803
▁offering	-12.0803
▁simulate	-12.0805
▁chef	-12.0805
▁Weiße	-12.0807
▁str	-12.0813
▁freundlich	-12.0814
ona	-12.0817
▁mayor	-12.082
▁Win	-12.082
▁Schafe	-12.0821
allererst	-12.0824
▁Archiv	-12.0827
▁tan	-12.0828
▁wandern	-12.0828
▁bell	-12.0828
▁Ak	-12.0829
▁geringer	-12.0834
▁schwache	-12.0834
▁tooth	-12.0835
▁disgust	-12.0836
ature	-12.0837
zogen	-12.0838
▁sorgt	-12.0839
freund	-12.084
erfolg	-12.0846
▁Atome	-12.0846
▁distribut	-12.0848
▁bless	-12.085
▁mineral	-12.0851
▁Geo	-12.0853
▁drag	-12.0858
schlüsse	-12.0862
▁Tauch	-12.0864
▁temporar	-12.0868
foto	-12.0869
▁teenage	-12.087
aw	-12.0871
▁Schreib	-12.0878
▁phenomena	-12.0879
▁Model	-12.088
lick	-12.088
▁Hof	-12.088
▁beizu	-12.088
▁headed	-12.0881
▁SP	-12.0882
hantom	-12.0883
▁ecolog	-12.0883
kapital	-12.0884
▁Graph	-12.0884
▁Leg	-12.0884
flasche	-12.0884
▁Jazz	-12.0884
▁Swiss	-12.0884
▁Urlaub	-12.0884
▁Verletzlichkeit	-12.0884
▁vergrößert	-12.0884
▁Armstrong	-12.0884
▁Entropie	-12.0884
▁Gegner	-12.0884
▁Pittsburgh	-12.0884
▁Republikaner	-12.0884
▁Richtlinie	-12.0884
▁Verpflichtung	-12.0884
▁angewandt	-12.0884
▁ausgestattet	-12.0884
▁befragt	-12.0884
▁dokumentiert	-12.0884
▁intrinsic	-12.0884
▁multiply	-12.0884
▁ordentlich	-12.0884
▁protocell	-12.0884
▁substantial	-12.0884
▁synthetische	-12.0884
▁Anliegen	-12.0884
▁proposal	-12.0884
▁Völkermord	-12.0884
▁Gehalt	-12.0884
▁flavor	-12.0884
▁Renaissance	-12.0884
▁Wohnzimmer	-12.0884
▁libert	-12.0884
▁BMW	-12.0884
▁defeat	-12.0884
▁Point	-12.0884
▁altitude	-12.0884
▁friedlich	-12.0884
▁Zehen	-12.0885
▁spike	-12.0885
▁unconscious	-12.0885
▁Verlangen	-12.0885
▁texture	-12.0885
▁punishment	-12.0885
▁witzig	-12.0885
▁Feier	-12.0885
▁tätig	-12.0885
▁Brazilian	-12.0885
▁jewel	-12.0885
▁Lester	-12.0886
▁Hang	-12.0886
▁Vinci	-12.0886
▁Klar	-12.0886
▁align	-12.0886
▁Oliver	-12.0887
▁gek	-12.0887
▁Data	-12.0887
▁Tempel	-12.0887
▁pond	-12.089
banish	-12.089
▁drought	-12.0892
▁thus	-12.0892
▁sank	-12.0892
▁Rechnung	-12.0894
▁erschafft	-12.0894
▁Tro	-12.0894
▁lowest	-12.0897
▁mesh	-12.0898
▁menschlich	-12.0898
▁Hindu	-12.0899
▁Rente	-12.0899
▁Russ	-12.0899
▁upward	-12.09
▁TM	-12.09
▁JA	-12.09
▁survivor	-12.0901
▁Here	-12.0902
▁Golden	-12.0903
▁Primaten	-12.0904
▁Stammes	-12.0904
▁erlaubte	-12.0905
▁Diät	-12.0905
▁Tipp	-12.0908
ektion	-12.0908
▁panic	-12.0911
pack	-12.0912
▁zehntausende	-12.0914
▁begu	-12.0915
▁Cape	-12.0916
▁Kritiker	-12.0916
dose	-12.0921
▁veröffentlichte	-12.0921
▁fault	-12.0921
▁nützliche	-12.0928
urchmesser	-12.0929
▁Seide	-12.093
▁restaurants	-12.0935
wick	-12.0936
stream	-12.0938
stoß	-12.0938
▁8.	-12.0938
▁unendliche	-12.0939
▁litera	-12.0944
▁Wochenende	-12.0944
▁pursui	-12.0957
▁64	-12.0957
view	-12.0958
▁giftige	-12.0959
▁wrapp	-12.096
▁häufigste	-12.0963
efficient	-12.0965
fold	-12.0966
▁maxim	-12.0969
▁beating	-12.0971
▁Feinde	-12.0973
▁ambition	-12.0974
orientiert	-12.0977
kampf	-12.0981
▁Lebensform	-12.0982
▁Tit	-12.0983
▁grati	-12.0986
▁destiny	-12.099
▁Wolke	-12.0994
▁Leit	-12.0998
▁bucks	-12.1002
▁holte	-12.1005
▁assist	-12.1005
▁Erbe	-12.1012
▁Gebäudes	-12.1013
atten	-12.1018
▁Restaurants	-12.1019
▁spirituelle	-12.1021
▁Texte	-12.1021
▁ausser	-12.1021
▁Alb	-12.1024
▁Kochen	-12.1025
dding	-12.1028
aub	-12.1029
▁heim	-12.1029
▁float	-12.1029
luft	-12.1033
▁traits	-12.1035
gefunden	-12.1038
felder	-12.104
▁founder	-12.1043
kinder	-12.1045
▁cube	-12.1046
uft	-12.1047
bal	-12.105
▁Innere	-12.105
▁Eine	-12.1052
▁schneide	-12.106
▁Verkehrs	-12.106
oung	-12.1061
etts	-12.1061
▁Rome	-12.1063
name	-12.1065
▁wesentliche	-12.1066
▁Chr	-12.1066
▁gemeint	-12.1067
▁ankam	-12.1069
▁glue	-12.107
trip	-12.107
▁Dokument	-12.1071
▁reconstruct	-12.1074
zweck	-12.1076
▁Dschihad	-12.1076
▁Fledermäuse	-12.1076
▁Intervention	-12.1076
▁Nairobi	-12.1076
▁Pizza	-12.1076
▁Schöpfung	-12.1076
▁Securit	-12.1076
▁Social	-12.1076
▁Vorlesung	-12.1076
▁beherrschen	-12.1076
▁beschädigt	-12.1076
▁breakfast	-12.1076
▁cigarette	-12.1076
▁executive	-12.1076
▁grandparents	-12.1076
▁potato	-12.1076
▁smartphone	-12.1076
▁wahnsinnig	-12.1076
▁woanders	-12.1076
▁garantiert	-12.1076
▁illuminat	-12.1076
▁pencil	-12.1076
▁Sklaverei	-12.1076
▁censor	-12.1076
▁insulin	-12.1076
▁peinlich	-12.1076
▁verarbeitet	-12.1076
▁russische	-12.1076
▁temple	-12.1076
▁beängstigend	-12.1076
▁determin	-12.1076
bye	-12.1076
▁calorie	-12.1076
▁Zimbabwe	-12.1076
▁hungrig	-12.1076
▁Durchbruch	-12.1076
▁Atomenergie	-12.1076
▁torture	-12.1077
▁Princeton	-12.1077
▁displace	-12.1077
▁Einladung	-12.1077
▁excitement	-12.1077
▁Partikel	-12.1077
▁elementary	-12.1077
▁folg	-12.1077
▁calm	-12.1077
▁relief	-12.1078
▁microbi	-12.1078
▁Trade	-12.1079
▁peaceful	-12.1079
▁recall	-12.1079
▁examine	-12.1079
▁Arian	-12.108
▁jumped	-12.108
▁ausländische	-12.108
▁Milk	-12.1081
▁DJ	-12.1082
▁Massac	-12.1082
▁Real	-12.1084
utzung	-12.1085
▁wheat	-12.1086
▁durchlaufen	-12.1087
▁Züge	-12.1091
▁ethische	-12.1091
▁comedy	-12.1093
▁AO	-12.1093
▁branches	-12.1094
▁danken	-12.1094
wide	-12.1099
lapse	-12.11
arian	-12.1102
▁cue	-12.1107
▁Weiter	-12.1108
▁bescheiden	-12.1109
▁Enc	-12.111
note	-12.1112
▁Flüchtlinge	-12.1112
▁klappt	-12.1117
trinken	-12.112
▁Pub	-12.1121
▁metric	-12.1123
▁allererste	-12.1123
▁Mul	-12.1123
▁brush	-12.1124
Women	-12.1126
▁prayer	-12.1128
▁tödlich	-12.1128
▁Hass	-12.1129
▁Anlage	-12.113
▁sauber	-12.1131
▁vierten	-12.1131
▁50-	-12.1133
uo	-12.1134
vity	-12.1135
logging	-12.1135
gue	-12.1136
▁Mem	-12.1138
▁ag	-12.1139
▁Messung	-12.1142
▁riech	-12.1147
▁verpflichtet	-12.1148
ets	-12.1148
▁Bahn	-12.1149
▁Gedichte	-12.115
▁abschließen	-12.115
dad	-12.1151
▁historisch	-12.1151
▁Zunge	-12.1152
werfen	-12.1152
▁Tiefen	-12.1155
organiz	-12.1157
zusehen	-12.1159
geholt	-12.1159
▁tra	-12.1159
craft	-12.1159
▁fett	-12.116
▁Gui	-12.116
school	-12.1161
▁loszu	-12.1161
träge	-12.1164
▁Biolog	-12.1165
iven	-12.1165
▁Kollege	-12.1165
▁formation	-12.1166
ffnung	-12.1167
▁Rakete	-12.1169
phil	-12.117
▁Fri	-12.117
shape	-12.1171
▁Peer	-12.1172
regen	-12.1172
▁recogniz	-12.1174
masse	-12.1178
▁Philosoph	-12.1179
cap	-12.118
▁Rituale	-12.118
▁Skulpturen	-12.1181
▁überzeugend	-12.1181
▁Brennstoffe	-12.1182
▁manufacturer	-12.1182
lagert	-12.1183
scanning	-12.1183
▁umwandel	-12.1187
gaben	-12.1187
▁Islands	-12.1192
▁relation	-12.12
▁camps	-12.1201
▁container	-12.1204
▁Mott	-12.1206
▁angemessen	-12.1207
▁Bro	-12.1208
▁prop	-12.1218
▁natürlicher	-12.1219
amer	-12.1225
▁unerwartete	-12.1226
aktion	-12.1229
▁delivery	-12.1231
14	-12.1231
▁Bestandteil	-12.1235
▁ernsthafte	-12.1236
▁Tai	-12.1237
▁bestehende	-12.1238
▁port	-12.1239
▁Skal	-12.124
▁rebel	-12.124
bringt	-12.1243
▁Kram	-12.1245
▁Bausteine	-12.1245
▁rasch	-12.1245
otto	-12.1248
▁erreichte	-12.1249
▁Lin	-12.1251
▁transmit	-12.1251
▁socially	-12.1252
▁versteckte	-12.1252
versuch	-12.1254
▁puzzles	-12.1256
▁compose	-12.1259
▁Den	-12.1263
▁fundamentale	-12.1265
▁zugrunde	-12.1267
▁conc	-12.127
▁bombs	-12.127
▁disagree	-12.1271
▁retire	-12.1271
▁origins	-12.1272
▁Erlaub	-12.1272
▁Bezirk	-12.1272
▁Industrial	-12.1272
▁Melodie	-12.1272
▁Smartphone	-12.1272
▁collision	-12.1272
▁divorce	-12.1272
▁eingeschränkt	-12.1272
▁fertilizer	-12.1272
▁stomach	-12.1272
▁unschuldig	-12.1272
▁verletzen	-12.1272
▁vorstellt	-12.1272
▁beruht	-12.1272
▁crab	-12.1272
▁konstant	-12.1272
▁minimum	-12.1272
▁swallow	-12.1272
▁absence	-12.1272
▁Idiot	-12.1272
▁Coast	-12.1272
▁Dankeschön	-12.1272
▁carpet	-12.1272
▁descend	-12.1272
▁Einzige	-12.1272
▁wohnt	-12.1272
▁transmission	-12.1273
▁Morgan	-12.1273
▁Schweigen	-12.1273
▁division	-12.1273
▁Word	-12.1273
uadratmeter	-12.1273
▁erschreckend	-12.1273
▁nackt	-12.1273
▁angeboten	-12.1273
▁kingdom	-12.1273
▁screw	-12.1273
▁Cuba	-12.1273
▁Neigung	-12.1273
▁Protest	-12.1273
▁membrane	-12.1273
▁unhapp	-12.1273
▁steuert	-12.1273
chaffung	-12.1273
▁Barack	-12.1273
▁Klänge	-12.1273
▁antenna	-12.1274
▁Lead	-12.1274
▁Höhen	-12.1274
▁Versprechen	-12.1275
▁Matz	-12.1275
▁zuhause	-12.1275
▁Christopher	-12.1275
▁Royal	-12.1276
▁Gitter	-12.1276
▁Zoo	-12.1276
▁Leder	-12.1276
▁Minen	-12.1277
▁Logo	-12.1278
▁leichte	-12.1279
▁58	-12.1279
▁insane	-12.1279
▁Voll	-12.1279
▁hinterher	-12.1279
▁3.000	-12.128
own	-12.1281
▁drunk	-12.1281
▁Klimawandels	-12.1282
▁Antarktis	-12.1282
becken	-12.1283
zuarbeiten	-12.1283
▁Filmemacher	-12.1285
▁Hin	-12.1287
▁dependenc	-12.1287
▁controversial	-12.1287
▁Pandemie	-12.1289
▁Freundschaft	-12.129
▁BL	-12.1291
▁Dritte	-12.1293
▁probe	-12.1297
▁tutor	-12.1299
▁Best	-12.1301
▁wipe	-12.1304
▁Pin	-12.1306
▁anschließend	-12.1307
▁specialist	-12.131
▁steam	-12.1311
zumachen	-12.1312
▁Ufer	-12.1314
▁referr	-12.1316
▁Agn	-12.1316
▁gebunden	-12.1318
▁Pier	-12.1322
eryl	-12.1325
▁Denker	-12.1326
▁atom	-12.1328
jenige	-12.1331
▁meme	-12.1333
▁derjenige	-12.1335
▁erwachsen	-12.1336
Kortex	-12.1339
▁Farmer	-12.1339
▁landscapes	-12.1345
schwer	-12.1345
▁prepar	-12.1345
makers	-12.1348
coli	-12.1349
drehen	-12.1349
rennen	-12.1351
eller	-12.1352
▁eradicat	-12.1352
ect	-12.1353
▁Impuls	-12.1353
▁Landschaften	-12.1358
▁dating	-12.1358
▁tubes	-12.136
rhythm	-12.136
▁tiefste	-12.1361
▁Studierenden	-12.1362
▁celebrat	-12.1364
ctu	-12.1364
uan	-12.1366
▁liberat	-12.1367
sprogramm	-12.1369
▁cows	-12.1369
Up	-12.137
▁kritisch	-12.1371
▁Kommentar	-12.1374
reisen	-12.1374
▁commit	-12.1375
▁überlegt	-12.1376
geld	-12.1377
▁bug	-12.1378
tanz	-12.1379
uell	-12.1382
▁kommerzielle	-12.1384
▁doors	-12.1385
alismus	-12.1387
virus	-12.139
▁schlimmste	-12.139
PL	-12.1392
▁Interessantes	-12.1392
▁analyz	-12.1396
▁Mein	-12.1396
produkte	-12.1396
▁sichere	-12.1397
▁trad	-12.1398
mate	-12.1398
▁merkt	-12.14
ava	-12.1405
hängen	-12.1408
von	-12.141
▁gegenwärtige	-12.1412
träger	-12.1413
▁penguin	-12.1414
stechnologie	-12.1419
▁zentral	-12.1419
▁dicke	-12.1421
▁Syria	-12.1425
smethode	-12.143
▁erwachsene	-12.1434
▁Marco	-12.1436
hofft	-12.1438
▁Affe	-12.1439
▁trauma	-12.1439
▁replac	-12.144
geordnet	-12.144
tür	-12.144
▁vollständige	-12.1441
pend	-12.1444
▁Fil	-12.1444
▁remarkabl	-12.1444
aufnahmen	-12.145
hindert	-12.1452
▁worrying	-12.1453
▁schickt	-12.1459
information	-12.146
suchen	-12.1461
firmen	-12.1461
länge	-12.1462
AC	-12.1462
▁jünger	-12.1465
▁visualize	-12.1466
▁farming	-12.1467
▁punish	-12.1471
▁Virgin	-12.1472
▁ueber	-12.1472
▁deliberate	-12.1472
▁genuine	-12.1472
▁Bhutan	-12.1472
▁Buddhist	-12.1472
▁Carnegie	-12.1472
▁Geometrie	-12.1472
▁Hospital	-12.1472
▁Konkurrenz	-12.1472
▁Kyoto	-12.1472
▁Schizophren	-12.1472
▁approximate	-12.1472
▁cocaine	-12.1472
▁gestohlen	-12.1472
▁großzügig	-12.1472
▁lobby	-12.1472
▁mutual	-12.1472
▁unklar	-12.1472
▁verdoppeln	-12.1472
▁Anwalt	-12.1472
▁Hausaufgaben	-12.1472
▁angeblich	-12.1472
▁stattfand	-12.1472
▁Gummi	-12.1472
▁Tunnel	-12.1472
▁Windows	-12.1472
▁Applau	-12.1472
▁Vorgehensweise	-12.1472
▁casual	-12.1472
▁Zipcar	-12.1472
▁gallon	-12.1472
▁Großeltern	-12.1472
▁strict	-12.1472
▁andauernd	-12.1472
▁Taiwan	-12.1472
▁backyard	-12.1472
▁Iceland	-12.1473
▁Monster	-12.1473
▁Röhre	-12.1473
▁Biosphäre	-12.1473
▁venture	-12.1473
▁Linux	-12.1473
▁Mytho	-12.1473
erfahrung	-12.1473
▁mainstream	-12.1473
▁Standort	-12.1473
▁anfangs	-12.1473
▁Antibiotika	-12.1473
▁foster	-12.1473
▁fördert	-12.1473
▁Franklin	-12.1473
▁Weizen	-12.1473
▁brick	-12.1474
▁retirement	-12.1474
▁Snowden	-12.1474
▁Rauschen	-12.1474
▁Aristotel	-12.1474
▁negotiation	-12.1474
▁translator	-12.1475
▁distinction	-12.1475
▁Aussehen	-12.1475
fehler	-12.1475
▁Four	-12.1476
▁Stimmung	-12.1476
▁Jew	-12.1477
▁assure	-12.1477
▁phenomenal	-12.1477
▁Rod	-12.1477
ologist	-12.1478
▁schlechtes	-12.148
▁manag	-12.148
▁caves	-12.1481
stall	-12.1481
▁Bogen	-12.1481
bai	-12.1483
▁187	-12.1483
▁heavi	-12.1485
▁einig	-12.1486
▁Kurse	-12.1488
▁rannte	-12.1492
▁reiche	-12.1493
▁überdenken	-12.1494
▁regulate	-12.1494
awa	-12.1495
▁patch	-12.1497
▁intent	-12.1502
osa	-12.1502
leihen	-12.1503
witz	-12.1504
▁autist	-12.1504
▁Schalter	-12.1504
▁leuchten	-12.1505
▁negotiate	-12.1506
▁anonymous	-12.1507
▁convenient	-12.1508
▁Leon	-12.151
streifen	-12.1511
▁astronomer	-12.1513
▁recycling	-12.1513
▁realistic	-12.1514
physik	-12.1516
▁Cooper	-12.1517
▁verleihen	-12.1517
▁Andy	-12.152
pont	-12.1522
▁Ratte	-12.1523
elli	-12.1526
hole	-12.153
▁zeichnete	-12.153
▁healing	-12.1535
▁cu	-12.1542
finden	-12.1542
▁innovativ	-12.1543
▁beeindruckende	-12.1547
ession	-12.1549
▁Rennen	-12.155
▁effiziente	-12.1553
▁Rande	-12.1554
▁Vortrags	-12.1555
▁badly	-12.1557
▁manner	-12.156
aida	-12.1561
front	-12.1562
tzt	-12.1564
▁infections	-12.1565
drew	-12.1566
ppel	-12.1567
sani	-12.1567
spiele	-12.1569
▁Volks	-12.1571
▁gate	-12.1572
▁Freiwilligen	-12.1575
gefahren	-12.1575
nerkennung	-12.1576
uh	-12.1579
▁systematisch	-12.1581
vision	-12.1582
▁Gewinne	-12.1583
ehlen	-12.1583
▁surgeons	-12.1584
MI	-12.1584
▁embrac	-12.1586
▁rechtliche	-12.1591
liefert	-12.1593
▁bli	-12.1596
ären	-12.1597
▁bon	-12.1597
▁Platten	-12.1597
ologe	-12.1598
two	-12.1603
▁interpretiere	-12.1605
▁circuits	-12.1611
feuert	-12.1613
bungen	-12.1613
▁Isa	-12.1614
▁Men	-12.1615
▁historic	-12.162
read	-12.1625
solv	-12.1627
▁rettet	-12.1628
▁untersuchte	-12.163
▁Meeting	-12.1631
▁psychiatr	-12.1632
▁teurer	-12.1632
osi	-12.1634
▁va	-12.1637
▁Künstlerin	-12.164
▁pflanzen	-12.164
▁54	-12.1643
ngesicht	-12.1643
▁fein	-12.1644
cast	-12.1649
gestalt	-12.165
▁nukleare	-12.1651
pflege	-12.1652
ronto	-12.166
klären	-12.1661
▁gelegt	-12.1664
▁eliminate	-12.1664
▁disk	-12.1665
atory	-12.1674
▁frisch	-12.1674
plätze	-12.1676
esis	-12.1676
▁legitim	-12.1676
▁assign	-12.1676
▁satisfy	-12.1676
Veröffentlichung	-12.1676
händler	-12.1676
▁DARPA	-12.1676
▁Dallas	-12.1676
▁Konversation	-12.1676
▁Orleans	-12.1676
▁Pepsi	-12.1676
▁Premierminister	-12.1676
▁Stolz	-12.1676
▁Teszler	-12.1676
▁Tweet	-12.1676
▁artifact	-12.1676
▁demonstriert	-12.1676
▁empfangen	-12.1676
▁jihad	-12.1676
▁kopieren	-12.1676
▁nirgendwo	-12.1676
▁retreat	-12.1676
▁structural	-12.1676
▁composition	-12.1676
▁storyteller	-12.1676
▁contaminat	-12.1676
▁album	-12.1676
▁Dün	-12.1677
▁Tower	-12.1677
▁warrior	-12.1677
▁Rückenmark	-12.1677
▁exposure	-12.1677
▁beruflich	-12.1677
▁loving	-12.1677
▁diagnostic	-12.1677
▁Skype	-12.1677
▁Lebensstil	-12.1677
▁schlicht	-12.1677
▁Würfel	-12.1677
▁Hafen	-12.1677
▁canvas	-12.1677
▁Finanzierung	-12.1677
▁Nebel	-12.1678
▁Story	-12.1678
▁ham	-12.1678
mutter	-12.1679
▁prostate	-12.1679
▁6,000	-12.168
▁umgewandelt	-12.168
▁Verstehen	-12.1681
▁Teller	-12.1682
▁Norman	-12.1682
▁strain	-12.1683
▁Algen	-12.1684
schlaf	-12.1684
▁planetary	-12.1684
▁logo	-12.1684
▁Polar	-12.1686
ridge	-12.1687
▁Delfine	-12.1687
▁vorherige	-12.1687
▁40,000	-12.1688
▁Reaktor	-12.1689
stift	-12.1691
büro	-12.1695
▁packen	-12.1696
▁accelerate	-12.1697
away	-12.1698
▁schwamm	-12.1699
▁Wang	-12.1699
▁Histor	-12.1702
▁millimeter	-12.1703
▁empfindlich	-12.1703
▁Produktions	-12.1705
▁zustimmen	-12.1711
▁Betrachter	-12.1711
▁disability	-12.1712
▁Swa	-12.1715
▁Rate	-12.1718
still	-12.1719
▁Standards	-12.172
▁starv	-12.172
adi	-12.1721
▁useless	-12.1721
▁zuzuhören	-12.1721
▁Betrachtung	-12.1723
egeister	-12.1723
gger	-12.1724
▁Verhaltensweise	-12.1726
▁Anders	-12.1728
▁aufhört	-12.1729
▁potentielle	-12.173
▁CC	-12.1731
▁identisch	-12.1732
▁betreffen	-12.1733
▁gerichtet	-12.1736
▁dünn	-12.1737
geboren	-12.1738
▁getrieben	-12.1739
▁Wissenschafts	-12.174
▁Wolf	-12.1742
ügel	-12.1745
▁remov	-12.1747
▁Kunstwerk	-12.1747
blasen	-12.1749
▁Trainings	-12.1754
bou	-12.1755
ata	-12.1755
▁planes	-12.1757
lampe	-12.1757
bell	-12.1758
sammeln	-12.176
▁kämpft	-12.1762
▁masse	-12.1764
▁Glücks	-12.1765
▁mitgebracht	-12.1766
▁Spinnen	-12.1767
generat	-12.1769
▁frontal	-12.177
ulate	-12.1773
▁24-	-12.1775
▁einfallen	-12.1777
▁Brennstoff	-12.1777
bone	-12.1779
▁promis	-12.1783
▁hingeg	-12.1783
minister	-12.1784
berlebens	-12.1786
▁simpler	-12.1787
▁Krebszelle	-12.1788
ziert	-12.1789
marke	-12.179
▁raped	-12.1793
gewachsen	-12.1795
RA	-12.1798
▁kalte	-12.1801
▁por	-12.1802
▁Je	-12.1806
▁Schrei	-12.1809
▁Kolonien	-12.181
rolle	-12.1811
▁semi	-12.1811
▁rev	-12.1814
▁Get	-12.1814
beispiel	-12.1815
jahr	-12.1815
▁comics	-12.1815
▁sinn	-12.1816
staaten	-12.1817
▁rechnen	-12.1817
dauer	-12.182
ckel	-12.1823
▁greif	-12.1827
▁Comics	-12.1829
▁Fremde	-12.183
▁existierte	-12.1833
▁Scot	-12.1834
▁Seiden	-12.1835
▁Army	-12.1837
▁lebendige	-12.1839
▁zweiter	-12.1841
gramm	-12.1842
▁hervorbring	-12.1849
ule	-12.1851
▁Stop	-12.1852
▁sale	-12.1855
▁reporter	-12.1858
▁diploma	-12.1859
lace	-12.186
▁Glass	-12.1862
▁Befehl	-12.1872
verbrauch	-12.1873
▁hum	-12.1873
rock	-12.1876
branche	-12.1879
▁ehe	-12.1882
währ	-12.1882
▁Robotern	-12.1883
generieren	-12.1884
▁Beethoven	-12.1885
▁Beleuchtung	-12.1885
▁Everglades	-12.1885
▁Galapagos	-12.1885
▁Grösse	-12.1885
▁Hardware	-12.1885
▁Medicine	-12.1885
▁Zealand	-12.1885
▁allgegenwärtig	-12.1885
▁ausprobiert	-12.1885
▁cylinder	-12.1885
▁occupy	-12.1885
▁philanthropy	-12.1885
▁prescription	-12.1885
▁suppress	-12.1885
▁1,3	-12.1885
▁Behälter	-12.1885
▁Robotik	-12.1885
▁Sky	-12.1885
▁chunk	-12.1885
▁verbrannt	-12.1885
▁syndrome	-12.1885
▁verpasst	-12.1885
▁tomato	-12.1885
▁Meeresspiegel	-12.1885
▁Zustände	-12.1885
▁ansteckend	-12.1885
▁Office	-12.1885
▁bedroom	-12.1885
▁Mitleid	-12.1886
▁Brett	-12.1886
▁Artenvielf	-12.1886
▁Intel	-12.1887
▁gefühlt	-12.1887
▁guard	-12.1888
▁frustration	-12.1888
▁rig	-12.1889
▁candle	-12.1889
▁Titanic	-12.1889
▁blickt	-12.189
▁ansah	-12.189
▁sake	-12.189
▁Wortes	-12.1891
▁übernommen	-12.1891
NN	-12.1892
▁boost	-12.1892
▁57	-12.1893
▁philosophical	-12.1894
▁outer	-12.1894
▁atomic	-12.1894
▁grabb	-12.1895
▁Nieren	-12.1895
▁Spender	-12.1895
▁tourist	-12.1895
leau	-12.1897
▁Urheberrecht	-12.1897
▁donation	-12.1898
▁Water	-12.1898
▁Cricket	-12.1898
▁banker	-12.1902
▁vertreten	-12.1903
▁Indonesia	-12.1903
▁Lä	-12.1903
▁Kleider	-12.1904
▁agieren	-12.1909
▁betrachte	-12.191
▁summarize	-12.191
selves	-12.1911
▁weite	-12.1914
zeigen	-12.1917
▁Luc	-12.1919
▁Sonntag	-12.1919
▁diagnostiziert	-12.1921
verteilung	-12.1922
▁Mexican	-12.1922
manda	-12.1923
▁Las	-12.1924
▁frische	-12.1924
▁religions	-12.1929
▁cooler	-12.1932
▁persönlicher	-12.1933
▁immun	-12.1935
▁anfällig	-12.1936
▁erwischt	-12.1942
▁bedeutsam	-12.1944
▁estimates	-12.1945
▁Tar	-12.1947
,500	-12.1948
hundert	-12.1948
zufügen	-12.1955
▁Netze	-12.1955
berfluss	-12.1957
▁Dienste	-12.1958
▁Schwimmen	-12.1958
▁Balk	-12.1962
▁religiös	-12.1962
▁Erfolge	-12.1964
▁stabilit	-12.1965
▁Korallenriffe	-12.1966
cho	-12.1969
▁dressed	-12.1972
ggle	-12.1975
RL	-12.1976
▁zusammenge	-12.1977
▁füllt	-12.1982
Source	-12.1985
Feld	-12.1986
Regierung	-12.1987
▁Julie	-12.1987
▁sexuell	-12.1987
mail	-12.1988
logen	-12.199
▁Freiwillige	-12.199
▁Ausgabe	-12.1991
▁Cy	-12.1997
ngelika	-12.1998
▁Fahren	-12.2
▁finanziell	-12.2006
glied	-12.2007
▁geograph	-12.2009
bleiben	-12.2013
personal	-12.2014
▁documentar	-12.2017
▁clar	-12.2019
▁Blume	-12.202
▁automat	-12.2021
▁ermöglichte	-12.2021
lop	-12.2021
bergen	-12.2022
▁illegale	-12.2025
gebrochen	-12.2025
▁Map	-12.2026
▁Fried	-12.2027
▁dauerhaft	-12.203
gemeinschaft	-12.2039
▁versa	-12.204
▁austausch	-12.2041
gier	-12.2042
▁12.	-12.2043
▁custom	-12.2045
▁Whit	-12.2051
▁renewable	-12.2052
sex	-12.2054
sprochen	-12.2055
▁zueinander	-12.2057
estate	-12.2059
▁shoe	-12.206
▁Berufs	-12.206
ilität	-12.2063
▁shak	-12.2064
▁kilo	-12.2073
▁cart	-12.2074
▁kommende	-12.2074
kanal	-12.2081
controlle	-12.209
▁äußere	-12.2094
▁skelet	-12.2095
▁distort	-12.2096
▁corrupt	-12.2096
▁Integr	-12.2096
stapel	-12.2097
▁erlebte	-12.2097
ibati	-12.2097
märkte	-12.2097
verlust	-12.2098
▁AIMS	-12.2098
▁Bemühung	-12.2098
▁Beschäftigung	-12.2098
▁Hektar	-12.2098
▁Herbst	-12.2098
▁Hühner	-12.2098
▁Jersey	-12.2098
▁Kandidaten	-12.2098
▁Katrina	-12.2098
▁Leinwand	-12.2098
▁Stickstoff	-12.2098
▁Sydney	-12.2098
▁beruhigen	-12.2098
▁delicious	-12.2098
▁devastating	-12.2098
▁drastisch	-12.2098
▁erschwinglich	-12.2098
▁execute	-12.2098
▁explicit	-12.2098
▁gesunken	-12.2098
▁guitar	-12.2098
▁harbor	-12.2098
▁herkömmliche	-12.2098
▁receptor	-12.2098
▁smiling	-12.2098
▁willkürlich	-12.2098
▁Pharma	-12.2098
▁Söhne	-12.2098
▁encrypt	-12.2098
▁schütteln	-12.2098
▁Lakota	-12.2098
▁gespeichert	-12.2098
▁pigeon	-12.2098
▁stereotype	-12.2098
▁Jetzt	-12.2098
▁Librar	-12.2098
▁magnificent	-12.2098
▁bathroom	-12.2098
▁proceed	-12.2098
▁Zusammenbruch	-12.2098
▁beseitigen	-12.2098
▁drown	-12.2098
▁priest	-12.2098
▁Orbit	-12.2098
wöhn	-12.2098
▁lifespan	-12.2098
▁Jerry	-12.2098
▁deception	-12.2098
▁pipeline	-12.2098
▁Behörden	-12.2098
▁pirate	-12.2098
▁integrieren	-12.2098
▁Babylon	-12.2098
▁Bal	-12.2099
▁salar	-12.2099
▁Lady	-12.2099
▁civilian	-12.2099
▁Brook	-12.2099
▁Notfall	-12.21
-1	-12.2101
▁ausgedrückt	-12.2101
▁coverage	-12.2104
gewalt	-12.2105
gesundheit	-12.2106
racing	-12.2107
ächter	-12.2109
▁hub	-12.2109
▁erzähl	-12.2114
▁Brille	-12.2114
▁leitet	-12.212
dauert	-12.2122
▁ray	-12.2122
▁hervorragend	-12.2125
anlage	-12.2127
▁Brenn	-12.2127
▁Pinguin	-12.2127
trogen	-12.2129
▁steigende	-12.213
▁Med	-12.2131
▁sensible	-12.2132
▁Kanal	-12.2132
▁bust	-12.2133
DG	-12.2136
▁spezialisiert	-12.2136
▁rank	-12.2137
▁proven	-12.214
▁mische	-12.2142
▁Ash	-12.2151
▁Verwandten	-12.2157
▁moralit	-12.216
▁optical	-12.216
lzt	-12.2162
▁Vorgänge	-12.2165
▁vorschlage	-12.2165
▁critic	-12.2167
▁zusammenbring	-12.2168
feuer	-12.217
-3	-12.2171
▁Karo	-12.2173
▁bite	-12.2176
fel	-12.2177
reihe	-12.2179
greif	-12.218
▁Gesetzen	-12.2182
▁Joel	-12.2182
▁Fern	-12.2182
▁Stufen	-12.2183
▁aufgestellt	-12.2183
▁meta	-12.2183
kill	-12.2186
▁processor	-12.2188
▁Eli	-12.2192
heil	-12.2193
▁Zweig	-12.2196
opfer	-12.2196
▁acre	-12.2204
▁2.0	-12.2207
▁monitoring	-12.2213
verläuf	-12.2216
widmet	-12.2216
▁Jahrhunderte	-12.2216
wald	-12.2217
Hex	-12.2221
assi	-12.2223
▁mall	-12.2224
▁wilde	-12.2231
▁printed	-12.2232
▁gras	-12.2234
▁Make	-12.2236
[...]
