▁Wild~~9089
▁treibende~~11300
▁lack~~20993
erium~~18173
ndustry~~19580
▁liegende~~4040
▁Fertigung~~6754
▁erzählen~~74
▁Abstände~~11388
▁Fleisch~~5025
four~~12105
▁nannte~~6346
▁weiterlebe~~12142
dienste~~10376
▁240~~16388
▁bedeutende~~5817
▁Kanäle~~12293
▁Schütze~~16537
▁belastbar~~14831
▁Nairobi~~12661
▁tätowier~~11594
▁Tansania~~12849
▁into~~21012
▁present~~19649
▁Mouse~~10846
▁suchten~~8167
▁Fide~~14263
▁Ureinwohner~~18874
▁Chip~~10250
▁Glenn~~15660
▁Gärt~~13733
▁verankert~~16068
lord~~18718
▁spiral~~17861
▁Pessimis~~14020
▁gutaussehend~~12892
▁Schwarzafrika~~12272
outube~~15696
▁as~~4175
▁Playstation~~11480
▁Beteiligung~~8724
üge~~3516
▁Laune~~8276
▁Anteil~~1738
Stiftung~~15914
▁eiskalt~~13008
▁Gandhi~~3068
bild~~1974
delt~~15161
▁Acht~~7930
▁paw~~20203
▁Treffen~~2340
▁Berufung~~18154
▁Navy~~14293
▁zurückblicken~~11183
akash~~16918
▁Klei~~21169
▁Niederla~~17365
▁Dyson~~17745
▁mutig~~4709
▁erfüllen~~7490
▁Zunge~~10603
▁Heizung~~19323
▁Mittelmeer~~12064
▁beweis~~1330
oooo~~18083
▁Größen~~332
▁Befürworter~~16402
▁Reaktor~~17081
▁Symbol~~8805
▁Million~~2794
▁Kleid~~15602
▁negative~~11600
▁exponentielle~~12149
▁Verlangen~~11954
▁def~~15975
▁fünften~~7754
▁vorbei~~4598
▁Missou~~14043
▁blau~~12877
▁taxonom~~20640
fassung~~9673
▁rap~~20895
▁Freunde~~1125
▁Kühlung~~15542
è~~20992
▁Fusion~~16121
▁Theaterstück~~12388
sturz~~12490
▁erfolgreichste~~11359
▁maximal~~15401
▁Deep~~10913
▁versklav~~12072
Dog~~16670
▁Kreditkarte~~14358
quite~~17217
▁Huhn~~10157
▁Pot~~10062
▁unbekannt~~5971
▁verpasst~~6155
▁pixel~~21734
▁Pop~~4493
▁Por~~13778
▁Optimist~~14019
Bath~~17667
▁Umweltschützer~~5708
▁Mitternacht~~6898
▁laut~~3023
greif~~10945
▁verpasse~~9640
▁Träger~~9250
gehoben~~2094
▁Stimmen~~3053
▁Intensiv~~20535
▁Resnick~~20429
▁Brei~~11168
▁Extra~~10540
▁Sterbe~~6913
▁heroin~~21236
▁Metapher~~8951
▁ähnlich~~1951
▁katastrophal~~18538
▁deutlicher~~10465
▁sanitäre~~13393
▁vorher~~3894
▁Fransisco~~12258
▁näht~~11821
▁attraktiver~~15618
▁verhindern~~7615
›~~17499
▁Darwin~~10136
dorf~~11981
▁Pille~~15886
▁verhindert~~7617
Welt~~5855
▁Mauriti~~13514
aware~~20691
▁Großeltern~~2810
▁Depression~~1474
,500~~17720
▁Mathematica~~17765
▁heilt~~16832
▁schwebende~~12890
▁vorteilhaft~~1344
▁kreativ~~1266
ryptophan~~21298
▁Frosch~~12904
verhältnis~~9145
k~~96
ppel~~5989
▁Erschaffen~~16278
vorstellung~~16592
▁Spiel~~1610
▁Ring~~6712
▁zusammenbring~~8112
▁Automat~~9892
▁MS~~16702
▁Lange~~62
▁Laden~~6696
▁Vernetzung~~11415
head~~19594
▁Tasmanische~~17787
▁verschwinde~~4092
▁Walter~~16490
▁rollt~~12327
▁Schreck~~18456
▁Versteck~~2993
▁schnitt~~1772
▁Urheber~~10864
▁Nick~~6825
grier~~13343
jäger~~4708
▁Radio~~4417
reichen~~5324
▁dabei~~1817
▁verkümmer~~14631
bänder~~15698
▁übermittel~~4222
▁Kyros~~12026
▁Extremisten~~19465
▁Baum~~9057
ction~~17055
▁Suaheli~~19517
stern~~3026
▁Manya~~21703
▁Airline~~16497
▁500,000~~17703
▁Cowboy~~18781
▁institution~~17432
▁Schnitt~~9196
▁Bild~~488
Führungsposition~~18742
<s>~~2
prengköpfe~~19831
▁Hälfte~~3307
▁verdeutlich~~4265
▁Bill~~61
isierte~~1254
▁Entwicklungsl~~9883
▁Erlebnisse~~9503
▁person~~17497
▁unerreichbar~~12853
ltimo~~19766
▁Vegetation~~16166
▁Testament~~12100
care~~19981
musik~~3178
Urenkel~~20036
ausendstel~~16298
▁Schleimpilz~~21702
▁Hinsicht~~4312
▁Gehör~~12821
▁weit~~785
▁Farben~~1385
gefüllt~~9371
▁Schluss~~938
▁reflektieren~~11553
bringt~~8140
▁Kindererziehung~~17283
Person~~16391
holm~~5769
▁nachvollziehbar~~18352
▁Götter~~5093
▁Levitt~~16798
▁Nachthimmel~~11842
91~~2342
gestürzt~~12068
hole~~15409
hold~~1554
95~~18814
▁weil~~249
gruppier~~16718
▁Brazilian~~21353
▁abgebildet~~12625
▁Pink~~17682
▁Boulevard~~16913
▁unser~~328
EDI~~14884
rmostat~~16809
locken~~318
▁erzogen~~1190
höhle~~17707
▁Stockwerke~~794
▁Superstar~~12658
▁skaliert~~19239
▁Identität~~2646
▁googel~~12504
▁Behausung~~838
▁hoffen~~4122
▁Fuku~~18679
▁Erwärmung~~13648
▁west~~13166
▁Toilette~~6303
▁erholt~~5494
wand~~7426
La~~5332
▁Philharmoni~~17806
▁Zuversicht~~6580
▁Anton~~6345
▁Schafe~~3524
▁Träumen~~11751
geber~~1589
Reality~~14433
▁traumatische~~19140
geben~~1812
▁durchbrechen~~14084
sterben~~9556
Energie~~18275
▁Trac~~8065
bergewicht~~15531
▁Privatschule~~7460
▁Poster~~4571
▁Süd~~5786
hof~~7970
motion~~19761
▁Jemen~~19909
schmuggel~~11096
LC~~12012
▁vorherige~~6024
▁Potential~~1888
LL~~18794
▁Tante~~2958
▁network~~18484
▁Nähe~~4044
machine~~20745
how~~8963
hou~~13074
Kleiderbügel~~13895
gebieten~~2364
hop~~10613
Atom~~13440
▁überprüft~~5741
amme~~4510
▁Nähr~~9945
▁Streich~~13255
Woche~~8324
msala~~17698
▁neun~~457
▁Lehrer~~1963
▁Kreis~~1931
▁Kobe~~11224
▁Minarett~~16799
Kontroll~~9590
▁Spielregel~~18891
▁neue~~228
▁Rockett~~21056
▁TEDMED~~9279
▁Schaltkreis~~14628
▁Steven~~8864
▁MacArthur~~10542
▁Lem~~15037
mechanik~~18556
▁Kelly~~12703
▁Maddie~~18736
▁Augenbinde~~20594
atricia~~17593
▁modifiziert~~10197
▁droht~~5717
▁Rumi~~18590
größe~~1990
aving~~13386
▁Schauspieler~~3689
▁Situation~~1736
▁Ebene~~1780
▁straf~~18102
▁verwende~~6688
wink~~17559
getragen~~6730
▁love~~17637
▁Elektrizität~~13348
▁schien~~3111
▁aufgepasst~~8611
▁kannte~~6923
▁schieb~~15710
▁repressive~~19076
etikett~~18562
▁paar~~77
▁bask~~20435
▁protest~~17291
▁verging~~14393
▁Leb~~12254
▁Elemente~~9351
▁Rollen~~12464
acco~~20354
▁Zuckerbrot~~17427
▁wann~~1564
bling~~20915
vara~~13105
▁militärisch~~19867
▁besten~~1586
▁mentale~~16249
▁Okeechobee~~21632
▁Safe~~20588
▁Higgs~~20126
impft~~1175
esundheitspflege~~11822
schließen~~1866
▁Vortrags~~1332
▁hunger~~5066
▁profit~~16937
▁quietscht~~21470
▁heimische~~7262
▁Johnny~~6330
präsident~~15386
▁Romo~~20110
▁kanadische~~10670
▁Hour~~13825
▁Hous~~18308
▁Shankar~~13093
fin~~9932
▁Psychose~~13020
▁Whirlwind~~21288
▁Beine~~3500
▁heimlich~~9231
▁John~~6507
▁Rhode~~10353
▁erstarr~~5523
bühne~~20578
▁Remix~~10781
▁symbio~~5290
rezept~~1700
▁Alternativen~~16649
wohnen~~11355
▁chore~~20259
trüb~~10041
▁Effect~~20043
▁Kultur~~1058
▁auffällig~~8598
▁Stammes~~12196
▁spirituell~~11510
▁Ariel~~3405
▁Lehre~~8293
setzung~~5704
▁Sterben~~6959
▁names~~15902
▁Securit~~20297
▁bezahlt~~1992
▁Junior~~19656
▁stehen~~132
▁Patientin~~5501
▁Weltbank~~7143
▁Patrick~~19071
▁Kentucky~~14580
▁nation~~21354
▁Amputation~~17154
▁Seattle~~13208
▁bezahle~~2132
▁Risse~~6002
▁ESG~~21754
▁Achilles~~10652
▁ägyptische~~19555
▁Emil~~15630
▁Verluste~~7164
▁monster~~18992
▁Unterkunft~~11872
▁kubanische~~18928
▁Angiogenese~~20766
▁schlafe~~19450
▁repräsentative~~15530
▁gezogen~~5109
▁fassen~~666
▁erforderlich~~18066
▁br~~523
oxica~~21605
▁gebrochene~~9665
▁beschränk~~16428
▁final~~15709
▁raus~~1534
▁hineingeh~~4243
▁by~~19135
▁emotions~~20812
▁Staaten~~1526
▁be~~753
▁Rechnung~~15404
ajestät~~18962
▁ba~~6240
▁rauf~~5564
▁Mittagessen~~1657
▁Info~~7220
▁Dow~~17473
▁Mongol~~9877
unwahrscheinlich~~5044
▁bi~~3469
▁Ideo~~20810
▁vieler~~1918
röhren~~9962
haben~~12333
▁metastase~~21010
▁Konsumenten~~7086
▁pseudo~~20318
ry~~4698
▁God~~16551
acula~~12351
cooter~~12659
re~~275
▁Arka~~16043
▁bedenken~~5133
ra~~2814
▁Schweine~~5178
konflikte~~17395
▁Economi~~1068
▁Höhepunkt~~6055
ro~~2619
ri~~3382
▁Knöpfe~~17297
▁tiefgreifende~~4066
▁Vibrio~~18165
▁Church~~13929
▁address~~21200
▁realisierte~~5974
▁Doo~~11985
▁Armen~~10284
▁Dunkle~~15191
ymnasium~~17387
▁Mitte~~2418
▁Kräuter~~19554
geworden~~16229
▁sicherer~~12297
knit~~20504
▁Beatrice~~20280
▁versieg~~19638
▁angle~~21521
▁allgemein~~3374
ate~~2360
Präsentation~~19120
ata~~17250
▁entpuppt~~14716
▁Dod~~17368
▁Russell~~16157
▁heranzieh~~17470
moment~~15250
ath~~14508
▁unterdrücken~~11953
▁Alternativ~~19437
▁abge~~6069
▁Guzm~~19973
zubringen~~3786
▁Sendung~~7285
▁Coca~~13340
▁Simulator~~20224
▁1963~~20097
▁anschalte~~18498
▁Prozedur~~10658
▁Regierungen~~5727
▁Idri~~21380
▁mark~~15967
▁reflektiert~~4508
▁choreograph~~13099
▁Knotenpunkte~~16978
vitro~~19443
▁relativ~~1074
nerkennung~~6965
wash~~16154
▁intervention~~21323
▁Miene~~8254
▁Mann~~2990
erklärung~~12251
▁Hadron~~18337
force~~12807
▁Cait~~21525
endlich~~8639
▁verstehe~~6843
▁loslasse~~9629
▁Fischen~~5825
xploration~~20405
service~~14270
▁scroll~~16709
▁NSA~~14715
▁umfasst~~9727
▁Jesus~~15029
ronx~~21442
▁Prototypen~~8456
▁McCart~~15599
▁identifizier~~20109
▁Dichter~~6969
genesis~~18668
izen~~8713
▁Fischer~~5731
▁teil~~3227
▁Süße~~16083
▁Hoover~~20503
▁enttäuscht~~6561
▁psychisch~~6372
▁darau~~965
▁Rem~~12047
▁frustriert~~11916
▁McCl~~18488
▁Monolog~~17702
▁Architekt~~4993
ifft~~18470
▁mögliche~~4553
▁peinlich~~6929
▁daran~~1214
versage~~17135
▁Islamist~~19906
▁Of~~21738
▁ausgehend~~7173
▁verbesser~~2258
▁Cholesterin~~19570
▁Buzz~~17894
▁herauskomm~~10748
▁öffentlich~~8512
▁free~~20968
▁spürte~~8870
▁frei~~3858
▁rang~~17458
Schein~~3647
▁Wasserrechte~~17397
▁invite~~21716
project~~9780
smethode~~6887
▁masse~~18757
▁Powell~~17024
▁belanglos~~6643
▁erheblich~~9614
▁Doktorand~~2365
▁HIV~~7554
▁wütend~~6323
▁Ordnung~~2997
▁Südkalifornien~~18284
▁kompensieren~~18541
▁Leid~~11489
▁Behörden~~11054
▁Kühlschränke~~3637
▁Fußball~~1449
▁Zeichnen~~12422
▁inside~~16771
runner~~21762
▁komplizierte~~8625
▁Monat~~5964
▁massenhaft~~17181
▁Fellow~~12275
▁Steroide~~9373
▁Agu~~19029
▁Kindersoldat~~11707
kompetenz~~9935
▁unkompliziert~~15665
▁saubere~~11154
▁Lolli~~20419
▁misst~~4263
▁Strohhalm~~19925
▁cue~~21171
‒~~21501
▁Schöpfer~~9125
▁Epilep~~11382
▁anzu~~317
▁Kapitel~~2478
Perspektive~~13610
▁Mine~~12952
▁Mini~~9782
▁entmutig~~16259
sound~~21579
▁hierzu~~12704
▁Ok~~6444
▁Geschirr~~5590
alai~~11563
▁Schichten~~8746
▁Aborigin~~18653
▁Gelehrte~~17172
▁soup~~20879
▁politisch~~11760
Bank~~13621
▁unerwünschte~~14676
▁Gewicht~~2373
▁Associat~~20621
▁großer~~3492
▁Röntgenbild~~19409
▁wendet~~9738
▁Mobilfunk~~12774
shalb~~5293
▁rechtfertige~~12405
▁basierend~~8695
weint~~14460
▁angetrieben~~7067
▁Rouge~~19065
mouth~~6946
▁Prophe~~11666
krempeln~~11439
▁großen~~293
▁Endergebnis~~9175
PO~~9766
geschlagen~~5137
▁bewahre~~1180
▁atemberaubende~~14694
▁Säulen~~793
▁Wohnzimmer~~4605
▁Burn~~7316
professor~~6788
lose~~1251
▁Burk~~11597
▁Bru~~19218
sammle~~8063
▁Gründe~~1530
▁bewahrt~~12285
▁Burt~~16731
tech~~6596
▁entstellt~~11971
▁schonungslos~~14759
kratzt~~15689
▁Söhne~~8939
ausrüstung~~17188
▁auftreten~~11577
Marke~~15538
▁Verri~~10517
bomb~~19399
▁schiere~~15455
▁indische~~7015
hus~~7819
bewußt~~5553
straßen~~11776
liest~~7329
▁Beweis~~7796
Markt~~12842
▁herrschte~~9364
▁Eingang~~15989
Situation~~18148
▁helle~~9804
schaften~~7595
▁Drink~~19993
▁Variante~~14343
▁Rückzug~~17113
▁manifestiert~~16077
▁Poe~~12564
ment~~4027
▁Betrüger~~3592
▁Untersuchung~~1367
▁Kontext~~1869
▁Erwartungen~~7066
▁Vergangenheit~~943
than~~9360
▁Gebilde~~9042
▁persönliche~~3119
gesaugt~~12020
▁chirurgische~~10466
▁thro~~21453
rich~~10332
▁native~~20948
rice~~18251
▁Arrangement~~16534
▁pharmac~~21795
▁wiederhole~~19141
▁Elisabeth~~18390
▁Karikatur~~16161
▁Komfort~~10534
wide~~15632
rench~~17994
kleid~~11719
▁Haushaltsgeräte~~17915
▁Klug~~17713
▁wiederholt~~3493
Magazin~~7414
Geisteskrankheit~~17538
▁Erscheinung~~2609
▁Schriftart~~20698
▁Album~~13254
▁Eier~~9495
▁Aussehen~~9964
X~~309
▁Koran~~11665
▁Algen~~5760
▁Raketen~~4585
platz~~6379
▁vorangegangene~~9862
▁freie~~4283
▁Bitmap~~17762
▁Physiker~~10354
gucke~~16617
▁Füße~~693
▁Ekel~~15904
▁gewöhnt~~4203
▁Rasse~~1384
▁Pfeffer~~15044
▁Hepburn~~21481
Kopf~~15764
▁einheimische~~11302
▁hervorheb~~12654
ugoslawi~~11692
gewicht~~5356
Netz~~13604
▁Buchhalter~~18406
gehe~~13111
▁Saddam~~17124
▁Senate~~19687
▁Dome~~5828
▁fundamentale~~5224
▁Ausnahme~~6097
tomie~~14310
▁Immigrant~~15020
▁meiner~~247
Gruppe~~3713
▁adaptive~~16080
waffen~~13524
▁OP~~8105
Jo~~13847
zahlen~~10068
▁Netzwerk~~3856
▁maßgeblich~~20415
▁Zugänglich~~16745
▁Easy~~15361
▁angerufen~~3208
läut~~12431
Afrika~~4489
▁Garnele~~750
▁Jahrzehnt~~2084
klären~~5664
▁Ländern~~1842
▁infrar~~18494
▁Oregon~~11774
▁East~~14818
▁meinen~~2607
▁bescheid~~17849
▁Kalku~~13452
fangen~~426
▁Tisch~~5905
▁Leute~~1806
▁grösste~~1379
nkung~~15382
▁gewährleiste~~6173
▁mega~~19814
▁Drang~~10941
▁unschuldig~~13266
▁erfordert~~5735
▁solcher~~11555
▁kurzfristige~~7697
▁vorgeschlagen~~5853
figur~~3845
▁pump~~14510
▁place~~21414
▁Probe~~3748
▁Oberfläche~~625
▁What~~16045
▁fischer~~18166
▁Steuerzahler~~14044
ire~~4195
▁Aich~~14064
rollen~~2849
▁geheimnisvoll~~6987
▁entwarf~~5424
▁Noa~~20380
▁Bananen~~12960
▁Wendung~~14341
▁vorhergesagt~~16060
▁ausgewählt~~1338
▁Fernbedienung~~12445
stress~~18059
▁Wechselwirkung~~12489
cut~~11523
▁Ideal~~5240
rude~~13832
▁Madonna~~8793
carbon~~9533
ränken~~7392
Task~~19248
▁Potter~~17011
ë~~20298
▁expansive~~18388
ntschlossen~~6232
signale~~7090
▁bewegt~~146
met~~9295
▁braune~~5557
▁MRT~~11408
▁irgendwelche~~3847
▁unterzeichne~~13329
▁Dokumentarfilm~~2903
▁Entsorgung~~17616
▁dein~~1307
▁Vorurteile~~9120
schuhe~~11949
▁gelähmt~~5524
▁MRI~~2494
elbstbewusstsein~~14177
▁rate~~9061
▁klitzekleine~~18193
pite~~2480
▁Musikvideo~~15693
erfahrung~~8635
and~~4804
gesammelt~~5092
▁Monopol~~12186
▁führe~~13997
▁Passagier~~16213
▁passierte~~4649
▁mitzu~~3977
▁immersive~~14344
▁zusammenzufass~~16906
▁redesign~~21497
▁SUV~~10915
▁SUN~~10260
gerne~~1875
▁Massstab~~15480
▁vergifte~~13277
zuschauen~~13482
▁Asteroid~~17046
▁genital~~17719
▁grade~~13104
▁gehandelt~~7176
▁Rendite~~12187
union~~9227
▁Block~~5414
▁Pat~~4731
▁Bionicle~~21468
▁fair~~7052
▁ausser~~2411
kasten~~5461
.~~1064
▁Pan~~10594
▁schrecklich~~2528
▁Pam~~17380
▁Hölle~~909
▁Galileo~~16527
stadium~~14677
▁wiederzu~~1014
▁underst~~19859
Gesellschaft~~17286
▁freisetz~~2597
▁täte~~6691
farbig~~17920
life~~9090
▁Anfang~~1681
betracht~~16437
▁Erleben~~8260
▁Tourist~~14172
Schule~~15604
▁außer~~717
▁wegweisende~~19744
▁Kick~~6476
▁evolution~~21665
▁Argumentation~~16113
▁gleichzeitig~~762
▁Zensur~~7465
▁außen~~9773
▁Ausbruch~~15032
child~~16266
▁Besuch~~10432
▁Erwartung~~11002
faktor~~1197
erst~~1600
▁abrupt~~16164
▁überquert~~13477
▁kosten~~7062
▁noble~~12247
▁überleben~~3384
▁verletzlich~~5841
▁Desaster~~958
Waschmittel~~10656
▁Lebenserwartung~~7667
▁irgendein~~6498
▁übergewichtig~~15051
plizieren~~18493
▁Verbraucher~~14186
▁zurückgehen~~8985
anstieg~~15752
▁lebenswert~~17462
risch~~6427
▁kostet~~1977
türme~~15711
▁depressiv~~16237
▁marginal~~21009
▁Bewohner~~2013
▁selbstfahrende~~19805
fälsch~~5573
▁Bahnhof~~15980
▁Northern~~17977
▁Treib~~4793
▁Mentor~~13308
▁blieb~~6308
tzt~~5383
grenzen~~2679
▁tatsächlich~~372
▁unbeschreiblich~~18560
▁Wal~~14528
desto~~1373
▁springende~~16309
▁falsch~~3747
▁Was~~4602
▁War~~6387
▁Bronx~~6268
▁Streitkräfte~~16395
Grafik~~19547
Krankheit~~14642
tät~~7305
▁optimiert~~18063
▁zahllose~~16886
llows~~21580
▁besorgt~~2078
klinik~~11820
wenden~~5883
wettbewerbsfähig~~7443
▁Hiroshima~~15735
Python~~20317
▁4000~~19062
pulsion~~19505
▁aktualisiert~~9001
▁Psychopath~~18468
▁stop~~17992
▁color~~21344
▁narrative~~2626
▁Tide~~20886
▁Rind~~10153
▁suggerier~~19419
▁gebogen~~5400
förmige~~804
▁aktualisiere~~3907
junge~~17609
▁konfrontiert~~3400
▁Mechanism~~11299
▁0,~~15721
elefant~~19601
brücke~~6125
▁Joghurt~~13739
viertel~~12306
▁Biolog~~18554
entbehrlich~~13758
▁symbols~~13985
▁Penn~~6705
Mitglied~~17651
ã~~20734
▁anhaltende~~2250
▁execute~~21679
▁Lebensspanne~~17831
▁atheist~~21083
▁Terrorismus~~12836
▁implizit~~17813
hrfurcht~~2788
topf~~10546
tung~~1752
▁Apotheke~~7588
▁solch~~7885
▁Kleinkind~~8217
▁motion~~21231
▁verge~~11846
▁Instrumente~~3950
weichen~~6072
▁taucht~~11966
▁Fallschirm~~4707
â~~18564
▁Bomben~~16029
▁Millarde~~15311
more~~16022
▁Wörterbücher~~15153
▁Atmosph~~19705
▁Mein~~5625
▁Broadway~~14799
▁schwedische~~12798
▁Elendsviertel~~6064
▁Pfeilspitze~~19329
▁Zehen~~17955
▁Olymp~~1396
▁übergeordnete~~13036
wahl~~1342
▁ursprünglich~~5355
▁dominieren~~13848
▁Maul~~12324
▁merkwürdig~~800
▁8.~~9289
▁Oxytocin~~3884
▁geschwollen~~18559
ufregendste~~103
▁mitteilt~~14760
▁Chinese~~4641
▁überwältigt~~11009
▁86~~12982
▁verstehen~~684
▁80~~1748
▁artist~~15784
▁82~~7150
▁83~~4660
▁Maus~~7765
▁durchsichtig~~11841
▁fügte~~15965
▁88~~14322
▁Unternehmens~~11438
▁Drachenkönig~~21776
▁erzeugt~~3869
▁Gleichheit~~1876
▁zahlreiche~~7568
hak~~5857
▁Power~~4082
ham~~6663
han~~1114
▁aufschlussreich~~11793
▁Frühling~~5792
▁auszusehen~~12410
frage~~7043
sitzen~~8592
Rakete~~15835
▁Flagge~~4574
▁Geringste~~17152
▁Ausstellung~~4675
grafik~~13898
▁laufen~~2400
har~~6203
▁Proteomik~~17773
hat~~15291
▁Vorteile~~1090
▁25.000~~13246
▁Diskette~~18092
▁Lauf~~4277
▁schweigen~~7761
▁diagnostiziert~~10368
▁Träume~~12932
▁Julia~~13708
▁beherrscht~~8161
▁Schnappsch~~16531
▁experimentiere~~4064
▁Miete~~10046
▁Laut~~4316
▁Nachwuchs~~9560
▁anbiete~~14571
▁erträum~~16230
▁Laur~~18030
wolke~~14488
▁beschrieben~~7205
▁psychiatrische~~12451
▁Grundschul~~11807
▁experimentiert~~10267
▁Karikaturist~~14296
hängig~~13443
▁Second~~15364
▁priest~~12101
▁erkennen~~1728
▁Leistung~~1488
▁schlimme~~10570
▁künstlich~~16905
▁Stufen~~12174
▁Schmetterling~~12364
▁Anders~~3587
▁aufregend~~4324
▁Konsens~~6601
ippe~~6896
▁Filmmaterial~~9223
▁Prüf~~17279
▁photograph~~20332
▁gemäßigte~~17834
▁Designer~~5326
getriebene~~14299
▁Gedichte~~16319
▁Rush~~13824
▁Medium~~4482
▁Andere~~5701
▁lustige~~835
ola~~5378
▁Linksliberale~~13759
▁geheime~~8093
old~~9443
▁Aufreg~~3796
▁Rumpf~~9966
ektion~~9066
▁geboten~~20289
▁Mental~~19585
▁spezielle~~202
zeitalter~~5157
▁200,000~~20064
▁Mannschaft~~17346
schuh~~11992
bedingte~~14089
▁belegt~~8571
▁studierte~~6851
▁Gitter~~9070
▁Giacometti~~17735
▁Aquarium~~4905
▁Organismen~~7700
▁Gegenwart~~6313
atrol~~20973
gefängnis~~17028
urga~~13120
▁platziert~~4251
É~~20591
▁Kosov~~17709
äfte~~2461
for~~4823
▁konstruktiv~~1631
▁just~~1028
▁machten~~3457
▁board~~20661
▁amüsier~~16099
▁quantit~~18036
▁umstritten~~1834
▁Imker~~17648
▁Head~~4294
▁po~~17157
▁Besten~~3147
▁Einschränkung~~1649
▁abgeschlossen~~7835
mpact~~19614
▁Bro~~13905
▁Target~~15846
▁mystic~~19263
▁überzogen~~17302
▁Projekt~~3482
▁prophet~~5622
arbeiten~~5458
▁servier~~15045
▁Profit~~7050
rückt~~1455
binden~~6664
▁Dutzende~~2410
▁Profil~~7292
arbeiter~~2065
gefunden~~7868
Unternehmen~~14061
▁Swap~~20407
▁Verfahren~~1835
ú~~20830
▁Welten~~5631
▁ausbilde~~11340
▁Swami~~8209
▁bitte~~2007
▁stress~~21523
MPA~~18074
bewerb~~10470
▁Ig~~19250
▁sick~~18985
o~~439
▁weltliche~~17488
▁Cosmi~~20554
▁konkurriert~~19610
▁Alarm~~15772
▁befürworte~~12971
▁komplexer~~10181
▁komplexes~~14653
▁Weil~~1601
▁Wein~~3196
▁marble~~18630
▁besuchte~~8480
▁umso~~5013
▁Taxifahr~~12463
chte~~6836
▁Arbeitsplatz~~1456
orientiert~~12257
▁verblüffend~~10359
▁Gedanken~~2496
▁Säle~~4321
▁zusehen~~6634
son~~493
▁Collusion~~21408
▁intelligent~~6213
Erhöhung~~15448
anbieter~~14736
▁beängstigend~~5672
haupt~~11735
▁hielt~~6302
efangenendilemma~~12702
▁Schüssel~~13076
▁Stellenwert~~13765
▁gekrümmt~~16539
▁legitim~~7648
▁Haftstrafe~~14601
▁Eigenart~~7625
▁physisch~~7744
fabrik~~11094
▁höchst~~9440
therapiefelder~~19441
▁herkömmliche~~10357
▁Varianten~~9177
▁Pr~~6200
▁BBC~~19401
spring~~16942
call~~18305
▁Vati~~18770
▁led~~20567
▁entführt~~11566
▁Genev~~21626
▁Hendri~~18546
▁beiderseit~~12190
gewebe~~10356
schrift~~2227
▁Weltklasse~~6764
▁Voyage~~8998
tasche~~11946
▁gesichert~~14534
▁Abschnitt~~4253
oil~~9755
back~~6675
▁Pestizid~~20499
▁Moh~~19740
▁Kelvin~~18754
▁FILMCLUB~~2641
▁moralische~~2672
▁Mitra~~20671
▁Chancen~~1880
▁ursprüngliche~~7776
▁verkehrt~~19406
▁Zinta~~20841
▁Sach~~10871
▁abnormal~~13011
▁Stammbaum~~11334
otter~~3133
week~~21542
azi~~14485
gebohrt~~1257
▁wag~~2309
▁Antikörper~~13975
reitet~~10706
▁sahen~~657
▁verwendete~~8331
▁navigieren~~14647
▁Hinterhof~~8935
reiter~~19873
▁must~~19008
▁was~~157
▁war~~517
▁verteilt~~1887
▁verdrängt~~6934
▁Nachmittag~~9886
▁Georgia~~18763
▁Auslese~~16081
▁umkehren~~13502
▁Amunds~~13493
kohle~~11072
<unk>~~1
▁Stück~~665
▁Grill~~8862
hülle~~5380
▁PET~~19424
▁entfernte~~13222
▁erneuerbare~~13679
▁morbid~~19234
▁Ungleichgewicht~~9508
▁albern~~11473
exist~~10814
hüllt~~17211
sparen~~4513
▁dauerhafte~~5081
▁Birmingham~~20370
▁PC~~7527
▁Spezialisier~~17897
▁Mäuse~~7751
▁loyal~~19542
▁Ansatz~~3437
▁älter~~2809
▁sprachgewandt~~21592
▁Kenia~~12772
▁Glas~~4777
▁Millisekunden~~2555
▁philanthropi~~19353
▁drückt~~14944
▁Summi~~20356
bewusst~~13591
▁Darlehen~~19486
stage~~15609
stürzen~~3826
▁Tentakel~~271
▁Pavillon~~11197
▁tunesische~~19558
▁Meeresbiolog~~19589
monoxid~~19692
▁Summe~~3569
▁Häuptling~~11873
▁drücke~~16214
▁Gel~~12605
▁Geo~~16680
▁Gen~~1193
E~~691
▁Geh~~15844
▁Justizministeri~~19382
▁riesengroße~~18134
▁Auswei~~1751
Level~~16704
▁Erdbeben~~167
▁CERN~~16449
▁robust~~7764
palme~~19639
▁intuitive~~13792
▁Amateur~~3922
▁massive~~2008
▁Par~~8542
modell~~9190
trafen~~18877
▁Get~~6511
▁Louis~~3218
▁1918~~12109
▁kürz~~6692
ßen~~3195
▁Proben~~4929
reicht~~6889
▁pi~~20090
▁Barmherzigkeit~~11601
▁legte~~7344
▁hochmoderne~~16657
▁geologische~~14811
▁Versicherung~~6994
▁Benki~~20033
aufbau~~7422
programmier~~15806
reiche~~537
▁angenehm~~1987
▁entzünde~~5998
▁hilfreich~~2573
▁Soziologe~~12700
▁Gelände~~14581
▁Teilchenphysik~~16450
time~~622
▁Bewertung~~1707
▁Selektion~~7840
▁PS~~16979
▁senk~~12970
▁strap~~20432
▁Clay~~17412
Ausrottung~~5994
▁lebende~~7731
▁don~~17063
volle~~3176
▁akademische~~3092
▁ungeheure~~10323
▁Clar~~6816
▁Gabriel~~3947
▁Clau~~21053
▁ran~~6749
▁Cyr~~12084
osi~~10481
osh~~18704
▁Natürlich~~5010
▁rat~~11085
▁rau~~13206
löffel~~15845
▁typisch~~7722
osa~~9093
monade~~19821
ose~~11765
▁TaskRabbit~~17502
▁Dänemark~~7442
macht~~7178
▁Tricks~~12301
▁Cleve~~15979
▁vorherrschende~~17234
ver~~496
weile~~4475
▁burglar~~21684
▁fotografiere~~5653
qualität~~2317
▁verkünde~~15463
▁Christopher~~2486
▁beliebige~~5156
▁bemerkenswerte~~10497
▁härteste~~6062
saal~~2767
▁fotografiert~~5722
▁Fokus~~2025
Peer~~8474
▁Palmöl~~21164
▁sequenziert~~13838
▁funk~~9361
Bahn~~14852
oid~~17010
▁Fortpflanzung~~14826
▁Best~~2082
▁Zustände~~11494
▁betritt~~4138
▁Fax~~10979
Prize~~16767
▁taste~~21359
▁gründete~~2705
▁Platz~~1050
▁sprich~~9818
▁Anlage~~11075
▁Force~~6449
▁präsentiere~~7280
▁Fal~~8787
▁Bese~~2781
▁Fan~~2904
▁tour~~12415
▁vereint~~15320
▁radioaktive~~18678
▁symbolische~~7893
▁sapien~~11358
▁so~~264
Barrel~~14191
▁stimuliert~~1414
▁Plato~~17911
▁Fab~~2656
▁präsentiert~~3283
homa~~15756
▁Finanzkrise~~11063
frucht~~10225
▁Protozelle~~21038
nagel~~3823
▁Wer~~10581
▁obsessive~~21151
▁Besorgnis~~13269
▁brennende~~5539
Tag~~11466
änge~~3838
team~~6192
oldaten~~18218
▁Geschehen~~5721
▁Richard~~10554
▁praktiziert~~14469
▁schwarz~~2901
▁egal~~1563
za~~15990
▁Hercul~~21123
▁Individuum~~10113
▁Gerücht~~18432
▁Wünsche~~6924
▁ausgegeben~~1965
hack~~10075
▁Treasur~~18386
▁kreuz~~13827
▁klinisch~~14656
▁Nathali~~11182
▁Urgroß~~17597
▁Cross~~11027
▁aufhör~~1407
▁brillant~~12512
▁entfachen~~1683
fehler~~8609
▁vortäusch~~4562
▁Struktur~~4313
▁Ahmedabad~~21272
▁verzerrt~~3730
▁knapp~~6488
▁Pandora~~12170
▁Jaipur~~14926
▁Valdez~~18362
▁Herman~~9796
▁Schaf~~10226
▁bleib~~13927
▁Goldene~~17015
▁Garage~~15926
▁sandwich~~20865
▁patentiere~~18487
▁innere~~6287
▁Okol~~20949
▁Auftrag~~5413
rochen~~9069
▁angespannt~~11725
▁Atmosphäre~~2380
▁Schau~~4907
▁Schar~~7665
▁patentiert~~16743
▁Samantha~~20728
▁Werte~~3117
▁Schwefel~~861
bo~~4717
Ma~~6529
▁Beschäftigte~~18422
▁Ferien~~11140
▁bieten~~2664
Mo~~6800
▁Rückmeldung~~17130
lange~~2833
▁Revolution~~1023
▁Sektor~~13350
▁Konkurrent~~12708
▁Leinwand~~2721
magnetism~~20659
▁Assistent~~11314
uff~~3596
▁Kumpel~~6428
▁wussten~~548
▁Sojabohnen~~6841
▁erstaunlich~~741
▁tu~~6296
studien~~15617
▁Innenstadt~~6328
▁diver~~15488
▁beginnen~~685
▁Gate~~19605
▁lächelt~~11671
▁nördlich~~459
ML~~5803
▁geometr~~21307
▁Truppe~~6569
kreislauf~~2526
uantenmechani~~13029
▁BOMB~~19648
MT~~18531
▁durcheinander~~4340
▁Grafik~~3841
▁foundation~~21239
flu~~9592
▁firm~~21142
▁strahlt~~10008
▁Züge~~7922
▁Fett~~10393
▁suggest~~21771
▁Whistleblower~~21317
▁Kosten~~1972
▁beim~~1982
▁mütterliche~~13195
▁Knee~~21141
▁prinzipiell~~9941
generierte~~14424
▁beizu~~2143
▁hinausgeh~~15988
▁auditive~~21071
▁ökonomische~~1743
gesicht~~13767
wörter~~11526
▁Entdecken~~16910
wana~~15498
▁String~~11574
▁Goldilock~~21561
▁Koolhaas~~20842
heirat~~6716
▁verändernde~~12640
▁nutzlos~~12406
▁Punkte~~4599
▁Karibik~~451
sky~~8548
▁primordial~~20880
▁los~~721
stimmung~~11060
▁Ethik~~4740
▁low~~15331
positive~~12977
▁Untertitel~~2902
▁Verwendung~~7064
▁erneuer~~6592
▁Draht~~12151
▁uh~~18505
schläge~~7242
▁Domin~~11255
▁log~~6162
▁met~~16655
▁quick~~21721
▁reichhaltige~~7525
▁Faustkeil~~18646
▁übernachte~~16440
▁Ratschlag~~16738
▁CT~~11339
▁Zeitplan~~7385
ossi~~11353
▁Nazi~~3018
▁Treibhaus~~15718
▁Röhre~~638
▁Kontakte~~13625
▁Himmel~~2782
▁extrahieren~~12948
▁Vereinbarung~~14363
▁Liter~~14923
Zentrum~~9907
▁CD~~4181
visual~~19827
▁wiederherstell~~5282
▁CA~~5802
▁Hunderttausende~~15745
▁CC~~17652
▁CB~~4275
▁CL~~18069
▁Laura~~8851
ück~~6251
▁Lastwagen~~13719
▁EB~~14689
▁Cu~~17210
▁Aufstand~~1679
▁Budweiser~~12205
▁kriegen~~1203
▁Tom~~3060
▁Ton~~3260
▁home~~21179
▁Tob~~18740
▁analysiere~~6275
▁Tod~~3914
▁Mass~~5955
▁quasi~~8356
▁Streit~~14173
▁Mexican~~19151
verträg~~9081
▁Ca~~4850
skrit~~13095
ggle~~20998
▁Top~~7117
ffnung~~11932
▁analysiert~~4257
▁Medizinstudent~~6722
▁Ch~~635
▁Kandidaten~~11936
▁Erwerb~~17715
▁potenziell~~8439
▁Motion~~20308
▁Kissen~~18349
ever~~10313
Monkey~~21743
▁gearbeitet~~4186
▁Flüchtling~~17859
▁Diplomat~~15038
▁Layma~~11703
▁Politiker~~5876
▁schleppte~~9647
flogen~~2441
▁einzelne~~281
▁Merkmal~~8593
▁Athlet~~14478
▁Hyp~~14714
▁Marketing~~7562
▁Geiger~~19198
▁bestimmte~~3716
▁vergess~~8021
fühlst~~2500
▁abbilde~~11365
uszubilden~~12175
wickelt~~13320
▁ac~~21130
▁kreieren~~7199
▁stört~~12908
▁Schrift~~11780
▁Blood~~15567
▁erhalte~~11141
▁Bris~~12595
▁Zusammenhalt~~14909
▁Brit~~2888
▁Bloom~~8689
hundert~~12296
ruder~~16518
▁Nicht~~4687
▁Sperma~~19734
▁Brin~~8412
▁Zettel~~3631
▁Ministerium~~10771
wickeln~~6698
▁Schwarz~~10184
▁kümmer~~1571
▁Ausgrabung~~11307
umarmen~~18298
▁Zander~~20311
▁auszuwei~~17064
nseits~~4975
stapel~~7457
▁ledig~~7576
▁Fruchtfliegen~~20762
▁Stringtheorie~~13038
uark~~17239
▁neben~~3128
▁Charlotte~~17568
▁Texas~~5688
▁blog~~20749
▁Roosevelt~~10818
▁Stoß~~10632
▁bestand~~6597
getaucht~~5770
rman~~17102
▁Eizelle~~10223
▁Getränke~~11909
rgon~~3640
▁Gestaltung~~4206
▁Atem~~5947
▁gefährliche~~10556
▁herausragend~~10382
▁zurückbring~~4032
▁mysteriöse~~10883
▁vornehm~~6367
sp~~4787
▁Sebastian~~16895
st~~898
▁Nutzlast~~18455
▁WikiLeaks~~19881
so~~3410
▁Ausflug~~10011
▁Assoziation~~12934
▁hockey~~21412
▁geschrieben~~2330
▁organisieren~~10294
▁Brother~~16495
blieb~~11724
▁terror~~18071
▁integriert~~7207
▁learn~~19440
▁angenehme~~13567
▁Aristotel~~15297
▁Mamma~~19301
▁befürchte~~7656
▁Wendepunkt~~7026
▁NRK~~21686
kong~~15245
▁Faszinierend~~11101
▁Portion~~5637
▁empor~~13936
gehalten~~10454
▁Ansätze~~6168
▁Hase~~11865
tte~~8250
▁Ort~~1727
▁schlimm~~3556
▁Autofahrer~~16265
▁zeigte~~4917
▁Cantor~~21418
gespült~~4931
rctic~~20829
▁verschieden~~1529
getäuscht~~14439
ographie~~6117
93;~~2344
▁Falsch~~11552
▁armen~~751
▁Engpass~~15549
eolith~~20377
▁Argentin~~21285
▁Autofahren~~14002
▁pe~~20414
sgeschichte~~4567
style~~20799
▁treffen~~1520
▁vage~~18028
▁super~~3342
▁erfreu~~9123
iuk~~18050
▁Charta~~12121
▁Scheitern~~6416
▁suspend~~16482
▁Letter~~19107
▁türkische~~9741
▁Web~~12556
▁Klage~~19522
▁Gedicht~~6644
▁Schlangen~~7988
▁abschaff~~12801
▁iranische~~2933
▁stellvertretend~~17724
Kläranlage~~15884
▁Kilometer~~127
▁Angehörige~~12777
▁gluten~~21657
änder~~10463
\~~20374
▁Duolingo~~20207
▁also~~545
▁Cent~~4895
▁eigenständig~~12773
▁Rennfahrer~~21031
▁feucht~~13235
▁erkunden~~11275
▁kollidieren~~18287
▁Howard~~3074
▁Denisova~~19332
▁Hintergrund~~778
ltesten~~13314
viation~~18312
▁vermassel~~10553
▁Transform~~10009
▁Dreck~~11924
Statistik~~18276
▁Schabe~~8373
A~~2429
square~~19236
▁Scheibe~~9200
▁38~~16347
▁Religion~~1386
▁Carl~~5624
▁importiere~~15028
▁wahrhaft~~8231
▁Baker~~4429
▁tough~~20933
▁minimieren~~7003
▁Führer~~1644
gefühl~~6953
▁Hawke~~16973
▁Distanz~~10340
▁offiziell~~7396
wegen~~3497
▁Bauunternehmer~~11064
▁härter~~6034
▁deprimiert~~17409
▁zügig~~5990
ful~~18707
▁Analogie~~9179
klärt~~10413
Emission~~15094
▁Ertrinken~~7924
▁Biodiversität~~18258
▁Reduzier~~15515
▁Segel~~15944
Erfolg~~20854
▁Cornell~~14215
▁Kyl~~20692
händig~~12408
ble~~8243
fee~~19799
▁Süden~~4849
bla~~8316
▁Ehe~~6676
▁hedoni~~19372
▁ausgebildet~~11603
▁perform~~14068
drohne~~21377
▁Drogenhandel~~20669
▁Morgan~~19619
▁Faul~~18978
▁Platzzelle~~11381
million~~2918
gerüst~~18799
▁gestorben~~6339
plex~~9404
▁löscht~~15854
▁Jazz~~4397
▁Wiederholung~~9142
▁Ituri~~20095
▁Luca~~4851
▁Papiermensch~~21659
▁Lyndon~~17337
▁Seren~~15656
schatz~~12052
▁im~~171
▁beeindruckt~~16541
▁Stell~~19575
▁manag~~14132
▁Frühjahr~~7122
▁versammel~~12261
▁spazieren~~8100
rzeit~~7971
ingabe~~10079
wirken~~3978
▁Hüte~~18303
▁virtuell~~13461
codier~~9006
Satellitenbilder~~6158
▁erste~~824
▁wirtschaftlich~~6015
debatte~~18948
▁Bursche~~6340
▁Seite~~297
▁internet~~19420
oni~~6040
▁gigantische~~4099
▁choice~~20903
▁intelligente~~10145
ona~~17962
ong~~10547
▁Paol~~17934
one~~4985
▁Dauer~~1782
▁moderate~~4465
▁Funktion~~251
▁Mushroom~~17310
▁snow~~21512
▁Smoot~~20548
▁Schnell~~5361
▁behielt~~16794
▁telefoniere~~13606
▁Weckruf~~7313
city~~15254
haarige~~3156
▁tausende~~2304
ish~~14915
▁tausend~~2332
▁scheitern~~6564
▁untersuchte~~12881
▁heißen~~799
▁ein~~76
▁unpassend~~6374
burst~~8874
▁Umsatz~~10045
▁Begierde~~13547
▁eine~~276
▁Dunlap~~21558
2~~7503
▁schlechte~~1109
▁Prioritäten~~2128
▁disk~~9784
▁recyceln~~17175
▁Ausrichtung~~12828
▁scheitert~~19884
▁Katar~~11040
▁Prince~~3948
▁Ahmad~~13307
▁Anna~~12648
geweckt~~12882
▁Baumwolle~~6704
geschäft~~3751
▁Kameradschafts~~20582
▁Reformen~~7071
▁Justi~~21540
▁Gius~~10775
▁existential~~21365
▁Seoul~~15131
▁Swa~~9790
▁Stop~~10586
▁gra~~16725
Köche~~16781
▁provozieren~~17321
▁service~~21761
▁Somerset~~15385
▁zweieinhalb~~8929
▁Treppe~~7541
Kurs~~8508
Ebene~~15057
▁Christen~~11717
▁Minderheit~~8482
bauen~~7241
▁Beschleunig~~18709
▁Galaxien~~8978
chmal~~3472
▁Solly~~17631
▁hinausgehen~~12010
Krise~~14250
▁Rockstar~~18784
▁Regisseur~~2631
▁Football~~1450
▁TEDster~~15288
▁Stätte~~18993
rgestellt~~2136
▁serviert~~4992
▁Island~~6301
bauer~~7116
▁Tomatensau~~18006
▁it~~11030
▁Zeitlupe~~12491
▁Häkchen~~21331
▁zivilisierte~~7640
sai~~4105
emen~~646
sam~~2190
▁Manufactur~~16941
hält~~1532
▁verdanke~~8311
▁langsam~~1577
Infrastruktur~~10415
▁besiedelt~~7939
▁dreimal~~5030
▁versprechen~~7129
▁sum~~11845
▁Transfer~~15484
vermögen~~8954
▁fl~~6451
▁verfolgt~~4264
▁gutheiß~~18826
saw~~20703
▁Stoffe~~5537
▁fe~~6983
▁gegessen~~4362
▁Mangel~~7247
zog~~5538
▁leuchtet~~6462
jahr~~10509
▁Radfahrer~~18764
▁dicht~~532
▁Krosoczka~~21235
▁Neuerung~~4368
▁Suga~~20670
fertig~~9974
masse~~5187
▁Korrektheit~~18959
▁leuchten~~10174
terdisziplinäre~~17300
▁Vergnügen~~5321
▁Mir~~12850
▁Erne~~10624
antwortet~~16423
▁Schutt~~13001
plattform~~8329
abfälle~~15522
▁Herrscher~~9625
▁Städte~~4990
▁aufgeladen~~13614
▁Gegenstand~~9230
olonialismus~~18249
▁Freud~~18570
▁tugendhaft~~18973
▁Massenver~~11857
▁life~~17926
▁schiefgeh~~14512
▁registr~~20565
▁dentist~~21267
▁territor~~5788
▁Himba~~21213
▁Steigerung~~15080
▁Republikaner~~10783
strahl~~782
▁bezaubernde~~17792
▁zusammenge~~6531
▁Technologie~~2715
▁Müsli~~13741
▁streite~~14105
montage~~12601
▁extrinsi~~19028
phil~~4014
bble~~19659
drive~~14753
▁Kästchen~~16248
▁beklagen~~20066
▁schief~~5350
▁elegante~~6486
▁Nest~~14379
▁praktizieren~~4499
♫~~13007
▁färbe~~10730
▁Kiste~~6357
stimulator~~14674
▁tue~~6380
▁Wasserstoff~~9247
▁Kiki~~19484
utzung~~4857
▁tun~~1466
▁Wright~~17868
▁Camp~~10721
aktion~~7905
▁tut~~2819
▁tur~~20602
technik~~10544
▁Edinburgh~~19511
▁überflutet~~14947
cted~~20951
▁Nanometer~~3344
▁Konservative~~10790
▁Techniken~~6571
▁Werde~~16171
▁kontrolliert~~1416
▁einwandfrei~~16632
zahl~~2350
▁lehrt~~9927
▁Arthur~~15603
gainst~~21782
▁drei~~546
▁verbleibende~~7729
▁Tumbl~~20583
▁want~~20144
ambo~~20862
presse~~7512
▁übernahm~~9995
▁Lügen~~12392
▁umfangreich~~16707
▁Matthew~~14409
▁erfolgreiche~~1716
▁Techniker~~3265
▁probiert~~13488
▁kollaborative~~19247
▁ärgert~~12141
▁Muh~~16332
▁Stonewall~~21651
touch~~21471
▁Mul~~17295
▁Just~~12470
▁Veränderungen~~1827
▁koreanische~~12380
▁Durch~~4343
▁Laborator~~13783
▁hineinzu~~9166
▁Virtuelle~~8876
geschlechtliche~~11558
▁Aralsee~~20768
▁Mur~~6661
▁veranlasst~~12097
platte~~8013
▁Mut~~5612
bombe~~9248
▁irreführend~~19188
▁Alkohol~~12459
▁schrittweise~~7713
▁Urlaub~~1658
heila~~6370
uz~~12879
▁eingesch~~3687
▁Skizzen~~13867
▁Erik~~16307
▁abstrakt~~18202
onsistenz~~18350
▁Aufnahmen~~79
▁brandneue~~6620
▁Pfleger~~3507
▁nachhaltig~~12953
▁piss~~17345
where~~14855
vision~~11534
▁Kunden~~1515
▁Gewinne~~9841
▁irgend~~7936
▁minimal~~1549
verything~~16729
▁Bollywood~~19929
▁Dampf~~5274
▁erlangt~~16471
▁Eingriff~~2533
▁Hundertstel~~12986
▁egoistisch~~17026
▁gestohlen~~10978
▁Fuss~~13332
us~~218
▁Chefredakteur~~21186
▁Neurochirurg~~20384
▁650~~5295
atlantische~~14566
leicht~~4695
▁Impulse~~11373
▁Sonder~~15945
▁Weihnachtsmann~~21281
▁Gelb~~13844
▁motorisierte~~19305
führt~~2709
▁Atom~~11513
▁Britische~~11975
▁Kapital~~6224
▁Verfechter~~10515
▁erschließ~~13379
▁Road~~11772
▁embryonale~~18526
▁gewesen~~2955
kilometer~~9300
▁sicher~~3859
ontinuität~~14332
wasch~~4760
deckt~~13513
▁Produktion~~2784
▁chronisch~~19369
▁richtige~~3436
▁treiben~~4846
▁Jess~~15659
▁leistungsstärk~~1777
▁Seiten~~472
▁Rabbi~~15580
▁Farbstoff~~10722
▁Gebete~~9451
▁Arian~~19875
▁Erzählung~~2671
▁Lis~~8179
▁Isabel~~10029
▁überschwemmt~~7560
tägige~~13864
▁data~~21386
auftrag~~11881
▁reformier~~7561
▁tiefe~~4334
▁Picture~~20309
▁Lin~~8315
▁synthetische~~9535
geschmack~~15019
▁Lib~~12660
▁Abgeordnete~~16105
▁fange~~11434
▁Vortrag~~1017
▁alpha~~21391
▁signifikant~~12698
▁verschwimm~~11622
▁telefoniert~~18136
▁Honor~~7269
▁Kollegen~~1464
kaninchen~~18064
▁handelsübliche~~18749
▁Statistik~~9475
▁Zusammen~~10116
▁bekannteste~~5131
s~~129
▁Trompete~~19858
▁Zahnpasta~~14045
Warteliste~~17095
▁Spende~~17411
▁NFL~~19087
▁Fuller~~8886
expression~~21422
mann~~8300
▁haben~~75
▁vibrier~~4111
▁quer~~10241
▁AAA~~19147
▁Toleranz~~11587
▁beruhigt~~9427
▁Ray~~14286
▁französische~~9703
▁Kollektiv~~12766
▁Embryo~~7852
▁Weise~~1162
▁Aufsicht~~13622
▁moment~~21476
▁Parameter~~4223
▁versch~~8068
anti~~6710
▁Norden~~6121
▁Missbrauch~~6262
▁längste~~162
▁Gefährt~~16960
▁geplant~~8151
boat~~10847
▁emit~~13451
▁analytische~~18052
▁Geleh~~19037
sicht~~1297
▁Südamerika~~9611
ußere~~16011
▁Franz~~4716
▁Lacher~~16339
unfall~~7848
▁Verschwörung~~1117
▁Todes~~3846
▁Stethoskop~~21243
luft~~15897
schloss~~8168
▁Streifen~~15860
▁Donald~~19980
▁Frank~~2812
▁Anbieter~~14738
Tetris~~21143
▁dafür~~1494
reflex~~13569
▁miss~~11783
▁Photosynth~~14648
▁Erkennung~~12923
formen~~8600
▁ruin~~13489
▁alle~~94
▁Parker~~19971
▁Lebens~~180
brush~~19723
▁schlichtweg~~17182
▁komplette~~2394
▁Oper~~3923
gger~~4910
▁Innere~~831
▁Open~~12740
▁entsprach~~8646
▁Indianer~~14801
▁Hellseher~~21126
▁industrie~~13736
▁Jacque~~14182
▁Pharao~~16996
rippe~~16514
▁isolieren~~12645
äre~~10831
leiter~~3654
moglobin~~14392
▁Stöcke~~13861
iven~~13427
▁Automobil~~10919
▁blutige~~18702
spezifisch~~17151
▁Screenshot~~13568
▁Lüg~~16417
karren~~13356
▁freue~~3840
protokoll~~16760
▁monatlich~~6667
▁Geschlechts~~315
situation~~9659
▁Tyle~~11077
▁Schließ~~17989
▁Fern~~7219
▁fanden~~2415
ive~~10486
▁vorantreib~~2221
▁Schieß~~15143
▁Beschäftigung~~15165
▁hervorzu~~5395
▁stören~~18176
▁Sex~~6342
▁Skalierung~~20369
blau~~14008
▁20,000~~18367
▁Stock~~5768
▁Riverside~~8887
▁sounds~~18194
▁Ehrlich~~3718
▁grossartig~~5935
▁the~~2638
▁nuschel~~21524
▁Zerstörung~~13265
▁vorzu~~206
nachmittag~~14881
▁Grippevir~~19339
▁träumte~~11709
▁Chor~~4116
▁Citizen~~3048
▁Chop~~15014
▁ermüde~~8707
Infektion~~13967
▁eingeladen~~8319
dacht~~8337
▁weiche~~11994
antwortungsvoll~~15520
Forschungsarbeit~~6671
▁frage~~6897
▁Seetang~~18245
▁format~~21318
▁entscheidende~~5570
▁Einzelhandel~~18014
▁suchen~~764
▁Mögliche~~3774
▁Moral~~3725
Prozess~~16735
▁verschwand~~9559
▁Ausbeut~~11955
ntweder~~515
▁Zubehör~~9967
▁Geographic~~9290
eopard~~9498
erence~~6848
▁kollektive~~2889
▁erinnern~~1135
▁AT~~15942
▁Lebensmittel~~5062
▁Ahmed~~13291
▁Jami~~16693
▁erinnere~~4635
▁demo~~9990
▁AB~~9212
▁festhalten~~6406
▁Freundlichkeit~~16267
▁AG~~7827
hängt~~13984
ärgern~~13930
▁Schäde~~5738
▁gelang~~2242
▁Stygi~~19752
▁Ideen~~1616
steuern~~14770
Firmen~~10810
▁angehalten~~13981
▁erinnert~~2632
lehrer~~9733
▁Ar~~8466
▁Huh~~20970
Gewächshaus~~5278
zellen~~5567
▁Ambition~~19055
▁Au~~1559
▁Hum~~5275
macher~~5312
▁verstorben~~8032
Moment~~18088
▁Huf~~10220
▁wenigsten~~9104
▁Erreger~~2560
▁spezialisiert~~10437
▁Tib~~8334
▁Ab~~1341
▁geschlafen~~9910
ffizienz~~15442
machen~~6932
▁heilig~~9445
▁Ad~~7222
▁Ak~~7408
▁Bjor~~12371
▁Ah~~3827
▁Fühle~~16282
▁An~~2642
▁Am~~5297
▁Al~~211
▁besiegen~~1647
▁Seminar~~17338
schreiten~~11649
▁aussah~~5083
▁Spenden~~7579
▁Oktober~~5416
▁Link~~8966
▁fame~~20776
▁bo~~5397
▁Pek~~6821
beine~~9973
▁leider~~5808
▁küssen~~1400
ogramm~~12593
Hub~~20596
▁Per~~2930
▁ideale~~12396
▁Rückblick~~13892
▁Kein~~15699
▁Haushalte~~14203
▁Pet~~9359
▁Brot~~8915
▁Spender~~7146
▁calculus~~21637
ronto~~5277
fotograf~~17793
▁berühmte~~5228
▁antiviral~~20712
▁lass~~4634
▁fasst~~6441
pox~~20682
▁last~~10462
▁mittelgroße~~19618
▁Identifizierung~~14590
▁Demonstrant~~15322
rabbeln~~12325
▁häufigste~~4943
▁Alphabet~~12689
▁Ethanol~~15076
instrument~~1398
▁natürlich~~424
änderung~~13193
▁gelangweilt~~12267
▁dänische~~14858
▁Kritiker~~2100
▁aufregender~~17907
▁visualisieren~~17887
▁Weltkrieg~~4745
▁Allende~~10030
pot~~12041
▁Zusammenhang~~1370
ellen~~13272
▁feeling~~21350
▁riesig~~6017
▁Creat~~21602
▁Entropie~~14562
Observatorium~~18459
abhängigkeit~~18370
▁Mütter~~8937
▁Bekämpf~~14491
▁ergriff~~8240
wellen~~10277
▁sammeln~~5430
streik~~15173
▁Ideologie~~17483
▁Wiederhe~~15437
▁äußerst~~6874
▁Kampf~~6435
▁Borne~~20222
part~~11181
▁frech~~18914
▁vervielfach~~12276
▁Kongo~~7553
▁500~~5213
▁Jahrhundert~~5098
▁greifbar~~15589
▁kne~~16957
maßen~~4302
pol~~12531
▁aufbewahr~~9415
▁global~~1774
▁Gran~~15154
▁behandelbar~~17525
▁lachte~~12235
▁Schlüsse~~9065
clav~~19337
▁Schlafzimmer~~7417
kristalle~~16190
▁1947~~13263
leute~~11055
▁ist~~55
▁Macht~~2624
▁Hominid~~13164
idney~~2894
ggregat~~18983
▁emotionale~~1425
▁Mosaik~~19727
▁Erwägung~~16053
schaftswahl~~10897
arium~~8962
▁symbolisiert~~15555
▁emotion~~19678
▁außerhalb~~5784
sprüht~~17164
▁betrachte~~6316
▁Ohio~~17331
▁hartnäckig~~6128
▁hunderte~~2405
ddy~~10110
▁Tinte~~15263
▁Alto~~5486
▁gleiten~~14781
gereist~~3222
▁Abu~~16584
ät~~5386
▁Wohl~~12785
▁Aufgabe~~1441
▁beteiligt~~8320
▁WiFi~~9868
är~~2457
suche~~15175
▁Erst~~11840
▁Zehntel~~16178
▁600~~6797
▁Frühstück~~8550
einfluss~~2667
power~~19106
issen~~2169
▁Matrix~~2606
▁Titelseite~~11283
sprung~~6420
▁ablaufen~~13081
▁bugs~~19018
▁forever~~20611
▁kündig~~19130
▁Reaktion~~5594
▁hormone~~9507
▁Erdnuss~~10712
Bühne~~11930
▁Sprint~~14252
gelistet~~1590
▁Feind~~1648
strecke~~14927
▁Irr~~10901
▁rotieren~~16594
Revolution~~6665
▁Schwieger~~15910
▁bedient~~8549
▁eifrig~~6833
ack~~6437
▁Sekunden~~3661
▁Mister~~19530
ach~~3318
▁physiologische~~10146
▁kahl~~9098
▁Pitt~~10104
tumor~~9465
▁Anla~~14871
▁planner~~18807
▁boom~~9267
bone~~9817
▁wegzu~~7921
▁siebte~~6780
ymptome~~15416
▁erfunden~~1831
▁kostete~~4900
▁setzt~~3885
▁Fahrrad~~3172
▁Beatles~~15259
▁Enc~~16452
▁nennen~~580
▁End~~8245
ifikation~~13177
▁unfassbar~~11305
▁stereo~~16177
▁Cape~~16327
▁Brook~~10059
▁Genick~~18699
▁Enr~~3519
▁Bezirk~~10078
▁Tempo~~4466
▁Karo~~2284
▁Participa~~18893
▁Ent~~914
empfinden~~17476
▁Tempe~~10971
▁Notwendigkeit~~7168
essen~~5166
▁Geben~~8281
▁Kara~~12436
▁Advanc~~15775
NH~~21460
▁McCain~~12269
hängen~~8026
NK~~18441
▁Gebiet~~509
her~~2154
▁tourist~~13061
▁morgen~~971
würfe~~15146
▁Solo~~3274
▁initial~~20613
NG~~11103
▁styl~~21500
▁complex~~20777
▁erfinde~~11147
▁verwundbar~~16728
misst~~17457
▁Haft~~12694
NT~~18100
▁glücklicher~~1513
▁Fakt~~11491
▁Beteiligte~~5699
▁Kepler~~17241
schutzgebiet~~18364
▁brüten~~12146
▁term~~13865
witz~~11672
onica~~15921
▁wahre~~224
mögen~~3833
▁adult~~18516
Erkrankung~~20124
▁entgegen~~4555
▁MoMA~~17937
▁gewähr~~14739
aufzeichnung~~16444
▁Savanne~~4516
▁Logo~~4644
▁fein~~12492
▁Rechtsstreit~~20521
▁unterdrückt~~11546
▁run~~18039
▁Lachen~~1451
▁Nahaufnahme~~11327
assi~~10400
ragg~~6421
▁geschleudert~~18124
asse~~12452
sätzlich~~10143
▁Tabak~~17864
▁delight~~21522
▁Elementar~~16598
▁Verteilung~~8681
▁Osten~~4632
ntwicklungshilfe~~6085
schaltung~~17565
angiogenetische~~21504
▁Vertrieb~~13362
▁Plutonium~~17579
age~~4730
▁Stefan~~15243
▁Textnachricht~~17775
ohn~~4825
ab~~1791
ad~~913
ag~~8347
▁Ausschuss~~5805
ai~~12851
ah~~3009
ak~~6805
am~~3134
al~~360
ao~~14449
an~~1613
▁farbige~~18812
ap~~5122
as~~4542
ar~~465
au~~4154
at~~3712
Hop~~4446
av~~4423
ay~~2413
ax~~8148
▁anstrengen~~6549
Gigawatt~~19666
▁unvollendet~~13499
▁Paar~~3331
▁Verhältnis~~5302
▁Sag~~8392
▁Titanic~~80
▁Favela~~2796
▁Arznei~~17626
▁Kambodscha~~9018
▁Sam~~10061
▁Sal~~7992
▁dank~~686
▁San~~2346
▁nach~~382
▁Winnipeg~~16416
▁dann~~923
Spiel~~8865
▁Jean~~11124
▁gehalten~~2953
▁lautete~~9363
▁hack~~9731
phenol~~9529
▁Sar~~12650
▁äh~~12397
mität~~10968
▁oops~~5967
▁Kosovar~~18722
▁gun~~21431
▁Biomaterial~~15212
▁Menschenaffen~~10180
▁stündlich~~20612
geheiratet~~10612
ru~~6660
▁Vertreter~~6840
▁Ingenieure~~8187
▁Ausgang~~19857
▁Geleebohnen~~21598
▁Worldchanging~~19986
▁Sprache~~3456
nagnoris~~21042
▁Stil~~9049
▁Raupe~~10687
spucken~~14946
▁model~~18765
▁contemplat~~21714
aday~~20453
▁welche~~1080
▁epilep~~20456
▁Westen~~5060
cular~~21203
▁voraussagen~~15454
▁schmale~~8769
▁Philanthropie~~17829
▁Flucht~~2942
▁aufzeigt~~13163
▁Spielzeug~~4156
▁Teekanne~~16019
charging~~19778
▁Metropole~~19760
▁Medizin~~1501
▁rotierende~~12613
▁zusammenbrechen~~16634
▁offenbart~~12439
stunden~~11950
▁labyrinth~~19701
▁unfair~~1822
▁neuen~~239
gelder~~15812
sch~~273
▁Einzelheit~~10398
▁Therapeuti~~19427
▁Fif~~21401
uditorium~~17836
▁zukünftig~~8533
Herausforder~~18086
▁Tochter~~2649
▁Schalt~~9830
▁Verhalten~~1040
eszenz~~16204
neigung~~12197
▁Arr~~18469
worm~~20595
▁Netzwerken~~7084
▁invest~~16953
▁radi~~10374
▁neuer~~3756
beschaffung~~4997
▁regier~~16775
▁Tät~~14612
▁Korruption~~11245
tz~~7046
▁Mose~~16401
▁wundervoll~~10705
▁Tages~~1315
▁Herausgeber~~15169
▁Venezuela~~19644
tu~~7498
empfindlich~~1432
▁Water~~8882
▁expand~~7882
to~~5617
tail~~6522
▁Dill~~19447
▁Grundbesitz~~14937
th~~3084
ti~~2893
▁genealog~~13180
▁Tagen~~4577
te~~1655
▁verfasst~~12070
▁Reisende~~14171
ta~~1115
▁Sperrholz~~17378
▁übt~~13734
▁Abholzung~~11216
▁beschrieb~~12889
kümmert~~14145
▁Erz~~17178
▁liebste~~15211
▁Kooperation~~12673
▁hunderttausend~~2421
▁Choir~~20122
ggie~~19812
▁liquid~~18483
integration~~17038
▁Röntgenaufnahme~~9193
▁Langsamkeit~~7270
▁Paradigmen~~19368
▁Größe~~1933
▁angefertigt~~13536
erhaltungssystem~~8405
▁Wait~~17094
▁machen~~116
▁Kindes~~5499
▁Kinder~~1139
▁branch~~20566
▁Karton~~5384
alismus~~11681
Status~~15516
▁Bescheid~~8891
▁beherberg~~651
▁Zigaretten~~17711
▁fokussier~~9433
▁eigenartig~~14283
lauf~~1967
▁anwende~~1816
▁verteilen~~5095
▁Verkörperung~~17592
▁Zeile~~6641
▁Jazeera~~12657
ssysteme~~5911
▁Architectur~~15935
▁wahr~~2004
▁Teddy~~10817
▁hi~~11769
sani~~10776
▁realisiert~~11801
▁sag~~4336
schrank~~17809
▁Elend~~7642
ories~~19624
▁El~~955
▁verzwickt~~16588
▁lebendige~~8812
▁Report~~18281
▁sah~~2785
▁betrat~~3520
▁sat~~16263
▁Einhorn~~8798
formulier~~12069
▁nor~~5763
pass~~4374
▁Gerechtigkeit~~6222
▁Gesundheit~~1060
▁kletterte~~18822
▁Kreditkarten~~8267
▁beurteilt~~14185
trick~~10981
ökonomie~~3744
▁unverschämt~~18915
▁Eingriffe~~19661
▁Hel~~17200
haltige~~9534
▁evolutionär~~4534
▁Gewerkschaft~~19271
▁Trink~~4384
▁denke~~106
▁Trini~~17747
▁Blackberr~~17153
erkennung~~10355
▁Leichen~~14560
lein~~5818
▁Wissen~~1163
▁Uhr~~1572
▁Erschütterung~~15666
▁Mississippi~~13933
▁Paradox~~14196
▁Arbeitszeit~~7434
▁Region~~2468
▁Rosali~~12874
▁Gas~~10980
▁Gar~~4729
▁Gau~~10219
heben~~2503
▁Haar~~776
istic~~18879
▁Gay~~11741
▁Befrag~~20476
▁effizient~~7048
▁Kasse~~20072
urnier~~12412
▁sort~~4901
▁Babbage~~14298
▁Lueckert~~15819
▁Gab~~6995
gebung~~3771
▁Management~~5480
▁Babylon~~12063
▁Cocktail~~12135
treffen~~2912
▁Sicherheit~~11608
▁Dummheit~~1326
▁Gal~~10650
schrei~~7215
▁da~~428
▁Säule~~792
glaubt~~12862
gewachsen~~9579
▁de~~1627
▁Brüder~~6139
oma~~13541
▁di~~14517
eiler~~14113
hitze~~11192
▁Stellen~~176
eil~~994
kolumbianisch~~19724
▁dr~~4490
offizielle~~4139
▁umher~~8438
▁du~~1301
eilen~~2291
▁froh~~6390
action~~21120
▁Spur~~8928
ization~~21280
itoris~~17723
▁Straßenecke~~15547
▁Finger~~679
▁Privileg~~5894
entsprechend~~8275
▁malte~~8803
vig~~5398
▁interaktive~~8969
▁Frei~~1477
▁Zerbrechlich~~14079
▁gefördert~~15378
vin~~212
▁Janin~~20815
▁unmoralisch~~7669
▁KT~~21191
▁red~~13881
vis~~6181
▁Arabisch~~13292
▁unsterblich~~6949
▁Nazis~~20157
▁Früchte~~7041
ating~~20741
▁Reiter~~16714
▁Single~~15625
▁Musiker~~4416
▁cingul~~9431
▁Anwesenheit~~8723
▁dass~~89
kommensschwache~~15477
▁unvorhersehbar~~4978
uantentunneln~~21368
▁Bergsteiger~~5441
▁Raum~~349
▁Berühmtheit~~17339
6~~2431
▁überzeugend~~7705
▁Rock~~2992
ierung~~1733
▁Raub~~5864
mord~~16030
▁hinterfragt~~9030
▁Aussage~~7682
▁gleich~~289
door~~13458
▁Zufälligkeit~~13071
▁trete~~10601
▁zusätzlich~~8617
▁Rücken~~442
▁186~~9062
▁Weite~~142
▁180~~589
Brennstoffzellen~~10927
eute~~13408
▁18-~~18787
▁18.~~12090
▁bezeichnen~~7373
▁Tempel~~5086
▁Reservat~~17634
▁Orbit~~12649
▁berücksichtigt~~11581
▁baute~~5385
▁Display~~8445
müll~~11203
▁medi~~14069
▁Beton~~3306
▁Mohammed~~18708
▁Leuten~~3620
▁Fischfang~~19736
science~~14684
▁mochten~~4404
▁Life~~4751
▁ermächtigen~~1626
▁Dusche~~9652
▁Honig~~16182
▁scan~~2488
▁Manhattan~~8973
merkt~~8613
▁tiefer~~486
stisch~~11509
effiziente~~11156
▁TEEB~~20820
▁brauchte~~3867
▁Aufenthalt~~11404
▁Dritte~~7890
▁Notizen~~6837
▁Domain~~20307
▁Meditation~~17104
Nutzer~~17429
▁Amor~~20329
▁brutal~~2854
▁Harvard~~6795
klärungskampagne~~19386
▁app~~21257
▁Verpackung~~4972
▁Puzzle~~11836
▁mild~~16567
▁Pizza~~11475
▁Indien~~6194
▁Herschel~~15790
▁Medikamente~~7578
Nutzen~~3550
ist~~6409
mehr~~3710
▁zehn~~879
information~~7078
▁produzieren~~1098
▁Accenture~~18820
zusammenhängende~~12929
▁jelly~~21805
▁Töpfe~~13268
▁deuten~~12148
▁breath~~20141
▁100.000~~7378
▁Billionen~~13785
▁Verwandlung~~12404
▁deutet~~12102
▁Schei~~7727
▁Tanzania~~13366
▁Predigt~~11020
werfen~~9216
▁köstlich~~10777
▁gewandt~~10616
▁Atlantik~~450
▁berücksichtige~~8845
▁Automatisierung~~19417
▁angefangen~~3458
▁Vint~~9268
▁Aufstieg~~1605
▁Geheimdienst~~14747
▁erläuter~~4575
brett~~6656
▁programmierbare~~18112
▁Finanzierung~~7596
▁Dreh~~7975
▁Vinc~~21360
▁Schuhe~~3115
▁Bare~~21438
▁gering~~3451
släufig~~5289
▁Begriffe~~8621
▁Monsun~~14925
▁aktuelle~~9504
▁match~~19251
▁Fehler~~3408
ngelika~~15818
▁Radiosend~~12697
atz~~15726
▁Vielfältig~~12946
author~~14867
▁Strecke~~7130
▁Studien~~1790
▁geistig~~11258
▁Dissonanz~~4352
▁regenerieren~~17134
▁Move~~18898
▁strikt~~15441
▁schnapp~~3862
▁Guten~~5301
▁Film~~2622
▁Tierreich~~16998
▁zusammenfassen~~8727
▁zerschneide~~17219
ith~~13239
iti~~2896
▁korrelier~~10474
ite~~4106
﻿~~20985
▁versage~~6218
ita~~11912
▁sport~~11890
▁MaKey~~21029
▁Knie~~6282
itz~~10095
▁Erzeuger~~13653
ity~~7192
▁MTT~~17264
▁Turkish~~21049
▁Tropen~~6039
▁Steppe~~13237
▁Neugier~~3795
▁Gallone~~11177
▁versagt~~8265
▁Unternehmertum~~7044
▁sehnen~~8079
quartier~~14557
▁patient~~18847
▁Chat~~1656
▁Boom~~8163
unders~~13456
▁Philosophen~~15776
▁Merchant~~20783
▁voreingenommen~~18836
▁Großrechner~~18067
▁Armbanduhr~~15859
▁Erweiterung~~5107
▁Substanz~~13483
▁Chag~~15587
▁Chamb~~21221
▁Datei~~14733
▁Mumbai~~8199
▁Eiffel~~14706
▁Transistor~~16469
▁steril~~10126
▁Handfläche~~17803
▁zyklisch~~7351
▁Entführung~~14600
▁Proteine~~5578
▁par~~16780
wirkt~~5785
▁Dallas~~16399
fülle~~15681
▁adjust~~18073
leistung~~1884
▁Groß~~3899
▁GM~~19613
▁Höchst~~7238
▁House~~12386
▁GB~~19289
▁Fußballspiel~~16568
▁Gewässer~~8078
▁irakische~~12067
▁Hilfs~~7131
▁Kanzi~~21459
▁Bar~~4133
▁Bas~~13836
gestaltung~~5635
▁Street~~5128
gestiegen~~1764
forderung~~17603
▁vereinfachte~~13196
▁populär~~4333
▁Erdgas~~18266
▁Gr~~3131
reißen~~3432
▁einschränkt~~13681
▁Karriere~~2198
▁Früh~~2060
▁Beschränkungen~~8667
▁Bab~~1136
gespielt~~5129
▁Bad~~7072
erfassen~~1877
▁Go~~4651
▁Bag~~16349
▁Ga~~9241
▁fehlende~~9709
Spoofer~~20857
▁Bal~~4464
▁Bam~~5446
▁Ban~~11185
▁arrogant~~11957
status~~3906
▁Hacker~~12127
▁Thermo~~18797
▁Nutzen~~5377
aker~~19467
Mails~~6575
▁Superheld~~10060
▁ruhig~~5603
▁verurteilt~~7698
▁kaufe~~13613
Konferenz~~8322
▁Ziegel~~8768
▁Ziele~~2275
▁jüdisch~~21080
▁Pinguine~~18990
▁Nutzer~~9011
kosystem~~882
▁rekrutier~~3672
▁Ziegen~~15906
▁Side~~14794
▁Action~~12963
▁verbrennen~~2570
▁Emma~~8941
▁rehab~~19350
▁Gebiete~~4009
▁beschädigt~~10639
▁Geräte~~2420
▁gehackt~~14742
▁entschlossen~~6776
▁lock~~17214
▁platonische~~10947
▁finanzier~~12525
▁Unterhosen~~13631
▁weitere~~1545
▁Ungewissheit~~16335
bye~~18545
▁tornado~~21785
▁bemalt~~13533
▁Schnelligkeit~~7272
▁islamische~~12112
▁Riff~~16187
▁Genetiker~~13138
olds~~17556
▁fortsetz~~12157
▁Notaufnahme~~14484
▁Musikstück~~3966
basketball~~20313
rmel~~5536
gericht~~15023
zukommen~~2440
Muschel~~15202
rechtlich~~10875
▁Flugbahn~~8970
Schritt~~17226
▁bewaffnet~~13134
zelluläre~~16362
▁aufweis~~9497
▁Round~~19991
▁empfohlen~~13756
▁konventionelle~~17974
▁Bibliothekare~~17422
▁Krill~~5795
▁Belange~~4556
act~~10651
Bereich~~9435
▁Stellung~~17403
w~~985
testament~~21137
▁Entscheidende~~18795
▁gefälscht~~16439
▁direct~~16934
▁ungerecht~~16733
▁Samarit~~15590
▁Victor~~20636
▁stem~~1276
▁Nordwest~~5139
▁Vermeer~~18596
uadratmeter~~12966
▁verpflanz~~19325
▁LGBT~~21399
▁generell~~3743
▁feuern~~11379
▁insbesonder~~8101
▁atom~~19836
▁derselbe~~1984
▁unver~~6766
▁Control~~17767
▁stet~~6365
▁step~~20143
▁Two~~20551
▁aufgelöst~~14184
▁hochzu~~13530
▁Fernseher~~7505
jet~~4164
letzlich~~13330
▁Unfälle~~13070
▁diplomatische~~18710
▁Manifestation~~8279
ID~~17782
▁gefährdet~~9086
▁mexikanische~~8873
▁Tugend~~13106
▁iron~~21701
▁Spanien~~2392
▁erkenne~~12933
▁Ruanda~~2852
▁Fernsehen~~12382
▁Exxon~~18361
harata~~20592
▁tank~~18351
▁weiterführende~~17799
▁Nervenbahn~~14968
▁Lateinamerika~~7036
▁Engagement~~3098
▁Bausteine~~14179
▁interessanteste~~3459
▁Share~~17681
▁sauberer~~4776
▁lernte~~5507
▁Partei~~10787
▁ältere~~6613
▁ausreicht~~17541
▁stolperte~~13538
▁ausblende~~13128
▁Sesam~~12905
▁Kralle~~14413
▁Spezie~~17789
zeug~~4877
▁abzu~~768
▁Rechner~~14300
ilität~~10528
▁einzige~~1637
▁Riley~~21102
▁Gange~~9024
▁bereitete~~7913
▁ultraviolette~~12305
Zeitalter~~7985
▁Headset~~494
▁Stratford~~21612
▁Synapsen~~16901
▁Amazon~~10036
▁Demu~~7935
▁Develop~~15458
genügend~~7125
video~~15620
rische~~7694
listen~~12536
▁Klump~~16193
freut~~12787
äge~~3167
▁Dolmetscherin~~20850
▁Eli~~5693
▁Royal~~15675
▁bequem~~8455
▁Einschätzung~~15352
▁verdorben~~11088
▁Spanisch~~9717
▁plan~~18004
▁Scottish~~19962
▁bilden~~2191
▁Männlichkeit~~6276
▁nah~~9183
▁Bündnis~~16110
▁bildet~~834
▁nicht~~100
▁Effizienz~~7203
▁jemande~~3766
▁Reichtum~~12682
▁Buchstabe~~13806
▁zurück~~671
▁genes~~19084
▁Währungsfond~~17975
▁Lebensräume~~46
ngstirnig~~19908
▁NATO~~13316
Club~~11579
▁Song~~4240
▁wandern~~5839
▁ausgerüstet~~9349
▁stützen~~17508
▁book~~21670
▁wandert~~13229
brach~~10741
▁DNS~~5576
▁Eisbär~~13474
geschichte~~945
▁Sony~~214
▁spott~~11464
▁Hawaii~~4922
▁Lass~~7784
play~~20490
▁magische~~8898
▁Last~~3860
▁humor~~13643
▁Morgen~~5487
▁Täuschung~~9215
▁Impf~~6026
M~~1312
▁Chaucer~~18609
▁Dreiecke~~16607
▁verse~~15852
schmeiße~~1535
virus~~5946
plan~~8591
▁Microsoft~~14244
meilen~~15115
▁aktuell~~8990
model~~18358
▁vietnamesische~~11225
▁peripher~~16526
▁teilnehmen~~3201
▁erscheinen~~4657
▁jetzige~~13668
▁hoch~~795
Capitol~~20446
▁monolith~~19719
▁Slow~~7376
▁verwandeln~~1124
▁Kulisse~~4339
▁photos~~20897
▁Kennedy~~14554
▁additive~~19244
geräte~~9237
▁Sea~~5844
▁verwandelt~~660
▁Göttliche~~19015
▁TNC~~19456
enmark~~20928
seligkeit~~8270
zusag~~5748
▁Schwierige~~13764
▁technologische~~4234
▁Betriebskosten~~18328
gabe~~2213
▁Stigma~~9898
IUC~~5648
Cloud~~14271
▁Erfahrung~~2610
▁Zweiten~~13790
▁empirische~~15529
ifiziert~~2130
▁resistent~~7812
▁Home~~12768
-20~~14195
uga~~6662
▁Robin~~13868
▁Homo~~2108
▁bomb~~15962
▁Schaden~~7309
▁Sechsjährige~~16610
▁falls~~1133
▁Schnüre~~19786
▁Pope~~20001
▁cooler~~8461
spitze~~12145
alität~~9781
▁Pack~~5791
▁tätig~~7244
▁machbar~~6215
▁100,000~~19439
▁pflanzliche~~13674
▁ernst~~1172
▁Medikament~~6903
▁verbrachte~~2828
sharing~~20200
▁Milo~~12496
▁rasch~~1836
sgeheim~~19316
▁Lüftung~~15974
▁Mysteri~~6877
▁Gustav~~20176
▁vorlesen~~15252
▁Neandertaler~~13221
▁sense~~21764
▁atmosphärische~~2295
▁erschwinglich~~8006
manipulation~~18259
▁wertvoll~~3050
▁Robotern~~12233
dependent~~18980
▁fließen~~9711
ffentlich~~5750
▁präfrontale~~1417
country~~21705
▁dung~~18093
▁Wochen~~1069
▁Aufschwung~~17203
▁weitläufige~~17360
▁verknüpft~~1746
▁Grundstück~~9957
▁fragil~~19767
▁abgelehnt~~9551
table~~19662
▁Hippie~~13290
▁komische~~8130
▁Prickly~~21105
▁forms~~21513
▁Nadel~~15156
▁game~~20238
▁fehlte~~15492
▁Faust~~9778
▁Rutsche~~15836
▁verschmelzen~~8194
▁aussagekräftig~~19721
▁ungemein~~9909
▁verdrahtet~~17913
▁monogam~~16257
▁darstellt~~5233
▁fortgesetzt~~10483
▁Irak~~6628
▁Christin~~7587
▁Altern~~7647
▁Iran~~4566
▁Cello~~3955
▁mail~~19133
gemischt~~13845
▁men~~18681
▁Couchsurfing~~20701
schliessen~~5285
▁stützt~~11346
▁Muslim~~11634
For~~8475
▁optimal~~11554
▁Melani~~21040
tree~~10131
▁viktorianische~~15167
▁ärmer~~12841
▁erheb~~6447
▁brilliant~~11541
schraube~~13910
nützt~~16293
▁account~~19936
see~~31
lec~~11262
▁nähren~~19850
migration~~13230
sea~~19698
▁wohin~~975
led~~10081
▁Bazill~~19338
ügel~~9160
▁Rive~~16659
mangel~~1798
▁Brown~~12783
brächte~~12225
#~~2341
▁Fische~~294
taucht~~5512
▁Geschlecht~~8258
ritt~~13123
▁Eröffnung~~4674
▁ernüchternd~~19612
▁Sherman~~19780
▁Gravitation~~16141
▁schwingen~~16532
▁einsam~~12602
▁Sudan~~12860
▁trockene~~3281
▁verleih~~17292
▁freu~~12906
▁Such~~8452
förderung~~15811
▁robuste~~7709
▁translator~~4421
▁finite~~20052
▁reguläre~~8697
ahoo~~12608
▁Pixel~~8543
europa~~12528
▁Vagina~~17701
▁erledige~~5684
▁Brücken~~13859
lium~~18760
schaft~~3210
übertroffen~~19074
▁immune~~20723
▁PBS~~16881
▁Mozart~~3930
▁erledigt~~11333
Veranstaltung~~8313
▁genannt~~5447
Ausstoß~~11180
▁motiviert~~4165
▁Zuschauer~~2884
▁demografische~~15298
tion~~3733
uffalo~~20428
▁Hemisphäre~~14377
▁Endprodukt~~13578
▁Kopenhagen~~12838
▁fliegen~~437
last~~4983
▁Butler~~16421
▁entnehmen~~14398
▁Galaxienhaufen~~20553
Strategie~~15428
Chip~~17958
euros~~20457
▁Chirurgen~~6868
▁abseit~~2378
▁typischer~~17995
▁Vorrang~~9944
▁argentinische~~19878
lash~~19143
▁Sterblichkeit~~17582
berschneidung~~16052
▁Ansprüche~~5790
load~~12764
partheid~~8481
▁verschickt~~14364
elbsthilfegruppe~~6792
Effekt~~8023
▁beeinträchtigt~~9578
▁verursachen~~2574
ometer~~6528
▁Tiefen~~385
▁Nachricht~~1472
Truck~~13361
▁Nutzpflanzen~~10701
dimensional~~7969
bject~~20571
phthalm~~20412
provok~~7608
▁Apfel~~15012
▁beeinträchtige~~5775
▁Peace~~20573
▁Erste~~596
▁astronomische~~16993
▁Augmented~~14432
▁Szene~~5941
▁Battle~~21724
▁Department~~21480
▁verabreicht~~13658
▁dran~~841
▁lösen~~735
HC~~16447
▁Massen~~3779
mino~~21583
▁Felder~~7118
▁Myco~~19686
König~~18957
▁brenn~~18348
▁Alternative~~5244
▁Und~~3452
▁Zeilen~~6974
▁doch~~186
▁Uni~~3695
▁draw~~21663
▁Betrag~~7231
▁Karotte~~13675
▁Lucifer~~20680
▁Dana~~19422
▁Regime~~12042
gänglich~~4711
▁opa~~20954
▁Eile~~2989
▁Mix~~10659
▁drehte~~11989
▁Dank~~991
▁Mit~~2265
▁Nach~~6552
▁Nächte~~11968
▁cubicle~~20847
▁Sinclair~~11032
▁Mio~~16102
fund~~11585
▁Mil~~3076
▁Mik~~14713
▁Hack~~16092
▁pastor~~21248
▁Menge~~1788
▁Mig~~10268
talent~~13351
▁Mid~~4863
▁Taniyama~~21233
▁finger~~21383
▁erhältlich~~10763
▁Künstlerin~~12469
gewinnorientiert~~17415
▁geschäftliche~~17757
▁Bauern~~7002
knoten~~19309
projekt~~5276
ingdom~~15678
▁je~~82
budget~~15332
▁ja~~933
▁erobert~~9233
▁manipulier~~10311
▁aufstellt~~19113
▁Rache~~14451
geholt~~3600
▁Polymer~~17774
▁Warum~~6790
▁Jubiläum~~17023
▁längerfristig~~17973
Cola~~13341
▁Verzögerung~~15744
▁Pflicht~~9552
▁Gegenstück~~15207
▁Wagen~~6305
von~~11589
▁Stadtteil~~18439
übergreifend~~5861
Amerikaner~~16050
▁Minotaur~~20590
▁Konzepte~~10839
vor~~2204
▁fuhr~~5192
▁Wol~~10130
▁gewöhnlichen~~11961
▁Teilnehmer~~3088
▁Arbeitskräfte~~11050
▁Len~~3012
▁Leo~~14181
objekt~~6368
▁Linkshänder~~18011
▁Lei~~5381
▁Leg~~5643
▁Atacama~~18443
▁Lee~~6506
▁Obdachlose~~9896
▁program~~17043
▁Meet~~17437
▁hochhebe~~13580
▁bräuchte~~7788
▁abschließen~~8503
▁computer~~14423
bremsen~~7432
▁Ley~~11866
▁anschließen~~3819
höfe~~7977
▁Mengen~~863
▁Parkinson~~4036
▁Les~~11635
▁unentdeckt~~12998
▁Selbstmord~~13057
städte~~8197
▁Gleichgesinnte~~18576
Tüte~~19194
▁beschwerte~~12136
▁abgeleitet~~12940
▁Zusammenbruch~~12284
entgegengesetzte~~16108
▁breakfast~~21671
▁Vorbeugung~~15426
▁Net~~16366
▁Noten~~4346
▁entdecken~~595
▁pluripotent~~18672
▁Hirshhorn~~21541
▁Sunday~~20845
▁nachgewiesen~~13150
focal~~21489
▁AIDS~~12280
▁stundenlang~~1993
kno~~10640
▁Gleich~~9425
▁gyr~~20972
▁Slim~~20920
▁Mind~~15301
▁Hoffnung~~2764
▁grössten~~1381
▁Verknüpfung~~15230
▁meme~~20835
▁Neuseeland~~9379
maker~~17202
▁circa~~11979
person~~1645
▁hilflos~~8216
▁idol~~20967
▁Spitzen~~8575
▁einleuchtend~~13197
▁Käfig~~12961
▁König~~8816
▁künstlerische~~2769
▁schwerste~~3852
läufer~~11816
▁herzlich~~3278
▁uns~~36
▁letztlich~~14471
▁fischen~~1365
▁unw~~11486
▁Attenborough~~4502
▁übernommen~~14001
▁synchron~~14850
▁explodiert~~3522
Labor~~15972
▁StoryCorps~~21653
▁Scan~~9422
▁Müllhalde~~4733
▁Scal~~4358
tennis~~21486
▁Latein~~13184
▁und~~44
▁Lösung~~1643
▁Craig~~10306
</s>~~3
▁teuer~~10419
down~~15788
▁einbeziehen~~3834
▁Ketzer~~20287
blöcke~~18399
gedrückt~~6736
▁flüssig~~19477
▁Wachstums~~14108
▁Geschichts~~13203
▁Ablehnung~~15679
Talk~~18909
▁berühmteste~~7157
▁Glücksspiel~~17510
▁Ausbreitung~~15496
▁Geschichte~~104
▁Angela~~14914
▁strahlende~~14888
Tracking~~4210
▁entweich~~20831
format~~12079
▁sichtbar~~1980
▁pflegen~~6651
▁Afroamerikaner~~18435
▁diplomat~~18725
Gordon~~12782
▁Aufmerksamkeit~~4736
▁bringt~~3782
▁Mott~~1507
▁Urteil~~11609
▁betrügen~~3414
▁Seva~~21106
▁Emission~~2358
XY~~8817
▁arrangiere~~16716
▁DUM~~21214
▁Sixtinische~~21615
niedergeschlagen~~12588
▁vierte~~2567
ommittee~~6171
▁split~~21575
OL~~16972
ily~~21689
d~~207
FA~~10732
Kaugummi~~11899
da~~11119
Show~~17879
▁unberührt~~13062
Selbstwertgefühl~~17951
▁Media~~3917
▁Börsen~~3518
badet~~14639
▁explosive~~5992
▁Ranger~~6606
scape~~3007
▁brings~~8916
technologie~~688
mässig~~6189
schluckt~~19790
▁Shah~~17487
▁Logistik~~17201
prall~~3298
ektromagnetische~~17759
Drucker~~17079
▁Sehen~~1440
icious~~20715
▁Know~~13626
▁leg~~12159
▁function~~18105
▁Investment~~18290
▁Glori~~10573
▁Rücksicht~~19846
▁alphabet~~12647
▁Persönlichkeit~~4031
▁Fire~~4194
methode~~10950
Mentalität~~1597
uell~~13421
parate~~13853
tisch~~4454
▁langweil~~12183
▁let~~4185
entwickelt~~8950
▁Truth~~16843
▁zugegeben~~11551
▁Lebensjahr~~7707
▁ignoriert~~14523
▁Laute~~16625
▁Training~~6535
▁audio~~17881
flächen~~5050
▁ärztliche~~17275
▁something~~17171
▁Glücks~~11565
▁berüchtigt~~14722
▁raste~~20818
▁hochgeladen~~8832
▁gekocht~~5007
sträger~~1922
▁embryo~~19917
be~~984
▁Ed~~4697
ba~~2617
bb~~12812
▁stabilisieren~~9365
▁Cousin~~10097
▁Gaga~~20023
büro~~2199
hormon~~16233
bi~~3850
▁Ei~~5199
bt~~4880
bu~~5514
▁Eu~~7945
▁Es~~6230
▁Er~~1247
▁gefahren~~7485
▁Ep~~16191
▁Individu~~7830
▁Vinci~~8753
▁irrelevant~~13271
▁Kenya~~17721
▁Hul~~15597
by~~12035
▁Viagra~~13627
▁Ex~~7193
▁EG~~13802
marin~~21339
ruhe~~7932
▁Cholera~~11501
▁permanent~~5835
▁superhydrophobi~~3310
▁schreibe~~4328
▁Vorrichtung~~8385
▁viereinhalb~~9799
▁entfernt~~786
▁repräsentiere~~3738
▁EV~~19284
▁EU~~2388
▁Vorder~~9323
▁Entwald~~16827
▁Rollstuhl~~15293
osion~~3379
▁ließen~~10615
▁editor~~21682
▁Streben~~13490
ttar~~6199
▁repräsentiert~~11697
▁Toaster~~15607
▁British~~13283
Hertz~~18657
letter~~19297
▁kühlt~~17158
▁Peak~~20858
▁Jorge~~19595
▁slick~~19494
▁Rinder~~16844
▁Happiness~~13383
▁belästigt~~16264
inhaber~~18383
cho~~15281
▁Space~~10094
▁Helium~~16466
▁Baumwoll~~17392
▁entwickeln~~1424
▁Fair~~14236
▁Kämpfe~~2867
verbal~~20081
würfel~~13826
▁genervt~~15274
▁Süßwasser~~19735
▁gründen~~7000
▁Zeta~~15634
▁menschlich~~11345
▁hohl~~19586
▁Becken~~13531
▁gründet~~14447
▁OECD~~1083
▁Cochrane~~21232
▁INCRA~~21752
▁entwickelt~~215
▁verbal~~15186
sergebnisse~~13963
▁OPEC~~18267
ator~~6786
▁Mathematiker~~16609
Außenministerium~~18714
simulator~~10291
schläg~~756
▁Eintrag~~15177
probleme~~6404
▁zukunftsfähig~~7948
▁weiter~~1216
jacke~~9304
link~~6457
▁Miniatur~~12288
lini~~9029
atom~~10491
ling~~9035
▁outsourc~~16396
line~~2285
▁Töne~~3263
▁Gando~~20070
▁Kopernik~~19498
▁Fauna~~16831
▁England~~2999
▁Meere~~4982
▁Tageslicht~~9337
▁konservative~~10786
▁angrenzende~~5580
▁seltene~~6873
▁Magnetresonanz~~20651
ut~~2980
▁perfektioniert~~10320
up~~10593
▁Ratten~~1356
ur~~1844
um~~901
ul~~535
uo~~3921
un~~7372
▁benachbarte~~5565
uh~~12937
uk~~10230
▁Steuergelder~~10416
ue~~760
ud~~3261
ug~~5225
ua~~4933
▁Burm~~12818
ub~~4889
▁Ann~~13663
▁Tradition~~10555
wuchs~~777
▁Biologe~~731
▁And~~9516
chai~~21117
chan~~1269
▁Runde~~15848
▁jene~~5316
▁Ana~~13760
Terror~~20389
▁Vietnamkrieg~~12790
▁Micro~~12274
▁Gesten~~4128
▁understand~~21708
▁Kurs~~7243
zubilden~~10440
▁Impuls~~11377
bewusstsein~~7865
▁Landschaft~~798
▁94~~15903
▁Ghetto~~9014
▁Namen~~2752
▁äthiopische~~7115
ulation~~5908
tari~~10734
▁geknüpft~~9722
▁gesünder~~7380
gestanden~~9403
▁Hospiz~~6958
▁ehemalige~~8752
▁beobachte~~11676
▁Grippe~~6107
▁motorische~~20320
mächtig~~11619
▁klang~~4292
tufe~~9928
▁Stift~~3659
Hu~~14408
feuert~~6846
ethnisch~~16059
▁Hara~~18490
▁reichlich~~10647
verschiebung~~15513
▁fantastische~~3957
▁bombardier~~11514
▁verinnerlich~~10910
▁Auge~~3864
▁Verschm~~4856
▁Wohn~~13890
▁Center~~6536
erschrocken~~12875
▁meist~~3996
▁Schmerzen~~3489
elemente~~5569
▁flatter~~12597
▁erwärmt~~12355
▁mach~~3233
▁müsste~~1943
▁kritisch~~8649
▁Architekten~~8097
▁entspannen~~7328
ago~~2173
▁genug~~744
land~~2636
▁unrealistisch~~15534
algorithm~~14732
▁Betreiber~~13612
rechnung~~7229
▁katalogisier~~13171
produkt~~4756
Minerali~~15367
▁fragte~~1241
terior~~9432
holen~~7730
▁Wettbewerb~~3199
graben~~4370
▁Psychologi~~17522
▁blonde~~18827
▁Kruste~~18402
zentrische~~17261
▁dogma~~21245
▁identifiziert~~13048
▁Wochenende~~12014
▁Alpha~~13972
▁übertrieben~~17942
▁Infrarot~~811
truck~~18509
▁Blutgefässe~~21260
▁nothing~~19469
▁Bauteile~~10617
▁weiterhi~~2921
▁revolutionäre~~7504
letzt~~9688
▁gewissen~~4391
▁Papua~~19331
▁gewöhnliche~~2177
▁Schale~~678
▁zufällige~~10137
▁Erb~~7099
▁ausprobiert~~827
▁Schall~~463
▁Polaroid~~14593
▁flach~~7920
▁feed~~20363
▁Kreatur~~401
▁Sohn~~6311
lebensbedrohlich~~9286
▁Rabin~~19868
▁beschissen~~12219
hunger~~13678
▁blank~~19815
▁idealis~~16433
▁Tagebuch~~16429
▁feet~~19433
▁hübsche~~11019
▁twitter~~9696
▁Nintendo~~13850
▁Give~~16036
DNA~~11092
▁zerlegt~~13148
▁Hart~~16345
▁effektive~~5702
▁schlagen~~5550
probe~~13404
▁größten~~593
▁verunreinigt~~18756
▁hüpfen~~12177
▁veröffentlichen~~8066
▁herbei~~14849
▁kling~~1575
▁Anthr~~13969
▁aufgebraucht~~17116
▁Loch~~5271
▁Korrektur~~13189
▁Lock~~7550
spül~~5588
▁Glauben~~6513
▁Hünd~~8802
▁Bart~~10892
▁ersetzt~~10637
▁Routine~~6423
▁Proportion~~11996
▁Vorstadt~~15444
▁Climate~~16858
Impfstoff~~6056
tro~~9582
▁mathematische~~8620
tra~~1815
▁Schreib~~8034
▁Trauma~~17551
verteidigung~~16195
▁Predator~~20221
▁repetitive~~21781
tunnel~~18142
▁ehrlich~~3169
▁Hilfe~~23
reich~~2735
▁wimmelt~~12137
▁Mensch~~1524
sity~~19952
liegende~~5976
▁Gallup~~12265
uel~~8525
▁Zweck~~1482
▁Hoch~~5823
▁Risiko~~4351
hinweis~~6453
▁Hock~~9787
paid~~20170
▁Wingsuit~~14690
▁Unterlage~~18198
▁Traurigkeit~~12854
▁Erholung~~7464
cott~~19879
▁entwickelnde~~14104
▁Transport~~13597
▁Francesca~~19998
▁Academ~~15676
▁Anonymität~~16410
▁boreal~~20827
▁offenbar~~3581
▁Whit~~8852
ode~~313
uer~~2717
ämmer~~13476
▁Seh~~6636
▁Sek~~9016
▁Alters~~2644
▁Sel~~12361
▁Arbeit~~1279
firma~~5418
▁Project~~11906
schöpfung~~9126
▁See~~2977
▁Seg~~8530
gewinnung~~15349
▁Sey~~19023
▁Ringe~~4881
▁Zähne~~8291
▁Acumen~~16944
Verhaltensökonom~~3407
verbrauch~~14264
erblichkeitsrate~~10513
ämmen~~13994
▁ausgedehnt~~11395
▁Jobs~~1828
▁obdachlos~~19132
▁liebevoll~~17128
▁herein~~6461
gefahren~~3217
Wunsch~~5902
leg~~1628
▁Rutan~~18307
krise~~4743
len~~1581
ler~~1226
les~~7549
let~~7911
▁entkommen~~7742
▁aufzu~~2381
ley~~3067
ermittlung~~17495
ausgabe~~2031
▁you~~17638
ctu~~20883
▁Wille~~7267
▁Hochland~~15113
▁verabschiedet~~9546
▁Schwimm~~16697
▁Briefe~~7474
▁gültig~~1502
technolog~~5359
▁füllt~~6731
▁Willi~~10848
ologist~~18825
▁Libanon~~4640
▁Zimbabwe~~20274
▁numerische~~12598
▁Vampir~~20955
fügen~~13830
▁Rette~~13042
▁wild~~2668
▁Gewebe~~7862
▁use~~10840
▁Pacific~~4728
▁Möbelstück~~9744
habi~~15433
▁Atlas~~8942
Cochleaimplantat~~14643
apping~~20186
▁Stiftung~~10469
Hotel~~19759
▁usw~~2109
disziplin~~4270
▁Lakota~~20921
▁Körper~~2537
▁mög~~16231
alencia~~9906
▁Garten~~5220
▁sens~~21517
▁zehntausende~~477
▁Strategie~~7134
▁cloud~~18805
▁Zimba~~20078
▁Sandkörner~~16174
▁spüre~~17375
▁damals~~2003
▁parabol~~15284
▁Delfine~~20056
Arretier~~21284
▁Graphik~~4260
erzeugung~~5024
▁Räder~~10333
zhen~~20662
argassum~~5771
zig~~6579
▁Umfrage~~1595
stieß~~9229
▁Donnell~~18890
▁Erregung~~16086
▁gefoltert~~11567
▁Linguist~~8071
loch~~12999
▁kriminelle~~14063
▁PDA~~19989
oo~~8379
▁abzuleiten~~12572
brems~~17952
▁zählt~~6286
▁marine~~14819
▁herangeh~~16379
▁Klassifizierung~~7079
zimmer~~6388
▁Augen~~232
▁idiot~~21619
▁ausgesprochen~~10868
▁Bereiche~~1143
▁Shap~~18666
▁Pac~~18721
fache~~8494
▁Umbruch~~11481
▁ausmacht~~1717
ette~~10310
▁Kindersitz~~20427
▁monumental~~10983
▁Familie~~1126
▁lieben~~3893
▁ungeduldig~~14969
▁Einzelteile~~8095
uallen~~8362
▁sex~~19209
▁Geschäfts~~11515
▁fur~~19223
▁Fracht~~11267
▁glow~~21490
▁Islamische~~17480
▁ausschließlich~~12770
▁gemeinsam~~5221
▁Rome~~19483
▁Gewinnspanne~~19067
▁fun~~4337
of~~8339
▁vorhersagt~~17245
ädchen~~11948
▁Frühwarnsystem~~19385
▁Geschäfte~~7053
spruch~~13611
▁sei~~877
▁Verfügung~~6773
▁Privatleben~~3750
plate~~21798
▁kosmetisch~~15550
lock~~2685
▁Eltern~~1985
▁see~~8633
Account~~19959
▁gewaltige~~5041
ob~~6670
▁Ofen~~13730
haftigkeit~~16411
esprächspartner~~19869
stoffe~~9463
etts~~10106
▁Brust~~6468
▁set~~6293
▁Fulbright~~6828
▁Ambig~~13817
▁interne~~9627
▁Helikopter~~13475
▁Tourismus~~11331
▁Wohnung~~10992
▁Sloan~~18778
ishman~~18047
▁voraussetz~~6236
▁Schulen~~1021
▁Schnee~~9026
beobachtung~~15192
▁Gummi~~9871
▁Parag~~14695
▁passive~~12606
▁Scheidung~~6742
▁flüchtige~~8172
senheit~~11849
▁Gi~~11161
š~~20586
▁Sicht~~907
▁Vorsorge~~5671
ranszendenz~~18934
fuhr~~11385
▁Jahrhunderts~~2677
amerika~~453
▁Bowden~~19776
Färbung~~9805
behandlung~~4056
▁Rüstung~~9258
▁Maler~~12466
▁Mor~~9127
▁Schnecke~~19725
▁Eine~~11716
Q~~528
▁Auseinandersetz~~12248
▁ungesunde~~19154
▁Mom~~8198
▁Schrecken~~2696
gehört~~3610
ov~~9791
tier~~2836
▁Eins~~6252
halten~~3095
▁Mob~~12581
▁pick~~19171
isse~~2002
pyramide~~13685
▁Skinner~~12172
▁verletzt~~6114
▁Münder~~2952
▁3.3~~16451
▁damalige~~16966
▁anpassen~~4157
▁McCu~~18187
▁gewagt~~19259
▁verschlossen~~12162
Community~~9903
▁Miller~~9797
berfluss~~14223
▁he~~603
▁unerwartete~~13587
▁ha~~304
▁Volkswirtschaft~~12283
▁kälte~~19121
▁typische~~3828
▁Etage~~9648
▁jungen~~1805
▁Beweise~~3574
▁erfolgreicher~~2257
▁Map~~17198
▁Frau~~1199
▁aero~~20890
▁gesunde~~5636
▁Bitte~~6984
▁Moslem~~12114
▁systematisch~~12218
▁Zitat~~9776
▁verteidige~~3230
▁Mary~~13288
▁Mexiko~~11828
▁nieder~~4586
▁Root~~10129
▁FEMA~~21121
▁anti~~3380
▁Nenn~~12544
▁Every~~14854
▁Müll~~4739
▁freigegeben~~19083
▁Verwüstung~~15754
▁Anzahl~~5216
▁Grasland~~13234
ET~~19056
▁chemisch~~18078
▁intellektuelle~~8656
ländische~~5816
ngesicht~~13026
pirale~~14337
▁rote~~779
▁Handys~~1651
▁DM~~21154
▁Kalte~~14568
▁Niederlande~~10740
▁konnte~~2738
uellen~~559
▁Linda~~18772
▁besorg~~12180
2010~~19364
▁ausführlich~~14521
morgen~~6418
▁Boni~~18043
▁wachte~~4595
▁erlaufbare~~19628
▁Vögel~~4503
staat~~10507
▁Führung~~1611
▁einschließlich~~6741
lzt~~13258
▁Biologie~~7802
doch~~2152
▁Banken~~12509
▁Bekannte~~18945
pilz~~17315
▁Initiative~~5779
ivilgesellschaft~~15631
ready~~21400
▁Enkelkinder~~7946
▁halbiert~~14142
▁Abgrund~~15130
▁hinauszu~~18861
schärfe~~9919
▁Einwohner~~1077
▁Florida~~10285
tribu~~18739
▁springen~~4029
▁1800~~12994
Saa~~4377
eben~~6006
▁Dolby~~5314
▁Hyun~~21443
▁zentrale~~5895
▁Sonnenlicht~~15084
▁melde~~10017
▁30.000~~15125
▁irgendetw~~4541
truth~~20367
▁Bulldozer~~8186
▁Autounfälle~~19632
▁mola~~21804
▁Minuten~~2293
▁assist~~21306
▁sensib~~9562
▁unerträglich~~11682
▁algorithmic~~21699
▁ihr~~830
▁Abfälle~~15533
mbstone~~20828
▁bemerken~~4262
▁Südpol~~13459
▁chick~~21336
▁Ngu~~16880
ähen~~16828
▁Befreiung~~16028
▁Prä~~8608
▁beseitigt~~10654
▁ihm~~191
▁ihn~~366
▁Biochemi~~16836
▁Plus~~20549
▁jegliche~~10199
▁Gefängnis~~9028
▁Almo~~16927
▁bilateral~~17675
matrix~~12706
▁Schule~~1233
▁Schuld~~8229
Material~~16186
▁künftige~~17112
ziger~~3597
▁überlegt~~3619
▁Schädel~~8448
▁Theatr~~13302
▁Explosion~~2393
▁micro~~20564
▁statt~~715
ô~~21156
▁überwacht~~14265
▁Jud~~3231
▁Schulz~~11770
schöpfen~~14253
▁Kreide~~19637
▁überlege~~6381
▁Schuljahr~~1862
▁kri~~843
▁aufwuchs~~8903
▁Falcon~~18457
▁Mord~~14602
▁More~~5214
▁Resultate~~6096
▁Palästina~~4637
▁schummel~~3589
▁hoffte~~8489
▁Board~~14702
tempo~~11236
▁infolge~~6052
Teil~~4808
stände~~2404
▁kenne~~3788
▁Parlament~~7235
▁Sanitär~~13394
▁Hal~~8147
▁religiöse~~3606
▁wiederverwertet~~17176
ociety~~15808
rofluid~~12291
ärchen~~16176
▁buck~~21192
▁Clip~~12478
▁Cat~~17370
Teleskop~~16558
▁thermische~~16569
▁Cap~~2813
▁niedlich~~18044
▁Car~~10213
▁verstörend~~18199
▁bezahlbar~~15400
▁spring~~18143
put~~15306
▁autobiograph~~20740
▁Graffiti~~16777
▁Menschsein~~3080
Jump~~14691
▁Caf~~8971
achtung~~11315
▁innewohnende~~16535
▁Jahrhunderte~~8754
▁Can~~12345
▁Treibstoff~~15239
▁Mittagspause~~19162
säule~~14319
▁Einzel~~6207
▁Chef~~10682
▁Joseph~~7586
küste~~5799
▁Zug~~5176
▁Amsterdam~~19675
▁Monument~~4870
▁Chen~~11241
▁Experten~~6919
▁Zaun~~14092
▁Geometrie~~5405
▁Mainstream~~7811
▁Geschöpf~~17646
▁Annahme~~2044
▁vet~~20756
▁Begleit~~11000
gesagt~~6723
▁Dringlichkeit~~15731
▁beachtliche~~16762
▁Wolke~~531
stellbare~~7032
▁intensive~~5609
uscht~~4060
start~~15097
▁Austellung~~8975
▁Milchstraße~~8106
▁Klick~~8672
▁Zeichnung~~8813
system~~919
▁anbieten~~2737
▁Doktor~~1499
▁Selbstvertrauen~~3091
klopfen~~18057
▁idylli~~8861
vertrag~~11732
▁Tasse~~10999
▁Kommentar~~2761
herrschaft~~16109
▁Ethan~~16807
▁Jungtier~~9576
▁Schrank~~15323
▁riskier~~8567
▁Sechs~~3635
▁Kost~~2736
▁Ko~~6533
▁Hobbes~~17749
▁Ki~~645
▁Kh~~7910
▁Point~~7423
▁Bel~~12044
▁essentiell~~10820
▁Ben~~3065
▁Belast~~14761
▁Ka~~4932
▁Bei~~1390
▁erforscht~~357
gängig~~8732
▁cocktail~~18775
pflaster~~3431
▁Patriot~~20605
▁Ber~~5519
▁angesehen~~11111
▁Ku~~8307
brachte~~9948
berquer~~7658
▁Vergrößerung~~8829
iaoping~~17971
▁erforsche~~16197
▁Kr~~4100
▁KI~~17858
▁Einkauf~~6666
▁erzeugen~~3974
▁geradlinig~~15920
▁series~~21640
▁Naturschutz~~988
▁Wodka~~19830
▁Badezimmer~~8017
▁Kni~~13543
▁USD~~19356
schleuder~~12314
▁nahtlos~~17919
▁Apple~~12011
▁Orchester~~3949
▁Außen~~4077
▁beruhigen~~12909
▁Phasen~~16143
▁bank~~11035
anav~~21475
psycholog~~14157
▁Barriere~~9953
▁grand~~4468
▁Schrott~~20263
▁Anklage~~8230
gendorfer~~12023
code~~12620
▁voller~~2872
▁Tatsache~~7803
kolonisier~~14496
icht~~245
▁Improv~~14853
▁einheitliche~~16147
▁Main~~16054
▁App~~6256
▁tägliche~~4994
element~~15996
▁Are~~13823
stiehl~~16730
händler~~4957
nsporn~~9601
eryl~~18839
heft~~10674
▁bedeutete~~6954
rechner~~12765
▁Periodensystem~~15215
▁sonderbare~~16499
▁Business~~12193
atik~~14438
ualität~~1941
mechanism~~7686
▁vorderste~~10898
▁Schleife~~5585
klasse~~2151
▁Körpergewicht~~20244
gesellschaftlich~~2107
▁abbaubar~~4766
▁Basketball~~4457
▁Wurma~~10565
▁verschiedener~~11400
▁Okay~~4633
BIP~~18645
▁Shakespeare~~3081
▁Vorschlag~~7268
▁Weltrekord~~10602
▁Ozean~~160
▁Morning~~12552
▁Tarahumara~~19900
▁Vakuum~~18135
▁tippt~~8051
▁DARw~~18068
▁Gesellschaft~~1013
▁sinnlos~~11122
▁tauchte~~4643
▁tippe~~4656
▁beinhalte~~9165
▁visuell~~12302
gelände~~15440
cke~~4460
▁reine~~11407
fach~~9139
▁ho~~5749
▁Marokko~~17485
beziehen~~15929
▁Basis~~6398
▁produktiv~~5287
▁hilf~~5243
▁Privatsphäre~~13605
▁Philipp~~7993
tektoni~~13152
▁Eierstockkrebs~~19452
ichler~~16132
▁anfäng~~6768
▁Sklaven~~12804
▁Zellulose~~6750
▁verdient~~6674
▁respektvoll~~13004
▁Cesar~~18677
▁AI~~20442
▁Brigade~~6502
▁Vereinte~~5724
▁All~~5532
stehen~~3682
▁entlegene~~8738
▁Wahlkampf~~16412
▁Mikrowellen~~8983
▁zurückschaue~~12004
▁Marionette~~13682
▁Hudson~~8138
▁nachzudenken~~243
kontrolle~~4202
bring~~15595
wiederverwertbar~~19050
Kaiser~~14506
▁WorldWide~~21394
▁Biosphäre~~16172
▁Mead~~21147
▁Alp~~475
▁Charles~~4718
▁Kachel~~19095
▁anwendbar~~3309
proben~~10774
▁rede~~6295
▁aufgeteilt~~1953
pause~~1244
ature~~20843
erschütterung~~19081
▁Tonhöhe~~17254
Controller~~18113
▁möge~~17165
ensoren~~14678
▁neigt~~7768
wiegen~~2382
▁Sprachen~~2680
▁prä~~2857
▁schlief~~11877
▁Hyäne~~17725
gestoßen~~609
tude~~3705
▁Format~~8589
Plattform~~17514
▁ethisch~~10265
▁Igbo~~17784
▁Völker~~4628
▁züchte~~9094
▁Gleis~~18159
▁zwei~~396
autor~~11117
▁überschritt~~15350
▁kann~~371
▁hominid~~15121
▁längst~~5707
▁Klavier~~4104
izzy~~21226
▁Jäger~~12631
klemmt~~16604
▁stärkere~~2224
▁Publikum~~2483
sulinresisten~~20781
kreis~~10162
▁Idiot~~1298
▁Wang~~15671
▁ooh~~15182
▁kaputt~~1100
▁betont~~8330
▁Haustiere~~10182
h~~1654
▁Cra~~15623
▁Curitiba~~21124
▁Kontrast~~10457
▁nichts~~85
reiz~~3831
sgefahr~~17044
▁sitze~~8463
▁solid~~14964
▁addiere~~19886
▁Bernard~~19969
▁Mikroskop~~11086
Anhalter~~20558
▁Freiheit~~1665
klappen~~860
verschwendung~~15518
ota~~18448
▁verwaltet~~5697
ition~~12173
trauen~~11696
▁Kräfte~~3583
▁Muti~~21166
▁direkt~~1807
▁How~~19093
frame~~20249
mption~~20957
▁Plünder~~20091
▁Panik~~5938
▁bedarf~~10551
▁200.000~~5773
▁Faiza~~21766
Source~~14773
▁erweckt~~12789
artikel~~7331
packen~~13581
geführt~~4452
erziehung~~2051
▁nuance~~19362
▁Universums~~8943
wirf~~10228
▁Spielen~~996
▁retten~~5720
▁Bürgerkrieg~~11705
zeichner~~13834
▁Singapur~~1852
▁Batman~~11477
schleichen~~15546
trommel~~17760
▁bedrohlich~~13063
▁Kreuz~~6172
menge~~10394
isco~~20239
▁tiefsinnig~~16502
▁Soja~~5016
▁Kiesel~~15120
▁Serie~~3958
zeichnen~~9157
▁feierte~~2885
berzeugung~~2045
▁rig~~5606
▁bezogen~~5367
PL~~16724
▁Werke~~10838
▁Kalorien~~5056
▁verlasse~~17342
▁Version~~9888
egenteil~~1461
▁valid~~17553
▁Ebola~~19688
▁Widerstand~~11627
▁einsetzen~~3373
▁literar~~15787
▁Fibonacci~~19503
ende~~3110
toilette~~15877
▁erzielt~~2079
▁Exemplar~~11357
▁000~~2919
▁Diagramme~~16570
▁se~~1327
ets~~11068
▁Berichte~~15570
▁hungrig~~5042
▁sa~~7516
▁Lexiko~~15151
ett~~5300
etz~~6500
▁lebendig~~25
▁Barry~~10530
▁Operation~~5492
▁Luftfahrt~~7719
▁Simulation~~13429
▁Unterhaltung~~4681
▁Marshmallow~~20071
▁st~~3413
▁when~~20836
gleichen~~9023
erkrankung~~9575
▁sp~~10033
ete~~2861
▁botanische~~16640
▁Elektroden~~2546
▁veranschaulich~~2493
▁geschaffen~~2196
ck~~899
▁kontroverse~~16037
ci~~8771
ch~~1845
co~~4000
lang~~6038
▁Dia~~13391
▁reichste~~12856
Code~~17736
▁physische~~2343
ca~~7216
Hex~~7369
ce~~3078
▁Ap~~7649
▁Lautstärke~~4491
cy~~11155
▁20.000~~9261
uca~~19773
kommunikation~~14729
▁einzu~~2612
▁bist~~1290
labor~~2519
uck~~6436
bgetrennt~~15667
uch~~4101
▁atemberaubend~~8395
▁Migräne~~12939
▁Nektar~~12318
gespräch~~13293
▁Jenn~~8562
▁verwirrend~~9357
handlung~~6261
▁professor~~18734
▁Partitur~~4241
▁African~~20121
▁1.4~~10006
mmonia~~21337
▁zählen~~2016
▁emitt~~12546
▁Schuh~~13947
▁Olympische~~15137
▁vordringen~~10813
▁Aufführung~~3979
▁beachtlich~~12997
gue~~19303
▁holländische~~14783
▁entfliehen~~10086
▁verbringe~~1668
▁West~~3276
ists~~21457
▁widme~~9840
▁Besonderheit~~11591
▁Sonntag~~5165
▁Programmier~~8626
▁Progerie~~20283
▁Bedürfnisse~~6668
Stadt~~5169
▁Weisheit~~6383
Entwicklung~~10144
▁Wege~~2568
▁Reuters~~19365
rahmen~~5241
▁Show~~10537
licher~~11885
▁vorrangig~~5682
▁erdähnliche~~18759
▁vergeben~~11919
▁Kath~~9441
uisance~~21437
▁vierten~~9293
▁festgelegt~~8572
entropy~~21420
▁1.2~~9259
▁Hahn~~18005
▁Game~~3815
Sendung~~11850
ktronenmikroskop~~12309
▁wußte~~3688
▁Katz~~11785
oung~~11904
▁sorgt~~1878
▁blogg~~7950
▁Verletzung~~8228
▁repetiti~~21462
aya~~13552
▁operat~~19359
▁würdig~~6981
▁Dung~~10699
eur~~6560
▁Busse~~14464
▁predict~~21697
▁Asian~~20600
va~~8207
▁Keene~~21054
▁Peru~~10727
▁aufrecht~~5212
ve~~6445
▁gesund~~5944
▁getroffen~~6901
▁Steigung~~2448
vi~~5981
▁fallen~~6395
▁Andrew~~8087
▁proportional~~1935
▁entsorg~~5008
▁Tiger~~8422
vo~~13097
▁Brenda~~19145
sitz~~12461
▁eigene~~395
▁Narkose~~16240
vu~~15205
▁0,0~~16104
sorgniserregend~~10493
▁mono~~16058
▁führt~~35
▁superstar~~20869
▁Andrea~~1696
▁Unternehmung~~19291
▁Israeli~~4626
▁gesucht~~7337
▁inspirieren~~3090
uerung~~10625
COB~~20550
▁Gegend~~583
▁Tusca~~21073
stöckige~~8397
▁Hyper~~3942
greifen~~1037
▁post~~4576
▁verflixt~~18310
▁Cox~~16445
▁Blogger~~12752
▁studiert~~3702
▁hervorgeh~~12229
lizenz~~6853
terrorism~~19694
▁laparoskopisch~~17161
▁Folgerung~~18418
kabel~~5410
▁leugne~~16955
ball~~5761
pho~~9128
▁juri~~14351
▁organisiert~~1570
▁Blüten~~12303
iker~~2827
▁Oktopus~~370
bald~~672
▁Prestige~~16405
▁Circle~~18882
phy~~7489
▁holen~~511
Stück~~4939
▁herum~~272
schleppt~~11411
▁Einsätze~~6031
füllung~~14574
▁absolut~~5620
▁offensichtlich~~1291
▁entspannt~~14228
angetrieben~~4290
off~~3142
▁Lauren~~16612
▁Marine~~4723
▁Orangensaft~~18342
▁fruchtbar~~5076
▁Buckelwal~~19529
▁Bearbeitung~~17156
▁Treibhausgase~~10750
cheln~~7469
Julia~~21134
sperre~~15889
tützpunkt~~13990
▁Clinton~~12206
Colombo~~19949
▁begutachte~~7175
▁übrigen~~852
▁Demokratie~~2801
▁visuelle~~11410
▁Enkel~~9580
▁Schwerpunkt~~13050
▁industrialisier~~7179
▁Karten~~462
▁Fluctus~~19491
▁abend~~7341
vorteil~~19230
▁befördert~~14928
▁Dinge~~1355
hnlichkeit~~8111
▁endgültig~~5925
▁Jersey~~10071
▁Cro~~17078
▁autoritäre~~18425
▁erzählte~~2969
osmos~~16146
▁Arche~~13259
▁84~~4952
▁Bank~~12508
▁statische~~9064
Einfallsreichtum~~14038
▁Besitz~~9855
▁Galvani~~20261
▁befördern~~12299
▁grösser~~1358
weg~~6304
ysmorphophobi~~21385
▁Smol~~20648
▁tagtäglich~~7687
wei~~6101
▁Stand~~6102
▁Gewerbe~~9958
▁24~~5531
▁Gowanus~~20423
uantität~~7089
▁durfte~~3565
script~~21617
▁25~~2724
▁Buddhism~~17131
▁natürlicher~~10621
▁Oxford~~6796
▁piep~~8426
▁22~~6577
▁Massai~~17722
▁funktionell~~17950
▁meta~~7488
▁23~~6777
▁hochgradig~~20197
▁zugegebenerma~~3194
bindung~~15465
▁Größte~~13874
haut~~8378
▁erweitern~~5913
haus~~2831
▁Gemeinsamkeit~~9661
▁Redner~~15067
▁Stille~~8869
▁ersetzen~~7855
▁erweitert~~13201
▁Schlachtfeld~~7889
▁Hinrichtung~~19974
▁Windows~~11184
▁lege~~16623
▁Kilometern~~739
▁Armee~~4706
▁Eames~~17959
▁greif~~7783
Creek~~4790
▁Helligkeit~~9807
▁Ladung~~15227
▁virtuo~~21473
▁voraus~~8226
liebe~~6771
▁Bäcker~~15021
▁Staate~~9078
▁riech~~12347
▁87~~1840
▁Milben~~16834
▁Tra~~4385
läd~~1986
▁bizarre~~14847
▁28~~7894
▁energies~~11074
▁ne~~7412
▁Staats~~11734
▁Reparatur~~7685
▁Tri~~8382
onnen~~10726
▁Tro~~11700
liebt~~4645
▁Migranten~~19667
▁Neumann~~17748
▁strömt~~8784
▁encyclopedia~~20837
▁Toilettenpapier~~11195
▁Schlagzeile~~10514
▁Verbrauch~~7127
▁Ingenieurwissen~~8782
sthetik~~5605
fluss~~9421
▁fürsorglich~~15592
▁Ausdruck~~2822
grün~~9182
▁dankbar~~11142
ronic~~13453
▁Radfahr~~14143
▁angehen~~5678
▁Sound~~5435
▁brennen~~15459
▁Mädel~~17400
▁Effekte~~4002
▁Genom~~7814
▁Budget~~4977
kolonie~~4827
▁hatte~~1550
▁Paulo~~17953
tauscht~~9954
▁Elektron~~13446
▁erwecken~~13331
▁vereinen~~13294
▁Bangladesh~~7892
▁Vertrauen~~5705
▁Kommunikation~~4624
▁Lab~~3918
▁Urknall~~8981
▁futurist~~5358
▁alltäglich~~16415
▁Lak~~8028
symbol~~18895
kriegen~~13281
anzüge~~15575
▁Zustimmung~~17278
▁Trade~~14448
▁dekorative~~16091
▁Denkmal~~11864
▁Molekular~~10448
▁rev~~15075
▁gestellt~~4999
▁Favorit~~12360
wühlen~~12118
▁Heli~~12349
▁fad~~18920
▁Mittelschicht~~18019
▁Gender~~11686
▁Künstler~~2678
fahren~~499
biologe~~14476
▁erstickt~~5999
AL~~19657
geeignet~~18495
kry~~17734
gelesen~~10472
▁Monro~~16790
▁unkontrolliert~~14664
▁meinte~~6352
▁Bilbao~~21388
▁update~~20965
▁änderte~~5172
▁Sitzung~~14134
▁sogenannte~~3941
▁Passage~~4443
▁Lovegrove~~19033
▁Olivenöl~~20958
▁Ekstase~~11612
software~~14740
▁Ecuador~~15551
▁Zusammenspiel~~15950
▁Nutz~~15387
▁Viertel~~2917
▁Großteil~~121
▁Wandteppiche~~19787
▁Chicago~~7155
cus~~19493
year~~21624
▁sendet~~11378
▁aufbaut~~7106
merk~~9050
▁Folge~~8176
▁Beschreibung~~3102
▁mobilisier~~11935
worben~~18965
▁kürzlich~~2412
läufe~~7470
▁synchronisiert~~15702
lehnen~~12714
▁Anhaltspunkt~~14124
▁poly~~9532
▁starb~~2985
▁Werbe~~9897
▁inter~~5119
▁Preise~~7040
▁pad~~21567
▁imitiert~~11782
▁stark~~1885
▁Pal~~6943
▁Admin~~19556
▁kon~~2729
▁Gärtner~~16819
▁Downtown~~15924
▁start~~3272
▁bekäme~~13014
▁starr~~7437
Wayne~~18121
▁Nachfrage~~6631
▁Empfinden~~13054
▁klatscht~~20316
onald~~10799
▁Dirigent~~19961
vielfa~~9137
▁umgeben~~5085
▁erstmal~~3854
interest~~18835
▁ramp~~19082
▁Ernst~~1680
▁vorstellbar~~9172
Energiegewinnung~~15098
Star~~16064
▁andauernd~~7094
~~17629
▁negativ~~12443
~~21773
▁Schlechte~~1066
▁patrioti~~18829
▁vergraben~~18779
▁komisch~~8552
▁brave~~18341
~~17625
¥~~20994
▁weise~~12124
▁gripp~~21097
Telescope~~21395
▁rod~~12716
▁Fisher~~7291
▁Bildung~~1997
­~~20979
▁roh~~10583
▁Blut~~2525
©~~18788
▁Erzeugung~~13651
°~~3321
▁verborgen~~159
▁rot~~1843
▁gre~~15276
distribution~~5089
▁Entsalzung~~4800
▁nirgendwo~~2187
▁Gespräche~~11940
▁Insekten~~10242
▁las~~4608
treten~~787
▁Küsten~~5756
▁pac~~21585
▁Doodle~~21021
▁Kamele~~19172
▁Pol~~9634
▁Marmor~~15987
▁Gibbon~~13157
▁winzige~~4953
▁Kneipe~~4440
▁Gesang~~12383
ino~~6971
right~~12200
▁lag~~3578
▁Gebirgs~~163
ine~~3343
ing~~209
▁89~~12981
ina~~4420
▁Kohlehydrate~~13666
▁Machthaber~~20678
▁versorgen~~422
▁Verstand~~2517
▁Crowd~~8120
▁Schläge~~6143
▁grad~~11301
▁Warnsignal~~20808
▁Record~~15936
freundliche~~9893
▁Nachahmer~~12329
▁muß~~3656
▁Konferenz~~9283
▁stammt~~5983
Gericht~~17441
untersuchung~~10378
▁Phantom~~14592
▁Rückgang~~13399
▁geniess~~13471
▁21.~~2377
▁Anführer~~11711
▁Haupt~~3247
▁Rube~~15694
▁Zufriedenheit~~3799
polizei~~12486
▁Eskimo~~18675
tlantik~~20577
▁Königinnen~~17649
▁klüger~~17706
infektion~~12975
▁Illinois~~7152
chance~~1894
U~~1065
gedruckt~~13468
▁Lupe~~13009
▁rekonstruier~~13214
atriarch~~18607
▁Ruby~~20597
▁Interesse~~1809
▁hero~~17340
▁winter~~20105
▁Terrorist~~13945
▁lim~~21282
▁filter~~4924
osni~~11860
niveau~~17047
▁verehrte~~19201
▁Schöne~~13287
▁part~~17048
▁Schwei~~14390
▁Wachstumsrate~~19277
▁bringe~~13028
▁Tabelle~~1057
write~~14730
schütz~~10257
▁hinterher~~6678
▁Herbi~~9459
▁Gefrier~~20161
▁Crohn~~14499
▁IV~~13918
ttel~~3872
berblick~~7375
▁Gang~~9426
shelf~~18981
▁unvollständig~~7790
Schriftstellerin~~9638
▁Devil~~21115
▁produziert~~774
▁fürchterlich~~11791
▁gerade~~101
▁Ziffer~~13818
▁brin~~20990
▁Kolumbien~~9015
▁graph~~9757
▁Office~~17928
▁Gräser~~12316
▁überwach~~10272
▁us~~15683
elekommunikation~~7075
▁Uran~~16479
▁Alisa~~20547
▁Wegbereiter~~17586
geprägt~~11084
lace~~19768
▁klon~~9938
▁romantisch~~16997
▁Nichtregierungs~~12761
▁rebel~~11652
▁Periode~~6687
östliche~~12033
▁Epidemiologe~~17801
▁nehme~~9749
▁tritt~~541
ali~~14243
▁gängige~~7368
▁Kosmolog~~8977
▁unteren~~2011
mate~~8581
Charakter~~10832
▁rare~~15490
▁Berechnung~~11978
▁60.000~~10286
äfen~~15798
▁Schenkel~~17115
▁Octo~~21779
▁Hotelzimmer~~17925
worth~~15296
▁Zehn~~3603
▁profitabel~~18327
▁erwischt~~3553
▁Schwein~~10212
▁vergeude~~15892
▁wolle~~5423
▁verbiete~~9548
▁Dennis~~16067
▁area~~21711
▁Fremden~~14872
▁Dotcom~~10214
▁Rückgrat~~12474
▁Gehweg~~9988
stolpern~~17943
▁Würmer~~640
▁Schweiz~~9885
tank~~14985
▁Smart~~12676
overty~~17073
▁hint~~20989
▁Airbnb~~17500
▁Gore~~14248
▁Up~~10121
▁WalMart~~20617
▁Gabel~~7996
▁öffnen~~3670
▁Nukle~~11115
▁Austausch~~12378
▁Belieb~~4124
▁faszinierend~~3149
▁öffnet~~6474
▁hing~~2419
▁Februar~~5772
Menschenverstand~~14465
rtigr~~21687
schneide~~9198
▁entfacht~~8717
▁character~~20211
▁bindende~~20009
▁archivier~~9690
▁Weltbevölkerung~~7941
cher~~9294
▁erziel~~1952
▁extremist~~19907
▁Hill~~5311
▁formen~~2629
▁Eden~~18768
▁Bedürftig~~18853
horn~~9055
chef~~6534
▁iTunes~~17519
▁Ode~~13096
▁Brand~~151
▁Milton~~19801
▁Atlantic~~20270
chen~~844
▁Hochschule~~8731
spect~~8604
▁spaziert~~9392
▁stamme~~7966
▁stereotype~~19460
▁400.000~~9143
▁bedanke~~3390
▁impression~~18924
trag~~8675
▁okay~~3059
▁Zelle~~9129
▁Mitch~~19395
▁versetzt~~2695
ür~~7919
▁Pei~~19139
▁warmer~~19673
pflicht~~11044
ahara~~12279
▁President~~12800
▁Vor~~2175
▁kalt~~696
▁registriert~~8513
▁Koralle~~10178
▁versetze~~6325
▁Säugling~~9538
üb~~6648
tanz~~11139
▁akustisch~~13423
▁läuf~~3266
▁freundlich~~11263
▁zivile~~13101
▁unsere~~433
▁Gebäude~~3127
▁Wolf~~10406
▁angeklagt~~14456
▁CSI~~17229
▁Würfe~~20193
▁Megawatt~~17874
▁fertig~~3476
menschen~~7822
▁fühlen~~1462
▁Corp~~19938
▁CO~~11150
▁saß~~6823
steckt~~7287
▁schoss~~7872
Inhaber~~10867
gli~~5145
▁Saurier~~14418
scanner~~17910
▁traditional~~18885
▁Canal~~16378
▁Hungersnot~~7018
▁studieren~~2366
▁enden~~5859
▁hervor~~5939
▁kostenlose~~12282
▁Liebling~~248
aku~~9296
Faktor~~3598
▁Energie~~632
▁Tiefe~~11
▁endet~~4255
Spruch~~6950
▁Arithmeti~~17750
stoff~~1825
aka~~18473
▁sexy~~7486
▁unterhalten~~7530
▁Cultur~~17986
▁Schwimmen~~7866
▁Abhängigkeit~~5181
▁25,000~~20342
▁neige~~20037
Millionen~~14162
mail~~13940
Nachrichten~~18532
Wüstenbildung~~18510
▁heutigen~~1770
▁Carlo~~8751
▁level~~21511
▁unbeweglich~~9071
▁Bewunder~~8811
▁Email~~8050
Claud~~19453
reitschaft~~14429
bre~~7612
▁Eva~~13198
▁zahlreich~~13003
▁operiert~~6578
▁ehrgeizige~~2182
▁hatten~~557
▁Bangladesch~~12547
zulaufen~~13497
Stau~~15761
▁Fach~~1796
▁urkomisch~~14848
▁komplexe~~682
found~~20875
▁Face~~16782
mitglied~~2652
▁technisch~~14339
▁sollten~~3609
▁gewonnen~~1584
⁄~~7502
▁drübe~~708
▁schlimmste~~9277
▁Fungi~~20911
besuch~~15327
▁Carson~~9617
stoppt~~5932
▁Einheiten~~6605
▁stieg~~6307
ical~~15856
▁Konzentration~~4941
▁Muster~~10422
froamerikanische~~18433
isierung~~1228
▁adopt~~17285
▁Meisterwerk~~8756
▁Entfernung~~817
▁Wenig~~18119
▁Ausgangspunkt~~13750
▁begehrt~~19894
netzwerk~~12263
Stiel~~19330
▁Visionen~~12898
▁gerechtfertigt~~16047
mahlzeit~~14153
▁Akkord~~13088
▁Westafrika~~11729
▁eingesetzt~~4389
▁klingen~~3152
▁Katalog~~13902
word~~21216
▁reichhaltig~~18171
ers~~1555
▁peripet~~21045
▁biblische~~18462
work~~14118
▁Mahatma~~15655
▁Ellenbogen~~5527
gestützt~~3736
oyle~~10111
▁Limit~~14359
wort~~7425
▁qu~~3477
▁Crew~~2982
ern~~551
▁Med~~8765
▁dauernd~~9697
vollzieh~~14565
▁legen~~1159
▁Wat~~15865
▁Verlegenheit~~17366
▁weitergehen~~10512
illiard~~3347
▁Schlacht~~6510
gegen~~10925
▁öfter~~10388
▁Sonnensystem~~8993
indien~~6156
▁Way~~20104
ynonym~~7983
▁Literatur~~3087
ual~~1961
▁zurückgekehrt~~11657
uan~~11022
▁electric~~21678
▁reiste~~2974
uad~~1892
▁derjenige~~3821
▁progress~~13462
▁erhob~~18701
▁Star~~3848
ib~~8442
▁Nackt~~9746
▁Stau~~7501
▁skeptisch~~16368
▁flexible~~9920
▁Fri~~12455
▁Berk~~19048
ische~~2174
▁por~~17939
▁Sir~~6609
▁Sim~~13132
▁Sil~~7342
▁laufende~~11169
▁Sin~~961
kehren~~7144
▁lizensier~~10878
▁Performance~~12221
▁Sie~~192
▁dreidimensional~~348
▁Stan~~6407
▁Kämpfer~~6955
lah~~17071
▁schlimmsten~~6911
▁wählen~~2188
lag~~10389
shea~~21655
▁tödliche~~14589
▁Chris~~3391
less~~13932
▁diagnostizier~~14975
▁skelet~~21667
▁Boeing~~16390
▁Week~~17139
▁Heilmethode~~6884
▁Iron~~17093
upta~~19919
baren~~6956
lar~~12106
▁Schwartz~~19818
▁AV~~19615
▁Glukose~~19104
Winkel~~12621
▁psychedeli~~19165
▁Faszination~~13511
▁Schulden~~12687
▁gut~~675
▁Stipendium~~9265
▁erstellt~~8955
▁Linie~~4528
▁Diamond~~17282
▁austausch~~8664
▁kontrovers~~13557
green~~15006
▁Drehbuch~~19822
schneiden~~5460
▁religiös~~11525
fan~~14274
▁beobachtete~~8691
▁Dialog~~6532
▁Rezeptor~~18172
▁zumindest~~3246
▁kontrahier~~19432
▁stammen~~10172
Inneneinrichtung~~5338
geschnitten~~4447
▁Diktatur~~19940
▁Thank~~20688
▁Highway~~14795
▁Surfer~~5440
▁Voraus~~3674
zen~~621
▁lerne~~2162
zel~~6174
zer~~5229
riminalität~~18115
▁Telefone~~16031
netz~~3369
posttraumatische~~14663
Meister~~10673
▁Kloster~~18460
▁gewinnen~~303
▁lernt~~6415
▁Feststellung~~17578
▁unbegrenzt~~8277
daho~~14126
Antwort~~7838
▁Fleck~~2540
▁gemäß~~10402
▁Elektroschock~~3486
tragen~~1711
▁Beijerinck~~21000
▁Anthropo~~13176
▁Irland~~8149
▁verstecken~~1467
▁kilometer~~8487
▁Fertigkeit~~6611
▁Zins~~12511
▁gemischt~~13244
▁Behinderung~~4052
▁Maidan~~21688
▁auszu~~3975
verbindung~~13521
▁herrscht~~2206
▁Pfütze~~1182
▁beschweren~~15780
▁Finanzsystem~~18037
▁Zellen~~5566
▁verkleiner~~3599
▁Verfall~~16653
▁Vereinigung~~15729
bane~~19243
band~~819
▁Sonnenaufg~~9319
verteilung~~7237
Splashy~~19531
▁vergessen~~334
ahua~~15647
▁Richtig~~11825
▁Saft~~13457
ther~~9771
bank~~9997
▁Schrei~~9971
▁position~~13395
sächlich~~17121
▁Brokkoli~~13723
▁absorbier~~3312
▁biologische~~5170
l~~2129
▁Scott~~4398
▁bedecken~~3363
▁Arzt~~6389
▁Schachtel~~7601
▁Dorfbewohner~~18846
▁herbeiführ~~16275
▁rechtmäßige~~18888
▁DARPA~~10244
▁Hausarbeit~~8919
▁verlangsamt~~10549
▁geographische~~8171
▁Lücke~~1863
▁unerwartet~~9338
wahrscheinlich~~10392
▁lot~~13819
▁sit~~5247
▁McG~~3778
▁Lehrbücher~~11108
digit~~21487
elli~~15981
logy~~10503
▁agieren~~7214
▁reinigen~~8081
▁sin~~20779
▁merkt~~9660
▁Vivr~~21118
▁sie~~93
▁Enric~~21064
Gemeinde~~19537
▁Akronym~~17764
▁Silver~~15309
Lampe~~9795
nutzung~~11221
verleih~~17515
▁Verfügbarkeit~~7019
▁eye~~21593
▁Haie~~19592
ografische~~5832
▁Jones~~11419
▁produktive~~16397
▁Fried~~15004
piece~~17936
▁Wissenschaftler~~419
ntzündung~~17569
-1~~10653
▁außerdem~~4768
▁Monitor~~10345
▁verminder~~14473
▁Sinne~~2589
▁Kompliz~~14366
▁pay~~20300
▁Gefühle~~4540
▁zertifizierte~~4954
zudenken~~12399
▁Singularit~~20044
▁Amerika~~3205
standard~~11588
▁Service~~5481
▁ferment~~16808
wiederverwendbar~~19063
▁geringfügig~~16387
▁Reich~~5753
▁Nagetier~~12943
▁Produktdesign~~19718
▁Hinter~~5117
zierung~~9772
ange~~9345
Struktur~~15229
Parade~~14419
▁Wohlfahrt~~12826
~~17628
▁Discover~~13803
▁Flammen~~8067
▁hinweg~~2252
▁li~~11927
▁Inti~~10967
▁entsteh~~822
▁Höhe~~469
▁Laboratorie~~18486
▁möchte~~193
▁la~~3145
professionell~~1314
▁Webseiten~~16723
▁le~~12711
▁wollt~~8931
ouTube~~8875
▁landete~~6490
▁47~~14618
▁langfristige~~14207
▁skat~~20542
Kollegen~~11037
▁France~~13944
Bürokraten~~16123
▁Tyrannosaur~~14388
▁water~~21133
▁Organe~~10737
▁Hüfte~~17138
▁aufeinander~~6635
Einkommen~~17963
ißt~~9692
▁Wölfe~~19116
geist~~12643
▁Hausaufgaben~~7449
Abschluss~~11105
▁Ekman~~21227
▁ADH~~21258
▁good~~21704
▁Kur~~4862
▁Keyboard~~13086
▁transport~~20556
▁Zebra~~10183
▁Herzinfarkt~~16681
raten~~1186
▁violette~~20199
▁rettet~~11620
name~~14545
▁Erziehung~~9075
▁Lazarus~~15425
▁Peitsche~~10558
castle~~20937
▁Buick~~12001
▁Veteranen~~20694
▁Spitze~~2442
▁erstaunlichste~~13247
5.000~~14900
laufen~~5392
▁Schaffen~~9900
▁Angriff~~6539
B~~1000
▁Demografie~~16984
▁Umlauf~~13623
Restaurant~~20030
▁auslöst~~15031
mination~~12207
▁Formaldehyd~~17307
nahm~~7065
▁Internetseite~~18624
▁sweet~~17224
▁Fairness~~6221
▁Plattform~~7258
▁Interessantes~~11824
▁pissed~~21108
wettbewerb~~10961
▁entwirf~~5389
▁Mantel~~14859
ueen~~19398
mweltverschmutz~~10924
▁leitende~~15719
▁stürzt~~9318
▁Ehre~~2826
▁musst~~1303
▁virtual~~20801
▁Unterschiede~~2170
▁Instinkt~~12667
hwaite~~19146
▁Kurzweil~~19279
▁betreffen~~11516
See~~5755
▁Multimedia~~17877
▁later~~18687
kte~~3381
▁Spreng~~12984
▁900~~2375
leihen~~8123
▁zerstöre~~16407
▁methodolog~~18033
▁Anatomi~~2535
▁10,000~~20063
▁tanzen~~1399
▁Kabinett~~17344
▁Bee~~2616
▁Proton~~16149
▁neugierig~~2900
▁implementier~~20182
▁Triumph~~3010
▁genutzt~~9460
bäume~~15135
▁konsequent~~2254
▁Verwandtschaft~~13183
▁folgen~~1302
▁Geige~~17238
▁TEDWomen~~6257
▁Puder~~18007
▁Krieger~~9743
▁Veränderung~~1576
▁Afghanistan~~1771
▁Mexikaner~~9616
▁hervorragend~~1914
▁Pferde~~4969
gier~~7824
▁Case~~18816
laden~~1659
▁überdenken~~7388
▁Finanzminister~~15994
findig~~10411
▁Spezielle~~10541
▁Köch~~13707
stühle~~10921
▁irre~~4079
▁Folien~~14667
▁turbulent~~16460
▁markieren~~5891
▁Ihres~~5498
rati~~12514
▁abgeschalte~~16981
Unterbewusstsein~~6477
▁Geräusche~~3485
▁speziell~~4442
▁Schwach~~7926
▁Mont~~17839
▁Krisen~~9658
▁Syri~~4639
▁Talg~~20102
▁Lern~~1883
▁Roman~~9663
▁Chemie~~2470
Button~~17903
▁halbier~~16873
▁Führungs~~16949
▁überbrück~~11901
▁Mond~~6724
Korea~~20015
▁Mona~~4142
away~~19049
programm~~12234
phase~~13002
▁debattier~~15091
▁wichtigste~~1910
ological~~20213
▁drucken~~15039
▁lebensrettende~~7577
▁schwer~~1725
▁gewaltlose~~11630
▁verdoppeln~~13752
ünktlich~~12524
▁Nahrungs~~4996
▁Mühe~~4759
▁miser~~19411
▁Kurven~~15742
▁musikalische~~3920
▁redete~~14013
▁Raumfahrzeug~~8999
Levit~~21113
▁Niedergang~~19578
▁Cel~~543
▁wöchentlich~~2708
▁Model~~7563
▁Argument~~3416
ieren~~331
▁Kraft~~2825
reserve~~17401
▁geschädigte~~7799
▁zu~~37
mitten~~2425
▁Schriftsteller~~9695
mittel~~5600
ialität~~8824
▁Blumen~~4704
▁gespannt~~5872
sprechen~~5916
▁Verschmelz~~14422
▁Verwund~~3797
▁kontrollierte~~7914
▁plural~~19266
▁Erlaub~~856
▁beschuldigen~~14768
lasst~~8407
▁Schachspiel~~3902
▁angewendet~~6616
teuerung~~1557
▁ungewöhnliche~~4145
▁Trillion~~18921
▁Rechtssystem~~17147
▁omni~~19513
Foto~~17430
udi~~12911
▁poo~~21565
▁Variabilit~~15741
▁verleugne~~15946
▁gemessen~~3345
hru~~18841
sungleichheit~~20581
▁Lobby~~8000
▁worau~~7797
▁had~~21719
▁kommuniziert~~8157
▁Tolle~~8661
hri~~8522
▁Oval~~16095
▁Vorort~~12167
sehen~~2232
▁diverse~~16089
drohung~~6743
führung~~12695
▁rettete~~16459
itter~~14577
kologi~~10816
▁Cloud~~8195
▁arme~~1956
▁Or~~4307
▁kitten~~11586
▁Bin~~7681
di~~5307
▁bullet~~20943
oplankton~~4919
de~~1487
▁Gewissheit~~11789
risiko~~7105
▁Luri~~19170
▁schützt~~5847
▁Bomba~~4163
▁Ob~~11744
▁Gänge~~7513
▁Bombe~~13276
ziert~~2125
▁Oh~~674
▁einschränken~~1305
du~~9442
▁Bit~~8165
kapazität~~4747
▁funny~~20561
▁Night~~4986
▁Unterdrück~~11753
▁weggeworfen~~14895
▁85~~13210
▁Rucksack~~6482
▁verschleppt~~11708
▁unterlieg~~3584
▁Terabyte~~18492
▁praktikab~~12298
▁informieren~~10346
▁held~~2820
Schüler~~11810
▁technology~~19112
rung~~630
▁Industrie~~1582
▁kommen~~390
▁OK~~3412
▁hell~~11874
▁integrieren~~8601
90~~15753
▁Kontur~~18523
▁pur~~20198
▁komme~~4677
fuel~~21334
schreiber~~17742
agnesium~~16715
▁Here~~15697
▁Protestant~~18427
▁1,500~~18040
▁Barrier~~20638
Versorgungskette~~16876
▁unverzichtbar~~19482
linien~~13441
▁kommt~~634
▁erlaubte~~9053
▁Herz~~3045
▁Portugal~~2095
▁Uneinigkeit~~16406
▁KB~~20982
▁zurechtkomme~~17957
▁Lovin~~20330
▁Herr~~3653
▁Richtung~~2087
smöglichkeit~~15501
▁true~~20517
▁Mineral~~14290
▁kritische~~2923
atur~~814
Cluster~~18331
Auto~~19576
▁gerichtet~~14559
▁Michelle~~11762
sourcing~~17927
▁Bereichen~~725
▁nachdachte~~12677
▁Hummel~~16821
▁Seifenblase~~9725
symmetrie~~18565
▁Carolin~~14071
▁fortbeweg~~10273
▁Newton~~10948
erei~~2837
▁heikle~~11440
▁abgehalten~~12728
▁Muttertagskarte~~21250
▁Harlem~~6267
▁vielfach~~6033
we~~7159
▁Ausländer~~14726
wa~~2859
hai~~11702
wo~~1762
▁Fischerei~~5809
aught~~18996
▁Minimum~~15740
wi~~7897
▁heiße~~581
ffekt~~13049
wu~~5112
▁gemein~~7626
▁infinite~~21639
▁epi~~13406
hal~~4834
intelligent~~15103
▁einschüchternd~~18584
lässlich~~15234
▁eindrucksvoll~~18081
▁Strasse~~6081
cop~~20981
▁design~~8010
ile~~10099
▁Grove~~17074
brau~~5363
ila~~15832
▁Berge~~470
ilo~~17193
ill~~524
▁RIS~~20509
▁Gavi~~10028
▁Haare~~8143
▁ergibt~~2116
▁Aurora~~18340
▁Strud~~8085
▁auditor~~21327
▁Gott~~1179
▁gezwungen~~6621
Rast~~21048
▁Schnabel~~9547
vorhersagbar~~3417
▁innehalte~~10620
com~~8119
▁Suzan~~16360
▁Evan~~5318
einrichtung~~8578
lterwerden~~7614
▁Herausforderung~~1636
▁Schmugg~~21092
▁Match~~8247
iche~~5522
▁delete~~4427
▁Nächste~~3741
▁Kuchen~~5200
▁Limpopo~~18382
▁teilzunehmen~~3673
▁Hind~~11654
▁ARPA~~9269
▁entstammt~~18168
▁wirken~~7055
▁Tänzer~~4403
▁Off~~8545
▁3000~~13365
▁einnehmen~~7264
sammlung~~14737
▁Weltfrieden~~8933
▁bemannte~~18309
▁Aha~~14627
▁spaghetti~~17194
▁bewiesen~~8726
▁Selasi~~21633
▁exklusive~~17505
patienten~~2587
▁durchsuchen~~15178
verwe~~17317
mmer~~8531
▁Formel~~14563
▁Formen~~333
▁phase~~20058
schluss~~3927
ietzsch~~16658
▁glücklich~~1517
▁Constitu~~21694
axis~~10900
▁Figuren~~8836
▁dahinter~~6153
nordnung~~12139
cholester~~20421
▁Amazonas~~12718
▁Bruder~~6298
▁show~~21342
▁Luzifer~~20681
▁Respekt~~4671
▁schrumpft~~12675
▁instinktiv~~4546
▁Challenge~~19616
baum~~9047
▁Konzept~~982
▁erbaut~~14804
▁handle~~20545
▁Premierminister~~11248
▁French~~13339
▁Cole~~14427
fest~~3304
boden~~4507
▁Cola~~746
▁Beziehung~~4233
▁Geschäftsleben~~17587
▁Kran~~5463
▁veranlass~~14668
▁ehren~~15605
▁akzeptab~~1674
▁demütigend~~19739
▁Wa~~14605
▁steckt~~1928
▁Bruc~~5922
▁erklärte~~4583
▁GCSE~~20672
▁Flecken~~13219
▁heran~~393
▁investieren~~4898
air~~2795
▁Brut~~7010
ain~~9837
▁Damen~~6210
▁stecke~~12550
▁Takt~~15670
▁Frauen~~2052
▁Moment~~1246
▁erlitt~~15118
▁schönste~~45
▁Schweiß~~16816
▁lauert~~12793
▁proportion~~18391
▁skydiv~~20047
▁herab~~7859
▁file~~20693
vogel~~14399
▁Sofa~~2563
▁dagegen~~5495
▁Knöchel~~17143
thane~~18127
sendung~~8673
Wirtschaftskrise~~13893
Performan~~21070
▁Klan~~21456
▁Carro~~14779
▁unheilbare~~17136
▁christliche~~4486
▁aussuche~~9826
▁diese~~136
▁Swiss~~20772
▁Gerichtshof~~19709
▁leid~~3270
▁geschrumpft~~9676
Geheimdienste~~14718
▁konzeptionell~~5250
schildkröte~~5751
▁Flur~~12240
▁Werkzeuge~~5450
▁Nokia~~13585
▁Zykl~~946
▁Zwei~~8493
▁China~~6820
▁Nevada~~14784
▁Jane~~3051
▁Konservierung~~9461
▁verbannt~~7456
▁DL~~21308
▁Praxis~~8785
▁buchstäblich~~2536
plin~~4400
gerechnet~~8579
▁Nachdenken~~12705
▁Schwestern~~2972
evic~~12497
▁gekannt~~11648
▁Governor~~20424
▁Auffassung~~1088
Zeit~~17674
▁redet~~3866
verkehr~~10933
nia~~5534
hang~~7194
hand~~1765
▁Serviette~~15934
▁durchzu~~2450
▁reden~~1729
nährt~~5796
▁stick~~16852
Y~~3945
nis~~857
▁nette~~13607
felder~~11266
▁Wellen~~150
▁wi~~18008
▁transgender~~21398
▁bevor~~1025
kept~~15738
▁wo~~53
▁desolate~~20598
▁Materie~~13030
svermögen~~7720
▁oder~~133
▁Erkenntnis~~4563
▁we~~2150
▁HTML~~18373
Dimensionen~~21111
gekommen~~601
▁Verstädterung~~7349
▁eingedr~~13980
▁Tierärzte~~14515
▁Speicher~~15804
▁Bürgersteig~~15461
▁1980~~7135
▁Kurse~~8469
the~~637
▁modular~~8584
▁Innovation~~1056
ourne~~3980
kala~~14176
▁höchste~~9310
▁rabbi~~21376
▁Auswahl~~2850
▁magnetische~~15838
▁Glückskeks~~13609
▁kehrt~~16228
▁Mülldeponie~~15525
▁Hasan~~20864
▁erdenkliche~~13025
▁überrascht~~3112
▁Einladung~~5320
▁naiv~~4703
▁thrive~~21454
▁Wohlfühl~~17474
▁Debora~~10352
▁alternative~~7401
puppe~~16422
lkatastrophe~~18346
▁asiatische~~15035
gebiet~~5762
▁Holly~~18031
▁Sichtweise~~4537
▁Imagination~~12930
ourage~~15643
▁beschreiben~~3104
▁Bleistift~~10576
▁nachts~~4597
▁Haushalt~~8934
vielversprechend~~3264
weist~~7775
▁Miss~~6260
▁Verwundbarkeit~~15347
▁Militär~~2451
▁Mist~~11010
▁Mandarin~~17778
board~~5439
▁Amphibie~~9486
weise~~514
basiert~~8693
▁span~~17431
▁Intellekt~~11921
plasma~~18673
▁national~~5851
▁Cairo~~20816
▁Asien~~1853
▁Rezension~~2906
▁Tolsto~~14180
▁verfügt~~8237
▁innen~~9831
▁Friedman~~8504
▁Tierarzt~~17800
▁vorausschauend~~16245
▁Abbild~~2575
▁urban~~12161
rankenhaus~~4050
zuordne~~18558
▁erkannte~~8683
▁inner~~7520
▁Werkstatt~~5342
▁Zentral~~17243
▁Martin~~5317
▁dome~~16824
▁much~~20151
▁Anwälte~~14356
▁abgelenkt~~16206
▁Porträt~~18222
▁Tso~~15000
▁blubb~~20881
smodell~~4527
▁kämpfte~~18935
▁Erlös~~17589
▁Whoa~~7340
kenntnisse~~14965
▁wuchs~~6265
Wettbewerb~~16351
▁Kahn~~15986
▁Gail~~21444
▁improvisieren~~4408
▁Pleo~~21800
night~~18580
▁Mach~~1282
security~~18213
▁neo~~12712
▁Gaia~~21193
▁gepresst~~16501
▁erstellte~~11453
kosten~~6027
▁imperial~~12107
▁Präsentation~~8122
▁Geek~~18999
stiefel~~15358
▁Einstein~~8737
▁Erkältung~~15640
▁Bericht~~1082
▁dauern~~6095
▁Gallo~~5
born~~19066
Ungleichgewicht~~15732
▁serif~~17938
▁dauert~~707
bedingung~~8184
▁jonglieren~~10523
kostet~~10417
omics~~14327
▁Drogenabhängig~~9112
▁informelle~~20168
Amerika~~18084
Lee~~18372
lagern~~4964
endai~~12166
▁Provinz~~11242
/~~5969
▁Lebenslauf~~16432
▁wünschte~~11915
▁vermarkte~~7277
intergalaktische~~18918
▁konkurrierende~~10502
▁Zivil~~9262
lagert~~3069
▁aktiv~~902
gebrauch~~14000
▁text~~20634
School~~11104
wahrnehmung~~13813
▁for~~1755
bricht~~99
▁Fachzeitschrift~~17274
▁Millennium~~11895
▁restliche~~9087
▁pflegt~~16261
mpfindlichkeit~~16238
▁Halluzination~~12864
▁fortfahren~~8801
pla~~10305
▁Brunel~~21182
post~~15272
▁wohlhabende~~15539
Grad~~9368
bahn~~1968
▁hergestellt~~4841
trophy~~11814
▁Kohlendioxid~~15717
Ark~~18265
▁wette~~2914
▁Werkzeugkasten~~17082
▁schmackhaft~~17222
obb~~7451
literatur~~16435
▁beseitigen~~8232
▁scrap~~20891
▁Sonnenschein~~18793
▁bestreite~~6910
▁Tieren~~278
▁realistische~~13773
▁1970~~12924
▁exploit~~17436
▁schnellsten~~17177
book~~19370
▁Differenz~~15803
▁Koh~~15982
▁Strand~~131
▁Urteilsvermögen~~19249
▁königliche~~2507
▁Crick~~19059
▁1975~~8749
▁Feuchtigkeit~~6740
▁suchte~~1232
▁drin~~563
▁Alberto~~17733
▁Pfeile~~18269
ynthetic~~21392
▁trügerisch~~8894
▁denken~~1041
nderungen~~6504
▁Glob~~5977
▁Leder~~11983
▁wieder~~570
▁Stephan~~8027
crypto~~20310
▁Dekade~~5993
wan~~9390
▁Boot~~2945
▁Mat~~2975
ürf~~7575
▁zunehmend~~2659
▁Klischee~~17320
▁lügen~~6516
Blase~~17085
▁unveränderlich~~17247
▁Maz~~11683
▁May~~10433
▁Max~~3275
▁Mag~~567
▁Mad~~4135
▁Mac~~9704
identität~~20378
way~~4864
▁Mao~~17969
▁Man~~6599
▁Earle~~5917
▁Mal~~825
werbe~~10366
war~~5616
▁Mai~~2635
▁Minute~~3790
▁wundersame~~5776
▁Re~~2228
geerntet~~15579
▁Tausend~~10151
▁Pistole~~13251
▁Ra~~2054
inwände~~16769
▁Ro~~4824
▁maps~~20260
▁mochte~~2018
▁edit~~20135
▁Episode~~12043
bereit~~6922
▁bike~~20892
▁Ru~~3182
rauch~~14609
▁Data~~18377
▁Cover~~7413
artige~~797
▁Position~~8989
Militär~~20628
trug~~2306
▁fortschreite~~15692
▁RG~~8539
gewalt~~15316
▁Kammer~~2391
▁Accra~~19798
▁letzter~~2321
▁Tablet~~8828
▁fundamental~~7723
▁Stränge~~14833
▁RM~~13873
▁Johann~~16131
▁Belohnung~~7534
▁gebildet~~6814
▁nostalgi~~10791
▁Kette~~10050
gemacht~~5457
▁Nanotechnologie~~3333
▁Butter~~17718
▁RP~~21139
▁letzten~~722
Kreislauf~~19064
ochai~~12738
▁schools~~19967
▁arg~~17732
▁after~~20632
▁simple~~9136
uerschnitt~~17212
▁geschätzt~~5037
▁Insasse~~9083
▁Somali~~13387
▁konstant~~10336
▁Arbeitskraft~~1255
▁schenke~~12377
▁Dämmerung~~19435
ventive~~20802
iest~~20021
▁phosphor~~20079
▁Gelegenheit~~3079
ueens~~14877
▁große~~816
▁schwitzen~~19672
▁steigern~~12995
dach~~4504
▁unsichtbare~~14541
▁vergaß~~17362
▁passiv~~8839
▁arbeitende~~9925
▁Puls~~18655
▁zäh~~6129
▁neural~~14623
▁teurer~~2006
▁schlicht~~13037
▁Gleichgewicht~~11138
▁Fabian~~18872
glas~~17215
test~~2247
Wasser~~15083
▁Kosmo~~15778
entlassen~~2113
▁gezüchtet~~10150
▁früher~~2225
▁lachen~~1465
▁Motorrad~~6683
▁akzeptiert~~3533
▁Zabbal~~21247
ianische~~11928
▁Galaxy~~20054
▁begleitet~~8215
▁Taiwan~~11235
ienstleister~~14751
▁Insel~~4818
▁Ersten~~13155
▁Billy~~16487
▁kurzer~~13200
▁unterstreich~~3415
▁building~~21212
▁Echtzeit~~2489
▁Snack~~12133
etze~~6110
▁beginne~~4601
nachlässig~~9554
▁eingefroren~~7883
itude~~21300
▁Heife~~17438
▁Camill~~19397
▁people~~16866
▁Güte~~9594
▁obsess~~20614
dienstleistung~~16850
=~~18916
▁italienische~~7483
Mission~~9861
▁ski~~17882
▁McDo~~18808
▁Apollo~~8109
▁umgekehrt~~4536
▁ballet~~21427
▁funktionsfähig~~5420
▁export~~16938
▁Rezession~~14217
▁sky~~16420
▁Verständnis~~2325
▁verteidigt~~14979
verflow~~19257
▁vergewaltigt~~6375
▁lehren~~14967
▁nehmen~~429
▁Auf~~648
keep~~21175
▁begeistert~~2883
▁star~~9067
▁unmittelbar~~6358
konomie~~10819
▁vernachlässigt~~2844
▁Gehsteig~~20291
▁begeistern~~11110
Abschnitt~~13137
▁Marihuana~~13983
▁Aus~~5836
▁Anruf~~8020
▁Standort~~11521
hydr~~8345
▁Gegen~~2891
zone~~5837
▁platziere~~4246
Zylinder~~12027
graph~~8295
▁stolz~~8911
▁seriös~~1004
▁Rupien~~18857
▁Parfüm~~20195
▁beschloss~~2772
liches~~11326
rhythm~~18169
▁nice~~18254
eißel~~17257
▁Klient~~14551
▁jetzt~~449
rella~~14657
▁Kickstarter~~18689
▁Ablenkung~~7491
▁Geduld~~7321
▁schwieriger~~989
▁Pick~~2878
▁MacCready~~18550
▁Britanni~~5116
▁Christoph~~19862
▁Brent~~15984
▁herkommen~~4694
▁vorbereitet~~1868
▁gefolg~~10405
▁Shoot~~18511
▁Ngram~~21449
▁übereinstimmt~~5373
▁Schicht~~8814
Tech~~14287
▁Sammel~~734
▁Liebe~~3792
▁Insider~~14535
▁gold~~18927
▁Stunde~~3444
▁golf~~20853
▁Mola~~21803
▁bewegende~~10912
gua~~9876
selber~~3273
▁administrative~~2215
Vorträge~~14842
▁download~~20251
gun~~1913
▁nochmal~~2580
p~~3322
▁paranormal~~21127
gut~~4794
▁qualifie~~20630
buttermil~~20395
▁Unbehagen~~13064
▁Architect~~18430
▁erstaunt~~7448
revolution~~1620
hell~~20660
▁Strang~~13051
▁eindringliche~~9668
SW~~21160
▁umgesiedelt~~16951
berleben~~9287
verwaltung~~2268
▁entfern~~949
▁ignorieren~~9630
▁Kolonial~~11755
▁250~~8514
▁Zoo~~16630
▁Blasen~~11520
überschätz~~16833
säure~~862
▁endlos~~4406
▁widersteh~~13939
pple~~17242
Ladenism~~20388
▁stimulieren~~16200
▁Love~~3063
▁Schulabbrecher~~6784
▁arm~~7049
▁arc~~21502
▁form~~2742
▁Märkte~~5264
▁befreien~~4761
▁MBA~~6783
▁besser~~1286
▁dim~~13965
▁Welle~~4693
▁Grundpfeiler~~20410
▁veränderbar~~17547
Künstler~~19238
▁art~~2939
▁Haw~~19782
burn~~19496
▁Har~~3072
▁My~~4238
▁Mu~~4006
▁Boy~~2637
▁Manager~~9765
▁wechseln~~3767
▁sushi~~21197
▁Bob~~4394
spinne~~12549
▁zurecht~~4326
gle~~5914
▁Hab~~13182
▁Mi~~6327
▁misstrauisch~~1288
▁Han~~14537
▁Kerzen~~18450
▁Me~~7818
▁Ham~~10082
▁Mc~~6411
bevölkerung~~7657
▁Ma~~3946
▁Hai~~2936
▁Venter~~10307
buch~~8045
▁hinkriege~~13562
▁Durchschnitts~~10692
▁virus~~15235
▁während~~2465
▁Absch~~15145
generator~~19442
▁erstreckt~~2846
versuch~~2750
▁MP~~4484
▁crisis~~21176
▁verhalten~~1042
möglich~~15310
▁Batterie~~9650
▁Charle~~19819
▁verschiedenste~~8658
▁Institution~~7138
▁business~~21181
▁passte~~12152
lastic~~13535
▁interplanetar~~16892
▁abschalte~~20017
▁but~~20396
▁Selig~~17521
▁packen~~1016
erichterstattung~~20232
▁demokratisch~~17486
▁Zell~~7793
emia~~21742
▁Versöhnung~~11923
▁unterstützt~~4274
▁Papp~~9889
▁Zelt~~9312
▁Held~~10597
▁ROV~~20866
▁hart~~1470
▁Scientolog~~18633
▁Helm~~14698
▁Hell~~14010
mobil~~16846
▁Papa~~6285
▁reichte~~12065
flüge~~13231
▁kostspielig~~16636
Serie~~20475
leuchten~~3082
▁dimension~~20673
▁Betrachter~~13464
▁talent~~11818
▁bakterielle~~13432
bwechslung~~2734
▁Langlebigkeit~~7737
leuchtet~~8820
▁injiziert~~4545
regel~~4291
regen~~7677
pont~~9858
Feld~~5017
▁Umwelt~~4085
▁denkbar~~11133
▁Atala~~17984
zipation~~18302
F~~5814
club~~7303
▁Evaluation~~13357
▁Medaille~~14269
mplitude~~18496
▁instrumental~~18692
▁erteilt~~15960
▁fasziniert~~8037
▁Brenn~~5500
▁riskiert~~8391
▁Abstammung~~11338
▁Orchestra~~20181
sklav~~19468
Dink~~21290
▁Mangroven~~20223
▁inspirierende~~10538
▁Afrikas~~6124
▁FedEx~~1506
▁erkannt~~5782
▁Ric~~21006
car~~5652
▁Privatsektor~~17851
geräusch~~12959
decken~~8847
▁Zusammenhänge~~10811
abyte~~20114
schwärme~~12224
▁Kotpille~~21441
▁Lösch~~20067
zeugen~~11412
can~~11422
▁Loren~~20849
cal~~17523
▁Eigentum~~6397
▁stressig~~10969
▁Instant~~15486
ibu~~2835
▁Kalkstein~~16001
▁Edit~~8294
▁Vorzüge~~17539
▁gewerbliche~~9968
▁Ikone~~10857
noch~~2088
▁Prinzip~~2842
chip~~10292
▁Spielzeuge~~10318
▁entnahm~~14391
▁County~~18163
▁erwachsene~~11352
▁gespendet~~14498
▁vollbracht~~15791
topia~~5246
▁Materialien~~3353
▁Unterstützer~~13298
▁ankommen~~456
▁99.9~~19349
▁Putz~~16010
▁herausstellte~~10487
▁Methoden~~2197
▁Gedanke~~3928
▁hat~~84
▁Prothesen~~10275
▁erhielt~~4619
▁has~~11107
▁machte~~2693
▁quantitative~~16759
▁intellektuell~~14091
▁McChr~~6408
▁make~~19770
▁pharmazeutische~~12744
▁Gnade~~15598
▁Heilmittel~~14198
▁Arterien~~2529
,7~~11127
,4~~14254
▁Middle~~10020
▁hab~~1047
œ~~20884
schaut~~11803
▁jährliche~~2339
▁Defens~~10246
▁Solarzellen~~13438
,8~~7942
▁zirk~~14646
▁Hugh~~20926
▁guitar~~21085
▁Konzert~~4276
▁Kapillar~~20062
Nobelpreis~~21003
▁Geschmack~~10689
▁erbärmlich~~7701
▁giftig~~43
▁Griechen~~12634
▁muslimische~~11590
▁überqueren~~454
▁erfand~~3944
▁personalisierte~~8686
▁Cymatik~~21328
▁Vernunft~~6935
▁Copp~~15828
▁Deb~~12636
▁Dec~~19304
▁Signal~~5467
▁teilt~~2062
▁Einschlag~~16135
▁Einkaufszentr~~2142
▁404~~18870
▁überraschend~~1103
▁Stadtplaner~~18428
▁Der~~2934
▁typograph~~21735
▁Knorpel~~20975
▁puzzle~~21107
lichste~~6089
Ship~~18314
▁entsetzlich~~5951
kurs~~5898
▁Proct~~21158
▁ergänzen~~7400
▁Sozialarbeiter~~17019
▁aussetzt~~15240
Druck~~9185
▁Interview~~7279
ender~~6907
▁privat~~15923
▁schickt~~10016
▁Stern~~12554
▁Victoria~~15166
ssystem~~642
▁konsistent~~16247
▁Dün~~14494
▁Einzelperson~~1150
▁Milliardär~~18318
▁kombiniert~~4386
coli~~19155
▁Helen~~16797
enden~~2743
▁grundlegende~~2043
ular~~2660
▁entdeckten~~2746
▁Chile~~1860
▁Child~~11892
▁Menschenmenge~~14889
verschwenderisch~~15126
▁gescheitert~~6590
▁Palast~~12425
▁Wachstum~~7187
Delhi~~19640
▁schottische~~13882
▁toll~~847
▁schauen~~143
▁anerkennen~~13650
▁Opportunit~~20467
▁neck~~8377
▁destruktiv~~11584
RA~~18079
RB~~16727
▁infiziert~~1008
RL~~18376
ttendee~~20568
▁Anblick~~10959
▁Asphalt~~15456
▁zweitgrößte~~7196
▁food~~20956
▁geraten~~9662
▁legal~~7233
▁verstanden~~10278
▁gekommen~~608
fline~~8092
▁Ausgaben~~1936
▁Reparierbarkeit~~21765
▁Mitleid~~11795
▁gestresst~~11001
▁ablenken~~9010
mba~~9449
sproblem~~9991
▁Seife~~14015
halb~~4779
nox~~20117
▁Grenze~~195
dunkel~~15746
half~~6686
not~~8712
▁Zahl~~5767
▁Stirlingmotor~~20470
▁Anstrengung~~2313
▁Bra~~9845
▁unlösbar~~13831
▁reiß~~6294
▁pazifische~~5863
spazierg~~16525
▁lateinische~~11371
▁Obama~~12212
spielen~~6343
▁zerstören~~926
▁Opfer~~6708
▁einfallen~~9960
▁Rauschen~~9154
▁Respons~~19383
kern~~5340
rüstung~~11640
▁rank~~21384
▁Pedr~~4906
▁Volks~~12060
▁gesendet~~4418
▁Kompetenz~~2839
▁un~~1313
▁um~~205
spieler~~5432
▁Angel~~9384
▁Wirtschaft~~1011
em~~533
el~~377
▁sorgte~~11706
en~~26
ei~~591
eh~~4225
ek~~4369
▁drängen~~8706
▁Radi~~8986
ed~~629
eg~~6586
ächte~~2832
▁Kabel~~5543
eb~~7224
▁erleide~~9577
▁bekämpfen~~7826
▁entsprechen~~11179
ex~~3624
▁gegeben~~3504
ez~~12050
▁2008~~3236
ew~~10958
ev~~11256
ep~~4833
es~~783
er~~190
betrieb~~8351
▁bauen~~5211
▁geworden~~1176
Sammler~~16079
▁Klo~~10207
▁Analphabet~~12013
schlaf~~5475
feuchtigkeit~~16572
▁Attentat~~15007
▁Ausgabe~~14183
▁Mountainbike~~1608
angst~~19540
▁Kle~~5185
▁Hippocamp~~11370
▁Diagnose~~6861
▁schenkte~~16885
▁Streitgespräch~~19611
▁Exoskelett~~21322
▁Fitzgerald~~13917
▁Verzerrung~~14620
▁Fahrzeuge~~8333
▁Westküste~~4524
zählt~~726
glück~~6906
▁befreit~~5182
▁ausdrücklich~~11524
▁zurückzu~~2238
▁Fä~~771
ameisen~~18930
▁den~~38
punkt~~4774
▁replizieren~~17844
▁dem~~240
▁Laptop~~1309
▁Wilkins~~19212
▁radikale~~7809
▁Klassenzimmer~~3171
▁Person~~2591
▁der~~10
▁des~~12
▁Sachverhalt~~18335
lma~~8361
▁Heu~~12310
einheit~~2097
▁Höcker~~20946
▁Bestrebung~~11747
▁Nahrungsmittel~~5195
liefert~~4230
▁Schatz~~15423
▁Piraten~~9969
▁Stanford~~5484
▁mine~~21304
▁zuvor~~2544
▁ausbalancier~~10880
▁Kanu~~19010
▁Status~~8236
▁Küchen~~8007
▁spannende~~15117
▁gefühlt~~9301
▁Rhinovir~~20930
▁schlau~~2085
▁Jahrzehnte~~6127
▁Haken~~10052
▁Handwerker~~10077
▁weather~~21351
blind~~9388
xi~~6857
▁temper~~21357
▁wahnsinnig~~7110
▁Meilenstein~~7752
▁Nachbarschaft~~6369
▁angemeldet~~11463
▁planetarische~~17465
▁risk~~20735
▁prompt~~18766
▁Anleitung~~10018
▁recht~~815
▁erworben~~14082
▁infant~~12398
▁verdeckt~~8202
▁riss~~9963
▁interstellar~~18758
bibliothek~~15034
rine~~11017
▁Motivation~~8728
▁Planeten~~119
▁Niederländer~~3213
▁bewegliche~~9034
eranschaulichung~~8946
▁Gerüche~~5191
▁Hea~~18777
▁festzu~~8296
gewinn~~15343
▁stoppen~~4981
▁Station~~3438
zufinden~~7514
▁zwang~~5288
▁Einzelne~~3724
▁geringe~~7580
▁schießen~~656
▁forensic~~21261
▁nachfolgende~~12085
▁glauben~~1378
friend~~21237
länder~~12073
▁Verzweiflung~~5614
nehmen~~649
▁Comics~~14272
lächelt~~18840
▁Leib~~16839
▁flip~~21661
schreibt~~1278
schlecht~~19817
zucht~~13652
▁Saint~~17883
▁Luxemb~~1946
▁Ausrüstung~~6494
▁Leit~~12565
▁Craigslist~~17507
▁Neuro~~2490
▁Ford~~12644
anischen~~441
▁General~~13299
▁schließ~~10128
nehmer~~4809
▁Offenbarung~~8827
▁empfand~~7507
▁Mais~~7109
▁akute~~18262
▁Drogen~~6356
▁Fettleibigkeit~~9480
▁Gläubige~~11667
▁gewachsen~~10010
▁tolle~~3506
▁Chee~~13717
▁musizier~~4063
guckt~~5159
geht~~2868
▁Teenager~~2773
▁abkühl~~15855
▁Töchter~~8938
▁pragmatis~~11668
▁größtmögliche~~15093
▁Rekrut~~15330
peace~~19534
▁merc~~20663
lüfte~~8755
▁Flughafen~~4682
▁Hallo~~2501
▁mode~~4467
▁ahnte~~3085
▁Floren~~8750
Mail~~3875
▁erleichter~~11083
▁Huaorani~~20859
ctic~~21100
oleum~~16348
▁Aroma~~9511
▁Demo~~3282
▁beleuchte~~17037
uten~~5660
▁12~~6326
▁versicher~~8527
▁Komplex~~16148
▁Indiana~~14606
▁beliebt~~4375
▁eingeschlossen~~12434
▁Notfall~~13369
▁Hama~~14526
▁Streichholz~~16515
▁groß~~743
▁Express~~13732
leiden~~13665
äugige~~19042
echanical~~18911
▁Nachtwey~~18896
▁überzeugen~~6588
▁ausgesucht~~5261
▁Po~~2895
▁Ph~~5794
▁Pi~~6366
▁Authenti~~13888
▁Veranlagung~~5909
▁Pe~~10764
▁Pf~~4803
▁14~~7034
▁Brutstätte~~19608
▁Pa~~845
▁dunkler~~12435
▁Kyi~~12820
▁Klang~~3968
▁verkündet~~7398
▁Pu~~6793
widerstandsfähig~~57
▁enthüllt~~7982
▁Elektronik~~11998
pä~~2172
▁irgendwie~~406
eidung~~13390
▁PM~~17645
▁16-~~14934
▁PH~~15226
▁Wortschatz~~5369
▁Chaos~~3783
▁Aktien~~3732
▁begann~~2925
▁lustig~~1457
ance~~4190
uniz~~15270
▁Henry~~6299
▁able~~12715
▁Natasha~~21445
fahrzeug~~16982
runde~~8857
Marathon~~11815
▁tweet~~7951
plünder~~12055
▁erfreulich~~18811
▁neueste~~9517
▁stabilisiert~~15537
▁PR~~5638
opfüber~~6061
▁Umar~~6137
▁diffuse~~16577
▁rust~~19710
▁rund~~3314
▁steuern~~2514
▁philosophische~~7397
▁Schreibmaschine~~18865
▁Tele~~17248
▁jüngere~~6331
▁Prämisse~~15922
▁Erreichen~~5152
▁Genen~~7843
▁Behälter~~12358
▁steuert~~16579
▁Verdrängung~~6930
▁cover~~21728
höhe~~7903
▁Kemp~~20246
SP~~14187
▁Blatt~~3528
▁Labyrinth~~9316
▁inspirierend~~9924
▁wesentlich~~3120
Z~~8818
▁Protest~~11718
stair~~20526
manager~~18821
▁Texte~~4300
▁durchsucht~~12570
▁fantastisch~~1497
▁intelligenter~~6214
▁Folgende~~3658
gebrochen~~8585
▁abgelegene~~4817
▁esoteri~~16467
▁Communi~~8155
▁Limonade~~19254
▁versteh~~3118
▁Flach~~14317
▁blinde~~12935
▁verbreiten~~4517
agentur~~15880
Interaktion~~14304
▁weitergebe~~4097
schreibung~~8808
▁Kontinent~~5787
▁Post~~8011
PJ~~9528
▁hindeute~~16283
▁Dogg~~20216
▁geographic~~20961
▁mittler~~4474
▁Li~~10066
▁etwa~~125
▁verbreitet~~3511
▁Test~~2452
▁Tric~~8893
▁Gilbert~~17535
▁Paare~~7430
held~~17364
▁Handels~~7092
nägel~~680
▁rechnen~~16244
leuk~~9471
▁Spieler~~1380
▁Tee~~10792
▁begründet~~15346
förmig~~7717
▁Handeln~~12665
urdy~~20434
▁wall~~19852
▁verhandelt~~16860
▁wahllos~~15060
▁verweiger~~6717
▁korrupte~~14763
▁Neue~~12803
▁pigmentierte~~21532
▁Geschw~~17114
▁irrational~~3418
▁Nordirland~~18426
▁Camarasaurus~~21802
▁Landes~~1962
▁ganzheitliche~~7403
▁Monaten~~2723
▁Aktivistin~~9603
▁Schutz~~5667
Website~~18907
▁meldete~~9381
▁Linsen~~18332
▁inspizier~~15540
▁Besprechung~~11786
▁Elite~~7466
▁unge~~6813
▁Um~~8961
▁Alex~~4378
▁Konzerthalle~~11251
heizt~~15917
▁Stacey~~19738
▁wert~~1142
▁charmante~~13957
▁nachdenklich~~2897
▁Fotografie~~14532
Algorithm~~18695
▁AlloSphere~~13411
▁192~~13360
▁Chemotherapie~~13116
3~~2337
reiten~~9501
wechsel~~3429
▁fürchte~~5206
▁Building~~14789
▁Niagara~~10990
▁Eagle~~4239
▁Orion~~12630
▁erleuchtete~~18615
▁Büch~~18640
▁katalysier~~15236
▁sieben~~3545
▁Lion~~15460
▁Verpflichtung~~5737
▁sprach~~4636
▁Google~~4653
Wert~~3933
▁UV~~8794
▁ausreichend~~4001
▁Ich~~1201
▁älteste~~11271
▁Intellektuelle~~11569
teilung~~2066
▁Pseudo~~21101
▁könnten~~2712
▁Improvisation~~14862
▁way~~20902
▁übersetzt~~12612
männer~~7602
Team~~7899
mittelalterliche~~19765
▁Pier~~3077
▁Mustererkennung~~20344
▁Meta~~14502
▁Northwest~~4866
▁Gesellschaften~~11625
ischen~~2200
abgeordnete~~6019
▁Internationale~~16888
Universität~~7473
▁Anonym~~18599
▁rent~~20333
▁aufrichtig~~4557
送你葱~~21341
▁Larami~~20522
nerzähler~~2658
▁Jungfrau~~10579
▁Everest~~6729
schnell~~2961
▁Portland~~11773
stimmt~~6912
▁sollen~~1189
▁Professor~~8714
▁Futter~~10196
ischer~~3316
isches~~10492
▁hingeg~~10926
struktion~~15662
▁Course~~8518
▁geschah~~1127
▁50-~~17653
▁hingeh~~4548
▁verschaffen~~1091
▁Birne~~16870
▁begünstig~~16062
▁fixiert~~9639
ynagog~~19019
▁verzweifelt~~6148
Sache~~14982
▁Kalzium~~14396
▁Philosophie~~2681
▁entsetzt~~10381
cycling~~17183
▁Machine~~13781
▁feste~~11804
▁elegant~~3017
▁aggressive~~6875
▁Senegal~~17207
▁äußerlich~~16897
▁Traktor~~7035
▁erwerb~~16986
▁fossil~~5054
▁Absicht~~3491
Stick~~14320
▁Asteroiden~~15770
▁Synthese~~16145
▁geknackt~~12164
▁Straftat~~14587
▁Islam~~18153
▁andere~~302
▁gesehen~~83
▁Verschiebung~~12076
▁Front~~9411
▁bedeutender~~16034
achse~~540
avian~~20191
▁Starbucks~~15063
geschoben~~17752
stema~~20178
▁Herde~~12726
▁passt~~4226
▁Geparden~~20192
▁Convention~~21190
▁Medina~~20601
▁Imam~~11670
steigerung~~15606
apien~~11311
▁UN~~11214
▁Malerei~~8799
▁Schuldgefühl~~11947
▁passe~~7528
hofft~~6591
▁Franzose~~15635
▁Untertasse~~20267
▁frische~~6460
eit~~3588
▁hinunter~~4789
▁3-~~8895
▁regional~~5265
bereiten~~5877
▁3.~~9325
▁einbaut~~14150
▁geek~~20699
▁35~~2005
▁34~~3165
▁37~~7445
▁36~~5677
▁31~~16032
▁30~~2775
▁33~~15190
hintergrund~~2035
▁Salat~~13722
▁Sculpey~~13560
▁vermeintlich~~10785
▁Pyramide~~13687
▁39~~17590
▁Drittel~~3652
▁Serious~~11157
ein~~911
▁Fürsorge~~15594
Sharing~~15379
▁baby~~12092
ströme~~7431
schwingt~~16555
suppe~~4925
▁weiß~~363
metric~~16462
▁Adipositas~~20782
▁Blair~~17743
▁Wörterbuch~~14147
▁sh~~20214
▁folgende~~3627
strömt~~837
bias~~20478
▁loswerde~~9865
▁Para~~11743
▁herauszu~~1634
▁hängen~~8540
▁Versuche~~6184
▁face~~19476
▁schlechtesten~~2092
Israel~~4646
▁Darbietung~~15682
▁Impfung~~8546
litz~~6714
media~~19695
Prinzip~~10899
▁sw~~21614
food~~13673
▁Vorzeige~~11995
Charm~~2487
▁null~~12227
▁abgeb~~7590
▁NPR~~21371
▁triff~~566
▁betäubt~~16519
▁unterirdisch~~18449
▁lesbisch~~11688
▁kleb~~9102
▁Krone~~16817
bedarf~~5781
Č~~21729
▁Doktorarbeit~~18886
▁Poly~~4832
▁bestmögliche~~8517
iful~~11029
▁potenzielle~~10441
▁setzen~~2276
▁Branson~~18322
L~~8185
stündige~~17369
▁Franc~~18849
Lorenz~~5299
brigen~~11853
gefordert~~10860
▁Pole~~14540
▁reist~~5428
▁Wolken~~8867
tradition~~15586
▁vorhersehbar~~3420
▁hineinsteck~~17564
wählen~~11941
▁Bonnie~~18164
theater~~9980
ī~~21636
▁Köpfe~~695
▁Stempel~~14973
▁involviert~~6161
▁Windrad~~20885
▁blu~~17160
▁kompliziert~~2521
▁Essenz~~12401
▁bli~~9400
▁Magen~~4874
▁Firewall~~16675
▁Pluto~~16890
▁atmospher~~20529
▁bla~~11887
▁punct~~10688
darstellung~~12561
lösung~~7132
üsse~~11519
▁schliess~~7770
▁Lindbergh~~17140
▁Maya~~18618
▁Schrödinger~~13444
knete~~17563
▁effektivste~~14347
Service~~19390
▁Dunkel~~5662
▁gesagt~~220
bieten~~3925
▁coloniz~~21713
▁verschlimmern~~18241
▁Monarchie~~19404
▁Whewell~~15781
▁Twitter~~3904
▁Dokument~~9224
▁pre~~9092
relevant~~17615
▁Mem~~16155
▁Ebert~~19653
▁pro~~619
▁Cyborg~~18884
▁Lithium~~16720
▁Schmuck~~9827
speed~~20372
▁Bengal~~21020
▁Sushi~~11160
▁mechanisch~~17266
▁Priorität~~16227
▁griff~~6921
▁offer~~17410
▁wesentliche~~1485
▁Ausdauer~~13133
▁kombiniere~~10161
▁Ji~~11963
Analyse~~18566
▁propriet~~21271
▁laughing~~20704
▁Stärke~~2263
▁schmecken~~10158
▁kurz~~1574
▁Ehefrau~~6718
▁einschließ~~15535
Technik~~10665
▁heterosexuell~~15419
invasive~~18522
▁offen~~5601
▁drücken~~436
▁dünn~~9191
▁Spaghetti~~16903
ami~~14266
▁subjektiv~~20196
▁wage~~2300
▁Je~~11125
▁Supermarkt~~4580
amo~~17326
▁Doug~~9352
read~~5127
▁Sibirien~~13238
ame~~9987
giebig~~2733
allererst~~8659
▁aufgenommen~~4293
▁Petrischale~~14661
▁chinesisch~~15001
▁Argumente~~10680
amp~~3812
▁Autobahn~~7484
blutet~~21075
▁Kühe~~5272
▁Synchroni~~13082
▁auto~~1280
▁fish~~18253
▁Myzel~~18397
dienst~~10063
Energieeffizienz~~15370
▁Christi~~13550
▁grave~~20252
▁situations~~16620
▁Inneren~~8191
▁miterlebt~~6940
▁Bandura~~20420
▁Bühne~~3243
▁Tage~~2552
▁Phase~~9375
t~~115
▁Fußnote~~10856
▁originelle~~19267
▁CDC~~15443
▁Tribu~~17008
pflege~~3250
▁furchtbare~~10823
▁Bestäuber~~12326
Diagramm~~19210
▁Maeda~~13821
▁Kolonie~~277
fäng~~7475
▁sand~~7162
▁Leicht~~16073
▁Maurer~~19351
▁Supermärkte~~13740
schiedenheit~~11568
▁Asperger~~14129
▁flächendeckend~~14725
▁sank~~13217
Mart~~12925
▁verschlimmert~~16719
▁langwierige~~9155
▁dort~~344
Erlebnis~~4367
▁unbegrenzte~~7666
räumen~~3361
gerissen~~3440
▁Seth~~18013
▁verwundet~~17996
05~~19069
▁Gro~~17389
freiheit~~10896
▁Barbie~~19335
▁fettleibig~~5065
demokratische~~12799
lassung~~8486
▁Zeitpunkt~~5114
▁Gra~~9350
▁Seide~~15264
zogen~~10521
▁Lago~~19797
▁außerirdische~~7964
▁kongolesische~~19464
Alphabetisierung~~11674
▁else~~20146
Interface~~18286
▁Plexiglas~~17390
▁Lage~~1043
aussicht~~17230
willig~~5437
▁Begrenzung~~8266
▁Detektor~~10438
felt~~13033
▁weitgehend~~14004
▁verloren~~1217
business~~19958
▁Fassade~~14866
▁profunde~~16458
▁spürt~~12032
habt~~3393
▁linder~~14637
▁Reptilien~~9610
lvani~~10803
▁Zukunft~~1108
▁zugrunde~~2126
fragen~~8453
▁Vorstand~~10970
artig~~9256
raum~~354
▁Ecke~~6243
▁bewerte~~8614
▁Labor~~510
▁Penis~~16671
gründung~~13147
▁Orten~~4451
▁Tennis~~8249
▁umzingelt~~8077
▁jede~~1787
angriff~~13323
▁tanzende~~10325
▁bewohnt~~801
▁Geburts~~1435
▁Brahm~~21060
orchester~~17269
▁Diaman~~6711
▁versorgt~~2984
▁Steckdose~~9655
Computerprogramm~~16279
▁entstehen~~4928
berweisung~~20169
▁Ingenieur~~7780
▁innovativ~~1267
▁getötet~~4980
▁Avelile~~20123
▁done~~21302
▁Jeff~~14037
▁TEDxC~~13342
shaw~~16008
▁Bogota~~16033
▁McDonald~~15002
▁merkwürdige~~16478
▁name~~13951
▁Zweig~~9040
▁Urin~~9615
▁Ritz~~13925
▁Expedition~~8304
▁Sergio~~20729
▁amorph~~8129
▁abgegeben~~18860
▁Wähl~~19747
Store~~18099
▁beschaffen~~6248
▁Kuwait~~17598
log~~7334
▁sterile~~16162
▁Kettensäge~~21074
▁definieren~~1034
loh~~14875
beruf~~17298
lon~~6523
hertz~~9978
▁Wildnis~~4958
▁Flo~~13553
los~~987
lop~~9921
▁bewarb~~18712
▁sprint~~7308
low~~17758
lot~~9176
ographisch~~16992
▁kratz~~790
▁Ger~~7703
▁bedeutendste~~8822
omfort~~7140
▁Frieden~~4715
▁Gates~~6237
rechnet~~13640
▁Trends~~11618
älteste~~11727
▁Solidar~~15329
▁soziale~~1052
▁Befolg~~20319
▁wirtschaftliche~~2105
▁Gewehr~~1027
J~~8346
▁tropische~~12365
▁Trinkwasser~~9488
▁Hütte~~13633
▁Terminal~~14882
▁yea~~4396
▁würde~~855
rechnen~~13187
▁gest~~9686
▁vorbereiten~~15069
genetik~~13146
▁Director~~15830
▁unzureichend~~18229
▁empfinde~~8025
▁LS~~21292
Wirtschaftslehre~~12713
▁Exo~~8991
hirn~~9416
▁Ehepartner~~12456
▁Kühl~~12902
▁irrsinnig~~10904
▁Düngemittel~~18235
▁erstaunlicher~~8647
▁Bemühen~~19058
▁finster~~13669
zentr~~5090
▁Cliff~~19745
▁finanziell~~10505
▁bearbeite~~21208
▁Schokolade~~6713
▁pflück~~18506
Nobelpreisträger~~11902
▁Champagner~~19509
militar~~11767
▁Pimp~~21685
▁Command~~21423
▁Solarzelle~~14650
▁Händler~~7068
nerv~~14467
▁Rita~~19995
▁McKi~~19951
▁Kapitän~~4721
▁extra~~10152
▁kleiner~~369
▁Grand~~10988
▁comics~~16493
oulder~~19296
▁meiste~~184
▁Sandel~~16393
▁Herzschlag~~9418
▁elementare~~8634
▁Union~~9544
▁Begründung~~14520
▁amateur~~12432
▁Velcro~~20061
sorgt~~10923
▁Schädigung~~7774
▁DMCA~~10886
eight~~21778
▁Mitgefühl~~4672
▁Stillstand~~5926
▁funktional~~10922
polar~~17059
▁Burger~~15003
▁Kehl~~11347
▁doodl~~21022
▁pack~~14652
▁Katastrophen~~7748
▁käme~~5852
drücken~~4231
Fernando~~17954
▁teilhabe~~13270
▁Sumpf~~14805
sekunde~~9678
▁Gäste~~14530
▁Drohne~~19622
▁Holzfäller~~19051
ido~~15483
▁Verlauf~~5349
▁Kehr~~15815
▁Güter~~10836
▁Befehl~~10298
▁Sensoren~~520
▁schwimmen~~4842
philosoph~~13710
▁Grüne~~18356
▁Bosnien~~11684
▁Härte~~19101
▁anfertige~~17191
zettel~~7479
uinea~~13140
quisition~~19344
▁fang~~13880
▁regne~~12596
▁trug~~6682
▁OLPC~~9860
▁Kasparo~~20624
▁Textur~~12335
▁Lüge~~14586
▁Krawatte~~12499
▁Spiegelneuronen~~19321
gestrichen~~3395
▁örtliche~~9147
stange~~17388
▁morgendliche~~14876
konzept~~5294
▁bereu~~17585
▁maximier~~11538
▁Höhlenmalerei~~2654
▁zustande~~6112
▁Altersgruppe~~10630
▁pasteuri~~18398
▁Genetik~~10169
missbrauch~~18507
▁adapt~~14665
▁Spät~~14468
▁Bindung~~9531
▁Fläche~~9133
erkeley~~5343
▁unruhig~~2713
▁drum~~18783
▁Rohstoff~~6997
▁Ballon~~14708
leite~~3537
▁fabrizier~~17850
▁Schraub~~3465
▁Infanterie~~19785
▁wunderte~~5194
cliff~~19897
getränk~~4805
▁Westeuropa~~7566
▁Liquid~~14222
▁Meeresgrund~~594
▁verspreche~~17137
putzt~~14049
produzent~~18239
▁Men~~12061
▁Korallen~~5715
▁Mel~~13337
banish~~21461
▁Emanzipation~~17349
▁kalte~~7886
▁begreife~~3419
▁versteckt~~3409
▁poop~~21566
▁Vi~~2755
▁verfügbar~~7710
liehen~~10013
frontal~~20906
very~~19982
▁schrieb~~2331
▁Va~~8759
fährt~~7684
▁versu~~14980
verb~~8290
▁Wall~~10809
▁Krokodil~~17640
▁Chance~~1528
▁friend~~21680
▁Champ~~16778
▁Turin~~19941
▁schmeckt~~8431
izz~~17814
▁Rwanda~~20487
▁unwei~~19604
▁Geldwäsche~~21114
▁evolv~~17922
▁arbeiten~~1207
mounted~~21477
▁leistet~~11313
▁trotzde~~2397
▁Artenvielf~~10148
Reise~~19138
▁Stra~~10024
beltäter~~14470
oberfläche~~3971
katastrophe~~17396
▁Wesen~~253
▁Grammatik~~8072
▁vereinfachen~~9132
-3~~19446
-2~~14962
▁arbeitet~~4188
kette~~13705
holfen~~4753
▁leisten~~1786
pul~~5434
▁Neocortex~~20775
▁zerstört~~4968
▁monoton~~14076
ausbrüche~~169
▁Links~~15176
▁Simpson~~17741
▁Jüngste~~10804
▁metropolitan~~15479
▁integrat~~21184
▁Capital~~18289
▁Kunstwerk~~8790
ococcus~~18922
▁kühne~~14026
Robi~~19972
platten~~14724
atory~~20929
▁Geste~~16002
▁besagte~~18489
▁Kate~~7323
▁voran~~14199
Patient~~16703
▁Notiz~~8044
Kriegerin~~20603
infiziert~~15420
▁Bevoelkerung~~21465
▁grob~~3038
▁einfach~~930
▁Jarrett~~21234
▁dream~~21553
▁Nachhilfe~~7450
onne~~18451
▁think~~21784
▁Einblick~~2298
teraktionsdesign~~21332
▁spannendste~~13798
▁slipper~~21621
▁journalist~~17101
▁Karen~~14178
▁akkumulier~~7689
▁völlig~~925
▁verkörpert~~13636
übertragung~~4200
▁Mathematik~~2158
▁Irakkrieg~~10697
▁unterteile~~14963
invasiv~~19449
▁Appli~~19384
▁Stickstoff~~16916
▁Bagh~~18732
▁neutrino~~21603
Familienmitglied~~18226
▁Breivik~~20677
▁Hummer~~19231
▁unterteilt~~12609
▁vorherseh~~3093
▁Bereitschaft~~18563
▁10.000~~4584
gged~~17423
physik~~10435
▁ausgestattet~~8221
▁verboten~~6699
rgänzungsmittel~~19552
▁repariert~~8114
▁Flug~~2308
widert~~12533
Unternehmer~~19256
▁diagnos~~20175
▁radio~~10386
angebot~~12343
▁ADHS~~14130
▁Dewey~~20406
▁Hot~~10118
amount~~5650
▁Säugetier~~10171
▁Massaker~~18215
▁Flut~~2950
körner~~15092
akademi~~6471
▁existiert~~238
▁Hyo~~21403
▁erfuhr~~6838
altech~~15206
Beziehung~~6353
▁griechische~~4115
▁ablehnen~~11545
▁kollabieren~~15363
▁trivial~~20204
▁fortschrittlich~~13659
▁pin~~20271
▁fließ~~9685
▁beachtet~~12871
▁sozio~~18830
▁wiedererkenn~~9866
▁benachteiligt~~14098
halle~~11250
▁beachten~~4829
▁Gladwell~~10425
▁Ergänzung~~16813
▁Schwa~~4784
▁besetzt~~17007
ressourcen~~5806
zunutze~~13978
▁Madagaskar~~13515
hren~~6119
▁kraftvolle~~6649
▁release~~21211
▁arktische~~15355
▁Hosentasche~~6808
▁psychische~~16898
▁Liste~~1585
▁repress~~19078
▁lernen~~966
▁User~~17205
▁remix~~10844
▁community~~21387
orporation~~5068
▁veröffentlichte~~2326
▁humans~~20488
▁fund~~17246
▁verlangsam~~17236
▁erwähnte~~7771
gebiete~~5884
▁Appeti~~5118
▁riechen~~5202
▁kooperieren~~9079
▁begriffen~~11344
▁Ausweg~~14361
▁normal~~668
▁Gebet~~9450
▁nenne~~5099
▁Verbrechen~~1249
▁Mandelbrot~~18954
▁schöne~~5505
▁Tour~~5431
▁Annäherung~~8381
▁Arme~~2581
larmanlage~~14734
▁Geisel~~6318
▁erschwert~~5394
▁Reader~~5308
▁wärmer~~15723
▁ausdrückt~~14360
▁Diskriminierung~~12827
▁signalisiere~~17150
▁begleiten~~15116
uarter~~9949
▁veränderten~~2047
▁Migration~~2034
▁dialog~~13771
▁steigert~~12264
▁konventionell~~19953
▁Mediterrane~~16575
▁Adrenalin~~7487
▁Melodie~~3972
▁Reihe~~873
▁Rica~~5827
SS~~8968
firmen~~15248
Fünf~~18956
▁Mikro~~350
▁Far~~16325
▁Entbindung~~14505
ST~~18369
▁Wirksamkeit~~16461
archiv~~2711
▁Hob~~10070
richtlinie~~15969
▁63~~14892
SA~~7189
▁Eindruck~~5752
▁Lampe~~9800
SE~~19161
erala~~13372
▁Befriedig~~7295
▁beneide~~5647
▁akustische~~4109
▁comedy~~21436
▁seismi~~19270
▁Intervention~~14109
▁betrachtet~~4197
▁emergent~~17677
olumineszierende~~16199
zwingen~~12834
▁betrachten~~1906
▁Rich~~10567
▁Los~~4791
griff~~15432
▁Mücken~~12359
▁Betracht~~11827
▁Schätz~~5870
hhh~~13854
▁Perspektiven~~2748
▁optical~~20210
▁Major~~19742
▁Anspruch~~8515
▁Gerade~~14529
▁Rick~~15931
▁realistisch~~11458
▁Elektro~~14644
▁Tree~~14461
▁Hotmail~~21537
▁billigste~~16285
▁Fragen~~2137
▁Low~~13689
▁Maß~~14744
▁Lord~~2841
▁Fat~~13317
zuleiten~~19375
▁vermenschlichen~~10666
▁Bestechung~~14905
▁gefesselt~~15874
▁Atomkraft~~13662
▁Programme~~4532
▁Hey~~6344
ft~~1273
fu~~3878
▁Schreiben~~9929
▁Cyberkriminelle~~19942
▁Her~~3986
▁2006~~2706
olecular~~10449
▁2000~~1998
▁2001~~3754
▁2002~~5325
plikat~~10210
fa~~4462
tries~~21008
▁Freitag~~5162
▁schlecht~~1044
fe~~5149
ff~~2860
▁Positiv~~16867
fi~~536
▁Großstadt~~13145
▁mitmachen~~11926
Sensing~~15872
▁misshandelt~~18635
a~~1002
trazin~~9458
▁Umgebung~~425
▁Who~~12527
berschrift~~12245
▁Gutenberg~~19883
▁Graham~~12468
▁Gefecht~~6633
ï~~19955
▁Lob~~2907
kalien~~17186
▁Daw~~9635
▁13~~818
▁psychotherap~~5610
▁11~~2336
▁10~~1239
▁17~~4353
▁16~~5506
▁15~~2345
▁Wunder~~2621
▁19~~5045
▁18~~2726
▁Funktionen~~11418
Film~~10843
keit~~2791
▁wildest~~15793
▁phone~~21564
▁einig~~9557
help~~21549
▁brachten~~9080
▁erschöpf~~9353
▁universit~~18048
▁Prius~~13660
▁herumtrage~~13594
▁Log~~12191
inosaurier~~14378
▁pyramid~~18379
▁have~~19541
▁Horn~~14369
örung~~17323
erox~~16748
▁Nummernschild~~18110
▁Pilze~~13162
helm~~12414
▁mystische~~17118
▁zerriss~~3573
▁Tausende~~2916
▁Agra~~19300
▁singen~~1029
▁Rhythm~~947
▁Charakter~~4120
systeme~~12521
Schrift~~15971
▁Pulver~~16825
▁wichtig~~737
▁Extremismus~~19022
▁Glaube~~11757
▁Verbot~~9550
▁Anwender~~16764
▁verblüffende~~10527
▁Ezra~~19322
ranscript~~20
▁Spiele~~11474
▁virulent~~20622
▁Pythagor~~16606
▁eloquent~~17461
▁Natur~~1347
▁Orgasmus~~7415
▁markiert~~1932
▁unvermeidlich~~10834
▁afrikanische~~7029
▁under~~18620
▁related~~20747
▁Wert~~1160
▁Browser~~8632
▁einzig~~13857
muskel~~6653
▁Kavita~~11614
▁übereinstimmen~~8651
cer~~11737
▁Ampel~~12163
▁Werk~~8823
▁them~~19407
grafie~~15152
▁Werf~~14230
▁Leonardo~~8744
▁glaubwürdig~~6618
verständnis~~7630
tausend~~2913
▁Tests~~15503
▁Beerdigung~~6300
▁interessierte~~3462
▁staatliche~~10459
finanzierung~~14208
▁Tora~~19016
▁konkurrieren~~12228
▁Meerestiere~~20559
iff~~12438
▁Cla~~15940
▁Teilchen~~13084
zugrundeliegende~~7253
▁little~~21303
▁Erklärung~~4554
▁chronische~~2569
▁Kilowatt~~17873
▁räumliche~~11375
ifi~~14403
▁lohnt~~3559
▁wanderte~~12259
î~~21069
▁Spar~~14197
▁Gesetze~~5628
▁globalisierte~~15339
▁anschaulich~~8627
▁Städten~~5036
▁klare~~2207
▁vielseitig~~16061
fächer~~12731
▁Galois~~20952
balk~~12641
▁TM~~19645
▁Studio~~7278
▁überein~~13052
▁traditionell~~2048
Engine~~13784
▁Cli~~19527
witzer~~21530
▁Merkmale~~1393
▁ekel~~19400
▁her~~2439
▁errechne~~2407
▁versa~~15963
▁Tief~~13704
▁Umstände~~4289
▁Stalin~~14144
▁zusammenleb~~11889
▁zusammengefasst~~12832
▁Lamanite~~21607
▁farbenfrohe~~11644
7~~4359
▁gefüllt~~3358
▁heb~~6450
▁Fragment~~12927
▁fokussiert~~1562
▁Aust~~3052
▁list~~11095
▁Großzügig~~16958
▁Gedenk~~4664
▁Foie~~20813
▁CFO~~11813
▁who~~20507
▁Dakota~~11779
▁überschüssige~~17621
BC~~12266
▁verschafft~~14786
▁ausgestellt~~7228
▁gelebt~~7938
erhört~~18394
▁Zunahme~~7383
▁strukturelle~~11805
▁why~~9848
▁Universi~~19166
▁Beverl~~18357
ase~~9512
alisiert~~2730
▁Sonne~~803
▁streckt~~8252
pur~~4786
nähe~~4837
▁Pur~~3034
▁westliche~~2866
▁Dai~~15866
▁Dan~~3404
▁benutzte~~11189
▁Dam~~7581
▁Vietnamese~~11228
jahrhundertelang~~8826
▁sc~~12413
▁Daf~~15068
▁Dad~~14281
round~~13413
▁Filmemacher~~3039
technische~~15099
▁Day~~4903
▁transplantier~~10638
tscheidungen~~7240
reedom~~19077
▁spinn~~15403
▁Dar~~6945
▁Das~~1321
▁Dap~~8467
▁favor~~19970
▁Verbrecher~~14598
▁Army~~6425
▁temporäre~~11193
▁Rückseite~~5205
▁warm~~9803
▁Kreativ~~11013
▁Wilson~~5329
▁Serv~~9970
▁Crack~~13487
▁profane~~18581
▁verdienen~~6151
▁Belüftung~~19470
▁Landmasse~~13151
fähr~~3204
▁Kontroverse~~13554
▁Serb~~11685
▁wander~~17591
▁Seelsorger~~21578
▁Jahr~~918
▁gelassen~~2202
membran~~18174
▁Steve~~993
▁Garantie~~16593
▁dazugehör~~18320
▁salt~~18252
villa~~18842
räume~~5014
▁Award~~17607
▁Wasserfall~~9314
▁coach~~20314
▁komponiert~~4177
▁mitochondria~~13199
▁verschluck~~18753
▁reduzieren~~7778
▁gesamte~~2184
natürliche~~16367
Autor~~16413
räumt~~7472
▁Stämme~~9109
station~~3425
▁Pfeil~~9683
▁Knopf~~15411
▁Colombia~~20860
▁Gesichter~~2787
▁herunter~~4086
▁Ursprung~~5032
ncy~~15275
digkeit~~13599
▁Wander~~10641
▁vermittelt~~2294
▁herumzu~~10350
pecial~~20042
▁Kuh~~10224
▁Flöten~~11289
▁Str~~7545
▁Lager~~7213
schwäche~~14096
läst~~754
lliance~~19581
▁skizziert~~11433
▁Null~~4065
▁1960~~12723
therapie~~9536
▁Transportmittel~~5337
▁vermitteln~~4112
▁abhol~~11471
ste~~1072
▁Institute~~10822
▁Personen~~2437
sta~~7468
▁provoziert~~2855
hlenwasserstoffe~~15073
▁finanziert~~8437
▁trauern~~17854
▁Old~~13167
▁interessante~~3763
▁Moleeds~~19490
▁Pfeif~~3166
▁Larry~~10779
Gemeinschaft~~8663
▁Asia~~10236
▁Gestik~~19963
Wissenschaft~~11561
regulierung~~16114
runnen~~16652
üchtig~~6719
▁wiederverwende~~11201
öde~~19926
▁Sky~~14701
▁Rede~~8896
▁erwartet~~6364
▁Bedenk~~15850
▁Starck~~7994
▁nass~~3377
ious~~16371
organe~~15554
▁Benutz~~20795
▁nachzu~~5811
▁klettern~~9344
▁Skelettmuskel~~20763
▁Hilfsmittel~~12557
kara~~15913
▁Bacch~~21381
▁vorhersagen~~16169
▁Mammut~~10101
▁Leitung~~8141
▁erwarten~~2156
▁numer~~20272
▁Entwurf~~7206
▁Inseln~~16454
▁erhöh~~7850
Engineering~~17080
▁Terror~~4669
lig~~8393
▁Biographie~~12034
▁verfaul~~20048
lic~~8773
▁können~~663
▁unterstützen~~613
▁reagiert~~2027
▁entdeckte~~4727
▁Friedhof~~2270
▁Pillen~~4947
liv~~1677
dichte~~6973
▁ideal~~5345
▁sparen~~6030
siedlung~~15481
▁äußere~~5353
▁Häuser~~9762
▁Druck~~615
nästhesie~~18520
▁reagiere~~3691
▁Chirurgie~~15888
▁Offenhe~~1723
▁Beitrag~~7282
▁mothers~~15493
▁AMD~~20074
haltung~~1391
▁Kabi~~17272
▁Sensibilität~~15147
sektor~~7252
▁Reflektion~~19030
kan~~554
kam~~9046
▁Zaubertrick~~13812
▁Hirnhälfte~~21464
▁Ontario~~19481
▁Scham~~11550
▁Tulle~~13855
kau~~8091
▁Rahmen~~3148
▁dar~~893
▁das~~7
▁UCLA~~16887
▁Fülle~~5759
▁UCS~~19600
▁Orientierung~~16637
▁biograph~~21788
ternis~~713
▁Weltall~~9232
▁Agrar~~13683
clear~~21204
▁Stereotyp~~14960
▁Durchfall~~15879
▁geliebt~~4169
▁Polic~~15253
▁UNO~~18717
▁nachdenk~~114
▁course~~21145
▁feststellte~~12158
▁warf~~7916
▁off~~20039
Signal~~20856
▁Herkunft~~11296
▁patent~~19109
▁pendeln~~11227
▁Meetings~~9764
▁Stimme~~3956
▁Segelboot~~17361
Klinik~~15508
▁Wirbelsäule~~11322
▁nonverbal~~16430
▁gespielt~~1357
berlegenheit~~19216
▁Nordpol~~7867
anzeige~~17504
▁Journal~~10498
▁fantasie~~17084
▁eingefangen~~12156
kontakt~~8446
trong~~13635
▁angewandt~~2121
aufwand~~14809
▁Teile~~262
▁Interface~~3988
dimension~~13039
▁Stu~~12880
verfolgung~~19697
▁175~~12888
▁erwacht~~10946
▁fig~~19702
▁Sand~~8201
▁Dorf~~2719
▁widerleg~~17329
▁Ursprünge~~13241
▁danke~~992
verse~~12914
▁symptom~~5597
▁Kubikmeter~~14394
▁allerding~~3616
▁Köder~~8349
zerstörerische~~17322
▁Brainstorming~~18089
▁Graph~~8704
einkommen~~5850
abend~~11456
handschuh~~19916
▁Stapel~~13065
▁Hausfrau~~4758
▁verstärkt~~1476
▁17.~~5121
▁eigentlich~~3160
szene~~2634
genutzt~~10618
▁Testosteron~~9509
Aktivist~~15318
▁erschreckt~~7335
▁pflanzen~~11629
werten~~6584
▁kau~~4828
▁Mahlzeit~~10707
▁entschloss~~9043
▁unterschiedlich~~261
▁Illustration~~7789
Triole~~21749
▁kar~~14803
▁kam~~2739
▁Irrtum~~11794
streifen~~10662
Schaltkreis~~16301
▁Mechanik~~16477
▁Rohstoffe~~7261
▁Blinden~~12555
▁fiel~~5510
▁Nuklear~~10434
▁SP~~8603
ureau~~15831
Freak~~15050
oxy~~11073
konzert~~17253
▁widerspiegel~~11830
aufwändig~~9798
▁Allianz~~19021
▁Feindseligkeit~~12222
▁kompakt~~5084
▁Ranch~~17356
▁Anne~~3004
▁DDT~~9584
▁stellte~~3648
▁annehmen~~3568
▁Verbundenheit~~17376
▁publiziert~~15810
▁kandidier~~12532
x~~692
▁feindliche~~12484
konzern~~6781
▁Lehrling~~16841
▁Neptun~~16480
Me~~11034
▁lie~~18639
▁perverse~~18353
▁Zeichen~~3268
▁Lux~~20666
▁chin~~21089
▁menu~~21770
▁Kernfusion~~19393
▁Boote~~13858
▁films~~21146
▁Abbildung~~8104
▁blühende~~20580
culture~~17316
▁riesen~~7898
▁Cost~~5826
schwimmen~~7933
▁Luxus~~14041
Schlucht~~13168
▁Ola~~20631
▁ausgehen~~5167
Lösung~~20264
▁Fenster~~394
▁übel~~9305
▁Apathie~~15638
opper~~10548
vortrag~~18906
wirtschaft~~4967
Park~~14821
▁Gayla~~21608
▁Name~~4167
▁Ackerbau~~12684
küche~~20312
▁vermehrt~~13762
▁Hillis~~19115
▁Schwellenländer~~7185
▁Würde~~8922
▁über~~6
▁Tätigkeit~~2542
▁Atomenergie~~18270
folklore~~21755
▁interaktiv~~13822
▁Sonnenunterg~~14441
▁Tu~~10584
▁allein~~1693
Menü~~15011
▁symmetr~~9846
▁Gehen~~6963
▁Vorsicht~~5901
ison~~2800
▁Ta~~3970
wefelwasserstoff~~20166
▁Plot~~17921
▁America~~16343
▁wertvollste~~9854
▁Protei~~18685
lehre~~14958
▁Wired~~13788
▁Spec~~11530
▁rechteckig~~19757
▁To~~4305
▁demoralisier~~13495
▁Kha~~10080
▁Beifang~~5858
▁TV~~10085
▁exotische~~8804
glied~~11397
▁march~~20538
hbab~~19954
▁zeichnet~~4249
▁Matz~~3403
▁education~~21675
▁illustrier~~14878
▁TB~~15883
▁zeichnen~~6892
▁speichern~~10807
▁Wonder~~16470
▁sonder~~9930
▁McCan~~19543
▁Cromwell~~21206
▁Geschäftsleute~~14902
weh~~9329
wear~~21301
▁sonnige~~12594
▁implantier~~14641
▁Organspende~~17985
währ~~6217
▁neutral~~15303
▁Nation~~1073
▁Buddhist~~17123
▁on~~15961
▁Altruist~~17558
▁Garden~~15373
▁Karajan~~21168
▁Congress~~14570
▁Tötung~~21210
▁dick~~9206
▁Physik~~11576
▁Seegras~~20227
▁Berufsleben~~11790
atops~~19754
▁Guinness~~8761
eira~~20730
▁Abläufe~~14533
▁Massac~~10105
▁architektonisch~~15933
▁israelische~~4573
▁sucht~~230
▁Jackson~~12502
▁Amortisation~~20474
▁Atomen~~13434
▁Bakterien~~587
▁Origami~~16305
▁rest~~8843
▁Kamel~~10159
▁Mutter~~2648
stamm~~13181
gebühr~~7461
damm~~7664
gestalt~~3995
Theorie~~11578
▁Weather~~9355
▁beach~~10012
Women~~18582
▁laufe~~12453
▁Anästhesie~~15887
▁Joshua~~12125
▁Drohnen~~20205
durchschnittlich~~123
bestand~~4053
ada~~14971
▁antiqu~~18946
N~~5649
▁kämpft~~1003
▁erstaunliche~~8170
▁Deutsch~~13924
heute~~820
▁Cassini~~9003
▁verband~~9721
▁Medikamenten~~5599
▁Relevanz~~12204
▁verlockend~~11956
richten~~3129
▁werde~~1329
▁Ocul~~20909
iya~~11265
▁schuldig~~1463
▁bus~~18238
Taste~~9770
▁Verkehrsstau~~19626
geblendet~~14687
▁Hawaiian~~4867
▁raffiniert~~18274
▁untere~~11387
▁bud~~19436
▁zurückkehren~~6496
▁springt~~6463
▁Afghan~~11664
shift~~20552
▁lächerlich~~7673
▁überarbeitet~~6176
▁aufbewahrt~~9726
richter~~6259
▁Diktator~~11861
pack~~3636
▁Krebsforschung~~19137
▁Alan~~14350
▁beendete~~11472
aufnahmen~~10511
stunde~~7154
bewegen~~11396
agte~~12208
▁Silicon~~9759
Life~~18703
Gleichung~~13445
▁Ausblick~~13480
▁Frustration~~6132
chester~~16864
▁Enthusias~~6225
▁linguist~~17779
▁Stunden~~3446
veranstaltung~~4411
▁ehrenamtlich~~9908
▁Charakteristik~~14372
▁Solomon~~21125
RCA~~17756
▁angeordnet~~8779
▁Internet~~1311
▁Apparat~~10349
steht~~9405
▁norm~~3711
▁reproduzieren~~10936
▁offensichtliche~~11527
▁Imperi~~12686
bogen~~9667
▁Barrieren~~17716
▁visueller~~12883
▁Temperatur~~690
▁Drug~~10190
Maschinen~~17761
▁melanchol~~19523
▁fortpflanz~~18557
SB~~19343
▁biomedizinische~~18998
▁vergnüg~~19621
▁Shaff~~19603
mordattentäter~~11502
einhalb~~7749
▁willkürlich~~11499
▁Empfehlung~~18536
▁Ashdown~~20402
▁Wii~~19148
▁betonen~~14190
Preis~~9902
▁Tote~~17820
▁Leah~~11689
▁rum~~6333
▁jüdische~~12059
bären~~14825
▁ausgelegt~~18201
▁werfen~~7166
▁forward~~20760
▁Blog~~11144
▁Left~~11893
▁personal~~17089
▁Falle~~5572
▁irgendeine~~4144
hepherd~~16382
▁Woman~~17357
täuschung~~17588
▁Wil~~9219
Gesundheit~~19630
▁komm~~1566
▁ermutigen~~8084
▁1.000~~12545
lib~~20295
▁Motive~~12756
▁Rose~~7390
▁pandemische~~6106
▁Rosi~~18120
▁lächeln~~13114
▁Abreu~~20180
▁Ross~~4379
katze~~18628
▁situat~~20732
▁Sache~~2585
▁äußert~~10383
▁bediene~~204
lin~~12028
Sequenzierung~~5980
▁Production~~18809
▁verkauft~~5006
▁frustrierend~~11321
▁roll~~17417
▁Auszeichnung~~13100
iert~~2195
▁gebrochen~~6492
▁Bike~~18466
▁drink~~21396
▁bürgerliche~~15474
Teilchen~~19046
▁angreif~~12113
▁Krebs~~6862
▁eingestellt~~3892
▁re~~1236
Internet~~20373
▁weinte~~4610
▁Marke~~3114
sfähigkeit~~1264
platin~~18776
▁Investoren~~9272
▁Athen~~16574
▁disruptive~~21103
▁Regierung~~2802
▁wohlhabend~~13617
märkte~~3757
▁Suchergebnisse~~19553
$~~14047
▁Mikrosekunde~~17503
▁Valenti~~9891
▁Weibchen~~704
▁zusätzliche~~3666
▁zöger~~7663
mütter~~2056
▁Dennett~~16352
▁magazine~~21599
▁here~~21207
▁jahrelang~~10559
vorgang~~2578
▁erlaubt~~2557
▁verstopft~~19560
Erfahrung~~16066
▁Jerry~~16107
▁how~~20150
ight~~14796
▁Brücke~~8427
stein~~579
▁Unterkünfte~~11062
▁Fahrzeug~~12223
▁Heather~~15706
▁Gentlem~~17946
gelegenheit~~10532
▁Placebo~~17530
▁fortzu~~5931
game~~18209
▁segel~~15943
▁gesprochen~~869
▁Teszler~~21584
▁Beobachter~~13035
▁liegt~~2264
▁Feuerwehr~~15141
▁führende~~9522
▁Allen~~15714
▁Ruhe~~7322
ruft~~1010
▁erotische~~19573
▁öffnete~~6350
▁Aufsehe~~19528
▁träumen~~9218
▁Original~~10937
▁statement~~18852
▁schwebt~~4329
▁Schul~~1243
▁7.~~9369
▁Schub~~8008
signal~~17567
▁Adoptiv~~14119
▁79~~20282
▁78~~9263
▁engagier~~3089
bestimmt~~17679
▁Nino~~18792
▁japanische~~2163
▁Arena~~4287
▁71~~20327
▁70~~552
▁Folie~~5252
▁Schwärme~~10962
▁75~~117
▁74~~1839
two~~19108
▁76~~7572
▁Gamma~~10439
▁unerbittlich~~14093
bersetzung~~6989
älen~~3478
journalism~~20696
▁schockierend~~9466
seitige~~13953
some~~15216
▁hundert~~341
▁Authorit~~21122
▁klar~~1121
economic~~21666
▁klau~~17991
▁Bedauern~~9674
▁symbolisch~~19677
▁Krücke~~6145
schuldet~~11066
▁Medicine~~20523
▁montiert~~10342
▁Kreuzung~~6231
▁schwul~~11610
ulosi~~20325
▁Michel~~12411
▁Hirnregion~~13419
▁mini~~20942
▁geladen~~6446
▁auslösen~~8734
▁Thron~~17570
schön~~10568
▁Deutschland~~1713
gesperrt~~10885
▁Tyrann~~11121
▁teenager~~21613
▁temporal~~14316
▁Kernkraft~~15100
▁scanne~~21201
▁na~~4405
▁Schluß~~7639
▁Baseball~~6879
werkzeug~~5251
▁antiretroviral~~15424
▁Düsen~~8342
schrieb~~10891
straße~~5362
▁Detail~~1960
▁gesch~~2543
▁Vorführung~~3125
run~~20268
▁nich~~16262
▁gelernt~~1366
rum~~1320
acht~~6638
▁Montessori~~19802
▁Pamel~~18021
▁Kanten~~9156
sten~~40
▁Familienplanung~~13375
ster~~7424
▁Atemwegs~~18263
Fabrik~~17876
ummel~~3536
▁economy~~21777
rus~~6830
▁befreundet~~13576
▁semi~~16768
▁merkte~~6391
▁Collect~~14800
shine~~20483
führer~~1614
▁Korridor~~13306
Rechner~~16586
Scan~~9437
▁Anreize~~3580
▁Eco~~11153
▁Nun~~7817
▁no~~5765
▁Zambia~~21390
▁WMAP~~8982
▁Konzerne~~15545
▁geistige~~4051
▁Enttäuschung~~9666
▁Sprech~~14326
▁landesweit~~15058
▁Mindest~~14357
▁Zirkus~~19327
▁handelte~~5372
▁geschmolzene~~7912
▁verheerend~~11792
▁Golf~~10479
führen~~1873
▁Wohnort~~12250
▁resultiert~~15453
▁Zahlung~~14362
▁vorauszu~~14829
▁Lippen~~12578
▁Krümmung~~9158
ör~~6455
reife~~11646
▁KIPP~~17845
▁bezeichne~~9833
führ~~12870
öl~~4782
▁coole~~6164
▁Grund~~2262
autpigmentierung~~21533
▁Metric~~20302
öf~~9101
rollt~~15841
▁experimentelle~~2601
▁Augustin~~11844
▁traurige~~1669
▁wurde~~1369
▁liebte~~6967
▁Frequenz~~4477
urlaub~~11787
▁gesammelt~~2475
▁Code~~2673
▁Ver~~322
▁Wade~~6484
▁Angewohnheit~~12081
▁benötigt~~5057
▁bekleidet~~9348
type~~21320
▁Eigentumsrechte~~15041
pionage~~11097
▁limb~~19026
▁Francis~~15794
▁verständlich~~7379
▁Luc~~11282
▁beinhaltet~~6270
▁benötige~~7937
▁Alexander~~12083
▁wack~~376
▁brows~~20250
▁wach~~8662
▁Jahres~~4570
▁diejenige~~3608
▁voranschreiten~~9632
▁Form~~2647
▁Bert~~16156
▁streich~~4107
erlangen~~2214
▁rechne~~11007
▁Palette~~18192
▁Material~~3290
▁Verwandten~~8912
▁Seeleopard~~20695
▁Jahren~~886
▁Mehl~~19466
nächst~~1703
▁tiefste~~387
▁hoffnungsvoll~~14237
zität~~13889
▁spürbar~~2876
▁Eigenschaft~~1343
▁spin~~21505
intuitive~~15391
zeichnet~~15188
▁bang~~16560
zenario~~5426
▁Abitur~~1740
®~~19196
austausch~~14086
mobile~~13901
▁unbeholfen~~14094
gerät~~9333
▁Himmels~~6324
▁Sünde~~12778
politik~~3758
▁befinde~~161
▁Meeres~~13
▁mask~~18782
▁Kopie~~11113
▁Karikaturen~~18029
▁verärgert~~17256
▁mineral~~19700
▁kritisiert~~10379
▁nachhaltige~~2799
▁tödlich~~10742
▁indirekt~~3728
▁Brennstoff~~15899
▁Curriculum~~20018
▁Gesundheits~~6401
▁gegenüberstehen~~8908
metall~~12337
▁Bürgermeister~~10027
▁genügt~~17524
▁kritisiere~~12446
▁wip~~19319
▁ausgestorben~~11308
▁adoptiert~~17012
▁zerbrochen~~12030
▁bereit~~1826
Zentr~~18410
▁augenblicklich~~16126
▁Lesley~~16225
▁Architektur~~4273
TV~~16404
▁Arbeitsleben~~11441
ankees~~17374
sozial~~7011
▁Innovator~~10428
▁täuscht~~16369
▁Piero~~19997
▁Bord~~2466
▁Borg~~20234
▁Bulgari~~997
▁Regulierung~~5571
transport~~15526
TH~~10331
haft~~2821
Kiste~~6264
▁Knall~~4256
▁sickert~~9537
▁Brunnen~~14919
▁altruist~~12735
▁Ferris~~18910
AC~~8177
▁vermutlich~~868
▁gestalten~~2179
▁Druckerpresse~~12517
▁verbrenn~~12362
▁kostenlos~~7558
evar~~14303
rlei~~3513
wohl~~92
▁Aserbaidschan~~20460
▁Pepsi~~20366
▁finde~~592
▁nun~~1802
▁reizvoll~~13089
rück~~4623
▁vorgefasste~~20299
▁nur~~237
▁Breite~~460
▁TEDTalk~~11900
ook~~10194
▁Diagramm~~7777
▁Jahrestag~~17900
▁wasserdicht~~11191
▁Guardian~~15393
▁verlässt~~14436
▁gestaltet~~3963
▁Dutzend~~2473
▁Berührung~~3224
▁ewige~~15571
▁eigen~~2898
e~~124
▁stabile~~15627
geschrieben~~8479
▁umzu~~980
▁garantiere~~11106
▁Aero~~16970
▁entmutigend~~11468
▁One~~16026
▁männliche~~6403
chse~~7635
ähnlich~~15087
▁realisieren~~11802
▁Chinesisch~~6852
▁Heimat~~4886
▁garantiert~~11512
▁inakzeptab~~15560
▁schwächste~~1110
▁Multitasking~~16268
▁Raumsonde~~16446
▁Landminen~~12941
gu~~10090
gt~~564
▁Wunsch~~5745
▁Onkel~~11639
▁verstand~~4648
▁seiner~~757
▁seines~~2379
▁atmen~~5945
▁Joe~~14022
▁0.1~~19197
Zähler~~16311
▁atmet~~5950
rauben~~15583
ge~~1964
▁Mike~~8039
ga~~4529
Reilly~~20868
▁diskutiert~~2710
▁Gelder~~2267
▁Rand~~7923
▁NIH~~14685
affe~~10271
▁Facebook~~3905
gh~~13018
*~~20440
tür~~8116
▁Zigarette~~8460
▁Schneeflocke~~15743
▁Komplexität~~11492
▁Universum~~8262
▁Five~~17898
▁say~~20805
▁Lifesaver~~21058
▁ABC~~20087
▁Ente~~19756
▁Bewahr~~4741
▁Vulkan~~168
lichkeit~~2665
▁doppelt~~3664
▁bereits~~549
▁Airbag~~18129
▁Geschäft~~1095
▁Glocke~~13087
▁vergiss~~13519
▁Forbes~~15566
▁damit~~556
▁Phrase~~12252
▁überhaupt~~355
upfen~~12311
▁Neurobiologe~~20155
▁got~~4344
▁Make~~11720
▁Speed~~7298
wave~~21797
▁teilweise~~4030
▁Studierende~~8502
▁Entertainment~~20789
▁schwierige~~3772
▁Lebensform~~872
geräusche~~9820
▁herunterlade~~6196
partikel~~3349
▁Kanarienv~~13923
▁Safeway~~20506
berlebens~~8220
▁royal~~21163
▁Hewlett~~20876
▁schätzt~~1059
▁mesh~~21242
Skulptur~~16075
▁viel~~1188
▁bezahlte~~10048
▁vier~~547
▁Techno~~13903
▁tiefgreifend~~2741
▁moralisch~~13055
alandar~~20493
stift~~3109
▁schätze~~7535
▁Toraja~~21240
▁Freundin~~8917
▁Taliban~~6602
▁veg~~20751
▁Gläser~~17216
▁Hippocrat~~21148
zi~~3605
▁aufzusuchen~~13371
▁Vater~~2766
▁Männer~~5257
ze~~440
▁Lebensraum~~732
Friedenstruppen~~2862
blitz~~2960
yntax~~13227
▁Löcher~~1258
▁Ostküste~~4521
▁Wissenschafts~~3851
▁Amt~~16672
▁Radiologe~~10363
gekündigt~~11999
boote~~13253
zu~~4087
füllen~~8719
▁fragment~~2096
verbreitung~~16830
Kultur~~10789
roboter~~8344
▁Photoshop~~10166
▁exquisite~~20963
gemeißelt~~8743
▁wachsende~~4008
▁floh~~17726
▁150~~2744
cell~~4152
▁15.~~13403
▁15-~~1857
▁Mahlzeiten~~4991
▁2030~~16861
cap~~20675
▁applaud~~12244
▁Streber~~15157
▁Modedesigner~~16804
▁Speer~~9742
;~~223
deutigkeit~~13040
▁director~~20006
▁übersehen~~6234
▁Piano~~5313
▁Niederschlag~~13216
▁Neurologi~~18528
▁ausgeführt~~13991
▁Isolier~~17054
verstümmel~~17712
▁ernährt~~4995
▁vollkommen~~8224
▁Sozial~~1078
▁durchführte~~2469
ozi~~6842
rausch~~16595
▁absolute~~10043
▁Entwürfe~~10042
▁einführte~~5957
▁Cru~~18634
teppich~~5687
▁ernähre~~5020
papier~~3737
▁vermischt~~9882
▁Co~~6785
▁Food~~7482
▁170~~10039
stöß~~9899
▁Minnesota~~15977
nterwäsche~~11875
genz~~15255
▁Vase~~13814
▁Fledermaus~~16628
▁Logik~~1823
▁Halleluja~~7336
▁erwiderte~~14160
▁Michael~~9114
stücke~~2663
▁Bible~~16158
▁verworfen~~15687
▁glaub~~10572
▁Flüsse~~4788
▁puls~~13449
▁Dori~~17336
▁PRI~~15636
wie~~4173
▁schaut~~4211
▁ratio~~17148
▁globale~~1750
win~~12424
▁mehr~~1148
▁Taucher~~19730
▁anpassungsfähig~~12144
▁sehnt~~8914
jüng~~3032
▁floating~~20425
▁Brustkorb~~6442
wir~~274
uatsch~~10827
▁NGO~~13279
▁Intuition~~3745
Metapher~~19485
iev~~19276
▁Elegan~~13618
▁fit~~11465
▁empfehlen~~13757
icular~~20908
▁schloss~~10056
▁Shadow~~19758
▁Waren~~7227
▁Erdöl~~15345
▁student~~8538
▁Nase~~1046
▁Christian~~12472
▁anhört~~13797
▁simp~~17890
kunde~~12487
▁rack~~19003
öte~~6607
▁zentral~~5088
▁Nash~~4310
stärke~~1489
▁irdische~~17343
▁drastisch~~2032
▁verzweig~~16904
▁anzuschauen~~3301
▁Zorn~~10931
▁Experte~~4183
▁Grübel~~15375
▁Field~~17372
▁Experti~~11580
▁instabil~~10334
gi~~1662
▁Zu~~4366
lteren~~15573
▁gross~~4498
▁Zo~~4918
medizin~~6944
▁Signatur~~13442
▁Prosper~~21528
▁dreifache~~15757
▁zuhause~~5868
▁Projektion~~13964
ebene~~3293
▁Billion~~14205
▁amerikanische~~5327
▁schwierigste~~6238
▁Za~~11677
▁unveröffentlich~~20217
▁streiten~~14402
hielt~~4314
▁zufällig~~2362
▁Akku~~6627
▁gewöhnlich~~9173
▁feststelle~~9107
legation~~10797
▁Verlängerung~~7750
▁bemerkte~~2871
▁Schaltkreise~~14634
▁Erfri~~9386
stäbchen~~10720
▁zoom~~12214
sicherheit~~7114
▁Jahrtausende~~2518
lebst~~16784
▁naheleg~~14220
aubmilbe~~20496
ector~~20073
eimer~~14870
▁Antidepressiva~~20343
▁Kognition~~1422
▁bahnbrechend~~10495
▁planet~~15771
▁Johan~~19500
Vortrag~~15065
▁Platten~~5429
▁Kollege~~10609
▁Parikrma~~20111
▁Handlung~~4117
▁Böse~~11483
▁konkret~~14630
▁Entwickler~~12754
▁Hannah~~20719
▁Informatik~~8628
einrich~~18656
▁heftig~~8871
▁planen~~5259
▁taub~~12542
zeitig~~10087
▁sogar~~386
▁Technische~~11118
▁institutionelle~~17414
▁tauchen~~484
▁ferngesteuerte~~8332
▁Mannes~~6269
▁darunter~~8700
▁Bösewicht~~10064
▁Wohlbefinden~~1061
▁Unterhalt~~17068
▁Emmanuel~~19524
▁Türke~~11237
▁Datenbank~~12573
tial~~18866
hafte~~6802
gemütlich~~7352
▁feminine~~4913
▁Autismus~~9476
HIN~~20399
▁wertschätzen~~11485
fare~~20335
▁upgrade~~20462
▁Rover~~13245
▁capture~~21230
▁überall~~1349
▁nutze~~15951
▁supermassive~~20051
▁mische~~16294
▁are~~18024
▁unterbrechen~~5408
▁tief~~337
▁fassbar~~17908
▁nutzt~~7357
▁Laufen~~1438
uelle~~529
▁agnostisch~~19039
▁stattfand~~8305
▁fesseln~~188
▁tax~~20852
▁relax~~19904
▁zertifizier~~16877
▁Zitronen~~20485
▁gerecht~~9852
▁tar~~20925
▁tap~~6865
▁shopp~~16408
▁ohne~~495
▁Aufklärung~~18477
▁tat~~6491
▁tau~~3365
▁plant~~13473
▁Enthüllung~~12638
▁Reden~~4070
▁tan~~7429
▁Bots~~19246
▁plans~~14192
▁drift~~17428
kapital~~7031
▁Verbündete~~11749
▁historisch~~11208
▁Liberal~~16129
▁Indonesi~~15124
fälle~~4034
▁stelle~~6378
▁Bundesregierung~~2028
ping~~10664
▁Mechanismus~~10290
▁ARES~~20658
▁viral~~10825
▁hydrothermal~~527
▁body~~20254
aufnahme~~10373
▁bare~~19283
▁stellt~~912
fällt~~8169
nommen~~9917
▁begehren~~11604
▁spray~~21215
▁mund~~20379
zing~~21627
▁Mash~~10859
▁Merk~~9009
▁Geist~~3999
▁influenza~~19683
▁Gourmet~~19163
▁billige~~14282
▁Tasche~~3542
vorrät~~19665
▁selbe~~2319
▁mate~~17301
nonymous~~18632
▁fühlte~~6393
▁Merz~~20650
▁Erforschung~~12128
▁Levin~~16524
▁Kürze~~8183
▁Tony~~6254
▁note~~4422
massen~~3969
▁lä~~10074
▁Kraftstoff~~15074
▁kulturelle~~3122
Strahl~~18480
▁balancier~~10328
▁verlieh~~7017
▁verb~~6637
▁bewusst~~571
nützen~~3555
▁Schmutz~~19208
▁fehlgeschlagene~~18881
▁ultra~~14672
▁rauszu~~18513
▁Cor~~13716
▁verlieb~~13542
idio~~19307
▁unbequem~~8457
▁harmon~~19717
▁irgendjemand~~3903
▁Sufi~~18592
▁Boltzmann~~20882
▁Magritte~~20008
▁Coh~~14711
charakter~~4094
▁Con~~10884
▁Com~~7191
front~~14894
▁läd~~4091
▁verlier~~6988
▁Pavlov~~14666
▁Atelier~~18001
▁Golden~~14916
▁Marathon~~11533
projekte~~4083
▁seit~~883
▁Taxi~~7540
▁Trägheit~~18967
rennen~~6050
▁Rosling~~13992
▁nomad~~12680
▁erarbeitet~~7074
▁fate~~21514
▁va~~21219
▁deutsche~~2046
▁Spracherkennung~~20450
▁Reputation~~17905
Daten~~13435
▁gefälschte~~16414
▁seid~~8930
▁Heilung~~5952
▁Parasiten~~12143
ironment~~18551
▁Leben~~8
▁Flüchtlinge~~11212
▁sein~~896
▁aufzubauen~~6094
▁Mario~~20085
▁Mehrheit~~6051
▁verräterische~~6048
gegeben~~7037
▁least~~20599
▁Dasein~~11435
▁Captain~~13492
über~~7024
▁kommerziell~~9809
ergebnisse~~1942
verständlich~~110
Moral~~20494
gerechtigkeit~~19378
▁TED~~14
designer~~4591
▁Oberschenkel~~6485
▁Einwanderer~~18204
▁Sargasso~~5754
ille~~3139
pfeil~~9680
▁Green~~11173
wartet~~9986
▁Hin~~4487
▁ökologisch~~7632
wandeln~~11617
▁stabil~~887
▁nachhaltiger~~17187
▁mehrfach~~6250
▁sammelte~~11632
▁TEDGlobal~~10327
werden~~1641
gepackt~~4130
▁Urheberrecht~~10833
▁schärf~~17484
▁langweilig~~6769
geld~~3660
▁schöner~~4322
▁Maßstäbe~~9027
▁formt~~2476
▁Hip~~4445
▁Broad~~19651
ogue~~17518
▁aktiviert~~5575
▁Grim~~10854
▁gewisser~~4496
rigonometr~~19539
organisierte~~20286
▁militari~~19551
▁verwendet~~1989
ulp~~19099
eck~~4118
transfer~~15237
ech~~3551
klima~~13213
▁verwenden~~1830
▁vereinfacht~~9410
ckel~~10312
▁Gris~~20546
▁Aktiv~~1274
▁57~~10695
▁56~~13906
▁Erd~~606
▁54~~13297
▁53~~7900
▁52~~10023
▁51~~16273
▁50~~257
▁Chicken~~13743
swachstum~~8406
route~~17642
▁Waisen~~15510
▁Beschleunigung~~16271
etera~~15193
▁58~~8880
▁Rehabilitation~~8906
ional~~13083
▁erkennt~~5849
▁Orleans~~4884
▁Kondome~~7552
▁5.~~9307
▁zustimmen~~9811
▁göttlich~~19020
▁architecture~~20738
▁hinterfragen~~3760
▁Räuber~~2968
▁Einfache~~8909
räum~~14334
▁go~~15760
scanning~~20642
▁ausmachen~~1841
▁Pressekonferenz~~13304
▁generations~~19272
leitung~~6914
▁Reisen~~5370
▁älterer~~12887
▁Verkäufe~~7082
▁erhitzt~~16297
▁fällt~~9347
▁Flüssigmetall~~20265
mah~~11867
treiben~~5882
Flasche~~9340
▁Themen~~2351
kolleg~~9612
▁einem~~347
▁einen~~283
Shirt~~11448
folge~~6876
management~~10965
Adoleszenz~~20019
Stadien~~4461
▁Chad~~18363
▁Fragestellung~~9813
▁Klassenkamerad~~15523
▁ansteigen~~3474
▁gutes~~3651
üben~~3259
▁heck~~14384
▁theoretisch~~5657
▁Umfang~~7263
ubunt~~17630
▁Feminismus~~11752
▁jug~~19911
▁Norm~~5670
DUM~~21616
▁Zusammensetzung~~2112
slücke~~11298
minute~~18939
▁Nord~~4858
▁interessanter~~3769
▁interessantes~~10227
▁aufge~~4449
▁Parasit~~17837
liste~~7532
natural~~21531
▁manche~~1598
▁grundlegend~~7226
▁genetische~~1434
feind~~8364
▁schwächer~~2703
▁Produktions~~4746
▁erzählt~~2657
bei~~6469
▁Zucker~~659
städt~~12603
bel~~5961
▁parent~~21737
▁Wahlen~~11934
▁kennen~~339
▁Walfang~~19535
wirkung~~14450
▁Listen~~15251
▁dekodier~~14974
▁3,3~~11278
▁erzähle~~3244
gemälde~~9955
▁gesetzlich~~13700
▁3,5~~1861
ber~~2089
kurve~~8574
afrikanische~~7260
▁Eat~~21731
▁popp~~19877
▁brillante~~12500
Zulieferer~~9874
▁hin~~389
▁him~~12791
peicherung~~16761
▁Coul~~21001
▁Washington~~2805
▁dorthin~~2243
▁cri~~21700
▁gepflegt~~19262
▁Spinnennetz~~15843
▁versteckte~~2948
▁Juan~~11911
▁innerlich~~11024
▁Hubschrauber~~9438
▁wuerde~~13160
▁Misch~~5433
ventil~~15842
▁obsolet~~8710
▁allgegenwärtig~~10421
▁hir~~1250
anteil~~10410
▁hip~~20411
weisen~~2176
▁gegenwärtig~~11069
ark~~5821
▁Small~~20668
▁Riesenhaie~~21447
wöhn~~6088
able~~7141
Biafra~~19521
▁Barack~~12655
▁wit~~11852
ably~~21604
prothese~~10282
▁lebensnotwendig~~19987
▁mehrere~~336
▁Letzte~~4020
▁Bär~~16503
▁elektrisch~~8343
▁verlinke~~17088
▁summ~~4511
▁ähnliche~~2438
▁geschnitten~~9202
▁Eiszeit~~13204
▁Liebesbrief~~15066
Pandemie~~19336
▁Foto~~5504
kunft~~10604
▁Klassik~~2815
reach~~21478
▁junior~~21799
▁Goldrausch~~19591
▁automatisier~~16900
stuhl~~15777
▁Hauptsache~~12189
übung~~6426
▁erklimm~~17643
▁maker~~21545
awa~~11264
▁Arktische~~13472
▁Rechenschaft~~12537
ure~~6520
urf~~9752
urg~~1947
ura~~2728
▁Australopithec~~11279
▁Autorin~~15600
▁uninteressant~~4204
▁lausche~~18156
ausgebildet~~14029
uro~~8335
▁bald~~2512
umweltfreundlich~~13661
▁Schrö~~12022
kanäle~~9606
▁Trance~~7643
inda~~13338
Rumbaugh~~21458
▁Sheikh~~15334
erfolg~~7458
▁Meerwasser~~122
berichte~~12642
ury~~4047
wäsch~~10660
▁Alltags~~12062
▁Japaner~~15018
▁Rauchen~~16510
ückkehr~~12074
gerichtet~~4269
▁Protagonist~~8838
▁Großmütter~~1184
▁faltet~~9194
Abteilung~~18407
▁nützlich~~3024
ladung~~18339
schein~~3649
▁Lama~~10160
▁eingehen~~11051
▁gegenübersteh~~13491
▁flash~~20171
▁komplett~~3877
▁Unstimmigkeit~~15390
inister~~21658
▁frank~~21581
elecommunication~~19227
▁bemerkenswert~~2760
▁durchdring~~15307
▁Schwierigkeit~~5388
▁empfangen~~13602
▁Kanal~~8144
▁hereinkomm~~15340
urchlässig~~9149
▁mühsam~~15615
▁Baby~~1202
▁City~~6266
installation~~19795
▁Spann~~10170
▁Eich~~8089
▁Website~~7452
▁Brauerei~~19220
▁Schildkröte~~7521
▁bestimmt~~3372
rash~~13942
skraft~~6617
▁Kontroll~~10510
▁Gho~~14851
▁besteht~~227
▁Unterwasser~~403
▁Level~~3842
▁Bemerkung~~16353
aspekt~~7609
▁mich~~848
▁Geschichten~~70
Packard~~5482
Athabasca~~15089
▁Gericht~~8259
kopf~~11348
▁einfache~~658
variabl~~16065
▁marschierte~~17402
▁alumin~~20472
▁Gegenmittel~~9524
▁ermöglichte~~12691
▁dad~~17249
kiefer~~15105
▁koennte~~20520
leben~~1015
▁intim~~8137
▁Bush~~8532
▁olympische~~16571
▁philosoph~~16069
¡~~21691
▁Ohr~~4431
▁einhundert~~7952
▁Blätter~~3530
hüpf~~12184
▁symbolic~~21783
immel~~10932
▁Personal~~15491
gras~~12727
grat~~9328
▁synapti~~16911
▁schränkt~~19014
▁Fahrt~~9436
gram~~17965
wksb~~4046
grab~~6881
grad~~12475
▁Kollaps~~18247
gebäude~~14838
▁lease~~19779
▁beleuchtet~~16007
▁weigerte~~14032
▁selbst~~109
▁vagina~~14504
▁instrument~~20758
▁Heimatland~~2009
problem~~11217
konferenz~~6572
▁besitzen~~4831
▁Bewegungen~~4035
▁ansah~~6872
▁Messer~~2566
▁Hafen~~5136
▁Fäkalien~~14518
▁cor~~21591
▁Sun~~12742
▁hinkomm~~17697
▁Roche~~18654
▁stattfinden~~1682
▁Sue~~15015
tta~~14775
zufügen~~7198
▁Kompass~~11416
statt~~6223
▁down~~20255
▁geschlechts~~12589
gespräche~~1653
▁Tori~~21648
▁Paula~~19896
▁halte~~7668
▁Belästigung~~17478
▁Regen~~3296
state~~10262
▁Kinect~~18871
▁ganze~~631
▁world~~20364
▁gegenwärtige~~3517
▁weiss~~1285
gemeinde~~9950
▁dagewesene~~8476
▁assessment~~21757
ken~~2505
kel~~4916
▁Achterbahn~~13860
▁durchführen~~7902
▁Vorteil~~1408
▁Movember~~19123
▁Begegnung~~3086
▁Schulbezirk~~19153
melde~~16726
▁Südasien~~14011
▁Taschenlampe~~8389
▁Mama~~12391
behälter~~14924
▁gil~~2234
▁Limb~~18612
▁vielschichtig~~16909
group~~21404
▁Gesetzgebung~~19091
▁gib~~4614
▁Blue~~8314
▁Traum~~3252
▁Pantheon~~13121
Designer~~17562
▁vertrieben~~17267
▁ausgeglichen~~11461
▁Känguru~~17790
Fahrer~~18085
▁Rag~~14481
▁verschwendet~~1890
spray~~21098
▁North~~3220
sein~~1484
▁Tschetschenien~~21027
▁Blauwal~~5829
geordnet~~6624
▁för~~407
▁verschwenden~~7654
ographic~~13139
motivat~~20984
▁durchforste~~17772
▁Talente~~8735
▁maßgeschneidert~~18141
▁Update~~20353
ture~~15833
suchen~~18525
ettung~~6198
▁Bedrohung~~14757
▁Sexual~~15417
▁biologischer~~10628
▁universe~~13603
▁lap~~21278
▁Afro~~16049
Fiction~~10322
▁ununterbrochen~~2727
▁Spuren~~5158
▁Frage~~2117
▁Scanner~~17885
▁Holocaust~~13647
gesprochen~~3483
▁Rao~~19794
Musik~~12387
spiration~~17446
▁Segment~~9199
üssig~~14861
▁Cyber~~8040
▁Richter~~10047
sari~~8760
▁gerontolog~~7692
▁Klebe~~10446
▁Ada~~14301
ilhouette~~16138
▁130~~2436
▁Tschernobyl~~16800
▁fed~~20057
▁bevorsteh~~12835
cent~~12242
▁Dong~~11965
▁Stiefel~~15359
inhalt~~4875
rwin~~6537
▁Sara~~8211
▁trend~~13696
▁13.~~1758
▁angelegt~~5862
Stunden~~7436
▁Rau~~19923
▁immer~~485
▁Harmonie~~11693
ierte~~1238
▁erneut~~6195
organism~~9566
▁roch~~18161
▁unzufrieden~~1551
face~~16842
▁Paradi~~15688
▁Nicole~~10269
▁Taschen~~7538
▁Betrachtung~~8747
▁1.3~~15802
mittler~~6169
medikament~~17528
▁Lean~~21693
▁Bodenschätze~~17705
▁Kerl~~4089
zumachen~~5728
▁Kern~~3937
verhältnisse~~740
▁Lead~~19240
Politik~~16057
▁Abbott~~18095
▁Lichtstrahl~~8166
logisch~~10387
wood~~7551
stellige~~17296
mega~~19568
▁Gesänge~~17288
▁Malaysia~~19670
▁einzigartig~~5459
▁ange~~6652
▁dazu~~2305
▁blöd~~10560
▁Potenz~~17426
▁Zuflucht~~17184
▁gesetzt~~2281
reaktion~~13976
▁lief~~6187
zusehen~~3762
▁leise~~4383
ini~~8742
▁hölzerne~~15708
▁spannend~~6118
hütte~~5366
▁Virtual~~19265
wüchs~~6310
▁verschrieben~~16710
▁verwehr~~8255
ühl~~2700
▁Mysterium~~17232
ziehen~~922
ind~~2869
ühr~~5520
▁Clean~~21434
▁hump~~18789
▁veränderte~~6185
geschwindigkeit~~7738
Neurotransmitter~~5559
fonds~~16947
▁Flugh~~16639
▁Hurricane~~20576
kosysteme~~14816
orbital~~18315
▁eingebunden~~11445
▁Genauigkeit~~6567
▁Rechte~~10852
▁Magie~~13961
▁eventuell~~7675
▁sich~~147
▁rückblickend~~19722
▁Liefer~~14777
▁Gehäuse~~5407
▁Lautsprecher~~17947
wheel~~20894
▁Rechts~~5632
impfen~~6049
▁schicken~~4616
ultiplayer~~18694
▁defi~~16922
▁Wandlung~~17727
▁integrierte~~2998
volk~~17460
▁Atheist~~3611
▁eröffnet~~8369
▁kündigte~~12949
▁Leser~~11855
▁Akustik~~15674
absorb~~10473
▁Jaguar~~14787
▁polio~~6000
▁ethische~~10321
▁Teleskop~~15196
▁Popcorn~~14167
anpassung~~18053
▁Lesen~~1084
▁Details~~2611
▁Visitenkarte~~15861
isch~~555
▁best~~14662
▁großzügig~~11834
schw~~9288
▁gegensätzliche~~19298
▁mapping~~21177
▁saisonale~~19152
i~~3013
▁Killer~~5819
▁Muskelkraft~~15357
well~~8733
▁allerbeste~~17527
▁Guerilla~~16024
bohr~~14383
▁tragische~~5710
sche~~6530
welt~~1351
▁informierte~~10882
▁Physi~~10304
scha~~10132
▁physikalisch~~20401
rausgefunden~~604
ified~~18101
▁Kolonien~~614
Agenten~~13424
ämlich~~1820
▁Prävention~~15408
▁benutze~~1306
▁triple~~21751
▁grab~~20481
▁Pakistan~~6245
iva~~16235
▁entwickle~~13769
lektromagnetisch~~18003
dose~~747
▁Times~~8506
▁Winkel~~3320
▁benutzt~~290
BP~~18277
▁gras~~16845
möglichkeit~~2180
▁Missionar~~20279
▁angehäuft~~6770
▁Skeptik~~10455
▁berechnen~~9205
▁Abweichung~~8610
milch~~9539
▁Newsweek~~15189
Be~~8640
▁Grösse~~1371
▁Zertifikat~~8576
▁Schwerkraft~~15279
▁Computerspiele~~13804
▁schluss~~8638
▁Crimin~~21276
▁Choreograph~~16919
▁Besatzung~~17328
▁berühren~~9184
▁überlegte~~18521
religion~~18144
▁sauber~~4974
▁bedeckt~~3294
zuwenden~~5712
astronom~~17496
▁Kreislauf~~5171
ualifikation~~8501
▁blickt~~12678
▁Nachbar~~6329
lärm~~12915
▁Fußabdruck~~10351
▁Gangesgavial~~21217
gging~~11126
▁herausgekommen~~8988
Phase~~19011
▁Computerfreak~~15172
▁Instrument~~3952
▁revolutionier~~3388
Programm~~12840
▁Modelle~~2399
▁Milliarde~~3817
▁Krieg~~4587
▁Physic~~18300
Koordinaten~~19410
starrt~~8441
▁Röntgen~~10414
▁Shir~~11763
tles~~17
▁Democratic~~18745
▁verwoben~~9850
▁Krishna~~19346
ässe~~4478
schätz~~2890
▁Städt~~7151
lektronik~~17032
sagen~~7409
▁Schimpansen~~11293
▁motivieren~~1486
▁unglaubliche~~942
▁Shim~~18461
▁Grabstein~~17258
▁sub~~9012
▁Problem~~107
▁Dekoration~~12243
gravier~~6503
▁auftrat~~5975
▁Leucht~~9789
▁dortige~~5812
▁pop~~13697
wächst~~1864
▁verheiratet~~8913
genau~~6928
▁Israel~~2973
tium~~17513
atische~~10221
▁modern~~5208
▁SAMS~~21732
▁Schmerz~~2497
motive~~14525
▁tiger~~21264
▁profitier~~3593
▁pol~~11991
home~~16184
▁Glass~~8413
lagen~~1794
▁inspiriert~~8059
▁schweben~~2778
▁Zwang~~11606
▁Tierart~~346
▁kostengünstig~~17494
ROM~~14329
▁Kriege~~5104
wende~~16239
Ashbur~~20273
▁korrupt~~19633
▁autonom~~19708
▁Szenari~~17823
▁duck~~19835
brüche~~17841
▁Vererbung~~16650
▁Satya~~20492
▁Aufzug~~12230
▁Kriegs~~10258
▁ewig~~4090
▁Lebzeiten~~15809
▁Schlange~~4579
▁zahlt~~3566
▁Spaß~~1319
▁heisse~~6067
▁Katastrophe~~11839
▁Standards~~2183
trafvollzug~~14599
▁Tasmanien~~17791
▁Buchstaben~~13805
▁Verbindung~~2572
Origami~~16276
▁heisst~~5155
▁Ask~~18833
▁Replikator~~19866
▁Staat~~1147
▁Kongress~~6018
▁Beweg~~9682
▁late~~13172
▁Ramadan~~20966
▁Curt~~21393
pt~~2039
▁Pla~~1670
▁separate~~14976
▁Samen~~9613
▁allem~~3632
▁scheinen~~7433
▁Galler~~18601
▁Nährstoffe~~13754
▁Cura~~21620
lbatross~~4861
▁aller~~1382
▁Reservoir~~6130
rankheitserreger~~13968
▁ASCAP~~20129
▁mathematisch~~17425
▁rotation~~21002
▁Dengue~~18210
▁Außergewöhnlich~~9758
▁Bewusstseins~~12824
▁Propeller~~4108
fische~~5865
▁schlage~~9124
kram~~6465
▁Oma~~13498
erkennen~~11446
▁Koch~~13735
▁rüber~~4705
gramm~~16708
▁cyber~~16712
▁Dinosaur~~19001
▁Sata~~21172
▁determin~~14087
genoss~~14106
▁Presse~~10362
▁Designs~~7979
▁Seil~~9728
strasse~~13505
▁Sein~~15582
▁wurden~~34
imini~~7623
gruppe~~1569
▁lokal~~5267
▁dutzende~~12721
▁Rule~~20525
▁jung~~6598
museum~~11332
sländer~~12947
▁Vorstädte~~13720
▁abschneide~~1714
▁Kamen~~14295
▁frühesten~~13185
inner~~607
▁Carm~~15308
▁Idol~~16739
▁Mytho~~13126
▁Ursachen~~7699
▁wiederher~~4037
Organisation~~12539
▁durchlebt~~14211
▁keine~~155
ematode~~18923
▁Channel~~8303
▁Columbia~~14798
▁Galerie~~16017
▁Todesstrafe~~14455
▁faszinierende~~9117
▁Glaubens~~2823
▁allmächtige~~19975
▁II~~18072
▁Langzeit~~4049
hu~~13871
astro~~7972
neutral~~17451
hi~~6996
planung~~15383
ho~~4459
▁Würst~~19567
▁suche~~6883
beat~~18137
▁motivation~~6016
ha~~7095
eat~~3692
he~~5801
drüse~~9493
▁Weide~~12725
▁Honey~~18035
okratie~~1560
▁nötig~~2186
▁Nebenprodukt~~14239
beispiel~~13915
haushalt~~9761
▁Out~~11698
▁Verhaltensweise~~3113
▁Lieferung~~18417
▁random~~17529
spritze~~15847
▁Our~~16144
▁überdacht~~17929
▁sprachen~~4582
▁unterirdische~~18444
itis~~5995
▁Room~~19706
▁homosexuell~~11678
▁geprüft~~12964
▁Clooney~~18819
▁demographische~~15451
▁dieser~~362
▁drauf~~3825
▁tötete~~2944
▁mächtige~~5249
▁verfütter~~13724
▁Zufall~~4342
▁trink~~1212
▁Nigerian~~19910
▁draus~~10004
▁Lä~~9649
▁einge~~3467
▁Verursach~~14769
isier~~17533
▁Meeresboden~~173
regal~~14828
▁diesen~~421
▁asthma~~21340
▁weitreichende~~16928
▁FAA~~2432
▁Eisenbahn~~5174
▁Völkermord~~2853
▁bipolar~~16721
tick~~16871
▁Geheim~~6362
▁stehe~~3239
▁gratuliere~~14978
▁geschä~~11414
▁Strahlung~~10482
folie~~15858
▁essen~~1661
▁Tamil~~18845
▁Eingabe~~9161
▁wählte~~4199
▁aussortier~~1920
Fachmann~~16357
▁Läufer~~19895
▁verbring~~11343
▁etablier~~7148
▁steht~~1900
rmste~~13993
▁Vertrag~~15273
▁Einheit~~6546
schweiß~~17065
▁Wett~~7289
▁knock~~19689
▁Gaza~~13249
esearch~~4725
▁zusammenarbeite~~3055
star~~6092
▁gespeichert~~4785
▁begangen~~3690
▁gehe~~4600
▁absichtlich~~5237
▁vergrößert~~4371
▁Bauernhof~~15541
▁Schweigen~~3002
▁geringer~~3503
▁bring~~14405
▁Dialekt~~13321
stab~~12352
▁Note~~970
▁Legastheni~~13267
stan~~6970
▁Strände~~4930
▁geht~~719
ürtel~~12629
▁Treffer~~16436
▁Dopamin~~14659
hne~~8468
▁Sowjet~~9226
▁Teilnahme~~8309
▁Primzahl~~19502
▁vergangen~~8944
insel~~4890
▁vorstellt~~11417
▁Dublin~~10109
▁Egg~~9901
sucht~~10928
▁user~~20355
look~~19609
▁Illusion~~9706
hnu~~20727
runken~~3198
▁Bildungsniveau~~1955
▁3.5~~14614
▁Lifestyle~~19634
▁IT~~7212
▁Symbole~~14313
▁Stimmung~~4470
▁setze~~16505
▁koordiniert~~5846
▁Val~~14218
▁Allgemein~~7766
▁Van~~11571
▁zusammengesetzt~~522
dynamik~~19031
▁Glanz~~18705
▁Schwangerschaft~~9457
▁braun~~15017
▁750~~6249
scheiden~~11459
▁Cartoon~~10429
sprachige~~9702
▁eingeborene~~18995
▁Rodrig~~14444
▁Röhrchen~~12150
▁Connecti~~11522
▁anwesend~~11903
▁Williams~~14610
▁Oprah~~17644
▁Hobby~~10772
▁dichter~~4523
schmuck~~18504
▁militant~~21425
▁grundlegendste~~18329
▁tatsächliche~~3868
▁Kapitalismus~~11974
▁prim~~21433
aub~~8115
▁Stadium~~10252
▁Belgi~~14748
auf~~894
▁Zwillinge~~16908
▁Sonde~~19480
▁tendieren~~10953
gesteuerte~~13755
▁Sacr~~15954
aus~~597
▁römische~~15657
wandel~~14219
▁peng~~6281
▁Millimeter~~4937
▁Verteidigung~~8370
▁jeweil~~2210
Software~~16753
gesehen~~1533
Platz~~18964
pock~~2879
▁Gehry~~13891
▁verhält~~14649
▁Osterinsel~~13506
Grenze~~16474
▁afghanische~~6608
▁Alexandr~~6978
▁Krypto~~20950
Projekt~~10245
▁Volvo~~13999
▁bereitet~~6542
▁süße~~10156
▁erholen~~3505
Schalter~~14688
▁Dividende~~14261
▁email~~14992
▁Schneide~~8208
▁arbeitslos~~1789
▁Teilen~~2426
▁Interessen~~9947
▁Geschlechter~~11656
▁dehnt~~11393
überwachung~~11384
▁Comic~~14292
zuhören~~3192
▁Repräsentant~~13546
▁head~~21229
▁Wurzel~~4335
▁Abschluss~~1784
▁Dor~~12353
▁Hefe~~16805
professional~~17444
▁reisen~~4673
▁Obdach~~13596
▁Tatsachen~~1111
▁Vorurteil~~17333
▁Affen~~10179
▁laid~~20877
▁Don~~9716
▁Lebensdauer~~5889
▁Konsequenzen~~4882
▁vielleicht~~878
▁studio~~20750
▁Doc~~10631
▁drehe~~16619
▁selbstbewusst~~11602
upp~~7546
▁schicke~~12498
▁Gardner~~13808
▁Lizenz~~10861
stimmig~~4372
▁fest~~3822
▁kabellos~~18746
▁Kühlschrank~~3644
▁impos~~17909
schlug~~14340
▁Filter~~12368
▁gemeinnützig~~17416
▁Kilogramm~~10744
▁Jabb~~19646
▁leer~~9607
Version~~14989
▁nein~~935
▁differenzier~~18091
▁Tech~~12217
übergreifende~~12776
▁FreeSpeech~~21750
▁Barbar~~13455
▁Heuschrecke~~10686
Forscher~~13586
helix~~13842
▁städtische~~6063
▁Charter~~17846
▁abheb~~17684
▁aufgegeben~~3251
▁Biolumineszenz~~314
▁Computerstimme~~19654
zuschlagen~~12281
▁Umlaufbahn~~9000
▁unterscheiden~~8271
▁Heirat~~6647
▁Hände~~3890
▁Oscar~~13285
▁unterscheidet~~9568
ney~~11432
tipp~~7332
net~~9052
neu~~6283
berwachung~~10255
▁Walker~~9274
Zeug~~16018
▁hoffnungslos~~9076
▁angeboten~~3116
▁Ratte~~9315
ardi~~17555
▁persönlich~~7405
▁spanische~~13911
▁Prostatakrebs~~19124
▁mühelos~~10735
▁Enzym~~9510
▁surge~~21270
ekhar~~16473
läuf~~7906
schüttelt~~4679
▁Prognose~~13751
▁ca~~3258
▁vermute~~1469
▁Koffer~~16321
active~~19226
▁co~~19488
oshi~~6160
▁Renn~~11798
▁attack~~8368
▁undeutlich~~15712
▁Story~~13958
▁Erin~~15149
grenze~~3591
▁my~~11508
▁Kopieren~~16750
maschinen~~6758
▁Präsident~~4934
▁kurzsichtig~~15313
▁Akte~~10072
ally~~18604
▁Zeiträume~~2251
▁Eric~~3818
▁verglich~~9913
beschreib~~16631
▁gesegnet~~11637
ellowstone~~14822
▁antwortete~~4622
▁raffinierte~~2910
▁Lebewesen~~282
dra~~5542
▁Pittsburgh~~3697
▁schädliche~~17917
olo~~20788
▁mu~~5168
▁Disease~~21536
▁Bell~~3146
▁Smartphone~~8702
▁Connectome~~16896
▁sensation~~14709
▁physiolog~~19888
▁Ausbildung~~1012
▁bislang~~9588
▁gestartet~~5871
▁Fantasie~~5425
▁entwickelte~~5402
▁einmarschiert~~13044
▁irgendwa~~3193
schub~~5746
▁Trümmer~~16536
▁Schnittstelle~~4076
teufel~~16642
▁unnötig~~7652
▁Atlant~~14567
▁reflectiv~~21485
▁Disneyland~~11479
▁nutzte~~5236
▁Anregung~~16386
▁Knete~~17561
▁irgendwo~~826
ommissar~~20825
▁Worte~~4069
▁Output~~16281
gestimmt~~13559
ußerung~~12591
berdosi~~6337
▁symbol~~21076
▁Viren~~5982
▁Gefangen~~12730
▁Helden~~6086
▁erster~~1742
ili~~10661
▁ersten~~420
ellow~~16822
▁schw~~8301
▁Metrik~~12582
▁Lev~~20627
▁Fabrik~~4840
▁Hebr~~19784
Uhr~~10996
▁fantasy~~21768
schwenk~~18535
krieg~~667
▁tektonische~~9291
▁flies~~13447
▁Verlierer~~18149
esichtsausdrücke~~13772
▁Fresse~~13974
▁intensiv~~3433
▁parasit~~20498
▁dot~~9499
▁Schott~~5140
▁Minen~~12962
▁gebären~~13370
▁herausgefordert~~2072
▁Soldaten~~4666
gewohnheiten~~13225
▁Korallenriff~~18240
▁Schlitt~~13460
V~~3805
warf~~6603
wurf~~11076
ward~~5923
ware~~10678
▁interpret~~21769
▁Augenblick~~821
▁Auflösung~~9189
▁schlucken~~16591
OC~~16013
▁Hülle~~5354
▁McMurdo~~15042
room~~16427
▁eingeführt~~5886
▁Gib~~18755
▁Trag~~6432
▁Michigan~~7153
trotz~~928
▁Lynch~~15644
▁klebte~~16020
▁1910~~19173
▁ma~~2731
▁Gefahren~~10562
▁Zement~~11163
▁Grundgedanke~~18179
▁altmodisch~~5364
▁wirksam~~6904
▁Hirnstamm~~9417
App~~16754
▁Astronomie~~15813
▁Umweltschutz~~9628
▁hyperbolische~~8541
▁Spider~~19525
@~~13995
▁Schwarm~~13431
▁Fitness~~7302
▁Maske~~7284
▁11.~~6499
▁11-~~14615
▁böse~~9297
▁Regenwasser~~9489
▁110~~3327
ollateral~~19178
befehl~~6545
▁Prozesse~~2368
mitglieder~~10098
▁beeindrucken~~6677
▁Brief~~7476
aging~~10450
▁Umfeld~~1879
▁Primaten~~10283
▁Twin~~17666
lügt~~12389
quot~~222
satz~~1094
assava~~21024
▁germ~~17604
▁Leck~~14717
▁Senator~~19090
▁6,000~~21189
▁fusion~~20269
▁kurze~~1504
▁NAS~~16987
▁Exil~~9698
▁Erosion~~5053
▁Leiden~~11496
polis~~2931
weisungen~~17543
EIN~~18938
Wüste~~16940
▁Calvin~~14604
▁quart~~21652
▁flopp~~21469
▁Strukturen~~4232
▁individuelle~~1154
▁Schmiergeld~~19796
Fieber~~18901
▁Himalaya~~7005
▁warten~~3824
Ghraib~~17324
▁wartet~~895
▁transfer~~12844
rwärmung~~9626
▁wäre~~1938
▁primär~~8354
▁Kamerun~~8182
▁Andy~~9447
▁potent~~6045
▁rechten~~7791
besitz~~13721
▁funktionieren~~1527
▁erhellen~~14146
▁beleidigt~~15558
minent~~18208
gelassen~~8190
▁date~~8677
▁Variable~~2406
think~~21482
scheibe~~3325
▁Griff~~9943
▁beleidige~~13223
▁Kulturen~~2645
akti~~17284
▁nützliche~~6937
▁Stuhl~~4028
▁verantwortlich~~1945
▁Ressourcen~~2241
▁Universität~~2014
▁verwundert~~8103
▁grausam~~5541
▁Feuchtgebiet~~9095
▁Hospital~~4048
▁worden~~1187
▁Garret~~12722
Frage~~13202
▁Afrika~~4332
▁kompatib~~17036
lumni~~13641
▁Gehirn~~1374
▁zusammenhäng~~10736
▁Vorschul~~20674
▁routine~~19965
▁Ejakulat~~20376
▁Phoenix~~15462
▁BR~~19053
▁kühn~~13500
▁althergebrachte~~16869
▁Armut~~2763
timation~~19743
▁trainiert~~6878
▁Kapur~~20786
▁Sattel~~18256
personal~~9096
Technologie~~10253
punkte~~2561
,~~11288
▁Rechteck~~13425
▁trainiere~~4062
Treffen~~19518
▁Niss~~19241
▁Nervenzelle~~11376
▁gehören~~5079
Wolke~~8866
▁jedenfall~~4295
shire~~15384
▁tagelang~~17795
▁Element~~3667
▁versehentlich~~1152
Kampagne~~6082
geschaltet~~10888
ologie~~7704
▁Berücksichtig~~15532
▁hervorruf~~8280
▁Bauchspeichel~~13485
▁hotel~~21673
▁Aktion~~4899
▁geschmeidig~~18288
ania~~10824
▁Wasserverbrauch~~17623
▁digital~~8840
▁Praktik~~8965
▁Zone~~15158
▁Börse~~3665
▁Snoop~~20215
▁endlose~~4732
▁Zeitgenosse~~17108
Erscheinungsbild~~19167
▁Unterbrechung~~13869
▁Leber~~15552
▁fatal~~17755
▁Let~~9518
hampagne~~21494
▁religions~~21119
Day~~21355
▁BG~~6247
Seite~~4663
▁folgte~~4214
India~~14812
▁Temporallappen~~9414
▁zieht~~6147
▁Digital~~8947
▁Republic~~16124
▁99,9~~9151
▁Umschlag~~3675
▁miese~~15247
▁BB~~19861
▁Republik~~7556
▁upload~~21324
▁Stürme~~13508
side~~5123
▁ziehe~~7628
luck~~16590
▁These~~874
balone~~15201
▁charm~~20233
▁time~~20916
▁vorübergehend~~12003
▁Bestrahlung~~2534
aida~~19182
▁kapier~~8014
▁beeinflussen~~2562
▁systematische~~3776
medien~~12679
▁bildlich~~12920
riegel~~12530
▁Mischung~~8098
▁Verstorbene~~16223
▁DI~~12519
Stränge~~16292
▁Gründung~~12088
ISA~~8783
▁Vogelperspektiv~~20334
▁angular~~21379
▁Konfrontation~~15528
▁Disziplin~~8848
Sandwich~~19204
▁verschiedene~~833
▁Fossilien~~11297
▁schau~~12447
▁Abendessen~~3187
▁Novocure~~19445
▁Pub~~9482
▁Brüste~~10409
▁Joy~~16150
manda~~6819
▁Hunger~~7023
▁egg~~21587
▁slash~~20706
▁Hoden~~9494
geteilt~~3538
▁graue~~15927
▁organische~~2371
körper~~2531
▁kocht~~5197
▁Milgram~~21428
▁sterbe~~16580
▁günstiger~~9210
▁Beratung~~9763
▁Gipfel~~447
Dodi~~19396
▁Carrie~~7290
▁Beijing~~18221
▁problematisch~~15187
▁Brillian~~18848
▁Transition~~15337
▁Calciumcarb~~18798
ometrische~~16763
▁passen~~3910
▁Rentner~~17145
▁Hydra~~7861
▁Friedens~~4750
▁klinische~~2602
▁befriedigen~~13579
▁Equ~~20360
Geheimnisse~~12646
▁Drama~~3040
älle~~15907
▁Genuss~~7511
▁hail~~21706
▁Achse~~561
▁Waage~~298
▁Picasso~~9051
fleck~~5880
▁Gemüse~~4956
ism~~13935
rinde~~11409
▁detailliert~~4814
▁Corbusier~~19052
▁virtue~~21510
▁Rassis~~9113
ise~~7706
olpert~~10881
▁beiseite~~7345
▁Moog~~21095
verfolgen~~11292
grade~~6625
▁kriege~~6721
▁pat~~18574
▁alte~~4872
zeln~~9401
zell~~10238
▁pan~~7259
▁auseinandersetz~~17612
▁pal~~11306
anwendung~~12990
strich~~12616
preis~~2908
▁kriegt~~8102
▁frisch~~3317
▁erst~~683
▁bestätigt~~7088
▁Nahrungskette~~4945
aktivität~~14328
▁Empfang~~7170
▁Habitat~~15478
OT~~20444
▁Rod~~16005
▁Blei~~11884
▁effektiv~~5602
uswendig~~1225
stoß~~6473
▁Häufigkeit~~17848
▁Modern~~5371
▁product~~21760
▁Akteur~~12709
▁Scheck~~19192
ärzte~~6059
schlagen~~6478
▁hinschau~~12331
▁komprimiert~~18126
▁Stammzellen~~10627
▁Symptome~~5465
▁Nobelpreis~~7016
▁fördert~~1421
▁Robotik~~18090
▁Jewish~~21508
▁erklären~~900
pflanzen~~7831
▁Sich~~11243
▁Robotic~~13786
▁minus~~7869
▁stimmt~~4224
▁zuhören~~967
▁gelehrt~~1171
▁auch~~241
▁vend~~20878
▁Town~~16736
▁goldene~~16209
▁entscheidend~~1940
▁Stromversorgung~~16931
▁fördern~~1210
▁Rom~~5097
kitzel~~18139
▁stimme~~7660
▁Slam~~20851
▁betreut~~4182
bürger~~16443
schirm~~3297
▁Spektr~~18751
▁überraschte~~15536
▁Brasilien~~5019
rstellung~~9203
▁ausführen~~2586
▁Chirurg~~6867
▁Lungenkrebs~~15873
▁wüsste~~6689
▁gewisse~~3590
▁bizarr~~54
▁therap~~18180
▁Toyota~~12747
▁Leban~~21554
beginn~~12563
▁Tata~~8154
▁Augenbraue~~17220
Bombe~~15736
▁Komm~~9989
▁Ratschläge~~3454
▁afr~~16039
▁Ameise~~16180
▁crowd~~21209
06~~17818
▁Pflanze~~5279
modern~~14225
▁Bypass~~17159
bündel~~9413
▁Koma~~19820
▁nerd~~11863
▁aufgeblasen~~18140
komponente~~13380
gypter~~16994
ieroglyph~~20189
▁Wider~~14466
▁spirituelle~~7420
▁train~~20944
▁Imitation~~17001
seek~~18107
▁gesteuert~~15204
▁opt~~17034
▁Stress~~4684
▁arch~~13516
▁Roy~~17371
brot~~13676
▁Tafel~~2965
▁kollaborier~~13098
▁Schäfer~~18572
▁unendliche~~8074
▁Interviewer~~18586
▁Verarbeitung~~9162
▁stirb~~6902
ufwärts~~17639
▁regenerative~~17133
▁inform~~20172
▁definition~~18728
▁sondern~~231
ilanz~~6010
▁Gapminder~~16600
▁Angelin~~20024
▁over~~17434
▁Große~~4149
▁Hmm~~8424
▁Bronze~~13577
XX~~21246
▁Thunfisch~~19593
▁Libyen~~19746
verletzungen~~19085
Mitarbeiter~~13374
▁Nerven~~1410
▁trocken~~3337
koko~~20623
▁Kommun~~1146
▁Diego~~8780
reaktor~~17163
▁Rest~~5094
▁Seiden~~14933
▁voil~~17972
▁hohe~~1404
▁NASA~~8404
▁Oel~~19793
▁Dankeschön~~8899
▁aufnehmen~~8447
knochen~~8449
▁offener~~14158
typ~~6180
▁Schweden~~7441
▁materielle~~8094
▁radikal~~1036
risiken~~17276
zieren~~11137
▁Produktivität~~1690
▁98~~8701
don~~8244
▁präsent~~17728
▁Organisator~~15328
dom~~7184
▁93~~7573
▁erschien~~2994
▁90~~1757
m~~242
▁96~~14727
▁95~~6209
Ernährungssystem~~5209
▁zerstörte~~16542
▁Winky~~21289
▁9.~~6182
▁weggehen~~11731
▁Bridge~~17206
Gewaltlosigkeit~~13274
▁Bänke~~7394
▁biolumineszente~~8357
▁regel~~2600
▁Stein~~3057
▁Fachgebiet~~16277
▁Eno~~20413
▁Ehren~~3622
▁Toten~~7907
kus~~4453
▁Entdeckungen~~8399
runterfallen~~19882
▁40.000~~14354
▁exponentiell~~10731
▁Testperson~~3561
▁Wiederbelebung~~15436
▁expressive~~4219
▁Dienste~~17086
hören~~4271
▁Lunch~~19979
schicken~~16801
▁Lebensstil~~7311
▁Flüssigkeit~~654
▁tragbare~~14018
Achse~~8644
▁will~~1033
▁Ashaninka~~20034
dessen~~1157
▁Protozellen~~21035
▁Japan~~2155
▁Klimakrise~~17871
▁Barnett~~18279
▁funktioniert~~888
▁Errungenschaft~~9867
Nullsummenspiel~~18147
ttle~~15010
▁Tool~~10876
▁Katalysator~~1333
▁Banane~~18548
▁Friedensprozess~~18713
rausgehen~~8850
erung~~3798
▁Turbine~~17870
▁betrachtete~~12623
▁übertrumpf~~16042
cortex~~21321
▁absurd~~973
▁dial~~20005
▁Mark~~3279
sammeln~~4970
▁Mari~~15881
▁experiment~~19430
▁Sänger~~4415
▁Produkt~~2104
▁Marc~~6975
▁sezier~~4948
▁Skelett~~11272
▁Hubble~~16557
▁from~~12115
▁zielt~~9684
▁Marx~~11745
▁leben~~166
▁Marv~~13954
▁Homosexu~~11695
▁Gewitter~~18338
▁Nova~~14275
▁Mars~~9303
▁bleibt~~3371
▁entscheiden~~3481
▁soccer~~20754
ggression~~7915
bau~~5049
bar~~2701
17~~3329
▁300~~542
▁Klassenraum~~18233
▁Nagel~~14056
▁subjektive~~8810
▁faszinierender~~11325
▁Sprecher~~4973
heulen~~6284
falten~~9135
▁Sprechen~~1439
▁vollständig~~2463
bad~~17664
▁latent~~15724
▁volume~~17999
18~~18642
▁Great~~3006
bal~~11442
▁30-~~9468
▁ergatter~~8490
▁kämpfen~~709
▁Banker~~6493
▁glaubte~~3770
▁fände~~10372
▁once~~21710
▁like~~4592
vertreib~~12418
▁Probleme~~730
▁stagnier~~7063
▁Technolog~~18299
▁beträgt~~616
hypnoti~~19041
▁aufgestellt~~7362
PNV~~21543
▁stri~~17988
▁50,000~~18365
▁Technik~~203
▁fortgeschritten~~4021
▁Zutaten~~6271
▁inhaftiert~~9073
▁hmm~~12237
00~~4897
▁länger~~1364
▁Scheinwerfer~~18482
▁Dokumente~~14904
▁zweiter~~3993
Tool~~18416
▁reicht~~3994
▁Crime~~17077
▁müde~~11320
Choice~~8619
web~~11768
▁Wann~~8842
rufen~~1516
▁zweiten~~1536
▁lung~~15779
▁Wand~~3058
▁Otto~~19713
▁Netz~~427
▁Syria~~18903
▁Verrückte~~3911
▁Blick~~3029
▁HyperCard~~21293
▁Cedars~~20652
C~~2324
▁Fortschritte~~5740
Central~~14790
▁wider~~2149
ome~~7833
▁Die~~1663
sterblichkeit~~7834
▁Biomimi~~19871
gemeinschaftlich~~8974
▁süchtig~~10083
omo~~17000
Drohne~~20887
▁Alice~~14840
▁Dir~~4435
▁Dis~~1896
▁erörter~~17830
▁hä~~15472
▁gespart~~17780
▁Serge~~8411
▁Versorger~~15512
▁Faden~~13220
▁Klassen~~1978
▁medizinische~~3397
Link~~8341
verzerren~~11837
▁Bundes~~10506
▁interpretiere~~10496
▁Dienstag~~6417
▁universal~~1018
▁Wäge~~21051
nhänger~~20809
sministerium~~16025
una~~17106
▁sämtliche~~13649
▁Palo~~5485
▁Palm~~12797
ung~~152
studio~~9653
▁Pala~~8757
unk~~14226
▁überschreite~~15351
▁Area~~10035
▁industrielle~~1262
kugel~~13207
▁geschäftige~~7967
Center~~13363
▁umsetzen~~14954
▁Bang~~10911
▁vorzubeugen~~5739
▁Band~~4315
▁Wiki~~18296
▁vordere~~6809
geklebt~~7547
▁wollen~~969
▁zurückgreife~~11831
▁gäbe~~3200
▁Baxter~~16004
ruct~~18690
▁legs~~6429
Dating~~7301
▁gegründet~~11658
▁Inspiration~~13015
▁legt~~299
▁erfreut~~12185
komplex~~15956
▁Einkommens~~14003
▁India~~14948
basis~~16802
▁Forum~~13575
Grund~~13565
drüsenkrebs~~13486
▁Klam~~8261
tiny~~19849
ting~~14546
▁fr~~1491
▁Klar~~3628
▁Pepper~~20092
äcke~~7087
gebastelt~~7542
▁zwingen~~6113
▁Isabelle~~21093
▁Schell~~17822
▁Partikel~~12574
uffard~~20924
schutz~~3324
▁Wind~~3323
▁unausweichlich~~8035
▁Ellen~~11733
aufgabe~~3529
▁marschier~~6068
CM~~20988
▁at~~12767
▁Baustelle~~12006
▁aufbereitet~~4770
▁Bonus~~10747
wöchige~~20040
verlagern~~9041
fotografie~~18987
▁ab~~172
▁stomatopod~~21313
▁Monster~~5645
▁ag~~10485
▁betr~~3546
▁Steinzeit~~17003
▁gap~~21589
▁fu~~15142
▁Junge~~4873
▁an~~174
▁am~~130
▁al~~17169
Zelle~~17699
Ch~~6574
Co~~11028
▁Dichte~~179
▁Spezialeffekt~~17888
arawa~~18285
▁invert~~19097
▁Spül~~15885
▁Genesung~~20349
ootprint~~14262
Dollar~~3646
▁Regenbogen~~14014
▁drohen~~7995
▁Pianist~~4017
balance~~15737
▁stärken~~8901
▁hören~~1621
▁fo~~16376
▁Shackleton~~20350
seven~~17404
iz~~4007
▁senkt~~1979
▁Ehemänner~~8936
▁Herbst~~12122
iq~~20461
ip~~3541
is~~1721
ir~~6858
▁gemacht~~33
it~~1724
▁spot~~17225
iv~~1492
▁Berg~~5365
ik~~2940
ij~~20633
im~~2040
il~~3367
io~~2757
in~~2297
ia~~1220
▁rock~~16677
ic~~7991
akt~~7200
ie~~1209
id~~2123
ig~~813
if~~2124
▁gel~~6669
▁geo~~14808
sammel~~14723
▁Ellbogen~~16375
▁geh~~1568
▁gek~~10201
▁die~~29
▁beliebig~~12967
erebral~~4168
▁gef~~7881
▁schließe~~6377
aki~~5417
▁geb~~3267
▁dir~~1625
▁dis~~10614
▁Anordnung~~6431
▁vertreten~~875
DP~~17805
▁Ehemann~~4700
▁vorsichtig~~10694
▁get~~3197
▁Colli~~14164
▁unfähig~~7100
▁Comedian~~14863
▁Bildhauer~~10935
▁Lagerfeuer~~14442
▁stärker~~3719
▁schlug~~8348
▁glorifizier~~20392
▁Privat~~1652
ella~~16201
verzeichnis~~15376
▁Mission~~3684
▁berechtigt~~16125
elle~~3383
▁verdünnt~~18167
▁organisch~~18621
▁Arhuaco~~20108
▁ungünstige~~9187
kin~~14072
bunker~~17671
takt~~7943
etchup~~14154
▁erwisch~~16849
▁operational~~20536
▁Bolt~~18518
▁NRO~~13349
▁leiten~~3746
▁Berater~~18419
materiali~~6762
T~~312
Vo~~11920
▁Calder~~20165
▁Gefolg~~11437
▁fliegende~~2467
ake~~11984
▁Löffel~~17549
▁Ruhm~~6673
▁IGF~~21253
▁leitet~~8789
▁vertraut~~189
▁Kleidung~~9376
▁Venture~~16943
▁Selbstverständ~~14206
▁porös~~3311
bedeutend~~7496
▁verwirren~~13296
▁Vieh~~10733
▁Cal~~8885
▁nachweis~~5690
▁Nichts~~5002
▁Viel~~2349
▁Toiletten~~5587
▁Vier~~6410
lassen~~6964
▁geriet~~12809
▁erinnerte~~6297
human~~16222
▁Sri~~11048
▁figure~~13815
▁seine~~2110
▁Lähmung~~13401
iscipline~~21790
▁Algorithm~~9138
▁detail~~20464
▁durchgehen~~11450
▁nirgends~~19318
▁fax~~20116
▁paralysi~~19459
▁aufwache~~1673
▁Demenz~~18392
▁besiegt~~6979
▁Flächen~~5231
▁far~~9005
▁brach~~5470
▁5,000~~18475
▁fan~~19520
▁Schmelz~~4773
▁Nein~~7463
▁volle~~8650
▁Neil~~9911
▁LinkedIn~~16431
▁höchsten~~1630
▁Lichter~~16198
▁George~~5623
▁sonderlich~~936
take~~1553
▁freier~~14772
▁begonne~~6035
▁Tennessee~~15053
▁Angriffe~~17453
▁loslege~~7785
▁center~~18854
▁vorhanden~~5454
▁Tofu~~20505
▁Michoac~~20076
▁RAM~~20115
▁Jerem~~13264
▁Sandwich~~13955
▁club~~20007
▁Dünger~~7033
▁grauenhaft~~7871
▁tiefgehende~~12559
▁ansässig~~7955
orado~~19295
▁Moskitonetze~~16926
Scanner~~8819
▁obes~~19631
▁umständlich~~16611
▁Stopp~~6288
Art~~10229
squalität~~3775
▁Pic~~20106
visible~~21544
▁chemische~~519
▁gedacht~~4525
▁kümmerte~~9378
▁Square~~14776
gekühlt~~16582
▁redundan~~20684
gossen~~13556
▁Kurbel~~19927
plica~~13574
▁Smithsonian~~17005
▁oben~~383
Arm~~10276
▁Zugriff~~11833
www~~20562
▁Abenteuer~~8410
▁Commerc~~15450
vertrauenswürdig~~8806
200~~16980
▁chat~~21087
▁Date~~7300
maxim~~19636
▁gesteckt~~6021
▁Kap~~15514
gesucht~~19544
▁ancient~~18667
▁stimmen~~2127
ā~~20541
▁Anomalie~~14099
▁Evolution~~1337
▁Federal~~16111
statistik~~14233
▁car~~21358
▁prognostizier~~7060
gebrannt~~16224
▁Rap~~17695
▁gepostet~~4572
gegriffen~~2530
▁Larven~~16500
▁leichte~~5535
▁glaubt~~5683
sichtlich~~6047
▁Australian~~21275
loyd~~18118
ibati~~18790
▁schwerer~~9723
▁Wissenschaft~~738
▁Bunker~~14136
▁Chair~~19434
▁Kai~~15246
▁Eve~~3071
▁glaube~~1119
▁sign~~16795
▁dynamisch~~9420
vielfältig~~10930
burg~~3219
inisterpräsident~~11246
▁Village~~14797
▁Schl~~1697
▁Scho~~16692
▁spekuliert~~14558
▁Schi~~10154
▁zusammenkomm~~10982
ierende~~12808
▁manifest~~14306
▁lebhaft~~17575
istische~~6163
▁Schw~~3189
abteilung~~8156
▁plastisch~~10202
bewohner~~2780
▁Palin~~12896
▁verwurzelt~~9038
errichten~~6555
▁Teller~~3645
▁73~~8883
▁Montana~~14374
▁rauchen~~8459
zuwerfen~~15181
▁72~~11503
▁wieviel~~3554
▁Pläne~~12494
▁Betreuer~~14080
▁Look~~5341
▁epidemiolog~~20932
▁Französisch~~17783
▁Parabel~~2655
▁Tür~~5589
▁Ironie~~2698
▁Netzwerke~~5263
orex~~19753
zug~~446
▁gewaltsam~~15646
▁flori~~14935
cock~~12132
▁ausrechne~~9059
▁Bolin~~19992
bezüglich~~1102
▁Ungläubig~~2790
▁Radar~~16168
ć~~21329
▁Fliegen~~2454
lief~~9209
▁Botschaft~~2949
▁Differential~~16616
erra~~17941
▁Turing~~17753
▁Orchidee~~12323
▁strategische~~12495
▁stecken~~3540
▁beam~~20997
▁Entsteh~~1195
▁Bedarf~~9311
▁Symphonie~~4376
ception~~13782
▁Kopfschmerz~~19571
hnen~~1832
▁Geschöpfe~~308
▁bieg~~466
▁beschleunigt~~4057
▁Vanco~~11428
▁kreiert~~10115
▁tick~~14194
▁Hunde~~5253
▁Raphael~~20679
▁unbekannte~~197
▁Kombination~~6212
▁Bull~~12632
▁Montag~~9246
▁Ragh~~18832
▁Social~~13327
▁Karbon~~15224
Pachycephalosaur~~19750
▁zelebrier~~10812
▁slope~~21622
▁Abkürzung~~11972
▁vereinigen~~17053
bert~~8365
▁Investier~~16948
operieren~~6076
fahr~~6854
form~~73
▁Pixar~~20026
ampaign~~19913
läß~~16608
drängen~~17581
analyse~~12592
kombination~~15868
▁überprüfbar~~20382
ford~~6509
▁exhum~~18217
berg~~2966
mbient~~13252
▁ergreifen~~4618
▁Flor~~15123
▁top~~18421
▁anspruchsvoll~~17251
▁Beleuchtung~~8352
▁Namaste~~17700
▁existiere~~20919
▁enthülle~~8821
▁Umkreis~~11913
▁Fälschung~~17916
dampf~~4401
▁subventionier~~18260
positiv~~12978
▁Mount~~6728
▁Schauspielerin~~15601
▁Population~~8692
▁nigerianische~~8435
▁Bug~~6952
millimeter~~20888
▁Lovelace~~14302
▁Kriminalität~~14887
▁reinkomm~~16789
▁Gilli~~16613
▁Krümel~~20791
diagnose~~13094
▁begegnet~~3424
▁drückte~~15701
▁eklig~~6679
▁Najmuddin~~20817
▁Anekdote~~11312
▁Betreuung~~8698
▁motel~~21674
▁Großstädte~~16398
▁River~~14603
▁herstellt~~11969
▁Stimm~~2882
geatmet~~16683
▁wenn~~112
▁Lungen~~13667
▁herausfinde~~2209
ship~~5996
▁begegnen~~14189
▁66~~17847
▁gesteigert~~12996
verbesserung~~7734
handel~~1511
▁unabhängige~~1591
▁primitive~~11361
▁Mehr~~9812
▁beanspruch~~5822
▁verlieren~~6235
▁Maker~~17199
▁Sinneseindrücke~~5574
▁Modell~~2428
▁Einzigartigkeit~~20190
▁Bestätigung~~8273
▁Regierungs~~10186
▁lesen~~1240
▁Integr~~7202
▁weltbeste~~17815
▁Feuerwehrmänner~~15869
▁plausib~~18810
▁Verwirrung~~19402
▁mechanische~~15792
▁Gemein~~5696
▁SARS~~6108
▁protein~~19414
blut~~6732
▁Ragu~~21534
▁Stamm~~9039
▁Reinigung~~15916
▁seltsame~~766
▁heilen~~6960
▁Babys~~10520
▁sofort~~2740
▁lange~~599
▁Spalte~~565
▁Marshall~~10032
räder~~14845
feld~~3387
▁hybrid~~15487
▁Inuit~~19774
eltern~~15911
▁definiere~~19255
abdruck~~11152
▁Debatte~~1901
▁baue~~13768
▁uralte~~9567
▁Chaplin~~17892
▁Beulen~~19751
▁alarmierend~~19086
▁handwerkliche~~18858
▁definiert~~6926
▁suburban~~15475
▁spike~~21786
▁Sonnenstrahl~~627
▁Journalisten~~2484
▁baut~~6880
▁Ertrag~~10746
▁analog~~11540
▁Pilot~~2749
▁fand~~6525
▁identisch~~9130
▁Flint~~15473
▁Foster~~19131
ophag~~11114
▁Platte~~836
▁Londoner~~18476
▁schaute~~7594
▁kick~~20468
▁üblich~~2551
▁Benjamin~~7358
telefon~~12775
▁empfiehl~~17103
▁empfehle~~17057
▁Gewohnheit~~8024
mile~~17439
▁add~~6626
smuster~~15445
beschwerde~~18056
vergrößern~~3633
▁basiert~~7807
▁asphalt~~19075
▁Steak~~8921
bearbeitet~~16455
marke~~13191
▁Lunge~~5943
▁Bestimmung~~12317
£~~21015
▁links~~2598
▁Fu~~13829
▁Tonne~~15563
▁bewohnbar~~14814
▁general~~19180
markt~~5124
0~~10955
▁Hoo~~2639
▁padd~~20035
meister~~3900
▁Waffen~~6074
▁Hof~~3126
▁Negative~~13558
▁ausdehnen~~16552
▁sterben~~4689
Ingenieur~~10453
▁private~~4483
shoot~~18122
▁Excel~~18133
▁unnatürlich~~13677
▁2020~~10766
▁Umnutzung~~15435
Afrikanischen~~8178
▁Objekt~~4098
▁SOPA~~20303
▁Poupon~~21535
▁Nummer~~5421
▁hässlich~~11123
▁männlich~~9506
▁problem~~19458
weltfreundliche~~11148
▁verlassen~~6659
▁Voice~~20229
▁seltsam~~4071
▁4.000~~5656
▁neurolog~~20491
▁Gemeinde~~2651
▁enthielt~~3021
▁Tier~~1350
▁Hussein~~17125
▁Subjekt~~8264
▁Verdauung~~641
▁Standard~~1227
▁Kaffee~~1211
▁Zauber~~11420
▁Age~~10793
▁Neunjährige~~11882
▁steigen~~829
▁schwöre~~3613
▁beeinfluß~~15684
▁Agn~~17398
▁Jew~~21529
▁amp~~11986
dis~~7223
▁Rice~~18735
ville~~4311
▁treu~~6515
Gru~~8318
▁Bildungswesen~~15894
▁Adoption~~17020
▁Kontraktion~~21052
▁Bären~~1363
▁bra~~18387
▁lebenslange~~6361
▁Harry~~11470
▁result~~15553
Test~~16829
▁liebend~~3207
Bild~~8110
▁treffe~~12505
▁hinweisen~~13518
▁explizit~~8580
verhalten~~8470
▁Illustrator~~9774
▁ehe~~3094
▁erschüttert~~12094
ches~~18472
▁gal~~14578
▁Todesursache~~15882
ssig~~10780
▁berate~~18724
▁Tibet~~9022
▁anerkenn~~16929
▁Grundsätze~~11539
▁Saatgut~~7113
▁Wandel~~1038
▁happiness~~21452
▁stell~~10564
stritten~~7327
▁Aber~~8462
▁Kommentare~~4620
▁Symmetrie~~11405
▁Ultraschall~~9599
ausdruck~~1156
läufig~~13753
▁Breitband~~12699
▁Waschmaschine~~17993
▁Flüge~~18313
▁Math~~17960
▁Landschaften~~4515
▁Cameron~~6228
ummer~~13634
▁Casa~~17489
ruf~~7477
▁spekuliere~~7758
▁Thai~~8432
äuschen~~17367
▁Kätzchen~~1360
▁gelb~~1847
transportieren~~5103
nimmt~~296
zusammengepresst~~14977
▁schmerzhaft~~3479
▁Wut~~12610
▁Intelligent~~16252
▁erhöht~~3326
▁dich~~1287
▁Malco~~10424
▁Matt~~8972
berlegung~~8594
▁promis~~20226
wusst~~13333
box~~2403
▁Verb~~3428
▁zeitliche~~14331
▁verknüpfen~~11366
▁Blau~~8355
▁arbeite~~1471
▁unterschätz~~7769
▁Sorgfalt~~9824
bot~~3722
bou~~11766
▁Danny~~19114
▁Bewältigung~~7772
▁gefallen~~4665
▁normale~~10168
springen~~6489
▁Group~~10889
▁schnell~~2053
▁Fl~~3025
▁entgegenwirke~~16626
gnung~~15639
achi~~11812
▁Wald~~4506
▁Wale~~5141
elect~~16334
▁beabsichtigt~~16317
▁Hu~~10644
▁Säuger~~16635
▁unglaublicher~~2444
▁Kumar~~18403
▁hop~~15414
▁Walk~~7297
▁lieb~~4647
▁Höhlen~~14027
▁hol~~16823
▁Teich~~12579
lesen~~2579
ermafrost~~15748
ache~~8892
schaftliche~~414
▁Zusammenfassung~~1678
entwurf~~20304
▁heiratete~~11990
▁Multiple~~8618
▁lies~~9972
zyklus~~10135
▁Bubble~~20896
▁Sterne~~12482
▁fehlt~~4235
liberation~~21467
▁schmelzen~~4780
▁verfolgen~~5888
steigt~~380
▁Schwester~~6306
▁schaltet~~9428
staaten~~5219
▁Körperteile~~10619
▁Witwe~~11642
▁vermeiden~~4712
ologische~~10375
▁ausge~~5528
▁Abschied~~6966
▁bösartig~~11838
▁Aufnahme~~8953
▁Nerv~~5555
▁Neues~~7149
▁buffer~~17433
ood~~7377
▁Africa~~20359
uar~~14209
fällig~~2272
▁aufbauen~~2697
Dienstleistung~~13630
oon~~13885
▁analysis~~21758
▁Sackgasse~~6757
appen~~6681
erfordern~~15107
▁geschieden~~4436
▁Dollar~~2422
▁Philadelphia~~13971
▁animiert~~15410
▁enttäuschen~~2017
▁feiern~~1503
gläser~~15949
▁sorgen~~775
▁ästhetische~~10917
▁utilit~~20941
▁junge~~1773
klammer~~788
▁Markierung~~12320
ädagogik~~2220
▁Schadstoffe~~4940
ult~~5154
ulu~~14235
▁Rechen~~14987
▁Vorgabe~~2249
▁Hohe~~5629
▁zufrieden~~1542
flo~~8390
vy~~16485
▁pup~~20969
▁archaeolog~~15197
▁feiert~~12637
▁Ticket~~13908
▁pass~~8684
▁Bali~~15396
claim~~19403
▁Balk~~1981
spüren~~2571
▁Ball~~10326
▁gewaltig~~6013
▁zuständig~~5807
▁Stadtzentrum~~19629
▁gefärbt~~10723
▁angeblich~~8298
▁gefällt~~703
▁image~~18626
Behörde~~9091
▁Balz~~14112
Telefon~~18940
▁tele~~17685
irport~~7962
simulation~~16549
▁Bezahl~~3676
▁weitverbreitete~~17294
▁Jura~~8547
▁Kommunikations~~3164
▁alter~~6177
apster~~16665
▁ermutigt~~7389
▁interessiere~~4003
▁Franklin~~7359
▁gezeigt~~4151
▁zusammenschließ~~285
▁energisch~~7190
▁Kommandant~~13322
▁fall~~18026
▁hätte~~2874
▁interessiert~~3990
▁Cash~~18818
▁Sleep~~8881
▁Förder~~9074
▁Simon~~4114
▁Will~~6351
mar~~361
anzug~~3487
mat~~8284
▁Count~~18568
▁kontinuierlich~~7779
▁Wilb~~12806
▁quadratisch~~11380
▁desert~~20501
▁Samu~~14426
▁schwache~~16299
▁Autorität~~1633
mag~~11556
▁ga~~16847
▁jedwede~~4976
maßnahme~~8599
▁Money~~20436
▁ge~~590
mal~~2081
▁guten~~2120
man~~3277
▁angel~~16509
chemie~~18054
ide~~10125
▁Spermien~~9605
▁Verleger~~11109
Droge~~19564
▁Gold~~10205
aking~~19574
▁amüsant~~7307
antrieb~~13886
▁Nelson~~12829
q~~10173
rbietung~~12086
▁Frankie~~15395
▁Wahrnehmung~~9168
▁Voraussetzung~~2223
▁Versammlung~~10798
▁einzellige~~16202
▁Cathe~~11016
osemite~~14820
▁ueber~~19045
talk~~13593
▁Enrique~~14624
▁Benutzer~~9802
▁gehen~~952
▁Bruch~~5190
ennial~~18971
ulate~~15905
▁Sylvia~~5744
Wirtschaft~~18366
▁Psalm~~16678
▁Olu~~21170
▁antreib~~633
wetter~~17393
immer~~145
▁hochwertige~~8483
ommission~~17280
▁did~~19703
▁erforschen~~6831
▁zurückkehrt~~17660
versicherung~~9394
lpreis~~15090
▁bewegen~~270
unabhängig~~5218
▁Native~~19880
▁redefin~~20242
▁Süß~~16350
▁Rad~~8285
monitor~~10279
▁mum~~9391
▁Like~~4661
geschaut~~8073
▁Horizont~~6893
▁Fehlgeburt~~9571
▁Körpers~~3441
▁Ram~~11615
bittert~~12707
gebracht~~3159
▁Tunesien~~19816
▁Rat~~11436
▁greifen~~3362
▁sexual~~20722
▁BC~~20759
▁Sauerstoff~~650
Weihnachten~~12239
gesondert~~15993
▁richtig~~525
landschaft~~5714
egulation~~18360
▁geschützt~~5630
Zehn~~18955
▁stehende~~17105
flügel~~5143
rolle~~12038
▁memes~~18625
ächtige~~18393
▁grenzenlos~~8952
▁Regenwald~~929
▁Witze~~13655
irrt~~8212
▁Aufgaben~~1359
▁Vorhang~~11425
▁Canc~~19127
▁Eye~~14074
She~~8308
base~~20618
▁wunder~~5646
▁Weiße~~586
▁anzugeh~~7499
kka~~12029
▁Vorsitzende~~10869
▁Tornado~~19189
▁Infektion~~5490
▁Arten~~644
färb~~5517
Eins~~13388
taucher~~5867
▁Trick~~10339
▁pointillis~~18537
ualle~~8360
ierten~~4218
chwarzschildradi~~20053
▁für~~108
▁Expo~~11196
▁Schwingung~~14075
▁Dickinson~~16494
dauert~~12810
▁fliegt~~2434
▁Genozid~~11559
rock~~11162
▁Filament~~17237
tauchen~~6065
▁electro~~21677
▁hübsch~~15198
▁hydro~~19103
▁Julie~~19996
▁Anwältin~~20014
▁40-~~6527
▁Briefkasten~~19680
▁DNA~~6993
▁partner~~9842
▁Wichtige~~7236
▁Wilderer~~20094
▁Gute~~2818
▁Organisation~~2707
▁allererste~~6701
▁Container~~15524
▁Satz~~6563
▁400~~2334
girl~~18817
▁Brian~~4984
rannt~~6807
▁Rechten~~10552
▁inszenier~~12450
▁anomal~~21084
▁fist~~20971
▁Hühner~~9502
▁blöde~~12140
▁Lego~~12441
▁Täler~~48
▁shak~~13124
▁zugehörig~~14542
▁ozeanische~~18791
▁Wahrheit~~88
▁Entscheidung~~1428
titution~~1167
▁müsst~~9959
meldung~~8559
▁geniale~~13727
▁nukleare~~9260
▁bekannte~~871
ließ~~5452
dioxide~~21199
▁eigentliche~~7350
▁landesweite~~13711
▁Keith~~15822
fel~~11303
sensor~~10341
▁zehntausend~~20055
▁1890~~16464
▁müsse~~2522
▁existentielle~~14756
▁sensible~~16314
Theater~~19268
G~~1001
ory~~8605
zuspielen~~3991
▁basis~~19510
ort~~6258
▁electronics~~21430
ors~~7998
▁anfühlt~~3726
auch~~5516
spiel~~3785
▁Essay~~20448
erwerb~~18203
▁diskutiere~~11081
ork~~5336
gestopft~~16336
ori~~5059
▁geschehe~~1092
org~~2189
▁Tode~~12861
Licht~~8795
gott~~10563
▁Gesch~~13010
▁Mick~~10845
▁dazwischen~~4480
▁Court~~18132
▁herausziehe~~13112
▁busy~~19492
wurm~~661
frequenz~~16755
▁Weiter~~2212
▁Bestäubung~~17624
oscope~~19224
▁Produzent~~15548
verbrauchen~~15101
▁Auftritt~~17899
▁erwäg~~10623
▁ausgetrocknet~~14938
frequent~~4505
▁Davi~~4501
▁Punk~~20365
▁Eigen~~13017
▁zerquetsch~~748
MA~~9313
▁BP~~18354
kappen~~4830
zulerne~~11964
▁notwendig~~5706
▁Dave~~65
▁Krebsart~~17788
häu~~11011
furchteinflößend~~16935
▁Konstruktion~~4212
▁Olive~~15314
▁Sorge~~10841
sozioökonomische~~19215
long~~17632
▁letzte~~1062
▁BL~~585
▁rundher~~8263
▁binär~~3101
nahmen~~10456
▁vermeidbar~~19512
▁Unmögliche~~6191
inancial~~19361
▁Wirkstoff~~17040
▁Bu~~6508
▁Br~~6849
level~~16705
▁gebete~~3191
▁geografische~~5180
▁entzieh~~14088
Pose~~19843
▁Spot~~5903
modernism~~15932
▁warme~~15159
▁Sport~~1395
▁Be~~2235
▁unbehaglich~~16573
▁sieh~~3544
▁Voraussage~~18319
▁Ba~~6521
▁Bo~~5319
Post~~8175
▁Subvention~~13725
kontroll~~17914
▁internationale~~5680
▁Bi~~6202
▁Waffe~~16419
ähle~~11544
▁element~~6115
▁hinzu~~5198
▁Verfolg~~18539
▁Pentagon~~17665
▁Tiefsee~~714
▁Charlie~~14846
▁ausdehnt~~16556
▁Zielgruppe~~19474
▁normaler~~9424
▁Gitarre~~12437
▁reflex~~21034
▁sanit~~13345
▁benannt~~8048
▁Unterfangen~~9851
▁Osa~~19837
▁Tamiflu~~20713
▁geschockt~~12794
gypten~~5105
11~~8786
10~~6430
13~~8417
12~~8430
15~~11430
14~~2430
wert~~3642
espür~~8979
19~~14202
skolben~~16976
▁Bruttoinlands~~7012
▁distanzieren~~17479
▁hunderttausende~~2401
▁rief~~4365
branche~~11005
Gerät~~9292
ntercept~~21645
▁Ass~~12534
▁cogit~~19487
werk~~4801
▁Industrial~~19073
lich~~1689
▁Juwel~~8192
lick~~15867
▁Küste~~4819
▁drank~~21446
▁Kriteri~~16014
DG~~365
mitte~~398
▁rebellier~~19920
▁Fremd~~14188
▁September~~4143
▁jagte~~13233
▁wahrhaftig~~16475
▁sorgfältig~~6433
wurzel~~17311
portrait~~14619
▁Perspektive~~5344
▁Füsse~~19299
▁Nordost~~5146
▁Interaktion~~8722
▁Zutat~~13715
▁faktisch~~7565
▁Licht~~292
▁erlern~~8061
▁Schulköchin~~21596
▁investigative~~13833
wanderung~~18205
▁Turbo~~17516
path~~17029
▁profitable~~14052
▁Supraleiter~~21283
skulptur~~14318
No~~21028
▁Künste~~16072
potential~~19791
▁Einnahmen~~13367
foot~~21410
▁Ignoranz~~11582
▁dauerhaft~~3981
▁Ameisenkolonie~~18975
▁bedenklich~~15446
mlich~~408
▁Magnet~~15221
▁Ruder~~11449
▁bekamen~~6863
▁fiktive~~13545
▁wenige~~1916
▁Flugticket~~18103
▁Steuerung~~15241
soweit~~5072
track~~4242
▁hygien~~20690
Produkt~~12843
▁SysAdmin~~21330
stimmen~~9174
▁Wimper~~6908
▁glaubhaft~~16915
▁Luftwaffe~~13989
▁körperliche~~3882
▁Feinde~~4629
▁äusser~~18979
▁Bäckerei~~9654
▁tie~~12182
schrecken~~15326
▁Lynn~~19712
▁Kontakt~~8669
▁banne~~15705
Bücher~~15174
▁widersprüchlich~~17574
▁interview~~7069
▁Methodi~~15797
▁Egla~~12811
gehalt~~11535
liche~~3355
mmunität~~13977
▁sheep~~21641
▁Vektor~~14651
▁Gulf~~21774
▁Wunderbare~~14245
MI~~16160
decke~~13209
▁grosse~~1376
monatige~~13503
▁Pragmati~~20089
licht~~2098
▁spendet~~19128
▁Fort~~3843
shop~~13628
WF~~16859
▁Bestandteil~~3121
shot~~12653
▁Saul~~16359
▁vertiefen~~13537
▁waren~~728
▁assoziiert~~11349
▁gang~~15325
teten~~12683
fassen~~10942
Bube~~18951
▁Minist~~20225
▁Meister~~1483
▁Effekt~~4434
▁ganz~~681
▁Glaub~~4560
▁con~~20160
data~~21224
▁kalifornische~~4847
▁neurologische~~13016
▁Vorgesetzte~~6587
BO~~20437
▁Ventur~~17097
bringen~~718
aisal~~14931
nice~~15919
▁grundsätzlich~~7854
▁Ludwi~~18380
▁Wohnwagen~~5328
▁jünger~~7743
▁Studierenden~~8555
▁Umweltprobleme~~11190
Bewegung~~6810
▁this~~21547
▁Kamera~~687
istan~~13250
▁grossartige~~5936
▁Nathaniel~~20959
▁technischer~~15839
krebs~~6871
raising~~12541
▁billion~~1340
▁ignor~~12938
Studie~~1705
▁Progress~~16614
ger~~498
▁netter~~15619
▁kategorisier~~17918
ären~~2253
▁Glied~~17605
merken~~3832
▁entstanden~~876
▁bremst~~6253
▁Global~~12786
investition~~18941
amento~~15955
▁versehen~~12837
▁bedeutsame~~12160
▁homo~~19691
▁sue~~20519
wasser~~702
▁Computermodell~~16554
▁Schizophren~~4039
gen~~611
gel~~3209
Architektur~~17676
▁Kenntnisse~~8563
▁ablegen~~14288
▁Hitler~~18224
▁gefunden~~3099
▁Portrait~~13793
▁dämmert~~11988
▁abschätz~~19186
schichten~~8796
▁bedeutungsvoll~~8274
▁Erstaunen~~6782
▁Lehrerin~~9923
▁Propheten~~12049
▁gedruckt~~10430
▁Opera~~3962
Methode~~16392
▁allzu~~7274
ercover~~21223
▁benutzen~~210
▁bearbeitet~~8889
▁Liz~~18889
▁ergab~~8670
▁band~~6733
▁Algebra~~14961
▁soll~~1120
▁Suchmaschine~~14034
▁solo~~19642
▁homogene~~13143
▁Sekunde~~1442
▁Depp~~20610
ütze~~8960
▁Angeles~~4792
▁bisher~~512
Tipp~~20439
▁fehl~~9700
▁Lyrik~~16488
▁Jungen~~2938
▁nut~~18237
▁weiser~~13173
▁hole~~8054
▁hold~~20253
▁Grad~~458
▁verwirrt~~12585
▁Grab~~2069
▁Flugzeuge~~13916
▁Journalism~~11976
▁Gewinner~~11870
▁erschaffe~~13085
▁Spritze~~9372
▁integral~~11564
▁stink~~5135
▁holt~~12057
▁biete~~3054
▁Grau~~10211
gaga~~21132
▁Gras~~4509
Fernseh~~18185
▁Indiens~~6122
▁erschafft~~14100
ngerung~~10518
▁Schlamm~~1181
▁Lip~~19810
▁Journalist~~7271
▁pathogen~~13979
▁jogg~~16690
▁Instabilität~~7891
▁eindring~~9540
▁Alien~~12394
parent~~16811
ju~~5960
▁zurückdenke~~17363
▁Festival~~18623
▁Zellkern~~19444
▁verbraucht~~14155
▁Sequenz~~13835
▁ging~~1235
▁Trieb~~10940
ji~~10704
tun~~5875
osphere~~13416
je~~7739
Kamera~~4196
ja~~3639
▁inklusive~~12762
▁kostengünstige~~6791
▁Dschungel~~18608
fried~~11363
▁Gesund~~17146
▁fraktale~~16597
▁stand~~2024
uperstring~~21110
tromatolite~~21295
▁pen~~10681
▁Kindheit~~7446
▁Zurück~~15144
▁per~~1076
▁SPECT~~9408
tour~~10147
jo~~12231
▁Telefon~~6576
▁Lega~~18051
▁pet~~18499
▁Abwehr~~8359
datei~~18104
gemäß~~5663
▁größere~~749
daten~~2357
▁bemüht~~15925
▁Pazifische~~18984
rthritis~~10610
▁informiert~~7239
▁begrenzen~~17931
▁biologisch~~4765
▁transform~~8855
▁upper~~19944
▁Macintosh~~18801
▁Joel~~16840
ized~~19939
▁Smiley~~19233
wissenschaft~~3339
▁versprach~~11714
▁Maßnahme~~6685
▁Atomwaffen~~11560
▁Grausamkeit~~14463
▁weitermache~~4058
▁illegale~~14050
▁Kuppel~~8964
▁Vivian~~21277
▁reizend~~10235
▁Ausführung~~16097
▁Andromeda~~12633
▁Beseitigung~~17838
▁Käufer~~7081
▁zurückleg~~9056
zustellen~~979
▁Wenn~~3480
acre~~8853
▁Antike~~19764
angiogen~~21506
industrie~~8160
▁ziemlich~~2506
rutscht~~3319
▁Dean~~14294
kultur~~5292
gearbeitet~~235
▁Seuche~~19199
▁Thom~~4552
▁Verzweigung~~15805
identifizieren~~3717
▁sublinear~~20368
▁Ein~~2226
▁Erfindungen~~5077
▁Schach~~8200
ordne~~2798
igkeit~~2865
▁pea~~21568
▁Eis~~701
▁Transparenz~~1556
▁beschlossen~~7009
▁Linux~~12749
▁Konzern~~18385
▁gebe~~3335
gelenk~~10635
▁Finanzsektor~~7250
▁Thor~~16118
^~~17997
steuer~~14645
▁ausgestrahlt~~14583
▁Some~~21016
▁dringend~~5305
▁weiterer~~7492
▁vielfältige~~9835
▁diagonal~~14311
▁Prize~~16773
▁Ost~~5144
▁intentional~~20403
▁begin~~20133
▁Gross~~5018
▁Seltsame~~19834
▁biotechnolog~~10133
▁schlimmer~~6363
gezeigt~~19183
▁Galapagos~~5842
▁wora~~7606
▁weiteren~~2333
▁routinemäßig~~10488
fenster~~4248
▁Stromnetz~~20262
dding~~20228
▁geometrische~~9152
▁bekannter~~12936
▁Organization~~15876
▁Intensivstation~~6899
▁verbinden~~1908
ederauferstehung~~20256
▁Möbel~~5335
erzeugende~~18334
▁umweltbewusst~~18747
▁verbindet~~5556
▁gerettet~~10361
▁Figur~~10858
▁well~~19844
heitlich~~4303
▁Aaron~~19824
protein~~17980
ehlt~~11093
▁zensier~~18641
▁Gesetzgeber~~19174
▁Phantasie~~1430
▁Weltraum~~5887
par~~1897
evolution~~16826
▁menschlicher~~906
▁kreisförmig~~11392
▁Niedrig~~17843
llerwichtigste~~7256
▁statisch~~9724
▁erfinderisch~~2230
Dynast~~12111
▁Hirnzelle~~20463
▁alive~~20022
▁relevant~~7696
▁erregt~~17840
▁menschlichen~~2516
▁Ausland~~6405
Gebirge~~953
▁Republican~~10794
pan~~3468
▁Arab~~17168
▁Freundschaft~~8900
▁Dur~~14479
▁Rennen~~7363
▁gerissen~~14548
▁Teams~~9332
▁Tauch~~723
▁individual~~8590
▁Eindrücke~~14705
▁schwinde~~3614
▁gebaut~~3983
▁brauchbar~~4221
▁stellen~~1444
▁parallel~~8213
Nullsummen~~5268
▁Stunt~~14707
▁Arav~~18843
▁Dun~~8536
▁Kenne~~16365
▁Galaxie~~16139
▁Endverbraucher~~18409
▁Brad~~17825
▁umkreisen~~10343
ausweis~~14256
prozentige~~2604
▁Allgemeingut~~5658
▁eng~~6170
▁end~~2595
▁Familien~~2036
▁Susan~~10468
▁PAT~~21424
▁PowerPoint~~14750
inweisung~~20096
▁Fiktion~~1429
▁Music~~4013
▁habe~~1132
▁ent~~2951
▁scheiterte~~11462
forscht~~11399
▁Musik~~964
▁bor~~16583
▁Gruben~~15095
▁Cafeteria~~15957
▁Kra~~16779
kampagne~~7591
▁ya~~21096
▁Mittelklasse~~12019
▁fällen~~11215
▁Fliege~~6827
▁Verkehr~~7393
▁pragmatische~~12016
▁Regina~~20533
▁Handschuhe~~3332
▁Anziehung~~16087
▁praktische~~3803
▁Säugetiere~~9565
▁gewünschte~~14552
▁Bluegrass~~20872
▁Webseite~~4676
▁Erkenntnisse~~14712
▁Helfer~~13319
▁tend~~14597
▁Ungerechtigkeit~~11952
▁erreicht~~2240
▁Gehirnzellen~~7851
▁wortwörtlich~~16424
▁Dienst~~1617
▁prüfen~~5203
▁entfaltet~~6197
▁Descartes~~11843
quelle~~5106
nick~~9134
▁Tun~~6497
▁Kompromisse~~14338
▁em~~10895
▁el~~3083
▁voneinander~~950
▁Secret~~21057
▁Zeitspanne~~3800
▁gewohnt~~3271
▁hält~~1596
▁herauf~~9439
▁es~~148
▁er~~378
[...]
