<pad>▁0
<unk>▁1
<s>▁2
</s>▁3
▁David▁4
▁Gallo▁5
▁über▁6
▁das▁7
▁Leben▁8
▁in▁9
▁der▁10
▁Tiefe▁11
▁des▁12
▁Meeres▁13
▁TED▁14
▁Talk▁15
▁Subti▁16
tles▁17
▁and▁18
▁T▁19
ranscript▁20
▁:▁21
▁mit▁22
▁Hilfe▁23
▁von▁24
▁lebendig▁25
en▁26
▁Videos▁27
▁,▁28
▁die▁29
▁Unter▁30
see▁31
boot▁32
▁gemacht▁33
▁wurden▁34
▁führt▁35
▁uns▁36
▁zu▁37
▁den▁38
▁dunkel▁39
sten▁40
▁gefährlichste▁41
n▁42
▁giftig▁43
▁und▁44
▁schönste▁45
▁Lebensräume▁46
▁Erde▁47
▁Täler▁48
▁vulkanische▁49
▁Höhen▁50
züge▁51
▁Ozeane▁52
▁wo▁53
▁bizarr▁54
▁ist▁55
▁▁56
widerstandsfähig▁57
▁erschreckend▁58
▁vielfältig▁59
▁.▁60
▁Bill▁61
▁Lange▁62
▁ich▁63
▁bin▁64
▁Dave▁65
▁wir▁66
▁werden▁67
▁Ihnen▁68
▁einige▁69
▁Geschichten▁70
▁Meer▁71
▁Video▁72
form▁73
▁erzählen▁74
▁haben▁75
▁ein▁76
▁paar▁77
▁unglaublich▁78
▁Aufnahmen▁79
▁Titanic▁80
▁man▁81
▁je▁82
▁gesehen▁83
▁hat▁84
▁nichts▁85
▁davon▁86
▁zeigen▁87
▁Wahrheit▁88
▁dass▁89
▁-▁90
▁ob▁91
wohl▁92
▁sie▁93
▁alle▁94
▁Kino▁95
k▁96
assen▁97
rekorde▁98
bricht▁99
▁nicht▁100
▁gerade▁101
▁a▁102
ufregendste▁103
▁Geschichte▁104
▁vom▁105
▁denke▁106
▁Problem▁107
▁für▁108
▁selbst▁109
verständlich▁110
▁halten▁111
▁wenn▁112
▁darüber▁113
▁nachdenk▁114
t▁115
▁machen▁116
▁75▁117
%▁118
▁Planeten▁119
▁aus▁120
▁Großteil▁121
▁Meerwasser▁122
durchschnittlich▁123
e▁124
▁etwa▁125
▁3▁126
▁Kilometer▁127
▁Teil▁128
s▁129
▁am▁130
▁Strand▁131
▁stehen▁132
▁oder▁133
▁Bilder▁134
▁wie▁135
▁diese▁136
▁hier▁137
▁sehen▁138
▁auf▁139
▁riesige▁140
▁blaue▁141
▁Weite▁142
▁schauen▁143
▁sch▁144
immer▁145
▁bewegt▁146
▁sich▁147
▁es▁148
▁gibt▁149
▁Wellen▁150
▁Brand▁151
ung▁152
▁Gezeiten▁153
▁aber▁154
▁keine▁155
▁Ahnung▁156
▁was▁157
▁darin▁158
▁verborgen▁159
▁Ozean▁160
▁befinde▁161
▁längste▁162
▁Gebirgs▁163
▁meisten▁164
▁Tiere▁165
▁leben▁166
▁Erdbeben▁167
▁Vulkan▁168
ausbrüche▁169
▁spielt▁170
▁im▁171
▁ab▁172
▁Meeresboden▁173
▁an▁174
▁einigen▁175
▁Stellen▁176
▁Vielfa▁177
lt▁178
▁Dichte▁179
▁Lebens▁180
▁höher▁181
▁als▁182
▁Regenwälder▁183
▁meiste▁184
▁unerforscht▁185
▁doch▁186
▁Schönheit▁187
▁fesseln▁188
▁vertraut▁189
er▁190
▁ihm▁191
▁Sie▁192
▁möchte▁193
▁vorstellen▁194
▁Grenze▁195
▁einer▁196
▁unbekannte▁197
▁Welt▁198
▁müssen▁199
▁schon▁200
▁sehr▁201
▁spezielle▁202
▁Technik▁203
▁bediene▁204
▁um▁205
▁vorzu▁206
d▁207
r▁208
ing▁209
▁benutzen▁210
▁Al▁211
vin▁212
▁Kameras▁213
▁Sony▁214
▁entwickelt▁215
▁Marcel▁216
▁Pro▁217
us▁218
▁einmal▁219
▁gesagt▁220
▁&▁221
quot▁222
;▁223
▁wahre▁224
▁Entdeckung▁225
reise▁226
▁besteht▁227
▁neue▁228
▁Länder▁229
▁sucht▁230
▁sondern▁231
▁Augen▁232
▁Menschen▁233
▁zusammen▁234
gearbeitet▁235
▁gab▁236
▁nur▁237
▁existiert▁238
▁neuen▁239
▁dem▁240
▁auch▁241
m▁242
▁nachzudenken▁243
▁We▁244
icht▁245
ier▁246
▁meiner▁247
▁Liebling▁248
▁weil▁249
▁möglich▁250
▁Funktion▁251
teile▁252
▁Wesen▁253
▁erwiesen▁254
▁wird▁255
▁bis▁256
▁50▁257
▁Meter▁258
▁lang▁259
▁all▁260
▁unterschiedlich▁261
▁Teile▁262
▁?▁263
▁so▁264
▁mag▁265
▁Fisch▁266
ö▁267
der▁268
seite▁269
▁bewegen▁270
▁Tentakel▁271
▁herum▁272
sch▁273
wir▁274
re▁275
▁eine▁276
▁Kolonie▁277
▁Tieren▁278
▁sind▁279
▁alles▁280
▁einzelne▁281
▁Lebewesen▁282
▁einen▁283
▁Organism▁284
▁zusammenschließ▁285
▁vorne▁286
▁Antrieb▁287
ü▁288
▁gleich▁289
▁benutzt▁290
▁kleine▁291
▁Licht▁292
▁großen▁293
▁Fische▁294
schule▁295
nimmt▁296
▁Seite▁297
▁Waage▁298
▁legt▁299
ich▁300
tiere▁301
▁andere▁302
▁gewinnen▁303
▁ha▁304
ush▁305
och▁306
▁Biomasse▁307
▁Geschöpfe▁308
X▁309
-▁310
W▁311
T▁312
ode▁313
▁Biolumineszenz▁314
▁Geschlechts▁315
partner▁316
▁anzu▁317
locken▁318
▁Beute▁319
▁k▁320
▁zur▁321
▁Ver▁322
ständig▁323
▁hätten▁324
▁nie▁325
mals▁326
▁Zeit▁327
▁unser▁328
▁Archiv▁329
material▁330
ieren▁331
▁Größen▁332
▁Formen▁333
▁vergessen▁334
▁leicht▁335
▁mehrere▁336
▁tief▁337
▁wirklich▁338
▁kennen▁339
▁obere▁340
▁hundert▁341
▁Metern▁342
▁zwischen▁343
▁dort▁344
▁lebt▁345
▁Tierart▁346
▁einem▁347
▁dreidimensional▁348
▁Raum▁349
▁Mikro▁350
g▁351
avi▁352
ation▁353
raum▁354
▁überhaupt▁355
▁noch▁356
▁erforscht▁357
▁hört▁358
▁Riesen▁359
al▁360
mar▁361
▁dieser▁362
▁weiß▁363
▁wenig▁364
DG▁365
▁ihn▁366
▁unserer▁367
▁denn▁368
▁kleiner▁369
▁Oktopus▁370
▁kann▁371
▁tatsächlich▁372
▁durch▁373
▁Kopf▁374
▁guck▁375
▁wack▁376
el▁377
▁er▁378
▁Ohren▁379
steigt▁380
▁anmutig▁381
▁nach▁382
▁oben▁383
▁finden▁384
▁Tiefen▁385
▁sogar▁386
▁tiefste▁387
▁Zentimeter▁388
▁hin▁389
▁kommen▁390
▁U▁391
Boot▁392
▁heran▁393
▁Fenster▁394
▁eigene▁395
▁zwei▁396
▁Fall▁397
mitte▁398
▁unten▁399
▁solche▁400
▁Kreatur▁401
▁Art▁402
▁Unterwasser▁403
H▁404
ahn▁405
▁irgendwie▁406
▁för▁407
mlich▁408
▁aussieh▁409
▁Gesicht▁410
!▁411
▁Grunde▁412
▁wissen▁413
schaftliche▁414
▁Daten▁415
▁Forschungs▁416
zweck▁417
▁macht▁418
▁Wissenschaftler▁419
▁ersten▁420
▁diesen▁421
▁versorgen▁422
▁ihrer▁423
▁natürlich▁424
▁Umgebung▁425
fangen▁426
▁Netz▁427
▁da▁428
▁nehmen▁429
▁Joystick▁430
▁sitzen▁431
▁vor▁432
▁unsere▁433
▁Computer▁434
▁Land▁435
▁drücken▁436
▁fliegen▁437
▁mittel▁438
o▁439
ze▁440
anischen▁441
▁Rücken▁442
▁ansehe▁443
▁64▁444
.000▁445
zug▁446
▁Gipfel▁447
▁2,5▁448
▁jetzt▁449
▁Atlantik▁450
▁Karibik▁451
▁Mittel▁452
amerika▁453
▁überqueren▁454
▁Pazifik▁455
▁ankommen▁456
▁neun▁457
▁Grad▁458
▁nördlich▁459
▁Breite▁460
erstellen▁461
▁Karten▁462
▁Schall▁463
▁So▁464
ar▁465
▁bieg▁466
▁Klippe▁467
▁rechts▁468
▁Höhe▁469
▁Berge▁470
▁beide▁471
▁Seiten▁472
▁Tal▁473
▁größer▁474
▁Alp▁475
▁Fälle▁476
▁zehntausende▁477
▁Bergen▁478
▁d▁479
raußen▁480
▁keiner▁481
▁Karte▁482
▁verzeichnet▁483
▁tauchen▁484
▁immer▁485
▁tiefer▁486
schließlich▁487
▁Bild▁488
▁unseres▁489
▁Roboter▁490
▁heiß▁491
▁Ja▁492
son▁493
▁Headset▁494
▁ohne▁495
ver▁496
z▁497
ger▁498
fahren▁499
▁lassen▁500
▁unter▁501
▁versuchen▁502
▁unseren▁503
▁Partner▁504
▁bei▁505
▁Wood▁506
▁Hole▁507
▁virtuelle▁508
▁Gebiet▁509
▁Labor▁510
▁holen▁511
▁bisher▁512
stück▁513
weise▁514
ntweder▁515
▁Geräusch▁516
▁war▁517
▁Fotos▁518
▁chemische▁519
▁Sensoren▁520
▁interessant▁521
▁zusammengesetzt▁522
▁br▁523
ill▁524
▁richtig▁525
▁nenn▁526
▁hydrothermal▁527
Q▁528
uelle▁529
ht▁530
▁Wolke▁531
▁dicht▁532
em▁533
▁hydrogen▁534
ul▁535
fi▁536
reiche▁537
▁Wasser▁538
▁Längs▁539
achse▁540
▁tritt▁541
▁300▁542
▁Cel▁543
ius▁544
▁also▁545
▁drei▁546
▁vier▁547
▁wussten▁548
▁bereits▁549
▁60▁550
ern▁551
▁70▁552
▁v▁553
kan▁554
isch▁555
▁damit▁556
▁hatten▁557
▁Hinweis▁558
uellen▁559
▁entlang▁560
▁Achse▁561
ismus▁562
▁drin▁563
gt▁564
▁Spalte▁565
▁triff▁566
▁Mag▁567
ma▁568
den▁569
▁wieder▁570
▁bewusst▁571
▁reich▁572
▁H▁573
y▁574
ogen▁575
▁Dinger▁576
▁Sch▁577
or▁578
stein▁579
▁nennen▁580
▁heiße▁581
▁liegen▁582
▁Gegend▁583
▁dramatisch▁584
▁BL▁585
▁Weiße▁586
▁Bakterien▁587
art▁588
▁180▁589
▁ge▁590
ei▁591
▁finde▁592
▁größten▁593
▁Meeresgrund▁594
▁entdecken▁595
▁Erste▁596
aus▁597
bruch▁598
▁lange▁599
▁gefragt▁600
gekommen▁601
▁inzwischen▁602
▁he▁603
rausgefunden▁604
▁wahrscheinlich▁605
▁Erd▁606
inner▁607
▁gekommen▁608
gestoßen▁609
▁Bio▁610
gen▁611
ese▁612
▁unterstützen▁613
▁Kolonien▁614
▁Druck▁615
▁beträgt▁616
▁800▁617
▁kg▁618
▁pro▁619
uadrat▁620
zen▁621
time▁622
ter▁623
▁5▁624
▁Oberfläche▁625
▁kein▁626
▁Sonnenstrahl▁627
▁hierher▁628
ed▁629
rung▁630
▁ganze▁631
▁Energie▁632
▁antreib▁633
▁kommt▁634
▁Ch▁635
os▁636
the▁637
▁Röhre▁638
würmer▁639
▁Würmer▁640
▁Verdauung▁641
ssystem▁642
▁Mund▁643
▁Arten▁644
▁Ki▁645
emen▁646
struktur▁647
▁Auf▁648
nehmen▁649
▁Sauerstoff▁650
▁beherberg▁651
▁chemo▁652
tischen▁653
▁Flüssigkeit▁654
▁Boden▁655
▁schießen▁656
▁sahen▁657
▁einfache▁658
▁Zucker▁659
▁verwandelt▁660
wurm▁661
▁verdau▁662
▁können▁663
▁Krabbe▁664
▁Stück▁665
▁fassen▁666
krieg▁667
▁normal▁668
erweise▁669
▁ziehen▁670
▁zurück▁671
bald▁672
▁berührt▁673
▁Oh▁674
▁gut▁675
▁Versuch▁676
▁ihre▁677
▁Schale▁678
▁Finger▁679
nägel▁680
▁ganz▁681
▁komplexe▁682
▁erst▁683
▁verstehen▁684
▁beginnen▁685
▁dank▁686
▁Kamera▁687
technologie▁688
▁echte▁689
▁Temperatur▁690
E▁691
x▁692
▁Füße▁693
▁200▁694
▁Köpfe▁695
▁kalt▁696
▁Ihre▁697
▁Hand▁698
▁kochen▁699
▁Fuß▁700
▁Eis▁701
wasser▁702
▁gefällt▁703
▁Weibchen▁704
▁Wurm▁705
▁Männchen▁706
▁dauert▁707
▁drübe▁708
▁kämpfen▁709
▁anfange▁710
▁findet▁711
▁Fin▁712
ternis▁713
▁Tiefsee▁714
▁statt▁715
▁Lichtquelle▁716
▁außer▁717
bringen▁718
▁geht▁719
apos▁720
▁los▁721
▁letzten▁722
▁Tauch▁723
gänge▁724
▁Bereichen▁725
zählt▁726
▁198▁727
▁waren▁728
▁neu▁729
▁Probleme▁730
▁Biologe▁731
▁Lebensraum▁732
▁befasse▁733
▁Sammel▁734
▁lösen▁735
▁Weg▁736
▁wichtig▁737
▁Wissenschaft▁738
▁Kilometern▁739
verhältnisse▁740
▁erstaunlich▁741
▁existieren▁742
▁groß▁743
▁genug▁744
▁leere▁745
▁Cola▁746
dose▁747
▁zerquetsch▁748
▁größere▁749
▁Garnele▁750
▁armen▁751
▁Klein▁752
▁be▁753
läst▁754
igen▁755
schläg▁756
▁seiner▁757
▁K▁758
la▁759
ue▁760
▁zack▁761
▁gleichzeitig▁762
▁geschieht▁763
▁suchen▁764
▁Nahrung▁765
▁seltsame▁766
▁Bakterium▁767
▁abzu▁768
ten▁769
▁gar▁770
▁Fä▁771
▁bestehen▁772
▁Stoff▁773
▁produziert▁774
▁sorgen▁775
▁Haar▁776
wuchs▁777
▁Hintergrund▁778
▁rote▁779
▁Punkt▁780
▁Laser▁781
strahl▁782
es▁783
▁zeigt▁784
▁weit▁785
▁entfernt▁786
treten▁787
klammer▁788
▁Fels▁789
▁kratz▁790
▁winzig▁791
▁Säule▁792
▁Säulen▁793
▁Stockwerke▁794
▁hoch▁795
fremd▁796
artige▁797
▁Landschaft▁798
▁heißen▁799
▁merkwürdig▁800
▁bewohnt▁801
▁brauchen▁802
▁Sonne▁803
förmige▁804
▁Stelle▁805
lichtempfindlich▁806
▁Organ▁807
▁geben▁808
▁Wärme▁809
strahlung▁810
▁Infrarot▁811
S▁812
ig▁813
atur▁814
▁recht▁815
▁große▁816
▁Entfernung▁817
▁13▁818
band▁819
heute▁820
▁Augenblick▁821
▁entsteh▁822
▁Aktivität▁823
▁erste▁824
▁Mal▁825
▁irgendwo▁826
▁ausprobiert▁827
D▁828
▁steigen▁829
▁ihr▁830
▁Innere▁831
▁viele▁832
▁verschiedene▁833
▁bildet▁834
▁lustige▁835
▁Platte▁836
strömt▁837
▁Behausung▁838
▁näher▁839
▁Gemeinschaft▁840
▁dran▁841
▁kleinere▁842
▁kri▁843
chen▁844
▁Pa▁845
go▁846
▁toll▁847
▁mich▁848
▁voll▁849
qua▁850
lm▁851
▁übrigen▁852
▁Zeug▁853
gift▁854
▁würde▁855
▁Erlaub▁856
nis▁857
▁bekommen▁858
▁ver▁859
klappen▁860
▁Schwefel▁861
säure▁862
▁Mengen▁863
▁freigesetzt▁864
▁gedeihen▁865
▁eben▁866
falls▁867
▁vermutlich▁868
▁gesprochen▁869
▁einfachste▁870
▁bekannte▁871
▁Lebensform▁872
▁Reihe▁873
▁These▁874
▁vertreten▁875
▁entstanden▁876
▁sei▁877
▁vielleicht▁878
▁zehn▁879
▁Jahre▁880
Ö▁881
kosystem▁882
▁seit▁883
▁Millionen▁884
▁Milliarden▁885
▁Jahren▁886
▁stabil▁887
▁funktioniert▁888
sitzt▁889
▁Schere▁890
▁genau▁891
▁Ende▁892
▁dar▁893
auf▁894
▁wartet▁895
▁sein▁896
▁heraus▁897
st▁898
ck▁899
▁erklären▁900
um▁901
▁aktiv▁902
▁wachsen▁903
▁Woche▁904
▁sagte▁905
▁menschlicher▁906
▁Sicht▁907
▁to▁908
▁Hölle▁909
▁obendr▁910
ein▁911
▁stellt▁912
ad▁913
▁Ent▁914
wässer▁915
▁ungefähr▁916
▁jedes▁917
▁Jahr▁918
system▁919
▁Betrieb▁920
▁muss▁921
ziehen▁922
▁dann▁923
▁fünf▁924
▁völlig▁925
▁zerstören▁926
▁nichtsdesto▁927
trotz▁928
▁Regenwald▁929
▁einfach▁930
▁auftaucht▁931
▁empfindlich▁932
▁ja▁933
▁zerbrechlich▁934
▁nein▁935
▁sonderlich▁936
▁zum▁937
▁Schluss▁938
▁sagen▁939
▁Sediment▁940
▁Felsen▁941
▁unglaubliche▁942
▁Vergangenheit▁943
▁Aufzeichnung▁944
geschichte▁945
▁Zykl▁946
▁Rhythm▁947
▁Kontinente▁948
▁entfern▁949
▁voneinander▁950
▁rück▁951
▁gehen▁952
Gebirge▁953
▁Gletscher▁954
▁El▁955
▁Ni▁956
ñ▁957
▁Desaster▁958
▁Rhythmus▁959
▁fast▁960
▁Sin▁961
f▁962
onie▁963
▁Musik▁964
▁darau▁965
▁lernen▁966
▁zuhören▁967
▁halt▁968
▁wollen▁969
▁Note▁970
▁morgen▁971
▁gleiche▁972
▁absurd▁973
▁herauszufinden▁974
▁wohin▁975
▁Planet▁976
▁treib▁977
▁darauf▁978
zustellen▁979
▁umzu▁980
gehen▁981
▁Konzept▁982
▁Bestand▁983
be▁984
w▁985
ahr▁986
los▁987
▁Naturschutz▁988
▁schwieriger▁989
▁schaffen▁990
▁Dank▁991
▁danke▁992
▁Steve▁993
eil▁994
▁Manifest▁995
▁Spielen▁996
▁Bulgari▁997
▁hinaus▁998
▁TEDx▁999
B▁1000
G▁1001
a▁1002
▁kämpft▁1003
▁seriös▁1004
▁Meme▁1005
▁Z▁1006
uhause▁1007
▁infiziert▁1008
▁--▁1009
ruft▁1010
▁Wirtschaft▁1011
▁Ausbildung▁1012
▁Gesellschaft▁1013
▁wiederzu▁1014
leben▁1015
▁packen▁1016
▁Vortrag▁1017
▁universal▁1018
▁Meldung▁1019
▁Arbeitsplätze▁1020
▁Schulen▁1021
▁erfinden▁1022
▁Revolution▁1023
▁starten▁1024
▁bevor▁1025
▁Ihr▁1026
▁Gewehr▁1027
▁just▁1028
▁singen▁1029
▁Lieblings▁1030
farbe▁1031
▁auswähle▁1032
▁will▁1033
▁definieren▁1034
▁Meinung▁1035
▁radikal▁1036
greifen▁1037
▁Wandel▁1038
▁Denken▁1039
▁Verhalten▁1040
▁denken▁1041
▁verhalten▁1042
▁Lage▁1043
▁schlecht▁1044
▁traurig▁1045
▁Nase▁1046
▁hab▁1047
▁Potenzial▁1048
▁nutzen▁1049
▁Platz▁1050
▁Beispiel▁1051
▁soziale▁1052
▁Bedingung▁1053
▁Europa▁1054
▁Bereich▁1055
▁Innovation▁1056
▁Tabelle▁1057
▁Kultur▁1058
▁schätzt▁1059
▁Gesundheit▁1060
▁Wohlbefinden▁1061
▁letzte▁1062
▁E▁1063
.▁1064
U▁1065
▁Schlechte▁1066
▁Magazin▁1067
▁Economi▁1068
▁Wochen▁1069
▁berichtet▁1070
▁gelesen▁1071
ste▁1072
▁Nation▁1073
▁relativ▁1074
▁BIP▁1075
▁per▁1076
▁Einwohner▁1077
▁Sozial▁1078
bereich▁1079
▁welche▁1080
▁anderen▁1081
▁Bericht▁1082
▁OECD▁1083
▁Lesen▁1084
▁Mathe▁1085
▁Unternehmen▁1086
▁niedrigste▁1087
▁Auffassung▁1088
▁Unternehmer▁1089
▁Vorteile▁1090
▁verschaffen▁1091
▁geschehe▁1092
▁Prozent▁1093
satz▁1094
▁Geschäft▁1095
▁Motor▁1096
▁Angestellte▁1097
▁produzieren▁1098
▁Gebühren▁1099
▁kaputt▁1100
▁Folgen▁1101
bezüglich▁1102
▁überraschend▁1103
▁62▁1104
▁B▁1105
gar▁1106
▁optimistisch▁1107
▁Zukunft▁1108
▁schlechte▁1109
▁schwächste▁1110
▁Tatsachen▁1111
▁Märchen▁1112
▁p▁1113
han▁1114
ta▁1115
sie▁1116
▁Verschwörung▁1117
▁gegen▁1118
▁glaube▁1119
▁soll▁1120
▁klar▁1121
▁System▁1122
▁Bessere▁1123
▁verwandeln▁1124
▁Freunde▁1125
▁Familie▁1126
▁geschah▁1127
▁unangenehm▁1128
▁euch▁1129
hindern▁1130
▁Lust▁1131
▁habe▁1132
▁falls▁1133
▁jemand▁1134
▁erinnern▁1135
▁Bab▁1136
ies▁1137
▁spielen▁1138
▁Kinder▁1139
▁Erwachsene▁1140
▁schätzen▁1141
▁wert▁1142
▁Bereiche▁1143
▁sozial▁1144
▁45▁1145
▁Kommun▁1146
▁Staat▁1147
▁mehr▁1148
▁acht▁1149
▁Einzelperson▁1150
▁quetsch▁1151
▁versehentlich▁1152
▁Kreativität▁1153
▁individuelle▁1154
▁Selbst▁1155
ausdruck▁1156
dessen▁1157
▁worauf▁1158
▁legen▁1159
▁Wert▁1160
▁bekannt▁1161
▁Weise▁1162
▁Wissen▁1163
▁gebrauche▁1164
generieren▁1165
▁I▁1166
titution▁1167
kon▁1168
text▁1169
▁betroffen▁1170
▁gelehrt▁1171
▁ernst▁1172
▁passiert▁1173
▁Male▁1174
impft▁1175
▁geworden▁1176
▁meine▁1177
▁lasse▁1178
▁Gott▁1179
▁bewahre▁1180
▁Schlamm▁1181
▁Pfütze▁1182
▁töten▁1183
▁Großmütter▁1184
▁Großväter▁1185
raten▁1186
▁worden▁1187
▁viel▁1188
▁sollen▁1189
▁erzogen▁1190
▁durchlaufen▁1191
des▁1192
▁Gen▁1193
▁verursachte▁1194
▁Entsteh▁1195
▁Großmutter▁1196
faktor▁1197
▁Schritt▁1198
▁Frau▁1199
▁sagt▁1200
▁Ich▁1201
▁Baby▁1202
▁kriegen▁1203
▁W▁1204
oohoo▁1205
▁passier▁1206
▁arbeiten▁1207
▁Kar▁1208
ie▁1209
▁fördern▁1210
▁Kaffee▁1211
▁trink▁1212
▁mein▁1213
▁daran▁1214
▁Virus▁1215
▁weiter▁1216
▁verloren▁1217
▁Se▁1218
quo▁1219
ia▁1220
▁veraltet▁1221
▁100▁1222
▁verändert▁1223
▁A▁1224
uswendig▁1225
ler▁1226
▁Standard▁1227
isierung▁1228
wertet▁1229
forschung▁1230
▁Befragung▁1231
▁suchte▁1232
▁Schule▁1233
▁Kind▁1234
▁ging▁1235
▁re▁1236
om▁1237
ierte▁1238
▁10▁1239
▁lesen▁1240
▁fragte▁1241
▁Na▁1242
▁Schul▁1243
pause▁1244
▁Ha▁1245
▁Moment▁1246
▁Er▁1247
▁alt▁1248
▁Verbrechen▁1249
▁hir▁1250
lose▁1251
Robot▁1252
▁robot▁1253
isierte▁1254
▁Arbeitskraft▁1255
ol▁1256
gebohrt▁1257
▁Löcher▁1258
▁drehen▁1259
▁verzeih▁1260
▁mir▁1261
▁industrielle▁1262
▁Anpassung▁1263
sfähigkeit▁1264
▁Fähigkeit▁1265
▁kreativ▁1266
▁innovativ▁1267
▁me▁1268
chan▁1269
▁menschliche▁1270
▁Arbeits▁1271
ä▁1272
ft▁1273
▁Aktiv▁1274
▁behandeln▁1275
▁stem▁1276
▁wegwerfe▁1277
schreibt▁1278
▁Arbeit▁1279
▁auto▁1280
rat▁1281
▁Mach▁1282
▁sage▁1283
▁Boss▁1284
▁weiss▁1285
▁besser▁1286
▁dich▁1287
▁misstrauisch▁1288
▁Du▁1289
▁bist▁1290
▁offensichtlich▁1291
▁Kriminelle▁1292
▁installiere▁1293
Ü▁1294
berwachungs▁1295
kamera▁1296
sicht▁1297
▁Idiot▁1298
▁mache▁1299
▁Prozess▁1300
▁du▁1301
▁folgen▁1302
▁musst▁1303
scher▁1304
▁einschränken▁1305
▁benutze▁1306
▁dein▁1307
▁Handy▁1308
▁Laptop▁1309
▁surf▁1310
▁Internet▁1311
M▁1312
▁un▁1313
professionell▁1314
▁Tages▁1315
▁Erfüll▁1316
▁eingeschränkt▁1317
▁bewertet▁1318
▁Spaß▁1319
rum▁1320
▁Das▁1321
▁Unsinn▁1322
▁dumme▁1323
▁Idee▁1324
▁weg▁1325
▁Dummheit▁1326
▁se▁1327
rö▁1328
▁werde▁1329
▁beweis▁1330
▁folgenden▁1331
▁Vortrags▁1332
▁Katalysator▁1333
▁transformieren▁1334
▁Gehirne▁1335
▁programmiert▁1336
▁Evolution▁1337
▁ausgewählt▁1338
▁million▁1339
▁billion▁1340
▁Ab▁1341
wahl▁1342
▁Eigenschaft▁1343
▁vorteilhaft▁1344
▁Wahl▁1345
▁leistungsfähig▁1346
▁Natur▁1347
▁dumm▁1348
▁überall▁1349
▁Tier▁1350
welt▁1351
▁Ameisen▁1352
▁Regel▁1353
▁Dynamik▁1354
▁Dinge▁1355
▁Ratten▁1356
▁gespielt▁1357
▁grösser▁1358
▁Aufgaben▁1359
▁Kätzchen▁1360
▁schwach▁1361
▁jagen▁1362
▁Bären▁1363
▁länger▁1364
▁fischen▁1365
▁gelernt▁1366
▁Untersuchung▁1367
▁veröffentlicht▁1368
▁wurde▁1369
▁Zusammenhang▁1370
▁Grösse▁1371
▁Gehirns▁1372
desto▁1373
▁Gehirn▁1374
▁Delphine▁1375
▁grosse▁1376
▁wer▁1377
▁glauben▁1378
▁grösste▁1379
▁Spieler▁1380
▁grössten▁1381
▁aller▁1382
▁Nationalität▁1383
▁Rasse▁1384
▁Farben▁1385
▁Religion▁1386
▁Ding▁1387
▁Begriff▁1388
▁Neo▁1389
▁Bei▁1390
haltung▁1391
▁jugendliche▁1392
▁Merkmale▁1393
▁Erwachsenen▁1394
▁Sport▁1395
▁Olymp▁1396
▁professionelle▁1397
instrument▁1398
▁tanzen▁1399
▁küssen▁1400
▁bumm▁1401
eln▁1402
▁geboren▁1403
▁hohe▁1404
▁Alter▁1405
▁ständig▁1406
▁aufhör▁1407
▁Vorteil▁1408
▁genauso▁1409
▁Nerven▁1410
wachstum▁1411
▁Amy▁1412
gdal▁1413
▁stimuliert▁1414
▁Emotionen▁1415
▁kontrolliert▁1416
▁präfrontale▁1417
▁C▁1418
ortex▁1419
▁Entwicklung▁1420
▁fördert▁1421
▁Kognition▁1422
▁Ergebnis▁1423
▁entwickeln▁1424
▁emotionale▁1425
▁Reife▁1426
▁bessere▁1427
▁Entscheidung▁1428
▁Fiktion▁1429
▁Phantasie▁1430
▁;▁1431
empfindlich▁1432
▁scharf▁1433
▁genetische▁1434
▁Geburts▁1435
recht▁1436
▁gehört▁1437
▁Laufen▁1438
▁Sprechen▁1439
▁Sehen▁1440
▁Aufgabe▁1441
▁Sekunde▁1442
▁schließen▁1443
▁stellen▁1444
▁Theater▁1445
▁Kunst▁1446
▁Lieder▁1447
▁Tanz▁1448
▁Fußball▁1449
▁Football▁1450
▁Lachen▁1451
▁aussehen▁1452
▁trostlos▁1453
▁bed▁1454
rückt▁1455
▁Arbeitsplatz▁1456
▁lustig▁1457
▁spielerisch▁1458
▁vorwärts▁1459
▁G▁1460
egenteil▁1461
▁fühlen▁1462
▁schuldig▁1463
▁Kollegen▁1464
▁lachen▁1465
▁tun▁1466
▁verstecken▁1467
▁könnte▁1468
▁vermute▁1469
▁hart▁1470
▁arbeite▁1471
▁Nachricht▁1472
wärts▁1473
▁Depression▁1474
▁verbessert▁1475
▁verstärkt▁1476
▁Frei▁1477
mut▁1478
Ä▁1479
nderung▁1480
▁Gefühl▁1481
▁Zweck▁1482
▁Meister▁1483
sein▁1484
▁wesentliche▁1485
▁motivieren▁1486
de▁1487
▁Leistung▁1488
stärke▁1489
▁bedeutet▁1490
▁fr▁1491
iv▁1492
▁Ski▁1493
▁dafür▁1494
▁gern▁1495
▁fühlt▁1496
▁fantastisch▁1497
▁perfekt▁1498
▁Doktor▁1499
▁großartige▁1500
▁Medizin▁1501
▁gültig▁1502
▁feiern▁1503
▁kurze▁1504
▁Firmen▁1505
▁FedEx▁1506
▁Mott▁1507
▁Dienstleistung▁1508
▁Gewinn▁1509
▁deine▁1510
handel▁1511
▁großartig▁1512
▁glücklicher▁1513
▁schlechter▁1514
▁Kunden▁1515
rufen▁1516
▁glücklich▁1517
▁sprechen▁1518
▁Entscheidungen▁1519
▁treffen▁1520
kaufen▁1521
teilen▁1522
▁verschlechtert▁1523
▁Mensch▁1524
▁Vereinigte▁1525
▁Staaten▁1526
▁funktionieren▁1527
▁Chance▁1528
▁verschieden▁1529
▁Gründe▁1530
▁Besondere▁1531
hält▁1532
gesehen▁1533
▁raus▁1534
schmeiße▁1535
▁zweiten▁1536
▁versucht▁1537
▁Firma▁1538
▁Sc▁1539
ian▁1540
▁anfing▁1541
▁zufrieden▁1542
▁Kunde▁1543
▁wollte▁1544
▁weitere▁1545
pf▁1546
ehlen▁1547
▁befragt▁1548
▁minimal▁1549
▁hatte▁1550
▁unzufrieden▁1551
▁S▁1552
take▁1553
hold▁1554
ers▁1555
▁Transparenz▁1556
teuerung▁1557
▁Zusammenarbeit▁1558
▁Au▁1559
okratie▁1560
▁Ergebnisse▁1561
▁fokussiert▁1562
▁egal▁1563
▁wann▁1564
▁morgens▁1565
▁komm▁1566
▁Hause▁1567
▁geh▁1568
gruppe▁1569
▁organisiert▁1570
▁kümmer▁1571
▁Uhr▁1572
▁Förderung▁1573
▁kurz▁1574
▁kling▁1575
▁Veränderung▁1576
▁langsam▁1577
▁jeder▁1578
▁weiterzu▁1579
ehe▁1580
len▁1581
▁Industrie▁1582
▁Wie▁1583
▁gewonnen▁1584
▁Liste▁1585
▁besten▁1586
unternehmen▁1587
arbeit▁1588
geber▁1589
gelistet▁1590
▁unabhängige▁1591
▁Auswertung▁1592
▁anonym▁1593
▁Arbeitnehmer▁1594
▁Umfrage▁1595
▁hält▁1596
Mentalität▁1597
▁manche▁1598
▁Schritte▁1599
erst▁1600
▁Weil▁1601
▁genoss▁1602
▁sechs▁1603
▁Monate▁1604
▁Aufstieg▁1605
▁geschaff▁1606
▁genießen▁1607
▁Mountainbike▁1608
▁Buch▁1609
▁Spiel▁1610
▁Führung▁1611
spersönlichkeit▁1612
an▁1613
führer▁1614
▁Master▁1615
▁Ideen▁1616
▁Dienst▁1617
stelle▁1618
▁Feuer▁1619
revolution▁1620
▁hören▁1621
▁mal▁1622
▁vertrauen▁1623
gestellt▁1624
▁dir▁1625
▁ermächtigen▁1626
▁de▁1627
leg▁1628
▁Stufe▁1629
▁höchsten▁1630
▁konstruktiv▁1631
▁Kritik▁1632
▁Autorität▁1633
▁herauszu▁1634
fordern▁1635
▁Herausforderung▁1636
▁einzige▁1637
▁Möglichkeit▁1638
▁Trott▁1639
▁loszu▁1640
werden▁1641
▁kreative▁1642
▁Lösung▁1643
▁Führer▁1644
person▁1645
▁Angst▁1646
▁besiegen▁1647
▁Feind▁1648
▁Einschränkung▁1649
▁eliminier▁1650
▁Handys▁1651
▁Privat▁1652
gespräche▁1653
h▁1654
te▁1655
▁Chat▁1656
▁Mittagessen▁1657
▁Urlaub▁1658
laden▁1659
▁Bier▁1660
▁essen▁1661
gi▁1662
▁Die▁1663
schen▁1664
▁Freiheit▁1665
▁Wichtigste▁1666
▁Arbeitsstelle▁1667
▁verbringe▁1668
▁traurige▁1669
▁Pla▁1670
cker▁1671
▁20▁1672
▁aufwache▁1673
▁akzeptab▁1674
▁Ne▁1675
pri▁1676
liv▁1677
▁Zusammenfassung▁1678
▁Aufstand▁1679
▁Ernst▁1680
▁Anfang▁1681
▁stattfinden▁1682
▁entfachen▁1683
▁Erfolgs▁1684
geschichten▁1685
▁teilen▁1686
▁wiederbelebt▁1687
▁Versprechen▁1688
lich▁1689
▁Produktivität▁1690
▁Sinn▁1691
▁schafft▁1692
▁allein▁1693
▁umwandel▁1694
▁schön▁1695
▁Andrea▁1696
▁Schl▁1697
icher▁1698
hilfe▁1699
rezept▁1700
▁Schulsystem▁1701
▁messen▁1702
nächst▁1703
▁PISA▁1704
Studie▁1705
▁weltweite▁1706
▁Bewertung▁1707
gleich▁1708
▁anschließend▁1709
▁Verbesserung▁1710
tragen▁1711
▁erfahren▁1712
▁Deutschland▁1713
▁abschneide▁1714
▁Faktor▁1715
▁erfolgreiche▁1716
▁ausmacht▁1717
bildung▁1718
▁ko▁1719
pro▁1720
is▁1721
losen▁1722
▁Offenhe▁1723
it▁1724
▁schwer▁1725
▁Lernen▁1726
▁Ort▁1727
▁erkennen▁1728
▁reden▁1729
▁Studie▁1730
val▁1731
u▁1732
ierung▁1733
▁nationale▁1734
▁Angelegenheit▁1735
▁Situation▁1736
▁Bezug▁1737
▁Anteil▁1738
▁Bevölkerung▁1739
▁Abitur▁1740
▁USA▁1741
▁erster▁1742
▁ökonomische▁1743
▁traditionelle▁1744
▁Vorreiter▁1745
▁verknüpft▁1746
▁holte▁1747
▁80▁1748
schritt▁1749
▁globale▁1750
▁Auswei▁1751
tung▁1752
▁Talent▁1753
P▁1754
▁for▁1755
▁endete▁1756
▁90▁1757
▁13.▁1758
▁sinkende▁1759
▁Niveau▁1760
▁anders▁1761
wo▁1762
▁schneller▁1763
gestiegen▁1764
hand▁1765
▁Korea▁1766
▁deutlich▁1767
▁Generationen▁1768
▁Lebensstandard▁1769
▁heutigen▁1770
▁Afghanistan▁1771
▁schnitt▁1772
▁junge▁1773
▁global▁1774
▁Fortschritt▁1775
▁Maßstab▁1776
▁leistungsstärk▁1777
▁Bildungssystem▁1778
▁international▁1779
▁Ebene▁1780
▁Angabe▁1781
▁Dauer▁1782
zeit▁1783
▁Abschluss▁1784
▁darleg▁1785
▁leisten▁1786
▁jede▁1787
▁Menge▁1788
▁arbeitslos▁1789
▁Studien▁1790
ab▁1791
gänger▁1792
▁Straßen▁1793
lagen▁1794
▁Arbeitgeber▁1795
▁Fach▁1796
kräfte▁1797
mangel▁1798
▁besagt▁1799
▁automatisch▁1800
▁einhergeh▁1801
▁nun▁1802
▁ändern▁1803
dem▁1804
▁jungen▁1805
▁Leute▁1806
▁direkt▁1807
▁Blickwinkel▁1808
▁Interesse▁1809
▁galt▁1810
▁Wieder▁1811
geben▁1812
▁Erlern▁1813
▁Schüler▁1814
tra▁1815
▁anwende▁1816
▁dabei▁1817
▁einiger▁1818
▁gegenüber▁1819
ämlich▁1820
messung▁1821
▁unfair▁1822
▁Logik▁1823
▁Prüfung▁1824
stoff▁1825
▁bereit▁1826
▁Veränderungen▁1827
▁Jobs▁1828
▁Technologien▁1829
▁verwenden▁1830
▁erfunden▁1831
hnen▁1832
▁einst▁1833
▁umstritten▁1834
▁Verfahren▁1835
▁rasch▁1836
▁2009▁1837
▁erfasst▁1838
▁74▁1839
▁87▁1840
▁ausmachen▁1841
▁Ländern▁1842
▁rot▁1843
ur▁1844
ch▁1845
schnitt▁1846
▁gelb▁1847
mäßig▁1848
▁grün▁1849
▁stärkste▁1850
▁Shanghai▁1851
▁Singapur▁1852
▁Asien▁1853
▁Finnland▁1854
▁Kanada▁1855
▁Nordamerika▁1856
▁15-▁1857
jährige▁1858
Jährige▁1859
▁Chile▁1860
▁3,5▁1861
▁Schuljahr▁1862
▁Lücke▁1863
wächst▁1864
▁7▁1865
schließen▁1866
▁heutige▁1867
▁vorbereitet▁1868
▁Kontext▁1869
▁zweite▁1870
▁wichtige▁1871
▁Dimension▁1872
führen▁1873
▁Pädagoge▁1874
gerne▁1875
▁Gleichheit▁1876
erfassen▁1877
▁sorgt▁1878
▁Umfeld▁1879
▁Chancen▁1880
▁Realität▁1881
▁Einfluss▁1882
▁Lern▁1883
leistung▁1884
▁stark▁1885
▁ungleich▁1886
▁verteilt▁1887
▁Potential▁1888
▁Kindern▁1889
▁verschwendet▁1890
▁weniger▁1891
uad▁1892
ran▁1893
chance▁1894
▁niemand▁1895
▁Dis▁1896
par▁1897
ität▁1898
▁herrschen▁1899
▁steht▁1900
▁Debatte▁1901
▁Kauf▁1902
▁akzeptieren▁1903
mäßigkeit▁1904
▁diesbezüglich▁1905
▁betrachten▁1906
▁hervorragende▁1907
▁verbinden▁1908
▁Tat▁1909
▁wichtigste▁1910
▁Lektion▁1911
▁Vergleich▁1912
gun▁1913
▁hervorragend▁1914
opfer▁1915
▁wenige▁1916
▁fordert▁1917
▁vieler▁1918
▁hauptsächlich▁1919
▁aussortier▁1920
Veröffentlichung▁1921
sträger▁1922
▁Forscher▁1923
▁weltweit▁1924
▁hinter▁1925
▁Erfolg▁1926
▁Systeme▁1927
▁steckt▁1928
▁konzentriere▁1929
▁bunte▁1930
▁Kreis▁1931
▁markiert▁1932
▁Größe▁1933
▁Kreise▁1934
▁proportional▁1935
▁Ausgaben▁1936
▁jeweilige▁1937
▁wäre▁1938
▁Geld▁1939
▁entscheidend▁1940
ualität▁1941
ergebnisse▁1942
▁müsste▁1943
schwankung▁1944
▁verantwortlich▁1945
▁Luxemb▁1946
urg▁1947
▁teuerste▁1948
▁schneide▁1949
▁besonder▁1950
▁ähnlich▁1951
▁erziel▁1952
▁aufgeteilt▁1953
▁reiche▁1954
▁Bildungsniveau▁1955
▁arme▁1956
▁niedrige▁1957
▁enorm▁1958
▁wichtiges▁1959
▁Detail▁1960
ual▁1961
▁Landes▁1962
▁Lehrer▁1963
ge▁1964
▁ausgegeben▁1965
▁investiert▁1966
lauf▁1967
bahn▁1968
▁attraktiv▁1969
tag▁1970
▁lässt▁1971
▁Kosten▁1972
▁unterrichten▁1973
bild▁1974
▁beruflich▁1975
eiterentwicklung▁1976
▁kostet▁1977
▁Klassen▁1978
▁senkt▁1979
▁sichtbar▁1980
▁Balk▁1981
▁beim▁1982
▁nächsten▁1983
▁derselbe▁1984
▁Eltern▁1985
läd▁1986
▁angenehm▁1987
▁Klasse▁1988
▁verwendet▁1989
größe▁1990
▁Preis▁1991
▁bezahlt▁1992
▁stundenlang▁1993
durch▁1994
für▁1995
weitaus▁1996
▁Bildung▁1997
▁2000▁1998
▁Erfindung▁1999
▁iPod▁2000
b▁2001
isse▁2002
▁damals▁2003
▁wahr▁2004
▁35▁2005
▁teurer▁2006
▁bitte▁2007
▁massive▁2008
▁Heimatland▁2009
▁befand▁2010
▁unteren▁2011
▁Ungleichheit▁2012
▁Bewohner▁2013
▁Universität▁2014
abschluss▁2015
▁zählen▁2016
▁enttäuschen▁2017
▁mochte▁2018
▁öffentliche▁2019
▁monatelang▁2020
▁Thema▁2021
▁geprägt▁2022
▁Steuer▁2023
▁stand▁2024
▁Fokus▁2025
▁Diskussion▁2026
▁reagiert▁2027
▁Bundesregierung▁2028
▁erhöhte▁2029
▁Bildungs▁2030
ausgabe▁2031
▁drastisch▁2032
▁unternommen▁2033
▁Migration▁2034
hintergrund▁2035
▁Familien▁2036
▁Interessante▁2037
▁O▁2038
pt▁2039
im▁2040
▁bestehende▁2041
▁Politik▁2042
▁grundlegende▁2043
▁Annahme▁2044
berzeugung▁2045
▁deutsche▁2046
▁veränderten▁2047
▁traditionell▁2048
▁dahin▁2049
▁Kleinkinder▁2050
erziehung▁2051
▁Frauen▁2052
▁schnell▁2053
▁Ra▁2054
ben▁2055
mütter▁2056
▁Kindergarten▁2057
▁schickte▁2058
▁transformiert▁2059
▁Früh▁2060
▁Zentrum▁2061
▁teilt▁2062
▁Gruppen▁2063
▁Wissens▁2064
arbeiter▁2065
teilung▁2066
▁erfolgt▁2067
wirtschaftliche▁2068
▁Grab▁2069
▁Denk▁2070
muster▁2071
▁herausgefordert▁2072
▁gute▁2073
▁9▁2074
▁später▁2075
▁angenommen▁2076
▁Spektrum▁2077
▁besorgt▁2078
▁erzielt▁2079
▁nahm▁2080
mal▁2081
▁Best▁2082
▁innerhalb▁2083
▁Jahrzehnt▁2084
▁schlau▁2085
▁konzentriert▁2086
▁Richtung▁2087
noch▁2088
ber▁2089
▁Polen▁2090
▁geführt▁2091
▁schlechtesten▁2092
▁abgeschnitten▁2093
gehoben▁2094
▁Portugal▁2095
▁fragment▁2096
einheit▁2097
licht▁2098
▁Un▁2099
▁Kritiker▁2100
▁behaupte▁2101
▁relative▁2102
position▁2103
▁Produkt▁2104
▁wirtschaftliche▁2105
▁sozialer▁2106
gesellschaftlich▁2107
▁Homo▁2108
▁usw▁2109
▁seine▁2110
▁geändert▁2111
▁Zusammensetzung▁2112
entlassen▁2113
▁rein▁2114
▁beeindruckend▁2115
▁ergibt▁2116
▁Frage▁2117
▁grüne▁2118
srate▁2119
▁guten▁2120
▁angewandt▁2121
▁kopieren▁2122
id▁2123
if▁2124
ziert▁2125
▁zugrunde▁2126
▁stimmen▁2127
▁Prioritäten▁2128
l▁2129
ifiziert▁2130
▁Arbeiter▁2131
▁bezahle▁2132
▁liebe▁2133
▁Anwalt▁2134
▁Medien▁2135
rgestellt▁2136
▁Fragen▁2137
▁Bürger▁2138
▁überzeugt▁2139
▁kurzfristig▁2140
▁beliebteste▁2141
▁Einkaufszentr▁2142
▁beizu▁2143
messen▁2144
▁erfolgreich▁2145
▁früh▁2146
▁getrennt▁2147
▁spiegelt▁2148
▁wider▁2149
▁we▁2150
klasse▁2151
doch▁2152
▁Unterschied▁2153
her▁2154
▁Japan▁2155
▁erwarten▁2156
▁fragen▁2157
▁Mathematik▁2158
▁antworte▁2159
▁Begabung▁2160
▁abhäng▁2161
▁lerne▁2162
▁japanische▁2163
▁Aufwand▁2164
▁Bemühung▁2165
spricht▁2166
ände▁2167
▁unterrichtet▁2168
issen▁2169
▁Unterschiede▁2170
▁differenzierte▁2171
pä▁2172
ago▁2173
ische▁2174
▁Vor▁2175
weisen▁2176
▁gewöhnliche▁2177
▁außergewöhnlich▁2178
▁gestalten▁2179
möglichkeit▁2180
▁individuell▁2181
▁ehrgeizige▁2182
▁Standards▁2183
▁gesamte▁2184
kommt▁2185
▁nötig▁2186
▁nirgendwo▁2187
▁wählen▁2188
org▁2189
sam▁2190
▁bilden▁2191
▁gezielt▁2192
▁Gehalt▁2193
▁jeden▁2194
iert▁2195
▁geschaffen▁2196
▁Methoden▁2197
▁Karriere▁2198
büro▁2199
ischen▁2200
▁alleine▁2201
▁gelassen▁2202
▁Unterricht▁2203
vor▁2204
gaben▁2205
▁herrscht▁2206
▁klare▁2207
▁Vorstellung▁2208
▁herausfinde▁2209
▁jeweil▁2210
▁beibring▁2211
▁Weiter▁2212
gabe▁2213
erlangen▁2214
▁administrative▁2215
▁Verantwortung▁2216
▁Kontrolle▁2217
organisation▁2218
▁P▁2219
ädagogik▁2220
▁vorantreib▁2221
mit▁2222
▁Voraussetzung▁2223
▁stärkere▁2224
▁früher▁2225
▁Ein▁2226
schrift▁2227
▁Re▁2228
kt▁2229
▁erfinderisch▁2230
▁Versorgung▁2231
sehen▁2232
▁erstklassige▁2233
▁gil▁2234
▁Be▁2235
druck▁2236
unterschied▁2237
▁zurückzu▁2238
begriff▁2239
▁erreicht▁2240
▁Ressourcen▁2241
▁gelang▁2242
▁dorthin▁2243
▁größte▁2244
▁Wirkung▁2245
▁begab▁2246
test▁2247
▁herausfordern▁2248
▁Vorgabe▁2249
▁anhaltende▁2250
▁Zeiträume▁2251
▁hinweg▁2252
ären▁2253
▁konsequent▁2254
▁umgesetzt▁2255
▁Grundlagen▁2256
▁erfolgreicher▁2257
▁verbesser▁2258
▁Grenzen▁2259
Ver▁2260
sätze▁2261
▁Grund▁2262
▁Stärke▁2263
▁liegt▁2264
▁Mit▁2265
▁einflussreich▁2266
▁Gelder▁2267
verwaltung▁2268
legen▁2269
▁Friedhof▁2270
▁ähnelt▁2271
fällig▁2272
▁Ausrede▁2273
▁sinnvoll▁2274
▁Ziele▁2275
▁setzen▁2276
▁messbar▁2277
▁Ziel▁2278
orientieren▁2279
▁Elternteil▁2280
▁gesetzt▁2281
▁Grundstein▁2282
▁gelegt▁2283
▁Karo▁2284
line▁2285
▁Sp▁2286
▁Rachel▁2287
▁Pik▁2288
▁Klima▁2289
schlag▁2290
eilen▁2291
▁4▁2292
▁Minuten▁2293
▁vermittelt▁2294
▁atmosphärische▁2295
▁Chemiker▁2296
in▁2297
▁Einblick▁2298
wissenschaftlich▁2299
▁wage▁2300
▁Schlagzeilen▁2301
▁Klimawandel▁2302
▁Team▁2303
▁tausende▁2304
▁dazu▁2305
trug▁2306
▁riskant▁2307
▁Flug▁2308
▁wag▁2309
▁Schlüssel▁2310
molekül▁2311
▁Ausmaß▁2312
▁Anstrengung▁2313
▁Erstellung▁2314
▁Zeitung▁2315
▁Luft▁2316
qualität▁2317
mog▁2318
▁selbe▁2319
▁Feld▁2320
▁letzter▁2321
▁multi▁2322
regierung▁2323
C▁2324
▁Verständnis▁2325
▁veröffentlichte▁2326
▁6▁2327
20▁2328
▁40▁2329
▁geschrieben▁2330
▁schrieb▁2331
▁tausend▁2332
▁weiteren▁2333
▁400▁2334
▁Gutachte▁2335
▁11▁2336
3▁2337
▁korrigiert▁2338
▁jährliche▁2339
▁Treffen▁2340
#▁2341
91▁2342
▁physische▁2343
93;▁2344
▁15▁2345
▁San▁2346
▁Francisco▁2347
▁befasst▁2348
▁Viel▁2349
zahl▁2350
▁Themen▁2351
▁Cambridge▁2352
▁Phänomen▁2353
▁Wetter▁2354
▁beeinflusst▁2355
▁Satelliten▁2356
daten▁2357
▁Emission▁2358
▁Sa▁2359
ate▁2360
▁Biokraftstoffe▁2361
▁zufällig▁2362
▁studie▁2363
gebieten▁2364
▁Doktorand▁2365
▁studieren▁2366
▁Sachen▁2367
▁Prozesse▁2368
▁Moleküle▁2369
op▁2370
▁organische▁2371
▁Molekül▁2372
▁Gewicht▁2373
▁Papier▁2374
▁900▁2375
illion▁2376
▁21.▁2377
▁abseit▁2378
▁seines▁2379
▁Atmosphäre▁2380
▁aufzu▁2381
wiegen▁2382
▁entspricht▁2383
▁Methan▁2384
gas▁2385
▁soviel▁2386
blasen▁2387
▁EU▁2388
HO▁2389
R▁2390
▁Kammer▁2391
▁Spanien▁2392
▁Explosion▁2393
▁komplette▁2394
▁Verbrennung▁2395
▁Auto▁2396
▁trotzde▁2397
▁Supercomputer▁2398
▁Modelle▁2399
▁laufen▁2400
▁hunderttausende▁2401
▁Raster▁2402
box▁2403
stände▁2404
▁hunderte▁2405
▁Variable▁2406
▁errechne▁2407
▁Integration▁2408
▁vervollständig▁2409
▁Dutzende▁2410
▁ausser▁2411
▁kürzlich▁2412
ay▁2413
ien▁2414
▁fanden▁2415
▁Wach▁2416
turm▁2417
▁Mitte▁2418
▁hing▁2419
▁Geräte▁2420
▁hunderttausend▁2421
▁Dollar▁2422
▁Turm▁2423
▁wären▁2424
mitten▁2425
▁Teilen▁2426
▁Flugzeug▁2427
▁Modell▁2428
A▁2429
14▁2430
6▁2431
▁FAA▁2432
▁betrieben▁2433
▁fliegt▁2434
▁120▁2435
▁130▁2436
▁Personen▁2437
▁ähnliche▁2438
▁her▁2439
zukommen▁2440
flogen▁2441
▁Spitze▁2442
▁Baumkronen▁2443
▁unglaublicher▁2444
▁gefährlich▁2445
▁Kram▁2446
▁musste▁2447
▁Steigung▁2448
▁Messung▁2449
▁durchzu▁2450
▁Militär▁2451
▁Test▁2452
pilot▁2453
▁Fliegen▁2454
▁übernehme▁2455
kl▁2456
är▁2457
▁Bö▁2458
ungen▁2459
K▁2460
äfte▁2461
▁2▁2462
▁vollständig▁2463
▁befestigt▁2464
▁während▁2465
▁Bord▁2466
▁fliegende▁2467
▁Region▁2468
▁durchführte▁2469
▁Chemie▁2470
▁Student▁2471
▁Neigung▁2472
▁Dutzend▁2473
▁Artikel▁2474
▁gesammelt▁2475
▁formt▁2476
unter▁2477
▁Kapitel▁2478
ka▁2479
pite▁2480
▁Beurteilung▁2481
▁schreiben▁2482
▁Publikum▁2483
▁Journalisten▁2484
▁politische▁2485
▁Christopher▁2486
Charm▁2487
▁scan▁2488
▁Echtzeit▁2489
▁Neuro▁2490
wissenschaftler▁2491
▁Erfinder▁2492
▁veranschaulich▁2493
▁MRI▁2494
▁Gehirnaktivität▁2495
▁Gedanken▁2496
▁Schmerz▁2497
▁stattfinde▁2498
▁Worten▁2499
fühlst▁2500
▁Hallo▁2501
▁Arm▁2502
heben▁2503
▁win▁2504
ken▁2505
▁ziemlich▁2506
▁königliche▁2507
▁Win▁2508
▁nachahmen▁2509
▁Muskel▁2510
▁programmiere▁2511
▁bald▁2512
bereiche▁2513
▁steuern▁2514
▁Methode▁2515
▁menschlichen▁2516
▁Verstand▁2517
▁Jahrtausende▁2518
labor▁2519
▁Generation▁2520
▁kompliziert▁2521
▁müsse▁2522
▁Raumschiff▁2523
▁schrumpfen▁2524
▁Blut▁2525
kreislauf▁2526
▁injizieren▁2527
▁schrecklich▁2528
▁Arterien▁2529
gegriffen▁2530
körper▁2531
▁Peter▁2532
▁Eingriff▁2533
▁Bestrahlung▁2534
▁Anatomi▁2535
▁buchstäblich▁2536
▁Körper▁2537
▁wichtiger▁2538
▁gelbe▁2539
▁Fleck▁2540
▁entsprechende▁2541
▁Tätigkeit▁2542
▁gesch▁2543
▁zuvor▁2544
▁sicherlich▁2545
▁Elektroden▁2546
arm▁2547
taste▁2548
▁darstellen▁2549
▁Vorgang▁2550
▁üblich▁2551
▁Tage▁2552
▁Analyse▁2553
▁benötigte▁2554
▁Millisekunden▁2555
▁reduziert▁2556
▁erlaubt▁2557
▁live▁2558
▁65▁2559
▁Erreger▁2560
punkte▁2561
▁beeinflussen▁2562
▁Sofa▁2563
▁Therapeut▁2564
▁Tablette▁2565
▁Messer▁2566
▁vierte▁2567
▁Wege▁2568
▁chronische▁2569
▁verbrennen▁2570
spüren▁2571
▁Verbindung▁2572
▁hilfreich▁2573
▁verursachen▁2574
▁Abbild▁2575
▁entwerfen▁2576
▁Anzeige▁2577
vorgang▁2578
lesen▁2579
▁nochmal▁2580
▁Arme▁2581
beugen▁2582
ize▁2583
ps▁2584
▁Sache▁2585
▁ausführen▁2586
patienten▁2587
tern▁2588
▁Sinne▁2589
▁Wortes▁2590
▁Person▁2591
▁beobachten▁2592
▁verursacht▁2593
▁Ablauf▁2594
▁end▁2595
pi▁2596
▁freisetz▁2597
▁links▁2598
▁verbunden▁2599
▁regel▁2600
▁experimentelle▁2601
▁klinische▁2602
▁44▁2603
prozentige▁2604
▁Abnahme▁2605
▁Matrix▁2606
▁meinen▁2607
▁kontrollieren▁2608
▁Erscheinung▁2609
▁Erfahrung▁2610
▁Details▁2611
▁einzu▁2612
▁überlasse▁2613
steigen▁2614
▁bringen▁2615
▁Bee▁2616
ba▁2617
▁Kid▁2618
ro▁2619
▁geteilt▁2620
▁Wunder▁2621
▁Film▁2622
▁Filme▁2623
▁Macht▁2624
▁gemeinsame▁2625
▁narrative▁2626
▁Erinnerung▁2627
▁Weltanschauung▁2628
▁formen▁2629
▁britische▁2630
▁Regisseur▁2631
▁erinnert▁2632
▁i▁2633
szene▁2634
▁Mai▁2635
land▁2636
▁Boy▁2637
▁the▁2638
▁Hoo▁2639
▁Verein▁2640
▁FILMCLUB▁2641
▁An▁2642
zeichen▁2643
▁Alters▁2644
▁Kulturen▁2645
▁Identität▁2646
▁Form▁2647
▁Mutter▁2648
▁Tochter▁2649
▁Priester▁2650
▁Gemeinde▁2651
mitglied▁2652
▁Erzähler▁2653
▁Höhlenmalerei▁2654
▁Parabel▁2655
▁Fab▁2656
▁erzählt▁2657
nerzähler▁2658
▁zunehmend▁2659
ular▁2660
isiert▁2661
▁zer▁2662
stücke▁2663
▁bieten▁2664
lichkeit▁2665
▁unbe▁2666
einfluss▁2667
▁wild▁2668
▁Konsum▁2669
denken▁2670
▁Erzählung▁2671
▁moralische▁2672
▁Code▁2673
▁wohl▁2674
▁Kunstform▁2675
▁20.▁2676
▁Jahrhunderts▁2677
▁Künstler▁2678
grenzen▁2679
▁Sprachen▁2680
▁Philosophie▁2681
▁enorme▁2682
flecht▁2683
▁Hollywood▁2684
lock▁2685
buster▁2686
▁dominiert▁2687
▁Diät▁2688
gesetzt▁2689
▁Erzähl▁2690
▁selten▁2691
▁Filmproduzent▁2692
▁machte▁2693
▁Sorgen▁2694
▁versetzt▁2695
▁Schrecken▁2696
▁aufbauen▁2697
▁Ironie▁2698
▁f▁2699
ühl▁2700
bar▁2701
▁Zugang▁2702
▁schwächer▁2703
▁deshalb▁2704
▁gründete▁2705
▁2006▁2706
▁Organisation▁2707
▁wöchentlich▁2708
führt▁2709
▁diskutiert▁2710
archiv▁2711
▁könnten▁2712
▁unruhig▁2713
▁Jugend▁2714
▁Technologie▁2715
▁b▁2716
uer▁2717
lichen▁2718
▁Dorf▁2719
▁DVD▁2720
▁Leinwand▁2721
▁projiziere▁2722
▁Monaten▁2723
▁25▁2724
▁Großbritannien▁2725
▁18▁2726
▁ununterbrochen▁2727
ura▁2728
▁kon▁2729
alisiert▁2730
▁ma▁2731
▁Wähler▁2732
giebig▁2733
bwechslung▁2734
reich▁2735
▁Kost▁2736
▁anbieten▁2737
▁konnte▁2738
▁kam▁2739
▁sofort▁2740
▁tiefgreifend▁2741
▁form▁2742
enden▁2743
▁150▁2744
▁klein▁2745
▁entdeckten▁2746
▁Orte▁2747
▁Perspektiven▁2748
▁Pilot▁2749
versuch▁2750
▁beendet▁2751
▁Namen▁2752
▁195▁2753
1▁2754
▁Vi▁2755
tor▁2756
io▁2757
▁De▁2758
ica▁2759
▁bemerkenswert▁2760
▁Kommentar▁2761
▁Slums▁2762
▁Armut▁2763
▁Hoffnung▁2764
▁Geburtstag▁2765
▁Vater▁2766
saal▁2767
▁miete▁2768
▁künstlerische▁2769
▁Bedeutung▁2770
▁Vision▁2771
▁beschloss▁2772
▁Teenager▁2773
alter▁2774
▁30▁2775
▁nächste▁2776
▁Einstellung▁2777
▁schweben▁2778
▁Slum▁2779
bewohner▁2780
▁Bese▁2781
▁Himmel▁2782
sechzig▁2783
▁Produktion▁2784
▁sah▁2785
▁sehe▁2786
▁Gesichter▁2787
hrfurcht▁2788
▁neigen▁2789
▁Ungläubig▁2790
keit▁2791
▁Geschwindigkeit▁2792
do▁2793
▁Million▁2794
air▁2795
▁Favela▁2796
▁Rio▁2797
ordne▁2798
▁nachhaltige▁2799
ison▁2800
▁Demokratie▁2801
▁Regierung▁2802
▁Mr▁2803
▁Smith▁2804
▁Washington▁2805
gedreht▁2806
▁193▁2807
9▁2808
▁älter▁2809
▁Großeltern▁2810
▁Mitglieder▁2811
▁Frank▁2812
▁Cap▁2813
ra▁2814
▁Klassik▁2815
▁Unabhängigkeit▁2816
stand▁2817
▁Gute▁2818
▁tut▁2819
▁held▁2820
haft▁2821
▁Ausdruck▁2822
▁Glaubens▁2823
▁Maschine▁2824
▁Kraft▁2825
▁Ehre▁2826
iker▁2827
▁verbrachte▁2828
▁englische▁2829
▁Ober▁2830
haus▁2831
ächte▁2832
lange▁2833
▁Fil▁2834
ibu▁2835
tier▁2836
erei▁2837
▁Freude▁2838
▁Kompetenz▁2839
▁erklärt▁2840
▁Lord▁2841
▁Prinzip▁2842
▁Schlaf▁2843
▁vernachlässigt▁2844
hin▁2845
▁erstreckt▁2846
▁Jim▁2847
▁Stewart▁2848
rollen▁2849
▁Auswahl▁2850
▁Hotel▁2851
▁Ruanda▁2852
▁Völkermord▁2853
▁brutal▁2854
▁provoziert▁2855
▁Tränen▁2856
▁prä▁2857
ante▁2858
wa▁2859
ff▁2860
ete▁2861
Friedenstruppen▁2862
▁Doppel▁2863
ng▁2864
igkeit▁2865
▁westliche▁2866
▁Kämpfe▁2867
geht▁2868
ind▁2869
▁verlangt▁2870
▁bemerkte▁2871
▁voller▁2872
▁Gewissen▁2873
▁hätte▁2874
▁sonst▁2875
▁spürbar▁2876
▁reicher▁2877
▁Pick▁2878
pock▁2879
▁löste▁2880
▁Verlust▁2881
▁Stimm▁2882
▁begeistert▁2883
▁Zuschauer▁2884
▁feierte▁2885
▁Haltung▁2886
weiß▁2887
▁Brit▁2888
▁kollektive▁2889
schätz▁2890
▁Gegen▁2891
▁F▁2892
ti▁2893
idney▁2894
▁Po▁2895
iti▁2896
▁nachdenklich▁2897
▁eigen▁2898
sinn▁2899
▁neugierig▁2900
▁schwarz▁2901
▁Untertitel▁2902
▁Dokumentarfilm▁2903
▁Fan▁2904
▁detaillierte▁2905
▁Rezension▁2906
▁Lob▁2907
preis▁2908
leidenschaftlich▁2909
▁raffinierte▁2910
▁gegenseitig▁2911
treffen▁2912
tausend▁2913
▁wette▁2914
▁Hunderte▁2915
▁Tausende▁2916
▁Viertel▁2917
million▁2918
▁000▁2919
▁Zahlen▁2920
▁weiterhi▁2921
bertragung▁2922
▁kritische▁2923
▁Alltag▁2924
▁begann▁2925
▁fing▁2926
▁liefert▁2927
▁Kluft▁2928
▁enthalten▁2929
▁Per▁2930
polis▁2931
▁brachte▁2932
▁iranische▁2933
▁Der▁2934
▁weiße▁2935
▁Hai▁2936
▁half▁2937
▁Jungen▁2938
▁art▁2939
ik▁2940
▁erlebt▁2941
▁Flucht▁2942
▁Gewalt▁2943
▁tötete▁2944
▁Boot▁2945
▁geworfen▁2946
▁Recht▁2947
▁versteckte▁2948
▁Botschaft▁2949
▁Flut▁2950
▁ent▁2951
▁Münder▁2952
▁gehalten▁2953
▁ihres▁2954
▁gewesen▁2955
nstatt▁2956
▁Objekte▁2957
▁Tante▁2958
▁wunderbare▁2959
blitz▁2960
schnell▁2961
▁erschaffen▁2962
▁bar▁2963
fuß▁2964
▁Tafel▁2965
berg▁2966
▁rennen▁2967
▁Räuber▁2968
▁erzählte▁2969
▁194▁2970
8▁2971
▁Schwestern▁2972
▁Israel▁2973
▁reiste▁2974
▁Mat▁2975
ros▁2976
▁See▁2977
▁Forderung▁2978
▁human▁2979
ut▁2980
▁Jugendliche▁2981
▁Crew▁2982
▁Essen▁2983
▁versorgt▁2984
▁starb▁2985
▁Reise▁2986
▁erwähnt▁2987
▁verließ▁2988
▁Eile▁2989
▁Mann▁2990
▁Diamanten▁2991
▁Rock▁2992
▁Versteck▁2993
▁erschien▁2994
▁Großvater▁2995
▁London▁2996
▁Ordnung▁2997
▁integrierte▁2998
▁England▁2999
▁Neu▁3000
fang▁3001
▁Schweigen▁3002
gewandert▁3003
▁Anne▁3004
▁The▁3005
▁Great▁3006
scape▁3007
▁Sho▁3008
ah▁3009
▁Triumph▁3010
▁Willen▁3011
▁Len▁3012
i▁3013
▁Rie▁3014
fen▁3015
ahl▁3016
▁elegant▁3017
▁Nazi▁3018
ropaganda▁3019
erleben▁3020
▁enthielt▁3021
▁schmerzt▁3022
▁laut▁3023
▁nützlich▁3024
▁Fl▁3025
stern▁3026
berlebende▁3027
▁gelegentlich▁3028
▁Blick▁3029
▁Tattoo▁3030
▁Handgelenk▁3031
jüng▁3032
fer▁3033
▁Pur▁3034
isten▁3035
▁Suche▁3036
▁zerstreu▁3037
▁grob▁3038
▁Filmemacher▁3039
▁Drama▁3040
▁12-▁3041
▁Zauberer▁3042
▁Oz▁3043
▁sollte▁3044
▁Herz▁3045
▁honor▁3046
▁Leidenschaft▁3047
▁Citizen▁3048
▁Kan▁3049
▁wertvoll▁3050
▁Jane▁3051
▁Aust▁3052
▁Stimmen▁3053
▁biete▁3054
▁zusammenarbeite▁3055
würdig▁3056
▁Stein▁3057
▁Wand▁3058
▁okay▁3059
▁Tom▁3060
ank▁3061
▁Astronaut▁3062
▁Love▁3063
ll▁3064
▁Ben▁3065
▁King▁3066
ley▁3067
▁Gandhi▁3068
lagert▁3069
▁real▁3070
▁Eve▁3071
▁Har▁3072
ington▁3073
▁Howard▁3074
ale▁3075
▁Mil▁3076
▁Pier▁3077
ce▁3078
▁Gelegenheit▁3079
▁Menschsein▁3080
▁Shakespeare▁3081
leuchten▁3082
▁el▁3083
th▁3084
▁ahnte▁3085
▁Begegnung▁3086
▁Literatur▁3087
▁Teilnehmer▁3088
▁engagier▁3089
▁inspirieren▁3090
▁Selbstvertrauen▁3091
▁akademische▁3092
▁vorherseh▁3093
▁ehe▁3094
halten▁3095
▁Spielplatz▁3096
hrgeiz▁3097
▁Engagement▁3098
▁gefunden▁3099
▁trotz▁3100
▁binär▁3101
▁Beschreibung▁3102
▁oft▁3103
▁beschreiben▁3104
▁beschäftigt▁3105
▁verhandel▁3106
▁unendlich▁3107
▁sinn▁3108
stift▁3109
ende▁3110
▁schien▁3111
▁überrascht▁3112
▁Verhaltensweise▁3113
▁Marke▁3114
▁Schuhe▁3115
▁angeboten▁3116
▁Werte▁3117
▁versteh▁3118
▁persönliche▁3119
▁wesentlich▁3120
▁Bestandteil▁3121
▁kulturelle▁3122
▁unmöglich▁3123
▁Gruppe▁3124
▁Vorführung▁3125
▁Hof▁3126
▁Gebäude▁3127
▁neben▁3128
richten▁3129
▁Lu▁3130
▁Gr▁3131
pfeife▁3132
otter▁3133
am▁3134
Weltmeister▁3135
▁Pfeifen▁3136
▁Ge▁3137
ou▁3138
ille▁3139
on▁3140
▁Ho▁3141
off▁3142
▁Komposition▁3143
ê▁3144
▁la▁3145
▁Bell▁3146
▁Besten▁3147
▁Rahmen▁3148
▁faszinierend▁3149
lage▁3150
▁Danke▁3151
▁klingen▁3152
▁Englisch▁3153
▁mo▁3154
iger▁3155
haarige▁3156
▁Typ▁3157
▁Holland▁3158
gebracht▁3159
▁eigentlich▁3160
▁Haus▁3161
pfiff▁3162
▁dachte▁3163
▁Kommunikations▁3164
▁34▁3165
▁Pfeif▁3166
äge▁3167
▁irrit▁3168
▁ehrlich▁3169
▁Verhaltens▁3170
▁Klassenzimmer▁3171
▁Fahrrad▁3172
▁Heilige▁3173
▁Abend▁3174
▁grauen▁3175
volle▁3176
▁Weihnachts▁3177
musik▁3178
▁hörte▁3179
▁höre▁3180
▁versuche▁3181
▁Ru▁3182
ph▁3183
▁Red▁3184
▁Rein▁3185
feier▁3186
▁Abendessen▁3187
▁nerve▁3188
▁Schw▁3189
rin▁3190
▁gebete▁3191
zuhören▁3192
▁irgendwa▁3193
▁zugegebenerma▁3194
ßen▁3195
▁Wein▁3196
▁get▁3197
runken▁3198
▁Wettbewerb▁3199
▁gäbe▁3200
▁teilnehmen▁3201
▁bekam▁3202
▁SMS▁3203
fähr▁3204
▁Amerika▁3205
▁fahre▁3206
▁liebend▁3207
▁angerufen▁3208
gel▁3209
schaft▁3210
▁hinfahre▁3211
▁korrekt▁3212
▁Niederländer▁3213
▁gemeint▁3214
▁runter▁3215
gefallen▁3216
gefahren▁3217
▁Louis▁3218
burg▁3219
▁North▁3220
▁Carolina▁3221
gereist▁3222
▁Südost▁3223
▁Berührung▁3224
4▁3225
meisterschaft▁3226
▁teil▁3227
genommen▁3228
▁Titel▁3229
▁verteidige▁3230
▁Jud▁3231
ok▁3232
▁mach▁3233
5▁3234
▁gewann▁3235
▁2008▁3236
getreten▁3237
▁Tokyo▁3238
▁stehe▁3239
▁Rotterdam▁3240
▁wunderschöne▁3241
▁Stadt▁3242
▁Bühne▁3243
▁erzähle▁3244
▁verdiene▁3245
▁zumindest▁3246
▁Haupt▁3247
job▁3248
▁Kranken▁3249
pflege▁3250
▁aufgegeben▁3251
▁Traum▁3252
▁Einzige▁3253
▁Hä▁3254
▁Gleiche▁3255
einander▁3256
▁echt▁3257
▁ca▁3258
üben▁3259
▁Ton▁3260
ud▁3261
igung▁3262
▁Töne▁3263
vielversprechend▁3264
▁Techniker▁3265
▁läuf▁3266
▁geb▁3267
▁Zeichen▁3268
▁Einsatz▁3269
▁leid▁3270
▁gewohnt▁3271
▁start▁3272
selber▁3273
▁Solo▁3274
▁Max▁3275
▁West▁3276
man▁3277
▁herzlich▁3278
▁Mark▁3279
▁Shaw▁3280
▁trockene▁3281
▁Demo▁3282
▁präsentiert▁3283
▁Ultra▁3284
▁Dr▁3285
flüssigkeit▁3286
schicht▁3287
▁Schild▁3288
basierte▁3289
▁Material▁3290
▁fungier▁3291
▁Nano▁3292
ebene▁3293
▁bedeckt▁3294
ray▁3295
▁Regen▁3296
schirm▁3297
prall▁3298
bleiben▁3299
▁Unsichtbare▁3300
▁anzuschauen▁3301
▁existierende▁3302
▁aufregende▁3303
fest▁3304
▁nachdenke▁3305
▁Beton▁3306
▁Hälfte▁3307
▁nanotechnolog▁3308
▁anwendbar▁3309
▁superhydrophobi▁3310
▁porös▁3311
▁absorbier▁3312
tropfen▁3313
▁rund▁3314
▁hydrophob▁3315
ischer▁3316
▁frisch▁3317
ach▁3318
rutscht▁3319
▁Winkel▁3320
°▁3321
p▁3322
▁Wind▁3323
schutz▁3324
scheibe▁3325
▁erhöht▁3326
▁110▁3327
▁160▁3328
17▁3329
▁Demonstration▁3330
▁Paar▁3331
▁Handschuhe▁3332
▁Nanotechnologie▁3333
▁behandelt▁3334
▁gebe▁3335
▁Tipp▁3336
▁trocken▁3337
▁entdeckt▁3338
wissenschaft▁3339
▁Atome▁3340
▁regelrecht▁3341
▁super▁3342
ine▁3343
▁Nanometer▁3344
▁gemessen▁3345
▁M▁3346
illiard▁3347
tel▁3348
partikel▁3349
▁Dick▁3350
▁50.000▁3351
▁ungeheuer▁3352
▁Materialien▁3353
lö▁3354
liche▁3355
▁Farbe▁3356
le▁3357
▁gefüllt▁3358
▁glatt▁3359
▁Zwischen▁3360
räumen▁3361
▁greifen▁3362
▁bedecken▁3363
▁rutsch▁3364
▁tau▁3365
che▁3366
il▁3367
ne▁3368
netz▁3369
del▁3370
▁bleibt▁3371
▁bestimmt▁3372
▁einsetzen▁3373
▁allgemein▁3374
▁eignet▁3375
▁Anwendung▁3376
▁nass▁3377
▁Kor▁3378
osion▁3379
▁anti▁3380
kte▁3381
ri▁3382
elle▁3383
▁überleben▁3384
einig▁3385
▁Berufs▁3386
feld▁3387
▁revolutionier▁3388
▁zeige▁3389
▁bedanke▁3390
▁Chris▁3391
▁Anderson▁3392
habt▁3393
▁Design▁3394
gestrichen▁3395
▁...▁3396
▁medizinische▁3397
▁Forschung▁3398
▁Haufen▁3399
▁konfrontiert▁3400
▁klappt▁3401
▁Judi▁3402
▁Matz▁3403
▁Dan▁3404
▁Ariel▁3405
▁fehlerhaft▁3406
Verhaltensökonom▁3407
▁Fehler▁3408
▁versteckt▁3409
so▁3410
ß▁3411
▁OK▁3412
▁st▁3413
▁betrügen▁3414
▁unterstreich▁3415
▁Argument▁3416
vorhersagbar▁3417
▁irrational▁3418
▁begreife▁3419
▁vorhersehbar▁3420
▁Irrational▁3421
▁Krankenhaus▁3422
▁schwere▁3423
▁begegnet▁3424
station▁3425
▁gestört▁3426
Krankenschwester▁3427
▁Verb▁3428
wechsel▁3429
▁He▁3430
pflaster▁3431
reißen▁3432
▁intensiv▁3433
▁zwa▁3434
träglich▁3435
▁richtige▁3436
▁Ansatz▁3437
▁Station▁3438
▁festgehalten▁3439
gerissen▁3440
▁Körpers▁3441
▁dauerte▁3442
▁Ganze▁3443
▁Stunde▁3444
▁gehasst▁3445
▁Stunden▁3446
▁Patienten▁3447
▁w▁3448
üßte▁3449
▁Richtige▁3450
▁gering▁3451
▁Und▁3452
▁Patient▁3453
▁Ratschläge▁3454
▁Hebräisch▁3455
▁Sprache▁3456
▁machten▁3457
▁angefangen▁3458
▁interessanteste▁3459
▁abstrakte▁3460
▁getan▁3461
▁interessierte▁3462
▁Werkzeug▁3463
▁kaufte▁3464
▁Schraub▁3465
stock▁3466
▁einge▁3467
pan▁3468
▁bi▁3469
que▁3470
tsch▁3471
chmal▁3472
▁kürzer▁3473
▁ansteigen▁3474
▁Pause▁3475
▁fertig▁3476
▁qu▁3477
älen▁3478
▁schmerzhaft▁3479
▁Wenn▁3480
▁entscheiden▁3481
▁Projekt▁3482
gesprochen▁3483
▁beschäftigte▁3484
▁Geräusche▁3485
▁Elektroschock▁3486
anzug▁3487
▁starke▁3488
▁Schmerzen▁3489
▁wundervolle▁3490
▁Absicht▁3491
▁großer▁3492
▁wiederholt▁3493
▁herausstellt▁3494
▁Länge▁3495
▁Intensität▁3496
wegen▁3497
▁weh▁3498
getan▁3499
▁Beine▁3500
zuarbeiten▁3501
▁Laufe▁3502
▁geringer▁3503
▁gegeben▁3504
▁erholen▁3505
▁tolle▁3506
▁Pfleger▁3507
▁täuschen▁3508
▁Fehl▁3509
schätzung▁3510
▁verbreitet▁3511
▁Wir▁3512
rlei▁3513
▁Betrug▁3514
▁beschäftige▁3515
üge▁3516
▁gegenwärtige▁3517
▁Börsen▁3518
▁Enr▁3519
▁betrat▁3520
▁plötzlich▁3521
▁explodiert▁3522
▁schwarze▁3523
▁Schafe▁3524
▁fähig▁3525
eher▁3526
▁Experiment▁3527
▁Blatt▁3528
aufgabe▁3529
▁Blätter▁3530
▁gelöst▁3531
▁Probanden▁3532
▁akzeptiert▁3533
▁gezahlt▁3534
▁Durchschnitt▁3535
ummel▁3536
leite▁3537
geteilt▁3538
blatt▁3539
▁stecken▁3540
ip▁3541
▁Tasche▁3542
▁beantwortet▁3543
▁sieh▁3544
▁sieben▁3545
▁betr▁3546
ögen▁3547
▁Wirtschafts▁3548
theorie▁3549
Nutzen▁3550
ech▁3551
▁Wahrscheinlich▁3552
▁erwischt▁3553
▁wieviel▁3554
nützen▁3555
▁schlimm▁3556
▁Strafe▁3557
▁entscheide▁3558
▁lohnt▁3559
▁überprüf▁3560
▁Testperson▁3561
▁variiert▁3562
kommen▁3563
viel▁3564
▁durfte▁3565
▁zahlt▁3566
▁cent▁3567
▁annehmen▁3568
▁Summe▁3569
trogen▁3570
▁stahl▁3571
▁halbe▁3572
▁zerriss▁3573
▁Beweise▁3574
▁übrig▁3575
▁Zimmer▁3576
schale▁3577
▁lag▁3578
▁häufiger▁3579
▁Anreize▁3580
▁offenbar▁3581
▁rational▁3582
▁Kräfte▁3583
▁unterlieg▁3584
seits▁3585
▁Spiegel▁3586
▁Anders▁3587
eit▁3588
▁schummel▁3589
▁gewisse▁3590
grenze▁3591
▁Betrüger▁3592
▁profitier▁3593
▁verschlechtern▁3594
▁test▁3595
uff▁3596
ziger▁3597
Faktor▁3598
▁verkleiner▁3599
geholt▁3600
titel▁3601
zählen▁3602
▁Zehn▁3603
▁Gebote▁3604
zi▁3605
▁religiöse▁3606
uß▁3607
▁diejenige▁3608
▁sollten▁3609
gehört▁3610
▁Atheist▁3611
▁Bibel▁3612
▁schwöre▁3613
▁schwinde▁3614
▁taten▁3615
▁allerding▁3616
▁schwierig▁3617
vereinbar▁3618
▁überlegt▁3619
▁Leuten▁3620
▁verlangen▁3621
▁Ehren▁3622
ko▁3623
ex▁3624
▁unterschreib▁3625
▁bat▁3626
▁folgende▁3627
▁Klar▁3628
▁MIT▁3629
nach▁3630
▁Zettel▁3631
▁allem▁3632
vergrößern▁3633
gelaufen▁3634
▁Sechs▁3635
pack▁3636
▁Kühlschränke▁3637
▁Studenten▁3638
ja▁3639
rgon▁3640
▁Halb▁3641
wert▁3642
szeit▁3643
▁Kühlschrank▁3644
▁Teller▁3645
Dollar▁3646
Schein▁3647
▁stellte▁3648
schein▁3649
▁verschwunden▁3650
▁gutes▁3651
▁Drittel▁3652
▁Herr▁3653
leiter▁3654
▁Marken▁3655
▁muß▁3656
tausch▁3657
▁Folgende▁3658
▁Stift▁3659
geld▁3660
▁Sekunden▁3661
denkt▁3662
▁bekommt▁3663
▁doppelt▁3664
▁Börse▁3665
▁zusätzliche▁3666
▁Element▁3667
▁besaß▁3668
▁Tag▁3669
▁öffnen▁3670
▁neues▁3671
▁rekrutier▁3672
▁teilzunehmen▁3673
▁Voraus▁3674
▁Umschlag▁3675
▁Bezahl▁3676
stünde▁3677
▁Schauspiel▁3678
schüler▁3679
▁engagiert▁3680
▁Rolle▁3681
stehen▁3682
▁heim▁3683
▁Mission▁3684
▁erfüllt▁3685
student▁3686
▁eingesch▁3687
▁wußte▁3688
▁Schauspieler▁3689
▁begangen▁3690
▁reagiere▁3691
eat▁3692
shirt▁3693
trägt▁3694
▁Uni▁3695
▁durchgeführt▁3696
▁Pittsburgh▁3697
▁Carnegie▁3698
▁Mello▁3699
▁University▁3700
▁of▁3701
▁studiert▁3702
Studenten▁3703
▁spielte▁3704
tude▁3705
hatte▁3706
rger▁3707
▁hast▁3708
▁behalten▁3709
mehr▁3710
▁norm▁3711
at▁3712
Gruppe▁3713
▁betrüg▁3714
▁angemessen▁3715
▁bestimmte▁3716
identifizieren▁3717
▁Ehrlich▁3718
▁stärker▁3719
▁wahrgenommen▁3720
Ge▁3721
bot▁3722
Experiment▁3723
▁Einzelne▁3724
▁Moral▁3725
▁anfühlt▁3726
▁beispiels▁3727
▁indirekt▁3728
▁Wirklichkeit▁3729
▁verzerrt▁3730
zunehmen▁3731
▁Aktien▁3732
tion▁3733
ative▁3734
▁Hypothek▁3735
gestützt▁3736
papier▁3737
▁repräsentiere▁3738
▁Umwandlung▁3739
▁bleiben▁3740
▁Nächste▁3741
▁Auswirkung▁3742
▁generell▁3743
ökonomie▁3744
▁Intuition▁3745
▁leiten▁3746
▁falsch▁3747
▁Probe▁3748
▁überlegen▁3749
▁Privatleben▁3750
geschäft▁3751
▁Amerikanische▁3752
reform▁3753
▁2001▁3754
chaffung▁3755
▁neuer▁3756
märkte▁3757
politik▁3758
Gesundheitswesen▁3759
▁hinterfragen▁3760
ging▁3761
zusehen▁3762
▁interessante▁3763
schwester▁3764
bezogen▁3765
▁jemande▁3766
▁wechseln▁3767
Zeitraum▁3768
▁interessanter▁3769
▁glaubte▁3770
gebung▁3771
▁schwierige▁3772
▁veranstalte▁3773
▁Mögliche▁3774
squalität▁3775
▁systematische▁3776
▁Experimente▁3777
▁McG▁3778
▁Massen▁3779
Mehrspieler▁3780
▁Daumen▁3781
▁bringt▁3782
▁Chaos▁3783
▁versuchte▁3784
spiel▁3785
zubringen▁3786
▁anderer▁3787
▁kenne▁3788
▁positive▁3789
▁Minute▁3790
rleichter▁3791
▁Liebe▁3792
berraschung▁3793
▁Stolz▁3794
▁Neugier▁3795
▁Aufreg▁3796
▁Verwund▁3797
erung▁3798
▁Zufriedenheit▁3799
▁Zeitspanne▁3800
▁brauche▁3801
▁Freiwillige▁3802
▁praktische▁3803
▁hochkomm▁3804
V▁3805
reinigung▁3806
sterreich▁3807
▁namens▁3808
▁Mo▁3809
▁Sunni▁3810
▁erkläre▁3811
amp▁3812
▁ring▁3813
▁Beste▁3814
▁Game▁3815
Generation▁3816
▁Milliarde▁3817
▁Eric▁3818
▁anschließen▁3819
▁gewinn▁3820
▁derjenige▁3821
▁fest▁3822
nagel▁3823
▁warten▁3824
▁drauf▁3825
stürzen▁3826
▁Ah▁3827
▁typische▁3828
▁Knoten▁3829
▁ambition▁3830
reiz▁3831
merken▁3832
mögen▁3833
▁einbeziehen▁3834
▁geschlossen▁3835
strecken▁3836
▁1500▁3837
änge▁3838
▁losgeh▁3839
▁freue▁3840
▁Grafik▁3841
▁Level▁3842
▁Fort▁3843
▁Kon▁3844
figur▁3845
▁Todes▁3846
▁irgendwelche▁3847
▁Star▁3848
Fan▁3849
bi▁3850
▁Wissenschafts▁3851
▁schwerste▁3852
▁extrem▁3853
▁erstmal▁3854
▁dreißig▁3855
▁Netzwerk▁3856
▁leichter▁3857
▁frei▁3858
▁sicher▁3859
▁Last▁3860
check▁3861
▁schnapp▁3862
▁reichen▁3863
▁Auge▁3864
▁wovo▁3865
▁redet▁3866
▁brauchte▁3867
▁tatsächliche▁3868
▁erzeugt▁3869
▁Sitz▁3870
▁physikalische▁3871
ttel▁3872
lacht▁3873
▁send▁3874
Mail▁3875
▁abrufe▁3876
▁komplett▁3877
fu▁3878
cht▁3879
▁körperlich▁3880
propos▁3881
▁körperliche▁3882
▁Hormon▁3883
▁Oxytocin▁3884
▁setzt▁3885
▁beste▁3886
▁freizu▁3887
setzen▁3888
▁mindesten▁3889
▁Hände▁3890
▁biochemisch▁3891
▁eingestellt▁3892
▁lieben▁3893
▁vorher▁3894
▁Glück▁3895
wunsch▁3896
▁Neuigkeit▁3897
▁offizielle▁3898
▁Groß▁3899
meister▁3900
▁beschleunigen▁3901
▁Schachspiel▁3902
▁irgendjemand▁3903
▁Twitter▁3904
▁Facebook▁3905
status▁3906
▁aktualisiere▁3907
▁Regelwerk▁3908
▁legendäre▁3909
▁passen▁3910
▁Verrückte▁3911
▁Wh▁3912
uuu▁3913
▁Tod▁3914
over▁3915
▁Ells▁3916
▁Media▁3917
▁Lab▁3918
widmet▁3919
▁musikalische▁3920
uo▁3921
▁Amateur▁3922
▁Oper▁3923
▁Videospiel▁3924
bieten▁3925
▁Komponist▁3926
schluss▁3927
▁Gedanke▁3928
stoßen▁3929
▁Mozart▁3930
effekt▁3931
▁ungeborene▁3932
Wert▁3933
▁bloß▁3934
▁hinzufügen▁3935
▁dynamische▁3936
▁Kern▁3937
▁jedermann▁3938
▁mitten▁3939
▁Erlebnis▁3940
▁sogenannte▁3941
▁Hyper▁3942
▁Inter▁3943
▁erfand▁3944
Y▁3945
▁Ma▁3946
▁Gabriel▁3947
▁Prince▁3948
▁Orchester▁3949
▁Instrumente▁3950
▁eingebaut▁3951
▁Instrument▁3952
▁Interpretation▁3953
▁verändere▁3954
▁Cello▁3955
▁Stimme▁3956
▁fantastische▁3957
▁Serie▁3958
▁Kol▁3959
ktionen▁3960
▁Brain▁3961
▁Opera▁3962
▁gestaltet▁3963
▁natürliche▁3964
▁Geschick▁3965
▁Musikstück▁3966
bewegung▁3967
▁Klang▁3968
massen▁3969
▁Ta▁3970
oberfläche▁3971
▁Melodie▁3972
▁Aura▁3973
▁erzeugen▁3974
▁auszu▁3975
probieren▁3976
▁mitzu▁3977
wirken▁3978
▁Aufführung▁3979
ourne▁3980
▁dauerhaft▁3981
▁Museum▁3982
▁gebaut▁3983
▁führte▁3984
▁Guitar▁3985
▁Her▁3986
fern▁3987
▁Interface▁3988
▁bereitstell▁3989
▁interessiert▁3990
zuspielen▁3991
▁Eisberg▁3992
▁zweiter▁3993
▁reicht▁3994
gestalt▁3995
▁meist▁3996
▁verändern▁3997
▁kommunizieren▁3998
▁Geist▁3999
co▁4000
▁ausreichend▁4001
▁Effekte▁4002
▁interessiere▁4003
▁schöpferische▁4004
▁breiter▁4005
▁Mu▁4006
iz▁4007
▁wachsende▁4008
▁Gebiete▁4009
▁derzeit▁4010
▁Oliver▁4011
▁Sack▁4012
▁Music▁4013
phil▁4014
▁erschienen▁4015
swert▁4016
▁Pianist▁4017
▁ungewöhnlich▁4018
▁beobachtet▁4019
▁Letzte▁4020
▁fortgeschritten▁4021
▁Alzheimer▁4022
▁ansprechen▁4023
▁Nahe▁4024
▁bemerkt▁4025
rag▁4026
ment▁4027
▁Stuhl▁4028
▁springen▁4029
▁teilweise▁4030
▁Persönlichkeit▁4031
▁zurückbring▁4032
▁Schlag▁4033
fälle▁4034
▁Bewegungen▁4035
▁Parkinson▁4036
▁wiederher▁4037
▁wirkungsvoll▁4038
▁Schizophren▁4039
▁liegende▁4040
▁Prinzipien▁4041
erlei▁4042
▁Krankenhäuser▁4043
▁Nähe▁4044
▁Boston▁4045
wksb▁4046
ury▁4047
▁Hospital▁4048
▁Langzeit▁4049
rankenhaus▁4050
▁geistige▁4051
▁Behinderung▁4052
bestand▁4053
▁Behandlung▁4054
▁scheint▁4055
behandlung▁4056
▁beschleunigt▁4057
▁weitermache▁4058
▁echtes▁4059
uscht▁4060
▁Gedächtnis▁4061
▁trainiere▁4062
▁musizier▁4063
▁experimentiere▁4064
▁Null▁4065
▁tiefgreifende▁4066
▁dritte▁4067
▁paradox▁4068
▁Worte▁4069
▁Reden▁4070
▁seltsam▁4071
▁nervös▁4072
▁teilte▁4073
▁Beispiele▁4074
▁mächtigste▁4075
▁Schnittstelle▁4076
▁Außen▁4077
▁aufzeigen▁4078
▁irre▁4079
▁D▁4080
eath▁4081
▁Power▁4082
projekte▁4083
▁mächtig▁4084
▁Umwelt▁4085
▁herunter▁4086
zu▁4087
▁Bücher▁4088
▁Kerl▁4089
▁ewig▁4090
▁läd▁4091
▁verschwinde▁4092
▁Beginn▁4093
charakter▁4094
▁Vermächtnis▁4095
▁handelt▁4096
▁weitergebe▁4097
▁Objekt▁4098
▁gigantische▁4099
▁Kr▁4100
uch▁4101
▁robotische▁4102
▁Prototyp▁4103
▁Klavier▁4104
sai▁4105
ite▁4106
▁streich▁4107
▁Propeller▁4108
▁akustische▁4109
▁Signale▁4110
▁vibrier▁4111
▁vermitteln▁4112
▁gewissermaß▁4113
▁Simon▁4114
▁griechische▁4115
▁Chor▁4116
▁Handlung▁4117
eck▁4118
Bot▁4119
▁Charakter▁4120
mp▁4121
▁hoffen▁4122
pp▁4123
▁Belieb▁4124
reihe▁4125
▁Würfel▁4126
▁Wände▁4127
▁Gesten▁4128
▁gewählt▁4129
gepackt▁4130
▁LED▁4131
▁Bildschirm▁4132
▁Bar▁4133
▁James▁4134
▁Mad▁4135
dale▁4136
na▁4137
▁betritt▁4138
offizielle▁4139
schau▁4140
▁Premiere▁4141
▁Mona▁4142
▁September▁4143
▁irgendeine▁4144
▁ungewöhnliche▁4145
▁online▁4146
▁Räume▁4147
▁zugänglich▁4148
▁Große▁4149
▁wandeln▁4150
▁gezeigt▁4151
cell▁4152
▁kn▁4153
au▁4154
iges▁4155
▁Spielzeug▁4156
▁anpassen▁4157
▁besondere▁4158
▁einladen▁4159
▁Applau▁4160
▁Adam▁4161
ant▁4162
▁Bomba▁4163
jet▁4164
▁motiviert▁4165
▁willst▁4166
▁Name▁4167
erebral▁4168
▁geliebt▁4169
▁Software▁4170
▁traf▁4171
▁dreieinhalb▁4172
wie▁4173
▁schüchtern▁4174
▁as▁4175
lo▁4176
▁komponiert▁4177
▁regelmäßig▁4178
▁Mitarbeiter▁4179
▁Stücke▁4180
▁CD▁4181
▁betreut▁4182
▁Experte▁4183
▁enge▁4184
▁let▁4185
▁gearbeitet▁4186
▁ermöglichen▁4187
▁arbeitet▁4188
▁Nu▁4189
ance▁4190
▁Präzision▁4191
▁braucht▁4192
▁technische▁4193
▁Fire▁4194
ire▁4195
Kamera▁4196
▁betrachtet▁4197
point▁4198
▁wählte▁4199
übertragung▁4200
▁Sprach▁4201
kontrolle▁4202
▁gewöhnt▁4203
▁uninteressant▁4204
est▁4205
▁Gestaltung▁4206
verfahren▁4207
▁Input▁4208
▁fortwährend▁4209
Tracking▁4210
▁schaut▁4211
▁Konstruktion▁4212
teil▁4213
▁folgte▁4214
▁Aspekt▁4215
▁Schulter▁4216
▁cod▁4217
ierten▁4218
▁expressive▁4219
▁Bewegung▁4220
▁brauchbar▁4221
▁übermittel▁4222
▁Parameter▁4223
▁stimmt▁4224
eh▁4225
▁passt▁4226
pe▁4227
▁erlaub▁4228
▁kreativer▁4229
liefert▁4230
drücken▁4231
▁Strukturen▁4232
▁Beziehung▁4233
▁technologische▁4234
▁fehlt▁4235
sprozess▁4236
▁Also▁4237
▁My▁4238
▁Eagle▁4239
▁Song▁4240
▁Partitur▁4241
track▁4242
▁hineingeh▁4243
▁bescheiden▁4244
▁beginn▁4245
▁platziere▁4246
▁erhält▁4247
fenster▁4248
▁zeichnet▁4249
▁Linien▁4250
▁platziert▁4251
▁anschaut▁4252
▁Abschnitt▁4253
▁verrückt▁4254
▁endet▁4255
▁Knall▁4256
▁analysiert▁4257
▁Aspekte▁4258
▁hervorbring▁4259
▁Graphik▁4260
Screen▁4261
▁bemerken▁4262
▁misst▁4263
▁verfolgt▁4264
▁verdeutlich▁4265
filter▁4266
▁anschaue▁4267
ziel▁4268
gerichtet▁4269
disziplin▁4270
hören▁4271
▁Byr▁4272
▁Architektur▁4273
▁unterstützt▁4274
▁CB▁4275
▁Konzert▁4276
▁Lauf▁4277
▁Hall▁4278
▁fragt▁4279
▁Veranstaltung▁4280
sort▁4281
▁Trommel▁4282
▁freie▁4283
▁Wagner▁4284
O▁4285
per▁4286
▁Arena▁4287
ock▁4288
▁Umstände▁4289
angetrieben▁4290
regel▁4291
▁klang▁4292
▁aufgenommen▁4293
▁Head▁4294
▁jedenfall▁4295
)▁4296
▁Beschaffen▁4297
heit▁4298
▁bewirkt▁4299
▁Texte▁4300
ana▁4301
maßen▁4302
heitlich▁4303
▁präzise▁4304
▁To▁4305
ot▁4306
▁Or▁4307
chi▁4308
▁Lo▁4309
▁Nash▁4310
ville▁4311
▁Hinsicht▁4312
▁Struktur▁4313
hielt▁4314
▁Band▁4315
▁Laut▁4316
ke▁4317
fallen▁4318
▁Ruf▁4319
töne▁4320
▁Säle▁4321
▁schöner▁4322
▁Disney▁4323
▁aufregend▁4324
▁festgestellt▁4325
▁zurecht▁4326
▁passend▁4327
▁schreibe▁4328
▁schwebt▁4329
▁Saal▁4330
▁sowas▁4331
▁Afrika▁4332
▁populär▁4333
▁tiefe▁4334
▁Wurzel▁4335
▁sag▁4336
▁fun▁4337
▁geling▁4338
▁Kulisse▁4339
▁durcheinander▁4340
▁Verstärk▁4341
▁Zufall▁4342
▁Durch▁4343
▁got▁4344
▁Kathedrale▁4345
▁Noten▁4346
werte▁4347
schmeichel▁4348
▁Bach▁4349
▁aufwendig▁4350
▁Risiko▁4351
▁Dissonanz▁4352
▁17▁4353
70▁4354
▁verspielt▁4355
▁komplex▁4356
▁La▁4357
▁Scal▁4358
7▁4359
häusern▁4360
gerufen▁4361
▁gegessen▁4362
▁Club▁4363
rie▁4364
▁rief▁4365
▁Zu▁4366
Erlebnis▁4367
▁Neuerung▁4368
ek▁4369
graben▁4370
▁vergrößert▁4371
stimmig▁4372
▁hinein▁4373
pass▁4374
▁beliebt▁4375
▁Symphonie▁4376
Saa▁4377
▁Alex▁4378
▁Ross▁4379
▁New▁4380
orker▁4381
▁trat▁4382
▁leise▁4383
▁Trink▁4384
▁Tra▁4385
▁kombiniert▁4386
▁wirkt▁4387
▁extreme▁4388
▁eingesetzt▁4389
arten▁4390
▁gewissen▁4391
▁rhythm▁4392
▁Mahl▁4393
▁Bob▁4394
▁Dylan▁4395
▁yea▁4396
▁Jazz▁4397
▁Scott▁4398
▁Jo▁4399
plin▁4400
dampf▁4401
publik▁4402
▁Tänzer▁4403
▁mochten▁4404
▁na▁4405
▁endlos▁4406
▁wiederholen▁4407
▁improvisieren▁4408
▁Latin▁4409
▁ändert▁4410
veranstaltung▁4411
▁gelangt▁4412
▁Mikrofon▁4413
▁ermöglicht▁4414
▁Sänger▁4415
▁Musiker▁4416
▁Radio▁4417
▁gesendet▁4418
▁Live▁4419
ina▁4420
▁translator▁4421
▁note▁4422
av▁4423
our▁4424
▁Review▁4425
▁please▁4426
▁delete▁4427
▁g▁4428
▁Baker▁4429
▁sing▁4430
▁Ohr▁4431
▁flüstert▁4432
isierende▁4433
▁Effekt▁4434
▁Dir▁4435
▁geschieden▁4436
▁aufgezeichnet▁4437
▁Ju▁4438
Box▁4439
▁Kneipe▁4440
▁Anlagen▁4441
▁speziell▁4442
▁Passage▁4443
▁frühe▁4444
▁Hip▁4445
Hop▁4446
geschnitten▁4447
▁Moderator▁4448
▁aufge▁4449
▁Geburt▁4450
▁Orten▁4451
geführt▁4452
kus▁4453
tisch▁4454
▁schlechtes▁4455
adi▁4456
▁Basketball▁4457
all▁4458
ho▁4459
cke▁4460
Stadien▁4461
fa▁4462
nden▁4463
▁Bal▁4464
▁moderate▁4465
▁Tempo▁4466
▁mode▁4467
▁grand▁4468
▁gesellig▁4469
▁Stimmung▁4470
▁Umstand▁4471
rad▁4472
ufgewachsen▁4473
▁mittler▁4474
weile▁4475
anlagen▁4476
▁Frequenz▁4477
ässe▁4478
▁high▁4479
▁dazwischen▁4480
▁Deine▁4481
▁Medium▁4482
▁private▁4483
▁MP▁4484
Player▁4485
▁christliche▁4486
▁Hin▁4487
▁still▁4488
Afrika▁4489
▁dr▁4490
▁Lautstärke▁4491
▁lauter▁4492
▁Pop▁4493
▁heut▁4494
tage▁4495
▁gewisser▁4496
▁Gerät▁4497
▁gross▁4498
▁praktizieren▁4499
▁woanders▁4500
▁Davi▁4501
▁Attenborough▁4502
▁Vögel▁4503
dach▁4504
frequent▁4505
▁Wald▁4506
boden▁4507
▁reflektiert▁4508
▁Gras▁4509
amme▁4510
▁summ▁4511
energie▁4512
sparen▁4513
▁praktisch▁4514
▁Landschaften▁4515
▁Savanne▁4516
▁verbreiten▁4517
▁Tan▁4518
ang▁4519
▁angepasst▁4520
▁Ostküste▁4521
▁Wälder▁4522
▁dichter▁4523
▁Westküste▁4524
▁gedacht▁4525
▁Schöpfung▁4526
smodell▁4527
▁Linie▁4528
ga▁4529
▁Muse▁4530
▁hängt▁4531
▁Programme▁4532
▁Betriebssystem▁4533
▁evolutionär▁4534
fähig▁4535
▁umgekehrt▁4536
▁Sichtweise▁4537
▁romantische▁4538
▁Standpunkt▁4539
▁Gefühle▁4540
▁irgendetw▁4541
as▁4542
▁geformt▁4543
▁Gefäß▁4544
▁injiziert▁4545
▁instinktiv▁4546
▁intuitiv▁4547
▁hingeh▁4548
▁Konflikt▁4549
▁Ansicht▁4550
▁Autor▁4551
▁Thom▁4552
▁mögliche▁4553
▁Erklärung▁4554
▁entgegen▁4555
▁Belange▁4556
▁aufrichtig▁4557
▁Bauch▁4558
▁echter▁4559
▁Glaub▁4560
würdigkeit▁4561
▁vortäusch▁4562
▁Erkenntnis▁4563
▁Vögeln▁4564
passen▁4565
▁Iran▁4566
sgeschichte▁4567
▁14.▁4568
▁Mär▁4569
▁Jahres▁4570
▁Poster▁4571
▁gepostet▁4572
▁israelische▁4573
▁Flagge▁4574
▁erläuter▁4575
▁post▁4576
▁Tagen▁4577
▁wartete▁4578
▁Schlange▁4579
▁Supermarkt▁4580
▁Besitzer▁4581
▁sprachen▁4582
▁erklärte▁4583
▁10.000▁4584
▁Raketen▁4585
▁nieder▁4586
▁Krieg▁4587
▁unternehmen▁4588
▁spät▁4589
▁handeln▁4590
designer▁4591
▁like▁4592
▁Bett▁4593
▁Nacht▁4594
▁wachte▁4595
wache▁4596
▁nachts▁4597
▁vorbei▁4598
▁Punkte▁4599
▁gehe▁4600
▁beginne▁4601
▁Was▁4602
▁Nachbarn▁4603
▁Mädchen▁4604
▁Wohnzimmer▁4605
▁weinen▁4606
▁wow▁4607
▁las▁4608
▁Text▁4609
▁weinte▁4610
redet▁4611
▁ernsthaft▁4612
tete▁4613
▁gib▁4614
▁ausgelöst▁4615
▁schicken▁4616
▁Iraner▁4617
▁ergreifen▁4618
▁erhielt▁4619
▁Kommentare▁4620
▁Nachrichten▁4621
▁antwortete▁4622
rück▁4623
▁Kommunikation▁4624
▁gegenseitige▁4625
▁Israeli▁4626
▁hasse▁4627
▁Völker▁4628
▁Feinde▁4629
▁Schwelle▁4630
▁Nah▁4631
▁Osten▁4632
▁Okay▁4633
▁lass▁4634
▁erinnere▁4635
▁sprach▁4636
▁Palästina▁4637
▁J▁4638
▁Syri▁4639
▁Libanon▁4640
▁Chinese▁4641
▁z▁4642
▁tauchte▁4643
▁Logo▁4644
liebt▁4645
Israel▁4646
▁lieb▁4647
▁verstand▁4648
▁passierte▁4649
▁Freund▁4650
▁Go▁4651
▁Wort▁4652
▁Google▁4653
▁auftauchte▁4654
gab▁4655
▁tippe▁4656
▁erscheinen▁4657
I▁4658
Webseite▁4659
▁83▁4660
▁Like▁4661
stellen▁4662
Seite▁4663
▁Gedenk▁4664
▁gefallen▁4665
▁Soldaten▁4666
lei▁4667
▁Liebste▁4668
▁Terror▁4669
▁zolle▁4670
▁Respekt▁4671
▁Mitgefühl▁4672
▁reisen▁4673
▁Eröffnung▁4674
▁Ausstellung▁4675
▁Webseite▁4676
▁komme▁4677
▁Frankreich▁4678
schüttelt▁4679
▁trank▁4680
▁Unterhaltung▁4681
▁Flughafen▁4682
ion▁4683
▁Stress▁4684
▁startete▁4685
▁Kampagne▁4686
▁Nicht▁4687
▁eure▁4688
▁sterben▁4689
▁dieselbe▁4690
ivität▁4691
▁Erstaunliche▁4692
▁Welle▁4693
▁herkommen▁4694
leicht▁4695
▁Ron▁4696
▁Ed▁4697
ry▁4698
▁41▁4699
▁Ehemann▁4700
▁unterrichte▁4701
design▁4702
▁naiv▁4703
▁Blumen▁4704
▁rüber▁4705
▁Armee▁4706
▁Fallschirm▁4707
jäger▁4708
▁mutig▁4709
▁erreichen▁4710
gänglich▁4711
▁vermeiden▁4712
▁Volk▁4713
▁helfen▁4714
▁Frieden▁4715
▁Franz▁4716
bo▁4717
▁Charles▁4718
▁Moore▁4719
▁Plastik▁4720
▁Kapitän▁4721
gali▁4722
▁Marine▁4723
▁R▁4724
esearch▁4725
▁Foundation▁4726
▁entdeckte▁4727
▁Pacific▁4728
▁Gar▁4729
age▁4730
▁Pat▁4731
▁endlose▁4732
▁Müllhalde▁4733
▁schwimmende▁4734
▁lenkt▁4735
▁Aufmerksamkeit▁4736
▁ersticken▁4737
lagerung▁4738
▁Müll▁4739
▁Ethik▁4740
▁Bewahr▁4741
▁Weltwirtschaft▁4742
krise▁4743
▁2.▁4744
▁Weltkrieg▁4745
▁Produktions▁4746
kapazität▁4747
▁Erschaffung▁4748
▁Produkten▁4749
▁Friedens▁4750
▁Life▁4751
▁Magazine▁4752
holfen▁4753
▁Einführung▁4754
▁Wegwerf▁4755
produkt▁4756
▁verkündete▁4757
▁Hausfrau▁4758
▁Mühe▁4759
wasch▁4760
▁befreien▁4761
▁Anmerkung▁4762
frei▁4763
▁Produkte▁4764
▁biologisch▁4765
▁abbaubar▁4766
produkte▁4767
▁außerdem▁4768
▁recycle▁4769
▁aufbereitet▁4770
▁bezeichnet▁4771
komm▁4772
▁Schmelz▁4773
punkt▁4774
schmelze▁4775
▁sauberer▁4776
▁Glas▁4777
▁Metall▁4778
halb▁4779
▁schmelzen▁4780
▁verliert▁4781
öl▁4782
▁Bestandteile▁4783
▁Schwa▁4784
▁gespeichert▁4785
pur▁4786
sp▁4787
▁Flüsse▁4788
▁hinunter▁4789
Creek▁4790
▁Los▁4791
▁Angeles▁4792
▁Treib▁4793
gut▁4794
▁nahe▁4795
▁California▁4796
▁State▁4797
▁Long▁4798
▁Beach▁4799
▁Entsalzung▁4800
werk▁4801
▁besucht▁4802
▁Pf▁4803
and▁4804
getränk▁4805
flasche▁4806
▁visualisiert▁4807
Teil▁4808
nehmer▁4809
▁Jordan▁4810
konsum▁4811
kunst▁4812
voll▁4813
▁detailliert▁4814
▁dokumentiert▁4815
▁Flaschen▁4816
▁abgelegene▁4817
▁Insel▁4818
▁Küste▁4819
▁N▁4820
ieder▁4821
li▁4822
for▁4823
▁Ro▁4824
ohn▁4825
▁Vogel▁4826
kolonie▁4827
▁kau▁4828
▁beachten▁4829
kappen▁4830
▁besitzen▁4831
▁Poly▁4832
ep▁4833
hal▁4834
▁Salzwasser▁4835
▁Zivilisation▁4836
nähe▁4837
▁auftauchen▁4838
schlüsse▁4839
▁Fabrik▁4840
▁hergestellt▁4841
▁schwimmen▁4842
▁unglücklich▁4843
▁nachvollzieh▁4844
▁Flasche▁4845
▁treiben▁4846
▁kalifornische▁4847
▁Strömung▁4848
▁Süden▁4849
▁Ca▁4850
▁Luca▁4851
▁Eastern▁4852
▁Philippine▁4853
▁verschmutzen▁4854
▁Ansammlung▁4855
▁Verschm▁4856
utzung▁4857
▁Nord▁4858
pa▁4859
wirbel▁4860
lbatross▁4861
▁Kur▁4862
▁Mid▁4863
way▁4864
Inseln▁4865
▁Northwest▁4866
▁Hawaiian▁4867
▁Islands▁4868
▁National▁4869
▁Monument▁4870
füttern▁4871
▁alte▁4872
▁Junge▁4873
▁Magen▁4874
inhalt▁4875
groß▁4876
zeug▁4877
▁verwechsel▁4878
rei▁4879
bt▁4880
▁Ringe▁4881
▁Konsequenzen▁4882
▁Heim▁4883
▁Orleans▁4884
weit▁4885
▁Heimat▁4886
stadt▁4887
▁daher▁4888
ub▁4889
insel▁4890
▁östlich▁4891
▁säuber▁4892
▁weite▁4893
▁bot▁4894
▁Cent▁4895
▁Lieferant▁4896
00▁4897
▁investieren▁4898
▁Aktion▁4899
▁kostete▁4900
▁sort▁4901
▁Earth▁4902
▁Day▁4903
llo▁4904
▁Aquarium▁4905
▁Pedr▁4906
▁Schau▁4907
▁Gouverneur▁4908
▁Schwarzen▁4909
gger▁4910
▁Maria▁4911
▁Gespräch▁4912
▁feminine▁4913
▁Hut▁4914
tüte▁4915
kel▁4916
▁zeigte▁4917
▁Zo▁4918
oplankton▁4919
chle▁4920
▁Wirbel▁4921
▁Hawaii▁4922
▁Plankton▁4923
▁filter▁4924
suppe▁4925
▁1,6▁4926
zieht▁4927
▁entstehen▁4928
▁Proben▁4929
▁Strände▁4930
gespült▁4931
▁Ka▁4932
ua▁4933
▁Präsident▁4934
▁zog▁4935
Fragmente▁4936
▁Millimeter▁4937
meter▁4938
Stück▁4939
▁Schadstoffe▁4940
▁Konzentration▁4941
▁umgebende▁4942
▁häufigste▁4943
▁vorkommen▁4944
▁Nahrungskette▁4945
▁giftige▁4946
▁Pillen▁4947
▁sezier▁4948
schmutzt▁4949
▁Rekord▁4950
▁c▁4951
▁84▁4952
▁winzige▁4953
▁zertifizierte▁4954
▁Obst▁4955
▁Gemüse▁4956
händler▁4957
▁Wildnis▁4958
▁verkaufen▁4959
▁Erbe▁4960
▁zukünftige▁4961
▁hinterlasse▁4962
gesellschaft▁4963
lagern▁4964
▁erhalten▁4965
▁Markt▁4966
wirtschaft▁4967
▁zerstört▁4968
▁Pferde▁4969
sammeln▁4970
egel▁4971
▁Verpackung▁4972
▁Sprecher▁4973
▁sauber▁4974
nseits▁4975
▁jedwede▁4976
▁Budget▁4977
▁unvorhersehbar▁4978
wesen▁4979
▁getötet▁4980
▁stoppen▁4981
▁Meere▁4982
last▁4983
▁Brian▁4984
one▁4985
▁Night▁4986
▁Kalifornien▁4987
▁Carol▁4988
▁Steel▁4989
▁Städte▁4990
▁Mahlzeiten▁4991
▁serviert▁4992
▁Architekt▁4993
▁tägliche▁4994
▁ernährt▁4995
▁Nahrungs▁4996
beschaffung▁4997
▁moderne▁4998
▁gestellt▁4999
▁Restaurant▁5000
oyer▁5001
▁Nichts▁5002
▁täglich▁5003
▁transportiert▁5004
▁gekauft▁5005
▁verkauft▁5006
▁gekocht▁5007
▁entsorg▁5008
▁vergleichbar▁5009
▁Natürlich▁5010
▁abhängig▁5011
▁Vorfahre▁5012
▁umso▁5013
räume▁5014
▁außerordentlich▁5015
▁Soja▁5016
Feld▁5017
▁Gross▁5018
▁Brasilien▁5019
▁ernähre▁5020
▁zunehmende▁5021
▁Maße▁5022
▁dienen▁5023
erzeugung▁5024
▁Fleisch▁5025
▁jährlich▁5026
▁Getreide▁5027
produktion▁5028
futter▁5029
▁dreimal▁5030
▁tierische▁5031
▁Ursprung▁5032
▁effizienter▁5033
50▁5034
ungsweise▁5035
▁Städten▁5036
▁geschätzt▁5037
▁Milch▁5038
▁konsumiert▁5039
▁Urban▁5040
▁gewaltige▁5041
▁hungrig▁5042
fresser▁5043
unwahrscheinlich▁5044
▁19▁5045
▁Hektar▁5046
▁Reg▁5047
wald▁5048
bau▁5049
flächen▁5050
▁Anbau▁5051
fläche▁5052
▁Erosion▁5053
▁fossil▁5054
▁Brennstoffe▁5055
▁Kalorien▁5056
▁benötigt▁5057
▁Kal▁5058
ori▁5059
▁Westen▁5060
▁konsumieren▁5061
▁Lebensmittel▁5062
schmiss▁5063
▁ordentlich▁5064
▁fettleibig▁5065
▁hunger▁5066
▁multinational▁5067
orporation▁5068
▁düstere▁5069
▁Ernährung▁5070
▁blicken▁5071
soweit▁5072
▁Antwort▁5073
▁Frucht▁5074
mond▁5075
▁fruchtbar▁5076
▁Erfindungen▁5077
▁Landwirtschaft▁5078
▁gehören▁5079
▁Nahrungsquelle▁5080
▁dauerhafte▁5081
▁Siedlung▁5082
▁aussah▁5083
▁kompakt▁5084
▁umgeben▁5085
▁Tempel▁5086
▁Ur▁5087
▁zentral▁5088
distribution▁5089
zentr▁5090
▁Ernte▁5091
gesammelt▁5092
▁Götter▁5093
▁Rest▁5094
▁verteilen▁5095
grund▁5096
▁Rom▁5097
▁Jahrhundert▁5098
▁nenne▁5099
▁antike▁5100
wege▁5101
▁Strassen▁5102
transportieren▁5103
▁Kriege▁5104
gypten▁5105
quelle▁5106
▁Erweiterung▁5107
▁Reiche▁5108
▁gezogen▁5109
▁militärische▁5110
pping▁5111
wu▁5112
▁erwähnen▁5113
▁Zeitpunkt▁5114
▁Austern▁5115
▁Britanni▁5116
▁Hinter▁5117
▁Appeti▁5118
▁inter▁5119
industrielle▁5120
▁17.▁5121
ap▁5122
side▁5123
markt▁5124
namen▁5125
▁ansieh▁5126
read▁5127
▁Street▁5128
gespielt▁5129
▁Fluss▁5130
▁bekannteste▁5131
▁existierte▁5132
▁bedenken▁5133
iegel▁5134
▁stink▁5135
▁Hafen▁5136
geschlagen▁5137
▁betreten▁5138
▁Nordwest▁5139
▁Schott▁5140
▁Wale▁5141
field▁5142
flügel▁5143
▁Ost▁5144
gli▁5145
▁Nordost▁5146
▁fühle▁5147
vorhersage▁5148
fe▁5149
tzen▁5150
▁gebunden▁5151
▁Erreichen▁5152
▁Verkauf▁5153
ult▁5154
▁heisst▁5155
▁beliebige▁5156
zeitalter▁5157
▁Spuren▁5158
guckt▁5159
▁Hinweise▁5160
▁Friday▁5161
▁Freitag▁5162
▁Plätze▁5163
30▁5164
▁Sonntag▁5165
essen▁5166
▁ausgehen▁5167
▁mu▁5168
Stadt▁5169
▁biologische▁5170
▁Kreislauf▁5171
▁änderte▁5172
▁Western▁5173
▁Eisenbahn▁5174
40▁5175
▁Zug▁5176
reisen▁5177
▁Schweine▁5178
geschlachtet▁5179
▁geografische▁5180
▁Abhängigkeit▁5181
▁befreit▁5182
Karte▁5183
nähern▁5184
▁Kle▁5185
▁Schla▁5186
masse▁5187
▁Autos▁5188
▁endgültige▁5189
▁Bruch▁5190
▁Gerüche▁5191
▁fuhr▁5192
rand▁5193
▁wunderte▁5194
▁Nahrungsmittel▁5195
▁Ereignis▁5196
▁kocht▁5197
▁hinzu▁5198
▁Ei▁5199
▁Kuchen▁5200
▁back▁5201
▁riechen▁5202
▁prüfen▁5203
▁Etikett▁5204
▁Rückseite▁5205
▁fürchte▁5206
me▁5207
▁modern▁5208
Ernährungssystem▁5209
▁einfacher▁5210
▁bauen▁5211
▁aufrecht▁5212
▁500▁5213
▁More▁5214
▁Utopia▁5215
▁Anzahl▁5216
▁halb▁5217
unabhängig▁5218
staaten▁5219
▁Garten▁5220
▁gemeinsam▁5221
▁teilnahm▁5222
▁argumentiere▁5223
▁fundamentale▁5224
ug▁5225
prinzip▁5226
▁formuliert▁5227
▁berühmte▁5228
zer▁5229
▁urbane▁5230
▁Flächen▁5231
bare▁5232
▁darstellt▁5233
▁Utopie▁5234
▁utopisch▁5235
▁nutzte▁5236
▁absichtlich▁5237
▁Scherz▁5238
deutung▁5239
▁Ideal▁5240
rahmen▁5241
▁tiefgründige▁5242
▁hilf▁5243
▁Alternative▁5244
▁Si▁5245
topia▁5246
▁sit▁5247
po▁5248
▁mächtige▁5249
▁konzeptionell▁5250
werkzeug▁5251
▁Folie▁5252
▁Hunde▁5253
blick▁5254
▁gefeiert▁5255
▁Szenen▁5256
▁Männer▁5257
ausdenken▁5258
▁planen▁5259
▁benenn▁5260
▁ausgesucht▁5261
▁kauft▁5262
▁Netzwerke▁5263
▁Märkte▁5264
▁regional▁5265
gebaut▁5266
▁lokal▁5267
Nullsummen▁5268
are▁5269
▁dunkle▁5270
▁Loch▁5271
▁Kühe▁5272
▁Aussicht▁5273
▁Dampf▁5274
▁Hum▁5275
projekt▁5276
ronto▁5277
Gewächshaus▁5278
▁Pflanze▁5279
▁Kev▁5280
▁Projekte▁5281
▁wiederherstell▁5282
▁immens▁5283
etrachtungsweise▁5284
schliessen▁5285
produktiv▁5286
▁produktiv▁5287
▁zwang▁5288
släufig▁5289
▁symbio▁5290
▁herstellen▁5291
kultur▁5292
shalb▁5293
konzept▁5294
▁650▁5295
jahre▁5296
▁Am▁5297
ogi▁5298
Lorenz▁5299
ett▁5300
▁Guten▁5301
▁Verhältnis▁5302
▁kümmert▁5303
▁Alle▁5304
▁dringend▁5305
▁beantworten▁5306
di▁5307
▁Reader▁5308
▁Kit▁5309
ly▁5310
▁Hill▁5311
macher▁5312
▁Piano▁5313
▁Dolby▁5314
▁Lied▁5315
▁jene▁5316
▁Martin▁5317
▁Evan▁5318
▁Bo▁5319
▁Einladung▁5320
▁Vergnügen▁5321
▁richtet▁5322
irstream▁5323
reichen▁5324
▁2002▁5325
▁Designer▁5326
▁amerikanische▁5327
▁Wohnwagen▁5328
▁Wilson▁5329
▁International▁5330
▁Kunststoff▁5331
La▁5332
▁Mess▁5333
▁zeitgenössische▁5334
▁Möbel▁5335
ork▁5336
▁Transportmittel▁5337
Inneneinrichtung▁5338
▁entschieden▁5339
kern▁5340
▁Look▁5341
▁Werkstatt▁5342
erkeley▁5343
▁Perspektive▁5344
▁ideal▁5345
▁optimiere▁5346
▁entschied▁5347
▁recherchiere▁5348
▁Verlauf▁5349
▁schief▁5350
▁herausfand▁5351
▁Trennung▁5352
▁äußere▁5353
▁Hülle▁5354
▁ursprünglich▁5355
gewicht▁5356
ige▁5357
▁futurist▁5358
technolog▁5359
▁konzipiert▁5360
▁Schnell▁5361
straße▁5362
brau▁5363
▁altmodisch▁5364
▁Berg▁5365
hütte▁5366
▁bezogen▁5367
▁Krise▁5368
▁Wortschatz▁5369
▁Reisen▁5370
▁Modern▁5371
▁handelte▁5372
▁übereinstimmt▁5373
▁Archäologi▁5374
▁betreiben▁5375
▁authentisch▁5376
▁Nutzen▁5377
ola▁5378
▁Aluminium▁5379
hülle▁5380
▁Lei▁5381
▁zeichnete▁5382
tzt▁5383
▁Karton▁5384
▁baute▁5385
ät▁5386
▁Mobilität▁5387
▁Schwierigkeit▁5388
▁entwirf▁5389
▁logisch▁5390
▁aufgrund▁5391
laufen▁5392
▁Dach▁5393
▁erschwert▁5394
▁hervorzu▁5395
▁Dimensionen▁5396
▁bo▁5397
vig▁5398
▁Panel▁5399
▁gebogen▁5400
▁verlaufen▁5401
▁entwickelte▁5402
▁Haut▁5403
▁lenken▁5404
▁Geometrie▁5405
▁wahrnehme▁5406
▁Gehäuse▁5407
▁unterbrechen▁5408
▁Strom▁5409
kabel▁5410
▁elektrische▁5411
▁fertiggestellt▁5412
▁Auftrag▁5413
▁Block▁5414
Design▁5415
▁Oktober▁5416
aki▁5417
firma▁5418
▁verschick▁5419
▁funktionsfähig▁5420
▁Nummer▁5421
▁unbeschriebene▁5422
▁wolle▁5423
▁entwarf▁5424
▁Fantasie▁5425
zenario▁5426
▁DJ▁5427
▁reist▁5428
▁Platten▁5429
▁sammeln▁5430
▁Tour▁5431
spieler▁5432
▁Misch▁5433
pul▁5434
▁Sound▁5435
▁Couch▁5436
willig▁5437
▁floss▁5438
board▁5439
▁Surfer▁5440
▁Bergsteiger▁5441
▁Innen▁5442
usstattung▁5443
▁Bau▁5444
prozess▁5445
▁Bam▁5446
▁genannt▁5447
▁endlich▁5448
▁oh▁5449
▁Werkzeuge▁5450
▁Einrichtung▁5451
ließ▁5452
▁Dilemma▁5453
▁vorhanden▁5454
▁genommen▁5455
▁hand▁5456
gemacht▁5457
arbeiten▁5458
▁einzigartig▁5459
schneiden▁5460
kasten▁5461
▁16.▁5462
▁Kran▁5463
▁Geheimnis▁5464
▁Symptome▁5465
▁Nervensystem▁5466
▁Signal▁5467
chleifen▁5468
▁Krankheit▁5469
▁brach▁5470
▁Fakten▁5471
arzt▁5472
thesis▁5473
▁Lebensunterhalt▁5474
schlaf▁5475
▁Akademiker▁5476
▁schläf▁5477
▁Zuhörer▁5478
sonst▁5479
▁Management▁5480
▁Service▁5481
Packard▁5482
▁Klinik▁5483
▁Stanford▁5484
▁Palo▁5485
▁Alto▁5486
▁Morgen▁5487
▁Symptom▁5488
▁Tumor▁5489
▁Infektion▁5490
▁Entzündung▁5491
▁Operation▁5492
▁Ereignisse▁5493
▁erholt▁5494
▁dagegen▁5495
▁Feder▁5496
▁Schlimme▁5497
▁Ihres▁5498
▁Kindes▁5499
▁Brenn▁5500
▁Patientin▁5501
▁Chandler▁5502
▁erlebte▁5503
▁Foto▁5504
▁schöne▁5505
▁16▁5506
▁lernte▁5507
▁strebt▁5508
train▁5509
▁fiel▁5510
▁ausgestreckt▁5511
taucht▁5512
▁unbedeutend▁5513
bu▁5514
prof▁5515
auch▁5516
färb▁5517
▁lila▁5518
▁Ber▁5519
ühr▁5520
▁Le▁5521
iche▁5522
▁erstarr▁5523
▁gelähmt▁5524
ton▁5525
▁Fingerspitzen▁5526
▁Ellenbogen▁5527
▁ausge▁5528
breite▁5529
▁Schlimmste▁5530
▁24▁5531
▁All▁5532
od▁5533
nia▁5534
▁leichte▁5535
rmel▁5536
▁Stoffe▁5537
zog▁5538
▁brennende▁5539
▁harmlos▁5540
▁grausam▁5541
dra▁5542
▁Kabel▁5543
▁Lichtschalter▁5544
▁Decke▁5545
▁Glühbirne▁5546
▁Schalter▁5547
schalten▁5548
▁Hammer▁5549
▁schlagen▁5550
▁Information▁5551
▁Rückenmark▁5552
bewußt▁5553
▁komplizierter▁5554
▁Nerv▁5555
▁verbindet▁5556
▁braune▁5557
▁Päckchen▁5558
Neurotransmitter▁5559
▁linear▁5560
gibt▁5561
▁horizontal▁5562
▁vertikal▁5563
▁rauf▁5564
▁benachbarte▁5565
▁Zellen▁5566
zellen▁5567
▁unwichtig▁5568
elemente▁5569
▁entscheidende▁5570
▁Regulierung▁5571
▁Falle▁5572
fälsch▁5573
▁Sinneseindrücke▁5574
▁aktiviert▁5575
▁DNS▁5576
▁fäng▁5577
▁Proteine▁5578
schüttet▁5579
▁angrenzende▁5580
▁interagieren▁5581
c▁5582
▁aktivier▁5583
▁Feedback▁5584
▁Schleife▁5585
▁verlegt▁5586
▁Toiletten▁5587
spül▁5588
▁Tür▁5589
▁Geschirr▁5590
bildschirm▁5591
▁ausgeschalte▁5592
lastizität▁5593
▁Reaktion▁5594
▁Stimul▁5595
anz▁5596
▁symptom▁5597
ändern▁5598
▁Medikamenten▁5599
mittel▁5600
▁offen▁5601
▁effektiv▁5602
▁ruhig▁5603
▁lokale▁5604
sthetik▁5605
▁rig▁5606
▁Therapie▁5607
▁alltägliche▁5608
▁intensive▁5609
▁psychotherap▁5610
▁Programm▁5611
▁Mut▁5612
losigkeit▁5613
▁Verzweiflung▁5614
▁Rück▁5615
war▁5616
to▁5617
▁Mittag▁5618
▁College▁5619
▁absolut▁5620
▁rosig▁5621
▁prophet▁5622
▁George▁5623
▁Carl▁5624
▁Mein▁5625
▁Kris▁5626
j▁5627
▁Gesetze▁5628
▁Hohe▁5629
▁geschützt▁5630
▁Welten▁5631
▁Rechts▁5632
experte▁5633
▁kluge▁5634
gestaltung▁5635
▁gesunde▁5636
▁Portion▁5637
▁PR▁5638
ppnet▁5639
▁schützen▁5640
▁Monde▁5641
▁Mythen▁5642
▁Leg▁5643
▁Hier▁5644
▁Monster▁5645
▁wunder▁5646
▁beneide▁5647
IUC▁5648
N▁5649
amount▁5650
▁Madagas▁5651
car▁5652
▁fotografiere▁5653
▁juristische▁5654
tiefe▁5655
▁4.000▁5656
▁theoretisch▁5657
▁Allgemeingut▁5658
▁Resourcen▁5659
uten▁5660
▁Betroffene▁5661
▁Dunkel▁5662
gemäß▁5663
klären▁5664
▁besonderen▁5665
▁umfassende▁5666
▁Schutz▁5667
becken▁5668
bett▁5669
▁Norm▁5670
▁Vorsorge▁5671
▁beängstigend▁5672
zweifeln▁5673
▁Kohlenstoff▁5674
speicher▁5675
▁liefer▁5676
▁36▁5677
▁angehen▁5678
▁derzeitige▁5679
▁internationale▁5680
▁Schiff▁5681
▁vorrangig▁5682
▁glaubt▁5683
▁erledige▁5684
▁Schiffe▁5685
▁dürfe▁5686
teppich▁5687
▁Texas▁5688
dünn▁5689
▁nachweis▁5690
forscher▁5691
konom▁5692
▁Eli▁5693
▁Ostro▁5694
▁untersuchen▁5695
▁Gemein▁5696
▁verwaltet▁5697
▁Verwaltung▁5698
▁Beteiligte▁5699
▁bedingt▁5700
▁Andere▁5701
▁effektive▁5702
berprüfung▁5703
setzung▁5704
▁Vertrauen▁5705
▁notwendig▁5706
▁längst▁5707
▁Umweltschützer▁5708
▁Fotografen▁5709
▁tragische▁5710
▁Szenario▁5711
zuwenden▁5712
▁fragile▁5713
landschaft▁5714
▁Korallen▁5715
garten▁5716
▁droht▁5717
▁Vernichtung▁5718
fisch▁5719
▁retten▁5720
▁Geschehen▁5721
▁fotografiert▁5722
▁Keller▁5723
▁Vereinte▁5724
▁Nationen▁5725
▁verbracht▁5726
▁Regierungen▁5727
zumachen▁5728
▁Festland▁5729
▁Regelung▁5730
▁Fischer▁5731
▁frühzeitig▁5732
▁Fest▁5733
▁Route▁5734
▁erfordert▁5735
▁sowie▁5736
▁Verpflichtung▁5737
▁Schäde▁5738
▁vorzubeugen▁5739
▁Fortschritte▁5740
▁überprüft▁5741
uadratkilometer▁5742
▁regiert▁5743
▁Sylvia▁5744
▁Wunsch▁5745
schub▁5746
▁Herzen▁5747
zusag▁5748
▁ho▁5749
ffentlich▁5750
schildkröte▁5751
▁Eindruck▁5752
▁Reich▁5753
▁Sargasso▁5754
See▁5755
▁Küsten▁5756
▁begrenzt▁5757
strömung▁5758
▁Fülle▁5759
▁Algen▁5760
ball▁5761
gebiet▁5762
▁nor▁5763
europäisch▁5764
▁no▁5765
rdamerikanische▁5766
▁Zahl▁5767
▁Stock▁5768
holm▁5769
getaucht▁5770
argassum▁5771
▁Februar▁5772
▁200.000▁5773
wachsen▁5774
▁beeinträchtige▁5775
▁wundersame▁5776
▁einzigartige▁5777
Leben▁5778
▁Initiative▁5779
▁Bermuda▁5780
bedarf▁5781
▁erkannt▁5782
▁Territori▁5783
▁außerhalb▁5784
wirkt▁5785
▁Süd▁5786
▁Kontinent▁5787
▁territor▁5788
ial▁5789
▁Ansprüche▁5790
▁Pack▁5791
▁Frühling▁5792
▁Sommer▁5793
▁Ph▁5794
▁Krill▁5795
nährt▁5796
▁nahezu▁5797
▁intakt▁5798
küste▁5799
nna▁5800
he▁5801
▁CA▁5802
ML▁5803
▁regionale▁5804
▁Ausschuss▁5805
ressourcen▁5806
▁zuständig▁5807
▁leider▁5808
▁Fischerei▁5809
In▁5810
▁nachzu▁5811
▁dortige▁5812
▁Zahn▁5813
F▁5814
▁zugelassen▁5815
ländische▁5816
▁bedeutende▁5817
lein▁5818
▁Killer▁5819
wal▁5820
ark▁5821
▁beanspruch▁5822
▁Hoch▁5823
▁sperr▁5824
▁Fischen▁5825
▁Cost▁5826
▁Rica▁5827
▁Dome▁5828
▁Blauwal▁5829
▁Winter▁5830
▁o▁5831
ografische▁5832
▁Jahreszeit▁5833
▁verschieb▁5834
▁permanent▁5835
▁Aus▁5836
zone▁5837
amerikanische▁5838
▁wandern▁5839
▁or▁5840
▁verletzlich▁5841
▁Galapagos▁5842
▁Tropic▁5843
▁Sea▁5844
▁Conservati▁5845
▁koordiniert▁5846
▁schützt▁5847
stätte▁5848
▁erkennt▁5849
einkommen▁5850
▁national▁5851
▁käme▁5852
▁vorgeschlagen▁5853
▁universelle▁5854
Welt▁5855
▁süd▁5856
hak▁5857
▁Beifang▁5858
▁enden▁5859
▁vorschlage▁5860
übergreifend▁5861
▁angelegt▁5862
▁pazifische▁5863
▁Raub▁5864
fische▁5865
▁Sturm▁5866
taucher▁5867
▁zuhause▁5868
▁km▁5869
▁Schätz▁5870
▁gestartet▁5871
▁gespannt▁5872
▁untersucht▁5873
gur▁5874
tun▁5875
▁Politiker▁5876
bereiten▁5877
▁Unterstützung▁5878
▁Workshop▁5879
fleck▁5880
▁voranzu▁5881
treiben▁5882
wenden▁5883
gebiete▁5884
▁vernünftige▁5885
▁eingeführt▁5886
▁Weltraum▁5887
▁verfolgen▁5888
▁Lebensdauer▁5889
fahrzeuge▁5890
▁markieren▁5891
▁Trans▁5892
▁anordne▁5893
▁Privileg▁5894
▁zentrale▁5895
▁Tragödie▁5896
▁Kollision▁5897
kurs▁5898
▁umgehen▁5899
▁Paradigma▁5900
▁Vorsicht▁5901
Wunsch▁5902
▁Spot▁5903
light▁5904
▁Tisch▁5905
▁dritten▁5906
weite▁5907
ulation▁5908
▁Veranlagung▁5909
▁regulieren▁5910
ssysteme▁5911
▁Kapazität▁5912
▁erweitern▁5913
gle▁5914
interesse▁5915
sprechen▁5916
▁Earle▁5917
▁talentierte▁5918
▁durchdringen▁5919
▁Nutzung▁5920
▁hoffe▁5921
▁Bruc▁5922
ward▁5923
▁Polio▁5924
▁endgültig▁5925
▁Stillstand▁5926
▁beinahe▁5927
▁ausgerottet▁5928
▁breite▁5929
▁Plan▁5930
▁fortzu▁5931
stoppt▁5932
gelöscht▁5933
mpfstoff▁5934
▁grossartig▁5935
▁grossartige▁5936
▁allgemeine▁5937
▁Panik▁5938
▁hervor▁5939
rief▁5940
▁Szene▁5941
▁eiserne▁5942
▁Lunge▁5943
▁gesund▁5944
▁atmen▁5945
virus▁5946
▁Atem▁5947
mus▁5948
kul▁5949
▁atmet▁5950
▁entsetzlich▁5951
▁Heilung▁5952
▁Impfstoff▁5953
ussergewöhnliche▁5954
▁Mass▁5955
nahme▁5956
▁einführte▁5957
▁zwanzig▁5958
▁gelungen▁5959
ju▁5960
bel▁5961
▁1950▁5962
▁stoppt▁5963
▁Monat▁5964
▁Jon▁5965
▁Pocken▁5966
▁oops▁5967
▁geblieben▁5968
/▁5969
▁Partnerschaft▁5970
▁unbekannt▁5971
rotten▁5972
▁Schock▁5973
▁realisierte▁5974
▁auftrat▁5975
liegende▁5976
▁Glob▁5977
▁schreckliche▁5978
▁Ausbrüche▁5979
Sequenzierung▁5980
vi▁5981
▁Viren▁5982
▁stammt▁5983
▁Meilen▁5984
▁via▁5985
▁Verkehrs▁5986
flugzeug▁5987
▁Russland▁5988
ppel▁5989
▁zügig▁5990
▁vernichten▁5991
▁explosive▁5992
▁Dekade▁5993
Ausrottung▁5994
itis▁5995
ship▁5996
feuer▁5997
▁entzünde▁5998
▁erstickt▁5999
▁polio▁6000
freie▁6001
▁Risse▁6002
▁Panzer▁6003
▁überlebt▁6004
▁Impfstoffe▁6005
eben▁6006
löschen▁6007
sprogramm▁6008
▁kill▁6009
ilanz▁6010
▁Risikokapital▁6011
▁Risik▁6012
▁gewaltig▁6013
▁Lohn▁6014
▁wirtschaftlich▁6015
▁motivation▁6016
▁riesig▁6017
▁Kongress▁6018
abgeordnete▁6019
▁Investition▁6020
▁gesteckt▁6021
▁26▁6022
bezahlt▁6023
▁vorherige▁6024
skosten▁6025
▁Impf▁6026
kosten▁6027
▁beenden▁6028
▁ärmste▁6029
▁sparen▁6030
▁Einsätze▁6031
streben▁6032
▁vielfach▁6033
▁härter▁6034
▁begonne▁6035
impfung▁6036
▁Dosi▁6037
lang▁6038
▁Tropen▁6039
oni▁6040
▁angezeigt▁6041
▁zuviel▁6042
▁Hitze▁6043
▁ausgesetzt▁6044
▁potent▁6045
▁Dosen▁6046
sichtlich▁6047
▁verräterische▁6048
impfen▁6049
rennen▁6050
▁Mehrheit▁6051
▁infolge▁6052
▁Vorgehensweise▁6053
teils▁6054
▁Höhepunkt▁6055
Impfstoff▁6056
▁verabreich▁6057
▁Tropf▁6058
ärzte▁6059
▁Freiwilligen▁6060
opfüber▁6061
▁härteste▁6062
▁städtische▁6063
▁Elendsviertel▁6064
tauchen▁6065
glühen▁6066
▁heisse▁6067
▁marschier▁6068
▁abge▁6069
▁erreichbar▁6070
▁Kugel▁6071
weichen▁6072
▁wackelig▁6073
▁Waffen▁6074
still▁6075
operieren▁6076
▁Reporter▁6077
▁Somalia▁6078
▁sass▁6079
erhalb▁6080
▁Strasse▁6081
Kampagne▁6082
▁ausbreitet▁6083
▁heldenhafte▁6084
ntwicklungshilfe▁6085
▁Helden▁6086
gründe▁6087
wöhn▁6088
lichste▁6089
▁Rot▁6090
ary▁6091
star▁6092
▁Infrastruktur▁6093
▁aufzubauen▁6094
▁dauern▁6095
▁Resultate▁6096
▁Ausnahme▁6097
▁betraf▁6098
▁199▁6099
barkeit▁6100
wei▁6101
▁Stand▁6102
▁99▁6103
▁Reduktion▁6104
▁1▁6105
▁pandemische▁6106
▁Grippe▁6107
▁SARS▁6108
▁Vitamin▁6109
etze▁6110
▁Malaria▁6111
▁zustande▁6112
▁zwingen▁6113
▁verletzt▁6114
▁element▁6115
▁unabhängig▁6116
ographie▁6117
▁spannend▁6118
hren▁6119
▁scheinbar▁6120
▁Norden▁6121
▁Indiens▁6122
▁Nigeria▁6123
▁Afrikas▁6124
brücke▁6125
▁bewirken▁6126
▁Jahrzehnte▁6127
▁hartnäckig▁6128
▁zäh▁6129
▁Reservoir▁6130
▁funktionierte▁6131
▁Frustration▁6132
▁verführerisch▁6133
▁falsche▁6134
▁anfällig▁6135
▁Schluck▁6136
▁Umar▁6137
▁wohnt▁6138
▁Brüder▁6139
▁rechte▁6140
▁Bein▁6141
▁lahm▁6142
▁Schläge▁6143
wegs▁6144
▁Krücke▁6145
▁perfekte▁6146
▁zieht▁6147
▁verzweifelt▁6148
▁Ersparnisse▁6149
▁vergeblich▁6150
▁verdienen▁6151
brechen▁6152
▁dahinter▁6153
▁innovative▁6154
▁verpasst▁6155
indien▁6156
▁kartografier▁6157
Satellitenbilder▁6158
betreuen▁6159
oshi▁6160
▁involviert▁6161
▁log▁6162
istische▁6163
▁coole▁6164
GI▁6165
träger▁6166
▁track▁6167
▁Ansätze▁6168
mittler▁6169
▁eng▁6170
ommittee▁6171
▁Kreuz▁6172
▁gewährleiste▁6173
zel▁6174
▁Taktik▁6175
▁überarbeitet▁6176
▁alter▁6177
▁Ware▁6178
▁getestet▁6179
typ▁6180
vis▁6181
▁9.▁6182
▁Juni▁6183
▁Versuche▁6184
▁veränderte▁6185
▁doppelte▁6186
▁lief▁6187
serie▁6188
mässig▁6189
fordert▁6190
▁Unmögliche▁6191
team▁6192
▁rasend▁6193
▁Indien▁6194
▁erneut▁6195
▁herunterlade▁6196
▁entfaltet▁6197
ettung▁6198
ttar▁6199
▁Pr▁6200
adesh▁6201
▁Bi▁6202
har▁6203
▁Hygiene▁6204
▁exakt▁6205
ichte▁6206
▁Einzel▁6207
fall▁6208
▁95▁6209
▁Damen▁6210
▁Herren▁6211
▁Kombination▁6212
▁intelligent▁6213
▁intelligenter▁6214
▁machbar▁6215
▁sekundäre▁6216
währ▁6217
▁versage▁6218
▁No▁6219
plus▁6220
▁Fairness▁6221
▁Gerechtigkeit▁6222
statt▁6223
▁Kapital▁6224
▁Enthusias▁6225
▁schlaue▁6226
▁Zeiten▁6227
▁Cameron▁6228
britannien▁6229
▁Es▁6230
▁Kreuzung▁6231
ntschlossen▁6232
▁Menschheit▁6233
▁übersehen▁6234
▁verlieren▁6235
▁voraussetz▁6236
▁Gates▁6237
▁schwierigste▁6238
▁klügste▁6239
▁ba▁6240
▁aufhört▁6241
▁südlich▁6242
▁Ecke▁6243
▁Grenz▁6244
▁Pakistan▁6245
gesteckt▁6246
▁BG▁6247
▁beschaffen▁6248
▁750▁6249
▁mehrfach▁6250
ück▁6251
▁Eins▁6252
▁bremst▁6253
▁Tony▁6254
▁Port▁6255
▁App▁6256
▁TEDWomen▁6257
ort▁6258
richter▁6259
▁Miss▁6260
handlung▁6261
▁Missbrauch▁6262
▁führen▁6263
Kiste▁6264
▁wuchs▁6265
▁City▁6266
▁Harlem▁6267
▁Bronx▁6268
▁Mannes▁6269
▁beinhaltet▁6270
▁Zutaten▁6271
▁Zweifel▁6272
▁verdreht▁6273
▁genauer▁6274
▁analysiere▁6275
▁Männlichkeit▁6276
▁Kendal▁6277
▁Jay▁6278
▁12.▁6279
klatsch▁6280
▁peng▁6281
▁Knie▁6282
neu▁6283
heulen▁6284
▁Papa▁6285
▁zählt▁6286
▁innere▁6287
▁Stopp▁6288
uhr▁6289
▁Sätze▁6290
▁nimm▁6291
▁ertappt▁6292
▁set▁6293
▁reiß▁6294
▁rede▁6295
▁tu▁6296
▁erinnerte▁6297
▁Bruder▁6298
▁Henry▁6299
▁Beerdigung▁6300
▁Island▁6301
▁hielt▁6302
▁Toilette▁6303
weg▁6304
▁Wagen▁6305
▁Schwester▁6306
▁stieg▁6307
▁blieb▁6308
▁wusste▁6309
wüchs▁6310
▁Sohn▁6311
▁beer▁6312
▁Gegenwart▁6313
▁entschuldig▁6314
▁lo▁6315
▁betrachte▁6316
ähm▁6317
▁Geisel▁6318
▁zwölf▁6319
Spieler▁6320
▁Trainer▁6321
▁erwartete▁6322
▁wütend▁6323
▁Himmels▁6324
▁versetze▁6325
▁12▁6326
▁Mi▁6327
▁Innenstadt▁6328
▁Nachbar▁6329
▁Johnny▁6330
▁jüngere▁6331
▁Kerle▁6332
▁rum▁6333
▁schräg▁6334
▁Jung▁6335
kind▁6336
berdosi▁6337
▁Heroin▁6338
▁gestorben▁6339
▁Bursche▁6340
▁cool▁6341
▁Sex▁6342
spielen▁6343
▁Hey▁6344
▁Anton▁6345
▁nannte▁6346
▁Anthon▁6347
▁rannte▁6348
schnur▁6349
▁öffnete▁6350
▁Will▁6351
▁meinte▁6352
Beziehung▁6353
▁lebte▁6354
▁hieß▁6355
▁Drogen▁6356
▁Kiste▁6357
▁unmittelbar▁6358
▁Gefahr▁6359
engsten▁6360
▁lebenslange▁6361
▁Geheim▁6362
▁schlimmer▁6363
▁erwartet▁6364
▁stet▁6365
▁Pi▁6366
▁vornehm▁6367
objekt▁6368
▁Nachbarschaft▁6369
heila▁6370
▁nackt▁6371
▁psychisch▁6372
▁krank▁6373
▁unpassend▁6374
▁vergewaltigt▁6375
selbe▁6376
▁schließe▁6377
▁stelle▁6378
platz▁6379
▁tue▁6380
▁überlege▁6381
▁rauskomm▁6382
▁Weisheit▁6383
öffne▁6384
▁Hosen▁6385
stall▁6386
▁War▁6387
zimmer▁6388
▁Arzt▁6389
▁froh▁6390
▁merkte▁6391
gesichts▁6392
▁fühlte▁6393
▁davor▁6394
▁fallen▁6395
▁total▁6396
▁Eigentum▁6397
▁Basis▁6398
▁Grundlage▁6399
wall▁6400
▁Gesundheits▁6401
behörde▁6402
▁männliche▁6403
probleme▁6404
▁Ausland▁6405
▁festhalten▁6406
▁Stan▁6407
▁McChr▁6408
ist▁6409
▁Vier▁6410
▁Mc▁6411
▁Christ▁6412
▁Berufe▁6413
▁zuhört▁6414
▁lernt▁6415
▁Scheitern▁6416
▁Dienstag▁6417
morgen▁6418
▁absolvier▁6419
sprung▁6420
ragg▁6421
▁Trainings▁6422
▁Routine▁6423
▁27▁6424
▁Army▁6425
übung▁6426
risch▁6427
▁Kumpel▁6428
▁legs▁6429
10▁6430
▁Anordnung▁6431
▁Trag▁6432
▁sorgfältig▁6433
▁Reserve▁6434
▁Kampf▁6435
uck▁6436
ack▁6437
▁Sprung▁6438
operation▁6439
▁prüft▁6440
▁fasst▁6441
▁Brustkorb▁6442
gezogen▁6443
▁Ok▁6444
ve▁6445
▁geladen▁6446
▁erheb▁6447
▁Air▁6448
▁Force▁6449
▁heb▁6450
▁fl▁6451
▁Kommando▁6452
hinweis▁6453
denkst▁6454
ör▁6455
▁steh▁6456
link▁6457
zieh▁6458
▁durchläuf▁6459
▁frische▁6460
▁herein▁6461
▁leuchtet▁6462
▁springt▁6463
atten▁6464
kram▁6465
▁starren▁6466
▁Kinn▁6467
▁Brust▁6468
bei▁6469
bilder▁6470
akademi▁6471
▁Hypothese▁6472
stoß▁6473
▁öffnet▁6474
▁bekomm▁6475
▁Kick▁6476
Unterbewusstsein▁6477
schlagen▁6478
schieben▁6479
▁land▁6480
▁locker▁6481
▁Rucksack▁6482
▁Landung▁6483
▁Wade▁6484
▁Oberschenkel▁6485
▁elegante▁6486
▁Drehung▁6487
▁knapp▁6488
springen▁6489
▁landete▁6490
▁tat▁6491
▁gebrochen▁6492
▁Banker▁6493
▁Ausrüstung▁6494
einsatz▁6495
▁zurückkehren▁6496
▁Tun▁6497
▁irgendein▁6498
▁11.▁6499
etz▁6500
▁46▁6501
▁Brigade▁6502
gravier▁6503
nderungen▁6504
▁Robert▁6505
▁Lee▁6506
▁John▁6507
▁Bu▁6508
ford▁6509
▁Schlacht▁6510
▁Get▁6511
▁Vietnam▁6512
▁Glauben▁6513
▁klug▁6514
▁treu▁6515
▁lügen▁6516
▁Stich▁6517
▁Laufbahn▁6518
▁Bat▁6519
ure▁6520
▁Ba▁6521
tail▁6522
lon▁6523
ystal▁6524
▁fand▁6525
▁29▁6526
▁40-▁6527
ometer▁6528
Ma▁6529
sche▁6530
▁zusammenge▁6531
▁Dialog▁6532
▁Ko▁6533
chef▁6534
▁Training▁6535
▁Center▁6536
rwin▁6537
bung▁6538
▁Angriff▁6539
graue▁6540
▁klassische▁6541
▁bereitet▁6542
▁hindurch▁6543
stellung▁6544
befehl▁6545
▁Einheit▁6546
▁vernichtet▁6547
▁Gegner▁6548
▁anstrengen▁6549
▁mobile▁6550
Hörsaal▁6551
▁Nach▁6552
besprechung▁6553
ied▁6554
errichten▁6555
▁Da▁6556
▁etc▁6557
▁Zylinder▁6558
▁Teppich▁6559
eur▁6560
▁enttäuscht▁6561
▁entschuldige▁6562
▁Satz▁6563
▁scheitern▁6564
▁Versager▁6565
▁Chr▁6566
▁Genauigkeit▁6567
▁Bewusstsein▁6568
▁Truppe▁6569
▁Führungskräfte▁6570
▁Techniken▁6571
konferenz▁6572
▁Online▁6573
Ch▁6574
Mails▁6575
▁Telefon▁6576
▁22▁6577
▁operiert▁6578
zig▁6579
▁Zuversicht▁6580
plätze▁6581
▁koordinier▁6582
▁entstand▁6583
werten▁6584
▁heikel▁6585
eg▁6586
▁Vorgesetzte▁6587
▁überzeugen▁6588
▁elektronische▁6589
▁gescheitert▁6590
hofft▁6591
▁erneuer▁6592
gesetze▁6593
▁Anforderung▁6594
kämpfer▁6595
tech▁6596
▁bestand▁6597
▁jung▁6598
▁Man▁6599
▁Befehle▁6600
▁Konsens▁6601
▁Taliban▁6602
warf▁6603
landet▁6604
▁Einheiten▁6605
▁Ranger▁6606
öte▁6607
▁afghanische▁6608
▁Sir▁6609
▁Vokabular▁6610
▁Fertigkeit▁6611
▁digitale▁6612
▁ältere▁6613
etwa▁6614
▁Umkehr▁6615
▁angewendet▁6616
skraft▁6617
▁glaubwürdig▁6618
▁anerkannt▁6619
▁brandneue▁6620
▁gezwungen▁6621
▁transparent▁6622
▁zuzuhören▁6623
geordnet▁6624
grade▁6625
▁add▁6626
▁Akku▁6627
▁Irak▁6628
Offizier▁6629
▁verwickelt▁6630
▁Nachfrage▁6631
▁Wo▁6632
▁Gefecht▁6633
▁zusehen▁6634
▁aufeinander▁6635
▁Seh▁6636
▁verb▁6637
acht▁6638
trop▁6639
gelegt▁6640
▁Zeile▁6641
▁lautet▁6642
▁belanglos▁6643
▁Gedicht▁6644
brauchst▁6645
▁kraftvoll▁6646
▁Heirat▁6647
üb▁6648
▁kraftvolle▁6649
▁Zugehörigkeit▁6650
▁pflegen▁6651
▁ange▁6652
muskel▁6653
maschine▁6654
▁Wasch▁6655
brett▁6656
▁Nar▁6657
lässt▁6658
▁verlassen▁6659
ru▁6660
▁Mur▁6661
uga▁6662
ham▁6663
binden▁6664
Revolution▁6665
▁Einkauf▁6666
▁monatlich▁6667
▁Bedürfnisse▁6668
▁gel▁6669
ob▁6670
Forschungsarbeit▁6671
▁Geschäftsmodell▁6672
▁Ruhm▁6673
▁verdient▁6674
back▁6675
▁Ehe▁6676
▁beeindrucken▁6677
▁hinterher▁6678
▁eklig▁6679
▁L▁6680
appen▁6681
▁trug▁6682
▁Motorrad▁6683
▁begriff▁6684
▁Maßnahme▁6685
half▁6686
▁Periode▁6687
▁verwende▁6688
▁wüsste▁6689
▁könne▁6690
▁täte▁6691
▁kürz▁6692
▁schockiert▁6693
▁Gebrauch▁6694
▁Finanz▁6695
▁Laden▁6696
▁Binde▁6697
wickeln▁6698
▁verboten▁6699
▁Kondom▁6700
▁allererste▁6701
gefasst▁6702
▁darf▁6703
▁Baumwolle▁6704
▁Penn▁6705
nde▁6706
▁Bangalore▁6707
▁Opfer▁6708
▁Sh▁6709
anti▁6710
▁Diaman▁6711
▁Ring▁6712
▁Schokolade▁6713
litz▁6714
rang▁6715
heirat▁6716
▁verweiger▁6717
▁Ehefrau▁6718
üchtig▁6719
▁weibliche▁6720
▁kriege▁6721
▁Medizinstudent▁6722
gesagt▁6723
▁Mond▁6724
▁setzte▁6725
▁Armstrong▁6726
enz▁6727
▁Mount▁6728
▁Everest▁6729
getragen▁6730
▁füllt▁6731
blut▁6732
▁band▁6733
▁Schlauch▁6734
hose▁6735
gedrückt▁6736
▁sodas▁6737
gne▁6738
▁elend▁6739
▁Feuchtigkeit▁6740
▁einschließlich▁6741
▁Scheidung▁6742
drohung▁6743
innen▁6744
▁vermutet▁6745
rumpf▁6746
karte▁6747
▁Studentin▁6748
▁ran▁6749
▁Zellulose▁6750
▁Kiefer▁6751
holz▁6752
▁teure▁6753
▁Fertigung▁6754
anlage▁6755
▁verarbeiten▁6756
▁Sackgasse▁6757
maschinen▁6758
▁Bauer▁6759
frau▁6760
▁Roh▁6761
materiali▁6762
▁Maschinen▁6763
▁Weltklasse▁6764
▁Patent▁6765
▁unver▁6766
▁ließ▁6767
▁anfäng▁6768
▁langweilig▁6769
▁angehäuft▁6770
liebe▁6771
▁ländliche▁6772
▁Verfügung▁6773
▁Pflanzen▁6774
▁Säge▁6775
▁entschlossen▁6776
▁23▁6777
▁Bundesstaaten▁6778
▁eingerichtet▁6779
▁siebte▁6780
konzern▁6781
▁Erstaunen▁6782
▁MBA▁6783
▁Schulabbrecher▁6784
▁Co▁6785
ator▁6786
▁Gast▁6787
professor▁6788
IM▁6789
▁Warum▁6790
▁kostengünstige▁6791
elbsthilfegruppe▁6792
▁Pu▁6793
▁Gigant▁6794
▁Harvard▁6795
▁Oxford▁6796
▁600▁6797
▁100-▁6798
Pro▁6799
Mo▁6800
▁verdammt▁6801
hafte▁6802
▁Job▁6803
▁Mahal▁6804
ak▁6805
shmi▁6806
rannt▁6807
▁Hosentasche▁6808
▁vordere▁6809
Bewegung▁6810
▁open▁6811
▁software▁6812
▁unge▁6813
▁gebildet▁6814
eten▁6815
▁Clar▁6816
ow▁6817
ki▁6818
manda▁6819
▁China▁6820
▁Pek▁6821
▁Party▁6822
▁saß▁6823
kräftig▁6824
▁Nick▁6825
brille▁6826
▁Fliege▁6827
▁Fulbright▁6828
pend▁6829
rus▁6830
▁erforschen▁6831
▁Geschenk▁6832
▁eifrig▁6833
kor▁6834
tin▁6835
chte▁6836
▁Notizen▁6837
▁erfuhr▁6838
▁chinesische▁6839
▁Vertreter▁6840
▁Sojabohnen▁6841
ozi▁6842
▁verstehe▁6843
Geschäft▁6844
uft▁6845
feuert▁6846
▁heirate▁6847
erence▁6848
▁Br▁6849
▁Fo▁6850
▁studierte▁6851
▁Chinesisch▁6852
lizenz▁6853
fahr▁6854
kü▁6855
▁Di▁6856
xi▁6857
ir▁6858
▁bereist▁6859
▁Beruf▁6860
▁Diagnose▁6861
▁Krebs▁6862
▁bekamen▁6863
▁clever▁6864
▁tap▁6865
▁bewahren▁6866
▁Chirurg▁6867
▁Chirurgen▁6868
logen▁6869
▁Nieren▁6870
krebs▁6871
▁ansah▁6872
▁seltene▁6873
▁äußerst▁6874
▁aggressive▁6875
folge▁6876
▁Mysteri▁6877
▁trainiert▁6878
▁Baseball▁6879
▁baut▁6880
grab▁6881
▁Spezialist▁6882
▁suche▁6883
▁Heilmethode▁6884
▁Todesurteil▁6885
smal▁6886
smethode▁6887
▁aggressiv▁6888
reicht▁6889
▁Italien▁6890
▁Australien▁6891
▁zeichnen▁6892
▁Horizont▁6893
▁exoti▁6894
▁experimentell▁6895
ippe▁6896
▁frage▁6897
▁Mitternacht▁6898
▁Intensivstation▁6899
▁Assistenz▁6900
▁getroffen▁6901
▁stirb▁6902
▁Medikament▁6903
▁wirksam▁6904
▁triumph▁6905
glück▁6906
ender▁6907
▁Wimper▁6908
cken▁6909
▁bestreite▁6910
▁schlimmsten▁6911
stimmt▁6912
▁Sterbe▁6913
leitung▁6914
▁getrieben▁6915
▁Wahnsinn▁6916
Tri▁6917
▁Journalistin▁6918
▁Experten▁6919
fügung▁6920
▁griff▁6921
bereit▁6922
▁kannte▁6923
▁Wünsche▁6924
▁eindeutig▁6925
▁definiert▁6926
▁haar▁6927
genau▁6928
▁peinlich▁6929
▁Verdrängung▁6930
nnähernd▁6931
machen▁6932
▁Mediziner▁6933
▁verdrängt▁6934
▁Vernunft▁6935
▁verdräng▁6936
▁nützliche▁6937
▁Denkweise▁6938
rzte▁6939
▁miterlebt▁6940
▁Onkologe▁6941
▁Direktor▁6942
▁Pal▁6943
medizin▁6944
▁Dar▁6945
mouth▁6946
▁Medica▁6947
▁School▁6948
▁unsterblich▁6949
Spruch▁6950
▁Feature▁6951
▁Bug▁6952
gefühl▁6953
▁bedeutete▁6954
▁Kämpfer▁6955
baren▁6956
▁Heil▁6957
▁Hospiz▁6958
▁Sterben▁6959
▁heilen▁6960
▁anscheinen▁6961
▁Versagen▁6962
▁Gehen▁6963
lassen▁6964
nerkennung▁6965
▁Abschied▁6966
▁liebte▁6967
▁Dich▁6968
▁Dichter▁6969
stan▁6970
ino▁6971
ava▁6972
dichte▁6973
▁Zeilen▁6974
▁Marc▁6975
▁Antoni▁6976
wich▁6977
▁Alexandr▁6978
▁besiegt▁6979
▁solle▁6980
▁würdig▁6981
▁Do▁6982
▁fe▁6983
▁Bitte▁6984
ehen▁6985
▁Klänge▁6986
▁geheimnisvoll▁6987
▁verlier▁6988
bersetzung▁6989
▁basieren▁6990
▁überwältigend▁6991
▁Präsenz▁6992
▁DNA▁6993
▁Versicherung▁6994
▁Gab▁6995
hi▁6996
▁Rohstoff▁6997
bö▁6998
thiopien▁6999
▁gründen▁7000
▁Wohlstand▁7001
▁Bauern▁7002
▁minimieren▁7003
Empfänger▁7004
▁Himalaya▁7005
▁fern▁7006
▁Königreich▁7007
▁Bhutan▁7008
▁beschlossen▁7009
▁Brut▁7010
sozial▁7011
▁Bruttoinlands▁7012
▁funktionierende▁7013
▁Wahlmöglichkeit▁7014
▁indische▁7015
▁Nobelpreis▁7016
▁verlieh▁7017
▁Hungersnot▁7018
▁Verfügbarkeit▁7019
versorgung▁7020
▁Menschlichkeit▁7021
▁gelten▁7022
▁Hunger▁7023
über▁7024
schuss▁7025
▁Wendepunkt▁7026
meist▁7027
▁Afrikaner▁7028
▁afrikanische▁7029
▁weitest▁7030
kapital▁7031
stellbare▁7032
▁Dünger▁7033
▁14▁7034
▁Traktor▁7035
▁Lateinamerika▁7036
gegeben▁7037
▁Zustand▁7038
rben▁7039
▁Preise▁7040
▁Früchte▁7041
saison▁7042
frage▁7043
▁Unternehmertum▁7044
▁Theodor▁7045
tz▁7046
▁197▁7047
▁effizient▁7048
▁arm▁7049
▁Profit▁7050
▁ausgerichtet▁7051
▁fair▁7052
▁Geschäfte▁7053
▁liberal▁7054
▁wirken▁7055
▁kommerzielle▁7056
▁Akteure▁7057
▁Anstieg▁7058
ernährung▁7059
▁prognostizier▁7060
importe▁7061
▁kosten▁7062
▁stagnier▁7063
▁Verwendung▁7064
nahm▁7065
▁Erwartungen▁7066
▁angetrieben▁7067
▁Händler▁7068
▁interview▁7069
▁daneben▁7070
▁Reformen▁7071
▁Bad▁7072
▁Transaktion▁7073
▁erarbeitet▁7074
elekommunikation▁7075
wesenheit▁7076
institut▁7077
information▁7078
▁Klassifizierung▁7079
▁zuverlässig▁7080
▁Käufer▁7081
▁Verkäufe▁7082
äufe▁7083
▁Netzwerken▁7084
▁wechselt▁7085
▁Konsumenten▁7086
äcke▁7087
▁bestätigt▁7088
uantität▁7089
signale▁7090
Defizit▁7091
▁Handels▁7092
anne▁7093
▁andauernd▁7094
ha▁7095
▁blind▁7096
▁gänzlich▁7097
gewiesen▁7098
▁Erb▁7099
▁unfähig▁7100
▁verringern▁7101
chten▁7102
▁tragen▁7103
periode▁7104
risiko▁7105
▁aufbaut▁7106
▁bedroht▁7107
▁flu▁7108
▁Mais▁7109
▁wahnsinnig▁7110
▁direkte▁7111
▁höhere▁7112
▁Saatgut▁7113
sicherheit▁7114
▁äthiopische▁7115
bauer▁7116
▁Top▁7117
▁Felder▁7118
▁ernten▁7119
▁berechnet▁7120
▁Tonnen▁7121
▁Frühjahr▁7122
▁Juli▁7123
▁ernste▁7124
genügend▁7125
schüsse▁7126
▁Verbrauch▁7127
▁Entwicklungs▁7128
▁versprechen▁7129
▁Strecke▁7130
▁Hilfs▁7131
lösung▁7132
▁ausländische▁7133
▁Strategie▁7134
▁1980▁7135
bekommen▁7136
▁einflussreiche▁7137
▁Institution▁7138
▁explodieren▁7139
omfort▁7140
able▁7141
▁Senior▁7142
▁Weltbank▁7143
kehren▁7144
Strateg▁7145
▁Spender▁7146
EC▁7147
▁etablier▁7148
▁Neues▁7149
▁82▁7150
▁Städt▁7151
▁Illinois▁7152
▁Michigan▁7153
stunde▁7154
▁Chicago▁7155
kammer▁7156
▁berühmteste▁7157
▁etabliert▁7158
we▁7159
▁lud▁7160
ähne▁7161
▁sand▁7162
▁ankam▁7163
▁Verluste▁7164
▁Lake▁7165
▁werfen▁7166
▁Farm▁7167
▁Notwendigkeit▁7168
▁Termin▁7169
▁Empfang▁7170
▁Handel▁7171
ätigt▁7172
▁ausgehend▁7173
▁großartigste▁7174
▁begutachte▁7175
▁gehandelt▁7176
▁Super▁7177
macht▁7178
▁industrialisier▁7179
▁Referenz▁7180
preise▁7181
▁überwiegend▁7182
stechnologie▁7183
dom▁7184
▁Schwellenländer▁7185
▁US▁7186
▁Wachstum▁7187
▁V▁7188
SA▁7189
▁energisch▁7190
▁Com▁7191
ity▁7192
▁Ex▁7193
hang▁7194
▁überholt▁7195
▁zweitgrößte▁7196
▁organisierte▁7197
zufügen▁7198
▁kreieren▁7199
akt▁7200
▁dient▁7201
▁Integr▁7202
▁Effizienz▁7203
▁bewältigen▁7204
▁beschrieben▁7205
▁Entwurf▁7206
▁integriert▁7207
entwicklung▁7208
▁h▁7209
äppchen▁7210
▁Geldgeber▁7211
▁IT▁7212
▁Lager▁7213
▁agieren▁7214
schrei▁7215
ca▁7216
é▁7217
zentrum▁7218
▁Fern▁7219
▁Info▁7220
park▁7221
▁Ad▁7222
dis▁7223
eb▁7224
gewickelt▁7225
▁grundlegend▁7226
▁Waren▁7227
▁ausgestellt▁7228
rechnung▁7229
abläuf▁7230
▁Betrag▁7231
▁regulator▁7232
▁legal▁7233
▁Anliegen▁7234
▁Parlament▁7235
▁Wichtige▁7236
verteilung▁7237
▁Höchst▁7238
▁informiert▁7239
tscheidungen▁7240
bauen▁7241
schläge▁7242
▁Kurs▁7243
▁tätig▁7244
▁strategisch▁7245
region▁7246
▁Mangel▁7247
▁erschein▁7248
▁ehrgeizig▁7249
▁Finanzsektor▁7250
▁ebenso▁7251
sektor▁7252
zugrundeliegende▁7253
▁Millenium▁7254
▁Präsidenten▁7255
llerwichtigste▁7256
▁Erträge▁7257
▁Plattform▁7258
▁pan▁7259
afrikanische▁7260
▁Rohstoffe▁7261
▁heimische▁7262
▁Umfang▁7263
▁einnehmen▁7264
▁verdoppelt▁7265
▁Südafrika▁7266
▁Wille▁7267
▁Vorschlag▁7268
▁Honor▁7269
▁Langsamkeit▁7270
▁Journalist▁7271
▁Schnelligkeit▁7272
▁Bremse▁7273
▁allzu▁7274
▁Beobachtung▁7275
öffentliche▁7276
▁vermarkte▁7277
▁Studio▁7278
▁Interview▁7279
▁präsentiere▁7280
▁langsamer▁7281
▁Beitrag▁7282
NN▁7283
▁Maske▁7284
▁Sendung▁7285
▁Zeitraffer▁7286
steckt▁7287
▁besessen▁7288
▁Wett▁7289
▁Carrie▁7290
▁Fisher▁7291
▁Profil▁7292
▁erwähne▁7293
▁sofortige▁7294
▁Befriedig▁7295
▁drüber▁7296
▁Walk▁7297
▁Speed▁7298
king▁7299
▁Date▁7300
Dating▁7301
▁Fitness▁7302
club▁7303
oga▁7304
tät▁7305
▁opfer▁7306
▁amüsant▁7307
▁sprint▁7308
▁Schaden▁7309
▁rasant▁7310
▁Lebensstil▁7311
▁zahlen▁7312
▁Weckruf▁7313
▁ra▁7314
▁Warnung▁7315
▁Burn▁7316
out▁7317
Syndrom▁7318
▁schaff▁7319
▁Brüche▁7320
▁Geduld▁7321
▁Ruhe▁7322
▁Kate▁7323
gang▁7324
▁Absatz▁7325
kennt▁7326
stritten▁7327
▁entspannen▁7328
liest▁7329
kampf▁7330
artikel▁7331
tipp▁7332
▁schnelle▁7333
log▁7334
▁erschreckt▁7335
▁Halleluja▁7336
▁gesucht▁7337
▁verkürz▁7338
▁Abstand▁7339
▁Whoa▁7340
▁abend▁7341
▁Sil▁7342
speisen▁7343
▁legte▁7344
▁beiseite▁7345
▁gründlich▁7346
▁wünschen▁7347
▁Verdächtige▁7348
▁Verstädterung▁7349
▁eigentliche▁7350
▁zyklisch▁7351
gemütlich▁7352
▁belebt▁7353
▁begrenzte▁7354
▁Ressource▁7355
icker▁7356
▁nutzt▁7357
▁Benjamin▁7358
▁Franklin▁7359
▁psychologisch▁7360
▁Gleichung▁7361
▁aufgestellt▁7362
▁Rennen▁7363
linie▁7364
▁Den▁7365
▁Kult▁7366
schä▁7367
▁gängige▁7368
Hex▁7369
essel▁7370
▁Momente▁7371
un▁7372
▁bezeichnen▁7373
▁Widerspruch▁7374
berblick▁7375
▁Slow▁7376
ood▁7377
▁100.000▁7378
▁verständlich▁7379
▁gesünder▁7380
▁angemessene▁7381
▁explosionsartig▁7382
▁Zunahme▁7383
▁ökologische▁7384
▁Zeitplan▁7385
zubauen▁7386
Cities▁7387
▁überdenken▁7388
▁ermutigt▁7389
▁Rose▁7390
▁zueinander▁7391
ränken▁7392
▁Verkehr▁7393
▁Bänke▁7394
▁Grünfläche▁7395
▁offiziell▁7396
▁philosophische▁7397
▁verkündet▁7398
▁Anwohner▁7399
▁ergänzen▁7400
▁alternative▁7401
▁sanfte▁7402
▁ganzheitliche▁7403
mple▁7404
▁persönlich▁7405
▁bezweif▁7406
▁Trend▁7407
▁Ak▁7408
sagen▁7409
▁Entspannung▁7410
▁Fakultät▁7411
▁ne▁7412
▁Cover▁7413
Magazin▁7414
▁Orgasmus▁7415
ick▁7416
▁Schlafzimmer▁7417
▁psychologische▁7418
▁emotional▁7419
▁spirituelle▁7420
▁Spannung▁7421
aufbau▁7422
▁Point▁7423
ster▁7424
wort▁7425
wand▁7426
iebhaber▁7427
▁St▁7428
▁tan▁7429
▁Paare▁7430
ströme▁7431
bremsen▁7432
▁scheinen▁7433
▁Arbeitszeit▁7434
▁gegangen▁7435
Stunden▁7436
▁starr▁7437
▁europäische▁7438
▁klasse▁7439
▁Norwegen▁7440
▁Schweden▁7441
▁Dänemark▁7442
wettbewerbsfähig▁7443
▁Amerikaner▁7444
▁37▁7445
▁Kindheit▁7446
▁anguck▁7447
▁erstaunt▁7448
▁Hausaufgaben▁7449
▁Nachhilfe▁7450
obb▁7451
▁Website▁7452
▁bekomme▁7453
▁Rande▁7454
unterricht▁7455
▁verbannt▁7456
stapel▁7457
erfolg▁7458
orientierte▁7459
▁Privatschule▁7460
gebühr▁7461
▁flipp▁7462
▁Nein▁7463
▁Erholung▁7464
▁Zensur▁7465
▁Elite▁7466
Uni▁7467
sta▁7468
cheln▁7469
läufe▁7470
füllt▁7471
räumt▁7472
Universität▁7473
▁Briefe▁7474
fäng▁7475
▁Brief▁7476
ruf▁7477
▁Straf▁7478
zettel▁7479
▁Fahren▁7480
▁recherchiert▁7481
▁Food▁7482
▁italienische▁7483
▁Autobahn▁7484
▁gefahren▁7485
▁sexy▁7486
▁Adrenalin▁7487
▁meta▁7488
phy▁7489
▁erfüllen▁7490
▁Ablenkung▁7491
▁weiterer▁7492
achtens▁7493
▁Tabu▁7494
▁dreckig▁7495
bedeutend▁7496
▁faul▁7497
tu▁7498
▁anzugeh▁7499
25▁7500
▁Stau▁7501
⁄▁7502
2▁7503
▁revolutionäre▁7504
▁Fernseher▁7505
▁Büro▁7506
▁empfand▁7507
▁herauskam▁7508
ade▁7509
▁begrüßt▁7510
▁Genuss▁7511
presse▁7512
▁Gänge▁7513
zufinden▁7514
▁JA▁7515
▁sa▁7516
▁lebe▁7517
▁genieß▁7518
▁spiele▁7519
▁inner▁7520
▁Schildkröte▁7521
einstellung▁7522
▁geflügelte▁7523
▁produktiver▁7524
▁reichhaltige▁7525
▁trage▁7526
▁PC▁7527
▁passe▁7528
▁10-▁7529
▁unterhalten▁7530
▁verabscheu▁7531
liste▁7532
▁grau▁7533
▁Belohnung▁7534
▁schätze▁7535
▁folgt▁7536
▁Lese▁7537
▁Taschen▁7538
▁Haustür▁7539
▁Taxi▁7540
▁Treppe▁7541
gebastelt▁7542
▁Aufkleber▁7543
▁Tim▁7544
▁Str▁7545
upp▁7546
geklebt▁7547
▁Für▁7548
les▁7549
▁Lock▁7550
wood▁7551
▁Kondome▁7552
▁Kongo▁7553
▁HIV▁7554
▁Demokratische▁7555
▁Republik▁7556
ilfsorganisation▁7557
▁kostenlos▁7558
▁billig▁7559
▁überschwemmt▁7560
▁reformier▁7561
▁Marketing▁7562
▁Model▁7563
▁Phil▁7564
▁faktisch▁7565
▁Westeuropa▁7566
▁Krieges▁7567
▁zahlreiche▁7568
▁Pre▁7569
rate▁7570
▁1,3▁7571
▁76▁7572
▁93▁7573
0.000▁7574
ürf▁7575
▁ledig▁7576
▁lebensrettende▁7577
▁Medikamente▁7578
▁Spenden▁7579
▁geringe▁7580
▁Dam▁7581
▁betreib▁7582
▁Kinshasa▁7583
▁geöffnet▁7584
▁Prostituierte▁7585
▁Joseph▁7586
▁Christin▁7587
▁Apotheke▁7588
▁günstig▁7589
▁abgeb▁7590
kampagne▁7591
version▁7592
ika▁7593
▁schaute▁7594
schaften▁7595
▁Finanzierung▁7596
▁Treue▁7597
▁Trust▁7598
▁verpackt▁7599
Aid▁7600
▁Schachtel▁7601
männer▁7602
▁beschützt▁7603
▁vernünftig▁7604
▁unbedingt▁7605
▁wora▁7606
sprache▁7607
provok▁7608
aspekt▁7609
▁häufig▁7610
▁Verbreitung▁7611
bre▁7612
▁Grey▁7613
lterwerden▁7614
▁verhindern▁7615
▁behauptet▁7616
▁verhindert▁7617
▁Schicksal▁7618
länge▁7619
▁mittlere▁7620
▁Sieg▁7621
▁Wesentliche▁7622
imini▁7623
▁irgendw▁7624
▁Eigenart▁7625
▁gemein▁7626
▁tötet▁7627
▁ziehe▁7628
jagd▁7629
verständnis▁7630
▁Naja▁7631
▁ökologisch▁7632
explosion▁7633
▁Fü▁7634
chse▁7635
▁letztendlich▁7636
ffentlichkeit▁7637
ari▁7638
▁Schluß▁7639
▁zivilisierte▁7640
▁tolerier▁7641
▁Elend▁7642
▁Trance▁7643
▁wertlos▁7644
▁Vorbereitung▁7645
▁Unruhe▁7646
▁Altern▁7647
▁legitim▁7648
▁Ap▁7649
▁beunruhigt▁7650
▁Nachteil▁7651
▁unnötig▁7652
▁entsprechend▁7653
▁verschwenden▁7654
▁folgender▁7655
▁befürchte▁7656
bevölkerung▁7657
berquer▁7658
▁Gil▁7659
▁stimme▁7660
▁Antworten▁7661
▁Sterberate▁7662
▁zöger▁7663
damm▁7664
▁Schar▁7665
▁unbegrenzte▁7666
▁Lebenserwartung▁7667
▁halte▁7668
▁unmoralisch▁7669
▁Akt▁7670
v▁7671
▁unvermeidbar▁7672
▁lächerlich▁7673
▁Positive▁7674
▁eventuell▁7675
▁mission▁7676
regen▁7677
▁Definition▁7678
▁Nebenwirkung▁7679
▁Stoffwechsel▁7680
▁Bin▁7681
▁Aussage▁7682
▁leblos▁7683
fährt▁7684
▁Reparatur▁7685
mechanism▁7686
▁tagtäglich▁7687
▁Nebeneffekt▁7688
▁akkumulier▁7689
▁ausgezeichnet▁7690
▁verzöger▁7691
▁gerontolog▁7692
ria▁7693
rische▁7694
▁interven▁7695
▁relevant▁7696
▁kurzfristige▁7697
▁verurteilt▁7698
▁Ursachen▁7699
▁Organismen▁7700
▁erbärmlich▁7701
▁RNA▁7702
▁Ger▁7703
ologie▁7704
▁überzeugend▁7705
ise▁7706
▁Lebensjahr▁7707
▁55▁7708
▁robuste▁7709
▁verfügbar▁7710
▁bedeuten▁7711
▁Durchbrüche▁7712
▁schrittweise▁7713
▁Vorhersage▁7714
▁190▁7715
▁beständig▁7716
förmig▁7717
▁Abfolge▁7718
▁Luftfahrt▁7719
svermögen▁7720
▁vorhergehende▁7721
▁typisch▁7722
▁fundamental▁7723
▁Durchbruch▁7724
▁Antibiotika▁7725
verlängern▁7726
▁Schei▁7727
▁verbesserte▁7728
▁verbleibende▁7729
holen▁7730
▁lebende▁7731
▁1000▁7732
▁unterbinde▁7733
verbesserung▁7734
▁200-▁7735
▁ausgedacht▁7736
▁Langlebigkeit▁7737
geschwindigkeit▁7738
je▁7739
▁Sturz▁7740
flug▁7741
▁entkommen▁7742
▁jünger▁7743
▁physisch▁7744
▁geringere▁7745
▁altersbedingte▁7746
Schlussfolgerung▁7747
▁Katastrophen▁7748
einhalb▁7749
▁Verlängerung▁7750
▁Mäuse▁7751
▁Meilenstein▁7752
▁einfallsreich▁7753
▁fünften▁7754
▁hinzugefügt▁7755
▁verdreifacht▁7756
▁gleicher▁7757
▁spekuliere▁7758
▁Spekulation▁7759
antwort▁7760
▁schweigen▁7761
izon▁7762
maß▁7763
▁robust▁7764
▁Maus▁7765
▁Allgemein▁7766
▁positiver▁7767
▁neigt▁7768
▁unterschätz▁7769
▁schliess▁7770
▁erwähnte▁7771
▁Bewältigung▁7772
sstrategie▁7773
▁Schädigung▁7774
weist▁7775
▁ursprüngliche▁7776
▁Diagramm▁7777
▁reduzieren▁7778
▁kontinuierlich▁7779
▁Ingenieur▁7780
Ansatz▁7781
ansatz▁7782
▁greif▁7783
▁Lass▁7784
▁loslege▁7785
▁reparieren▁7786
▁Beschwerde▁7787
▁bräuchte▁7788
▁Illustration▁7789
▁unvollständig▁7790
▁rechten▁7791
▁Kategorie▁7792
▁Zell▁7793
verlust▁7794
▁Chromosomen▁7795
▁Beweis▁7796
▁worau▁7797
▁langlebig▁7798
▁geschädigte▁7799
▁kurzlebig▁7800
▁Protein▁7801
▁Biologie▁7802
▁Tatsache▁7803
▁zitiere▁7804
▁Arbeiten▁7805
▁Optimismus▁7806
▁basiert▁7807
ologe▁7808
▁radikale▁7809
kehr▁7810
▁Mainstream▁7811
▁resistent▁7812
ession▁7813
▁Genom▁7814
▁kürzeste▁7815
▁entschlüssel▁7816
▁Nun▁7817
▁Me▁7818
hus▁7819
▁Anreiz▁7820
▁Institut▁7821
menschen▁7822
freund▁7823
gier▁7824
▁Biotech▁7825
▁bekämpfen▁7826
▁AG▁7827
▁Immunsystem▁7828
▁bekämpft▁7829
▁Individu▁7830
pflanzen▁7831
▁Tel▁7832
ome▁7833
sterblichkeit▁7834
▁abgeschlossen▁7835
strittig▁7836
▁übliche▁7837
Antwort▁7838
▁Resultat▁7839
▁Selektion▁7840
arian▁7841
▁Voll▁7842
▁Genen▁7843
▁Gene▁7844
▁Nachkommen▁7845
▁Schwankung▁7846
▁verlängert▁7847
unfall▁7848
▁abnehmen▁7849
▁erhöh▁7850
▁Gehirnzellen▁7851
▁Embryo▁7852
▁Implikation▁7853
▁grundsätzlich▁7854
▁ersetzen▁7855
▁Neuronen▁7856
▁Ersatz▁7857
▁kognitive▁7858
▁herab▁7859
▁Fehlen▁7860
▁Hydra▁7861
▁Gewebe▁7862
▁Lewi▁7863
▁Pugh▁7864
bewusstsein▁7865
▁Schwimmen▁7866
▁Nordpol▁7867
gefunden▁7868
▁minus▁7869
▁1,7▁7870
▁grauenhaft▁7871
▁schoss▁7872
▁gefroren▁7873
▁4,5▁7874
▁Ozeans▁7875
▁sinken▁7876
▁verschwinden▁7877
▁furchtbar▁7878
▁Wu▁7879
finger▁7880
▁gef▁7881
▁expand▁7882
▁eingefroren▁7883
▁platzt▁7884
▁solch▁7885
▁kalte▁7886
▁Klimawandels▁7887
▁hinterließ▁7888
▁Schlachtfeld▁7889
▁Dritte▁7890
▁Instabilität▁7891
▁Bangladesh▁7892
▁symbolische▁7893
▁28▁7894
▁beeindruckende▁7895
▁hinauf▁7896
wi▁7897
▁riesen▁7898
Team▁7899
▁53▁7900
▁Meeresspiegel▁7901
▁durchführen▁7902
höhe▁7903
krank▁7904
aktion▁7905
läuf▁7906
▁Toten▁7907
▁demütig▁7908
▁mächtiger▁7909
▁Kh▁7910
let▁7911
▁geschmolzene▁7912
▁bereitete▁7913
▁kontrollierte▁7914
ggression▁7915
▁warf▁7916
▁schwamm▁7917
▁schnappte▁7918
ür▁7919
▁flach▁7920
▁wegzu▁7921
▁Züge▁7922
▁Rand▁7923
▁Ertrinken▁7924
▁friedlich▁7925
▁Schwach▁7926
▁furchterregend▁7927
▁packte▁7928
dient▁7929
▁Acht▁7930
▁Hügel▁7931
ruhe▁7932
schwimmen▁7933
▁schwimm▁7934
▁Demu▁7935
▁irgend▁7936
▁benötige▁7937
▁gelebt▁7938
▁besiedelt▁7939
▁betrug▁7940
▁Weltbevölkerung▁7941
,8▁7942
takt▁7943
▁könnt▁7944
▁Eu▁7945
▁Enkelkinder▁7946
ehrt▁7947
▁zukunftsfähig▁7948
▁herbeizu▁7949
▁blogg▁7950
▁tweet▁7951
▁einhundert▁7952
▁Hodg▁7953
▁Humor▁7954
▁ansässig▁7955
▁Bachelor▁7956
▁Fernseh▁7957
▁Sammler▁7958
▁With▁7959
atalog▁7960
▁Ze▁7961
irport▁7962
Gebäude▁7963
▁außerirdische▁7964
▁196▁7965
▁stamme▁7966
▁geschäftige▁7967
▁trans▁7968
dimensional▁7969
hof▁7970
rzeit▁7971
astro▁7972
▁bevölkert▁7973
▁Spezies▁7974
▁Dreh▁7975
restaurant▁7976
höfe▁7977
▁Stone▁7978
▁Designs▁7979
ui▁7980
▁Park▁7981
▁enthüllt▁7982
ynonym▁7983
▁Jet▁7984
Zeitalter▁7985
zeichnung▁7986
▁bevorzugt▁7987
▁Schlangen▁7988
▁Kristall▁7989
schäd▁7990
ic▁7991
▁Sal▁7992
▁Philipp▁7993
▁Starck▁7994
▁drohen▁7995
▁Gabel▁7996
▁entworfen▁7997
ors▁7998
uvre▁7999
▁Lobby▁8000
achtet▁8001
▁Spa▁8002
▁Drei▁8003
▁befestige▁8004
augen▁8005
▁erschwinglich▁8006
▁Küchen▁8007
▁Schub▁8008
▁harte▁8009
▁design▁8010
▁Post▁8011
▁Heiz▁8012
platte▁8013
▁kapier▁8014
▁Chi▁8015
▁iPhone▁8016
▁Badezimmer▁8017
▁lese▁8018
▁schaue▁8019
▁Anruf▁8020
▁vergess▁8021
▁Wow▁8022
Effekt▁8023
▁Gewohnheit▁8024
▁empfinde▁8025
hängen▁8026
▁Stephan▁8027
▁Lak▁8028
schreiben▁8029
gegangen▁8030
▁liest▁8031
▁verstorben▁8032
▁kommende▁8033
▁Schreib▁8034
▁unausweichlich▁8035
rüber▁8036
▁fasziniert▁8037
▁Hi▁8038
▁Mike▁8039
▁Cyber▁8040
space▁8041
▁aufzeichne▁8042
▁Handschrift▁8043
▁Notiz▁8044
buch▁8045
▁Stärken▁8046
▁Schwäche▁8047
▁benannt▁8048
▁Spiegelbild▁8049
▁Email▁8050
▁tippt▁8051
▁Umarmung▁8052
▁tausche▁8053
▁hole▁8054
▁Werten▁8055
▁finanzielle▁8056
▁unterzeichnet▁8057
▁anregt▁8058
▁inspiriert▁8059
▁Recycling▁8060
▁erlern▁8061
▁plane▁8062
sammle▁8063
▁Autoren▁8064
▁Trac▁8065
▁veröffentlichen▁8066
▁Flammen▁8067
▁versch▁8068
haufen▁8069
▁zusammenzu▁8070
▁Linguist▁8071
▁Grammatik▁8072
geschaut▁8073
▁unendliche▁8074
▁gefangen▁8075
▁zwing▁8076
▁umzingelt▁8077
▁Gewässer▁8078
▁sehnen▁8079
▁Seele▁8080
▁reinigen▁8081
kämpfe▁8082
▁lehrte▁8083
▁ermutigen▁8084
▁Strud▁8085
▁Ufer▁8086
▁Andrew▁8087
▁Blu▁8088
▁Eich▁8089
hörn▁8090
kau▁8091
fline▁8092
▁geheime▁8093
▁materielle▁8094
▁Einzelteile▁8095
▁beruht▁8096
▁Architekten▁8097
▁Mischung▁8098
▁besuche▁8099
▁spazieren▁8100
▁insbesonder▁8101
▁kriegt▁8102
▁verwundert▁8103
▁Abbildung▁8104
▁OP▁8105
▁Milchstraße▁8106
▁Unendlichkeit▁8107
▁Gesamt▁8108
▁Apollo▁8109
Bild▁8110
hnlichkeit▁8111
▁zusammenbring▁8112
Mann▁8113
▁repariert▁8114
aub▁8115
tür▁8116
▁Protokoll▁8117
▁Box▁8118
com▁8119
▁Crowd▁8120
▁Big▁8121
▁Präsentation▁8122
leihen▁8123
▁Väter▁8124
▁einverstande▁8125
▁trenne▁8126
▁wiegt▁8127
▁Narr▁8128
▁amorph▁8129
▁komische▁8130
▁blink▁8131
▁reale▁8132
cast▁8133
▁Time▁8134
▁Warner▁8135
▁Glasfaser▁8136
▁intim▁8137
▁Hudson▁8138
▁Häuserblock▁8139
bringt▁8140
▁Leitung▁8141
schlauch▁8142
▁Haare▁8143
▁Kanal▁8144
▁5000▁8145
▁angeschlossen▁8146
▁Hal▁8147
ax▁8148
▁Irland▁8149
▁dünne▁8150
▁geplant▁8151
▁Cooper▁8152
▁arbeitete▁8153
▁Tata▁8154
▁Communi▁8155
abteilung▁8156
▁kommuniziert▁8157
System▁8158
▁Engländer▁8159
industrie▁8160
▁beherrscht▁8161
▁42▁8162
▁Boom▁8163
▁vernetz▁8164
▁Bit▁8165
▁Lichtstrahl▁8166
▁suchten▁8167
schloss▁8168
fällt▁8169
▁erstaunliche▁8170
▁geographische▁8171
▁flüchtige▁8172
▁momentan▁8173
▁Tweet▁8174
Post▁8175
▁Folge▁8176
AC▁8177
Afrikanischen▁8178
▁Lis▁8179
▁Elfenbein▁8180
▁Ghana▁8181
▁Kamerun▁8182
▁Kürze▁8183
bedingung▁8184
L▁8185
▁Bulldozer▁8186
▁Ingenieure▁8187
▁Anschluss▁8188
Station▁8189
gelassen▁8190
▁Inneren▁8191
▁Juwel▁8192
▁Faser▁8193
▁verschmelzen▁8194
▁Cloud▁8195
▁Anweisung▁8196
städte▁8197
▁Mom▁8198
▁Mumbai▁8199
▁Schach▁8200
▁Sand▁8201
▁verdeckt▁8202
▁Stephen▁8203
▁vernetzt▁8204
▁Drähte▁8205
▁Cha▁8206
va▁8207
▁Schneide▁8208
▁Swami▁8209
anda▁8210
▁Sara▁8211
irrt▁8212
▁parallel▁8213
▁persönlicher▁8214
▁begleitet▁8215
▁hilflos▁8216
▁Kleinkind▁8217
▁furchtlos▁8218
▁Konsument▁8219
berlebens▁8220
▁ausgestattet▁8221
▁Pflege▁8222
mutter▁8223
▁vollkommen▁8224
▁ergeben▁8225
▁voraus▁8226
▁verletzen▁8227
▁Verletzung▁8228
▁Schuld▁8229
▁Anklage▁8230
▁wahrhaft▁8231
▁beseitigen▁8232
▁erwachsen▁8233
▁mitfühlend▁8234
▁ausübt▁8235
▁Status▁8236
▁verfügt▁8237
▁Ganz▁8238
onsten▁8239
▁ergriff▁8240
▁Empathie▁8241
▁Wi▁8242
ble▁8243
don▁8244
▁End▁8245
echten▁8246
▁Match▁8247
schwitz▁8248
▁Tennis▁8249
tte▁8250
▁schütteln▁8251
▁streckt▁8252
▁Hemd▁8253
▁Miene▁8254
▁verwehr▁8255
▁Indo▁8256
fühlen▁8257
▁Geschlecht▁8258
▁Gericht▁8259
▁Erleben▁8260
▁Klam▁8261
▁Universum▁8262
▁rundher▁8263
▁Subjekt▁8264
▁versagt▁8265
▁Begrenzung▁8266
▁Kreditkarten▁8267
ündig▁8268
▁Sehnsucht▁8269
seligkeit▁8270
▁unterscheiden▁8271
▁Einsicht▁8272
▁Bestätigung▁8273
▁bedeutungsvoll▁8274
entsprechend▁8275
▁Laune▁8276
▁unbegrenzt▁8277
▁Bast▁8278
▁Manifestation▁8279
▁hervorruf▁8280
▁Geben▁8281
▁ausdrücken▁8282
▁verfügen▁8283
mat▁8284
▁Rad▁8285
▁fahren▁8286
▁Kochen▁8287
imitieren▁8288
▁Vorgänge▁8289
verb▁8290
▁Zähne▁8291
▁beten▁8292
▁Lehre▁8293
▁Edit▁8294
graph▁8295
▁festzu▁8296
▁Krake▁8297
▁angeblich▁8298
▁giganti▁8299
mann▁8300
▁schw▁8301
▁Discovery▁8302
▁Channel▁8303
▁Expedition▁8304
▁stattfand▁8305
▁Kurze▁8306
▁Ku▁8307
She▁8308
▁Teilnahme▁8309
▁historische▁8310
▁verdanke▁8311
▁2010▁8312
Veranstaltung▁8313
▁Blue▁8314
▁Lin▁8315
bla▁8316
▁Explorer▁8317
Gru▁8318
▁eingeladen▁8319
▁beteiligt▁8320
▁Jagd▁8321
Konferenz▁8322
Experte▁8323
Woche▁8324
▁unauffällig▁8325
▁Beobachten▁8326
▁optische▁8327
▁Wichtig▁8328
plattform▁8329
▁betont▁8330
▁verwendete▁8331
▁ferngesteuerte▁8332
▁Fahrzeuge▁8333
▁Tib▁8334
uro▁8335
▁Vent▁8336
dacht▁8337
▁Lärm▁8338
of▁8339
▁Johnson▁8340
Link▁8341
▁Düsen▁8342
▁elektrisch▁8343
roboter▁8344
hydr▁8345
J▁8346
ag▁8347
▁schlug▁8348
▁Köder▁8349
batterie▁8350
betrieb▁8351
▁Beleuchtung▁8352
▁unsichtbar▁8353
▁primär▁8354
▁Blau▁8355
▁quasi▁8356
▁biolumineszente▁8357
brecher▁8358
▁Abwehr▁8359
ualle▁8360
lma▁8361
uallen▁8362
fressen▁8363
feind▁8364
bert▁8365
▁Raubtier▁8366
▁Angreifer▁8367
▁attack▁8368
▁eröffnet▁8369
▁Verteidigung▁8370
▁gewährt▁8371
▁Witz▁8372
▁Schabe▁8373
trieb▁8374
▁Jetzt▁8375
▁seht▁8376
▁neck▁8377
haut▁8378
oo▁8379
oh▁8380
▁Annäherung▁8381
▁Tri▁8382
▁aufnahm▁8383
bus▁8384
▁Vorrichtung▁8385
▁Langle▁8386
perspektive▁8387
▁aufgeregt▁8388
▁Taschenlampe▁8389
flo▁8390
▁riskiert▁8391
▁Sag▁8392
lig▁8393
Video▁8394
▁atemberaubend▁8395
keln▁8396
stöckige▁8397
film▁8398
▁Entdeckungen▁8399
▁bio▁8400
aktiv▁8401
▁unvorstellbar▁8402
ruchteil▁8403
▁NASA▁8404
erhaltungssystem▁8405
swachstum▁8406
lasst▁8407
▁wegkomm▁8408
teig▁8409
▁Abenteuer▁8410
▁Serge▁8411
▁Brin▁8412
▁Glass▁8413
▁angebracht▁8414
Computer▁8415
ombin▁8416
13▁8417
▁Computern▁8418
▁erhoben▁8419
schauen▁8420
▁zeichne▁8421
▁Tiger▁8422
köpfe▁8423
▁Hmm▁8424
▁heilige▁8425
▁piep▁8426
▁Brücke▁8427
fahrt▁8428
▁8▁8429
12▁8430
▁schmeckt▁8431
▁Thai▁8432
▁mm▁8433
▁wunderschön▁8434
▁nigerianische▁8435
▁Prinz▁8436
▁finanziert▁8437
▁umher▁8438
▁potenziell▁8439
▁isoliert▁8440
starrt▁8441
ib▁8442
▁flache▁8443
sequenz▁8444
▁Display▁8445
kontakt▁8446
▁aufnehmen▁8447
▁Schädel▁8448
knochen▁8449
▁anfangs▁8450
▁ironisch▁8451
▁Such▁8452
fragen▁8453
▁Straße▁8454
▁bequem▁8455
▁Prototypen▁8456
▁unbequem▁8457
▁schreien▁8458
▁rauchen▁8459
▁Zigarette▁8460
▁cooler▁8461
▁Aber▁8462
▁sitze▁8463
usgeschlossen▁8464
▁check▁8465
▁Ar▁8466
▁Dap▁8467
hne▁8468
▁Kurse▁8469
verhalten▁8470
▁Tasten▁8471
qui▁8472
▁Peer▁8473
Peer▁8474
For▁8475
▁dagewesene▁8476
pool▁8477
▁verarbeitet▁8478
geschrieben▁8479
▁besuchte▁8480
partheid▁8481
▁Minderheit▁8482
▁hochwertige▁8483
▁Januar▁8484
▁Johannes▁8485
lassung▁8486
▁kilometer▁8487
▁Tor▁8488
▁hoffte▁8489
▁ergatter▁8490
▁verlor▁8491
▁steigende▁8492
▁Zwei▁8493
fache▁8494
gesamt▁8495
▁unbezahlbar▁8496
▁Hochschul▁8497
ausbildung▁8498
▁passende▁8499
solv▁8500
ualifikation▁8501
▁Studierende▁8502
▁abschließen▁8503
▁Friedman▁8504
▁jüngste▁8505
▁Times▁8506
tig▁8507
Kurs▁8508
▁Mitbegründer▁8509
▁Ng▁8510
▁maschinelle▁8511
▁öffentlich▁8512
▁registriert▁8513
▁250▁8514
▁Anspruch▁8515
▁Angebot▁8516
▁bestmögliche▁8517
▁Course▁8518
▁Dozent▁8519
▁43▁8520
richtung▁8521
hri▁8522
▁willkommen▁8523
▁Analysis▁8524
uel▁8525
▁fünfzig▁8526
▁versicher▁8527
▁Page▁8528
▁Richtlinie▁8529
▁Seg▁8530
mmer▁8531
▁Bush▁8532
▁zukünftig▁8533
▁Stirn▁8534
▁Mitchell▁8535
▁Dun▁8536
▁Mill▁8537
▁student▁8538
▁RG▁8539
▁hängen▁8540
▁hyperbolische▁8541
▁Par▁8542
▁Pixel▁8543
▁Paul▁8544
▁Off▁8545
▁Impfung▁8546
▁Jura▁8547
sky▁8548
▁bedient▁8549
▁Frühstück▁8550
▁Jose▁8551
▁komisch▁8552
▁Münze▁8553
▁rechnerische▁8554
▁Studierenden▁8555
▁Inhalte▁8556
aunch▁8557
▁1.5▁8558
meldung▁8559
uiz▁8560
lleinerziehende▁8561
▁Jenn▁8562
▁Kenntnisse▁8563
▁Ryan▁8564
▁Immun▁8565
▁litt▁8566
▁riskier▁8567
▁freut▁8568
▁Happy▁8569
▁Shannon▁8570
▁belegt▁8571
▁festgelegt▁8572
term▁8573
kurve▁8574
▁Spitzen▁8575
▁Zertifikat▁8576
▁Bewerbung▁8577
einrichtung▁8578
gerechnet▁8579
▁explizit▁8580
mate▁8581
minütige▁8582
▁Vorlesung▁8583
▁modular▁8584
gebrochen▁8585
wissen▁8586
▁Zusatz▁8587
▁möchten▁8588
▁Format▁8589
▁individual▁8590
plan▁8591
sitzen▁8592
▁Merkmal▁8593
berlegung▁8594
▁anregen▁8595
bungen▁8596
▁Science▁8597
▁auffällig▁8598
maßnahme▁8599
formen▁8600
▁integrieren▁8601
unterbrochen▁8602
▁SP▁8603
spect▁8604
ory▁8605
▁Tendenz▁8606
▁quo▁8607
▁Prä▁8608
fehler▁8609
▁Abweichung▁8610
▁aufgepasst▁8611
▁option▁8612
merkt▁8613
▁bewerte▁8614
▁Tutor▁8615
▁bewerkstelligen▁8616
▁zusätzlich▁8617
▁Multiple▁8618
Choice▁8619
▁mathematische▁8620
▁Begriffe▁8621
modelle▁8622
▁natur▁8623
ingenieur▁8624
▁komplizierte▁8625
▁Programmier▁8626
▁anschaulich▁8627
▁Informatik▁8628
▁101▁8629
▁verschwommen▁8630
▁korrigieren▁8631
▁Browser▁8632
▁see▁8633
▁elementare▁8634
erfahrung▁8635
▁Geistes▁8636
klappt▁8637
▁schluss▁8638
endlich▁8639
Be▁8640
▁Good▁8641
▁effektiver▁8642
produzier▁8643
Achse▁8644
▁x▁8645
▁entsprach▁8646
▁erstaunlicher▁8647
bewertung▁8648
▁kritisch▁8649
▁volle▁8650
▁übereinstimmen▁8651
strategie▁8652
▁erdacht▁8653
▁dreht▁8654
▁versammelt▁8655
▁intellektuelle▁8656
▁Princeton▁8657
▁verschiedenste▁8658
allererst▁8659
▁wirkliche▁8660
▁Tolle▁8661
▁wach▁8662
Gemeinschaft▁8663
▁austausch▁8664
▁intensiver▁8665
gruppen▁8666
▁Beschränkungen▁8667
▁multikulturelle▁8668
▁Kontakt▁8669
▁ergab▁8670
▁beispiellose▁8671
▁Klick▁8672
sendung▁8673
▁For▁8674
trag▁8675
▁hypothetisch▁8676
▁date▁8677
▁Transformation▁8678
▁revolution▁8679
▁Missverständnis▁8680
▁Verteilung▁8681
▁zweidimensional▁8682
▁erkannte▁8683
▁pass▁8684
▁erreichte▁8685
▁personalisierte▁8686
Personalisierung▁8687
▁Rätsel▁8688
▁Bloom▁8689
Problem▁8690
▁beobachtete▁8691
▁Population▁8692
basiert▁8693
population▁8694
▁basierend▁8695
▁Können▁8696
▁reguläre▁8697
▁Betreuung▁8698
▁Schwellenwert▁8699
▁darunter▁8700
▁98▁8701
▁Smartphone▁8702
▁link▁8703
▁Graph▁8704
▁Kurve▁8705
▁drängen▁8706
▁ermüde▁8707
▁etliche▁8708
▁vorgestellt▁8709
▁obsolet▁8710
▁Twa▁8711
not▁8712
izen▁8713
▁Professor▁8714
schwer▁8715
▁Holz▁8716
▁entfacht▁8717
▁Inhalt▁8718
füllen▁8719
▁Problemlösung▁8720
▁aktive▁8721
▁Interaktion▁8722
▁Anwesenheit▁8723
▁Beteiligung▁8724
▁standardisierte▁8725
▁bewiesen▁8726
▁zusammenfassen▁8727
▁Motivation▁8728
eignen▁8729
▁Schande▁8730
▁Hochschule▁8731
gängig▁8732
well▁8733
▁auslösen▁8734
▁Talente▁8735
▁Albert▁8736
▁Einstein▁8737
▁entlegene▁8738
▁Hol▁8739
▁Mauri▁8740
ac▁8741
ini▁8742
gemeißelt▁8743
▁Leonardo▁8744
▁Ang▁8745
▁Schichten▁8746
▁Betrachtung▁8747
erlebnis▁8748
▁1975▁8749
▁Floren▁8750
▁Carlo▁8751
▁ehemalige▁8752
▁Vinci▁8753
▁Jahrhunderte▁8754
lüfte▁8755
▁Meisterwerk▁8756
▁Pala▁8757
▁Ve▁8758
▁Va▁8759
sari▁8760
▁Guinness▁8761
▁beauftragt▁8762
60▁8763
imo▁8764
▁Med▁8765
▁Rettung▁8766
▁dicke▁8767
▁Ziegel▁8768
▁schmale▁8769
spalt▁8770
ci▁8771
▁Basi▁8772
lic▁8773
▁Santa▁8774
▁bewunder▁8775
▁anspruchsvolle▁8776
▁gemalt▁8777
▁Fahne▁8778
▁angeordnet▁8779
▁Diego▁8780
▁eröffne▁8781
▁Ingenieurwissen▁8782
ISA▁8783
▁strömt▁8784
▁Praxis▁8785
11▁8786
▁Fal▁8787
▁Kueste▁8788
▁leitet▁8789
▁Kunstwerk▁8790
zustand▁8791
▁bestimmen▁8792
▁Madonna▁8793
▁UV▁8794
Licht▁8795
schichten▁8796
▁Dame▁8797
▁Einhorn▁8798
▁Malerei▁8799
▁Schoß▁8800
▁fortfahren▁8801
▁Hünd▁8802
▁malte▁8803
▁exotische▁8804
▁Symbol▁8805
vertrauenswürdig▁8806
▁positiv▁8807
schreibung▁8808
▁objektive▁8809
▁subjektive▁8810
▁Bewunder▁8811
▁lebendige▁8812
▁Zeichnung▁8813
▁Schicht▁8814
▁Gemälde▁8815
▁König▁8816
XY▁8817
Z▁8818
Scanner▁8819
leuchtet▁8820
▁enthülle▁8821
▁bedeutendste▁8822
▁Werk▁8823
ialität▁8824
▁Elefanten▁8825
jahrhundertelang▁8826
▁Offenbarung▁8827
▁Tablet▁8828
▁Vergrößerung▁8829
▁simuliere▁8830
▁anklicke▁8831
▁hochgeladen▁8832
▁hineinzoom▁8833
wischt▁8834
▁Umgestaltung▁8835
▁Figuren▁8836
rios▁8837
▁Protagonist▁8838
▁passiv▁8839
▁digital▁8840
▁forschen▁8841
▁Wann▁8842
▁rest▁8843
▁bezieh▁8844
▁berücksichtige▁8845
▁Renaissance▁8846
decken▁8847
▁Disziplin▁8848
▁definitiv▁8849
rausgehen▁8850
▁Laura▁8851
▁Whit▁8852
acre▁8853
▁1991▁8854
▁transform▁8855
▁Studium▁8856
runde▁8857
▁Bus▁8858
▁Halt▁8859
▁ruht▁8860
▁idylli▁8861
▁Grill▁8862
▁Frösche▁8863
▁Steven▁8864
Spiel▁8865
Wolke▁8866
▁Wolken▁8867
▁helfe▁8868
▁Stille▁8869
▁spürte▁8870
▁heftig▁8871
▁Donner▁8872
▁mexikanische▁8873
burst▁8874
ouTube▁8875
▁Virtuelle▁8876
▁185▁8877
heim▁8878
▁2.0▁8879
▁58▁8880
▁Sleep▁8881
▁Water▁8882
▁73▁8883
▁Skype▁8884
▁Cal▁8885
▁Fuller▁8886
▁Riverside▁8887
▁Community▁8888
▁bearbeitet▁8889
▁miteinbezieh▁8890
▁Bescheid▁8891
ache▁8892
▁Tric▁8893
▁trügerisch▁8894
▁3-▁8895
▁Rede▁8896
▁grübel▁8897
▁magische▁8898
▁Dankeschön▁8899
▁Freundschaft▁8900
▁stärken▁8901
fiel▁8902
▁aufwuchs▁8903
▁lobe▁8904
schämt▁8905
▁Rehabilitation▁8906
▁Sucht▁8907
▁gegenüberstehen▁8908
▁Einfache▁8909
▁Wunde▁8910
▁stolz▁8911
▁Verwandten▁8912
▁verheiratet▁8913
▁sehnt▁8914
▁Brot▁8915
▁brings▁8916
▁Freundin▁8917
▁April▁8918
▁Hausarbeit▁8919
▁danken▁8920
▁Steak▁8921
▁Würde▁8922
▁preisgebe▁8923
▁unsicher▁8924
▁wär▁8925
▁vernachlässig▁8926
▁ausnutzen▁8927
▁Spur▁8928
▁zweieinhalb▁8929
▁seid▁8930
▁wollt▁8931
lf▁8932
▁Weltfrieden▁8933
▁Haushalt▁8934
▁Hinterhof▁8935
▁Ehemänner▁8936
▁Mütter▁8937
▁Töchter▁8938
▁Söhne▁8939
▁Carter▁8940
▁Emma▁8941
▁Atlas▁8942
▁Universums▁8943
▁vergangen▁8944
▁Programmierer▁8945
eranschaulichung▁8946
▁Digital▁8947
▁Universe▁8948
▁abspiele▁8949
entwickelt▁8950
▁Metapher▁8951
▁grenzenlos▁8952
▁Aufnahme▁8953
vermögen▁8954
▁erstellt▁8955
▁American▁8956
▁Natural▁8957
▁Histor▁8958
▁Skal▁8959
ütze▁8960
▁Um▁8961
arium▁8962
how▁8963
▁Kuppel▁8964
▁Praktik▁8965
▁Link▁8966
view▁8967
SS▁8968
▁interaktive▁8969
▁Flugbahn▁8970
▁Caf▁8971
▁Matt▁8972
▁Manhattan▁8973
gemeinschaftlich▁8974
▁Austellung▁8975
▁vergleichen▁8976
▁Kosmolog▁8977
▁Galaxien▁8978
espür▁8979
▁gebraucht▁8980
▁Urknall▁8981
▁WMAP▁8982
▁Mikrowellen▁8983
▁bedeutungslos▁8984
▁zurückgehen▁8985
▁Radi▁8986
osphäre▁8987
▁herausgekommen▁8988
▁Position▁8989
▁aktuell▁8990
▁Exo▁8991
planet▁8992
▁Sonnensystem▁8993
▁SI▁8994
▁hinab▁8995
▁Größenordnung▁8996
▁Bahn▁8997
▁Voyage▁8998
▁Raumfahrzeug▁8999
▁Umlaufbahn▁9000
▁aktualisiert▁9001
▁Porc▁9002
▁Cassini▁9003
verlauf▁9004
▁far▁9005
codier▁9006
sphase▁9007
▁Titan▁9008
▁Merk▁9009
▁ablenken▁9010
▁Nutzer▁9011
▁sub▁9012
▁Bücherei▁9013
▁Ghetto▁9014
▁Kolumbien▁9015
▁Sek▁9016
und▁9017
▁Kambodscha▁9018
▁Samstag▁9019
Satellit▁9020
▁Nepal▁9021
▁Tibet▁9022
gleichen▁9023
▁Gange▁9024
▁fortbesteh▁9025
▁Schnee▁9026
▁Maßstäbe▁9027
▁Gefängnis▁9028
lini▁9029
▁hinterfragt▁9030
▁Bäume▁9031
▁Gefängnisse▁9032
▁meint▁9033
▁bewegliche▁9034
ling▁9035
▁verkörper▁9036
generation▁9037
▁verwurzelt▁9038
▁Stamm▁9039
▁Zweig▁9040
verlagern▁9041
▁Gebilde▁9042
▁entschloss▁9043
▁verwandelte▁9044
▁Pinsel▁9045
kam▁9046
baum▁9047
▁Douglas▁9048
▁Stil▁9049
merk▁9050
▁Picasso▁9051
net▁9052
▁erlaubte▁9053
▁quantifizier▁9054
horn▁9055
▁zurückleg▁9056
▁Baum▁9057
▁multipliziert▁9058
▁ausrechne▁9059
▁bewegte▁9060
▁rate▁9061
▁186▁9062
(▁9063
▁statische▁9064
▁Schlüsse▁9065
ektion▁9066
▁star▁9067
▁Wechsel▁9068
rochen▁9069
▁Gitter▁9070
▁unbeweglich▁9071
▁2,3▁9072
▁inhaftiert▁9073
▁Förder▁9074
▁Erziehung▁9075
▁hoffnungslos▁9076
künstler▁9077
▁Staate▁9078
▁kooperieren▁9079
▁brachten▁9080
verträg▁9081
bund▁9082
▁Insasse▁9083
▁Sta▁9084
fford▁9085
▁gefährdet▁9086
▁restliche▁9087
▁Fish▁9088
▁Wild▁9089
life▁9090
Behörde▁9091
▁pre▁9092
osa▁9093
▁züchte▁9094
▁Feuchtgebiet▁9095
personal▁9096
▁gewalttätig▁9097
▁kahl▁9098
▁Psychologe▁9099
▁Kabine▁9100
öf▁9101
▁kleb▁9102
▁Mauer▁9103
▁wenigsten▁9104
pez▁9105
▁Auskunft▁9106
▁feststelle▁9107
veränderung▁9108
▁Stämme▁9109
▁Phänomene▁9110
▁Kummer▁9111
▁Drogenabhängig▁9112
▁Rassis▁9113
▁Michael▁9114
▁Hans▁9115
▁Algorithmen▁9116
▁faszinierende▁9117
▁Vorlage▁9118
▁Vorliebe▁9119
▁Vorurteile▁9120
▁überraschen▁9121
▁faszinieren▁9122
▁erfreu▁9123
▁schlage▁9124
▁Schöpfer▁9125
schöpfung▁9126
▁Mor▁9127
pho▁9128
▁Zelle▁9129
▁identisch▁9130
▁asymmetrische▁9131
▁vereinfachen▁9132
▁Fläche▁9133
nick▁9134
falten▁9135
▁simple▁9136
vielfa▁9137
▁Algorithm▁9138
fach▁9139
▁Variation▁9140
▁Volumen▁9141
▁Wiederholung▁9142
▁400.000▁9143
▁Falt▁9144
verhältnis▁9145
▁gefaltet▁9146
▁örtliche▁9147
▁Gegebenheit▁9148
urchlässig▁9149
▁generiert▁9150
▁99,9▁9151
▁geometrische▁9152
quivalent▁9153
▁Rauschen▁9154
▁langwierige▁9155
▁Kanten▁9156
zeichnen▁9157
▁Krümmung▁9158
familie▁9159
ügel▁9160
▁Eingabe▁9161
▁Verarbeitung▁9162
architektonische▁9163
▁algorithm▁9164
▁beinhalte▁9165
▁hineinzu▁9166
zoom▁9167
▁Wahrnehmung▁9168
▁mikroskopisch▁9169
▁Oberflächen▁9170
▁Erhebung▁9171
▁vorstellbar▁9172
▁gewöhnlich▁9173
stimmen▁9174
▁Endergebnis▁9175
lot▁9176
▁Varianten▁9177
▁kultiviere▁9178
▁Analogie▁9179
▁abstimm▁9180
▁Theorie▁9181
grün▁9182
▁nah▁9183
▁berühren▁9184
Druck▁9185
▁Zwecke▁9186
▁ungünstige▁9187
▁Kompromiss▁9188
▁Auflösung▁9189
modell▁9190
▁dünn▁9191
gestapelt▁9192
▁Röntgenaufnahme▁9193
▁faltet▁9194
▁überraschende▁9195
▁Schnitt▁9196
profil▁9197
schneide▁9198
▁Segment▁9199
▁Scheibe▁9200
▁einzeln▁9201
▁geschnitten▁9202
rstellung▁9203
än▁9204
▁berechnen▁9205
▁dick▁9206
▁700▁9207
kante▁9208
lief▁9209
▁günstiger▁9210
▁Entwicklungen▁9211
▁AB▁9212
▁Stahl▁9213
▁Hybrid▁9214
▁Täuschung▁9215
werfen▁9216
▁unzählige▁9217
▁träumen▁9218
▁Wil▁9219
▁Hoffman▁9220
▁Sputnik▁9221
Man▁9222
▁Filmmaterial▁9223
▁Dokument▁9224
▁Start▁9225
▁Sowjet▁9226
union▁9227
rüsten▁9228
stieß▁9229
▁Gegenstand▁9230
▁heimlich▁9231
▁Weltall▁9232
▁erobert▁9233
▁Rakete▁9234
▁installiert▁9235
▁Funk▁9236
geräte▁9237
▁4.▁9238
▁russische▁9239
▁Entdecker▁9240
▁Ga▁9241
▁Columb▁9242
▁Ausschnitt▁9243
▁inspirierte▁9244
▁geschickt▁9245
▁Montag▁9246
▁Wasserstoff▁9247
bombe▁9248
▁angreifen▁9249
▁Träger▁9250
▁Historiker▁9251
▁Pearl▁9252
▁Harbo▁9253
▁Auslöser▁9254
▁Diskrepanz▁9255
artig▁9256
▁umfangreiche▁9257
▁Rüstung▁9258
▁1.2▁9259
▁nukleare▁9260
▁20.000▁9261
▁Zivil▁9262
▁78▁9263
▁Sieben▁9264
▁Stipendium▁9265
▁Ingenieurwesen▁9266
▁boom▁9267
▁Vint▁9268
▁ARPA▁9269
▁Dokumentation▁9270
▁einsetzt▁9271
▁Investoren▁9272
▁Veteran▁9273
▁Walker▁9274
▁Ken▁9275
▁Kam▁9276
▁schlimmste▁9277
▁Unglück▁9278
▁TEDMED▁9279
▁Extrem▁9280
▁Hirn▁9281
zeigen▁9282
▁Konferenz▁9283
▁Vorträge▁9284
▁entfessel▁9285
lebensbedrohlich▁9286
berleben▁9287
schw▁9288
▁8.▁9289
▁Geographic▁9290
▁tektonische▁9291
Gerät▁9292
▁vierten▁9293
cher▁9294
met▁9295
aku▁9296
▁böse▁9297
▁Winde▁9298
▁32▁9299
kilometer▁9300
▁gefühlt▁9301
▁niedriger▁9302
▁Mars▁9303
jacke▁9304
▁übel▁9305
lager▁9306
▁5.▁9307
400▁9308
▁verblasst▁9309
▁höchste▁9310
▁Bedarf▁9311
▁Zelt▁9312
MA▁9313
▁Wasserfall▁9314
▁Ratte▁9315
▁Labyrinth▁9316
▁Kante▁9317
▁stürzt▁9318
▁Sonnenaufg▁9319
gefügt▁9320
▁Sicherheits▁9321
▁1.▁9322
▁Vorder▁9323
rücken▁9324
▁3.▁9325
Fi▁9326
stream▁9327
grat▁9328
weh▁9329
▁Vorräte▁9330
▁Rob▁9331
▁Teams▁9332
gerät▁9333
▁fla▁9334
▁brechen▁9335
▁steil▁9336
▁Tageslicht▁9337
▁unerwartet▁9338
maske▁9339
Flasche▁9340
▁expo▁9341
▁450▁9342
Meter▁9343
▁klettern▁9344
ange▁9345
klettert▁9346
▁fällt▁9347
▁bekleidet▁9348
▁ausgerüstet▁9349
▁Gra▁9350
▁Elemente▁9351
▁Doug▁9352
▁erschöpf▁9353
▁Beck▁9354
▁Weather▁9355
sammengebrochen▁9356
▁verwirrend▁9357
▁Bur▁9358
▁Pet▁9359
than▁9360
▁funk▁9361
▁warte▁9362
▁lautete▁9363
▁herrschte▁9364
▁stabilisieren▁9365
riet▁9366
▁Ker▁9367
Grad▁9368
▁7.▁9369
300▁9370
gefüllt▁9371
▁Spritze▁9372
▁Steroide▁9373
jenige▁9374
▁Phase▁9375
▁Kleidung▁9376
▁manövrier▁9377
▁kümmerte▁9378
▁Neuseeland▁9379
▁schwanger▁9380
▁meldete▁9381
▁6.▁9382
ffer▁9383
▁Angel▁9384
hlt▁9385
▁Erfri▁9386
wärme▁9387
blind▁9388
▁Nirgendwo▁9389
wan▁9390
▁mum▁9391
▁spaziert▁9392
ept▁9393
versicherung▁9394
▁verbrannt▁9395
rose▁9396
▁berichtete▁9397
▁gelegen▁9398
▁ka▁9399
▁bli▁9400
zeln▁9401
▁schuf▁9402
gestanden▁9403
plex▁9404
steht▁9405
ible▁9406
kühlung▁9407
▁SPECT▁9408
funktion▁9409
▁vereinfacht▁9410
▁Front▁9411
lappen▁9412
bündel▁9413
▁Temporallappen▁9414
▁aufbewahr▁9415
hirn▁9416
▁Hirnstamm▁9417
▁Herzschlag▁9418
▁Atmung▁9419
▁dynamisch▁9420
fluss▁9421
▁Scan▁9422
▁hinten▁9423
▁normaler▁9424
▁Gleich▁9425
▁Gang▁9426
▁beruhigt▁9427
▁schaltet▁9428
▁Taten▁9429
▁Gyr▁9430
▁cingul▁9431
terior▁9432
▁fokussier▁9433
▁geleitet▁9434
Bereich▁9435
▁Fahrt▁9436
Scan▁9437
▁Hubschrauber▁9438
▁herauf▁9439
▁höchst▁9440
▁Kath▁9441
du▁9442
old▁9443
zweige▁9444
▁heilig▁9445
▁zugewandt▁9446
▁Andy▁9447
▁Harris▁9448
mba▁9449
▁Gebet▁9450
▁Gebete▁9451
yrone▁9452
▁Haye▁9453
+▁9454
▁Penelope▁9455
▁Chemikalien▁9456
▁Schwangerschaft▁9457
trazin▁9458
▁Herbi▁9459
▁genutzt▁9460
▁Konservierung▁9461
smittel▁9462
stoffe▁9463
▁Brustkrebs▁9464
tumor▁9465
▁schockierend▁9466
▁Statistiken▁9467
▁30-▁9468
krankheit▁9469
▁Auftreten▁9470
leuk▁9471
▁gestiegen▁9472
▁Asthma▁9473
▁Verhältnisse▁9474
▁Statistik▁9475
▁Autismus▁9476
▁autistische▁9477
▁Störung▁9478
▁Emp▁9479
▁Fettleibigkeit▁9480
dia▁9481
▁Pub▁9482
▁Gift▁9483
▁Pestizide▁9484
▁Nützlich▁9485
▁Amphibie▁9486
▁Grundwasser▁9487
▁Trinkwasser▁9488
▁Regenwasser▁9489
▁0,1▁9490
▁hervorbrachte▁9491
▁Keim▁9492
drüse▁9493
▁Hoden▁9494
▁Eier▁9495
stöcke▁9496
▁aufweis▁9497
eopard▁9498
▁dot▁9499
rigen▁9500
reiten▁9501
▁Hühner▁9502
▁Erlebnisse▁9503
▁aktuelle▁9504
▁genetisch▁9505
▁männlich▁9506
▁hormone▁9507
▁Ungleichgewicht▁9508
▁Testosteron▁9509
▁Enzym▁9510
▁Aroma▁9511
ase▁9512
▁reguliert▁9513
▁Krebszelle▁9514
▁wandelt▁9515
▁And▁9516
▁neueste▁9517
▁Let▁9518
ozo▁9519
▁blockiert▁9520
▁Pfund▁9521
▁führende▁9522
▁Tumore▁9523
▁Gegenmittel▁9524
▁anstelle▁9525
nutzen▁9526
förder▁9527
PJ▁9528
phenol▁9529
PA▁9530
▁Bindung▁9531
▁poly▁9532
carbon▁9533
haltige▁9534
▁synthetische▁9535
therapie▁9536
▁sickert▁9537
▁Säugling▁9538
milch▁9539
▁eindring▁9540
▁do▁9541
▁Neugeborene▁9542
▁Europäische▁9543
▁Union▁9544
▁Gesetz▁9545
▁verabschiedet▁9546
▁Schnabel▁9547
▁verbiete▁9548
▁Senat▁9549
▁Verbot▁9550
▁abgelehnt▁9551
▁Pflicht▁9552
▁Plastikflasche▁9553
nachlässig▁9554
▁th▁9555
sterben▁9556
▁einig▁9557
▁Dinosaurier▁9558
▁verschwand▁9559
▁Nachwuchs▁9560
▁Indikator▁9561
▁sensib▁9562
▁Membran▁9563
▁Plazenta▁9564
▁Säugetiere▁9565
organism▁9566
▁uralte▁9567
▁unterscheidet▁9568
▁weiterentwickel▁9569
▁hervorgerufen▁9570
▁Fehlgeburt▁9571
▁Erhalt▁9572
▁Hormone▁9573
▁Prostata▁9574
erkrankung▁9575
▁Jungtier▁9576
▁erleide▁9577
▁beeinträchtigt▁9578
gewachsen▁9579
▁Enkel▁9580
til▁9581
tro▁9582
▁PCB▁9583
▁DDT▁9584
▁Diabetes▁9585
▁gesäu▁9586
▁bzw▁9587
▁bislang▁9588
▁Darstellung▁9589
Kontroll▁9590
af▁9591
flu▁9592
oc▁9593
▁Güte▁9594
▁künstliche▁9595
▁Mosc▁9596
▁schütte▁9597
kontaminier▁9598
▁Ultraschall▁9599
▁Belastung▁9600
nsporn▁9601
▁verrückte▁9602
▁Aktivistin▁9603
▁Lücken▁9604
▁Spermien▁9605
kanäle▁9606
▁leer▁9607
▁Fruchtbarkeit▁9608
gesenkt▁9609
▁Reptilien▁9610
▁Südamerika▁9611
kolleg▁9612
▁Samen▁9613
▁erheblich▁9614
▁Urin▁9615
▁Mexikaner▁9616
▁Carson▁9617
▁Uganda▁9618
▁Eimer▁9619
geschwächt▁9620
▁Oakland▁9621
▁Dörfer▁9622
▁betätige▁9623
▁Wasserhahn▁9624
▁Herrscher▁9625
rwärmung▁9626
▁interne▁9627
▁Umweltschutz▁9628
▁loslasse▁9629
▁ignorieren▁9630
▁drängt▁9631
▁voranschreiten▁9632
kraft▁9633
▁Pol▁9634
▁Daw▁9635
▁Wirbelsturm▁9636
▁verwüstet▁9637
Schriftstellerin▁9638
▁fixiert▁9639
▁verpasse▁9640
▁Hurrikan▁9641
▁Hund▁9642
▁Mau▁9643
▁Stromausfall▁9644
▁fürchtete▁9645
▁Spazier▁9646
▁schleppte▁9647
▁Etage▁9648
▁Lä▁9649
▁Batterie▁9650
verkauf▁9651
▁Dusche▁9652
studio▁9653
▁Bäckerei▁9654
▁Steckdose▁9655
venue▁9656
▁Schirm▁9657
▁Krisen▁9658
situation▁9659
▁merkt▁9660
▁Gemeinsamkeit▁9661
▁geraten▁9662
▁Roman▁9663
▁Bogen▁9664
▁gebrochene▁9665
▁Enttäuschung▁9666
bogen▁9667
▁eindringliche▁9668
▁eingebettet▁9669
▁Sandkorn▁9670
blüht▁9671
▁Gemüt▁9672
fassung▁9673
▁Bedauern▁9674
▁kleinste▁9675
▁geschrumpft▁9676
▁Datenmenge▁9677
sekunde▁9678
▁Millionstel▁9679
pfeil▁9680
▁Ursache▁9681
▁Beweg▁9682
▁Pfeil▁9683
▁zielt▁9684
▁fließ▁9685
▁gest▁9686
▁Delhi▁9687
letzt▁9688
vier▁9689
▁archivier▁9690
▁Unterscheidung▁9691
ißt▁9692
lenken▁9693
▁Wahr▁9694
▁Schriftsteller▁9695
▁twitter▁9696
▁dauernd▁9697
▁Exil▁9698
▁Konkurrenz▁9699
▁fehl▁9700
▁fehlen▁9701
sprachige▁9702
▁französische▁9703
▁Mac▁9704
▁versende▁9705
▁Illusion▁9706
▁zerschmetter▁9707
▁zurückkehrte▁9708
▁fehlende▁9709
wunden▁9710
▁fließen▁9711
▁Jünger▁9712
geboren▁9713
vater▁9714
▁Bud▁9715
▁Don▁9716
▁Spanisch▁9717
▁Terrasse▁9718
▁Jupiter▁9719
▁Saturn▁9720
▁verband▁9721
▁geknüpft▁9722
▁schwerer▁9723
▁statisch▁9724
▁Seifenblase▁9725
▁aufbewahrt▁9726
▁umfasst▁9727
▁Seil▁9728
▁sprang▁9729
▁Küche▁9730
▁hack▁9731
▁schuld▁9732
lehrer▁9733
▁friss▁9734
ständigkeit▁9735
splitter▁9736
▁Behar▁9737
▁wendet▁9738
▁Hundert▁9739
Laptop▁9740
▁türkische▁9741
▁Speer▁9742
▁Krieger▁9743
▁Möbelstück▁9744
pei▁9745
▁Nackt▁9746
▁gruselig▁9747
▁Gegenstände▁9748
▁nehme▁9749
▁gefiel▁9750
▁Skifahre▁9751
urf▁9752
▁Schweizer▁9753
▁Brett▁9754
oil▁9755
froren▁9756
▁graph▁9757
▁Außergewöhnlich▁9758
▁Silicon▁9759
▁Valley▁9760
haushalt▁9761
▁Häuser▁9762
▁Beratung▁9763
▁Meetings▁9764
▁Manager▁9765
PO▁9766
▁Luke▁9767
▁hob▁9768
hinein▁9769
Taste▁9770
ther▁9771
zierung▁9772
▁außen▁9773
▁Illustrator▁9774
list▁9775
▁Zitat▁9776
▁Werbung▁9777
▁Faust▁9778
use▁9779
project▁9780
alität▁9781
▁Mini▁9782
tik▁9783
▁disk▁9784
winkel▁9785
▁Hersteller▁9786
▁Hock▁9787
eller▁9788
▁Leucht▁9789
▁Swa▁9790
ov▁9791
▁Gestalt▁9792
▁Schlau▁9793
tafel▁9794
Lampe▁9795
▁Herman▁9796
▁Miller▁9797
aufwändig▁9798
▁viereinhalb▁9799
▁Lampe▁9800
▁einmalige▁9801
▁Benutzer▁9802
▁warm▁9803
▁helle▁9804
Färbung▁9805
▁vermisch▁9806
▁Helligkeit▁9807
▁Human▁9808
▁kommerziell▁9809
▁humanitäre▁9810
▁zustimmen▁9811
▁Mehr▁9812
▁Fragestellung▁9813
▁Nachhaltigkeit▁9814
Energieverbrauch▁9815
▁Klebstoff▁9816
bone▁9817
▁sprich▁9818
▁blend▁9819
geräusche▁9820
istisch▁9821
▁Spielerei▁9822
▁Nerd▁9823
▁Sorgfalt▁9824
▁Sonnenbrille▁9825
▁aussuche▁9826
▁Schmuck▁9827
▁Access▁9828
▁aufmerksam▁9829
▁Schalt▁9830
▁innen▁9831
▁digitalisier▁9832
▁bezeichne▁9833
▁Arbeitsweise▁9834
▁vielfältige▁9835
▁Stange▁9836
ain▁9837
▁Ali▁9838
▁verwirklicht▁9839
▁widme▁9840
▁Gewinne▁9841
▁partner▁9842
Herangehensweise▁9843
▁Getränk▁9844
▁Bra▁9845
▁symmetr▁9846
▁Wörter▁9847
▁why▁9848
▁not▁9849
▁verwoben▁9850
▁Unterfangen▁9851
▁gerecht▁9852
Kind▁9853
▁wertvollste▁9854
▁Besitz▁9855
▁Nichol▁9856
▁Negro▁9857
pont▁9858
▁Gründer▁9859
▁OLPC▁9860
Mission▁9861
▁vorangegangene▁9862
▁bedeutsam▁9863
▁preiswert▁9864
▁loswerde▁9865
▁wiedererkenn▁9866
▁Errungenschaft▁9867
▁WiFi▁9868
▁Sonnen▁9869
▁Tastatur▁9870
▁Gummi▁9871
flüsse▁9872
Leute▁9873
Zulieferer▁9874
▁Uru▁9875
gua▁9876
▁Mongol▁9877
▁wandte▁9878
▁bunt▁9879
▁Herstellung▁9880
sprozesse▁9881
▁vermischt▁9882
▁Entwicklungsl▁9883
▁Neffe▁9884
▁Schweiz▁9885
▁Nachmittag▁9886
▁anderthalb▁9887
▁Version▁9888
▁Papp▁9889
City▁9890
▁Valenti▁9891
▁Automat▁9892
freundliche▁9893
▁pu▁9894
ard▁9895
▁Obdachlose▁9896
▁Werbe▁9897
▁Stigma▁9898
stöß▁9899
▁Schaffen▁9900
▁Egg▁9901
Preis▁9902
Community▁9903
▁fesselnde▁9904
egeister▁9905
alencia▁9906
Zentrum▁9907
▁ehrenamtlich▁9908
▁ungemein▁9909
▁geschlafen▁9910
▁Neil▁9911
gesessen▁9912
▁verglich▁9913
freude▁9914
▁beteilig▁9915
▁Brooklyn▁9916
nommen▁9917
▁tags▁9918
schärfe▁9919
▁flexible▁9920
lop▁9921
uote▁9922
▁Lehrerin▁9923
▁inspirierend▁9924
▁arbeitende▁9925
▁Hürde▁9926
▁lehrt▁9927
tufe▁9928
▁Schreiben▁9929
▁sonder▁9930
defizit▁9931
fin▁9932
▁Weiß▁9933
▁Lehr▁9934
kompetenz▁9935
á▁9936
▁multipliziere▁9937
▁klon▁9938
▁nachgedacht▁9939
▁Redakteur▁9940
▁prinzipiell▁9941
▁spreche▁9942
▁Griff▁9943
▁Vorrang▁9944
▁Nähr▁9945
▁aufgeklärt▁9946
▁Interessen▁9947
brachte▁9948
uarter▁9949
gemeinde▁9950
▁Gebäudes▁9951
▁schriftlich▁9952
▁Barriere▁9953
tauscht▁9954
gemälde▁9955
▁wunderbar▁9956
▁Grundstück▁9957
▁Gewerbe▁9958
▁müsst▁9959
▁einfallen▁9960
▁Recherche▁9961
röhren▁9962
▁riss▁9963
▁Aussehen▁9964
wisst▁9965
▁Rumpf▁9966
▁Zubehör▁9967
▁gewerbliche▁9968
▁Piraten▁9969
▁Serv▁9970
▁Schrei▁9971
▁lies▁9972
beine▁9973
fertig▁9974
▁past▁9975
▁Schilder▁9976
▁Pra▁9977
hertz▁9978
▁Leine▁9979
theater▁9980
quarium▁9981
▁Stühle▁9982
▁Auktion▁9983
▁Holi▁9984
day▁9985
wartet▁9986
ame▁9987
▁Gehweg▁9988
▁Komm▁9989
▁demo▁9990
sproblem▁9991
▁Mexic▁9992
▁nötige▁9993
tätigkeit▁9994
▁übernahm▁9995
▁Kirche▁9996
bank▁9997
▁Blöcke▁9998
die▁9999
▁Verlag▁10000
▁High▁10001
▁modellier▁10002
Symbiose▁10003
▁draus▁10004
▁glückliche▁10005
▁1.4▁10006
▁konzentrierte▁10007
▁strahlt▁10008
▁Transform▁10009
▁gewachsen▁10010
▁Ausflug▁10011
▁beach▁10012
liehen▁10013
▁Event▁10014
ima▁10015
▁schickt▁10016
▁melde▁10017
▁Anleitung▁10018
Raum▁10019
▁Middle▁10020
▁dekoriert▁10021
▁Bibliothek▁10022
▁52▁10023
▁Stra▁10024
Up▁10025
▁Kolumne▁10026
▁Bürgermeister▁10027
▁Gavi▁10028
▁Isabel▁10029
▁Allende▁10030
▁Thu▁10031
▁Marshall▁10032
▁sp▁10033
▁Bay▁10034
▁Area▁10035
▁Amazon▁10036
▁bisherige▁10037
▁externe▁10038
▁170▁10039
▁Regal▁10040
trüb▁10041
▁Entwürfe▁10042
▁absolute▁10043
bücher▁10044
▁Umsatz▁10045
▁Miete▁10046
▁Richter▁10047
▁bezahlte▁10048
karten▁10049
▁Kette▁10050
▁Papagei▁10051
▁Haken▁10052
chu▁10053
▁Erdgeschoss▁10054
▁gemeinnützige▁10055
▁schloss▁10056
selbstständig▁10057
bekämpfung▁10058
▁Brook▁10059
▁Superheld▁10060
▁Sam▁10061
▁Pot▁10062
dienst▁10063
▁Bösewicht▁10064
stecken▁10065
▁Li▁10066
▁Verkaufs▁10067
zahlen▁10068
▁Sharo▁10069
▁Hob▁10070
▁Jersey▁10071
▁Akte▁10072
stufen▁10073
▁lä▁10074
hack▁10075
racht▁10076
▁Handwerker▁10077
▁Bezirk▁10078
ingabe▁10079
▁Kha▁10080
led▁10081
▁Ham▁10082
▁süchtig▁10083
▁Videospiele▁10084
▁TV▁10085
▁entfliehen▁10086
zeitig▁10087
▁began▁10088
▁Pen▁10089
gu▁10090
▁box▁10091
▁Pinguin▁10092
▁Symphon▁10093
▁Space▁10094
itz▁10095
▁Evangeli▁10096
▁Cousin▁10097
mitglieder▁10098
ile▁10099
▁Echo▁10100
▁Mammut▁10101
▁Zentr▁10102
▁Word▁10103
▁Pitt▁10104
▁Massac▁10105
etts▁10106
incin▁10107
▁Fight▁10108
▁Dublin▁10109
ddy▁10110
oyle▁10111
▁wünsche▁10112
▁Individuum▁10113
▁Sprünge▁10114
▁kreiert▁10115
▁Zusammen▁10116
▁Geister▁10117
▁Hot▁10118
▁phänomenal▁10119
▁On▁10120
▁Up▁10121
▁dokumentiere▁10122
▁Dead▁10123
▁antreiben▁10124
ide▁10125
▁steril▁10126
▁offene▁10127
▁schließ▁10128
▁Root▁10129
▁Wol▁10130
tree▁10131
scha▁10132
▁biotechnolog▁10133
zykl▁10134
zyklus▁10135
▁Darwin▁10136
▁zufällige▁10137
▁Mutation▁10138
▁evolutionäre▁10139
▁gekennzeichnet▁10140
siedeln▁10141
▁Bezeichnung▁10142
sätzlich▁10143
Entwicklung▁10144
▁intelligente▁10145
▁physiologische▁10146
tour▁10147
▁Artenvielf▁10148
alt▁10149
▁gezüchtet▁10150
▁Tausend▁10151
▁extra▁10152
▁Rind▁10153
▁Schi▁10154
▁Ziege▁10155
▁süße▁10156
▁Huhn▁10157
▁schmecken▁10158
▁Kamel▁10159
▁Lama▁10160
▁kombiniere▁10161
kreis▁10162
▁Katze▁10163
▁Löwe▁10164
triff▁10165
▁Photoshop▁10166
▁Manipulation▁10167
▁normale▁10168
▁Genetik▁10169
▁Spann▁10170
▁Säugetier▁10171
▁stammen▁10172
q▁10173
▁leuchten▁10174
kreuz▁10175
▁Wellenlänge▁10176
▁orange▁10177
▁Koralle▁10178
▁Affen▁10179
▁Menschenaffen▁10180
▁komplexer▁10181
▁Haustiere▁10182
▁Zebra▁10183
▁Schwarz▁10184
▁Silber▁10185
▁Regierungs▁10186
▁Environmental▁10187
rotection▁10188
▁Agenc▁10189
▁Drug▁10190
dministration▁10191
▁FDA▁10192
▁Lachs▁10193
ook▁10194
▁Speise▁10195
▁Futter▁10196
▁modifiziert▁10197
▁Komponente▁10198
▁jegliche▁10199
▁Kennzeich▁10200
▁gek▁10201
▁plastisch▁10202
▁Pferd▁10203
linger▁10204
▁Gold▁10205
grube▁10206
▁Klo▁10207
▁Deck▁10208
▁identische▁10209
plikat▁10210
▁Grau▁10211
▁Schwein▁10212
▁Car▁10213
▁Dotcom▁10214
▁missbraucht▁10215
▁Anti▁10216
tic▁10217
üdkorea▁10218
▁Gau▁10219
▁Huf▁10220
atische▁10221
zelle▁10222
▁Eizelle▁10223
▁Kuh▁10224
frucht▁10225
▁Schaf▁10226
▁interessantes▁10227
wirf▁10228
Art▁10229
uk▁10230
paket▁10231
▁vererbt▁10232
▁Zeitalter▁10233
▁Biotechnologie▁10234
▁reizend▁10235
▁Asia▁10236
▁Kakerlake▁10237
zell▁10238
pflanzt▁10239
▁Sender▁10240
▁quer▁10241
▁Insekten▁10242
Roboter▁10243
▁DARPA▁10244
Projekt▁10245
▁Defens▁10246
Forschung▁10247
▁Käfer▁10248
▁Flügel▁10249
▁Chip▁10250
▁herumfliegen▁10251
▁Stadium▁10252
Technologie▁10253
▁schlüpf▁10254
berwachung▁10255
▁aussende▁10256
schütz▁10257
▁Kriegs▁10258
Rat▁10259
▁SUN▁10260
▁Down▁10261
state▁10262
▁linke▁10263
▁Gehirnhälfte▁10264
▁ethisch▁10265
▁Autonomi▁10266
▁experimentiert▁10267
▁Mig▁10268
▁Nicole▁10269
▁Duke▁10270
affe▁10271
▁überwach▁10272
▁fortbeweg▁10273
gehirn▁10274
▁Prothesen▁10275
Arm▁10276
wellen▁10277
▁verstanden▁10278
monitor▁10279
kä▁10280
▁Affe▁10281
prothese▁10282
▁Primaten▁10283
▁Armen▁10284
▁Florida▁10285
▁60.000▁10286
▁zerfallen▁10287
Neu▁10288
geschlossen▁10289
▁Mechanismus▁10290
simulator▁10291
chip▁10292
▁selbständig▁10293
▁organisieren▁10294
▁photo▁10295
Gehirn▁10296
▁nahrhaft▁10297
▁Befehl▁10298
▁gehorch▁10299
▁immun▁10300
▁polymer▁10301
▁Gerüst▁10302
gekoppelt▁10303
▁Physi▁10304
pla▁10305
▁Craig▁10306
▁Venter▁10307
▁Entstehung▁10308
▁Frankenstein▁10309
ette▁10310
▁manipulier▁10311
ckel▁10312
ever▁10313
▁Fell▁10314
▁rosa▁10315
▁Speichel▁10316
▁organ▁10317
▁Spielzeuge▁10318
▁Konsequenz▁10319
▁perfektioniert▁10320
▁ethische▁10321
Fiction▁10322
▁ungeheure▁10323
zero▁10324
▁tanzende▁10325
▁Ball▁10326
▁TEDGlobal▁10327
▁balancier▁10328
▁konstruiert▁10329
studium▁10330
TH▁10331
rich▁10332
▁Räder▁10333
▁instabil▁10334
▁Balance▁10335
▁konstant▁10336
▁Sensor▁10337
▁vermeide▁10338
▁Trick▁10339
▁Distanz▁10340
sensor▁10341
▁montiert▁10342
▁umkreisen▁10343
▁Parks▁10344
▁Monitor▁10345
▁informieren▁10346
▁unterhaltsam▁10347
▁spa▁10348
▁Apparat▁10349
▁herumzu▁10350
▁Fußabdruck▁10351
▁Debora▁10352
▁Rhode▁10353
▁Physiker▁10354
erkennung▁10355
gewebe▁10356
▁herkömmliche▁10357
▁Mammographie▁10358
▁verblüffend▁10359
▁breiten▁10360
▁gerettet▁10361
▁Presse▁10362
▁Radiologe▁10363
Bildgebung▁10364
▁Patente▁10365
werbe▁10366
rztin▁10367
▁diagnostiziert▁10368
▁ängstlich▁10369
▁zuversichtlich▁10370
▁Mammogramm▁10371
▁fände▁10372
aufnahme▁10373
▁radi▁10374
ologische▁10375
dienste▁10376
ografie▁10377
untersuchung▁10378
▁kritisiert▁10379
deckung▁10380
▁entsetzt▁10381
▁herausragend▁10382
▁äußert▁10383
▁qualifiziert▁10384
zuschätzen▁10385
▁radio▁10386
logisch▁10387
▁öfter▁10388
lag▁10389
▁rechtliche▁10390
▁Rauch▁10391
wahrscheinlich▁10392
▁Fett▁10393
menge▁10394
▁pink▁10395
▁sink▁10396
enopaus▁10397
▁Einzelheit▁10398
bericht▁10399
assi▁10400
fizieren▁10401
▁gemäß▁10402
▁verstreut▁10403
ichtung▁10404
▁gefolg▁10405
▁Wolf▁10406
pel▁10407
▁Röntgenstrahl▁10408
▁Brüste▁10409
anteil▁10410
findig▁10411
▁Risikofaktor▁10412
klärt▁10413
▁Röntgen▁10414
Infrastruktur▁10415
▁Steuergelder▁10416
kostet▁10417
▁Biopsie▁10418
▁teuer▁10419
▁bahnbrechende▁10420
▁allgegenwärtig▁10421
▁Muster▁10422
▁LKW▁10423
▁Malco▁10424
▁Gladwell▁10425
▁Genie▁10426
▁zitiert▁10427
▁Innovator▁10428
▁Cartoon▁10429
▁gedruckt▁10430
▁Denker▁10431
▁Besuch▁10432
▁May▁10433
▁Nuklear▁10434
physik▁10435
▁Conne▁10436
▁spezialisiert▁10437
▁Detektor▁10438
▁Gamma▁10439
zubilden▁10440
▁potenzielle▁10441
▁unerlässlich▁10442
berlebenschance▁10443
▁massiv▁10444
▁Rohr▁10445
▁Klebe▁10446
▁trennt▁10447
▁Molekular▁10448
olecular▁10449
aging▁10450
▁MBI▁10451
▁ergänzt▁10452
Ingenieur▁10453
gehalten▁10454
▁Skeptik▁10455
nahmen▁10456
▁Kontrast▁10457
▁molekulare▁10458
▁staatliche▁10459
▁Gesetzen▁10460
▁geregelt▁10461
▁last▁10462
änder▁10463
▁unscharf▁10464
▁deutlicher▁10465
▁chirurgische▁10466
▁auswirk▁10467
▁Susan▁10468
▁Stiftung▁10469
bewerb▁10470
▁auswählt▁10471
gelesen▁10472
absorb▁10473
▁korrelier▁10474
lte▁10475
▁Sekretär▁10476
▁beunruhigend▁10477
▁Farb▁10478
▁Golf▁10479
▁Lymphknoten▁10480
osi▁10481
▁Strahlung▁10482
▁fortgesetzt▁10483
▁67▁10484
▁ag▁10485
ive▁10486
▁herausstellte▁10487
▁routinemäßig▁10488
▁Fünftel▁10489
▁eintausend▁10490
atom▁10491
isches▁10492
sorgniserregend▁10493
Aufnahme▁10494
▁bahnbrechend▁10495
▁interpretiere▁10496
▁bemerkenswerte▁10497
▁Journal▁10498
prüfung▁10499
▁Manuskript▁10500
konflikt▁10501
▁konkurrierende▁10502
logy▁10503
▁breit▁10504
▁finanziell▁10505
▁Bundes▁10506
staat▁10507
▁hit▁10508
jahr▁10509
▁Kontroll▁10510
aufnahmen▁10511
▁weitergehen▁10512
erblichkeitsrate▁10513
▁Schlagzeile▁10514
▁Verfechter▁10515
erkranken▁10516
▁Verri▁10517
ngerung▁10518
▁Erfolge▁10519
▁Babys▁10520
zogen▁10521
Brüder▁10522
▁jonglieren▁10523
▁scherze▁10524
▁Jongleur▁10525
▁demonstrieren▁10526
▁verblüffende▁10527
ilität▁10528
▁Koordination▁10529
▁Barry▁10530
▁moderner▁10531
gelegenheit▁10532
omi▁10533
▁Komfort▁10534
▁Flexib▁10535
▁DH▁10536
▁Show▁10537
▁inspirierende▁10538
▁Daniel▁10539
▁Extra▁10540
▁Spezielle▁10541
▁MacArthur▁10542
▁Jonglier▁10543
technik▁10544
▁hör▁10545
topf▁10546
ong▁10547
opper▁10548
▁verlangsamt▁10549
fordere▁10550
▁bedarf▁10551
▁Rechten▁10552
▁vermassel▁10553
▁Richard▁10554
▁Tradition▁10555
▁gefährliche▁10556
▁Act▁10557
▁Peitsche▁10558
▁jahrelang▁10559
▁blöd▁10560
▁Entschuldigung▁10561
▁Gefahren▁10562
gott▁10563
▁stell▁10564
▁Wurma▁10565
▁Hör▁10566
▁Rich▁10567
schön▁10568
▁Anrufe▁10569
▁schlimme▁10570
▁Flash▁10571
▁glaub▁10572
▁Glori▁10573
▁beurteilen▁10574
▁Klinge▁10575
▁Bleistift▁10576
▁perfektionieren▁10577
▁Perfektion▁10578
▁Jungfrau▁10579
▁ok▁10580
▁Wer▁10581
pfel▁10582
▁roh▁10583
▁Tu▁10584
▁tanzt▁10585
▁Stop▁10586
▁erzähl▁10587
▁Meisterschaft▁10588
urren▁10589
ule▁10590
will▁10591
▁Klappe▁10592
up▁10593
▁Pan▁10594
ähnliche▁10595
▁wind▁10596
▁Held▁10597
▁She▁10598
▁Olympia▁10599
▁unklar▁10600
▁trete▁10601
▁Weltrekord▁10602
▁Zunge▁10603
kunft▁10604
▁Gelenk▁10605
▁neuartige▁10606
Mensch▁10607
taten▁10608
▁Kollege▁10609
rthritis▁10610
hnliche▁10611
geheiratet▁10612
hop▁10613
▁dis▁10614
▁ließen▁10615
▁gewandt▁10616
▁Bauteile▁10617
genutzt▁10618
▁Körperteile▁10619
▁innehalte▁10620
▁natürlicher▁10621
▁Pfad▁10622
▁erwäg▁10623
▁Erne▁10624
uerung▁10625
▁bedürfe▁10626
▁Stammzellen▁10627
▁biologischer▁10628
▁Ersatzteile▁10629
▁Altersgruppe▁10630
▁Doc▁10631
▁Stoß▁10632
ämp▁10633
transplantat▁10634
gelenk▁10635
kapsel▁10636
▁ersetzt▁10637
▁transplantier▁10638
▁beschädigt▁10639
kno▁10640
▁Wander▁10641
▁Aspen▁10642
▁Verfassung▁10643
▁Hu▁10644
▁Motorräder▁10645
▁spend▁10646
▁reichlich▁10647
▁Hindernis▁10648
top▁10649
▁Gal▁10650
act▁10651
▁Achilles▁10652
-1▁10653
▁beseitigt▁10654
▁Säure▁10655
Waschmittel▁10656
▁abbau▁10657
▁Prozedur▁10658
▁Mix▁10659
wäsch▁10660
ili▁10661
streifen▁10662
trip▁10663
ping▁10664
Technik▁10665
▁vermenschlichen▁10666
▁pflanzte▁10667
▁Zulassung▁10668
experiment▁10669
▁kanadische▁10670
own▁10671
hill▁10672
Meister▁10673
heft▁10674
▁nutzbar▁10675
bul▁10676
▁Hardware▁10677
ware▁10678
▁appetit▁10679
▁Argumente▁10680
▁pen▁10681
▁Chef▁10682
▁Fe▁10683
ecker▁10684
lika▁10685
▁Heuschrecke▁10686
▁Raupe▁10687
▁punct▁10688
▁Geschmack▁10689
gewogen▁10690
▁herumlaufen▁10691
▁Durchschnitts▁10692
▁Schätzung▁10693
▁vorsichtig▁10694
▁57▁10695
▁profitiert▁10696
▁Irakkrieg▁10697
▁billiger▁10698
▁Dung▁10699
▁bestäub▁10700
▁Nutzpflanzen▁10701
▁Reproduktion▁10702
▁Schädling▁10703
ji▁10704
▁wundervoll▁10705
reitet▁10706
▁Mahlzeit▁10707
▁Bienen▁10708
▁is▁10709
▁Gramm▁10710
▁Tomaten▁10711
▁Erdnuss▁10712
Nudel▁10713
▁Suppe▁10714
behörden▁10715
▁Bälle▁10716
▁Keks▁10717
▁Su▁10718
imi▁10719
stäbchen▁10720
▁Camp▁10721
▁Farbstoff▁10722
▁gefärbt▁10723
fleisch▁10724
▁Insekt▁10725
onnen▁10726
▁Peru▁10727
▁Euro▁10728
▁wertvolle▁10729
▁färbe▁10730
▁exponentiell▁10731
FA▁10732
▁Vieh▁10733
tari▁10734
▁mühelos▁10735
▁zusammenhäng▁10736
▁Organe▁10737
▁ausbreiten▁10738
▁1990▁10739
▁Niederlande▁10740
brach▁10741
▁tödlich▁10742
▁verwandt▁10743
▁Kilogramm▁10744
▁Rindfleisch▁10745
▁Ertrag▁10746
▁Bonus▁10747
▁herauskomm▁10748
erschwendung▁10749
▁Treibhausgase▁10750
▁schädlich▁10751
▁qualitativ▁10752
äche▁10753
▁gefüttert▁10754
▁variieren▁10755
▁Krebse▁10756
▁Arno▁10757
ld▁10758
▁van▁10759
▁verrichte▁10760
▁aussterben▁10761
▁fröhlich▁10762
▁erhältlich▁10763
▁Pe▁10764
▁prop▁10765
▁2020▁10766
▁niederländische▁10767
cola▁10768
minister▁10769
▁Speisekarte▁10770
▁Ministerium▁10771
▁Hobby▁10772
▁Bruno▁10773
proben▁10774
▁Gius▁10775
sani▁10776
▁köstlich▁10777
▁Nüsse▁10778
▁Larry▁10779
ssig▁10780
▁Remix▁10781
ED▁10782
▁Republikaner▁10783
▁Demokrat▁10784
▁vermeintlich▁10785
▁konservative▁10786
▁Partei▁10787
▁Copyright▁10788
Kultur▁10789
▁Konservative▁10790
▁nostalgi▁10791
▁Tee▁10792
▁Age▁10793
▁Republican▁10794
▁Leiter▁10795
▁Mitglied▁10796
legation▁10797
▁Versammlung▁10798
onald▁10799
▁Reagan▁10800
kandidat▁10801
▁Wikipedia▁10802
lvani▁10803
▁Jüngste▁10804
versammlung▁10805
▁Lawrence▁10806
▁speichern▁10807
▁geheil▁10808
▁Wall▁10809
Firmen▁10810
▁Zusammenhänge▁10811
▁zelebrier▁10812
▁vordringen▁10813
exist▁10814
▁Großartige▁10815
kologi▁10816
▁Teddy▁10817
▁Roosevelt▁10818
konomie▁10819
▁essentiell▁10820
▁Julian▁10821
▁Institute▁10822
▁furchtbare▁10823
ania▁10824
▁viral▁10825
▁original▁10826
uatsch▁10827
▁Aufruf▁10828
▁Existenz▁10829
▁folg▁10830
äre▁10831
Charakter▁10832
▁Urheberrecht▁10833
▁unvermeidlich▁10834
▁Popkultur▁10835
▁Güter▁10836
▁Option▁10837
▁Werke▁10838
▁Konzepte▁10839
▁use▁10840
▁Sorge▁10841
▁leitete▁10842
Film▁10843
▁remix▁10844
▁Mick▁10845
▁Mouse▁10846
boat▁10847
▁Willi▁10848
▁steckte▁10849
▁Bono▁10850
tension▁10851
▁Rechte▁10852
brüder▁10853
▁Grim▁10854
▁umsetzt▁10855
▁Fußnote▁10856
▁Ikone▁10857
▁Figur▁10858
▁Mash▁10859
gefordert▁10860
▁Lizenz▁10861
▁hinzufügt▁10862
ris▁10863
▁Urheber▁10864
ächter▁10865
▁Eigentümer▁10866
Inhaber▁10867
▁ausgesprochen▁10868
▁Vorsitzende▁10869
▁Goldman▁10870
▁Sach▁10871
▁respektiere▁10872
▁Creative▁10873
▁Common▁10874
rechtlich▁10875
▁Tool▁10876
liegt▁10877
▁lizensier▁10878
▁350▁10879
▁ausbalancier▁10880
olpert▁10881
▁informierte▁10882
▁mysteriöse▁10883
▁Con▁10884
gesperrt▁10885
▁DMCA▁10886
▁stumm▁10887
geschaltet▁10888
▁Group▁10889
▁abspielt▁10890
schrieb▁10891
▁Bart▁10892
▁kind▁10893
▁bestätigen▁10894
▁em▁10895
freiheit▁10896
schaftswahl▁10897
▁vorderste▁10898
Prinzip▁10899
axis▁10900
▁Irr▁10901
▁geheim▁10902
▁Abkommen▁10903
▁irrsinnig▁10904
▁Thre▁10905
▁Reform▁10906
sehbare▁10907
kenntnis▁10908
▁Instanz▁10909
▁verinnerlich▁10910
▁Bang▁10911
▁bewegende▁10912
▁Deep▁10913
▁BMW▁10914
▁SUV▁10915
▁Hierarchie▁10916
▁ästhetische▁10917
▁Michelangelo▁10918
▁Automobil▁10919
▁Fahr▁10920
stühle▁10921
▁funktional▁10922
sorgt▁10923
mweltverschmutz▁10924
gegen▁10925
▁hingeg▁10926
Brennstoffzellen▁10927
sucht▁10928
▁Anzug▁10929
vielfältig▁10930
▁Zorn▁10931
immel▁10932
verkehr▁10933
▁Chevy▁10934
▁Bildhauer▁10935
▁reproduzieren▁10936
▁Original▁10937
▁Handwerk▁10938
▁Skulptur▁10939
▁Trieb▁10940
▁Drang▁10941
fassen▁10942
▁Inner▁10943
inblick▁10944
greif▁10945
▁erwacht▁10946
▁platonische▁10947
▁Newton▁10948
uanten▁10949
methode▁10950
▁Widersprüche▁10951
gestehen▁10952
▁tendieren▁10953
▁4,▁10954
0▁10955
▁4,000▁10956
▁Finden▁10957
ew▁10958
▁Anblick▁10959
▁gewiss▁10960
wettbewerb▁10961
▁Schwärme▁10962
bürste▁10963
▁Sub▁10964
management▁10965
knüpfen▁10966
▁Inti▁10967
mität▁10968
▁stressig▁10969
▁Vorstand▁10970
▁Tempe▁10971
▁Pygm▁10972
▁verliebt▁10973
▁Geliebte▁10974
▁Telefonnummer▁10975
▁Beleg▁10976
▁IBM▁10977
▁gestohlen▁10978
▁Fax▁10979
▁Gas▁10980
trick▁10981
▁zusammenkomm▁10982
▁monumental▁10983
▁anhäuf▁10984
▁Postkarten▁10985
▁Las▁10986
▁Vega▁10987
▁Grand▁10988
▁Canyon▁10989
▁Niagara▁10990
▁Nachforschung▁10991
▁Wohnung▁10992
▁Elizabeth▁10993
▁Taylor▁10994
▁Rund▁10995
Uhr▁10996
▁zurückgelassen▁10997
▁errichtet▁10998
▁Tasse▁10999
▁Begleit▁11000
▁gestresst▁11001
▁Erwartung▁11002
finden▁11003
▁herausragende▁11004
branche▁11005
▁Agenda▁11006
▁rechne▁11007
▁mental▁11008
▁überwältigt▁11009
▁Mist▁11010
häu▁11011
▁schrie▁11012
▁Kreativ▁11013
witsch▁11014
▁sauer▁11015
▁Cathe▁11016
rine▁11017
▁Hochzeit▁11018
▁hübsche▁11019
▁Predigt▁11020
▁erwarte▁11021
uan▁11022
ifizierung▁11023
▁innerlich▁11024
schmiede▁11025
▁Kreation▁11026
▁Cross▁11027
Co▁11028
iful▁11029
▁it▁11030
self▁11031
▁Sinclair▁11032
▁Immobilien▁11033
Me▁11034
▁bank▁11035
rot▁11036
Kollegen▁11037
▁welch▁11038
Industrie▁11039
▁Katar▁11040
▁anzusehen▁11041
▁Wolkenkratzer▁11042
rgt▁11043
pflicht▁11044
▁1,1▁11045
▁Inder▁11046
▁Pakistani▁11047
▁Sri▁11048
ker▁11049
▁Arbeitskräfte▁11050
▁eingehen▁11051
▁Klimaanlage▁11052
▁Beamte▁11053
▁Behörden▁11054
leute▁11055
▁Build▁11056
▁August▁11057
▁1.0▁11058
▁primitiv▁11059
stimmung▁11060
▁protestier▁11061
▁Unterkünfte▁11062
▁Finanzkrise▁11063
▁Bauunternehmer▁11064
▁Kredit▁11065
schuldet▁11066
▁unmittelbare▁11067
ets▁11068
▁gegenwärtig▁11069
▁Menschenrechte▁11070
▁Bilanz▁11071
kohle▁11072
oxy▁11073
▁energies▁11074
▁Anlage▁11075
wurf▁11076
▁Tyle▁11077
pläne▁11078
▁Lehrbuch▁11079
thema▁11080
▁diskutiere▁11081
▁Grundidee▁11082
▁erleichter▁11083
geprägt▁11084
▁rat▁11085
▁Mikroskop▁11086
▁Horror▁11087
▁verdorben▁11088
▁grässlich▁11089
▁euer▁11090
lbtraum▁11091
DNA▁11092
ehlt▁11093
fabrik▁11094
▁list▁11095
schmuggel▁11096
pionage▁11097
▁fügt▁11098
▁terrorist▁11099
▁Schläfe▁11100
▁Faszinierend▁11101
▁erweiterte▁11102
NG▁11103
School▁11104
Abschluss▁11105
▁garantiere▁11106
▁has▁11107
▁Lehrbücher▁11108
▁Verleger▁11109
▁begeistern▁11110
▁angesehen▁11111
▁Schleim▁11112
▁Kopie▁11113
ophag▁11114
▁Nukle▁11115
▁initiiert▁11116
autor▁11117
▁Technische▁11118
da▁11119
▁akkurat▁11120
▁Tyrann▁11121
▁sinnlos▁11122
▁hässlich▁11123
▁Jean▁11124
▁Je▁11125
gging▁11126
,7▁11127
▁spezifische▁11128
▁ruiniert▁11129
▁aufrechter▁11130
▁fle▁11131
source▁11132
▁denkbar▁11133
▁Fünf▁11134
klässler▁11135
▁Freizeit▁11136
zieren▁11137
▁Gleichgewicht▁11138
tanz▁11139
▁Ferien▁11140
▁erhalte▁11141
▁dankbar▁11142
▁nehm▁11143
▁Blog▁11144
▁weckt▁11145
▁nervig▁11146
▁erfinde▁11147
weltfreundliche▁11148
▁Trocken▁11149
▁CO▁11150
2-▁11151
abdruck▁11152
▁Eco▁11153
▁saubere▁11154
cy▁11155
effiziente▁11156
▁Serious▁11157
▁bestellt▁11158
▁Arktis▁11159
▁Sushi▁11160
▁Gi▁11161
rock▁11162
▁Zement▁11163
▁ausprobiere▁11164
Produktion▁11165
▁Deze▁11166
mber▁11167
▁Brei▁11168
▁laufende▁11169
▁Fließband▁11170
▁Aufregende▁11171
▁Cradle▁11172
▁Green▁11173
ear▁11174
findung▁11175
▁Popular▁11176
▁Gallone▁11177
▁Benzin▁11178
▁entsprechen▁11179
Ausstoß▁11180
part▁11181
▁Nathali▁11182
▁zurückblicken▁11183
▁Windows▁11184
▁Ban▁11185
▁Not▁11186
künfte▁11187
röhre▁11188
▁benutzte▁11189
▁Umweltprobleme▁11190
▁wasserdicht▁11191
hitze▁11192
▁temporäre▁11193
urchmesser▁11194
▁Toilettenpapier▁11195
▁Expo▁11196
▁Pavillon▁11197
▁recycling▁11198
▁Fertigstell▁11199
▁Abbau▁11200
▁wiederverwende▁11201
▁recycelt▁11202
müll▁11203
▁Pomp▁11204
▁Paris▁11205
▁Eintritt▁11206
▁privilegiert▁11207
▁historisch▁11208
Naturkatastrophe▁11209
▁1994▁11210
▁Tutsi▁11211
▁Flüchtlinge▁11212
Flüchtlingslager▁11213
▁UN▁11214
▁fällen▁11215
▁Abholzung▁11216
problem▁11217
rohr▁11218
ara▁11219
geworfen▁11220
nutzung▁11221
▁Termiten▁11222
▁1995▁11223
▁Kobe▁11224
▁vietnamesische▁11225
▁katholische▁11226
▁pendeln▁11227
▁Vietnamese▁11228
▁arms▁11229
▁Wiederaufbau▁11230
schafft▁11231
▁Fundament▁11232
▁Kir▁11233
traut▁11234
▁Taiwan▁11235
tempo▁11236
▁Türke▁11237
▁Sumatra▁11238
▁Tsunami▁11239
▁Lanka▁11240
▁Chen▁11241
▁Provinz▁11242
▁Sich▁11243
▁70.000▁11244
▁Korruption▁11245
inisterpräsident▁11246
con▁11247
▁Premierminister▁11248
▁liebenswürdig▁11249
halle▁11250
▁Konzerthalle▁11251
▁Haiti▁11252
▁flog▁11253
▁Santo▁11254
▁Domin▁11255
ev▁11256
▁leiden▁11257
▁geistig▁11258
▁Abteilung▁11259
▁Vorhänge▁11260
▁Verwalter▁11261
lec▁11262
▁freundlich▁11263
awa▁11264
iya▁11265
felder▁11266
▁Fracht▁11267
church▁11268
kamen▁11269
anthrop▁11270
▁älteste▁11271
▁Skelett▁11272
▁humanoid▁11273
▁Belege▁11274
▁erkunden▁11275
▁Sela▁11276
▁vollständige▁11277
▁3,3▁11278
▁Australopithec▁11279
far▁11280
sis▁11281
▁Luc▁11282
▁Titelseite▁11283
▁Zeitschriften▁11284
▁Fund▁11285
▁Anthropologe▁11286
▁Gastgeber▁11287
,▁11288
▁Flöten▁11289
▁Nachweis▁11290
▁Perlen▁11291
verfolgen▁11292
▁Schimpansen▁11293
▁auseinander▁11294
▁Erbgut▁11295
▁Herkunft▁11296
▁Fossilien▁11297
slücke▁11298
▁Mechanism▁11299
▁treibende▁11300
▁grad▁11301
▁einheimische▁11302
fel▁11303
▁Spitz▁11304
▁unfassbar▁11305
▁pal▁11306
▁Ausgrabung▁11307
▁ausgestorben▁11308
berreste▁11309
▁Wüste▁11310
apien▁11311
▁Anekdote▁11312
▁leistet▁11313
▁Assistent▁11314
achtung▁11315
▁Knochen▁11316
▁such▁11317
▁Elefant▁11318
▁Löwen▁11319
▁müde▁11320
▁frustrierend▁11321
▁Wirbelsäule▁11322
block▁11323
▁früheste▁11324
▁faszinierender▁11325
liches▁11326
▁Nahaufnahme▁11327
▁Fossil▁11328
▁Aufbereitung▁11329
▁Minister▁11330
▁Tourismus▁11331
museum▁11332
▁erledigt▁11333
▁Stammbaum▁11334
▁vergleich▁11335
▁vertikale▁11336
Kortex▁11337
▁Abstammung▁11338
▁CT▁11339
▁ausbilde▁11340
klettern▁11341
charakteristisch▁11342
▁verbring▁11343
▁begriffen▁11344
▁menschlich▁11345
▁stützt▁11346
▁Kehl▁11347
kopf▁11348
▁assoziiert▁11349
▁stetig▁11350
▁Bedeutsam▁11351
▁erwachsene▁11352
ossi▁11353
▁beschränkt▁11354
wohnen▁11355
▁löst▁11356
▁Exemplar▁11357
▁sapien▁11358
▁erfolgreichste▁11359
▁meister▁11360
▁primitive▁11361
▁kompetent▁11362
fried▁11363
▁geparkt▁11364
▁abbilde▁11365
▁verknüpfen▁11366
▁Parkplatz▁11367
▁park▁11368
▁Homer▁11369
▁Hippocamp▁11370
▁lateinische▁11371
▁Nervenzellen▁11372
▁Impulse▁11373
blätter▁11374
▁räumliche▁11375
▁Nervenzelle▁11376
▁Impuls▁11377
▁sendet▁11378
▁feuern▁11379
▁quadratisch▁11380
▁Platzzelle▁11381
▁Epilep▁11382
tiker▁11383
überwachung▁11384
fuhr▁11385
▁Schuss▁11386
▁untere▁11387
▁Abstände▁11388
▁verbreitete▁11389
▁Abgrenzung▁11390
▁nähert▁11391
▁kreisförmig▁11392
▁dehnt▁11393
▁Vermutung▁11394
▁ausgedehnt▁11395
bewegen▁11396
glied▁11397
▁ähneln▁11398
forscht▁11399
▁verschiedener▁11400
gitter▁11401
▁Dreieck▁11402
bewegt▁11403
▁Aufenthalt▁11404
▁Symmetrie▁11405
orient▁11406
▁reine▁11407
▁MRT▁11408
rinde▁11409
▁visuelle▁11410
schleppt▁11411
zeugen▁11412
▁Visualisierung▁11413
▁geschä▁11414
▁Vernetzung▁11415
▁Kompass▁11416
▁vorstellt▁11417
▁Funktionen▁11418
▁Jones▁11419
▁Zauber▁11420
▁Isa▁11421
can▁11422
beinige▁11423
▁berühmt▁11424
▁Vorhang▁11425
▁Solar▁11426
▁Josh▁11427
▁Vanco▁11428
uver▁11429
15▁11430
▁bedeutend▁11431
ney▁11432
▁skizziert▁11433
▁fange▁11434
▁Dasein▁11435
▁Rat▁11436
▁Gefolg▁11437
▁Unternehmens▁11438
krempeln▁11439
▁heikle▁11440
▁Arbeitsleben▁11441
bal▁11442
▁berichten▁11443
lödsinn▁11444
▁eingebunden▁11445
erkennen▁11446
▁Abertausende▁11447
Shirt▁11448
▁Ruder▁11449
▁durchgehen▁11450
treuung▁11451
▁Alptraum▁11452
▁erstellte▁11453
frühstück▁11454
▁Feier▁11455
abend▁11456
▁meditier▁11457
▁realistisch▁11458
scheiden▁11459
▁Pension▁11460
▁ausgeglichen▁11461
▁scheiterte▁11462
▁angemeldet▁11463
▁spott▁11464
▁fit▁11465
Tag▁11466
press▁11467
▁entmutigend▁11468
▁Scheiß▁11469
▁Harry▁11470
▁abhol▁11471
▁beendete▁11472
▁albern▁11473
▁Spiele▁11474
▁Pizza▁11475
▁bad▁11476
▁Batman▁11477
▁deck▁11478
▁Disneyland▁11479
▁Playstation▁11480
▁Umbruch▁11481
▁Gut▁11482
▁Böse▁11483
▁argumentiert▁11484
▁wertschätzen▁11485
▁unw▁11486
▁Steine▁11487
▁potentielle▁11488
▁Leid▁11489
▁Behauptung▁11490
▁Fakt▁11491
▁Komplexität▁11492
▁missverstanden▁11493
▁Zustände▁11494
▁Ewigkeit▁11495
▁Leiden▁11496
▁Kontinuum▁11497
▁Fremde▁11498
▁willkürlich▁11499
▁ermordet▁11500
▁Cholera▁11501
mordattentäter▁11502
▁72▁11503
dauer▁11504
▁reif▁11505
▁Psychologie▁11506
▁Landkarte▁11507
▁my▁11508
stisch▁11509
▁spirituell▁11510
▁Psyche▁11511
▁garantiert▁11512
▁Atom▁11513
▁bombardier▁11514
▁Geschäfts▁11515
▁betreffen▁11516
blühen▁11517
▁21▁11518
üsse▁11519
▁Blasen▁11520
▁Standort▁11521
▁Connecti▁11522
cut▁11523
▁ausdrücklich▁11524
▁religiös▁11525
wörter▁11526
▁offensichtliche▁11527
defin▁11528
worfen▁11529
▁Spec▁11530
▁Statue▁11531
fähigkeit▁11532
▁Marathon▁11533
vision▁11534
gehalt▁11535
richtig▁11536
▁gleichwertig▁11537
▁maximier▁11538
▁Grundsätze▁11539
▁analog▁11540
▁brilliant▁11541
▁geringste▁11542
beutel▁11543
ähle▁11544
▁ablehnen▁11545
▁unterdrückt▁11546
▁Brauch▁11547
▁freiwillig▁11548
▁Schleier▁11549
▁Scham▁11550
▁zugegeben▁11551
▁Falsch▁11552
▁reflektieren▁11553
▁optimal▁11554
▁solcher▁11555
mag▁11556
▁Linse▁11557
geschlechtliche▁11558
▁Genozid▁11559
▁Atomwaffen▁11560
Wissenschaft▁11561
Typ▁11562
alai▁11563
▁integral▁11564
▁Glücks▁11565
▁entführt▁11566
▁gefoltert▁11567
schiedenheit▁11568
▁Intellektuelle▁11569
▁potentiell▁11570
▁Van▁11571
▁Edward▁11572
▁Witt▁11573
▁String▁11574
heoretiker▁11575
▁Physik▁11576
▁auftreten▁11577
Theorie▁11578
Club▁11579
▁Experti▁11580
▁berücksichtigt▁11581
▁Ignoranz▁11582
▁zuzu▁11583
▁destruktiv▁11584
fund▁11585
▁kitten▁11586
▁Toleranz▁11587
standard▁11588
von▁11589
▁muslimische▁11590
▁Besonderheit▁11591
▁Konversation▁11592
▁verschleier▁11593
▁tätowier▁11594
▁wörtlich▁11595
▁49▁11596
▁Burk▁11597
klang▁11598
ltigkeit▁11599
▁negative▁11600
▁Barmherzigkeit▁11601
▁selbstbewusst▁11602
▁ausgebildet▁11603
▁begehren▁11604
FG▁11605
▁Zwang▁11606
▁scannen▁11607
▁Sicherheit▁11608
▁Urteil▁11609
▁schwul▁11610
▁barmherzig▁11611
▁Ekstase▁11612
sprengt▁11613
▁Kavita▁11614
▁Ram▁11615
▁ermächtigt▁11616
wandeln▁11617
▁Trends▁11618
mächtig▁11619
▁rettet▁11620
▁Polar▁11621
▁verschwimm▁11622
▁Moderne▁11623
▁Unterdrückung▁11624
▁Gesellschaften▁11625
▁Kopftuch▁11626
▁Widerstand▁11627
▁verstümmelt▁11628
▁pflanzen▁11629
▁gewaltlose▁11630
isieren▁11631
▁sammelte▁11632
gläubig▁11633
▁Muslim▁11634
▁Les▁11635
▁Liberia▁11636
▁gesegnet▁11637
▁zutiefst▁11638
▁Onkel▁11639
rüstung▁11640
▁elf▁11641
▁Witwe▁11642
▁Verwandte▁11643
▁farbenfrohe▁11644
▁zerbrach▁11645
reife▁11646
ani▁11647
▁gekannt▁11648
schreiten▁11649
kämpft▁11650
▁exzellente▁11651
▁rebel▁11652
▁Feministin▁11653
▁Hind▁11654
berechtigung▁11655
▁Geschlechter▁11656
▁zurückgekehrt▁11657
▁gegründet▁11658
▁Sake▁11659
sprech▁11660
erin▁11661
▁Frauenrechte▁11662
▁Untergrund▁11663
▁Afghan▁11664
▁Koran▁11665
▁Prophe▁11666
▁Gläubige▁11667
▁pragmatis▁11668
▁Kleider▁11669
▁Imam▁11670
▁lächelt▁11671
witz▁11672
▁Moschee▁11673
Alphabetisierung▁11674
▁lächl▁11675
▁beobachte▁11676
▁Za▁11677
▁homosexuell▁11678
Unannehmlichkeit▁11679
▁Nachkriegs▁11680
alismus▁11681
▁unerträglich▁11682
▁Maz▁11683
▁Bosnien▁11684
▁Serb▁11685
▁Gender▁11686
▁out▁11687
▁lesbisch▁11688
▁Leah▁11689
▁Roll▁11690
▁Rebellion▁11691
ugoslawi▁11692
▁Harmonie▁11693
▁Rep▁11694
▁Homosexu▁11695
trauen▁11696
▁repräsentiert▁11697
▁Out▁11698
▁Mittelalter▁11699
▁Tro▁11700
▁Balkan▁11701
hai▁11702
▁Layma▁11703
▁jahrzehntelang▁11704
▁Bürgerkrieg▁11705
▁sorgte▁11706
▁Kindersoldat▁11707
▁verschleppt▁11708
▁träumte▁11709
gießen▁11710
▁Anführer▁11711
▁Friede▁11712
▁Polizist▁11713
▁versprach▁11714
predigt▁11715
▁Eine▁11716
▁Christen▁11717
▁Protest▁11718
kleid▁11719
▁Make▁11720
▁wochenlang▁11721
verhandl▁11722
▁Verhandlung▁11723
blieb▁11724
▁angespannt▁11725
▁Polizei▁11726
älteste▁11727
▁verleg▁11728
▁Westafrika▁11729
▁verflucht▁11730
▁weggehen▁11731
vertrag▁11732
▁Ellen▁11733
▁Staats▁11734
haupt▁11735
tritt▁11736
cer▁11737
▁Einblicke▁11738
▁Reis▁11739
kuchen▁11740
▁Gay▁11741
▁Pri▁11742
▁Para▁11743
▁Ob▁11744
▁Marx▁11745
wandern▁11746
▁Bestrebung▁11747
▁verleihen▁11748
▁Verbündete▁11749
▁respektiert▁11750
▁Träumen▁11751
▁Feminismus▁11752
▁Unterdrück▁11753
rob▁11754
▁Kolonial▁11755
▁Bündel▁11756
▁Glaube▁11757
▁ultimative▁11758
▁Persönliche▁11759
▁politisch▁11760
eanor▁11761
▁Michelle▁11762
▁Shir▁11763
▁bloße▁11764
ose▁11765
bou▁11766
militar▁11767
web▁11768
▁hi▁11769
▁Schulz▁11770
▁irren▁11771
▁Road▁11772
▁Portland▁11773
▁Oregon▁11774
▁Neben▁11775
straßen▁11776
▁Nationalpark▁11777
▁South▁11778
▁Dakota▁11779
▁Schrift▁11780
▁Gesichts▁11781
▁imitiert▁11782
▁miss▁11783
▁verrate▁11784
▁Katz▁11785
▁Besprechung▁11786
urlaub▁11787
▁Blase▁11788
▁Gewissheit▁11789
▁Berufsleben▁11790
▁fürchterlich▁11791
▁verheerend▁11792
▁aufschlussreich▁11793
▁Irrtum▁11794
▁Mitleid▁11795
erregend▁11796
▁Kojote▁11797
▁Renn▁11798
jagt▁11799
rennt▁11800
▁realisiert▁11801
▁realisieren▁11802
schaut▁11803
▁feste▁11804
▁strukturelle▁11805
▁kulturell▁11806
▁Grundschul▁11807
▁verantwortungs▁11808
▁Dumm▁11809
Schüler▁11810
▁Over▁11811
achi▁11812
▁CFO▁11813
trophy▁11814
Marathon▁11815
läufer▁11816
▁smart▁11817
▁talent▁11818
▁Beth▁11819
klinik▁11820
▁näht▁11821
esundheitspflege▁11822
▁Vorfall▁11823
▁Interessantes▁11824
▁Richtig▁11825
▁verlässlich▁11826
▁Betracht▁11827
▁Mexiko▁11828
ped▁11829
▁widerspiegel▁11830
▁zurückgreife▁11831
▁ignorant▁11832
▁Zugriff▁11833
▁großzügig▁11834
▁Tunnel▁11835
▁Puzzle▁11836
verzerren▁11837
▁bösartig▁11838
▁Katastrophe▁11839
▁Erst▁11840
▁durchsichtig▁11841
▁Nachthimmel▁11842
▁Descartes▁11843
▁Augustin▁11844
▁sum▁11845
▁verge▁11846
▁Defekt▁11847
▁überwinden▁11848
senheit▁11849
Sendung▁11850
▁Thi▁11851
▁wit▁11852
brigen▁11853
▁Anwesende▁11854
▁Leser▁11855
marsch▁11856
▁Massenver▁11857
nichtungswaffe▁11858
▁Mittlere▁11859
osni▁11860
▁Diktator▁11861
▁aufwachsen▁11862
▁nerd▁11863
▁Denkmal▁11864
▁Hase▁11865
▁Ley▁11866
mah▁11867
▁Intelligenz▁11868
▁Pass▁11869
▁Gewinner▁11870
zapf▁11871
▁Unterkunft▁11872
▁Häuptling▁11873
▁hell▁11874
nterwäsche▁11875
▁Wei▁11876
▁schlief▁11877
▁Puppe▁11878
▁Spule▁11879
▁Aktivismus▁11880
auftrag▁11881
▁Neunjährige▁11882
▁sichere▁11883
▁Blei▁11884
licher▁11885
▁aufgebläht▁11886
▁bla▁11887
▁Geschwister▁11888
▁zusammenleb▁11889
▁sport▁11890
▁Begehren▁11891
▁Child▁11892
▁Left▁11893
▁Behind▁11894
▁Millennium▁11895
Entwicklungsziel▁11896
prostitution▁11897
liege▁11898
Kaugummi▁11899
▁TEDTalk▁11900
▁überbrück▁11901
Nobelpreisträger▁11902
▁anwesend▁11903
oung▁11904
▁Girl▁11905
▁Project▁11906
▁hinsetze▁11907
▁Schulabschluss▁11908
▁Getränke▁11909
▁Wiederauf▁11910
▁Juan▁11911
ita▁11912
▁Umkreis▁11913
▁sexuelle▁11914
▁wünschte▁11915
▁frustriert▁11916
▁Furcht▁11917
▁Vermögen▁11918
▁vergeben▁11919
Vo▁11920
▁Intellekt▁11921
▁LG▁11922
▁Versöhnung▁11923
▁Dreck▁11924
▁Epidemie▁11925
▁mitmachen▁11926
▁li▁11927
ianische▁11928
▁gha▁11929
Bühne▁11930
▁pessimistisch▁11931
ffnung▁11932
mine▁11933
▁Wahlen▁11934
▁mobilisier▁11935
▁Kandidaten▁11936
▁Vergewaltigung▁11937
schaffen▁11938
▁barbari▁11939
▁Gespräche▁11940
wählen▁11941
gewählt▁11942
▁Lesl▁11943
▁Globalisierung▁11944
▁Mega▁11945
tasche▁11946
▁Schuldgefühl▁11947
ädchen▁11948
schuhe▁11949
stunden▁11950
▁iPad▁11951
▁Ungerechtigkeit▁11952
▁unterdrücken▁11953
▁Verlangen▁11954
▁Ausbeut▁11955
▁verlockend▁11956
▁arrogant▁11957
▁Unsichtbarkeit▁11958
▁Mobiltelefon▁11959
drängt▁11960
▁gewöhnlichen▁11961
▁Chu▁11962
▁Ji▁11963
zulerne▁11964
▁Dong▁11965
▁taucht▁11966
wechseln▁11967
▁Nächte▁11968
▁herstellt▁11969
▁kennenlernte▁11970
▁entstellt▁11971
▁Abkürzung▁11972
▁Karl▁11973
▁Kapitalismus▁11974
▁Britische▁11975
▁Journalism▁11976
▁Einstieg▁11977
▁Berechnung▁11978
▁circa▁11979
▁Min▁11980
dorf▁11981
▁Coach▁11982
▁Leder▁11983
ake▁11984
▁Doo▁11985
▁amp▁11986
port▁11987
▁dämmert▁11988
▁drehte▁11989
▁heiratete▁11990
▁pol▁11991
schuh▁11992
▁luxur▁11993
▁weiche▁11994
▁Vorzeige▁11995
▁Proportion▁11996
▁Masse▁11997
▁Elektronik▁11998
gekündigt▁11999
▁spart▁12000
▁Buick▁12001
räne▁12002
▁vorübergehend▁12003
▁zurückschaue▁12004
▁Restaurants▁12005
▁Baustelle▁12006
▁Nike▁12007
▁witzig▁12008
▁vorfinde▁12009
▁hinausgehen▁12010
▁Apple▁12011
LC▁12012
▁Analphabet▁12013
▁Wochenende▁12014
▁initiiere▁12015
▁pragmatische▁12016
▁immense▁12017
bwärts▁12018
▁Mittelklasse▁12019
gesaugt▁12020
▁Verstehen▁12021
▁Schrö▁12022
gendorfer▁12023
Gregor▁12024
600▁12025
▁Kyros▁12026
Zylinder▁12027
lin▁12028
kka▁12029
▁zerbrochen▁12030
▁Multi▁12031
▁spürt▁12032
östliche▁12033
▁Biographie▁12034
by▁12035
▁getrocknet▁12036
▁187▁12037
rolle▁12038
▁Invasion▁12039
▁Truppen▁12040
pot▁12041
▁Regime▁12042
▁Episode▁12043
▁Bel▁12044
az▁12045
▁Parallel▁12046
▁Rem▁12047
brand▁12048
▁Propheten▁12049
ez▁12050
▁Jerusalem▁12051
schatz▁12052
▁Juden▁12053
▁Babel▁12054
plünder▁12055
▁golden▁12056
▁holt▁12057
gefäß▁12058
▁jüdische▁12059
▁Volks▁12060
▁Men▁12061
▁Alltags▁12062
▁Babylon▁12063
▁Mittelmeer▁12064
▁reichte▁12065
geleitet▁12066
▁irakische▁12067
gestürzt▁12068
formulier▁12069
▁verfasst▁12070
bertreibung▁12071
▁versklav▁12072
länder▁12073
ückkehr▁12074
▁Judentum▁12075
▁Verschiebung▁12076
▁Dari▁12077
religiös▁12078
format▁12079
▁verwalte▁12080
▁Angewohnheit▁12081
▁Vorbild▁12082
▁Alexander▁12083
▁Cyr▁12084
▁nachfolgende▁12085
rbietung▁12086
▁heterogen▁12087
▁Gründung▁12088
▁Jefferson▁12089
▁18.▁12090
▁Ruin▁12091
▁baby▁12092
▁19.▁12093
▁erschüttert▁12094
▁Mar▁12095
duk▁12096
▁veranlasst▁12097
mütig▁12098
fass▁12099
▁Testament▁12100
▁priest▁12101
▁deutet▁12102
▁angedeute▁12103
▁agiert▁12104
four▁12105
lar▁12106
▁imperial▁12107
▁Osteuropa▁12108
▁1918▁12109
▁Imperial▁12110
Dynast▁12111
▁islamische▁12112
▁angreif▁12113
▁Moslem▁12114
▁from▁12115
▁naheliegend▁12116
▁tolerant▁12117
wühlen▁12118
▁Rhetorik▁12119
▁oberste▁12120
▁Charta▁12121
▁Herbst▁12122
▁ausgedrückt▁12123
▁weise▁12124
▁Joshua▁12125
▁Krähen▁12126
▁Hacker▁12127
▁Erforschung▁12128
vögel▁12129
▁Alfred▁12130
itch▁12131
cock▁12132
▁Snack▁12133
automat▁12134
▁Cocktail▁12135
▁beschwerte▁12136
▁wimmelt▁12137
▁anrichtet▁12138
nordnung▁12139
▁blöde▁12140
▁ärgert▁12141
▁weiterlebe▁12142
▁Parasiten▁12143
▁anpassungsfähig▁12144
spitze▁12145
▁brüten▁12146
zählung▁12147
▁deuten▁12148
▁exponentielle▁12149
▁Röhrchen▁12150
▁Draht▁12151
▁passte▁12152
▁spontan▁12153
löcher▁12154
▁lästig▁12155
▁eingefangen▁12156
▁fortsetz▁12157
▁feststellte▁12158
▁leg▁12159
▁bedeutsame▁12160
▁urban▁12161
▁verschlossen▁12162
▁Ampel▁12163
▁geknackt▁12164
▁knack▁12165
endai▁12166
▁Vorort▁12167
▁Krähe▁12168
treue▁12169
▁Pandora▁12170
▁flexibel▁12171
▁Skinner▁12172
ition▁12173
▁Stufen▁12174
uszubilden▁12175
Erdnüsse▁12176
▁hüpfen▁12177
fliegen▁12178
▁vorbeikomm▁12179
▁besorg▁12180
▁zurückkommen▁12181
▁tie▁12182
▁langweil▁12183
hüpf▁12184
▁erfreut▁12185
▁Monopol▁12186
▁Rendite▁12187
▁Stadion▁12188
▁Hauptsache▁12189
▁beiderseit▁12190
▁Log▁12191
▁Stämmen▁12192
▁Business▁12193
USC▁12194
▁Führerschein▁12195
▁Stammes▁12196
neigung▁12197
wälzen▁12198
▁Bowl▁12199
right▁12200
▁bemerkten▁12201
räte▁12202
sprochen▁12203
▁Relevanz▁12204
▁Budweiser▁12205
▁Clinton▁12206
mination▁12207
agte▁12208
present▁12209
▁Parteien▁12210
▁Tue▁12211
▁Obama▁12212
▁Gruppierung▁12213
▁zoom▁12214
▁sähe▁12215
▁Virgin▁12216
▁Tech▁12217
▁systematisch▁12218
▁beschissen▁12219
▁Law▁12220
▁Performance▁12221
▁Feindseligkeit▁12222
▁Fahrzeug▁12223
schwärme▁12224
brächte▁12225
▁weltverändernde▁12226
▁null▁12227
▁konkurrieren▁12228
▁hervorgeh▁12229
▁Aufzug▁12230
jo▁12231
▁Lächeln▁12232
▁Robotern▁12233
programm▁12234
▁lachte▁12235
▁klopft▁12236
▁hmm▁12237
▁Zapp▁12238
Weihnachten▁12239
▁Flur▁12240
▁Call▁12241
cent▁12242
▁Dekoration▁12243
▁applaud▁12244
berschrift▁12245
▁Wegweiser▁12246
▁noble▁12247
▁Auseinandersetz▁12248
lit▁12249
▁Wohnort▁12250
erklärung▁12251
▁Phrase▁12252
▁unabdingbar▁12253
▁Leb▁12254
▁Luther▁12255
▁48▁12256
orientiert▁12257
▁Fransisco▁12258
▁wanderte▁12259
▁angeregt▁12260
▁versammel▁12261
trächtig▁12262
netzwerk▁12263
▁steigert▁12264
▁Gallup▁12265
BC▁12266
▁gelangweilt▁12267
▁ermitteln▁12268
▁McCain▁12269
owa▁12270
nobelpreis▁12271
▁Schwarzafrika▁12272
▁Frederic▁12273
▁Micro▁12274
▁Fellow▁12275
▁vervielfach▁12276
bür▁12277
sgegenstand▁12278
ahara▁12279
▁AIDS▁12280
zuschlagen▁12281
▁kostenlose▁12282
▁Volkswirtschaft▁12283
▁Zusammenbruch▁12284
▁bewahrt▁12285
tämme▁12286
Medikamente▁12287
▁Miniatur▁12288
▁Rechenmaschine▁12289
▁liebt▁12290
rofluid▁12291
▁Funktionsweise▁12292
▁Kanäle▁12293
▁Pumpe▁12294
belastung▁12295
hundert▁12296
▁sicherer▁12297
▁praktikab▁12298
▁befördern▁12299
▁Jona▁12300
▁Tricks▁12301
▁visuell▁12302
▁Blüten▁12303
▁Pollen▁12304
▁ultraviolette▁12305
viertel▁12306
▁Teufels▁12307
▁vermehren▁12308
ktronenmikroskop▁12309
▁Heu▁12310
upfen▁12311
▁ineffizient▁12312
▁landet▁12313
schleuder▁12314
▁Blume▁12315
▁Gräser▁12316
▁Bestimmung▁12317
▁Nektar▁12318
▁Kolibri▁12319
▁Markierung▁12320
▁Staub▁12321
▁Beutel▁12322
▁Orchidee▁12323
▁Maul▁12324
rabbeln▁12325
▁Bestäuber▁12326
▁rollt▁12327
streckte▁12328
▁Nachahmer▁12329
▁kopiert▁12330
▁hinschau▁12331
▁übertragen▁12332
haben▁12333
Bilder▁12334
▁Textur▁12335
▁glänzende▁12336
metall▁12337
▁Elektronen▁12338
Mikro▁12339
skop▁12340
▁Biene▁12341
▁vertreiben▁12342
angebot▁12343
▁fabelhaft▁12344
▁Can▁12345
aba▁12346
▁riech▁12347
▁Blüte▁12348
▁Heli▁12349
icero▁12350
acula▁12351
stab▁12352
▁Dor▁12353
set▁12354
▁erwärmt▁12355
temperatur▁12356
▁angezogen▁12357
▁Behälter▁12358
▁Mücken▁12359
▁Favorit▁12360
▁Sel▁12361
▁verbrenn▁12362
rennung▁12363
▁Schmetterling▁12364
▁tropische▁12365
▁Grün▁12366
Filter▁12367
▁Filter▁12368
creme▁12369
▁abschließend▁12370
▁Bjor▁12371
▁Ror▁12372
▁poetische▁12373
▁Astronom▁12374
▁Venus▁12375
▁Nebel▁12376
▁schenke▁12377
▁Austausch▁12378
▁Kim▁12379
▁koreanische▁12380
unt▁12381
▁Fernsehen▁12382
▁Gesang▁12383
▁Mono▁12384
ram▁12385
▁House▁12386
Musik▁12387
▁Theaterstück▁12388
lügt▁12389
▁zeig▁12390
▁Mama▁12391
▁Lügen▁12392
▁wunderbarer▁12393
▁Alien▁12394
▁antwortet▁12395
▁ideale▁12396
▁äh▁12397
▁infant▁12398
zudenken▁12399
ubert▁12400
▁Essenz▁12401
gefährden▁12402
▁Kafka▁12403
▁Verwandlung▁12404
▁rechtfertige▁12405
▁nutzlos▁12406
▁glücklichste▁12407
händig▁12408
ket▁12409
▁auszusehen▁12410
▁Michel▁12411
urnier▁12412
▁sc▁12413
helm▁12414
▁tour▁12415
made▁12416
freudig▁12417
vertreib▁12418
Unterricht▁12419
▁male▁12420
▁fleißig▁12421
▁Zeichnen▁12422
erzählen▁12423
win▁12424
▁Palast▁12425
zerrt▁12426
▁Gabe▁12427
▁Base▁12428
▁bestraft▁12429
▁Tap▁12430
läut▁12431
▁amateur▁12432
▁Lenk▁12433
▁eingeschlossen▁12434
▁dunkler▁12435
▁Kara▁12436
▁Gitarre▁12437
iff▁12438
▁offenbart▁12439
steller▁12440
▁Lego▁12441
▁Fa▁12442
▁negativ▁12443
▁Eifer▁12444
▁Fernbedienung▁12445
▁kritisiere▁12446
▁schau▁12447
studie▁12448
▁Bühnen▁12449
▁inszenier▁12450
▁psychiatrische▁12451
asse▁12452
▁laufe▁12453
▁Teufel▁12454
▁Fri▁12455
▁Ehepartner▁12456
▁künstlerisch▁12457
▁Ach▁12458
▁Alkohol▁12459
rry▁12460
sitz▁12461
▁Fahrer▁12462
▁Taxifahr▁12463
▁Rollen▁12464
▁Lear▁12465
▁Maler▁12466
▁Marth▁12467
▁Graham▁12468
▁Künstlerin▁12469
▁Just▁12470
rührt▁12471
▁Christian▁12472
▁Blogs▁12473
▁Rückgrat▁12474
grad▁12475
▁Fond▁12476
▁Sash▁12477
▁Clip▁12478
▁aussagt▁12479
ucci▁12480
no▁12481
▁Sterne▁12482
▁eigenständige▁12483
▁feindliche▁12484
▁Drohung▁12485
polizei▁12486
kunde▁12487
▁bedrohen▁12488
▁Wechselwirkung▁12489
sturz▁12490
▁Zeitlupe▁12491
▁fein▁12492
▁feine▁12493
▁Pläne▁12494
▁strategische▁12495
▁Milo▁12496
evic▁12497
▁schicke▁12498
▁Krawatte▁12499
▁brillante▁12500
▁unterschätzt▁12501
▁Jackson▁12502
▁ärgerlich▁12503
▁googel▁12504
▁treffe▁12505
▁Wohltätigkeit▁12506
▁Meeting▁12507
▁Bank▁12508
▁Banken▁12509
▁sammelt▁12510
▁Zins▁12511
▁brillant▁12512
lov▁12513
rati▁12514
attung▁12515
▁ausgeklügelte▁12516
▁Druckerpresse▁12517
Plan▁12518
▁DI▁12519
Marge▁12520
systeme▁12521
▁97▁12522
zahlung▁12523
ünktlich▁12524
▁finanzier▁12525
▁Send▁12526
▁Who▁12527
europa▁12528
▁Nikola▁12529
riegel▁12530
pol▁12531
▁kandidier▁12532
widert▁12533
▁Ass▁12534
lösen▁12535
listen▁12536
▁Rechenschaft▁12537
profit▁12538
Organisation▁12539
▁bewundern▁12540
raising▁12541
▁taub▁12542
schaltet▁12543
▁Nenn▁12544
▁1.000▁12545
▁emitt▁12546
▁Bangladesch▁12547
▁tag▁12548
spinne▁12549
▁stecke▁12550
▁klick▁12551
▁Morning▁12552
▁spektakulär▁12553
▁Stern▁12554
▁Blinden▁12555
▁Web▁12556
▁Hilfsmittel▁12557
▁ethnische▁12558
▁tiefgehende▁12559
▁Bedürfnis▁12560
darstellung▁12561
▁traditions▁12562
beginn▁12563
▁Poe▁12564
▁Leit▁12565
▁Klatsch▁12566
▁verschob▁12567
puren▁12568
programme▁12569
▁durchsucht▁12570
Einträge▁12571
▁abzuleiten▁12572
▁Datenbank▁12573
▁Partikel▁12574
äußert▁12575
▁leuchtende▁12576
▁schmi▁12577
▁Lippen▁12578
▁Teich▁12579
▁Murmel▁12580
▁Mob▁12581
▁Metrik▁12582
▁verabschiede▁12583
nfolge▁12584
▁verwirrt▁12585
▁statistische▁12586
schlüssel▁12587
niedergeschlagen▁12588
▁geschlechts▁12589
spezifische▁12590
ußerung▁12591
analyse▁12592
ogramm▁12593
▁sonnige▁12594
▁Bris▁12595
▁regne▁12596
▁flatter▁12597
▁numerische▁12598
▁galler▁12599
▁Klecks▁12600
montage▁12601
▁einsam▁12602
städt▁12603
▁Spinne▁12604
▁Gel▁12605
▁passive▁12606
▁bevorzuge▁12607
ahoo▁12608
▁unterteilt▁12609
▁Wut▁12610
▁Trauer▁12611
▁übersetzt▁12612
▁rotierende▁12613
▁Beiträge▁12614
▁World▁12615
strich▁12616
▁Kapsel▁12617
▁projiziert▁12618
▁Binär▁12619
code▁12620
Winkel▁12621
▁Wüsten▁12622
▁betrachtete▁12623
▁archetyp▁12624
▁abgebildet▁12625
▁geschossen▁12626
mont▁12627
▁Sternen▁12628
ürtel▁12629
▁Orion▁12630
▁Jäger▁12631
▁Bull▁12632
▁Andromeda▁12633
▁Griechen▁12634
▁Konstellation▁12635
▁Deb▁12636
▁feiert▁12637
▁Enthüllung▁12638
▁Mythologie▁12639
▁verändernde▁12640
balk▁12641
berichte▁12642
geist▁12643
▁Ford▁12644
▁isolieren▁12645
Geheimnisse▁12646
▁alphabet▁12647
▁Anna▁12648
▁Orbit▁12649
▁Sar▁12650
▁fotografisch▁12651
▁Repräsentation▁12652
shot▁12653
▁hervorheb▁12654
▁Barack▁12655
▁Alabama▁12656
▁Jazeera▁12657
▁Superstar▁12658
cooter▁12659
▁Lib▁12660
▁Nairobi▁12661
▁erkundet▁12662
▁Kollaboration▁12663
▁partizipative▁12664
▁Handeln▁12665
▁angeborene▁12666
▁Instinkt▁12667
▁verpflichte▁12668
▁Stärk▁12669
▁dominierende▁12670
▁Mitteln▁12671
▁Anfänge▁12672
▁Kooperation▁12673
▁wechselseitige▁12674
▁schrumpft▁12675
▁Smart▁12676
▁nachdachte▁12677
▁blickt▁12678
medien▁12679
▁nomad▁12680
▁Kaninchen▁12681
▁Reichtum▁12682
teten▁12683
▁Ackerbau▁12684
▁Lehm▁12685
▁Imperi▁12686
▁Schulden▁12687
▁Weizen▁12688
▁Alphabet▁12689
▁elitäre▁12690
▁ermöglichte▁12691
▁schreib▁12692
▁kooperative▁12693
▁Haft▁12694
führung▁12695
iel▁12696
▁Radiosend▁12697
▁signifikant▁12698
▁Breitband▁12699
▁Soziologe▁12700
▁myth▁12701
efangenendilemma▁12702
▁Kelly▁12703
▁hierzu▁12704
▁Nachdenken▁12705
matrix▁12706
bittert▁12707
▁Konkurrent▁12708
▁Akteur▁12709
▁10.▁12710
▁le▁12711
▁neo▁12712
Wirtschaftslehre▁12713
lehnen▁12714
▁able▁12715
▁rod▁12716
▁Landwirte▁12717
▁Amazonas▁12718
▁Hirte▁12719
▁Zentralafrika▁12720
▁dutzende▁12721
▁Garret▁12722
▁1960▁12723
matisieren▁12724
▁Weide▁12725
▁Herde▁12726
gras▁12727
▁abgehalten▁12728
güter▁12729
▁Gefangen▁12730
fächer▁12731
▁Außenseiter▁12732
▁bestrafe▁12733
▁neuro▁12734
▁altruist▁12735
▁Bestrafung▁12736
row▁12737
ochai▁12738
▁Abhandlung▁12739
▁Open▁12740
▁Source▁12741
▁Sun▁12742
▁Informations▁12743
▁pharmazeutische▁12744
▁Branche▁12745
▁schaffte▁12746
▁Toyota▁12747
▁Altruismus▁12748
▁Linux▁12749
illa▁12750
▁bereichert▁12751
▁Blogger▁12752
Sense▁12753
▁Entwickler▁12754
▁bereichern▁12755
▁Motive▁12756
▁eBay▁12757
▁Enzyklopädie▁12758
▁Think▁12759
cle▁12760
▁Nichtregierungs▁12761
▁inklusive▁12762
▁Download▁12763
load▁12764
rechner▁12765
▁Kollektiv▁12766
▁at▁12767
▁Home▁12768
▁Eigeninteresse▁12769
▁ausschließlich▁12770
▁unternahm▁12771
▁Kenia▁12772
▁eigenständig▁12773
▁Mobilfunk▁12774
telefon▁12775
übergreifende▁12776
▁Angehörige▁12777
▁Sünde▁12778
▁Mikroorganism▁12779
▁Diskurs▁12780
sprojekt▁12781
Gordon▁12782
▁Brown▁12783
▁Aufbau▁12784
▁Wohl▁12785
▁Global▁12786
freut▁12787
▁White▁12788
▁erweckt▁12789
▁Vietnamkrieg▁12790
▁him▁12791
ane▁12792
▁lauert▁12793
▁geschockt▁12794
▁erschossen▁12795
▁Sympathie▁12796
▁Palm▁12797
▁schwedische▁12798
demokratische▁12799
▁President▁12800
▁abschaff▁12801
▁verwirklichen▁12802
▁Neue▁12803
▁Sklaven▁12804
▁William▁12805
▁Wilb▁12806
force▁12807
ierende▁12808
▁geriet▁12809
dauert▁12810
▁Egla▁12811
bb▁12812
▁Save▁12813
hildren▁12814
imbabwe▁12815
lokal▁12816
▁gewollt▁12817
▁Burm▁12818
▁Mönch▁12819
▁Kyi▁12820
▁Gehör▁12821
schenkt▁12822
▁Adresse▁12823
▁Bewusstseins▁12824
▁Sklaverei▁12825
▁Wohlfahrt▁12826
▁Diskriminierung▁12827
▁Ausrichtung▁12828
▁Nelson▁12829
▁Mandela▁12830
house▁12831
▁zusammengefasst▁12832
▁rassistische▁12833
zwingen▁12834
▁bevorsteh▁12835
▁Terrorismus▁12836
▁versehen▁12837
▁Kopenhagen▁12838
Institut▁12839
Programm▁12840
▁ärmer▁12841
Markt▁12842
Produkt▁12843
▁transfer▁12844
▁Stabilität▁12845
▁Sierra▁12846
▁Leone▁12847
▁sechseinhalb▁12848
▁Tansania▁12849
▁Mir▁12850
ai▁12851
▁Tuberkulose▁12852
▁unerreichbar▁12853
▁Traurigkeit▁12854
▁belohnt▁12855
▁reichste▁12856
▁Netto▁12857
▁Export▁12858
▁Ketten▁12859
▁Sudan▁12860
▁Tode▁12861
glaubt▁12862
▁Griechenland▁12863
▁Halluzination▁12864
▁Neurologe▁12865
Bonnet▁12866
▁sehbehindert▁12867
▁lebhafte▁12868
▁rühren▁12869
führ▁12870
▁beachtet▁12871
schnappt▁12872
▁Schlaganfall▁12873
▁Rosali▁12874
erschrocken▁12875
▁Katzen▁12876
▁blau▁12877
▁hall▁12878
uz▁12879
▁Stu▁12880
▁untersuchte▁12881
geweckt▁12882
▁visueller▁12883
▁Blind▁12884
hindert▁12885
▁behindert▁12886
▁älterer▁12887
▁175▁12888
▁beschrieb▁12889
▁schwebende▁12890
tücher▁12891
▁gutaussehend▁12892
mantel▁12893
▁rauchte▁12894
▁Schreibtisch▁12895
▁Palin▁12896
▁hyper▁12897
▁Visionen▁12898
streif▁12899
einigt▁12900
▁Zieh▁12901
▁Kühl▁12902
▁senkrecht▁12903
▁Frosch▁12904
▁Sesam▁12905
▁freu▁12906
▁Einflüsse▁12907
▁stört▁12908
▁beruhigen▁12909
▁psycho▁12910
udi▁12911
▁verspotte▁12912
▁interagiert▁12913
verse▁12914
lärm▁12915
▁1982▁12916
▁Vertraut▁12917
schlüssig▁12918
häufigste▁12919
▁bildlich▁12920
▁fMRI▁12921
▁fusiform▁12922
▁Erkennung▁12923
▁1970▁12924
Mart▁12925
▁inferior▁12926
▁Fragment▁12927
▁neuron▁12928
zusammenhängende▁12929
▁Imagination▁12930
▁Stimulation▁12931
▁Träume▁12932
▁erkenne▁12933
▁Assoziation▁12934
▁blinde▁12935
▁bekannter▁12936
uh▁12937
▁ignor▁12938
▁Migräne▁12939
▁abgeleitet▁12940
▁Landminen▁12941
lohn▁12942
▁Nagetier▁12943
▁verkaufte▁12944
▁importierte▁12945
▁Vielfältig▁12946
sländer▁12947
▁extrahieren▁12948
▁kündigte▁12949
▁Prinzessin▁12950
▁Diana▁12951
▁Mine▁12952
▁nachhaltig▁12953
▁Geruch▁12954
▁ausgeprägte▁12955
▁lokalisieren▁12956
Verhaltensmuster▁12957
▁verstärken▁12958
geräusch▁12959
▁Bananen▁12960
▁Käfig▁12961
▁Minen▁12962
▁Action▁12963
▁geprüft▁12964
kredit▁12965
uadratmeter▁12966
▁beliebig▁12967
hund▁12968
sambi▁12969
▁senk▁12970
▁befürworte▁12971
▁schilder▁12972
▁1,9▁12973
▁Primär▁12974
infektion▁12975
uverlässig▁12976
positive▁12977
positiv▁12978
▁Umgang▁12979
▁et▁12980
▁89▁12981
▁86▁12982
▁gene▁12983
▁Spreng▁12984
Kassette▁12985
▁Hundertstel▁12986
Geräusch▁12987
ausgesetzt▁12988
80▁12989
anwendung▁12990
▁Zoll▁12991
▁illegal▁12992
▁Sala▁12993
▁1800▁12994
▁steigern▁12995
▁gesteigert▁12996
▁beachtlich▁12997
▁unentdeckt▁12998
loch▁12999
▁replizier▁13000
▁Schutt▁13001
phase▁13002
▁zahlreich▁13003
▁respektvoll▁13004
▁Etwa▁13005
▁Fast▁13006
♫▁13007
▁eiskalt▁13008
▁Lupe▁13009
▁Gesch▁13010
▁abnormal▁13011
Chromosom▁13012
▁muse▁13013
▁bekäme▁13014
▁Inspiration▁13015
▁neurologische▁13016
▁Eigen▁13017
gh▁13018
▁Wahnvorstellung▁13019
▁Psychose▁13020
pu▁13021
wünscht▁13022
Baptiste▁13023
▁Gottes▁13024
▁erdenkliche▁13025
ngesicht▁13026
▁weiterzumachen▁13027
▁bringe▁13028
uantenmechani▁13029
▁Materie▁13030
▁Unbekannte▁13031
▁Unsicherheit▁13032
felt▁13033
▁gefürchtet▁13034
▁Beobachter▁13035
▁übergeordnete▁13036
▁schlicht▁13037
▁Stringtheorie▁13038
dimension▁13039
deutigkeit▁13040
▁unwohl▁13041
▁Rette▁13042
▁Sprichwort▁13043
▁einmarschiert▁13044
▁buddhistische▁13045
trinken▁13046
▁situation▁13047
▁identifiziert▁13048
ffekt▁13049
▁Schwerpunkt▁13050
▁Strang▁13051
▁überein▁13052
arrer▁13053
▁Empfinden▁13054
▁moralisch▁13055
▁Opium▁13056
▁Selbstmord▁13057
▁unheimlich▁13058
heil▁13059
▁Tai▁13060
▁tourist▁13061
▁unberührt▁13062
▁bedrohlich▁13063
▁Unbehagen▁13064
▁Stapel▁13065
▁stieß▁13066
bereinstimmung▁13067
▁Zufälle▁13068
▁Konstante▁13069
▁Unfälle▁13070
▁Zufälligkeit▁13071
Dorf▁13072
▁Gui▁13073
hou▁13074
▁Unfall▁13075
▁Schüssel▁13076
▁Verantwortlich▁13077
▁Rituale▁13078
zeihung▁13079
▁Zeremonie▁13080
▁ablaufen▁13081
▁Synchroni▁13082
ional▁13083
▁Teilchen▁13084
▁erschaffe▁13085
▁Keyboard▁13086
▁Glocke▁13087
▁Akkord▁13088
▁reizvoll▁13089
▁vi▁13090
▁rose▁13091
▁begrüßen▁13092
▁Shankar▁13093
diagnose▁13094
skrit▁13095
▁Ode▁13096
vo▁13097
▁kollaborier▁13098
▁choreograph▁13099
▁Auszeichnung▁13100
▁zivile▁13101
▁cancer▁13102
▁stage▁13103
▁grade▁13104
vara▁13105
▁Tugend▁13106
▁Abscheu▁13107
▁bloss▁13108
▁Auszeit▁13109
▁ableite▁13110
gehe▁13111
▁herausziehe▁13112
▁trocknet▁13113
▁lächeln▁13114
▁gla▁13115
▁Chemotherapie▁13116
▁Folter▁13117
▁rollen▁13118
▁erlernt▁13119
urga▁13120
▁Pantheon▁13121
▁Hindu▁13122
ritt▁13123
▁shak▁13124
▁gestärkt▁13125
▁Mytho▁13126
messer▁13127
▁ausblende▁13128
wind▁13129
▁Rückschläge▁13130
▁Hindernisse▁13131
▁Sim▁13132
▁Ausdauer▁13133
▁bewaffnet▁13134
▁Spence▁13135
▁Well▁13136
Abschnitt▁13137
▁Genetiker▁13138
ographic▁13139
uinea▁13140
▁Unglaubliche▁13141
▁oberflächlich▁13142
▁homogene▁13143
▁6,▁13144
▁Großstadt▁13145
genetik▁13146
gründung▁13147
▁zerlegt▁13148
▁Gorilla▁13149
▁nachgewiesen▁13150
▁Landmasse▁13151
tektoni▁13152
▁Indische▁13153
▁Eurasi▁13154
▁Ersten▁13155
▁Südostasien▁13156
▁Gibbon▁13157
▁Orang▁13158
Utan▁13159
▁wuerde▁13160
äße▁13161
▁Pilze▁13162
▁aufzeigt▁13163
▁Hominid▁13164
spezies▁13165
▁west▁13166
▁Old▁13167
Schlucht▁13168
▁Leakey▁13169
▁erect▁13170
▁katalogisier▁13171
▁late▁13172
▁weiser▁13173
▁Europäer▁13174
▁monstro▁13175
▁Anthropo▁13176
ifikation▁13177
Carlton▁13178
▁morpholog▁13179
▁genealog▁13180
stamm▁13181
▁Hab▁13182
▁Verwandtschaft▁13183
▁Latein▁13184
▁frühesten▁13185
,2▁13186
rechnen▁13187
▁nähme▁13188
▁Korrektur▁13189
mechanismus▁13190
marke▁13191
▁Marker▁13192
änderung▁13193
rial▁13194
▁mütterliche▁13195
▁vereinfachte▁13196
▁einleuchtend▁13197
▁Eva▁13198
▁mitochondria▁13199
▁kurzer▁13200
▁erweitert▁13201
Frage▁13202
▁Geschichts▁13203
▁Eiszeit▁13204
▁Maxim▁13205
▁rau▁13206
kugel▁13207
▁Seattle▁13208
decke▁13209
▁85▁13210
▁Wende▁13211
stafrika▁13212
klima▁13213
▁rekonstruier▁13214
▁Antarktis▁13215
▁Niederschlag▁13216
▁sank▁13217
▁Sahara▁13218
▁Flecken▁13219
▁Faden▁13220
▁Neandertaler▁13221
▁entfernte▁13222
▁beleidige▁13223
asis▁13224
gewohnheiten▁13225
▁verfeiner▁13226
yntax▁13227
▁Ausdehnung▁13228
▁wandert▁13229
migration▁13230
flüge▁13231
▁Töten▁13232
▁jagte▁13233
▁Grasland▁13234
▁feucht▁13235
▁Zentralasien▁13236
▁Steppe▁13237
▁Sibirien▁13238
ith▁13239
▁Wanderung▁13240
▁Ursprünge▁13241
▁Skizze▁13242
▁indigen▁13243
▁gemischt▁13244
▁Rover▁13245
▁25.000▁13246
▁erstaunlichste▁13247
▁Stipendi▁13248
▁Gaza▁13249
istan▁13250
▁Pistole▁13251
mbient▁13252
boote▁13253
▁Album▁13254
▁Streich▁13255
▁1930▁13256
möbel▁13257
lzt▁13258
▁Arche▁13259
▁erheben▁13260
▁versunken▁13261
kollektor▁13262
▁1947▁13263
▁Jerem▁13264
▁Zerstörung▁13265
▁unschuldig▁13266
▁Legastheni▁13267
▁Töpfe▁13268
▁Besorgnis▁13269
▁teilhabe▁13270
▁irrelevant▁13271
ellen▁13272
▁Waffenruhe▁13273
Gewaltlosigkeit▁13274
ember▁13275
▁Bombe▁13276
▁vergifte▁13277
taatsoberhäupter▁13278
▁NGO▁13279
gemeinschaft▁13280
kriegen▁13281
▁Geschäftsführer▁13282
▁British▁13283
ways▁13284
▁Oscar▁13285
resultat▁13286
▁Schöne▁13287
▁Mary▁13288
▁Robinson▁13289
▁Hippie▁13290
▁Ahmed▁13291
▁Arabisch▁13292
gespräch▁13293
▁vereinen▁13294
▁anhalten▁13295
▁verwirren▁13296
▁54▁13297
▁Unterstützer▁13298
▁General▁13299
▁Datum▁13300
▁Kalender▁13301
▁Theatr▁13302
▁institutional▁13303
▁Pressekonferenz▁13304
▁tragisch▁13305
▁Korridor▁13306
▁Ahmad▁13307
▁Mentor▁13308
ICE▁13309
▁filmte▁13310
helfen▁13311
▁Anhänger▁13312
▁ausschlaggebend▁13313
ltesten▁13314
SAF▁13315
▁NATO▁13316
▁Fat▁13317
▁Russ▁13318
▁Helfer▁13319
wickelt▁13320
▁Dialekt▁13321
▁Kommandant▁13322
angriff▁13323
▁gesunken▁13324
hauen▁13325
stossen▁13326
▁Social▁13327
▁Petition▁13328
▁unterzeichne▁13329
letzlich▁13330
▁erwecken▁13331
▁Fuss▁13332
wusst▁13333
▁lobby▁13334
bezirk▁13335
▁365▁13336
▁Mel▁13337
inda▁13338
▁French▁13339
▁Coca▁13340
Cola▁13341
▁TEDxC▁13342
grier▁13343
▁Coke▁13344
▁sanit▁13345
▁Trip▁13346
▁fließende▁13347
▁Elektrizität▁13348
▁NRO▁13349
▁Sektor▁13350
talent▁13351
Regel▁13352
▁Namibia▁13353
▁Dose▁13354
▁Sprit▁13355
karren▁13356
▁Evaluation▁13357
▁Pin▁13358
▁Zweite▁13359
▁192▁13360
Truck▁13361
▁Vertrieb▁13362
Center▁13363
▁Fahrräder▁13364
▁3000▁13365
▁Tanzania▁13366
▁Einnahmen▁13367
▁Ethiopia▁13368
▁Notfall▁13369
▁gebären▁13370
▁aufzusuchen▁13371
erala▁13372
▁2.5▁13373
Mitarbeiter▁13374
▁Familienplanung▁13375
svorsorge▁13376
ehr▁13377
▁kommunale▁13378
▁erschließ▁13379
komponente▁13380
unternehmer▁13381
▁Vorgehen▁13382
▁Happiness▁13383
▁assoziier▁13384
▁Cup▁13385
aving▁13386
▁Somali▁13387
Eins▁13388
▁Teach▁13389
eidung▁13390
▁Dia▁13391
rrh▁13392
▁sanitäre▁13393
▁Sanitär▁13394
▁position▁13395
▁Bequemlichkeit▁13396
▁Braut▁13397
werbung▁13398
▁Rückgang▁13399
▁1.6▁13400
▁Lähmung▁13401
monate▁13402
▁15.▁13403
probe▁13404
▁Jh▁13405
▁epi▁13406
▁Aufräum▁13407
eute▁13408
▁ausradier▁13409
empfunden▁13410
▁AlloSphere▁13411
spektrum▁13412
round▁13413
▁kartier▁13414
▁entfalten▁13415
osphere▁13416
▁mak▁13417
▁Spin▁13418
▁Hirnregion▁13419
▁verspüre▁13420
uell▁13421
RI▁13422
▁akustisch▁13423
Agenten▁13424
▁Rechteck▁13425
generat▁13426
iven▁13427
▁Installation▁13428
▁Simulation▁13429
▁generat▁13430
▁Schwarm▁13431
▁bakterielle▁13432
▁atomare▁13433
▁Atomen▁13434
Daten▁13435
▁Light▁13436
▁Energ▁13437
▁Solarzellen▁13438
▁2,000▁13439
Atom▁13440
linien▁13441
▁Signatur▁13442
hängig▁13443
▁Schrödinger▁13444
Gleichung▁13445
▁Elektron▁13446
▁flies▁13447
bit▁13448
▁puls▁13449
▁Photo▁13450
▁emit▁13451
▁Kalku▁13452
ronic▁13453
formation▁13454
▁Barbar▁13455
unders▁13456
▁Saft▁13457
door▁13458
▁Südpol▁13459
▁Schlitt▁13460
▁virtuell▁13461
▁progress▁13462
▁Macher▁13463
▁Betrachter▁13464
▁Mall▁13465
▁Letzt▁13466
▁bestieg▁13467
gedruckt▁13468
▁Kohle▁13469
▁Eisen▁13470
▁geniess▁13471
▁Arktische▁13472
▁plant▁13473
▁Eisbär▁13474
▁Helikopter▁13475
ämmer▁13476
▁überquert▁13477
▁Kilo▁13478
▁Kälte▁13479
▁Ausblick▁13480
▁bemühe▁13481
zuschauen▁13482
▁Substanz▁13483
Jahr▁13484
▁Bauchspeichel▁13485
drüsenkrebs▁13486
▁Crack▁13487
▁probiert▁13488
▁ruin▁13489
▁Streben▁13490
▁gegenübersteh▁13491
▁Captain▁13492
▁Amunds▁13493
▁norwegische▁13494
▁demoralisier▁13495
▁kehrte▁13496
zulaufen▁13497
▁Oma▁13498
▁unvollendet▁13499
▁kühn▁13500
▁vollendet▁13501
▁umkehren▁13502
monatige▁13503
berater▁13504
strasse▁13505
▁Osterinsel▁13506
▁Famil▁13507
▁Stürme▁13508
▁metaphor▁13509
▁Savage▁13510
▁Faszination▁13511
▁Dodo▁13512
deckt▁13513
▁Mauriti▁13514
▁Madagaskar▁13515
▁arch▁13516
▁Sammlung▁13517
▁hinweisen▁13518
▁vergiss▁13519
▁Ordner▁13520
verbindung▁13521
▁Cockpit▁13522
foto▁13523
waffen▁13524
▁Kostüme▁13525
▁gezeichnet▁13526
▁Requisite▁13527
▁Drachen▁13528
▁chaotisch▁13529
▁hochzu▁13530
▁Becken▁13531
▁Line▁13532
▁bemalt▁13533
schild▁13534
lastic▁13535
▁angefertigt▁13536
▁vertiefen▁13537
▁stolperte▁13538
▁Maltese▁13539
▁Falken▁13540
oma▁13541
▁verlieb▁13542
▁Kni▁13543
zeremonie▁13544
▁fiktive▁13545
▁Repräsentant▁13546
▁Begierde▁13547
▁heruntergeladen▁13548
▁genaue▁13549
▁Christi▁13550
▁kontaktier▁13551
aya▁13552
▁Flo▁13553
▁Kontroverse▁13554
requisite▁13555
gossen▁13556
▁kontrovers▁13557
▁Negative▁13558
gestimmt▁13559
▁Sculpey▁13560
▁Proz▁13561
▁hinkriege▁13562
▁mat▁13563
schwarz▁13564
Grund▁13565
▁tropft▁13566
▁angenehme▁13567
▁Screenshot▁13568
reflex▁13569
▁Reflexion▁13570
▁Fred▁13571
▁Mörder▁13572
▁Lokal▁13573
plica▁13574
▁Forum▁13575
▁befreundet▁13576
▁Bronze▁13577
▁Endprodukt▁13578
▁befriedigen▁13579
▁hochhebe▁13580
packen▁13581
Modell▁13582
▁Silikon▁13583
schi▁13584
▁Nokia▁13585
Forscher▁13586
▁unerwartete▁13587
▁Spezial▁13588
Verbindung▁13589
▁Kenntnis▁13590
bewusst▁13591
▁Videokamera▁13592
talk▁13593
▁herumtrage▁13594
▁wegnehme▁13595
▁Obdach▁13596
▁Transport▁13597
▁Maslow▁13598
digkeit▁13599
▁überschreiten▁13600
▁zeitlich▁13601
▁empfangen▁13602
▁universe▁13603
Netz▁13604
▁Privatsphäre▁13605
▁telefoniere▁13606
▁nette▁13607
▁umdreh▁13608
▁Glückskeks▁13609
Perspektive▁13610
spruch▁13611
▁Betreiber▁13612
▁kaufe▁13613
▁aufgeladen▁13614
▁rudiment▁13615
▁geeignet▁13616
▁wohlhabend▁13617
▁Elegan▁13618
▁anpasst▁13619
▁Grameen▁13620
Bank▁13621
▁Aufsicht▁13622
▁Umlauf▁13623
▁zusammensetz▁13624
▁Kontakte▁13625
▁Know▁13626
▁Viagra▁13627
shop▁13628
▁Nachahmung▁13629
Dienstleistung▁13630
▁Unterhosen▁13631
▁banal▁13632
▁Hütte▁13633
ummer▁13634
trong▁13635
▁verkörpert▁13636
▁Vermittler▁13637
▁Grundsatz▁13638
völker▁13639
rechnet▁13640
lumni▁13641
▁anregend▁13642
▁humor▁13643
▁übertreibe▁13644
▁verflochten▁13645
▁Atombombe▁13646
▁Holocaust▁13647
▁Erwärmung▁13648
▁sämtliche▁13649
▁anerkennen▁13650
▁Erzeugung▁13651
zucht▁13652
▁Erzeuger▁13653
tmosphäre▁13654
▁Witze▁13655
▁20-▁13656
▁Luftverschmutzu▁13657
▁verabreicht▁13658
▁fortschrittlich▁13659
▁Prius▁13660
umweltfreundlich▁13661
▁Atomkraft▁13662
▁Ann▁13663
skrankheiten▁13664
leiden▁13665
▁Kohlehydrate▁13666
▁Lungen▁13667
▁jetzige▁13668
▁finster▁13669
▁Mächte▁13670
▁übermäßige▁13671
▁Junk▁13672
food▁13673
▁pflanzliche▁13674
▁Karotte▁13675
brot▁13676
▁unnatürlich▁13677
hunger▁13678
▁erneuerbare▁13679
▁Energien▁13680
▁einschränkt▁13681
▁Marionette▁13682
▁Agrar▁13683
▁USDA▁13684
pyramide▁13685
▁Vollkorn▁13686
▁Pyramide▁13687
▁unverändert▁13688
▁Low▁13689
Car▁13690
Diät▁13691
gerechte▁13692
▁Herzerkrankung▁13693
▁Dictionar▁13694
▁ernannt▁13695
▁trend▁13696
▁pop▁13697
▁verrät▁13698
▁angelang▁13699
▁gesetzlich▁13700
▁Kü▁13701
Bird▁13702
eye▁13703
▁Tief▁13704
kette▁13705
▁Einheimische▁13706
▁Köch▁13707
▁Julia▁13708
▁Siebziger▁13709
philosoph▁13710
▁landesweite▁13711
gesundheit▁13712
▁fett▁13713
▁Eiweiß▁13714
▁Zutat▁13715
▁Cor▁13716
▁Chee▁13717
▁Orange▁13718
▁Lastwagen▁13719
▁Vorstädte▁13720
besitz▁13721
▁Salat▁13722
▁Brokkoli▁13723
▁verfütter▁13724
▁Subvention▁13725
▁Fastfood▁13726
▁geniale▁13727
▁seltener▁13728
▁Fer▁13729
▁Ofen▁13730
ümmste▁13731
▁Express▁13732
▁Gärt▁13733
▁übt▁13734
▁Koch▁13735
▁industrie▁13736
▁ausübe▁13737
phobi▁13738
▁Joghurt▁13739
▁Supermärkte▁13740
▁Müsli▁13741
▁Hafer▁13742
▁Chicken▁13743
▁Gewürz▁13744
▁McNugget▁13745
▁fade▁13746
▁Käse▁13747
ordnung▁13748
▁Styropor▁13749
▁Ausgangspunkt▁13750
▁Prognose▁13751
▁verdoppeln▁13752
läufig▁13753
▁Nährstoffe▁13754
gesteuerte▁13755
▁empfohlen▁13756
▁empfehlen▁13757
entbehrlich▁13758
▁Linksliberale▁13759
▁Ana▁13760
▁vollgestopft▁13761
▁vermehrt▁13762
gedanken▁13763
▁Schwierige▁13764
▁Stellenwert▁13765
▁Zuhören▁13766
gesicht▁13767
▁baue▁13768
▁entwickle▁13769
▁Charaktere▁13770
▁dialog▁13771
esichtsausdrücke▁13772
▁realistische▁13773
▁Android▁13774
▁simuliert▁13775
ubb▁13776
▁hierarch▁13777
▁Por▁13778
▁hochentwickelte▁13779
▁Einfühlung▁13780
▁Machine▁13781
ception▁13782
▁Laborator▁13783
Engine▁13784
▁Billionen▁13785
▁Robotic▁13786
Massenproduktion▁13787
▁Wired▁13788
▁Next▁13789
▁Zweiten▁13790
▁Bedien▁13791
▁intuitive▁13792
▁Portrait▁13793
▁Philip▁13794
▁Bla▁13795
verarbeitung▁13796
▁anhört▁13797
▁spannendste▁13798
wollen▁13799
▁Real▁13800
▁schlauer▁13801
▁EG▁13802
▁Discover▁13803
▁Computerspiele▁13804
▁Buchstaben▁13805
▁Buchstabe▁13806
rätsel▁13807
▁Gardner▁13808
cientific▁13809
▁Vollzeit▁13810
spiele▁13811
▁Zaubertrick▁13812
wahrnehmung▁13813
▁Vase▁13814
▁figure▁13815
▁ground▁13816
▁Ambig▁13817
▁Ziffer▁13818
▁lot▁13819
▁mirror▁13820
▁Maeda▁13821
▁interaktiv▁13822
▁Are▁13823
▁Rush▁13824
▁Hour▁13825
würfel▁13826
▁kreuz▁13827
uzzle▁13828
▁Fu▁13829
fügen▁13830
▁unlösbar▁13831
rude▁13832
▁investigative▁13833
zeichner▁13834
▁Sequenz▁13835
▁Bas▁13836
paar▁13837
▁sequenziert▁13838
▁überlappen▁13839
▁lösbar▁13840
kneif▁13841
helix▁13842
▁Cy▁13843
▁Gelb▁13844
gemischt▁13845
▁Shuffle▁13846
Jo▁13847
▁dominieren▁13848
abwehren▁13849
▁Nintendo▁13850
▁verschreib▁13851
▁Lebensweise▁13852
parate▁13853
hhh▁13854
▁Tulle▁13855
▁Tinker▁13856
▁einzig▁13857
▁Boote▁13858
▁Brücken▁13859
▁Achterbahn▁13860
▁Stöcke▁13861
▁befolgt▁13862
▁Lehrplan▁13863
tägige▁13864
▁term▁13865
verläuf▁13866
▁Skizzen▁13867
▁Robin▁13868
▁Unterbrechung▁13869
kauf▁13870
hu▁13871
Nostalgie▁13872
▁RM▁13873
▁Größte▁13874
▁Play▁13875
▁0▁13876
▁Canad▁13877
▁besitze▁13878
ausstellung▁13879
▁fang▁13880
▁red▁13881
▁schottische▁13882
Schloss▁13883
▁After▁13884
oon▁13885
antrieb▁13886
▁1953▁13887
▁Authenti▁13888
zität▁13889
▁Wohn▁13890
▁Gehry▁13891
▁Rückblick▁13892
Wirtschaftskrise▁13893
▁Work▁13894
Kleiderbügel▁13895
▁improvisiert▁13896
▁herrlich▁13897
grafik▁13898
▁Detroit▁13899
hälfte▁13900
mobile▁13901
▁Katalog▁13902
▁Techno▁13903
▁budd▁13904
▁Bro▁13905
▁56▁13906
▁bell▁13907
▁Ticket▁13908
▁Norman▁13909
schraube▁13910
▁spanische▁13911
▁Wurf▁13912
▁Mosk▁13913
▁Emotion▁13914
beispiel▁13915
▁Flugzeuge▁13916
▁Fitzgerald▁13917
▁IV▁13918
16▁13919
▁Maschinengewehr▁13920
▁Ricard▁13921
▁stock▁13922
▁Kanarienv▁13923
▁Deutsch▁13924
▁Ritz▁13925
▁Tower▁13926
▁bleib▁13927
▁1940▁13928
▁Church▁13929
ärgern▁13930
kill▁13931
less▁13932
▁Mississippi▁13933
▁beschämend▁13934
ism▁13935
▁empor▁13936
etropolitan▁13937
▁tri▁13938
▁widersteh▁13939
mail▁13940
▁schäme▁13941
rash▁13942
▁JFK▁13943
▁France▁13944
▁Terrorist▁13945
▁Mode▁13946
▁Schuh▁13947
▁WI▁13948
▁Kong▁13949
▁Rotwein▁13950
▁name▁13951
▁Nimm▁13952
seitige▁13953
▁Marv▁13954
▁Sandwich▁13955
▁Marco▁13956
▁charmante▁13957
▁Story▁13958
▁Strich▁13959
ännchen▁13960
▁Magie▁13961
▁introvert▁13962
sergebnisse▁13963
▁Projektion▁13964
▁dim▁13965
▁Mulli▁13966
Infektion▁13967
rankheitserreger▁13968
▁Anthr▁13969
▁Radikal▁13970
▁Philadelphia▁13971
▁Alpha▁13972
▁Herzklappe▁13973
▁Fresse▁13974
▁Antikörper▁13975
reaktion▁13976
mmunität▁13977
zunutze▁13978
▁pathogen▁13979
▁eingedr▁13980
▁angehalten▁13981
▁Packung▁13982
▁Marihuana▁13983
hängt▁13984
▁symbols▁13985
amer▁13986
bio▁13987
▁alarm▁13988
▁Luftwaffe▁13989
tützpunkt▁13990
▁ausgeführt▁13991
▁Rosling▁13992
rmste▁13993
ämmen▁13994
@▁13995
▁Canne▁13996
▁führe▁13997
▁IKEA▁13998
▁Volvo▁13999
gebrauch▁14000
▁übernommen▁14001
▁Autofahren▁14002
▁Einkommens▁14003
▁weitgehend▁14004
▁Atomkrieg▁14005
▁altmodische▁14006
Bevölkerungszahl▁14007
blau▁14008
▁Braun▁14009
▁Hell▁14010
▁Südasien▁14011
gesündeste▁14012
▁redete▁14013
▁Regenbogen▁14014
▁Seife▁14015
izilli▁14016
▁arabische▁14017
▁tragbare▁14018
▁Optimist▁14019
▁Pessimis▁14020
mildern▁14021
▁Joe▁14022
nerzählens▁14023
Geschichte▁14024
▁Meggendorfer▁14025
▁kühne▁14026
▁Höhlen▁14027
wände▁14028
ausgebildet▁14029
ough▁14030
▁enough▁14031
▁weigerte▁14032
kanal▁14033
▁Suchmaschine▁14034
▁ta▁14035
▁interpretiert▁14036
▁Jeff▁14037
Einfallsreichtum▁14038
▁unternehmerisch▁14039
▁Deal▁14040
▁Luxus▁14041
▁CEO▁14042
▁Missou▁14043
▁Steuerzahler▁14044
▁Zahnpasta▁14045
▁Vollzeitjob▁14046
$▁14047
▁Währung▁14048
putzt▁14049
▁illegale▁14050
▁Porno▁14051
▁profitable▁14052
▁schmutzige▁14053
▁lecker▁14054
▁Abfall▁14055
▁Nagel▁14056
lip▁14057
▁Frisur▁14058
zauber▁14059
▁Wäsche▁14060
Unternehmen▁14061
▁Geschäftsidee▁14062
▁kriminelle▁14063
▁Aich▁14064
trey▁14065
▁Animation▁14066
▁Schatten▁14067
▁perform▁14068
▁medi▁14069
▁Ox▁14070
▁Carolin▁14071
kin▁14072
▁Ami▁14073
▁Eye▁14074
▁Schwingung▁14075
▁monoton▁14076
stimul▁14077
▁Resonanz▁14078
▁Zerbrechlich▁14079
▁Betreuer▁14080
▁rich▁14081
▁erworben▁14082
▁autist▁14083
▁durchbrechen▁14084
▁Süßigkeit▁14085
austausch▁14086
▁determin▁14087
▁entzieh▁14088
bedingte▁14089
störung▁14090
▁intellektuell▁14091
▁Zaun▁14092
▁unerbittlich▁14093
▁unbeholfen▁14094
▁Erkrankung▁14095
schwäche▁14096
▁verringert▁14097
▁benachteiligt▁14098
▁Anomalie▁14099
▁erschafft▁14100
▁eintreten▁14101
▁Verfolgung▁14102
▁Warren▁14103
▁entwickelnde▁14104
▁streite▁14105
genoss▁14106
▁Konstrukt▁14107
▁Wachstums▁14108
▁Intervention▁14109
▁verheerende▁14110
▁Isolation▁14111
▁Balz▁14112
eiler▁14113
▁agile▁14114
▁Programmierung▁14115
▁agil▁14116
▁Vorschläge▁14117
work▁14118
▁Adoptiv▁14119
insky▁14120
▁konkrete▁14121
▁enger▁14122
▁Buffet▁14123
▁Anhaltspunkt▁14124
▁Spring▁14125
daho▁14126
entwickler▁14127
▁fünfzehn▁14128
▁Asperger▁14129
▁ADHS▁14130
abschnitt▁14131
▁manag▁14132
▁Kurz▁14133
▁Sitzung▁14134
▁Sutherland▁14135
▁Bunker▁14136
▁Misserfolg▁14137
fäde▁14138
▁Thanksgiving▁14139
▁Besucher▁14140
▁einschätzen▁14141
▁halbiert▁14142
▁Radfahr▁14143
▁Stalin▁14144
kümmert▁14145
▁erhellen▁14146
▁Wörterbuch▁14147
▁Uta▁14148
Familie▁14149
▁einbaut▁14150
▁Psycho▁14151
Guru▁14152
mahlzeit▁14153
etchup▁14154
▁verbraucht▁14155
▁verschieben▁14156
psycholog▁14157
▁offener▁14158
Sekunde▁14159
▁erwiderte▁14160
Jahre▁14161
Millionen▁14162
mauer▁14163
▁Colli▁14164
▁familiäre▁14165
Party▁14166
▁Popcorn▁14167
▁brannte▁14168
▁Flip▁14169
à▁14170
▁Reisende▁14171
▁Tourist▁14172
▁Streit▁14173
▁Emory▁14174
▁kenn▁14175
kala▁14176
elbstbewusstsein▁14177
▁Karen▁14178
▁Bausteine▁14179
▁Tolsto▁14180
▁Leo▁14181
▁Jacque▁14182
▁Ausgabe▁14183
▁aufgelöst▁14184
▁beurteilt▁14185
▁Verbraucher▁14186
SP▁14187
▁Fremd▁14188
▁begegnen▁14189
▁betonen▁14190
Barrel▁14191
▁plans▁14192
chulden▁14193
▁tick▁14194
-20▁14195
▁Paradox▁14196
▁Spar▁14197
▁Heilmittel▁14198
▁voran▁14199
▁Versch▁14200
sgrad▁14201
19▁14202
▁Haushalte▁14203
▁360▁14204
▁Billion▁14205
▁Selbstverständ▁14206
▁langfristige▁14207
finanzierung▁14208
uar▁14209
▁dramatische▁14210
▁durchlebt▁14211
▁Zahnärzte▁14212
▁Back▁14213
▁FBI▁14214
▁Cornell▁14215
▁niedrig▁14216
▁Rezession▁14217
▁Val▁14218
wandel▁14219
▁naheleg▁14220
▁flüssige▁14221
▁Liquid▁14222
berfluss▁14223
füß▁14224
modern▁14225
unk▁14226
▁Ego▁14227
▁entspannt▁14228
▁Arbeiterklasse▁14229
▁Werf▁14230
tourism▁14231
▁Giant▁14232
statistik▁14233
▁variable▁14234
ulu▁14235
▁Fair▁14236
▁hoffnungsvoll▁14237
starken▁14238
▁Nebenprodukt▁14239
slosigkeit▁14240
kinder▁14241
▁Absolvent▁14242
ali▁14243
▁Microsoft▁14244
▁Wunderbare▁14245
▁verpflichtet▁14246
▁schul▁14247
▁Gore▁14248
Tex▁14249
Krise▁14250
Verbrauch▁14251
▁Sprint▁14252
schöpfen▁14253
,4▁14254
▁68▁14255
ausweis▁14256
▁Anhäufung▁14257
häuser▁14258
▁schmutzig▁14259
▁Umsetzung▁14260
▁Dividende▁14261
ootprint▁14262
▁Fide▁14263
verbrauch▁14264
▁überwacht▁14265
ami▁14266
einnahmen▁14267
▁plus▁14268
▁Medaille▁14269
service▁14270
Cloud▁14271
▁Comics▁14272
▁verbieg▁14273
fan▁14274
▁Nova▁14275
▁Scot▁14276
▁Beat▁14277
▁Jagger▁14278
▁Brille▁14279
▁schaden▁14280
▁Dad▁14281
▁billige▁14282
▁eigenartig▁14283
▁Sehvermögen▁14284
▁Lex▁14285
▁Ray▁14286
Tech▁14287
▁ablegen▁14288
▁allerletzte▁14289
▁Mineral▁14290
biologie▁14291
▁Comic▁14292
▁Navy▁14293
▁Dean▁14294
▁Kamen▁14295
▁Karikaturist▁14296
gewinnen▁14297
▁Babbage▁14298
getriebene▁14299
▁Rechner▁14300
▁Ada▁14301
▁Lovelace▁14302
evar▁14303
Interaktion▁14304
▁Sorte▁14305
▁manifest▁14306
▁formal▁14307
▁pure▁14308
kategorie▁14309
tomie▁14310
▁diagonal▁14311
▁umfassen▁14312
▁Symbole▁14313
abstrahiert▁14314
enziell▁14315
▁temporal▁14316
▁Flach▁14317
skulptur▁14318
säule▁14319
Stick▁14320
▁Hirsch▁14321
▁88▁14322
falte▁14323
▁Artefakte▁14324
range▁14325
▁Sprech▁14326
omics▁14327
aktivität▁14328
ROM▁14329
▁McLuhan▁14330
▁zeitliche▁14331
ontinuität▁14332
▁Hypertext▁14333
räum▁14334
▁Abraham▁14335
▁Lincoln▁14336
pirale▁14337
▁Kompromisse▁14338
▁technisch▁14339
schlug▁14340
▁Wendung▁14341
▁Kollagen▁14342
▁Variante▁14343
▁immersive▁14344
wandlung▁14345
rew▁14346
▁effektivste▁14347
▁comic▁14348
▁multiple▁14349
▁Alan▁14350
▁juri▁14351
gesetz▁14352
▁Kau▁14353
▁40.000▁14354
▁Einfachheit▁14355
▁Anwälte▁14356
▁Mindest▁14357
▁Kreditkarte▁14358
▁Limit▁14359
▁ausdrückt▁14360
▁Ausweg▁14361
▁Zahlung▁14362
▁Vereinbarung▁14363
▁verschickt▁14364
▁Vereinfachung▁14365
▁Kompliz▁14366
▁Verträge▁14367
▁Jack▁14368
▁Horn▁14369
▁Paläontologe▁14370
▁Blutgefäße▁14371
▁Charakteristik▁14372
▁Schwänze▁14373
▁Montana▁14374
▁Haustier▁14375
gestrebt▁14376
▁Hemisphäre▁14377
inosaurier▁14378
▁Nest▁14379
▁Jeep▁14380
aft▁14381
ernstein▁14382
bohr▁14383
▁heck▁14384
▁bohrt▁14385
▁heraushol▁14386
▁Moskito▁14387
▁Tyrannosaur▁14388
Rex▁14389
▁Schwei▁14390
▁entnahm▁14391
moglobin▁14392
▁verging▁14393
▁Kubikmeter▁14394
▁weiblich▁14395
▁Kalzium▁14396
▁festleg▁14397
▁entnehmen▁14398
vogel▁14399
▁Vel▁14400
rap▁14401
▁streiten▁14402
ifi▁14403
ierer▁14404
▁bring▁14405
▁Modifikation▁14406
▁aussehende▁14407
Hu▁14408
▁Matthew▁14409
▁Wisconsin▁14410
▁Lars▁14411
▁Schwanz▁14412
▁Kralle▁14413
▁Archae▁14414
opter▁14415
▁Taube▁14416
▁Colon▁14417
▁Saurier▁14418
Parade▁14419
huh▁14420
▁demonstriert▁14421
▁Verschmelz▁14422
▁computer▁14423
generierte▁14424
▁Poet▁14425
▁Samu▁14426
▁Cole▁14427
ridge▁14428
reitschaft▁14429
▁Schein▁14430
▁lose▁14431
▁Augmented▁14432
Reality▁14433
fernsehen▁14434
wagen▁14435
▁verlässt▁14436
▁Final▁14437
atik▁14438
getäuscht▁14439
▁Geschehnisse▁14440
▁Sonnenunterg▁14441
▁Lagerfeuer▁14442
yllis▁14443
▁Rodrig▁14444
afi▁14445
▁undenkbar▁14446
▁gründet▁14447
▁Trade▁14448
ao▁14449
wirkung▁14450
▁Rache▁14451
▁Zach▁14452
Regierung▁14453
▁Verurteilung▁14454
▁Todesstrafe▁14455
▁angeklagt▁14456
▁leidet▁14457
▁November▁14458
litten▁14459
weint▁14460
▁Tree▁14461
▁Hamburger▁14462
▁Grausamkeit▁14463
▁Busse▁14464
Menschenverstand▁14465
▁Wider▁14466
nerv▁14467
▁Spät▁14468
▁praktiziert▁14469
beltäter▁14470
▁letztlich▁14471
▁verzichte▁14472
▁verminder▁14473
▁spare▁14474
▁Mikroben▁14475
biologe▁14476
▁str▁14477
▁Athlet▁14478
▁Dur▁14479
▁spit▁14480
▁Rag▁14481
▁Mountain▁14482
▁Virginia▁14483
▁Notaufnahme▁14484
azi▁14485
▁Insulin▁14486
▁verwunderlich▁14487
wolke▁14488
▁Anschau▁14489
▁mikrobielle▁14490
▁Bekämpf▁14491
▁Georgetown▁14492
▁Transplantat▁14493
▁Dün▁14494
▁Empfänger▁14495
kolonisier▁14496
▁Bemerkenswerte▁14497
▁gespendet▁14498
▁Crohn▁14499
▁Transplantation▁14500
chirurg▁14501
▁Meta▁14502
IT▁14503
▁vagina▁14504
▁Entbindung▁14505
Kaiser▁14506
▁beruhen▁14507
ath▁14508
▁Sauber▁14509
▁pump▁14510
schweif▁14511
▁schiefgeh▁14512
▁UC▁14513
▁Gattung▁14514
▁Tierärzte▁14515
like▁14516
▁di▁14517
▁Fäkalien▁14518
▁system▁14519
▁Begründung▁14520
▁ausführlich▁14521
▁kausale▁14522
▁ignoriert▁14523
▁Tar▁14524
motive▁14525
▁Hama▁14526
▁Höhle▁14527
▁Wal▁14528
▁Gerade▁14529
▁Gäste▁14530
flüchte▁14531
[...]
