<pad>▁0
<unk>▁1
<s>▁2
</s>▁3
▁David▁4
▁Gallo▁5
▁:▁6
▁life▁7
▁in▁8
▁the▁9
▁deep▁10
▁oceans▁11
▁TED▁12
▁Talk▁13
▁Subti▁14
tles▁15
▁and▁16
▁T▁17
ranscript▁18
▁with▁19
▁vibran▁20
t▁21
▁video▁22
▁clip▁23
s▁24
▁capture▁25
d▁26
▁by▁27
▁submarine▁28
▁,▁29
▁take▁30
▁us▁31
▁to▁32
▁some▁33
▁of▁34
▁Earth▁35
▁&▁36
apos▁37
;▁38
▁dark▁39
est▁40
▁most▁41
▁violent▁42
▁toxic▁43
▁beautiful▁44
▁habitat▁45
▁valley▁46
▁volcan▁47
ic▁48
▁ridge▁49
▁depth▁50
▁where▁51
▁is▁52
▁bizarre▁53
▁resilien▁54
▁shocking▁55
ly▁56
▁abundant▁57
▁.▁58
▁this▁59
▁Bill▁60
▁Lange▁61
▁I▁62
m▁63
▁Dave▁64
▁we▁65
re▁66
▁going▁67
▁tell▁68
▁you▁69
▁stories▁70
▁from▁71
▁sea▁72
▁here▁73
ve▁74
▁got▁75
credible▁76
▁Titanic▁77
▁that▁78
▁ever▁79
▁been▁80
▁seen▁81
▁not▁82
▁show▁83
▁any▁84
▁it▁85
▁truth▁86
▁matter▁87
▁--▁88
▁even▁89
▁though▁90
▁breaking▁91
▁all▁92
▁sort▁93
▁box▁94
▁office▁95
▁record▁96
▁exciting▁97
▁story▁98
▁problem▁99
▁think▁100
▁ocean▁101
▁for▁102
▁granted▁103
▁when▁104
▁about▁105
▁are▁106
▁75▁107
▁percent▁108
▁planet▁109
▁water▁110
▁average▁111
▁two▁112
▁miles▁113
▁part▁114
▁stand▁115
▁at▁116
▁beach▁117
▁or▁118
▁see▁119
▁images▁120
▁like▁121
▁look▁122
▁out▁123
▁great▁124
▁big▁125
▁blue▁126
▁ex▁127
pan▁128
e▁129
▁sh▁130
immer▁131
ing▁132
▁mov▁133
▁there▁134
▁wave▁135
▁surf▁136
▁tide▁137
▁but▁138
▁have▁139
▁no▁140
▁idea▁141
▁what▁142
▁lies▁143
▁longest▁144
▁mountain▁145
▁range▁146
▁on▁147
▁animals▁148
▁earthquake▁149
▁volcano▁150
es▁151
▁bottom▁152
▁biodiversity▁153
▁bio▁154
den▁155
sity▁156
▁higher▁157
▁places▁158
▁than▁159
▁rainforest▁160
▁unexplo▁161
▁yet▁162
▁sight▁163
▁captivat▁164
▁make▁165
▁become▁166
▁familiar▁167
▁want▁168
▁edge▁169
▁a▁170
▁▁171
very▁172
▁un▁173
familiar▁174
▁world▁175
▁special▁176
▁technology▁177
▁get▁178
▁into▁179
▁use▁180
▁Al▁181
vin▁182
▁camera▁183
▁something▁184
▁has▁185
▁develop▁186
ed▁187
▁help▁188
▁Sony▁189
▁Marcel▁190
▁Pro▁191
us▁192
▁sai▁193
quot▁194
▁The▁195
▁true▁196
▁voyage▁197
▁discovery▁198
▁so▁199
▁much▁200
▁seek▁201
▁new▁202
▁landscapes▁203
▁as▁204
▁hav▁205
▁eyes▁206
▁people▁207
▁partner▁208
▁give▁209
n▁210
▁only▁211
▁exist▁212
▁also▁213
▁how▁214
▁itself▁215
▁jelly▁216
▁one▁217
▁my▁218
▁favorite▁219
▁because▁220
▁working▁221
▁turn▁222
▁be▁223
▁creature▁224
▁up▁225
▁150▁226
▁feet▁227
▁long▁228
▁those▁229
▁different▁230
▁things▁231
▁?▁232
▁love▁233
▁kind▁234
▁stuff▁235
▁these▁236
▁fish▁237
▁lure▁238
y▁239
▁down▁240
▁tent▁241
ac▁242
les▁243
▁dangl▁244
▁swirl▁245
around▁246
colonial▁247
▁animal▁248
▁individual▁249
▁band▁250
▁together▁251
▁jet▁252
▁thrust▁253
ers▁254
▁front▁255
ll▁256
▁moment▁257
▁little▁258
▁light▁259
▁if▁260
▁school▁261
▁put▁262
▁them▁263
▁side▁264
▁scale▁265
-▁266
type▁267
▁other▁268
▁guys▁269
▁win▁270
▁hands▁271
▁bioma▁272
▁made▁273
▁creatures▁274
X▁275
w▁276
▁death▁277
▁bioluminescence▁278
▁attract▁279
▁mate▁280
▁prey▁281
▁communicat▁282
▁could▁283
▁begin▁284
▁our▁285
archiv▁286
al▁287
▁je▁288
ies▁289
▁come▁290
▁size▁291
▁shapes▁292
▁tend▁293
▁forget▁294
▁fact▁295
▁real▁296
▁first▁297
▁200▁298
▁300▁299
▁way▁300
▁types▁301
▁live▁302
▁three▁303
dimensional▁304
▁space▁305
▁micro▁306
g▁307
ra▁308
vity▁309
▁environment▁310
▁reall▁311
▁explore▁312
▁hear▁313
▁giant▁314
▁squid▁315
▁approximate▁316
▁140▁317
▁160▁318
▁underst▁319
ood▁320
DG▁321
▁an▁322
other▁323
oc▁324
top▁325
od▁326
▁can▁327
▁actual▁328
▁through▁329
▁his▁330
▁head▁331
▁he▁332
▁flap▁333
ping▁334
▁ears▁335
▁graceful▁336
▁go▁337
▁couple▁338
ches▁339
▁right▁340
▁their▁341
▁window▁342
▁peek▁343
▁inside▁344
▁sub▁345
in▁346
▁case▁347
▁pass▁348
▁mid▁349
ocean▁350
▁under▁351
sea▁352
r▁353
oo▁354
ster▁355
▁guy▁356
incredibly▁357
▁formal▁358
▁then▁359
▁face▁360
!▁361
▁basic▁362
ally▁363
▁scientific▁364
▁data▁365
▁foot▁366
age▁367
▁collect▁368
▁purpose▁369
▁doing▁370
▁provid▁371
▁scientists▁372
▁view▁373
▁belong▁374
▁don▁375
▁catch▁376
▁net▁377
▁joystick▁378
▁sit▁379
▁computer▁380
▁press▁381
▁forward▁382
▁fly▁383
▁40,000▁384
mile▁385
▁top▁386
▁mile▁387
▁half▁388
▁over▁389
▁Atlantic▁390
▁across▁391
▁Ca▁392
ribbe▁393
an▁394
Central▁395
▁America▁396
▁end▁397
against▁398
▁Pacific▁399
▁nine▁400
▁degree▁401
▁north▁402
▁maps▁403
▁sound▁404
ar▁405
▁coming▁406
▁cliff▁407
▁height▁408
▁mountains▁409
either▁410
er▁411
▁Alp▁412
▁tens▁413
▁thousand▁414
▁mappe▁415
ting▁416
▁further▁417
▁eventually▁418
▁icon▁419
▁robot▁420
▁Ja▁421
son▁422
▁call▁423
▁room▁424
▁headset▁425
▁drive▁426
▁time▁427
▁try▁428
▁do▁429
▁Wood▁430
▁Hole▁431
▁partners▁432
▁bring▁433
▁virtual▁434
▁region▁435
▁back▁436
▁laboratory▁437
▁bit▁438
▁piece▁439
▁now▁440
▁photographs▁441
▁chemical▁442
▁sensor▁443
▁never▁444
▁interesting▁445
▁picture▁446
▁shine▁447
▁hydrothermal▁448
▁vent▁449
▁seeing▁450
▁cloud▁451
▁dense▁452
▁pack▁453
▁hydrogen▁454
ul▁455
fi▁456
de▁457
rich▁458
▁axis▁459
▁floor▁460
▁600▁461
▁700▁462
▁F▁463
where▁464
▁kne▁465
▁was▁466
▁60▁467
▁70▁468
▁had▁469
▁hint▁470
▁along▁471
ism▁472
▁crack▁473
▁contact▁474
▁mag▁475
ma▁476
▁shooting▁477
▁hot▁478
▁were▁479
▁aware▁480
▁would▁481
▁rich▁482
▁sulfide▁483
▁did▁484
▁which▁485
▁chimney▁486
▁six▁487
▁hundred▁488
▁setting▁489
▁dramatic▁490
▁BL▁491
▁white▁492
▁material▁493
▁type▁494
▁bacteria▁495
▁thrive▁496
▁180▁497
▁C▁498
.▁499
▁thing▁500
▁after▁501
▁erupt▁502
ion▁503
▁start▁504
▁wonder▁505
▁find▁506
▁probabl▁507
genesis▁508
▁activit▁509
▁support▁510
▁colonies▁511
▁pressure▁512
▁4,000▁513
▁pounds▁514
▁per▁515
▁square▁516
ch▁517
▁surface▁518
▁sun▁519
ten▁520
▁energy▁521
▁forms▁522
▁chemo▁523
thesis▁524
▁population▁525
▁tube▁526
▁worm▁527
▁digest▁528
ive▁529
▁system▁530
▁mouth▁531
gill▁532
▁structure▁533
▁extract▁534
▁oxygen▁535
▁house▁536
ynthetic▁537
▁fluid▁538
▁saw▁539
▁convert▁540
▁simple▁541
▁sugar▁542
▁crab▁543
▁lives▁544
▁manage▁545
▁grab▁546
▁tip▁547
▁normal▁548
▁retrac▁549
▁soon▁550
▁touche▁551
▁Oh▁552
▁good▁553
▁shell▁554
▁just▁555
▁your▁556
▁fingernail▁557
▁whole▁558
▁being▁559
▁play▁560
▁beginning▁561
▁temperature▁562
▁extreme▁563
▁hand▁564
▁boil▁565
▁freez▁566
▁female▁567
▁male▁568
▁watch▁569
▁does▁570
▁before▁571
▁will▁572
▁fight▁573
▁everything▁574
▁pitch▁575
▁black▁576
▁except▁577
▁last▁578
▁dive▁579
▁series▁580
▁count▁581
▁species▁582
▁areas▁583
▁198▁584
▁problems▁585
▁biologist▁586
▁sites▁587
▁ra▁588
ther▁589
▁difficult▁590
▁disintegrat▁591
▁imager▁592
▁critical▁593
▁science▁594
▁amaze▁595
▁me▁596
▁enough▁597
▁crush▁598
▁empty▁599
▁Pepsi▁600
▁till▁601
▁shrimp▁602
▁harass▁603
▁poor▁604
▁bat▁605
▁away▁606
▁claw▁607
▁whack▁608
▁same▁609
▁food▁610
st▁611
uff▁612
▁strange▁613
▁harvest▁614
▁filament▁615
▁create▁616
▁product▁617
▁grow▁618
▁hair▁619
▁again▁620
▁red▁621
▁dot▁622
▁laser▁623
▁far▁624
▁cl▁625
▁rock▁626
▁scrap▁627
▁off▁628
tiny▁629
▁pillar▁630
▁several▁631
▁alien▁632
▁landscape▁633
▁spring▁634
▁inhabit▁635
▁ground▁636
▁need▁637
▁V▁638
shape▁639
▁mark▁640
en▁641
▁organ▁642
▁emitt▁643
▁body▁644
▁radiation▁645
R▁646
▁signature▁647
▁able▁648
▁consider▁649
able▁650
▁distance▁651
▁happening▁652
▁ribbon▁653
day▁654
▁speak▁655
▁generate▁656
▁tried▁657
▁place▁658
▁high▁659
▁definition▁660
▁tall▁661
▁lot▁662
▁funny▁663
▁plate▁664
▁homes▁665
▁close▁666
▁community▁667
▁smaller▁668
▁crawl▁669
▁p▁670
ago▁671
da▁672
▁neat▁673
look▁674
▁sitt▁675
▁smok▁676
▁hell▁677
▁permit▁678
▁dump▁679
▁unbelievabl▁680
▁sulfur▁681
▁acid▁682
▁rate▁683
▁thriv▁684
▁came▁685
▁evolv▁686
▁talk▁687
▁form▁688
▁found▁689
▁number▁690
▁group▁691
propos▁692
▁al▁693
though▁694
▁short▁695
liv▁696
▁site▁697
▁may▁698
▁10▁699
▁years▁700
▁ecosystem▁701
▁st▁702
▁million▁703
▁well▁704
▁billion▁705
▁works▁706
▁too▁707
▁wait▁708
▁stick▁709
▁canno▁710
▁explain▁711
▁why▁712
▁active▁713
▁week▁714
ready▁715
▁human▁716
▁perspective▁717
blood▁718
▁plumb▁719
▁every▁720
▁year▁721
▁move▁722
▁order▁723
▁five▁724
▁completely▁725
▁wipe▁726
▁area▁727
▁des▁728
pite▁729
ities▁730
▁sensitive▁731
▁yes▁732
▁fragile▁733
▁saying▁734
▁sediment▁735
▁rocks▁736
▁history▁737
▁cycle▁738
▁rhythm▁739
▁continent▁740
▁apart▁741
▁glacier▁742
▁El▁743
▁Nino▁744
▁disaster▁745
▁learning▁746
▁almost▁747
▁symphon▁748
▁music▁749
▁listen▁750
billion▁751
year▁752
▁say▁753
▁Stop▁754
▁tomorrow▁755
▁note▁756
▁absurd▁757
▁learn▁758
▁work▁759
▁concept▁760
▁preserv▁761
ation▁762
▁fu▁763
til▁764
▁conservation▁765
▁tough▁766
▁thank▁767
▁Steve▁768
▁K▁769
eil▁770
▁manifest▁771
o▁772
▁Bulgaria▁773
▁beyond▁774
▁serious▁775
▁meme▁776
▁infect▁777
▁home▁778
▁return▁779
▁revitaliz▁780
▁economy▁781
▁education▁782
▁society▁783
▁sparkl▁784
▁universal▁785
▁message▁786
▁everywhere▁787
▁who▁788
▁reinvent▁789
▁workplace▁790
▁schools▁791
▁revolution▁792
▁arms▁793
▁break▁794
▁song▁795
▁pick▁796
▁color▁797
▁define▁798
▁mean▁799
▁drastic▁800
reach▁801
▁change▁802
▁behave▁803
▁;▁804
▁makes▁805
▁sad▁806
▁sick▁807
▁tired▁808
▁know▁809
▁living▁810
▁potential▁811
▁many▁812
▁example▁813
▁social▁814
▁factor▁815
▁Europe▁816
▁innovation▁817
▁culture▁818
▁value▁819
▁health▁820
▁care▁821
▁important▁822
▁sense▁823
being▁824
▁E▁825
U▁826
▁worst▁827
▁weeks▁828
▁ago▁829
▁Economi▁830
▁relative▁831
▁G▁832
DP▁833
▁capita▁834
▁let▁835
▁rank▁836
▁report▁837
▁OECD▁838
▁reading▁839
▁math▁840
▁business▁841
▁lowest▁842
▁perception▁843
▁entrepreneurs▁844
▁provide▁845
▁benefit▁846
▁result▁847
▁happens▁848
▁percentage▁849
body▁850
▁small▁851
▁engine▁852
▁economies▁853
▁hire▁854
▁taxe▁855
▁broken▁856
▁guess▁857
▁surprise▁858
▁62▁859
▁optimistic▁860
▁future▁861
▁unhapp▁862
▁bad▁863
▁tale▁864
believe▁865
▁conspirac▁866
▁should▁867
▁clear▁868
▁operat▁869
▁behav▁870
▁transform▁871
▁better▁872
▁ourselves▁873
▁friends▁874
▁family▁875
▁happen▁876
▁positive▁877
▁handicap▁878
▁holding▁879
▁forgot▁880
▁babies▁881
▁kids▁882
▁adult▁883
▁de▁884
value▁885
▁45▁886
com▁887
un▁888
▁valu▁889
▁state▁890
▁squash▁891
▁inadvertent▁892
▁creativity▁893
▁self▁894
expression▁895
▁instead▁896
▁apply▁897
▁knowledge▁898
▁affect▁899
▁institutional▁900
▁context▁901
ld▁902
▁times▁903
▁sc▁904
old▁905
▁park▁906
▁heaven▁907
▁forbid▁908
▁dirt▁909
▁k▁910
▁worse▁911
▁lo▁912
k▁913
vi▁914
▁kill▁915
▁b▁916
aba▁917
▁d▁918
ad▁919
os▁920
▁train▁921
ness▁922
▁runn▁923
▁gene▁924
▁step▁925
▁woman▁926
▁baby▁927
kam▁928
▁W▁929
oohoo▁930
▁career▁931
▁coffee▁932
b▁933
ko▁934
▁remember▁935
▁she▁936
▁passe▁937
▁virus▁938
wood▁939
▁trees▁940
▁antiqu▁941
ated▁942
▁100▁943
▁values▁944
▁rote▁945
▁memor▁946
ization▁947
▁standard▁948
xploration▁949
▁question▁950
▁crap▁951
went▁952
▁kid▁953
▁prestig▁954
ious▁955
▁study▁956
▁eight▁957
▁day▁958
▁Well▁959
▁recess▁960
▁Ha▁961
▁won▁962
▁single▁963
▁schedule▁964
▁He▁965
▁crime▁966
▁creating▁967
▁mind▁968
less▁969
▁robotic▁970
▁workers▁971
▁bolt▁972
▁pre▁973
ri▁974
▁hole▁975
rry▁976
▁Industrial▁977
▁Revolution▁978
▁adapt▁979
ability▁980
▁creative▁981
▁innovative▁982
chan▁983
ized▁984
▁treat▁985
▁asset▁986
▁lever▁987
▁throw▁988
▁qualit▁989
▁auto▁990
c▁991
rat▁992
▁chef▁993
▁boss▁994
rus▁995
▁obvious▁996
▁criminal▁997
▁install▁998
▁controll▁999
▁idiot▁1000
▁z▁1001
illion▁1002
▁process▁1003
▁follow▁1004
▁restrict▁1005
▁mobile▁1006
▁phone▁1007
▁laptop▁1008
▁search▁1009
▁Internet▁1010
M▁1011
how▁1012
professional▁1013
ful▁1014
fill▁1015
▁fun▁1016
▁That▁1017
▁ridiculous▁1018
▁dumb▁1019
▁stupid▁1020
▁prove▁1021
▁next▁1022
▁speech▁1023
▁catalyst▁1024
▁brains▁1025
▁hardwir▁1026
▁evolution▁1027
▁select▁1028
▁humans▁1029
▁job▁1030
elect▁1031
▁traits▁1032
▁advantage▁1033
ous▁1034
▁competitive▁1035
▁nature▁1036
out▁1037
▁kingdom▁1038
be▁1039
▁dynamic▁1040
▁rats▁1041
▁might▁1042
▁known▁1043
▁more▁1044
▁bigge▁1045
▁task▁1046
▁skills▁1047
▁kitten▁1048
▁depriv▁1049
▁interact▁1050
▁socially▁1051
▁still▁1052
▁hunt▁1053
▁bear▁1054
▁survive▁1055
▁longer▁1056
▁final▁1057
▁correlation▁1058
▁between▁1059
▁brain▁1060
▁dolphin▁1061
▁prett▁1062
▁players▁1063
▁tru▁1064
▁national▁1065
ity▁1066
▁race▁1067
▁religion▁1068
▁cool▁1069
▁term▁1070
▁neo▁1071
▁re▁1072
tion▁1073
▁juvenile▁1074
ists▁1075
▁sports▁1076
▁Olympia▁1077
▁professional▁1078
▁musical▁1079
▁instrument▁1080
▁dance▁1081
▁kiss▁1082
▁sing▁1083
of▁1084
▁design▁1085
▁birth▁1086
▁old▁1087
▁age▁1088
▁continuous▁1089
▁stop▁1090
▁huge▁1091
▁stimulate▁1092
▁neural▁1093
▁growth▁1094
▁am▁1095
gdal▁1096
a▁1097
▁control▁1098
▁emotions▁1099
▁promote▁1100
frontal▁1101
cortex▁1102
▁development▁1103
▁cogniti▁1104
on▁1105
▁emotional▁1106
▁mat▁1107
ur▁1108
▁decision▁1109
making▁1110
▁fiction▁1111
▁cold▁1112
▁hard▁1113
▁genetic▁1114
right▁1115
▁walk▁1116
▁speaking▁1117
▁hold▁1118
▁exercise▁1119
▁second▁1120
▁imagine▁1121
▁without▁1122
▁theater▁1123
▁arts▁1124
▁danc▁1125
▁soccer▁1126
▁football▁1127
▁laughter▁1128
ble▁1129
ak▁1130
▁glu▁1131
▁playful▁1132
▁opposite▁1133
▁feel▁1134
▁guilt▁1135
▁colleague▁1136
▁laughing▁1137
▁must▁1138
▁hide▁1139
▁news▁1140
▁backward▁1141
▁depression▁1142
▁improve▁1143
▁increase▁1144
▁open▁1145
▁mastery▁1146
▁key▁1147
▁motivation▁1148
ivity▁1149
▁fr▁1150
iv▁1151
ol▁1152
▁athlete▁1153
▁ski▁1154
▁groove▁1155
▁flow▁1156
▁doctor▁1157
▁medicine▁1158
▁feeling▁1159
▁celebrat▁1160
▁quick▁1161
▁corporate▁1162
▁FedEx▁1163
▁easy▁1164
otto▁1165
▁service▁1166
▁profit▁1167
▁happi▁1168
▁fulfill▁1169
▁customer▁1170
▁dealing▁1171
▁happy▁1172
▁decisions▁1173
fee▁1174
ling▁1175
▁buy▁1176
▁lead▁1177
▁decrease▁1178
▁Ge▁1179
▁Unite▁1180
▁State▁1181
▁reason▁1182
▁nothing▁1183
▁weird▁1184
▁beside▁1185
▁kick▁1186
▁Sc▁1187
ian▁1188
▁zero▁1189
▁refer▁1190
▁ask▁1191
▁marginal▁1192
▁stakeholders▁1193
▁improv▁1194
▁transparency▁1195
▁promot▁1196
direct▁1197
▁collaboration▁1198
▁encouraging▁1199
acy▁1200
▁results▁1201
focus▁1202
▁morning▁1203
▁leave▁1204
▁team▁1205
▁organize▁1206
▁o▁1207
clock▁1208
▁sounds▁1209
▁slow▁1210
▁referr▁1211
▁above▁1212
▁industry▁1213
▁enter▁1214
▁best▁1215
▁employer▁1216
▁independent▁1217
▁analysis▁1218
▁anonymous▁1219
▁employee▁1220
▁survey▁1221
▁own▁1222
▁mentality▁1223
▁steps▁1224
▁finish▁1225
▁believe▁1226
▁rediscover▁1227
ever▁1228
▁used▁1229
▁enjoy▁1230
▁months▁1231
▁promotion▁1232
▁bi▁1233
king▁1234
▁book▁1235
▁game▁1236
▁leaders▁1237
▁thought▁1238
ig▁1239
ite▁1240
▁fire▁1241
▁Hey▁1242
▁trust▁1243
▁empower▁1244
leg▁1245
ate▁1246
▁level▁1247
▁encourage▁1248
▁constructive▁1249
▁criticism▁1250
▁challenge▁1251
▁authorit▁1252
▁challeng▁1253
▁always▁1254
▁done▁1255
▁rut▁1256
▁solutions▁1257
▁eradicate▁1258
▁fear▁1259
▁enem▁1260
▁eliminate▁1261
▁restriction▁1262
▁personal▁1263
▁instant▁1264
▁messenger▁1265
▁lunch▁1266
cha▁1267
ge▁1268
▁meet▁1269
▁beer▁1270
▁synerg▁1271
▁ideas▁1272
▁freedom▁1273
▁general▁1274
▁spend▁1275
▁supposed▁1276
▁miserable▁1277
▁grind▁1278
▁20▁1279
▁wake▁1280
▁unacceptabl▁1281
▁Ne▁1282
pri▁1283
em▁1284
▁summar▁1285
▁uprising▁1286
▁seriously▁1287
▁fan▁1288
▁flame▁1289
▁share▁1290
▁success▁1291
▁worked▁1292
▁rein▁1293
vig▁1294
or▁1295
ating▁1296
▁promise▁1297
ment▁1298
▁ultimate▁1299
▁meaning▁1300
▁alone▁1301
▁Andrea▁1302
▁Schl▁1303
icher▁1304
▁build▁1305
▁measure▁1306
▁walks▁1307
▁PISA▁1308
▁test▁1309
▁global▁1310
▁measurement▁1311
▁countries▁1312
▁country▁1313
▁stack▁1314
▁systems▁1315
perform▁1316
▁radical▁1317
▁distant▁1318
▁field▁1319
▁such▁1320
▁figur▁1321
▁15-▁1322
olds▁1323
▁international▁1324
▁comparison▁1325
▁globaliz▁1326
▁usual▁1327
▁Look▁1328
▁looked▁1329
▁1960▁1330
▁proportion▁1331
▁complete▁1332
head▁1333
one▁1334
▁else▁1335
▁economic▁1336
▁draw▁1337
stand▁1338
▁1970▁1339
▁c▁1340
aught▁1341
▁1980▁1342
▁expansion▁1343
▁talent▁1344
▁pool▁1345
▁continue▁1346
▁1990▁1347
▁U▁1348
S▁1349
▁90▁1350
▁13▁1351
th▁1352
▁fallen▁1353
▁rise▁1354
▁faster▁1355
▁Korea▁1356
▁shows▁1357
▁possible▁1358
▁generations▁1359
▁Afghanistan▁1360
▁performer▁1361
▁young▁1362
▁Korean▁1363
▁improvement▁1364
▁benchmark▁1365
▁perform▁1366
▁trouble▁1367
▁measur▁1368
▁mix▁1369
▁unemploy▁1370
▁graduate▁1371
▁streets▁1372
▁while▁1373
▁automatic▁1374
▁translate▁1375
▁jobs▁1376
▁direct▁1377
ok▁1378
▁angle▁1379
▁less▁1380
▁interest▁1381
▁whe▁1382
▁student▁1383
▁simpl▁1384
▁reproduce▁1385
▁extra▁1386
pol▁1387
▁novel▁1388
▁situations▁1389
▁criticize▁1390
▁outcome▁1391
▁terribl▁1392
▁unfair▁1393
▁logic▁1394
▁prepared▁1395
▁technologies▁1396
▁invent▁1397
▁solve▁1398
▁anticipate▁1399
▁once▁1400
▁contest▁1401
▁late▁1402
▁assessment▁1403
▁2009▁1404
▁74▁1405
▁cover▁1406
▁87▁1407
▁chart▁1408
▁performance▁1409
▁below▁1410
▁yellow▁1411
so▁1412
▁green▁1413
▁Shanghai▁1414
▁Singapore▁1415
▁Asia▁1416
▁Fin▁1417
land▁1418
▁Canad▁1419
▁North▁1420
▁Chile▁1421
▁gap▁1422
▁seven▁1423
▁include▁1424
▁difference▁1425
▁introduce▁1426
▁dimension▁1427
▁educator▁1428
▁equit▁1429
▁deliver▁1430
▁ensu▁1431
▁background▁1432
▁equal▁1433
▁chance▁1434
▁impact▁1435
▁strong▁1436
▁opportunities▁1437
▁unequal▁1438
▁distribute▁1439
▁children▁1440
▁waste▁1441
▁matters▁1442
▁born▁1443
▁upper▁1444
▁quad▁1445
ran▁1446
▁afford▁1447
▁large▁1448
▁disparit▁1449
▁debate▁1450
▁price▁1451
▁focus▁1452
▁accept▁1453
▁mediocr▁1454
▁combin▁1455
▁excellence▁1456
▁lesson▁1457
▁compromise▁1458
▁achieve▁1459
▁challenges▁1460
▁paradigm▁1461
▁main▁1462
▁since▁1463
▁policy▁1464
makers▁1465
▁researcher▁1466
▁behind▁1467
giving▁1468
▁bubble▁1469
▁proportional▁1470
▁amount▁1471
▁money▁1472
▁spen▁1473
▁quality▁1474
▁variation▁1475
▁among▁1476
▁Luxemb▁1477
urg▁1478
▁expensive▁1479
▁particular▁1480
▁similar▁1481
▁finding▁1482
▁divide▁1483
educate▁1484
▁badly▁1485
▁detail▁1486
▁wealth▁1487
▁pay▁1488
▁teacher▁1489
▁invest▁1490
▁teaching▁1491
▁profession▁1492
▁days▁1493
▁costs▁1494
▁least▁1495
▁teach▁1496
▁answer▁1497
▁classes▁1498
▁bar▁1499
▁driving▁1500
▁list▁1501
▁exact▁1502
▁parents▁1503
▁pleasant▁1504
▁class▁1505
▁paid▁1506
▁hours▁1507
▁anything▁1508
▁2000▁1509
▁iPod▁1510
▁35▁1511
▁yourself▁1512
▁bitter▁1513
▁impressive▁1514
▁German▁1515
▁feature▁1516
▁lower▁1517
▁disappoint▁1518
▁stunn▁1519
▁public▁1520
▁dominat▁1521
▁tax▁1522
▁issue▁1523
▁center▁1524
▁began▁1525
▁respond▁1526
▁federal▁1527
▁government▁1528
▁raise▁1529
▁investment▁1530
▁immigrant▁1531
▁disadvantage▁1532
▁optimiz▁1533
▁polici▁1534
▁belief▁1535
▁underly▁1536
▁traditional▁1537
▁women▁1538
▁neglect▁1539
▁responsibilit▁1540
▁sent▁1541
▁kindergarten▁1542
▁push▁1543
▁early▁1544
▁childhood▁1545
▁deem▁1546
▁pursue▁1547
▁socio▁1548
economic▁1549
▁line▁1550
▁later▁1551
▁taken▁1552
▁spectrum▁1553
▁concern▁1554
▁double▁1555
▁achiev▁1556
▁decade▁1557
▁bright▁1558
▁slight▁1559
▁direction▁1560
▁major▁1561
ha▁1562
▁Po▁1563
▁reduce▁1564
▁vari▁1565
▁Portugal▁1566
▁consol▁1567
id▁1568
▁fragment▁1569
▁H▁1570
ung▁1571
ary▁1572
▁complain▁1573
▁artifact▁1574
▁homogene▁1575
▁societies▁1576
▁conc▁1577
▁composition▁1578
▁practice▁1579
▁course▁1580
▁model▁1581
▁copy▁1582
▁past▁1583
ale▁1584
▁identifie▁1585
▁agree▁1586
▁weigh▁1587
▁priorit▁1588
▁highly▁1589
▁skill▁1590
▁child▁1591
▁lawyer▁1592
▁media▁1593
▁questions▁1594
▁convince▁1595
▁citizens▁1596
▁choice▁1597
▁consumption▁1598
▁attractive▁1599
▁shopp▁1600
▁plac▁1601
▁cap▁1602
▁segregat▁1603
▁reflect▁1604
class▁1605
▁link▁1606
▁Japan▁1607
▁expect▁1608
▁succeed▁1609
▁mirror▁1610
▁behavior▁1611
▁mathematics▁1612
▁typically▁1613
▁genius▁1614
▁Japanese▁1615
▁depend▁1616
▁effort▁1617
▁ways▁1618
▁embrace▁1619
diversity▁1620
▁differentiate▁1621
ical▁1622
▁realize▁1623
▁ordinar▁1624
▁extraordinar▁1625
▁personaliz▁1626
▁ambitio▁1627
▁entire▁1628
▁require▁1629
▁successful▁1630
▁exceed▁1631
▁careful▁1632
▁recruit▁1633
▁struggl▁1634
▁frame▁1635
▁intelligent▁1636
▁pathway▁1637
bureaucratic▁1638
▁often▁1639
▁left▁1640
▁classroom▁1641
▁prescription▁1642
▁set▁1643
▁enable▁1644
▁figure▁1645
▁wisdom▁1646
▁user▁1647
generat▁1648
▁administrative▁1649
▁account▁1650
▁organization▁1651
▁goal▁1652
▁comp▁1653
li▁1654
ance▁1655
▁principal▁1656
ventive▁1657
▁provision▁1658
▁outward▁1659
▁resource▁1660
▁align▁1661
coherent▁1662
▁sustain▁1663
▁period▁1664
▁ensure▁1665
▁consistent▁1666
▁implement▁1667
▁knowing▁1668
▁limits▁1669
▁research▁1670
▁venture▁1671
▁telling▁1672
▁strength▁1673
▁powerful▁1674
▁financial▁1675
▁subsid▁1676
▁run▁1677
▁argue▁1678
▁changing▁1679
▁educational▁1680
▁administration▁1681
▁grave▁1682
ard▁1683
▁rely▁1684
▁excuse▁1685
▁complacen▁1686
▁meaningful▁1687
▁target▁1688
▁measurabl▁1689
▁goals▁1690
▁parent▁1691
▁sky▁1692
▁limit▁1693
▁laid▁1694
▁foundation▁1695
▁Morton▁1696
▁Bast▁1697
▁Rachel▁1698
▁Pik▁1699
▁climate▁1700
▁headline▁1701
▁4▁1702
▁minutes▁1703
▁atmospher▁1704
▁chemist▁1705
▁glimpse▁1706
▁massive▁1707
▁bold▁1708
▁her▁1709
▁contribute▁1710
taking▁1711
▁risk▁1712
▁flight▁1713
▁pursui▁1714
▁molecule▁1715
▁paper▁1716
▁air▁1717
mog▁1718
▁both▁1719
▁branches▁1720
▁recently▁1721
▁Inter▁1722
government▁1723
▁Panel▁1724
▁Climate▁1725
▁Ch▁1726
ange▁1727
P▁1728
C▁1729
▁understanding▁1730
▁writ▁1731
▁6▁1732
20▁1733
▁40▁1734
▁wrote▁1735
▁page▁1736
▁topic▁1737
▁review▁1738
▁400▁1739
plus▁1740
▁11▁1741
3▁1742
▁annual▁1743
▁gathering▁1744
▁meeting▁1745
▁15▁1746
,000▁1747
▁San▁1748
▁Francisco▁1749
▁studies▁1750
▁wide▁1751
▁variet▁1752
▁Cambridge▁1753
▁Ni▁1754
ñ▁1755
▁oscill▁1756
▁weather▁1757
imi▁1758
l▁1759
▁satellite▁1760
▁emissions▁1761
▁crop▁1762
▁produce▁1763
▁biofuel▁1764
▁each▁1765
▁Ph▁1766
D▁1767
▁narrow▁1768
▁few▁1769
op▁1770
ne▁1771
▁organic▁1772
▁heard▁1773
▁weight▁1774
▁900▁1775
ze▁1776
ta▁1777
▁21▁1778
▁atmosphere▁1779
thane▁1780
▁length▁1781
▁blow▁1782
▁EU▁1783
HO▁1784
E▁1785
▁S▁1786
▁Chamb▁1787
▁Spa▁1788
▁explosion▁1789
▁full▁1790
▁combusti▁1791
▁car▁1792
▁enormous▁1793
▁models▁1794
▁supercomputer▁1795
▁grid▁1796
▁boxes▁1797
▁calculating▁1798
▁variable▁1799
▁minute▁1800
scale▁1801
▁integration▁1802
▁dozen▁1803
▁understand▁1804
▁join▁1805
▁campaign▁1806
▁Malaysia▁1807
ow▁1808
▁middle▁1809
▁hung▁1810
▁dollars▁1811
▁worth▁1812
▁equip▁1813
▁tower▁1814
rought▁1815
▁aircraft▁1816
▁plane▁1817
▁B▁1818
A▁1819
14▁1820
6▁1821
▁FAA▁1822
▁flies▁1823
▁120▁1824
▁130▁1825
▁flying▁1826
▁meter▁1827
▁canopy▁1828
▁dangerous▁1829
▁inclin▁1830
▁military▁1831
▁pilot▁1832
▁maneuver▁1833
▁bank▁1834
▁force▁1835
▁harness▁1836
▁board▁1837
▁vacation▁1838
▁chemistr▁1839
▁write▁1840
▁subject▁1841
section▁1842
ub▁1843
▁chapter▁1844
▁ten▁1845
▁tag▁1846
▁non▁1847
cientific▁1848
▁audience▁1849
▁journalist▁1850
▁makers▁1851
▁Christopher▁1852
Charm▁1853
▁neuroscientist▁1854
▁inventor▁1855
▁demonstrate▁1856
▁fMRI▁1857
▁pain▁1858
▁words▁1859
▁Hi▁1860
▁royal▁1861
▁mimic▁1862
▁program▁1863
▁muscle▁1864
▁arm▁1865
▁lab▁1866
▁generation▁1867
▁possibilit▁1868
▁envision▁1869
▁spaceship▁1870
▁shrink▁1871
▁inject▁1872
▁bloodstream▁1873
▁attack▁1874
▁blood▁1875
▁cells▁1876
▁arteries▁1877
▁Peter▁1878
invasive▁1879
▁MRI▁1880
▁anatomy▁1881
▁literally▁1882
▁moves▁1883
▁spot▁1884
▁interface▁1885
▁function▁1886
▁electrode▁1887
▁imag▁1888
▁scanner▁1889
▁collapse▁1890
▁millisecond▁1891
▁allow▁1892
▁65▁1893
▁point▁1894
▁activation▁1895
▁pattern▁1896
▁therapist▁1897
▁couch▁1898
▁pill▁1899
▁knife▁1900
▁fourth▁1901
▁alternative▁1902
▁channel▁1903
▁minds▁1904
▁chronic▁1905
▁burn▁1906
▁pull▁1907
▁circuits▁1908
▁produc▁1909
▁3▁1910
▁information▁1911
▁flex▁1912
ep▁1913
▁patient▁1914
▁shock▁1915
▁person▁1916
▁release▁1917
ogen▁1918
pi▁1919
▁display▁1920
▁investigation▁1921
▁clinical▁1922
▁trial▁1923
▁44▁1924
▁64▁1925
▁Matrix▁1926
▁aspect▁1927
▁experience▁1928
▁Bee▁1929
ba▁1930
▁Kid▁1931
ro▁1932
▁shared▁1933
▁film▁1934
▁movie▁1935
▁power▁1936
▁narrative▁1937
▁shape▁1938
▁worldview▁1939
▁British▁1940
▁director▁1941
▁invoke▁1942
▁scene▁1943
▁Mir▁1944
le▁1945
▁Milan▁1946
▁Boy▁1947
z▁1948
▁Hoo▁1949
▁FILMCLUB▁1950
▁films▁1951
▁evidence▁1952
▁suggest▁1953
▁cultures▁1954
▁identit▁1955
▁mother▁1956
▁daughter▁1957
▁preach▁1958
▁con▁1959
gan▁1960
▁pupil▁1961
▁storyteller▁1962
▁cave▁1963
▁paintings▁1964
▁histories▁1965
▁parable▁1966
▁f▁1967
te▁1968
rate▁1969
▁increasing▁1970
▁secular▁1971
▁offer▁1972
▁communal▁1973
media▁1974
▁furious▁1975
▁consumer▁1976
▁moral▁1977
▁code▁1978
▁im▁1979
part▁1980
▁cinema▁1981
▁argu▁1982
ably▁1983
▁century▁1984
▁influen▁1985
tial▁1986
▁art▁1987
▁artist▁1988
▁boundar▁1989
▁language▁1990
▁ge▁1991
▁philosoph▁1992
deed▁1993
▁tackle▁1994
▁during▁1995
▁vast▁1996
▁Hollywood▁1997
▁block▁1998
buster▁1999
▁die▁2000
▁sensation▁2001
▁king▁2002
▁common▁2003
ified▁2004
▁filmmaker▁2005
▁worrie▁2006
▁God▁2007
▁grasp▁2008
▁iron▁2009
▁palpabl▁2010
▁technical▁2011
▁access▁2012
▁cultural▁2013
aker▁2014
▁2006▁2015
▁ran▁2016
▁screening▁2017
▁discussion▁2018
▁rest▁2019
▁rural▁2020
▁ham▁2021
let▁2022
▁project▁2023
▁DVD▁2024
▁onto▁2025
▁25▁2026
▁club▁2027
K▁2028
▁18▁2029
interrupt▁2030
▁curate▁2031
ual▁2032
▁gre▁2033
▁choose▁2034
▁riches▁2035
▁immediate▁2036
▁profound▁2037
▁transformative▁2038
▁discover▁2039
▁names▁2040
▁wish▁2041
▁195▁2042
1▁2043
▁Vi▁2044
tor▁2045
io▁2046
▁De▁2047
ica▁2048
▁remarkable▁2049
▁comment▁2050
▁slums▁2051
▁poverty▁2052
▁aspiration▁2053
▁occasion▁2054
▁father▁2055
▁50▁2056
▁birthday▁2057
▁meant▁2058
▁print▁2059
▁projection▁2060
ist▁2061
▁importan▁2062
ce▁2063
▁vision▁2064
▁chose▁2065
▁celebrate▁2066
century▁2067
▁teenage▁2068
▁30▁2069
▁hope▁2070
▁shot▁2071
▁slum▁2072
well▁2073
▁float▁2074
ward▁2075
room▁2076
▁Si▁2077
x▁2078
▁tilt▁2079
▁awe▁2080
▁match▁2081
▁mine▁2082
▁speed▁2083
▁associate▁2084
▁Slum▁2085
do▁2086
▁Million▁2087
air▁2088
▁favela▁2089
▁Rio▁2090
▁endur▁2091
▁season▁2092
▁democracy▁2093
▁screen▁2094
▁Mr▁2095
▁Smith▁2096
▁Go▁2097
▁Washington▁2098
▁193▁2099
9▁2100
▁older▁2101
▁members▁2102
▁grandparents▁2103
▁Frank▁2104
▁Cap▁2105
▁classic▁2106
▁independen▁2107
▁propriet▁2108
▁heroic▁2109
▁awkward▁2110
▁expression▁2111
▁faith▁2112
▁political▁2113
▁machine▁2114
▁honor▁2115
came▁2116
night▁2117
ili▁2118
▁House▁2119
▁Lord▁2120
▁delight▁2121
▁def▁2122
▁bed▁2123
time▁2124
▁principle▁2125
▁Jim▁2126
▁Stewart▁2127
el▁2128
▁choosing▁2129
▁Hotel▁2130
▁Rwanda▁2131
▁genocide▁2132
▁brutal▁2133
▁provoke▁2134
▁tear▁2135
ci▁2136
arm▁2137
▁peace▁2138
keep▁2139
▁Western▁2140
▁commoditi▁2141
▁Sch▁2142
ind▁2143
ler▁2144
▁Lis▁2145
▁demand▁2146
▁consciousness▁2147
▁remark▁2148
▁We▁2149
wise▁2150
pock▁2151
▁dis▁2152
f▁2153
ise▁2154
▁Sir▁2155
▁Love▁2156
it▁2157
▁attitude▁2158
▁toward▁2159
white▁2160
▁Brit▁2161
▁rail▁2162
▁collective▁2163
▁unlike▁2164
idney▁2165
iti▁2166
▁tut▁2167
lage▁2168
▁thoughtful▁2169
▁opinion▁2170
▁curious▁2171
▁tackl▁2172
▁subtitle▁2173
▁documentar▁2174
ative▁2175
▁fantasy▁2176
▁writing▁2177
▁compet▁2178
▁favor▁2179
▁passionate▁2180
▁sophisticated▁2181
▁pro▁2182
▁v▁2183
▁near▁2184
▁quarter▁2185
▁7,000▁2186
▁numbers▁2187
▁manner▁2188
▁held▁2189
▁Per▁2190
polis▁2191
▁Iranian▁2192
▁boy▁2193
▁articulate▁2194
▁violence▁2195
▁killed▁2196
▁latter▁2197
board▁2198
▁boat▁2199
▁journey▁2200
▁wrong▁2201
▁condition▁2202
▁hidden▁2203
▁tsunami▁2204
▁fle▁2205
▁themselves▁2206
unt▁2207
▁wonderful▁2208
▁bare▁2209
foot▁2210
▁Mountain▁2211
▁cop▁2212
▁robb▁2213
quite▁2214
▁194▁2215
8▁2216
▁sister▁2217
▁travel▁2218
▁Israel▁2219
▁sail▁2220
ors▁2221
mut▁2222
ini▁2223
▁teenager▁2224
▁fed▁2225
▁crew▁2226
▁mentioned▁2227
▁hurry▁2228
▁husband▁2229
▁diamond▁2230
▁sew▁2231
▁skirt▁2232
▁hid▁2233
▁grandfather▁2234
▁appear▁2235
▁London▁2236
▁h▁2237
ush▁2238
late▁2239
▁England▁2240
▁clean▁2241
▁slate▁2242
▁silence▁2243
▁Anne▁2244
▁Great▁2245
scape▁2246
▁Sho▁2247
ah▁2248
▁Triumph▁2249
▁Will▁2250
▁Len▁2251
i▁2252
▁Rie▁2253
fen▁2254
ahl▁2255
▁elegant▁2256
▁Nazi▁2257
ropaganda▁2258
▁gav▁2259
▁hurt▁2260
▁loud▁2261
▁useful▁2262
▁whisper▁2263
▁survivor▁2264
▁occasional▁2265
▁tattoo▁2266
▁maid▁2267
▁wrist▁2268
▁Pur▁2269
▁dissipate▁2270
▁quest▁2271
▁crude▁2272
▁complex▁2273
▁serve▁2274
▁drama▁2275
▁lie▁2276
▁12-▁2277
▁Wi▁2278
▁Oz▁2279
▁Every▁2280
▁unles▁2281
▁heart▁2282
▁passion▁2283
▁Citizen▁2284
▁Kan▁2285
▁valuable▁2286
▁Jane▁2287
▁Aust▁2288
▁brick▁2289
▁wall▁2290
▁okay▁2291
▁Tom▁2292
ank▁2293
▁astronaut▁2294
▁Ben▁2295
▁King▁2296
ley▁2297
▁super▁2298
impose▁2299
▁Gandhi▁2300
▁Eve▁2301
▁Har▁2302
ington▁2303
▁Howard▁2304
▁Be▁2305
▁Mil▁2306
▁Pier▁2307
▁opportunity▁2308
▁helpful▁2309
▁Shakespeare▁2310
▁illuminat▁2311
▁Elizabeth▁2312
literatur▁2313
▁engage▁2314
▁inspire▁2315
▁participat▁2316
▁foresee▁2317
▁confidence▁2318
▁academic▁2319
▁achievement▁2320
▁On▁2321
u▁2322
ant▁2323
▁playground▁2324
definition▁2325
▁ambition▁2326
▁appetit▁2327
▁engagement▁2328
▁witness▁2329
▁bin▁2330
▁description▁2331
▁describe▁2332
fer▁2333
▁nor▁2334
ically▁2335
absorb▁2336
▁negotiat▁2337
▁infinite▁2338
▁surprised▁2339
▁behaviors▁2340
▁tick▁2341
▁shoes▁2342
▁acquisition▁2343
▁essential▁2344
▁component▁2345
▁impossibl▁2346
▁Re▁2347
▁Wind▁2348
▁gaze▁2349
▁building▁2350
▁door▁2351
▁tools▁2352
▁Chat▁2353
ou▁2354
▁whistleblower▁2355
▁champion▁2356
▁whistle▁2357
▁whims▁2358
▁A▁2359
▁Ho▁2360
h▁2361
off▁2362
ê▁2363
▁la▁2364
▁Bell▁2365
▁fascinating▁2366
▁inter▁2367
lude▁2368
▁talks▁2369
▁him▁2370
▁craft▁2371
▁whistl▁2372
▁English▁2373
ubb▁2374
▁curl▁2375
hai▁2376
▁Holland▁2377
#▁2378
91▁2379
93;▁2380
▁four▁2381
▁dad▁2382
▁communication▁2383
▁34▁2384
▁annoy▁2385
▁irritat▁2386
▁honest▁2387
▁bike▁2388
▁Christmas▁2389
▁party▁2390
law▁2391
▁Ru▁2392
ph▁2393
▁Red▁2394
No▁2395
▁Rein▁2396
▁dinner▁2397
▁annoying▁2398
▁Pleas▁2399
▁wine▁2400
▁admit▁2401
▁receive▁2402
▁text▁2403
▁Google▁2404
▁World▁2405
▁Wh▁2406
Champion▁2407
ship▁2408
▁lost▁2409
▁correct▁2410
▁Dutch▁2411
▁Louis▁2412
burg▁2413
▁Carolina▁2414
outheast▁2415
▁championship▁2416
4▁2417
▁defend▁2418
▁title▁2419
ju▁2420
as▁2421
5▁2422
▁participate▁2423
▁2008▁2424
▁Tokyo▁2425
▁Rotterdam▁2426
▁city▁2427
▁stage▁2428
▁earn▁2429
▁quit▁2430
▁nurse▁2431
▁dream▁2432
▁Huh▁2433
▁track▁2434
▁80▁2435
▁rehearse▁2436
▁tone▁2437
▁promis▁2438
▁technician▁2439
▁ha▁2440
▁myself▁2441
▁solo▁2442
▁propose▁2443
▁Max▁2444
▁West▁2445
man▁2446
▁Shaw▁2447
▁dry▁2448
▁demo▁2449
▁demos▁2450
▁Ultra▁2451
ver▁2452
▁Dr▁2453
▁liquid▁2454
p▁2455
ellen▁2456
▁coat▁2457
▁act▁2458
▁astonishing▁2459
▁shield▁2460
base▁2461
▁materials▁2462
▁nano▁2463
▁spray▁2464
▁umbrella▁2465
▁bounce▁2466
minute▁2467
available▁2468
▁rethink▁2469
proof▁2470
der▁2471
▁nanotechnolog▁2472
▁applie▁2473
▁superhydrophobi▁2474
co▁2475
▁por▁2476
▁absorb▁2477
more▁2478
po▁2479
rous▁2480
▁drop▁2481
▁round▁2482
▁hydrophob▁2483
▁fresh▁2484
▁wax▁2485
▁windshield▁2486
▁110▁2487
▁175▁2488
▁demonstration▁2489
▁pair▁2490
▁glove▁2491
science▁2492
▁occurr▁2493
▁atoms▁2494
▁nanometer▁2495
▁nanoparticle▁2496
▁thick▁2497
▁50,000▁2498
▁wid▁2499
▁concrete▁2500
▁paint▁2501
▁mud▁2502
▁refine▁2503
▁oil▁2504
▁afr▁2505
aid▁2506
▁fill▁2507
▁rough▁2508
ragg▁2509
▁smooth▁2510
ti▁2511
▁spaces▁2512
▁reach▁2513
▁layer▁2514
▁hit▁2515
gli▁2516
des▁2517
▁silver▁2518
▁reflectiv▁2519
▁protect▁2520
▁touch▁2521
▁paddle▁2522
▁application▁2523
▁excited▁2524
▁anti▁2525
ett▁2526
▁certain▁2527
▁ice▁2528
osion▁2529
▁corrosi▁2530
bacterial▁2531
clean▁2532
▁revolutionize▁2533
▁Chris▁2534
▁Anderson▁2535
▁cutting▁2536
▁Design▁2537
▁...▁2538
▁manag▁2539
▁medical▁2540
▁Thu▁2541
Hu▁2542
ong▁2543
▁Dan▁2544
▁Ariel▁2545
▁bugg▁2546
▁behavioral▁2547
▁economist▁2548
▁bugs▁2549
▁OK▁2550
▁cheat▁2551
▁steal▁2552
▁clever▁2553
▁predictabl▁2554
▁irrational▁2555
▁influence▁2556
▁hospital▁2557
▁burned▁2558
▁bother▁2559
▁department▁2560
▁Band▁2561
Aid▁2562
▁approach▁2563
▁rip▁2564
▁duration▁2565
▁intens▁2566
▁painful▁2567
▁ripp▁2568
▁hour▁2569
▁hat▁2570
▁minimize▁2571
▁word▁2572
▁suggestion▁2573
▁interfere▁2574
▁Hebr▁2575
ew▁2576
kept▁2577
▁university▁2578
▁experimental▁2579
▁method▁2580
▁replica▁2581
▁abstract▁2582
▁examine▁2583
▁original▁2584
▁hardware▁2585
▁store▁2586
ought▁2587
▁carpenter▁2588
▁vice▁2589
▁finger▁2590
▁crunch▁2591
▁version▁2592
▁fund▁2593
▁electrical▁2594
▁suit▁2595
▁intention▁2596
▁plent▁2597
the▁2598
▁encode▁2599
▁legs▁2600
▁trend▁2601
up▁2602
▁mistakes▁2603
▁stock▁2604
▁market▁2605
▁situation▁2606
▁Enr▁2607
▁explode▁2608
▁sudden▁2609
▁apple▁2610
▁decided▁2611
▁experiment▁2612
▁sheet▁2613
▁Pass▁2614
▁dollar▁2615
▁tempt▁2616
▁pocket▁2617
▁backpack▁2618
▁theory▁2619
▁cost▁2620
benefit▁2621
▁probabilit▁2622
▁gain▁2623
▁punishment▁2624
▁option▁2625
▁decide▁2626
▁worthwhile▁2627
▁commit▁2628
▁cent▁2629
▁table▁2630
▁shredd▁2631
▁bowl▁2632
sensitive▁2633
▁incentive▁2634
▁rational▁2635
▁explanation▁2636
▁low▁2637
▁impression▁2638
▁initial▁2639
▁recall▁2640
▁books▁2641
▁read▁2642
▁Commandment▁2643
▁sample▁2644
▁religious▁2645
▁stopp▁2646
lar▁2647
▁atheist▁2648
▁swear▁2649
▁Bible▁2650
▁sign▁2651
▁falls▁2652
▁MIT▁2653
▁Honor▁2654
▁Code▁2655
▁decreas▁2656
▁walked▁2657
pack▁2658
▁Coke▁2659
▁refrigerator▁2660
grad▁2661
life▁2662
▁contrast▁2663
dollar▁2664
▁bill▁2665
▁disappear▁2666
▁third▁2667
▁Experiment▁2668
ken▁2669
▁12▁2670
▁exchange▁2671
▁intuition▁2672
▁pencil▁2673
▁compare▁2674
▁pet▁2675
▁cash▁2676
▁remove▁2677
▁element▁2678
▁examples▁2679
▁cause▁2680
paid▁2681
▁envelope▁2682
▁stoo▁2683
▁actor▁2684
▁sweat▁2685
shirt▁2686
▁wear▁2687
▁Carnegie▁2688
▁Mello▁2689
▁Pittsburgh▁2690
▁universit▁2691
▁University▁2692
Y▁2693
▁norm▁2694
▁somebod▁2695
group▁2696
▁appropriate▁2697
▁awareness▁2698
▁remind▁2699
▁moralit▁2700
▁object▁2701
▁reality▁2702
▁distort▁2703
▁derivative▁2704
▁mortgage▁2705
back▁2706
▁secur▁2707
▁economics▁2708
▁private▁2709
▁No▁2710
▁Child▁2711
▁Left▁2712
▁Behind▁2713
▁remov▁2714
ie▁2715
▁consideration▁2716
▁Of▁2717
▁repeated▁2718
▁torture▁2719
felt▁2720
▁Give▁2721
▁check▁2722
▁willing▁2723
▁systematic▁2724
▁experimentation▁2725
▁McG▁2726
▁multi▁2727
play▁2728
▁thumb▁2729
wrestl▁2730
▁connect▁2731
▁chaos▁2732
ultiplayer▁2733
▁player▁2734
▁joy▁2735
▁relief▁2736
▁pride▁2737
▁curiosity▁2738
▁excitement▁2739
▁content▁2740
▁span▁2741
▁volunteer▁2742
stage▁2743
▁Austria▁2744
▁named▁2745
▁Mo▁2746
noch▁2747
person▁2748
▁Sunni▁2749
▁declare▁2750
▁war▁2751
▁wrestle▁2752
▁beat▁2753
▁Eric▁2754
▁pin▁2755
▁someone▁2756
wo▁2757
▁Ah▁2758
▁rule▁2759
▁typical▁2760
▁node▁2761
▁notice▁2762
▁involve▁2763
▁perfect▁2764
▁closed▁2765
▁1,500▁2766
▁connected▁2767
▁-▁2768
▁Thi▁2769
▁slides▁2770
▁advance▁2771
▁configuration▁2772
▁D▁2773
eath▁2774
▁Star▁2775
▁Con▁2776
figur▁2777
▁War▁2778
▁M▁2779
ö▁2780
bi▁2781
trip▁2782
▁geek▁2783
▁hardest▁2784
▁thirty▁2785
▁network▁2786
▁easi▁2787
▁free▁2788
▁sure▁2789
▁keep▁2790
▁excellen▁2791
▁bask▁2792
▁glow▁2793
▁recap▁2794
▁What▁2795
▁surprising▁2796
while▁2797
▁physical▁2798
▁shake▁2799
▁smiling▁2800
▁send▁2801
▁messages▁2802
▁email▁2803
tally▁2804
▁awesome▁2805
▁connection▁2806
▁hormone▁2807
xytocin▁2808
▁bond▁2809
▁biochemical▁2810
▁prime▁2811
▁emotion▁2812
▁scratch▁2813
▁congratulat▁2814
▁according▁2815
▁official▁2816
▁rules▁2817
▁grandmaster▁2818
▁accelerate▁2819
▁ches▁2820
▁ready▁2821
▁update▁2822
▁Twitter▁2823
▁Facebook▁2824
▁status▁2825
▁legendar▁2826
▁attention▁2827
▁weak▁2828
▁crazy▁2829
▁wo▁2830
▁Tod▁2831
▁Mach▁2832
over▁2833
+▁2834
▁Ells▁2835
▁unlock▁2836
▁Media▁2837
▁Lab▁2838
▁devoted▁2839
▁extend▁2840
▁virtuo▁2841
▁amateur▁2842
▁diverse▁2843
▁opera▁2844
▁games▁2845
▁composer▁2846
▁deal▁2847
▁means▁2848
▁Mozart▁2849
▁effect▁2850
▁uter▁2851
Q▁2852
▁add▁2853
▁engaged▁2854
▁hyper▁2855
instrument▁2856
▁Ma▁2857
▁Gabriel▁2858
▁Prince▁2859
▁orchestra▁2860
▁built▁2861
▁interpretation▁2862
▁cell▁2863
▁voice▁2864
▁fantastic▁2865
▁collection▁2866
▁Brain▁2867
▁Opera▁2868
▁natural▁2869
▁gesture▁2870
▁masse▁2871
▁melod▁2872
ura▁2873
▁invite▁2874
▁collaborate▁2875
▁tour▁2876
▁permanent▁2877
▁Vienn▁2878
▁museum▁2879
▁led▁2880
▁guitar▁2881
▁Her▁2882
▁proof▁2883
▁iceberg▁2884
▁Guitar▁2885
▁communicate▁2886
▁effects▁2887
▁Hyper▁2888
▁broader▁2889
▁fields▁2890
▁Oliver▁2891
▁Sack▁2892
▁Music▁2893
phil▁2894
ia▁2895
▁sale▁2896
▁bookstore▁2897
▁pianist▁2898
self▁2899
▁details▁2900
▁observ▁2901
▁unusual▁2902
▁instance▁2903
▁Alzheimer▁2904
▁recognize▁2905
▁anyone▁2906
▁jump▁2907
▁chair▁2908
▁personalit▁2909
▁restore▁2910
▁stroke▁2911
▁movement▁2912
▁Parkinson▁2913
▁disease▁2914
▁schizophreni▁2915
▁Boston▁2916
wksb▁2917
ury▁2918
▁Hospital▁2919
term▁2920
▁mental▁2921
▁disabilit▁2922
▁central▁2923
▁treatment▁2924
▁clam▁2925
▁seem▁2926
▁brings▁2927
▁manipulat▁2928
▁paradoxical▁2929
▁nervous▁2930
sharing▁2931
haps▁2932
▁deeper▁2933
▁outside▁2934
▁Power▁2935
▁larger▁2936
▁man▁2937
▁forever▁2938
▁download▁2939
▁singer▁2940
▁character▁2941
▁leg▁2942
▁alive▁2943
▁giganti▁2944
handel▁2945
ier▁2946
▁prototype▁2947
▁piano▁2948
▁string▁2949
▁bow▁2950
▁propeller▁2951
▁tickle▁2952
▁acoustic▁2953
▁signals▁2954
▁vibrate▁2955
▁army▁2956
▁robots▁2957
ry▁2958
▁Simon▁2959
▁Greek▁2960
▁chorus▁2961
▁observe▁2962
▁action▁2963
Bot▁2964
▁smart▁2965
▁bump▁2966
▁snap▁2967
▁cube▁2968
▁System▁2969
▁walls▁2970
▁represent▁2971
▁LED▁2972
▁spine▁2973
▁James▁2974
▁Mad▁2975
dale▁2976
na▁2977
▁sneak▁2978
▁preview▁2979
▁premier▁2980
▁Mona▁2981
▁September▁2982
▁online▁2983
▁grand▁2984
cell▁2985
▁squeez▁2986
▁stay▁2987
▁Adam▁2988
lange▁2989
▁thanks▁2990
▁Bomba▁2991
▁Fl▁2992
ex▁2993
jet▁2994
▁resident▁2995
ray▁2996
▁motivate▁2997
▁hi▁2998
▁hello▁2999
▁name▁3000
erebral▁3001
▁pal▁3002
▁conduct▁3003
▁software▁3004
▁met▁3005
▁shy▁3006
▁constant▁3007
▁collaborator▁3008
▁CD▁3009
▁mentor▁3010
▁local▁3011
▁expert▁3012
▁nuance▁3013
▁precis▁3014
▁disability▁3015
▁engineering▁3016
▁solution▁3017
▁Fire▁3018
W▁3019
ire▁3020
▁infrar▁3021
▁metaphor▁3022
▁controller▁3023
▁input▁3024
▁cod▁3025
▁shoulder▁3026
▁extensive▁3027
▁expressive▁3028
▁motion▁3029
▁convey▁3030
▁parameter▁3031
▁fit▁3032
▁stretch▁3033
▁shift▁3034
▁express▁3035
▁relationship▁3036
▁lack▁3037
▁technological▁3038
▁sphere▁3039
▁path▁3040
▁TM▁3041
▁My▁3042
▁Eagle▁3043
▁Song▁3044
▁score▁3045
▁compose▁3046
▁fast▁3047
▁modest▁3048
▁section▁3049
▁bang▁3050
▁analyze▁3051
▁visual▁3052
▁literal▁3053
▁trac▁3054
▁graphic▁3055
▁precise▁3056
▁discipline▁3057
▁hearing▁3058
▁AB▁3059
▁yea▁3060
▁Byr▁3061
▁architecture▁3062
▁evolve▁3063
▁CB▁3064
G▁3065
B▁3066
▁Hall▁3067
venue▁3068
▁outdoor▁3069
▁drum▁3070
▁Wagner▁3071
▁arena▁3072
▁remarkabl▁3073
ev▁3074
▁Head▁3075
▁anyway▁3076
)▁3077
▁So▁3078
▁lyric▁3079
▁decent▁3080
▁reverberat▁3081
▁intact▁3082
▁To▁3083
ot▁3084
sie▁3085
▁Or▁3086
chi▁3087
▁Lo▁3088
▁Nash▁3089
ville▁3090
▁client▁3091
▁volume▁3092
▁overcom▁3093
▁fall▁3094
▁shout▁3095
▁nice▁3096
▁Disney▁3097
▁sometimes▁3098
▁hall▁3099
▁specific▁3100
▁Africa▁3101
▁popular▁3102
▁roots▁3103
▁intricate▁3104
▁confus▁3105
▁amplification▁3106
▁etc▁3107
▁accident▁3108
▁mess▁3109
▁cathedral▁3110
▁flatter▁3111
▁Bach▁3112
▁keys▁3113
▁dissonance▁3114
▁17▁3115
70▁3116
ber▁3117
il▁3118
▁La▁3119
▁Scal▁3120
7▁3121
▁yell▁3122
▁eat▁3123
▁drink▁3124
ria▁3125
▁hol▁3126
▁bomb▁3127
▁pit▁3128
▁fair▁3129
▁Alex▁3130
▁Ross▁3131
▁New▁3132
orker▁3133
▁quiet▁3134
▁eating▁3135
▁gossip▁3136
▁combine▁3137
▁drown▁3138
ural▁3139
▁Mahl▁3140
▁Bob▁3141
▁Dylan▁3142
▁jazz▁3143
▁Scott▁3144
▁Jo▁3145
plin▁3146
▁river▁3147
boat▁3148
▁nois▁3149
▁dancer▁3150
▁Play▁3151
▁improvise▁3152
▁Latin▁3153
▁primary▁3154
▁microphone▁3155
▁musician▁3156
▁radio▁3157
ina▁3158
tra▁3159
▁mic▁3160
▁Baker▁3161
▁ear▁3162
▁electric▁3163
▁diverge▁3164
▁disco▁3165
que▁3166
ke▁3167
box▁3168
▁bars▁3169
▁hip▁3170
hop▁3171
▁loop▁3172
▁stadium▁3173
basketball▁3174
▁hockey▁3175
▁medium▁3176
speed▁3177
▁ball▁3178
tempo▁3179
▁automobile▁3180
▁frequenc▁3181
▁bass▁3182
▁stuck▁3183
▁MP▁3184
▁presum▁3185
▁Christian▁3186
▁African▁3187
▁blast▁3188
▁passage▁3189
▁pop▁3190
▁exten▁3191
▁creation▁3192
▁adaptation▁3193
▁anywhere▁3194
▁Attenborough▁3195
▁birds▁3196
▁fo▁3197
tched▁3198
▁repetitive▁3199
▁forest▁3200
▁Sa▁3201
van▁3202
▁spa▁3203
row▁3204
▁buzz▁3205
▁efficient▁3206
▁practical▁3207
▁transmit▁3208
▁savanna▁3209
▁tan▁3210
ang▁3211
▁East▁3212
▁Coast▁3213
▁den▁3214
▁west▁3215
▁primari▁3216
▁galler▁3217
▁evolutionary▁3218
▁adaptive▁3219
▁pleasure▁3220
▁reverse▁3221
▁Roman▁3222
tic▁3223
▁vessel▁3224
▁pour▁3225
▁instinctive▁3226
▁intuitive▁3227
▁conflict▁3228
▁views▁3229
▁writer▁3230
▁Thom▁3231
▁voter▁3232
▁vote▁3233
▁assume▁3234
▁gut▁3235
▁authentic▁3236
▁fake▁3237
▁mutual▁3238
▁exclusive▁3239
▁needs▁3240
▁Ron▁3241
▁Ed▁3242
▁Iran▁3243
▁March▁3244
▁14▁3245
▁post▁3246
▁poster▁3247
▁image▁3248
▁Israeli▁3249
▁flag▁3250
▁grocer▁3251
▁owner▁3252
▁10,000▁3253
▁missile▁3254
▁designer▁3255
▁sleep▁3256
▁night▁3257
▁woke▁3258
▁w▁3259
aking▁3260
▁neighbor▁3261
▁girl▁3262
▁cry▁3263
▁wife▁3264
▁reflex▁3265
▁shoot▁3266
▁unleash▁3267
▁du▁3268
▁Make▁3269
▁intense▁3270
▁designers▁3271
▁lots▁3272
▁spread▁3273
way▁3274
▁verge▁3275
▁Middle▁3276
▁Okay▁3277
ich▁3278
▁asking▁3279
▁Who▁3280
nna▁3281
▁Palestine▁3282
▁Syria▁3283
▁Leban▁3284
▁Chinese▁3285
▁popped▁3286
▁logo▁3287
L▁3288
ov▁3289
Israel▁3290
ehran▁3291
▁dedicat▁3292
▁friend▁3293
typing▁3294
I▁3295
,8▁3296
▁photos▁3297
▁perceive▁3298
membran▁3299
▁soldier▁3300
▁putting▁3301
▁respect▁3302
▁compassion▁3303
▁Mu▁3304
position▁3305
▁France▁3306
▁arrive▁3307
▁stress▁3308
▁Not▁3309
▁plus▁3310
/▁3311
▁minus▁3312
▁aggressiv▁3313
▁amazing▁3314
▁41▁3315
▁naive▁3316
eah▁3317
▁flowers▁3318
▁para▁3319
tro▁3320
▁courage▁3321
▁inevitabl▁3322
▁avoid▁3323
▁es▁3324
pecial▁3325
▁ambassador▁3326
▁Charles▁3327
▁Moore▁3328
▁seas▁3329
▁plastic▁3330
gali▁3331
▁Marine▁3332
▁R▁3333
esearch▁3334
▁Foundation▁3335
▁Gar▁3336
▁Pat▁3337
▁endless▁3338
▁floating▁3339
▁trash▁3340
▁drawing▁3341
▁chok▁3342
▁debri▁3343
ounce▁3344
▁ethic▁3345
▁Depression▁3346
▁II▁3347
▁production▁3348
▁capacity▁3349
▁products▁3350
▁Magazine▁3351
▁announc▁3352
▁introduction▁3353
▁throwaway▁3354
▁liberat▁3355
wi▁3356
fe▁3357
▁dr▁3358
ud▁3359
ger▁3360
▁dishe▁3361
▁biodegrad▁3362
▁recycle▁3363
five▁3364
percent▁3365
▁recover▁3366
▁stream▁3367
point▁3368
qua▁3369
▁melt▁3370
▁pur▁3371
▁glass▁3372
▁metal▁3373
▁contaminant▁3374
▁sponge▁3375
▁thermal▁3376
▁pellet▁3377
track▁3378
ru▁3379
▁fraction▁3380
▁accumulation▁3381
▁Bio▁3382
Creek▁3383
▁L▁3384
▁airport▁3385
flo▁3386
sam▁3387
▁California▁3388
▁Long▁3389
▁Beach▁3390
▁diese▁3391
▁plant▁3392
▁visit▁3393
▁yester▁3394
▁spite▁3395
▁deposit▁3396
▁fee▁3397
▁leading▁3398
▁bottle▁3399
▁present▁3400
▁Jordan▁3401
▁document▁3402
▁mass▁3403
▁zoom▁3404
▁remote▁3405
▁island▁3406
ory▁3407
▁coast▁3408
▁Ba▁3409
ja▁3410
la▁3411
▁Ro▁3412
habi▁3413
▁bird▁3414
▁sparse▁3415
▁populate▁3416
▁poly▁3417
len▁3418
ter▁3419
ht▁3420
hal▁3421
▁PET▁3422
▁sink▁3423
▁seawater▁3424
▁civilization▁3425
▁separate▁3426
▁factories▁3427
pro▁3428
▁unfortunate▁3429
▁trace▁3430
▁straight▁3431
▁current▁3432
▁latitude▁3433
bo▁3434
▁Luca▁3435
▁Eastern▁3436
▁litt▁3437
▁Philippine▁3438
▁emerg▁3439
▁zone▁3440
▁Gyr▁3441
lbatross▁3442
▁nest▁3443
▁Kur▁3444
▁Mid▁3445
to▁3446
▁Northwest▁3447
▁Hawaiian▁3448
▁Islands▁3449
▁National▁3450
▁Monument▁3451
▁scaveng▁3452
gur▁3453
gi▁3454
▁chick▁3455
month▁3456
▁stomach▁3457
ose▁3458
▁dying▁3459
▁rubb▁3460
ish▁3461
▁cigarette▁3462
▁mistake▁3463
▁retain▁3464
▁rings▁3465
▁consequences▁3466
quatic▁3467
▁zoo▁3468
▁Orleans▁3469
▁town▁3470
▁contribut▁3471
▁Clean▁3472
Up▁3473
▁Day▁3474
▁Pe▁3475
ninsula▁3476
▁east▁3477
▁sw▁3478
ath▁3479
▁1,1▁3480
00▁3481
▁bucks▁3482
ab▁3483
llo▁3484
▁Aquarium▁3485
▁Pedr▁3486
▁governor▁3487
▁Schwarzen▁3488
gger▁3489
▁Maria▁3490
▁discuss▁3491
▁crochet▁3492
▁bag▁3493
▁sho▁3494
oplankton▁3495
▁trawl▁3496
▁gyr▁3497
▁Hawaii▁3498
▁plankton▁3499
▁soup▁3500
▁wash▁3501
▁Ka▁3502
ua▁3503
▁president▁3504
▁contain▁3505
▁millimeter▁3506
third▁3507
▁concentrate▁3508
▁persistent▁3509
▁pollutant▁3510
▁surrounding▁3511
▁base▁3512
▁chain▁3513
▁poison▁3514
▁ne▁3515
crop▁3516
▁pollut▁3517
hold▁3518
and▁3519
half▁3520
▁84▁3521
▁certifi▁3522
▁sell▁3523
▁wild▁3524
▁leaving▁3525
gone▁3526
▁maintain▁3527
▁fix▁3528
▁horses▁3529
▁men▁3530
▁gather▁3531
▁narrat▁3532
▁packag▁3533
▁proliferat▁3534
▁anchor▁3535
▁strain▁3536
▁budget▁3537
▁unto▁3538
▁source▁3539
▁land▁3540
rapped▁3541
▁package▁3542
▁Brian▁3543
▁Night▁3544
line▁3545
▁Carol▁3546
▁Steel▁3547
▁cities▁3548
▁meal▁3549
▁architect▁3550
▁da▁3551
ily▁3552
▁miracle▁3553
▁feeding▁3554
▁ancient▁3555
▁route▁3556
▁modern▁3557
▁feed▁3558
▁rare▁3559
▁shop▁3560
▁restaurant▁3561
▁magical▁3562
▁transport▁3563
▁sold▁3564
▁cook▁3565
▁dispos▁3566
▁earth▁3567
dependent▁3568
▁ancestor▁3569
▁soybean▁3570
▁Gross▁3571
▁Brazil▁3572
▁meat▁3573
▁grain▁3574
▁globally▁3575
▁escalat▁3576
50▁3577
▁estimate▁3578
▁twice▁3579
ir▁3580
▁consume▁3581
▁urban▁3582
rising▁3583
▁pose▁3584
▁hungry▁3585
▁carry▁3586
▁hectare▁3587
▁losing▁3588
▁equivalent▁3589
▁sa▁3590
lin▁3591
▁er▁3592
▁fossil▁3593
▁fuel▁3594
▁calorie▁3595
▁USA▁3596
▁proper▁3597
▁obes▁3598
▁star▁3599
▁none▁3600
▁trade▁3601
▁multinational▁3602
▁corporations▁3603
▁grim▁3604
▁embrac▁3605
▁unsustainabl▁3606
▁Fer▁3607
escent▁3608
▁fertil▁3609
▁invention▁3610
▁agricultur▁3611
▁bound▁3612
▁settlement▁3613
▁compact▁3614
▁surround▁3615
▁productive▁3616
▁farm▁3617
▁temple▁3618
▁Ur▁3619
▁effective▁3620
▁spiritual▁3621
▁distribution▁3622
▁gods▁3623
▁famous▁3624
▁Rome▁3625
▁import▁3626
▁roads▁3627
▁wage▁3628
▁Car▁3629
▁Egypt▁3630
▁paw▁3631
▁reserve▁3632
▁Empire▁3633
▁militari▁3634
▁sp▁3635
▁mention▁3636
▁oyster▁3637
▁hinter▁3638
industrial▁3639
▁map▁3640
ham▁3641
▁south▁3642
ap▁3643
side▁3644
read▁3645
▁Street▁3646
ga▁3647
19▁3648
80▁3649
▁wandering▁3650
▁smell▁3651
▁port▁3652
▁establish▁3653
▁northwest▁3654
▁Scot▁3655
▁Wale▁3656
▁arriv▁3657
field▁3658
▁locate▁3659
▁po▁3660
ult▁3661
▁An▁3662
▁northeast▁3663
▁protected▁3664
▁canvas▁3665
▁eastern▁3666
▁industrial▁3667
▁clue▁3668
▁Friday▁3669
▁previous▁3670
30▁3671
aware▁3672
▁Sunday▁3673
▁mo▁3674
▁earlie▁3675
40▁3676
▁passenger▁3677
▁pig▁3678
▁sheep▁3679
▁slaughter▁3680
▁constrain▁3681
▁geograph▁3682
▁em▁3683
ip▁3684
▁trains▁3685
▁blob▁3686
▁cars▁3687
▁marks▁3688
▁apparent▁3689
void▁3690
▁dreamed▁3691
▁drove▁3692
▁outskirt▁3693
▁core▁3694
▁peripher▁3695
▁event▁3696
▁egg▁3697
▁cake▁3698
▁label▁3699
▁packet▁3700
▁harder▁3701
▁500▁3702
▁More▁3703
is▁3704
piece▁3705
▁Utopia▁3706
▁semi▁3707
state▁3708
▁remotely▁3709
▁farming▁3710
▁vegetable▁3711
▁garden▁3712
▁fundamental▁3713
▁Ebene▁3714
zer▁3715
▁Garden▁3716
▁City▁3717
▁metropolitan▁3718
▁railway▁3719
▁deliberate▁3720
▁joke▁3721
▁der▁3722
▁ideal▁3723
▁imagin▁3724
▁conceptual▁3725
▁tool▁3726
▁dwell▁3727
topia▁3728
▁slide▁3729
▁dog▁3730
▁plan▁3731
▁stare▁3732
▁pile▁3733
▁raw▁3734
▁networks▁3735
▁grown▁3736
um▁3737
▁commodity▁3738
▁uns▁3739
hole▁3740
▁cows▁3741
▁steam▁3742
▁hum▁3743
ronto▁3744
▁greenhouse▁3745
▁Kev▁3746
▁reconnect▁3747
▁recogniz▁3748
▁trick▁3749
ductive▁3750
▁framework▁3751
▁symbiotic▁3752
culture▁3753
▁sum▁3754
con▁3755
pt▁3756
▁650▁3757
▁Am▁3758
ogi▁3759
Lorenz▁3760
▁Alle▁3761
go▁3762
▁Good▁3763
▁Government▁3764
▁alle▁3765
▁urgent▁3766
di▁3767
▁Reader▁3768
▁Kit▁3769
▁Hill▁3770
write▁3771
▁tender▁3772
▁Dolby▁3773
▁Martin▁3774
▁Evan▁3775
▁Bo▁3776
ine▁3777
▁invit▁3778
▁blessing▁3779
am▁3780
irstream▁3781
led▁3782
▁2002▁3783
▁American▁3784
▁trailer▁3785
▁Wilson▁3786
art▁3787
▁International▁3788
▁laminate▁3789
▁company▁3790
▁booth▁3791
▁exhibition▁3792
ture▁3793
▁Fair▁3794
ork▁3795
▁interior▁3796
▁furniture▁3797
▁portray▁3798
▁contemporar▁3799
erkeley▁3800
▁stepp▁3801
▁optimize▁3802
istic▁3803
▁fashion▁3804
▁disconnect▁3805
terior▁3806
▁conceive▁3807
▁lightweight▁3808
▁futurist▁3809
tech▁3810
▁freeway▁3811
▁sync▁3812
▁reference▁3813
▁cabin▁3814
▁crisis▁3815
▁vocabular▁3816
▁escape▁3817
▁archeolog▁3818
▁feels▁3819
▁utilit▁3820
▁stripped▁3821
▁vi▁3822
ola▁3823
▁alumin▁3824
visible▁3825
▁tri▁3826
drew▁3827
▁mock▁3828
▁card▁3829
▁cut▁3830
▁mobil▁3831
▁logical▁3832
▁ceiling▁3833
▁compound▁3834
▁highlight▁3835
▁bend▁3836
▁dimensions▁3837
▁curve▁3838
▁devise▁3839
▁fool▁3840
▁eye▁3841
▁believ▁3842
▁panels▁3843
▁skin▁3844
▁geometr▁3845
work▁3846
▁rewire▁3847
▁chase▁3848
▁commission▁3849
▁Designer▁3850
▁Block▁3851
▁events▁3852
▁Octo▁3853
uo▁3854
aki▁3855
▁Idee▁3856
▁ship▁3857
▁blank▁3858
▁scenario▁3859
▁DJ▁3860
table▁3861
▁fridge▁3862
▁integrat▁3863
idio▁3864
▁migrat▁3865
▁consult▁3866
▁skateboard▁3867
▁climber▁3868
▁Bam▁3869
▁Final▁3870
▁oh▁3871
▁mold▁3872
▁facilit▁3873
▁dilemma▁3874
built▁3875
scribe▁3876
▁unique▁3877
▁16▁3878
▁Kran▁3879
▁mystery▁3880
▁symptom▁3881
▁feedback▁3882
▁terrifying▁3883
raine▁3884
▁nightmare▁3885
▁pediatrician▁3886
▁anesthesi▁3887
ologist▁3888
▁management▁3889
Packard▁3890
hildren▁3891
▁Stanford▁3892
▁Palo▁3893
▁Alto▁3894
▁tumor▁3895
▁infection▁3896
▁operation▁3897
▁persist▁3898
▁str▁3899
▁feather▁3900
▁please▁3901
▁seat▁3902
▁torch▁3903
▁Chandler▁3904
▁whom▁3905
▁photograph▁3906
▁aspire▁3907
▁rehearsal▁3908
▁fell▁3909
▁trivial▁3910
▁wrap▁3911
AC▁3912
ibu▁3913
prof▁3914
▁clinic▁3915
color▁3916
▁ca▁3917
frozen▁3918
▁paralyz▁3919
onic▁3920
▁fingertip▁3921
▁elbow▁3922
▁spontaneous▁3923
▁24▁3924
nia▁3925
▁phenomeno▁3926
▁illustrate▁3927
▁sleeve▁3928
▁gar▁3929
▁excruciating▁3930
▁burning▁3931
▁mis▁3932
▁innocent▁3933
vo▁3934
▁wir▁3935
▁switch▁3936
junction▁3937
▁bulb▁3938
▁hammer▁3939
▁nerve▁3940
▁spin▁3941
▁cord▁3942
▁conscious▁3943
▁complicated▁3944
▁releas▁3945
▁brown▁3946
neurotransmitter▁3947
▁linear▁3948
▁spill▁3949
▁vertical▁3950
▁adjacen▁3951
important▁3952
▁structural▁3953
▁elements▁3954
▁vital▁3955
▁role▁3956
ulation▁3957
▁distortion▁3958
▁sensory▁3959
▁activate▁3960
▁DNA▁3961
▁synthesize▁3962
▁protein▁3963
▁forth▁3964
▁toilet▁3965
▁flush▁3966
▁doors▁3967
▁dish▁3968
wash▁3969
▁monitor▁3970
▁plasticity▁3971
▁morph▁3972
▁response▁3973
▁stimul▁3974
ifying▁3975
▁drugs▁3976
kill▁3977
▁frank▁3978
▁anesthetic▁3979
▁rigorous▁3980
▁uncomfortabl▁3981
▁therap▁3982
▁occupation▁3983
train▁3984
▁intensive▁3985
▁psychotherap▁3986
▁address▁3987
nden▁3988
cy▁3989
▁despair▁3990
▁accompani▁3991
▁severe▁3992
▁flip▁3993
▁college▁3994
▁absolute▁3995
▁prophet▁3996
▁George▁3997
▁Carl▁3998
▁Kris▁3999
j▁4000
▁law▁4001
▁gorgeous▁4002
▁dose▁4003
▁PR▁4004
▁moon▁4005
▁myth▁4006
▁legen▁4007
▁marked▁4008
▁monster▁4009
▁exploration▁4010
▁discoveries▁4011
fa▁4012
▁monstro▁4013
▁env▁4014
IUC▁4015
N▁4016
▁Madagas▁4017
car▁4018
▁se▁4019
amount▁4020
▁legal▁4021
▁exploit▁4022
▁cast▁4023
▁assumption▁4024
▁pioneer▁4025
▁govern▁4026
▁root▁4027
wide▁4028
▁precaution▁4029
▁scar▁4030
▁notion▁4031
▁carbon▁4032
▁stor▁4033
▁heat▁4034
▁36▁4035
▁confront▁4036
▁laws▁4037
▁shipp▁4038
▁protection▁4039
▁shore▁4040
▁garbage▁4041
▁discharge▁4042
regulat▁4043
▁patch▁4044
Tex▁4045
▁pollution▁4046
▁di▁4047
ut▁4048
▁Eli▁4049
▁Ostro▁4050
requisite▁4051
▁monitoring▁4052
▁enforce▁4053
▁verify▁4054
▁doom▁4055
▁gloom▁4056
▁photographer▁4057
▁states▁4058
▁tragic▁4059
▁trajector▁4060
▁destroy▁4061
▁coral▁4062
▁save▁4063
▁fate▁4064
▁basement▁4065
▁Nations▁4066
▁fisher▁4067
▁regime▁4068
▁prior▁4069
▁duty▁4070
▁prevent▁4071
▁significant▁4072
▁harm▁4073
▁progress▁4074
kilometer▁4075
▁Sylvia▁4076
▁leverage▁4077
▁hopeful▁4078
cycle▁4079
▁turtle▁4080
▁sampl▁4081
▁flavor▁4082
▁Sargasso▁4083
▁Sea▁4084
argassum▁4085
▁aggregate▁4086
▁spawn▁4087
▁Northern▁4088
▁European▁4089
▁rivers▁4090
▁dwindl▁4091
▁Stock▁4092
holm▁4093
▁Februar▁4094
▁200,000▁4095
ggregat▁4096
▁lay▁4097
▁eggs▁4098
▁launch▁4099
▁initiative▁4100
▁thus▁4101
▁Bermuda▁4102
▁jurisdiction▁4103
▁spear▁4104
▁spinn▁4105
place▁4106
▁cooler▁4107
▁South▁4108
ern▁4109
▁Ocean▁4110
▁bay▁4111
▁territor▁4112
ial▁4113
▁claim▁4114
▁summer▁4115
phy▁4116
▁kri▁4117
ho▁4118
▁CC▁4119
ML▁4120
▁regional▁4121
▁charge▁4122
conserv▁4123
▁marine▁4124
▁authoriz▁4125
▁tooth▁4126
fish▁4127
▁captain▁4128
▁Zealand▁4129
▁decline▁4130
▁killer▁4131
▁whale▁4132
▁Antarctic▁4133
mit▁4134
▁Cost▁4135
▁Rica▁4136
▁Dome▁4137
round▁4138
▁winter▁4139
▁oceanograph▁4140
▁seasonal▁4141
▁basis▁4142
▁identify▁4143
▁vulnerabl▁4144
▁Galapagos▁4145
▁headed▁4146
▁Tropic▁4147
▁coordinat▁4148
▁Conservati▁4149
eritage▁4150
▁Convention▁4151
▁qualify▁4152
▁adopt▁4153
▁urge▁4154
▁Hal▁4155
▁hook▁4156
catch▁4157
▁Tag▁4158
ging▁4159
▁Predator▁4160
▁Life▁4161
water▁4162
▁ba▁4163
▁kilometer▁4164
▁treasure▁4165
▁culminat▁4166
▁tun▁4167
▁tagg▁4168
▁pac▁4169
if▁4170
▁predator▁4171
▁column▁4172
▁cu▁4173
▁fortunate▁4174
▁reveal▁4175
▁workshop▁4176
▁sufficient▁4177
▁hotspot▁4178
▁outer▁4179
▁trans▁4180
▁date▁4181
▁rocket▁4182
▁mandate▁4183
▁privilege▁4184
home▁4185
▁avert▁4186
▁traged▁4187
▁collision▁4188
▁broad▁4189
▁marvel▁4190
light▁4191
▁previously▁4192
▁unknown▁4193
▁stake▁4194
▁communit▁4195
ng▁4196
▁Earle▁4197
▁penetrate▁4198
▁obstacle▁4199
▁sustainabl▁4200
▁Bruc▁4201
▁polio▁4202
▁eradicat▁4203
▁vaccine▁4204
▁terrifi▁4205
▁panic▁4206
▁lung▁4207
▁breathe▁4208
▁breath▁4209
▁cure▁4210
▁twenty▁4211
▁hail▁4212
▁1950▁4213
▁awful▁4214
▁month▁4215
▁Jon▁4216
pox▁4217
▁oops▁4218
▁partnership▁4219
▁sides▁4220
▁globe▁4221
▁outbreak▁4222
▁sequenc▁4223
▁viruses▁4224
▁originate▁4225
▁commercial▁4226
▁Russia▁4227
▁crippl▁4228
▁devastating▁4229
▁explosive▁4230
itis▁4231
▁Polio▁4232
▁Partner▁4233
free▁4234
▁lucky▁4235
▁armor▁4236
▁vaccines▁4237
▁capital▁4238
▁risks▁4239
▁humanitarian▁4240
▁congress▁4241
▁26▁4242
▁vaccination▁4243
▁deteriorat▁4244
▁tropic▁4245
▁expos▁4246
▁potent▁4247
rash▁4248
▁vaccinate▁4249
▁multiple▁4250
▁peak▁4251
vaccin▁4252
ator▁4253
long▁4254
▁trek▁4255
welt▁4256
▁dodg▁4257
▁bullet▁4258
▁operate▁4259
▁shak▁4260
▁cease▁4261
fire▁4262
▁reporter▁4263
▁Somalia▁4264
infect▁4265
▁road▁4266
▁unfold▁4267
▁foreign▁4268
▁aid▁4269
▁heroes▁4270
▁Rot▁4271
trong▁4272
▁infrastructure▁4273
▁striking▁4274
▁rapid▁4275
▁exception▁4276
▁199▁4277
▁worldwide▁4278
▁99▁4279
▁reduction▁4280
▁1,000▁4281
▁pandemic▁4282
▁flu▁4283
▁SARS▁4284
▁vitamin▁4285
▁malaria▁4286
▁irre▁4287
spective▁4288
▁northern▁4289
▁India▁4290
▁Nigeria▁4291
▁causing▁4292
▁horrific▁4293
▁decades▁4294
▁tenaci▁4295
▁grip▁4296
▁frustration▁4297
▁voices▁4298
▁Hang▁4299
▁abandon▁4300
▁settle▁4301
▁seductive▁4302
▁false▁4303
▁premise▁4304
▁Umar▁4305
▁brothers▁4306
▁beating▁4307
▁crutch▁4308
▁rhyme▁4309
▁exceptional▁4310
▁circumstance▁4311
▁strike▁4312
▁drag▁4313
▁families▁4314
▁desperate▁4315
▁saving▁4316
▁va▁4317
▁deserve▁4318
▁buck▁4319
▁missing▁4320
▁mapping▁4321
▁guide▁4322
▁shelter▁4323
oshi▁4324
▁River▁4325
▁Muslim▁4326
▁logistic▁4327
▁devices▁4328
GI▁4329
▁carrier▁4330
▁street▁4331
▁commitment▁4332
▁approache▁4333
ommittee▁4334
▁Cross▁4335
▁tactic▁4336
▁50-▁4337
▁Jun▁4338
▁nin▁4339
▁roll▁4340
▁southern▁4341
▁storm▁4342
▁500,000▁4343
ttar▁4344
▁Pr▁4345
adesh▁4346
▁Bi▁4347
har▁4348
▁sanit▁4349
▁95▁4350
▁ladies▁4351
▁gentlem▁4352
▁combination▁4353
▁secondar▁4354
▁stark▁4355
▁reminder▁4356
▁failing▁4357
▁justice▁4358
izing▁4359
▁enthusias▁4360
▁Cameron▁4361
ingdom▁4362
▁There▁4363
▁crossroad▁4364
▁resolve▁4365
▁blink▁4366
▁lose▁4367
▁momentum▁4368
▁Gates▁4369
▁smartest▁4370
▁corner▁4371
▁border▁4372
▁Pakistan▁4373
▁BG▁4374
▁750▁4375
▁800▁4376
▁genero▁4377
▁luck▁4378
▁Tony▁4379
▁Port▁4380
▁TEDWomen▁4381
▁boys▁4382
▁disrespect▁4383
▁mist▁4384
at▁4385
▁abuse▁4386
▁Harlem▁4387
▁Bronx▁4388
▁ingredient▁4389
▁doubt▁4390
▁twist▁4391
▁deconstruct▁4392
▁redefin▁4393
hood▁4394
▁Kendal▁4395
▁Jay▁4396
▁Ta▁4397
▁busy▁4398
▁whip▁4399
▁boom▁4400
▁knee▁4401
not▁4402
ddy▁4403
▁clock▁4404
▁guideline▁4405
▁defin▁4406
▁Just▁4407
▁brother▁4408
▁Henry▁4409
▁burial▁4410
▁Island▁4411
▁prepar▁4412
▁bathroom▁4413
▁folks▁4414
▁ride▁4415
▁lim▁4416
▁empti▁4417
▁burst▁4418
▁sticks▁4419
▁apolog▁4420
▁prop▁4421
▁lift▁4422
▁hostage▁4423
▁How▁4424
▁coach▁4425
▁mad▁4426
▁angry▁4427
▁girls▁4428
▁inner▁4429
▁Johnny▁4430
▁younger▁4431
▁hanging▁4432
▁16-▁4433
▁heroin▁4434
dose▁4435
▁grandmother▁4436
▁fine▁4437
▁sex▁4438
stair▁4439
▁Anthon▁4440
▁opens▁4441
▁Do▁4442
▁jeopard▁4443
▁dear▁4444
▁secre▁4445
▁sexual▁4446
▁neighborhood▁4447
heila▁4448
▁nude▁4449
▁ill▁4450
function▁4451
appropriate▁4452
▁raped▁4453
▁offering▁4454
▁bust▁4455
▁zip▁4456
▁pant▁4457
▁behold▁4458
▁remorse▁4459
▁tremendous▁4460
▁property▁4461
▁equation▁4462
ification▁4463
▁epidemic▁4464
broad▁4465
▁adhere▁4466
▁Stan▁4467
▁McChr▁4468
ystal▁4469
▁Four▁4470
star▁4471
▁leadership▁4472
▁failure▁4473
▁Tue▁4474
▁parachute▁4475
▁Fort▁4476
▁routine▁4477
▁training▁4478
▁27▁4479
▁Army▁4480
▁refresh▁4481
▁budd▁4482
10▁4483
▁strap▁4484
▁heavy▁4485
uck▁4486
ack▁4487
master▁4488
NC▁4489
O▁4490
▁adjust▁4491
▁tight▁4492
▁chest▁4493
▁load▁4494
▁lumber▁4495
▁Air▁4496
▁Force▁4497
▁command▁4498
▁warning▁4499
▁boost▁4500
▁Get▁4501
▁Out▁4502
▁static▁4503
▁additional▁4504
▁flowing▁4505
om▁4506
▁slip▁4507
stream▁4508
▁lock▁4509
▁position▁4510
born▁4511
▁hypothesis▁4512
▁opening▁4513
▁thrill▁4514
▁prepare▁4515
▁delay▁4516
▁pretend▁4517
▁steer▁4518
▁teache▁4519
▁calv▁4520
▁thigh▁4521
ock▁4522
▁30-▁4523
some▁4524
me▁4525
lon▁4526
▁eternal▁4527
▁combat▁4528
▁2001▁4529
zone▁4530
▁soldiers▁4531
▁theoretical▁4532
▁46▁4533
▁br▁4534
adi▁4535
▁Robert▁4536
▁Lee▁4537
▁John▁4538
▁Bu▁4539
ford▁4540
▁Vietnam▁4541
▁wise▁4542
▁brave▁4543
▁faithful▁4544
rad▁4545
▁bunch▁4546
▁commander▁4547
▁conversation▁4548
▁march▁4549
▁chew▁4550
▁interaction▁4551
▁Training▁4552
▁Center▁4553
▁dawn▁4554
▁depart▁4555
ure▁4556
▁battle▁4557
▁humiliat▁4558
▁snake▁4559
▁belly▁4560
▁wag▁4561
▁apologize▁4562
▁sentence▁4563
▁lifted▁4564
▁fail▁4565
▁9▁4566
▁Br▁4567
▁Gen▁4568
▁scrutin▁4569
▁sensitivit▁4570
▁dispers▁4571
▁technique▁4572
▁tele▁4573
ference▁4574
▁chat▁4575
▁22▁4576
▁versa▁4577
▁coordinate▁4578
▁location▁4579
▁intelligence▁4580
▁electronic▁4581
▁mission▁4582
▁rebuild▁4583
▁senior▁4584
▁requirement▁4585
▁steel▁4586
▁kn▁4587
▁fist▁4588
▁exoti▁4589
▁weapons▁4590
hak▁4591
▁consensu▁4592
▁Ranger▁4593
pla▁4594
oon▁4595
▁Taliban▁4596
ade▁4597
▁Where▁4598
▁wind▁4599
blown▁4600
▁Afghan▁4601
▁sixth▁4602
▁grade▁4603
▁digital▁4604
version▁4605
▁leader▁4606
▁legitimate▁4607
▁brand▁4608
▁transparent▁4609
▁cumulative▁4610
▁reset▁4611
▁battery▁4612
▁Iraq▁4613
▁officer▁4614
ight▁4615
▁relationships▁4616
▁sin▁4617
▁2,000▁4618
stan▁4619
za▁4620
▁poem▁4621
▁marriage▁4622
▁vow▁4623
▁ab▁4624
▁knock▁4625
nach▁4626
▁Mur▁4627
uga▁4628
sanitary▁4629
▁napkin▁4630
▁supplie▁4631
▁pad▁4632
▁fame▁4633
▁impress▁4634
▁replie▁4635
▁N▁4636
▁nast▁4637
rag▁4638
▁cloth▁4639
wheel▁4640
▁milk▁4641
▁fellow▁4642
▁newspaper▁4643
▁banne▁4644
▁item▁4645
▁condom▁4646
▁29▁4647
▁substance▁4648
▁cotton▁4649
▁pen▁4650
▁Bangalore▁4651
▁victim▁4652
▁Sh▁4653
anti▁4654
pend▁4655
▁ring▁4656
▁chocolate▁4657
insel▁4658
▁rolled▁4659
▁intimate▁4660
▁arrange▁4661
▁victims▁4662
▁wi▁4663
▁jealous▁4664
▁refuse▁4665
▁Armstrong▁4666
enz▁4667
▁Everest▁4668
▁tie▁4669
cycling▁4670
▁lous▁4671
▁crises▁4672
▁includ▁4673
▁divorce▁4674
▁suspect▁4675
mp▁4676
▁cellulos▁4677
ived▁4678
million▁4679
▁processing▁4680
▁patent▁4681
▁dropp▁4682
▁beauty▁4683
▁bored▁4684
▁accumulat▁4685
▁philanthropy▁4686
▁leaf▁4687
▁husk▁4688
▁dust▁4689
▁installation▁4690
▁23▁4691
▁seventh▁4692
▁transnational▁4693
▁MBA▁4694
▁dropout▁4695
▁Co▁4696
im▁4697
▁professor▁4698
▁guest▁4699
▁lecture▁4700
IM▁4701
cost▁4702
Women▁4703
▁Self▁4704
▁Hel▁4705
▁Group▁4706
▁pu▁4707
▁Harvard▁4708
▁Oxford▁4709
▁compete▁4710
▁100-▁4711
kin▁4712
▁lifetime▁4713
▁employment▁4714
▁chas▁4715
▁Mahal▁4716
shmi▁4717
▁becom▁4718
▁provider▁4719
▁entit▁4720
▁domain▁4721
▁classify▁4722
▁educate▁4723
▁surplus▁4724
manda▁4725
▁China▁4726
▁Pek▁4727
▁sat▁4728
aged▁4729
▁owl▁4730
glasses▁4731
▁Fulbright▁4732
▁scholar▁4733
ino▁4734
▁relations▁4735
▁gift▁4736
▁eager▁4737
▁correspond▁4738
▁pump▁4739
ib▁4740
bling▁4741
▁representative▁4742
ssociation▁4743
▁jerk▁4744
▁Let▁4745
▁marri▁4746
erence▁4747
▁Fo▁4748
▁spoke▁4749
▁license▁4750
▁cable▁4751
▁operator▁4752
▁swin▁4753
▁nutrition▁4754
▁cattle▁4755
▁Di▁4756
xi▁4757
▁cancer▁4758
▁surgeon▁4759
▁surgery▁4760
▁surgeons▁4761
▁patholog▁4762
▁kidney▁4763
▁aggressive▁4764
▁diagnosi▁4765
▁fatal▁4766
▁mysterious▁4767
▁Litt▁4768
eague▁4769
house▁4770
▁specialist▁4771
pp▁4772
ear▁4773
▁Ital▁4774
▁Australia▁4775
▁horizon▁4776
▁sometime▁4777
midnight▁4778
▁2▁4779
▁drug▁4780
▁Keep▁4781
▁struggle▁4782
▁triumph▁4783
▁exhilarating▁4784
▁repeat▁4785
▁glorious▁4786
▁healthcare▁4787
bye▁4788
pe▁4789
▁seeming▁4790
cut▁4791
▁embarrass▁4792
▁strongly▁4793
▁denial▁4794
▁fac▁4795
uch▁4796
▁insist▁4797
hand▁4798
▁oncologist▁4799
▁Tel▁4800
▁Dar▁4801
mouth▁4802
▁immortal▁4803
▁borrow▁4804
▁phrase▁4805
▁redefine▁4806
▁bug▁4807
▁accommodate▁4808
▁illness▁4809
▁fighters▁4810
ible▁4811
▁heal▁4812
▁hospice▁4813
▁unprepared▁4814
▁noble▁4815
▁cur▁4816
like▁4817
▁acknowledg▁4818
▁hero▁4819
▁poetry▁4820
▁poet▁4821
ava▁4822
▁Mark▁4823
▁Anton▁4824
▁conquer▁4825
▁el▁4826
▁Alexandr▁4827
▁defeat▁4828
▁desert▁4829
par▁4830
▁firm▁4831
▁ent▁4832
▁complaint▁4833
▁coward▁4834
▁exquisite▁4835
▁troop▁4836
▁slim▁4837
▁overwhelming▁4838
▁presence▁4839
surance▁4840
▁companies▁4841
▁Gab▁4842
Ma▁4843
hin▁4844
▁Ethiopia▁4845
▁outline▁4846
▁farmers▁4847
▁recipient▁4848
▁basket▁4849
▁Himalaya▁4850
▁Bhutan▁4851
▁gross▁4852
▁happiness▁4853
▁Indian▁4854
▁award▁4855
▁Nobel▁4856
▁prize▁4857
▁demonstrat▁4858
▁famine▁4859
▁avail▁4860
▁supply▁4861
▁acquire▁4862
▁entitle▁4863
▁humanity▁4864
▁starv▁4865
capitalize▁4866
▁irrigat▁4867
▁kilogram▁4868
▁fertilizer▁4869
▁tractor▁4870
▁farmer▁4871
refore▁4872
▁livelihood▁4873
▁fruit▁4874
▁labor▁4875
▁highest▁4876
▁lean▁4877
▁scarce▁4878
entrepreneurship▁4879
▁Theodor▁4880
▁Schul▁4881
tz▁4882
▁197▁4883
minded▁4884
▁liberal▁4885
efficient▁4886
▁magic▁4887
▁hunger▁4888
▁mal▁4889
nutrition▁4890
▁stagna▁4891
▁expectation▁4892
▁reform▁4893
▁prompt▁4894
▁agricultural▁4895
▁interview▁4896
▁Like▁4897
▁transaction▁4898
act▁4899
▁output▁4900
▁reache▁4901
elecommunication▁4902
▁absence▁4903
▁necessar▁4904
▁institution▁4905
▁reliabl▁4906
▁circle▁4907
▁peculiar▁4908
▁quantit▁4909
▁implication▁4910
▁deficit▁4911
▁marketing▁4912
▁margin▁4913
▁due▁4914
▁bulk▁4915
▁blind▁4916
▁merc▁4917
▁merchant▁4918
▁negotiate▁4919
▁volatil▁4920
▁ma▁4921
ize▁4922
boggling▁4923
▁seeds▁4924
▁security▁4925
profit▁4926
▁calculate▁4927
0,000▁4928
▁rot▁4929
▁Ju▁4930
▁rain▁4931
▁withdraw▁4932
▁arrest▁4933
▁cookie▁4934
what▁4935
▁comfortabl▁4936
▁Bank▁4937
▁donor▁4938
▁Com▁4939
▁Ex▁4940
EC▁4941
▁82▁4942
▁Illinois▁4943
▁Lake▁4944
▁Michigan▁4945
▁Chicago▁4946
▁Board▁4947
▁Trade▁4948
▁Midwest▁4949
▁loss▁4950
▁grad▁4951
▁receipt▁4952
▁warehouse▁4953
spect▁4954
▁transformation▁4955
▁superpower▁4956
view▁4957
▁industrialize▁4958
▁co▁4959
▁dominance▁4960
SA▁4961
T▁4962
ook▁4963
▁tailor▁4964
▁integr▁4965
▁efficienc▁4966
▁sponsor▁4967
eh▁4968
▁trad▁4969
▁cafe▁4970
▁terminal▁4971
▁dial▁4972
▁Ad▁4973
dis▁4974
▁Ab▁4975
tification▁4976
▁assure▁4977
▁payment▁4978
▁regulator▁4979
clamation▁4980
▁parliament▁4981
▁disseminat▁4982
▁premi▁4983
▁limited▁4984
trag▁4985
▁strategic▁4986
▁sector▁4987
▁winds▁4988
illennium▁4989
▁platform▁4990
▁pan▁4991
can▁4992
▁domestic▁4993
▁producer▁4994
▁winning▁4995
▁proposition▁4996
é▁4997
▁praise▁4998
▁emphasi▁4999
ode▁5000
lash▁5001
▁brew▁5002
▁brake▁5003
modern▁5004
▁observation▁5005
▁supreme▁5006
▁publish▁5007
▁studio▁5008
▁serving▁5009
▁bite▁5010
▁chunk▁5011
NN▁5012
forward▁5013
▁obsess▁5014
▁cramm▁5015
▁Carrie▁5016
▁Fisher▁5017
▁These▁5018
▁gra▁5019
▁g▁5020
▁advertisement▁5021
▁evening▁5022
oga▁5023
▁salut▁5024
mus▁5025
▁laugh▁5026
▁das▁5027
▁damage▁5028
runner▁5029
marin▁5030
▁toll▁5031
▁alert▁5032
▁towel▁5033
▁smoke▁5034
▁patien▁5035
▁tra▁5036
qui▁5037
lit▁5038
▁Cat▁5039
pping▁5040
▁paragraph▁5041
▁qu▁5042
▁relax▁5043
▁glad▁5044
▁clash▁5045
scanning▁5046
▁article▁5047
aving▁5048
▁tips▁5049
▁One▁5050
▁Story▁5051
▁reaction▁5052
▁Halleluja▁5053
▁thankful▁5054
▁Whoa▁5055
▁investigate▁5056
▁desir▁5057
▁accelerat▁5058
▁rear▁5059
▁heads▁5060
▁urbanization▁5061
▁driver▁5062
▁cycl▁5063
hu▁5064
rried▁5065
▁renew▁5066
▁finite▁5067
▁drain▁5068
▁Benjamin▁5069
▁Franklin▁5070
▁psychological▁5071
▁incidental▁5072
▁mindset▁5073
▁bus▁5074
▁unthink▁5075
▁conventional▁5076
▁dece▁5077
▁Slow▁5078
▁Move▁5079
ris▁5080
▁Food▁5081
▁100,000▁5082
▁sensible▁5083
▁cultivate▁5084
▁pace▁5085
naissance▁5086
▁illustration▁5087
▁cultivat▁5088
Cities▁5089
▁rose▁5090
▁curb▁5091
▁traffic▁5092
▁bench▁5093
▁philosophical▁5094
eclaration▁5095
▁deeply▁5096
ill▁5097
▁complement▁5098
▁tap▁5099
▁gentle▁5100
▁holistic▁5101
▁healing▁5102
jury▁5103
▁therapie▁5104
▁mainstream▁5105
▁approv▁5106
▁acu▁5107
pu▁5108
ctu▁5109
▁massage▁5110
chip▁5111
▁intend▁5112
▁agent▁5113
▁magazine▁5114
▁orgasm▁5115
watch▁5116
▁bedroom▁5117
▁Point▁5118
▁eloquent▁5119
▁sang▁5120
▁St▁5121
▁Tan▁5122
▁flock▁5123
▁Italian▁5124
▁Sex▁5125
hour▁5126
week▁5127
▁rigid▁5128
▁Nord▁5129
▁Nor▁5130
▁Swed▁5131
enmark▁5132
▁nation▁5133
▁37▁5134
▁homework▁5135
▁tutor▁5136
icular▁5137
trend▁5138
▁website▁5139
▁adolescent▁5140
▁hover▁5141
▁plea▁5142
ttle▁5143
▁treadmill▁5144
▁parenting▁5145
▁ban▁5146
press▁5147
▁pi▁5148
pa▁5149
ach▁5150
iev▁5151
▁freak▁5152
▁exam▁5153
▁elite▁5154
cited▁5155
lib▁5156
V▁5157
▁ja▁5158
▁spark▁5159
vy▁5160
▁letter▁5161
▁undergraduate▁5162
▁savor▁5163
▁Down▁5164
▁ticket▁5165
▁highway▁5166
▁various▁5167
▁sexy▁5168
▁adrenalin▁5169
▁rush▁5170
▁meta▁5171
▁distraction▁5172
▁politician▁5173
▁taboo▁5174
▁erect▁5175
word▁5176
▁laz▁5177
▁slack▁5178
▁synonymous▁5179
25▁5180
▁revolutionar▁5181
▁TV▁5182
▁uplift▁5183
▁welcome▁5184
▁Age▁5185
▁brigade▁5186
▁gear▁5187
sound▁5188
hi▁5189
bit▁5190
▁rehabilitat▁5191
load▁5192
▁gratuitous▁5193
▁default▁5194
▁mode▁5195
▁wing▁5196
▁chariot▁5197
shot▁5198
racing▁5199
▁lit▁5200
ros▁5201
▁internal▁5202
▁dread▁5203
▁reward▁5204
▁cherish▁5205
▁ending▁5206
▁afternoon▁5207
▁taxi▁5208
▁stair▁5209
▁staple▁5210
tin▁5211
▁Dad▁5212
▁sweet▁5213
▁reader▁5214
▁Amy▁5215
▁Lock▁5216
▁Congo▁5217
▁HIV▁5218
▁DR▁5219
▁agenc▁5220
▁flood▁5221
▁cheap▁5222
▁Democratic▁5223
▁Republic▁5224
▁pave▁5225
RC▁5226
▁prevalence▁5227
▁1.3▁5228
▁76▁5229
▁93▁5230
▁receiv▁5231
▁Dam▁5232
ien▁5233
▁hotel▁5234
▁Kinshasa▁5235
▁Joseph▁5236
▁Christin▁5237
▁pharmac▁5238
▁generic▁5239
▁financ▁5240
fidel▁5241
▁Trust▁5242
rude▁5243
▁provocati▁5244
▁miss▁5245
▁Au▁5246
bre▁5247
▁Grey▁5248
▁aging▁5249
▁mere▁5250
curable▁5251
▁shit▁5252
▁feasib▁5253
ility▁5254
▁extension▁5255
▁genuine▁5256
▁eliminat▁5257
▁intermediate▁5258
▁characteristic▁5259
▁considerabl▁5260
▁Brita▁5261
▁sympathetic▁5262
▁persuade▁5263
▁ecological▁5264
▁prevail▁5265
▁Parliament▁5266
▁conclusion▁5267
▁tolerate▁5268
▁civil▁5269
▁spade▁5270
▁fra▁5271
▁trance▁5272
▁ought▁5273
▁plann▁5274
▁turbulen▁5275
▁argument▁5276
▁outweigh▁5277
▁downside▁5278
▁condemn▁5279
▁unnecessar▁5280
▁worry▁5281
population▁5282
▁crossing▁5283
▁Gil▁5284
▁answers▁5285
▁arise▁5286
▁reject▁5287
ort▁5288
▁indefinite▁5289
▁immoral▁5290
aging▁5291
▁gha▁5292
clear▁5293
▁eva▁5294
gel▁5295
▁regard▁5296
▁summ▁5297
▁metabolism▁5298
▁tau▁5299
ological▁5300
▁statement▁5301
animate▁5302
▁mechanisms▁5303
▁accumulate▁5304
▁gerontolog▁5305
▁geriatric▁5306
▁intervene▁5307
▁evident▁5308
▁sand▁5309
▁strategy▁5310
▁prevention▁5311
iful▁5312
▁organism▁5313
▁RNA▁5314
▁interference▁5315
▁intervention▁5316
▁convincing▁5317
▁suppose▁5318
▁confer▁5319
▁55▁5320
▁robust▁5321
▁rejuvenat▁5322
▁breakthrough▁5323
▁incremental▁5324
▁differ▁5325
▁predict▁5326
▁190▁5327
▁stead▁5328
▁uniform▁5329
▁sequence▁5330
▁progression▁5331
▁imagination▁5332
▁computers▁5333
▁parallel▁5334
▁hygien▁5335
▁antibiotic▁5336
▁moderate▁5337
sp▁5338
▁remain▁5339
▁imperfect▁5340
▁thorough▁5341
▁200-▁5342
▁velocit▁5343
▁expectanc▁5344
▁biologically▁5345
▁youth▁5346
related▁5347
generation▁5348
▁catastrophe▁5349
lright▁5350
▁mice▁5351
▁milestone▁5352
▁mouse▁5353
▁imaginative▁5354
▁fifth▁5355
▁lifespan▁5356
▁biolog▁5357
▁specula▁5358
▁speculation▁5359
▁counsel▁5360
▁nonsens▁5361
▁silent▁5362
▁assess▁5363
H▁5364
▁underestimate▁5365
val▁5366
note▁5367
▁ongoing▁5368
dra▁5369
▁diagram▁5370
tries▁5371
▁inhibit▁5372
▁And▁5373
▁continu▁5374
▁periodic▁5375
▁repair▁5376
▁threshold▁5377
▁pathogen▁5378
complete▁5379
▁categor▁5380
▁mutation▁5381
▁chromosome▁5382
▁mitochondria▁5383
▁biological▁5384
▁undergo▁5385
sis▁5386
▁indication▁5387
▁partially▁5388
▁cite▁5389
▁optimism▁5390
▁confident▁5391
▁damn▁5392
▁resistan▁5393
▁session▁5394
▁genome▁5395
▁strategi▁5396
▁Me▁5397
use▁5398
lah▁5399
▁Mouse▁5400
▁Prize▁5401
▁innovate▁5402
▁proposal▁5403
▁institute▁5404
▁philanthropi▁5405
▁distract▁5406
▁biotech▁5407
▁ag▁5408
▁immune▁5409
create▁5410
tel▁5411
ase▁5412
mortality▁5413
▁brilliant▁5414
▁selection▁5415
▁sophistication▁5416
▁genes▁5417
▁carrie▁5418
creation▁5419
▁CA▁5420
▁crash▁5421
▁motorbike▁5422
▁embryo▁5423
▁opposed▁5424
▁replace▁5425
▁neurons▁5426
▁replac▁5427
▁degrad▁5428
▁cognitive▁5429
simplification▁5430
▁Hydra▁5431
▁tissue▁5432
▁Lewi▁5433
▁Pugh▁5434
shift▁5435
▁swim▁5436
▁Pole▁5437
▁frighten▁5438
▁1.7▁5439
▁centi▁5440
grade▁5441
▁Fahren▁5442
heit▁5443
▁flipp▁5444
▁pea▁5445
▁sausage▁5446
▁freeze▁5447
▁expand▁5448
▁lake▁5449
ground▁5450
▁instabil▁5451
▁Bangladesh▁5452
▁symbolic▁5453
▁undern▁5454
▁summit▁5455
▁28▁5456
▁Speed▁5457
▁altitude▁5458
▁5▁5459
,▁5460
300▁5461
▁hitting▁5462
▁bodi▁5463
▁attempt▁5464
▁swimm▁5465
▁humble▁5466
▁Kh▁5467
bu▁5468
▁Glacier▁5469
ggression▁5470
▁swam▁5471
▁gas▁5472
▁vom▁5473
▁underwater▁5474
▁lucki▁5475
▁shallow▁5476
▁peaceful▁5477
▁utter▁5478
lock▁5479
▁grabb▁5480
▁camp▁5481
brief▁5482
▁hill▁5483
▁breast▁5484
▁3.5▁5485
▁6.▁5486
▁grandchildren▁5487
▁safe▁5488
▁secure▁5489
▁blog▁5490
▁tweet▁5491
▁Hodg▁5492
▁comedian▁5493
▁unpack▁5494
▁Bachelor▁5495
▁Literatur▁5496
▁minor▁5497
▁television▁5498
▁collector▁5499
▁With▁5500
▁catalog▁5501
▁landing▁5502
ppel▁5503
▁Los▁5504
▁Angeles▁5505
irport▁5506
▁Building▁5507
▁mu▁5508
extraterrestrial▁5509
▁excavat▁5510
▁196▁5511
for▁5512
▁Common▁5513
▁Er▁5514
▁coloniz▁5515
▁savage▁5516
▁revolv▁5517
▁restaurants▁5518
▁replacement▁5519
▁Stone▁5520
ui▁5521
▁parking▁5522
▁uncover▁5523
her▁5524
▁era▁5525
▁arch▁5526
▁Jet▁5527
▁preferr▁5528
▁crystal▁5529
▁skull▁5530
▁Philipp▁5531
▁Starck▁5532
minent▁5533
▁ho▁5534
uvre▁5535
▁lobby▁5536
▁trip▁5537
▁attach▁5538
▁suck▁5539
▁juice▁5540
▁monument▁5541
▁kitchen▁5542
▁counter▁5543
sleep▁5544
▁mail▁5545
▁iPhone▁5546
▁tile▁5547
loved▁5548
▁device▁5549
induce▁5550
▁pervasive▁5551
▁instantly▁5552
▁threaten▁5553
▁Jenn▁5554
▁Zu▁5555
▁Lak▁5556
atur▁5557
▁fascinate▁5558
▁Art▁5559
▁Buch▁5560
wald▁5561
▁humor▁5562
▁Mike▁5563
▁cyber▁5564
space▁5565
▁handwrit▁5566
▁notebook▁5567
▁weakness▁5568
▁incident▁5569
▁disappearing▁5570
▁habits▁5571
▁hug▁5572
graph▁5573
▁soul▁5574
▁inspired▁5575
▁author▁5576
und▁5577
▁Trac▁5578
▁swallow▁5579
▁funeral▁5580
▁committ▁5581
▁compil▁5582
▁verse▁5583
▁linguist▁5584
▁par▁5585
don▁5586
▁grammar▁5587
he▁5588
▁confine▁5589
▁suffocat▁5590
▁craving▁5591
▁emerge▁5592
▁flourish▁5593
▁whirl▁5594
pool▁5595
▁Andrew▁5596
▁Blu▁5597
▁internet▁5598
▁squirrel▁5599
fline▁5600
▁secret▁5601
▁politic▁5602
▁O▁5603
▁Milk▁5604
▁Way▁5605
▁total▁5606
▁Apollo▁5607
▁marble▁5608
▁broke▁5609
▁clump▁5610
▁yard▁5611
▁jumble▁5612
▁astounding▁5613
▁transcendent▁5614
▁protocol▁5615
▁dating▁5616
call▁5617
▁IT▁5618
▁Crowd▁5619
▁Big▁5620
▁reception▁5621
▁presentation▁5622
▁elder▁5623
▁amorph▁5624
▁sill▁5625
cast▁5626
▁Time▁5627
▁Warner▁5628
▁fiber▁5629
▁optic▁5630
▁Hudson▁5631
tier▁5632
▁village▁5633
hose▁5634
▁expansive▁5635
▁5,000▁5636
▁plug▁5637
ax▁5638
▁thin▁5639
▁Cooper▁5640
▁Tata▁5641
▁Communi▁5642
ome▁5643
▁via▁5644
presence▁5645
▁42▁5646
▁proceed▁5647
▁belt▁5648
▁beam▁5649
wir▁5650
▁geographic▁5651
▁fleet▁5652
▁brief▁5653
▁plugg▁5654
▁Ghana▁5655
▁Cameroon▁5656
▁9,000▁5657
▁bulldoze▁5658
▁specialize▁5659
▁engineers▁5660
▁station▁5661
▁hack▁5662
saw▁5663
▁jewel▁5664
▁fuse▁5665
▁engineer▁5666
▁Mom▁5667
▁Mumbai▁5668
▁Stephen▁5669
anda▁5670
▁Sara▁5671
wa▁5672
▁unravel▁5673
▁attain▁5674
real▁5675
▁helpless▁5676
▁infanc▁5677
▁fearless▁5678
▁contributor▁5679
▁instinct▁5680
▁foster▁5681
▁surrender▁5682
▁implie▁5683
▁violat▁5684
▁violation▁5685
▁blame▁5686
bla▁5687
▁compassionate▁5688
▁wie▁5689
▁empathy▁5690
▁empath▁5691
etic▁5692
tennis▁5693
tte▁5694
▁winner▁5695
▁shirt▁5696
ied▁5697
▁demolish▁5698
doc▁5699
rin▁5700
▁empathiz▁5701
▁transcend▁5702
▁gender▁5703
▁slap▁5704
tick▁5705
▁scheme▁5706
▁universe▁5707
▁confirm▁5708
▁limitation▁5709
▁desire▁5710
▁credit▁5711
▁bald▁5712
▁realization▁5713
▁recogni▁5714
▁cheer▁5715
▁relate▁5716
▁manifestation▁5717
▁evoke▁5718
▁shortcut▁5719
foam▁5720
▁verb▁5721
verb▁5722
▁teeth▁5723
▁pray▁5724
▁Edit▁5725
kind▁5726
▁elusive▁5727
▁insight▁5728
▁Krake▁5729
▁beast▁5730
▁devou▁5731
▁merit▁5732
▁Discovery▁5733
▁Channel▁5734
▁expedition▁5735
▁Ku▁5736
She▁5737
▁owe▁5738
▁2010▁5739
▁Mission▁5740
▁Blue▁5741
▁Lin▁5742
▁Explorer▁5743
▁explor▁5744
Gru▁5745
▁Shark▁5746
▁Week▁5747
ob▁5748
▁optical▁5749
▁emphasize▁5750
▁submersible▁5751
▁vehicle▁5752
▁wider▁5753
▁Tib▁5754
uro▁5755
▁Vent▁5756
ana▁5757
pulsion▁5758
▁suspicio▁5759
▁noise▁5760
▁hydro▁5761
▁Johnson▁5762
Link▁5763
isier▁5764
▁ROV▁5765
hydr▁5766
au▁5767
lic▁5768
▁motor▁5769
power▁5770
▁invisible▁5771
▁bioluminescen▁5772
▁burglar▁5773
▁alarm▁5774
▁defense▁5775
▁resort▁5776
by▁5777
▁scream▁5778
itch▁5779
▁trigger▁5780
▁kidd▁5781
▁tea▁5782
▁appearance▁5783
▁wow▁5784
▁ooh▁5785
▁Bang▁5786
mont▁5787
je▁5788
▁Tri▁5789
ton▁5790
▁bait▁5791
meter▁5792
▁jig▁5793
▁fisherm▁5794
▁flashlight▁5795
resolution▁5796
▁breathtaking▁5797
▁fully▁5798
story▁5799
film▁5800
▁possibl▁5801
active▁5802
▁NASA▁5803
▁scare▁5804
▁adventure▁5805
▁Serge▁5806
▁Brin▁5807
▁Glass▁5808
mounted▁5809
name▁5810
13▁5811
▁hunch▁5812
▁firing▁5813
▁hang▁5814
▁Club▁5815
▁tiger▁5816
▁Hmm▁5817
▁7▁5818
▁bridge▁5819
▁exit▁5820
▁8▁5821
12▁5822
▁delicious▁5823
▁Thai▁5824
อร▁5825
่▁5826
อย▁5827
Man▁5828
▁mm▁5829
▁Nigerian▁5830
▁prince▁5831
▁Project▁5832
▁addition▁5833
▁isolat▁5834
▁bone▁5835
ani▁5836
▁ironic▁5837
▁quer▁5838
▁phones▁5839
▁strapp▁5840
▁screaming▁5841
▁unexpected▁5842
▁dug▁5843
▁habit▁5844
▁But▁5845
▁attend▁5846
▁Dap▁5847
hne▁5848
▁Kol▁5849
▁intrigu▁5850
▁Course▁5851
▁quiz▁5852
▁peer▁5853
▁assignment▁5854
▁unprecedented▁5855
▁construct▁5856
partheid▁5857
▁minorit▁5858
▁consequence▁5859
▁scarc▁5860
▁Januar▁5861
▁Johannes▁5862
▁admission▁5863
▁registr▁5864
▁gate▁5865
▁hop▁5866
▁stamp▁5867
▁injur▁5868
▁tu▁5869
ition▁5870
fford▁5871
▁recent▁5872
▁Friedman▁5873
▁Times▁5874
▁spirit▁5875
▁enroll▁5876
▁Machine▁5877
▁Learning▁5878
▁cofounde▁5879
▁Ng▁5880
▁register▁5881
▁250▁5882
▁instructor▁5883
▁43▁5884
hri▁5885
▁Calcu▁5886
ki▁5887
uel▁5888
▁fifty▁5889
▁Page▁5890
▁Kle▁5891
mmer▁5892
▁Bush▁5893
▁Mitchell▁5894
▁Dun▁5895
▁mill▁5896
▁sociolog▁5897
▁RG▁5898
▁hyperbol▁5899
▁Nick▁5900
▁Par▁5901
ante▁5902
▁pixel▁5903
▁Paul▁5904
▁Off▁5905
▁Jura▁5906
sky▁5907
▁Luft▁5908
han▁5909
▁breakfast▁5910
▁Jose▁5911
▁coin▁5912
▁computational▁5913
▁1.5▁5914
▁submitt▁5915
▁videos▁5916
▁Ak▁5917
quality▁5918
▁master▁5919
▁Ryan▁5920
▁defi▁5921
▁germ▁5922
▁correspondence▁5923
▁Shannon▁5924
▁deadline▁5925
▁usage▁5926
▁graph▁5927
▁spike▁5928
▁certificate▁5929
▁prospect▁5930
▁explicit▁5931
▁format▁5932
▁monolith▁5933
▁modular▁5934
▁unit▁5935
verse▁5936
atory▁5937
▁enrich▁5938
all▁5939
▁curriculum▁5940
▁passive▁5941
▁Science▁5942
▁retriev▁5943
▁pause▁5944
▁SP▁5945
▁discount▁5946
▁quo▁5947
▁bias▁5948
viation▁5949
▁submit▁5950
▁mathematical▁5951
▁programm▁5952
▁Computer▁5953
▁101▁5954
correct▁5955
▁blurr▁5956
▁browser▁5957
▁Lady▁5958
▁Li▁5959
bert▁5960
ick▁5961
▁facult▁5962
produc▁5963
ssig▁5964
axis▁5965
▁correlate▁5966
▁x▁5967
▁incentivize▁5968
▁pipeline▁5969
▁intellectual▁5970
▁endeavor▁5971
▁Princeton▁5972
ology▁5973
▁awake▁5974
▁testimon▁5975
assembl▁5976
▁geographical▁5977
▁constraint▁5978
▁multicultural▁5979
▁click▁5980
▁submission▁5981
drive▁5982
▁versu▁5983
▁misconception▁5984
▁plot▁5985
▁cross▁5986
▁error▁5987
▁bucket▁5988
▁virtue▁5989
▁solv▁5990
▁Bloom▁5991
▁populations▁5992
▁studie▁5993
▁instruction▁5994
▁98▁5995
▁hence▁5996
▁smartphone▁5997
▁obsolet▁5998
▁Twa▁5999
▁College▁6000
▁P▁6001
▁filling▁6002
▁wood▁6003
▁le▁6004
solv▁6005
▁metric▁6006
▁standardize▁6007
▁summarize▁6008
▁shame▁6009
▁Albert▁6010
▁Einstein▁6011
▁Jobs▁6012
▁Mauri▁6013
zi▁6014
▁stone▁6015
▁Leonardo▁6016
▁Vinci▁6017
▁Battle▁6018
▁Ang▁6019
ari▁6020
▁1975▁6021
▁Floren▁6022
▁Carlo▁6023
▁former▁6024
own▁6025
cent▁6026
▁related▁6027
▁masterpiece▁6028
▁Pala▁6029
▁Ve▁6030
engineer▁6031
▁decorat▁6032
▁Va▁6033
sari▁6034
▁halt▁6035
▁Guinness▁6036
model▁6037
60▁6038
▁Grand▁6039
▁Duke▁6040
imo▁6041
▁Med▁6042
▁church▁6043
▁Santa▁6044
▁admire▁6045
▁antenna▁6046
▁panel▁6047
▁Fight▁6048
▁Standard▁6049
lma▁6050
▁Diego▁6051
▁heritage▁6052
ISA▁6053
▁archaeolog▁6054
11▁6055
▁Professor▁6056
▁Fal▁6057
▁Kueste▁6058
▁Madonna▁6059
▁Chair▁6060
▁shin▁6061
▁UV▁6062
▁lady▁6063
touch▁6064
▁Uni▁6065
corn▁6066
▁painting▁6067
▁Ra▁6068
▁unicorn▁6069
upp▁6070
▁examination▁6071
finishe▁6072
▁symbol▁6073
▁attribut▁6074
▁objective▁6075
▁subjective▁6076
▁admir▁6077
▁vivid▁6078
▁Mag▁6079
made▁6080
XY▁6081
Z▁6082
▁centuries▁6083
▁portrait▁6084
▁magnificent▁6085
▁genial▁6086
▁elephant▁6087
▁epiphan▁6088
▁augmented▁6089
▁simulat▁6090
▁aim▁6091
▁locked▁6092
▁scroll▁6093
▁staircase▁6094
▁reconstruct▁6095
▁ruin▁6096
▁protagonist▁6097
ped▁6098
▁Renaissance▁6099
▁blend▁6100
▁definite▁6101
▁breed▁6102
▁Whit▁6103
acre▁6104
▁Choir▁6105
▁Live▁6106
▁1991▁6107
▁victor▁6108
▁lap▁6109
▁choir▁6110
▁idylli▁6111
▁cricket▁6112
▁frog▁6113
▁Steven▁6114
▁Spiel▁6115
berg▁6116
▁clouds▁6117
▁thunder▁6118
▁Mexican▁6119
avi▁6120
▁Pa▁6121
▁Cloud▁6122
burst▁6123
ouTube▁6124
▁Virtual▁6125
▁185▁6126
▁dorm▁6127
05▁6128
2▁6129
▁58▁6130
▁Sleep▁6131
▁Water▁6132
▁73▁6133
▁Skype▁6134
▁Cal▁6135
▁Fuller▁6136
▁Riverside▁6137
▁Community▁6138
ncy▁6139
▁Laura▁6140
▁Tric▁6141
▁deceptive▁6142
▁3-▁6143
▁muse▁6144
▁friendship▁6145
▁rehab▁6146
▁addiction▁6147
▁wound▁6148
▁proud▁6149
▁gentleman▁6150
▁Thank▁6151
▁bread▁6152
inner▁6153
▁April▁6154
▁chore▁6155
▁steak▁6156
▁Would▁6157
secure▁6158
▁wheel▁6159
ps▁6160
▁household▁6161
▁roof▁6162
▁backyard▁6163
▁mothers▁6164
▁Carter▁6165
▁Emma▁6166
▁programmer▁6167
▁visualization▁6168
▁stunning▁6169
▁Digital▁6170
▁Universe▁6171
▁flat▁6172
bound▁6173
limited▁6174
▁Atlas▁6175
▁Museum▁6176
▁Natural▁6177
▁Histor▁6178
▁Planet▁6179
arium▁6180
▁dome▁6181
▁host▁6182
▁Link▁6183
SS▁6184
▁interactive▁6185
▁Matt▁6186
▁Low▁6187
▁Side▁6188
▁Manhattan▁6189
▁collaborative▁6190
▁exhibit▁6191
▁comparative▁6192
▁cosmolog▁6193
▁realm▁6194
▁galaxie▁6195
low▁6196
▁WMAP▁6197
▁microwave▁6198
▁meaningless▁6199
▁jumped▁6200
planet▁6201
▁solar▁6202
▁magni▁6203
tude▁6204
▁Voyage▁6205
▁1▁6206
▁Pi▁6207
▁spacecraft▁6208
▁orbit▁6209
▁Moon▁6210
▁Porc▁6211
▁Cassini▁6212
▁phase▁6213
▁ingenious▁6214
▁encounter▁6215
▁Titan▁6216
▁Merc▁6217
▁diver▁6218
Sahara▁6219
▁librari▁6220
▁ghetto▁6221
▁Columbia▁6222
▁Cambodia▁6223
▁Saturday▁6224
▁Nepal▁6225
▁Tibet▁6226
▁fires▁6227
▁Gange▁6228
▁closing▁6229
▁snow▁6230
▁Na▁6231
lini▁6232
ka▁6233
▁prison▁6234
▁inmates▁6235
▁epi▁6236
asis▁6237
▁trunk▁6238
▁paintbrush▁6239
▁western▁6240
▁Douglas▁6241
▁Picasso▁6242
net▁6243
▁quantify▁6244
▁vine▁6245
▁tree▁6246
▁multipli▁6247
▁branch▁6248
▁186▁6249
,5▁6250
▁2.3▁6251
▁incarcerat▁6252
▁declin▁6253
▁Department▁6254
▁Cor▁6255
ction▁6256
▁sustainability▁6257
ft▁6258
▁Nature▁6259
▁Sta▁6260
▁endanger▁6261
▁prairie▁6262
▁restoration▁6263
▁Fish▁6264
▁Wild▁6265
▁Oregon▁6266
▁spott▁6267
▁wetland▁6268
▁begu▁6269
▁Super▁6270
action▁6271
▁guards▁6272
▁prisoner▁6273
▁meetings▁6274
mobile▁6275
▁yards▁6276
pez▁6277
litary▁6278
▁seren▁6279
▁calm▁6280
circle▁6281
rief▁6282
▁racis▁6283
▁Michael▁6284
▁Hans▁6285
▁unimaginabl▁6286
▁division▁6287
▁algorithm▁6288
▁outrageous▁6289
▁draft▁6290
▁architectural▁6291
▁origin▁6292
▁preconception▁6293
▁split▁6294
▁identical▁6295
▁distinct▁6296
▁asymmetric▁6297
▁simplify▁6298
▁fold▁6299
▁iteration▁6300
▁ratio▁6301
▁exert▁6302
▁specify▁6303
▁sculpt▁6304
▁intersect▁6305
pound▁6306
▁scope▁6307
▁99.9▁6308
▁geometric▁6309
▁curv▁6310
ature▁6311
▁radi▁6312
▁elaborate▁6313
▁minimal▁6314
▁archetyp▁6315
▁algorithmic▁6316
▁cylinder▁6317
▁formation▁6318
bility▁6319
▁overall▁6320
▁microscop▁6321
▁und▁6322
▁elevation▁6323
▁determin▁6324
▁random▁6325
▁analog▁6326
▁printing▁6327
vor▁6328
▁tradeoff▁6329
▁resolution▁6330
▁slice▁6331
▁unbe▁6332
known▁6333
▁segment▁6334
▁photo▁6335
▁rendering▁6336
▁preserve▁6337
,7▁6338
▁kilo▁6339
▁auditorium▁6340
▁machines▁6341
▁hybrid▁6342
▁illusion▁6343
▁await▁6344
▁Hoffman▁6345
▁Sputnik▁6346
length▁6347
▁Man▁6348
▁Soviet▁6349
▁Union▁6350
start▁6351
▁desolate▁6352
▁nose▁6353
▁Russian▁6354
▁Ga▁6355
▁Columb▁6356
▁fortune▁6357
▁terrestrial▁6358
▁snippet▁6359
▁Monday▁6360
▁bombs▁6361
▁IBM▁6362
▁loose▁6363
▁historian▁6364
▁Pearl▁6365
▁Harbo▁6366
▁Congress▁6367
▁1,2▁6368
▁nuclear▁6369
▁20,000▁6370
▁Civil▁6371
▁Defens▁6372
▁78▁6373
▁Gallup▁6374
▁scholarship▁6375
▁Vint▁6376
▁ARPA▁6377
▁investor▁6378
▁TEDster▁6379
▁Walker▁6380
▁Ken▁6381
▁Kam▁6382
▁dead▁6383
liest▁6384
▁Mount▁6385
▁climb▁6386
▁survived▁6387
▁burie▁6388
▁conference▁6389
▁surviv▁6390
▁summon▁6391
0▁6392
▁Geographic▁6393
▁tectonic▁6394
▁sens▁6395
aku▁6396
take▁6397
▁Mars▁6398
▁jacket▁6399
▁solid▁6400
,500▁6401
▁Two▁6402
▁Camp▁6403
▁dwarf▁6404
▁3,000▁6405
MA▁6406
▁preparation▁6407
▁camps▁6408
fall▁6409
▁waterfall▁6410
▁rat▁6411
▁maze▁6412
▁tumbl▁6413
v▁6414
asse▁6415
▁ladder▁6416
▁rope▁6417
▁climbing▁6418
▁Thre▁6419
▁fixed▁6420
▁profile▁6421
our▁6422
▁blown▁6423
▁Rob▁6424
ular▁6425
▁Face▁6426
▁steep▁6427
▁daylight▁6428
degree▁6429
blew▁6430
▁anticipat▁6431
▁ferocious▁6432
▁mask▁6433
▁rebreather▁6434
▁tank▁6435
itanium▁6436
▁8,000▁6437
▁fierce▁6438
▁dressed▁6439
▁equipp▁6440
▁Doug▁6441
▁exhaust▁6442
▁Beck▁6443
▁Weather▁6444
▁confusion▁6445
unk▁6446
▁Bur▁6447
▁Pet▁6448
than▁6449
▁rescue▁6450
▁Hol▁6451
▁Leave▁6452
▁stabilize▁6453
▁advice▁6454
▁syringe▁6455
▁steroid▁6456
▁luc▁6457
▁injection▁6458
▁clothes▁6459
▁pregnan▁6460
▁signed▁6461
▁impos▁6462
▁kit▁6463
▁warm▁6464
▁reviv▁6465
▁stumbl▁6466
▁mum▁6467
▁cat▁6468
▁indicate▁6469
▁laying▁6470
▁speculate▁6471
▁SPECT▁6472
▁scan▁6473
▁frontal▁6474
▁lobe▁6475
▁concentration▁6476
▁temporal▁6477
bell▁6478
▁stem▁6479
tenance▁6480
▁heartbeat▁6481
spiration▁6482
▁portion▁6483
▁experienc▁6484
▁danger▁6485
▁metabolic▁6486
motivat▁6487
▁cingul▁6488
▁transmitt▁6489
▁spreading▁6490
▁lungs▁6491
▁epic▁6492
▁helicopter▁6493
▁Kath▁6494
du▁6495
▁memorial▁6496
▁Fischer▁6497
▁Andy▁6498
▁Harris▁6499
mba▁6500
▁prayer▁6501
yrone▁6502
▁Haye▁6503
▁Penelope▁6504
▁Cha▁6505
ffer▁6506
▁chemicals▁6507
▁unbor▁6508
▁scientist▁6509
razine▁6510
ide▁6511
▁corn▁6512
▁joking▁6513
▁estrogen▁6514
▁Baby▁6515
▁statistics▁6516
▁skyrocket▁6517
incidence▁6518
leuk▁6519
emia▁6520
▁statistic▁6521
▁Canadian▁6522
▁asthma▁6523
fold▁6524
▁autism▁6525
▁autist▁6526
▁disorders▁6527
▁genital▁6528
▁defect▁6529
▁diabetes▁6530
▁premature▁6531
▁pubert▁6532
▁pesticide▁6533
▁evaluate▁6534
▁amphibian▁6535
▁EPA▁6536
register▁6537
▁0.1▁6538
▁dissect▁6539
▁ovari▁6540
eopard▁6541
birth▁6542
▁chicken▁6543
▁testicle▁6544
▁consum▁6545
▁imbalance▁6546
▁testosterone▁6547
▁enzyme▁6548
mat▁6549
▁subsequent▁6550
▁fe▁6551
▁regulate▁6552
ozo▁6553
▁mutate▁6554
▁exposure▁6555
PJ▁6556
▁bis▁6557
phenol▁6558
PA▁6559
carbon▁6560
▁synthetic▁6561
ache▁6562
▁formula▁6563
▁newborn▁6564
▁infant▁6565
▁cup▁6566
▁Senate▁6567
▁police▁6568
▁proven▁6569
▁leak▁6570
▁stands▁6571
▁th▁6572
▁extinction▁6573
▁dinosaurs▁6574
▁indicator▁6575
hell▁6576
▁membrane▁6577
▁mammals▁6578
▁generat▁6579
▁pregnanc▁6580
▁prostate▁6581
▁pup▁6582
▁impair▁6583
amma▁6584
▁retard▁6585
▁nourish▁6586
▁PCB▁6587
▁DDT▁6588
▁determine▁6589
▁womb▁6590
fspring▁6591
▁visualize▁6592
ano▁6593
▁artificial▁6594
▁van▁6595
guard▁6596
▁resonance▁6597
▁contaminat▁6598
▁activist▁6599
▁sperm▁6600
bule▁6601
▁reptile▁6602
▁coincidence▁6603
emen▁6604
▁urine▁6605
American▁6606
▁chlorop▁6607
▁Carson▁6608
gab▁6609
▁Uganda▁6610
▁sole▁6611
▁bath▁6612
▁environmental▁6613
▁Oakland▁6614
▁faucet▁6615
percussion▁6616
▁ignorant▁6617
▁burden▁6618
▁Daw▁6619
▁novelist▁6620
truck▁6621
▁Hurricane▁6622
▁Sand▁6623
▁Mau▁6624
▁gallon▁6625
▁batteries▁6626
▁shower▁6627
▁preoccup▁6628
▁baker▁6629
▁entrance▁6630
ison▁6631
charging▁6632
▁outlet▁6633
▁indirect▁6634
▁arc▁6635
▁discrete▁6636
▁heartbreak▁6637
▁disappointment▁6638
frame▁6639
▁immersive▁6640
▁embedded▁6641
▁bud▁6642
▁regret▁6643
▁nostalgi▁6644
▁alter▁6645
▁granular▁6646
▁comprehend▁6647
second▁6648
▁signal▁6649
▁arrow▁6650
▁app▁6651
▁Delhi▁6652
▁reservation▁6653
▁plain▁6654
▁archive▁6655
▁distinction▁6656
▁prioritize▁6657
▁landmark▁6658
▁invitation▁6659
▁exile▁6660
▁sake▁6661
▁competition▁6662
▁absent▁6663
▁convenience▁6664
▁horror▁6665
▁Paris▁6666
▁shatter▁6667
▁displace▁6668
▁perpetuate▁6669
rift▁6670
▁simultaneous▁6671
vis▁6672
▁Bud▁6673
▁Spanish▁6674
▁rid▁6675
link▁6676
▁terra▁6677
▁Jupiter▁6678
▁Saturn▁6679
▁Bear▁6680
▁balance▁6681
▁wrapp▁6682
war▁6683
▁deepest▁6684
▁clutch▁6685
▁soap▁6686
selves▁6687
▁encapsulate▁6688
▁skip▁6689
▁tuck▁6690
▁cub▁6691
▁chopp▁6692
bb▁6693
▁Behar▁6694
▁dig▁6695
▁wit▁6696
$▁6697
▁Turkish▁6698
▁carpet▁6699
▁mom▁6700
oyle▁6701
▁storytelling▁6702
urf▁6703
witzer▁6704
▁fin▁6705
▁trap▁6706
▁graphics▁6707
▁Silicon▁6708
▁Valley▁6709
▁manager▁6710
PO▁6711
▁Luke▁6712
▁retrospect▁6713
▁styl▁6714
▁quote▁6715
▁advertis▁6716
project▁6717
▁functionalit▁6718
▁Mini▁6719
▁horizontal▁6720
▁manufacturer▁6721
stool▁6722
▁Swa▁6723
▁lamp▁6724
▁Herman▁6725
▁Miller▁6726
▁mood▁6727
▁civic▁6728
▁users▁6729
▁glue▁6730
bone▁6731
▁tech▁6732
▁nerd▁6733
ories▁6734
▁pursu▁6735
▁sketch▁6736
ain▁6737
▁CEO▁6738
▁Ali▁6739
▁Ar▁6740
▁sodas▁6741
▁symmetric▁6742
▁upside▁6743
▁emulat▁6744
▁Laptop▁6745
▁precious▁6746
▁Nichol▁6747
▁Negro▁6748
pont▁6749
▁spoken▁6750
▁founder▁6751
▁OLPC▁6752
Fi▁6753
▁sunlight▁6754
▁keyboard▁6755
▁rubber▁6756
▁Uru▁6757
gua▁6758
▁Mongol▁6759
▁bei▁6760
▁manufactur▁6761
▁nephew▁6762
▁Valenti▁6763
▁Health▁6764
▁dispense▁6765
▁hydrant▁6766
▁Pu▁6767
▁homeless▁6768
▁announcement▁6769
▁stigma▁6770
▁Egg▁6771
▁Up▁6772
▁School▁6773
▁spell▁6774
alencia▁6775
lept▁6776
▁Neil▁6777
▁compar▁6778
▁Brooklyn▁6779
▁flexible▁6780
▁Park▁6781
lop▁6782
▁inspiring▁6783
fund▁6784
▁multiply▁6785
▁clone▁6786
▁editor▁6787
▁assistant▁6788
▁prima▁6789
▁nurtur▁6790
▁enlighten▁6791
uit▁6792
▁rent▁6793
▁Mc▁6794
we▁6795
uarter▁6796
lord▁6797
▁Ware▁6798
▁printed▁6799
▁retail▁6800
▁fluorescent▁6801
▁renovat▁6802
▁hull▁6803
cca▁6804
▁pirate▁6805
▁plank▁6806
eg▁6807
▁fitted▁6808
▁mit▁6809
va▁6810
▁Jok▁6811
▁mop▁6812
▁salt▁6813
▁curtain▁6814
▁edit▁6815
uction▁6816
▁Holi▁6817
▁sandwich▁6818
▁sidewalk▁6819
▁Free▁6820
▁Tutor▁6821
▁Come▁6822
▁All▁6823
▁discourag▁6824
▁Mexic▁6825
▁executive▁6826
▁pe▁6827
hat▁6828
Mo▁6829
▁insane▁6830
shoulder▁6831
computer▁6832
pollinat▁6833
stall▁6834
▁hob▁6835
▁1,4▁6836
▁corp▁6837
▁Book▁6838
▁Was▁6839
▁Check▁6840
▁malleab▁6841
▁essay▁6842
▁staff▁6843
▁Room▁6844
▁style▁6845
▁library▁6846
▁52▁6847
▁Stra▁6848
▁Mayor▁6849
▁Gavi▁6850
▁Isabel▁6851
▁Allende▁6852
▁assign▁6853
▁Marshall▁6854
▁High▁6855
▁Bay▁6856
▁Area▁6857
▁Amazon▁6858
▁170▁6859
▁Some▁6860
▁addict▁6861
shelf▁6862
▁diminish▁6863
▁ga▁6864
▁judge▁6865
▁member▁6866
▁gateway▁6867
▁web▁6868
▁parrot▁6869
▁downtown▁6870
▁Compan▁6871
▁Sam▁6872
▁Pot▁6873
▁superhero▁6874
▁repurpos▁6875
villa▁6876
▁vault▁6877
▁sales▁6878
▁Sharo▁6879
▁Hob▁6880
▁Jersey▁6881
▁shelve▁6882
▁grappl▁6883
no▁6884
borough▁6885
▁devotion▁6886
▁flick▁6887
▁Kha▁6888
▁Ham▁6889
▁addictive▁6890
rot▁6891
Be▁6892
▁Pen▁6893
gu▁6894
▁Bal▁6895
▁penguin▁6896
▁Symphon▁6897
▁Space▁6898
▁evangelical▁6899
▁cousin▁6900
▁Echo▁6901
▁Tra▁6902
▁Mar▁6903
▁Are▁6904
▁mammoth▁6905
▁Back▁6906
ff▁6907
▁Pitt▁6908
▁Massac▁6909
hus▁6910
etts▁6911
▁Spot▁6912
incin▁6913
▁Sp▁6914
▁Studio▁6915
▁Bat▁6916
▁Word▁6917
▁Dublin▁6918
▁leap▁6919
ttendee▁6920
▁Hot▁6921
▁phenomenal▁6922
▁sterile▁6923
▁bureaucrat▁6924
▁unten▁6925
dding▁6926
▁Root▁6927
▁Wol▁6928
engineering▁6929
▁dogs▁6930
▁biotechnolog▁6931
▁Darwinian▁6932
▁nich▁6933
▁settl▁6934
▁intentional▁6935
▁physiological▁6936
wind▁6937
▁selective▁6938
design▁6939
▁beef▁6940
▁buffalo▁6941
ca▁6942
▁pat▁6943
▁supermarket▁6944
▁goat▁6945
▁cute▁6946
▁afterward▁6947
▁taste▁6948
▁camel▁6949
iness▁6950
▁li▁6951
▁lion▁6952
iger▁6953
▁Photoshop▁6954
▁enhancement▁6955
▁manipulation▁6956
▁mammalian▁6957
▁genetically▁6958
▁mammal▁6959
▁wavelength▁6960
▁orange▁6961
▁monkey▁6962
▁manipulate▁6963
▁apes▁6964
▁zebra▁6965
▁FDA▁6966
almon▁6967
▁Chi▁6968
▁regulation▁6969
▁identification▁6970
▁clon▁6971
met▁6972
▁horse▁6973
linger▁6974
▁gold▁6975
geld▁6976
▁duplicate▁6977
lves▁6978
sta▁6979
▁Dotcom▁6980
ombin▁6981
▁modifie▁6982
▁Gene▁6983
gen▁6984
▁Institute▁6985
▁Animal▁6986
uar▁6987
▁Asian▁6988
ulate▁6989
matic▁6990
▁gest▁6991
▁cow▁6992
▁regular▁6993
▁nucle▁6994
▁pure▁6995
▁cockroach▁6996
▁gang▁6997
▁insect▁6998
▁bot▁6999
bot▁7000
▁DARPA▁7001
▁Agenc▁7002
▁beetle▁7003
▁wings▁7004
▁chip▁7005
▁shut▁7006
pf▁7007
▁surveill▁7008
▁Tal▁7009
▁SUN▁7010
▁hemisphere▁7011
▁ethical▁7012
▁autonom▁7013
▁Mig▁7014
▁Nicole▁7015
▁prosthetic▁7016
wave▁7017
▁cage▁7018
▁staring▁7019
▁primate▁7020
▁functional▁7021
▁Florida▁7022
▁60,000▁7023
▁mechanism▁7024
simulator▁7025
▁nutrient▁7026
▁immun▁7027
▁polymer▁7028
▁scaffold▁7029
▁transplant▁7030
technolog▁7031
transplantation▁7032
▁Craig▁7033
▁Venter▁7034
▁synthesizer▁7035
▁Frankenstein▁7036
plasma▁7037
▁reign▁7038
▁Dach▁7039
hund▁7040
▁pink▁7041
▁fur▁7042
▁saliva▁7043
▁Fan▁7044
haus▁7045
zero▁7046
▁Auto▁7047
▁Laborator▁7048
TH▁7049
▁Ball▁7050
▁balanc▁7051
▁inherent▁7052
▁counteract▁7053
▁inform▁7054
▁entertain▁7055
▁footprint▁7056
▁Debora▁7057
▁Rhode▁7058
▁physicist▁7059
▁detection▁7060
▁mammogram▁7061
▁mammograph▁7062
▁rhetoric▁7063
▁radiologist▁7064
▁disclosure▁7065
▁lump▁7066
▁diagnose▁7067
▁benign▁7068
logy▁7069
▁Pre▁7070
▁Service▁7071
Task▁7072
▁recommend▁7073
▁coverage▁7074
▁outrage▁7075
▁Post▁7076
interest▁7077
▁shortage▁7078
▁qualifie▁7079
▁interpret▁7080
▁sue▁7081
▁responsibl▁7082
▁fat▁7083
▁determined▁7084
enopaus▁7085
▁fatty▁7086
▁scatter▁7087
▁fibro▁7088
▁heterogen▁7089
lf▁7090
▁distinguish▁7091
▁obscure▁7092
▁physician▁7093
▁taxpayer▁7094
▁ultrasound▁7095
biopsie▁7096
▁disruptive▁7097
▁ubiquitous▁7098
▁stereo▁7099
▁Hummer▁7100
▁Malco▁7101
lm▁7102
▁Gladwell▁7103
▁essence▁7104
▁innovator▁7105
▁cartoon▁7106
▁disturb▁7107
▁depict▁7108
▁serendipit▁7109
▁May▁7110
▁cardiac▁7111
▁detector▁7112
▁tubes▁7113
▁sci▁7114
illa▁7115
▁ray▁7116
▁centimeter▁7117
conduct▁7118
▁tape▁7119
olecular▁7120
▁MBI▁7121
ternis▁7122
▁biomedic▁7123
rench▁7124
▁duct▁7125
▁skeptic▁7126
▁modification▁7127
▁reli▁7128
▁molecular▁7129
per▁7130
log▁7131
▁40-▁7132
▁compress▁7133
▁faint▁7134
▁surgical▁7135
▁grant▁7136
▁Susan▁7137
▁Ko▁7138
▁investigator▁7139
▁83▁7140
centimeter▁7141
▁secretar▁7142
▁golf▁7143
▁lymph▁7144
▁67▁7145
fifth▁7146
atom▁7147
▁accurate▁7148
ima▁7149
▁prefer▁7150
▁manuscript▁7151
▁journal▁7152
▁rejection▁7153
▁request▁7154
▁reconsider▁7155
▁Radio▁7156
▁replicate▁7157
doption▁7158
▁Ninety▁7159
▁Connecti▁7160
▁menstrua▁7161
▁rage▁7162
▁mortality▁7163
▁sword▁7164
▁advocate▁7165
together▁7166
ctic▁7167
ect▁7168
▁Brother▁7169
▁juggl▁7170
▁uncann▁7171
▁agil▁7172
▁sacrifice▁7173
▁Holz▁7174
▁Barry▁7175
omics▁7176
▁comfort▁7177
▁flexibilit▁7178
▁DH▁7179
▁inspiration▁7180
F▁7181
▁Daniel▁7182
▁MacArthur▁7183
schen▁7184
▁excerpt▁7185
opper▁7186
▁Richard▁7187
▁tradition▁7188
▁bull▁7189
▁balloon▁7190
▁incorporate▁7191
▁Jesus▁7192
▁Christ▁7193
▁Wurma▁7194
▁hate▁7195
▁Wow▁7196
▁flash▁7197
▁Glori▁7198
▁razor▁7199
▁judg▁7200
▁blade▁7201
▁virgin▁7202
▁odd▁7203
▁eyeball▁7204
gosh▁7205
▁French▁7206
▁5.▁7207
▁rap▁7208
▁lying▁7209
▁twin▁7210
▁She▁7211
▁J▁7212
▁Olympic▁7213
▁pearl▁7214
▁tongue▁7215
▁Seven▁7216
club▁7217
fu▁7218
▁joint▁7219
rthritis▁7220
step▁7221
human▁7222
nis▁7223
cus▁7224
▁carti▁7225
▁orthopedic▁7226
▁destin▁7227
▁assum▁7228
▁worn▁7229
▁midst▁7230
▁Doc▁7231
ograf▁7232
grow▁7233
▁Aspen▁7234
▁Hu▁7235
▁motorcycle▁7236
▁barrier▁7237
▁gal▁7238
▁Achilles▁7239
▁collage▁7240
▁strip▁7241
▁detergent▁7242
▁template▁7243
▁insert▁7244
▁procedure▁7245
▁Gal▁7246
▁Tu▁7247
▁Master▁7248
hill▁7249
lig▁7250
▁tack▁7251
face▁7252
bul▁7253
patient▁7254
ware▁7255
▁2.0▁7256
▁Dick▁7257
▁squea▁7258
▁caterpillar▁7259
▁eco▁7260
friend▁7261
timation▁7262
▁conservative▁7263
▁57▁7264
▁contribution▁7265
▁dung▁7266
▁pollinate▁7267
▁reproduction▁7268
▁pest▁7269
ji▁7270
▁inhabitant▁7271
▁gram▁7272
▁tomato▁7273
▁peanut▁7274
▁agency▁7275
▁balls▁7276
▁dye▁7277
eat▁7278
▁Can▁7279
▁Peru▁7280
euros▁7281
▁exponentially▁7282
FA▁7283
▁wealthie▁7284
▁consist▁7285
stock▁7286
▁vegetarian▁7287
▁organs▁7288
therland▁7289
▁classical▁7290
▁fever▁7291
▁entrepreneur▁7292
▁kg▁7293
▁bonus▁7294
mmonia▁7295
analyse▁7296
▁comparabl▁7297
▁grass▁7298
▁Mac▁7299
▁expense▁7300
▁vary▁7301
▁Arno▁7302
▁2020▁7303
▁maker▁7304
▁Minister▁7305
▁menu▁7306
▁ministr▁7307
gue▁7308
▁hobby▁7309
▁1,7▁7310
▁Wagen▁7311
▁Bruno▁7312
▁Gius▁7313
sani▁7314
▁nuts▁7315
▁Lawrence▁7316
▁Le▁7317
ami▁7318
▁remix▁7319
▁Republican▁7320
▁Larry▁7321
▁Democrat▁7322
▁copyright▁7323
▁lens▁7324
▁confess▁7325
oung▁7326
▁Tee▁7327
ngest▁7328
legation▁7329
▁convention▁7330
▁elect▁7331
onald▁7332
▁Reagan▁7333
mine▁7334
▁Wikipedia▁7335
▁junk▁7336
▁Penn▁7337
lvani▁7338
▁speaker▁7339
▁pot▁7340
luck▁7341
▁Wall▁7342
▁keen▁7343
▁ecolog▁7344
▁Teddy▁7345
▁Roosevelt▁7346
▁Julian▁7347
che▁7348
▁libert▁7349
arian▁7350
▁evil▁7351
▁Bra▁7352
▁Pack▁7353
ania▁7354
▁viral▁7355
▁Fransisco▁7356
▁Francis▁7357
▁mash▁7358
▁screw▁7359
▁resonate▁7360
LL▁7361
▁yield▁7362
▁mediate▁7363
▁dialogue▁7364
▁articulat▁7365
▁maximize▁7366
▁suppress▁7367
▁Mick▁7368
team▁7369
▁Willi▁7370
▁dominant▁7371
▁Bus▁7372
▁celebration▁7373
▁Bono▁7374
▁Copyright▁7375
tension▁7376
▁Act▁7377
▁Grim▁7378
bble▁7379
▁creator▁7380
▁Mash▁7381
▁perpetual▁7382
▁employ▁7383
ership▁7384
▁Goldman▁7385
▁Sach▁7386
protected▁7387
▁permission▁7388
▁nonprofit▁7389
▁Creative▁7390
▁requir▁7391
▁350▁7392
▁Wir▁7393
▁upload▁7394
▁matched▁7395
▁DMCA▁7396
▁flaw▁7397
▁audio▁7398
▁included▁7399
▁Bart▁7400
▁Simpson▁7401
▁election▁7402
▁opponent▁7403
▁refus▁7404
▁respectful▁7405
▁luna▁7406
▁agreement▁7407
▁Right▁7408
▁legislati▁7409
▁BMW▁7410
▁Deep▁7411
▁SUV▁7412
▁pole▁7413
▁aesthetic▁7414
terminolog▁7415
▁Michelangelo▁7416
▁elevator▁7417
▁congesti▁7418
▁avatar▁7419
▁anger▁7420
▁Chevy▁7421
▁Rock▁7422
▁sculpture▁7423
▁tension▁7424
▁craftsman▁7425
▁handle▁7426
▁obligation▁7427
▁clay▁7428
▁infectious▁7429
▁Plato▁7430
▁Newton▁7431
▁quant▁7432
▁paradox▁7433
▁4.▁7434
▁4.000▁7435
▁divergen▁7436
▁applica▁7437
brush▁7438
substitut▁7439
▁intimacy▁7440
▁temper▁7441
▁Pygm▁7442
▁killing▁7443
▁stole▁7444
▁fax▁7445
▁monumental▁7446
▁postcard▁7447
▁Las▁7448
▁Vega▁7449
▁Canyon▁7450
▁Niagara▁7451
▁Fall▁7452
▁apartment▁7453
▁Taylor▁7454
▁Mal▁7455
zen▁7456
▁Don▁7457
▁stressed▁7458
▁dialog▁7459
sch▁7460
▁agenda▁7461
▁sketches▁7462
▁brillian▁7463
▁baffl▁7464
▁bullshit▁7465
▁fuck▁7466
▁holiday▁7467
▁Cathe▁7468
rine▁7469
▁priest▁7470
▁sermon▁7471
▁selfish▁7472
▁Guy▁7473
ifi▁7474
▁dictate▁7475
▁coup▁7476
▁Sinclair▁7477
▁refugee▁7478
bus▁7479
▁TEDGlobal▁7480
reported▁7481
estate▁7482
▁mega▁7483
▁migrant▁7484
▁construction▁7485
▁strand▁7486
▁penni▁7487
tari▁7488
▁worker▁7489
▁skyscraper▁7490
▁cancel▁7491
▁1.1▁7492
▁Pakistani▁7493
▁Sri▁7494
▁Lanka▁7495
ese▁7496
▁passport▁7497
▁Build▁7498
af▁7499
▁August▁7500
▁minimum▁7501
▁protest▁7502
adequate▁7503
▁hous▁7504
▁contractor▁7505
lever▁7506
▁arrival▁7507
▁developer▁7508
ethical▁7509
▁Tyle▁7510
▁plans▁7511
▁horrify▁7512
▁textbook▁7513
▁clar▁7514
▁bor▁7515
▁um▁7516
▁smile▁7517
▁memorize▁7518
▁Listen▁7519
▁microscope▁7520
▁bacteri▁7521
▁spoil▁7522
▁horrible▁7523
▁slipp▁7524
▁blueprint▁7525
▁factory▁7526
pionage▁7527
▁terrorist▁7528
▁guarantee▁7529
▁obsession▁7530
▁publisher▁7531
▁engag▁7532
▁slime▁7533
ehen▁7534
▁copie▁7535
ophag▁7536
replication▁7537
▁initiat▁7538
▁fault▁7539
▁ugl▁7540
gging▁7541
▁darkness▁7542
▁Roh▁7543
▁paraphras▁7544
▁sentiment▁7545
▁relevant▁7546
▁disappointed▁7547
▁advoca▁7548
▁learner▁7549
perpetuat▁7550
ech▁7551
▁circum▁7552
▁equi▁7553
libri▁7554
pel▁7555
▁LOLcat▁7556
▁appreciat▁7557
rgon▁7558
wall▁7559
▁Eco▁7560
▁recycl▁7561
▁Serious▁7562
▁Material▁7563
rctic▁7564
▁CO▁7565
▁sushi▁7566
▁redesign▁7567
amp▁7568
▁amp▁7569
▁cement▁7570
▁Dec▁7571
ember▁7572
▁President▁7573
▁Operation▁7574
▁ceremon▁7575
▁Cradle▁7576
▁Gold▁7577
▁Green▁7578
In▁7579
▁Popular▁7580
lick▁7581
▁Natalie▁7582
▁reduc▁7583
▁Windows▁7584
▁windows▁7585
▁Ban▁7586
▁emergenc▁7587
▁temporar▁7588
▁diameter▁7589
▁expo▁7590
▁theme▁7591
▁pavilion▁7592
▁reus▁7593
▁Pomp▁7594
etz▁7595
▁historical▁7596
▁reconstruction▁7597
▁1994▁7598
▁tribes▁7599
▁Hut▁7600
▁Tutsi▁7601
▁blanket▁7602
▁deforest▁7603
▁pipe▁7604
▁barr▁7605
▁moisture▁7606
▁termite▁7607
▁1995▁7608
▁Kobe▁7609
▁district▁7610
▁Vietnamese▁7611
▁suffering▁7612
▁Catholic▁7613
▁commut▁7614
▁fundrais▁7615
▁Kir▁7616
▁Taiwan▁7617
▁donate▁7618
▁dismantle▁7619
urkey▁7620
▁Sumatra▁7621
▁rebuil▁7622
▁Islamic▁7623
▁Chen▁7624
▁Sich▁7625
uan▁7626
▁corruption▁7627
▁Prime▁7628
▁Ber▁7629
▁minister▁7630
▁concert▁7631
▁mayor▁7632
▁Haiti▁7633
▁Santo▁7634
▁Domin▁7635
door▁7636
▁evacuat▁7637
ymnasium▁7638
▁privacy▁7639
▁suffer▁7640
ag▁7641
awa▁7642
iya▁7643
▁baseball▁7644
▁container▁7645
church▁7646
▁Ze▁7647
ay▁7648
anthrop▁7649
▁skeleton▁7650
▁humanoid▁7651
▁converge▁7652
▁upright▁7653
▁Sela▁7654
▁3.3▁7655
▁Australopithec▁7656
far▁7657
▁Luc▁7658
ik▁7659
ika▁7660
▁significan▁7661
▁digg▁7662
▁2.▁7663
▁flute▁7664
▁chimpanzee▁7665
▁ancestr▁7666
▁gradual▁7667
▁hostile▁7668
▁shove▁7669
▁extinct▁7670
▁rhino▁7671
spread▁7672
▁Homo▁7673
▁sapien▁7674
▁anecdote▁7675
▁Here▁7676
▁frustrat▁7677
▁sandstone▁7678
case▁7679
▁expose▁7680
tourism▁7681
▁hallmark▁7682
▁forehead▁7683
▁dim▁7684
▁CT▁7685
▁chimp▁7686
▁cope▁7687
▁dependenc▁7688
▁unite▁7689
oid▁7690
▁progressive▁7691
▁occupy▁7692
▁specimen▁7693
▁primitive▁7694
brain▁7695
▁competent▁7696
▁guns▁7697
iz▁7698
▁Homer▁7699
▁hippocamp▁7700
▁resemble▁7701
▁pulse▁7702
▁electricity▁7703
▁interconnected▁7704
▁spatial▁7705
▁recording▁7706
▁neuron▁7707
▁continual▁7708
▁epilep▁7709
▁impulse▁7710
▁detect▁7711
▁boundary▁7712
▁circular▁7713
▁marker▁7714
▁wander▁7715
▁integrate▁7716
▁array▁7717
▁triangula▁7718
▁longitud▁7719
▁triangle▁7720
▁axe▁7721
▁symmetr▁7722
▁orientation▁7723
detect▁7724
▁matche▁7725
▁cue▁7726
▁autobiograph▁7727
▁wedding▁7728
▁recreate▁7729
▁activat▁7730
▁interconnection▁7731
▁reactiv▁7732
▁viewpoint▁7733
▁compass▁7734
▁neuroscience▁7735
▁Jones▁7736
▁Isa▁7737
legged▁7738
plex▁7739
▁Josh▁7740
omi▁7741
▁Circle▁7742
▁Curt▁7743
▁Vanco▁7744
uver▁7745
15▁7746
▁marsh▁7747
▁stirring▁7748
▁encouragement▁7749
▁existence▁7750
▁warrior▁7751
▁thorn▁7752
force▁7753
▁dress▁7754
down▁7755
▁patern▁7756
▁incompatib▁7757
peration▁7758
▁Wide▁7759
▁Web▁7760
▁corporation▁7761
care▁7762
▁sport▁7763
▁pub▁7764
▁medi▁7765
▁realistic▁7766
▁retire▁7767
▁commute▁7768
▁10-▁7769
▁daunting▁7770
▁Blood▁7771
▁Harry▁7772
▁swing▁7773
▁pizza▁7774
▁Batman▁7775
▁pajama▁7776
▁Giant▁7777
▁Playstation▁7778
ronic▁7779
▁simplistic▁7780
▁shap▁7781
▁constitute▁7782
▁consequent▁7783
▁separation▁7784
▁crucial▁7785
constru▁7786
▁complexity▁7787
▁etern▁7788
▁strangers▁7789
▁murder▁7790
discriminat▁7791
conceivabl▁7792
holera▁7793
▁arrangement▁7794
▁necessit▁7795
▁suicide▁7796
▁72▁7797
▁psychology▁7798
▁mystic▁7799
educ▁7800
▁cooperation▁7801
raising▁7802
▁bruise▁7803
▁bli▁7804
▁spare▁7805
▁rod▁7806
defin▁7807
▁Spec▁7808
▁statue▁7809
▁carve▁7810
▁marathon▁7811
▁donation▁7812
vision▁7813
uous▁7814
▁undermine▁7815
ueen▁7816
izen▁7817
▁voluntary▁7818
▁veil▁7819
▁optimal▁7820
▁dem▁7821
ogue▁7822
▁gay▁7823
▁proliferation▁7824
▁conception▁7825
alai▁7826
▁Lama▁7827
▁integral▁7828
▁fond▁7829
▁abduct▁7830
▁Edward▁7831
▁Witt▁7832
▁theorist▁7833
▁physics▁7834
▁String▁7835
▁bo▁7836
▁exclude▁7837
▁ignorance▁7838
course▁7839
▁destructive▁7840
invent▁7841
▁airplane▁7842
▁lust▁7843
▁imperial▁7844
q▁7845
▁reconcile▁7846
▁negative▁7847
▁compuls▁7848
▁interrogate▁7849
▁judgment▁7850
modu▁7851
lo▁7852
▁delusion▁7853
ecause▁7854
▁ecsta▁7855
▁Kavita▁7856
▁Ram▁7857
style▁7858
▁Global▁7859
▁Fund▁7860
▁traditions▁7861
▁trends▁7862
▁blur▁7863
▁polar▁7864
▁First▁7865
▁Third▁7866
▁oppress▁7867
▁vicious▁7868
plan▁7869
violent▁7870
▁puzzle▁7871
▁harmon▁7872
▁lesbian▁7873
▁Cro▁7874
▁Liberia▁7875
bt▁7876
dem▁7877
eanor▁7878
▁bless▁7879
▁suspicious▁7880
▁uncle▁7881
▁widow▁7882
▁descend▁7883
wild▁7884
mutter▁7885
▁feminist▁7886
▁chant▁7887
▁Hind▁7888
▁Beijing▁7889
turn▁7890
▁Sake▁7891
▁Koran▁7892
▁litera▁7893
▁breeze▁7894
▁immense▁7895
▁pragmatic▁7896
▁assist▁7897
▁mosque▁7898
ug▁7899
▁realiz▁7900
▁opposition▁7901
▁Les▁7902
▁Za▁7903
▁homosexual▁7904
▁discomfort▁7905
▁prejudice▁7906
conflict▁7907
▁unbearabl▁7908
▁Bosnia▁7909
▁Serbia▁7910
lov▁7911
▁folk▁7912
▁queer▁7913
▁Leah▁7914
▁rebel▁7915
ugoslav▁7916
rob▁7917
▁LGBT▁7918
▁repertoire▁7919
▁Church▁7920
balk▁7921
▁trou▁7922
bad▁7923
▁Balkan▁7924
▁Serb▁7925
lika▁7926
▁Ley▁7927
mah▁7928
▁stri▁7929
woman▁7930
▁distress▁7931
▁affair▁7932
▁oppos▁7933
▁dragg▁7934
liberation▁7935
▁curse▁7936
▁accord▁7937
▁mobiliz▁7938
▁Ellen▁7939
▁acknowledge▁7940
▁Fil▁7941
rice▁7942
▁Marx▁7943
▁subvert▁7944
▁dreams▁7945
▁feminism▁7946
▁ruling▁7947
▁occupie▁7948
▁negotiation▁7949
▁mar▁7950
▁Michelle▁7951
▁Shir▁7952
bou▁7953
▁navigate▁7954
militar▁7955
▁thread▁7956
▁fabric▁7957
▁Schulz▁7958
▁compell▁7959
▁Portland▁7960
▁Dakota▁7961
▁row▁7962
▁imitation▁7963
▁picnic▁7964
▁misunderst▁7965
▁poll▁7966
▁emotionally▁7967
▁dreadful▁7968
▁embarrassing▁7969
▁rev▁7970
▁Tun▁7971
▁pathetic▁7972
▁coyote▁7973
▁episode▁7974
▁elementary▁7975
maker▁7976
achi▁7977
▁CFO▁7978
trophy▁7979
▁ultra▁7980
mar▁7981
▁Beth▁7982
▁Medica▁7983
▁stitch▁7984
▁For▁7985
▁external▁7986
▁Gulf▁7987
▁torpedo▁7988
▁disagree▁7989
▁generous▁7990
▁attachment▁7991
▁translucen▁7992
▁Descartes▁7993
▁Augustin▁7994
▁Public▁7995
crypto▁7996
▁readers▁7997
▁invade▁7998
destruction▁7999
osni▁8000
bar▁8001
▁dictator▁8002
▁marry▁8003
heart▁8004
town▁8005
▁astonishe▁8006
▁offen▁8007
▁advancement▁8008
alter▁8009
▁Peace▁8010
apped▁8011
lt▁8012
▁chief▁8013
wear▁8014
▁Wei▁8015
▁companion▁8016
▁activis▁8017
▁Gender▁8018
▁sibling▁8019
▁19▁8020
▁athletic▁8021
▁Millennium▁8022
evelopment▁8023
prostitution▁8024
▁prostitute▁8025
arten▁8026
▁TEDTalk▁8027
▁laureate▁8028
▁Girl▁8029
▁Transform▁8030
▁soft▁8031
▁cellphone▁8032
▁Juan▁8033
ita▁8034
▁doughnut▁8035
▁upset▁8036
▁Texas▁8037
▁LG▁8038
▁Initiative▁8039
▁pessimist▁8040
▁predominant▁8041
▁rape▁8042
▁barbari▁8043
▁Lesl▁8044
hang▁8045
▁globalization▁8046
▁migrate▁8047
▁handbag▁8048
▁rooftop▁8049
▁assembl▁8050
▁iPad▁8051
▁beneficia▁8052
rie▁8053
▁purchase▁8054
▁injustice▁8055
▁appeal▁8056
▁gadget▁8057
▁render▁8058
▁invisib▁8059
▁Wu▁8060
▁Chu▁8061
▁satisfy▁8062
▁Ji▁8063
▁Dong▁8064
▁Lu▁8065
▁Karl▁8066
▁capitalism▁8067
▁cabinet▁8068
▁satisfact▁8069
▁entry▁8070
level▁8071
▁calculation▁8072
▁Min▁8073
▁Coach▁8074
▁purse▁8075
▁leather▁8076
▁Doo▁8077
ney▁8078
port▁8079
▁6,000▁8080
▁currenc▁8081
▁worthless▁8082
▁Signatur▁8083
▁luxur▁8084
▁fla▁8085
▁ador▁8086
▁tendenc▁8087
▁electronics▁8088
▁purchas▁8089
▁Buick▁8090
▁crane▁8091
▁temporari▁8092
▁migration▁8093
▁Nike▁8094
▁depressing▁8095
▁Apple▁8096
LC▁8097
▁impressed▁8098
▁illiterate▁8099
▁weekend▁8100
▁rudiment▁8101
▁upward▁8102
ways▁8103
Gregor▁8104
kka▁8105
ei▁8106
form▁8107
▁script▁8108
▁Cyr▁8109
▁Cy▁8110
▁tolerance▁8111
cultural▁8112
▁Director▁8113
▁biograph▁8114
▁rug▁8115
▁bake▁8116
▁187▁8117
▁invasion▁8118
pot▁8119
▁ruler▁8120
▁Bel▁8121
zzar▁8122
▁53▁8123
▁BC▁8124
▁Rem▁8125
brand▁8126
▁Galler▁8127
▁illustrat▁8128
▁scripture▁8129
buch▁8130
▁Jerusalem▁8131
▁Jew▁8132
▁Babylon▁8133
sia▁8134
▁fest▁8135
▁Persian▁8136
▁Jewish▁8137
▁empire▁8138
▁Mediterrane▁8139
pple▁8140
▁Iraqi▁8141
▁consultant▁8142
▁enslave▁8143
▁repress▁8144
ltar▁8145
▁worship▁8146
▁Ezra▁8147
▁reported▁8148
▁Juda▁8149
▁historic▁8150
▁Dari▁8151
ith▁8152
▁religions▁8153
▁stabilit▁8154
▁Alexander▁8155
pho▁8156
▁Father▁8157
▁Jefferson▁8158
▁god▁8159
▁Bab▁8160
duk▁8161
▁shepherd▁8162
▁grateful▁8163
▁Old▁8164
▁Testament▁8165
▁Je▁8166
sai▁8167
▁thou▁8168
▁hast▁8169
17▁8170
four▁8171
▁1918▁8172
▁divine▁8173
▁Shah▁8174
Muslim▁8175
▁Zo▁8176
▁emblem▁8177
ue▁8178
▁cooperate▁8179
▁loan▁8180
▁tolerant▁8181
▁rum▁8182
▁constitution▁8183
▁Joshua▁8184
▁Klein▁8185
▁crows▁8186
▁hacker▁8187
▁cor▁8188
▁Alfred▁8189
cock▁8190
Bird▁8191
▁vend▁8192
▁cocktail▁8193
adapte▁8194
ept▁8195
▁parasit▁8196
▁responsive▁8197
▁indicat▁8198
▁exponential▁8199
▁Bett▁8200
▁crow▁8201
▁campus▁8202
▁nett▁8203
▁piss▁8204
▁nut▁8205
endai▁8206
▁Pandora▁8207
▁Skinner▁8208
▁spit▁8209
▁sweep▁8210
▁slot▁8211
▁poke▁8212
eck▁8213
▁monopol▁8214
▁discard▁8215
▁Log▁8216
▁tribal▁8217
ureau▁8218
hatte▁8219
▁Bowl▁8220
▁council▁8221
▁Budweiser▁8222
▁nach▁8223
▁candidate▁8224
▁Clinton▁8225
mination▁8226
▁tribe▁8227
▁Obama▁8228
USC▁8229
▁magnific▁8230
▁crowd▁8231
▁rub▁8232
▁nudge▁8233
▁Stage▁8234
▁Five▁8235
▁Virginia▁8236
▁Tech▁8237
▁Law▁8238
▁Performance▁8239
▁hostilit▁8240
▁expire▁8241
▁Motor▁8242
cle▁8243
▁TEDx▁8244
changing▁8245
▁Did▁8246
▁Journal▁8247
▁Medicine▁8248
▁condescen▁8249
ile▁8250
▁surger▁8251
ball▁8252
▁residenc▁8253
▁Zapp▁8254
▁hallway▁8255
▁applaud▁8256
▁competenc▁8257
▁gel▁8258
centric▁8259
▁Truth▁8260
mond▁8261
tu▁8262
▁atrocit▁8263
▁reconcili▁8264
▁guid▁8265
▁accomplish▁8266
▁conclude▁8267
▁DM▁8268
▁na▁8269
intuitive▁8270
▁Independen▁8271
ali▁8272
orient▁8273
▁Luther▁8274
▁48▁8275
▁Chief▁8276
▁Polic▁8277
▁Organization▁8278
BC▁8279
▁McCain▁8280
▁Sub▁8281
▁Frederic▁8282
lag▁8283
▁diagnostic▁8284
▁Senior▁8285
▁Fellow▁8286
wie▁8287
▁miniaturiz▁8288
▁AIDS▁8289
▁capabilit▁8290
▁medication▁8291
resistan▁8292
▁popp▁8293
▁laborator▁8294
▁microfluidic▁8295
▁US▁8296
▁valve▁8297
▁Jona▁8298
ori▁8299
▁tricks▁8300
▁dazzling▁8301
▁flower▁8302
▁ultraviolet▁8303
▁mimick▁8304
▁electron▁8305
▁forensic▁8306
▁chuck▁8307
▁cereal▁8308
▁transfer▁8309
▁bees▁8310
ectar▁8311
▁symbio▁8312
▁hummingbird▁8313
▁hawk▁8314
▁orchid▁8315
▁jaw▁8316
▁pollinator▁8317
▁Darwin▁8318
▁prediction▁8319
evolv▁8320
▁deceive▁8321
hou▁8322
▁texture▁8323
los▁8324
▁ob▁8325
▁bon▁8326
▁fabulous▁8327
lang▁8328
▁perfume▁8329
icero▁8330
rum▁8331
acula▁8332
▁Dor▁8333
set▁8334
mbient▁8335
▁metaboliz▁8336
▁starch▁8337
▁Cent▁8338
▁thermo▁8339
egulation▁8340
terflies▁8341
▁shade▁8342
▁filter▁8343
screen▁8344
▁prim▁8345
rose▁8346
▁Bjor▁8347
▁Ror▁8348
▁poetic▁8349
▁astronomer▁8350
▁Venus▁8351
▁Kim▁8352
▁charm▁8353
▁resist▁8354
▁associat▁8355
▁crayon▁8356
▁inflict▁8357
▁mono▁8358
amas▁8359
huh▁8360
▁Bar▁8361
ubert▁8362
▁anxious▁8363
▁ver▁8364
mino▁8365
▁Franz▁8366
▁Kafka▁8367
▁Meta▁8368
▁justify▁8369
▁useless▁8370
▁Michel▁8371
urnier▁8372
isch▁8373
▁tire▁8374
▁fatigue▁8375
▁Wolf▁8376
gang▁8377
▁joyful▁8378
ime▁8379
▁ballet▁8380
▁eighth▁8381
book▁8382
▁Real▁8383
cal▁8384
▁palace▁8385
▁mor▁8386
▁seldom▁8387
▁galleries▁8388
▁Base▁8389
▁punish▁8390
▁Un▁8391
▁Bull▁8392
▁Du▁8393
banish▁8394
kara▁8395
▁mi▁8396
riff▁8397
▁Lego▁8398
castle▁8399
▁log▁8400
▁Drama▁8401
▁devil▁8402
▁creep▁8403
▁spouse▁8404
▁alcohol▁8405
▁cab▁8406
▁Lear▁8407
▁banker▁8408
▁painter▁8409
▁publicly▁8410
▁Marth▁8411
▁Graham▁8412
▁Gi▁8413
spiring▁8414
▁Cla▁8415
▁Han▁8416
▁blogs▁8417
▁Sash▁8418
ucci▁8419
▁stars▁8420
▁threat▁8421
motion▁8422
▁Milo▁8423
evic▁8424
▁broadcast▁8425
▁Jackson▁8426
▁charit▁8427
rati▁8428
▁circulation▁8429
▁strangl▁8430
▁97▁8431
▁finance▁8432
▁lease▁8433
▁Nikola▁8434
▁planes▁8435
▁subscription▁8436
▁hypothetical▁8437
heard▁8438
▁spectacular▁8439
▁deaf▁8440
bal▁8441
uad▁8442
▁daydream▁8443
matrix▁8444
▁rating▁8445
▁Morning▁8446
▁marketplace▁8447
▁ethnicit▁8448
▁racial▁8449
▁editorial▁8450
▁Fe▁8451
post▁8452
▁occurrence▁8453
▁database▁8454
▁swarm▁8455
▁particle▁8456
▁affection▁8457
▁lips▁8458
▁pond▁8459
▁cursor▁8460
▁Montag▁8461
▁Mob▁8462
▁Metric▁8463
▁murmur▁8464
▁chronological▁8465
▁fog▁8466
montage▁8467
▁mob▁8468
▁statistical▁8469
▁breakdown▁8470
frequent▁8471
▁prolif▁8472
gram▁8473
▁twentie▁8474
▁numerical▁8475
▁mound▁8476
▁dataset▁8477
▁gelatin▁8478
gle▁8479
▁lonel▁8480
ahoo▁8481
ule▁8482
▁fingerprint▁8483
▁capsule▁8484
▁Voice▁8485
▁punct▁8486
ez▁8487
eb▁8488
▁Ver▁8489
▁Orion▁8490
▁Hunter▁8491
▁overhead▁8492
▁Andromeda▁8493
▁battl▁8494
▁Chr▁8495
▁Olymp▁8496
▁constellation▁8497
▁debut▁8498
▁Our▁8499
▁Modern▁8500
▁Mytho▁8501
▁Aurora▁8502
zeit▁8503
geist▁8504
▁mytholog▁8505
▁Ford▁8506
▁alphabet▁8507
▁Anna▁8508
▁Ger▁8509
▁coffin▁8510
▁photographic▁8511
▁representation▁8512
▁Barack▁8513
▁Alabama▁8514
▁Jazeera▁8515
▁superstar▁8516
▁loo▁8517
cooter▁8518
▁Lib▁8519
▁timeline▁8520
▁Nairobi▁8521
▁participator▁8522
growth▁8523
▁enlist▁8524
▁critter▁8525
▁interdependenc▁8526
test▁8527
▁Smart▁8528
▁nomad▁8529
▁hunter▁8530
▁rabbit▁8531
tod▁8532
▁administer▁8533
▁hir▁8534
▁wheat▁8535
▁administrator▁8536
literate▁8537
▁Protestant▁8538
▁Reform▁8539
▁democrac▁8540
▁cooperative▁8541
▁enabl▁8542
▁desktop▁8543
band▁8544
▁sociologist▁8545
▁Kelly▁8546
▁payoff▁8547
▁probe▁8548
▁competitor▁8549
▁tournament▁8550
▁tat▁8551
▁innate▁8552
▁anthropologist▁8553
▁slash▁8554
burn▁8555
▁pastor▁8556
▁Garret▁8557
▁grazing▁8558
▁maxim▁8559
zing▁8560
▁deplet▁8561
▁watershed▁8562
▁neuro▁8563
▁altruistic▁8564
▁Su▁8565
ochai▁8566
kl▁8567
▁Sun▁8568
sourcing▁8569
▁pharmaceutical▁8570
▁Toyota▁8571
▁altruism▁8572
▁Linux▁8573
▁blogger▁8574
Sense▁8575
▁Appli▁8576
▁Programm▁8577
▁Interface▁8578
▁eBay▁8579
mal▁8580
▁trustworth▁8581
▁encyclopedia▁8582
▁Think▁8583
▁NGO▁8584
▁Bit▁8585
put▁8586
@▁8587
▁Sal▁8588
▁Kenya▁8589
organiz▁8590
▁SMS▁8591
disciplinar▁8592
▁microorganism▁8593
▁alleviate▁8594
Gordon▁8595
▁Brown▁8596
▁UK▁8597
▁delighted▁8598
▁White▁8599
▁conscience▁8600
▁Square▁8601
▁Sudan▁8602
▁sympath▁8603
▁Palm▁8604
▁Social▁8605
▁reply▁8606
▁abolish▁8607
▁instantaneous▁8608
▁frontier▁8609
▁slave▁8610
▁William▁8611
▁Wilb▁8612
▁hearts▁8613
▁Egla▁8614
▁Save▁8615
▁Es▁8616
▁Zimbabwe▁8617
gabe▁8618
▁Burm▁8619
▁monk▁8620
▁blogg▁8621
▁persecut▁8622
▁Kyi▁8623
▁slavery▁8624
▁welfare▁8625
▁discriminati▁8626
▁Nelson▁8627
▁Mandela▁8628
▁Win▁8629
▁terrorism▁8630
openhagen▁8631
▁transferr▁8632
▁Iceland▁8633
▁prosperity▁8634
▁Sierra▁8635
▁Leone▁8636
▁Tanzania▁8637
▁orphan▁8638
▁tuberc▁8639
ulosi▁8640
gged▁8641
▁eleven▁8642
▁export▁8643
▁commemorat▁8644
▁peacekeep▁8645
rid▁8646
▁Gree▁8647
▁Demo▁8648
▁hallucination▁8649
▁neurologist▁8650
Bonnet▁8651
▁syndrome▁8652
▁nur▁8653
ker▁8654
▁Rosali▁8655
▁sane▁8656
cular▁8657
People▁8658
▁cats▁8659
▁hallucinat▁8660
▁oblivio▁8661
▁relieve▁8662
▁cataract▁8663
ief▁8664
▁fade▁8665
▁miniatur▁8666
▁repetiti▁8667
▁hyperactiv▁8668
▁cartoons▁8669
▁Ker▁8670
▁Sesam▁8671
▁Freud▁8672
▁deform▁8673
▁reassur▁8674
diagnose▁8675
▁psycho▁8676
▁vocal▁8677
▁accus▁8678
▁seduce▁8679
▁roast▁8680
▁senses▁8681
▁1982▁8682
▁fusiform▁8683
▁abnormal▁8684
▁fig▁8685
▁inferior▁8686
▁cluster▁8687
▁interrupt▁8688
▁stimulation▁8689
▁coherenc▁8690
▁association▁8691
▁ignore▁8692
▁hexagon▁8693
▁migraine▁8694
namen▁8695
▁sniff▁8696
▁mines▁8697
▁landmine▁8698
▁rodent▁8699
bil▁8700
▁exuberan▁8701
▁princess▁8702
▁Diana▁8703
▁contrar▁8704
▁soil▁8705
▁allocate▁8706
▁reinforce▁8707
▁smash▁8708
▁banana▁8709
▁leash▁8710
▁ac▁8711
credit▁8712
▁Mine▁8713
▁Action▁8714
▁Standards▁8715
▁operational▁8716
▁min▁8717
▁Mozambi▁8718
▁manual▁8719
▁borders▁8720
▁1.▁8721
▁detected▁8722
▁infections▁8723
positive▁8724
▁et▁8725
▁tar▁8726
▁Hippocrat▁8727
▁89▁8728
▁86▁8729
▁cassette▁8730
▁discriminate▁8731
▁1,6▁8732
▁custom▁8733
▁Sala▁8734
▁1,800▁8735
▁interval▁8736
automat▁8737
▁Val▁8738
▁18-▁8739
▁commandment▁8740
▁heck▁8741
▁censor▁8742
▁nurture▁8743
▁neurological▁8744
▁quirk▁8745
gh▁8746
▁seizure▁8747
▁poo▁8748
▁trauma▁8749
▁mechanic▁8750
▁uncertaint▁8751
▁observer▁8752
▁anxiety▁8753
▁ambiguit▁8754
▁Buddhist▁8755
▁morally▁8756
ambiguous▁8757
▁ghost▁8758
▁accidental▁8759
▁opium▁8760
▁Tai▁8761
▁Gui▁8762
▁randomly▁8763
tour▁8764
▁pr▁8765
istine▁8766
▁ominous▁8767
▁court▁8768
▁province▁8769
▁agreed▁8770
▁ritual▁8771
▁links▁8772
world▁8773
▁superstitio▁8774
▁synchron▁8775
▁partial▁8776
▁Rose▁8777
▁feat▁8778
▁bell▁8779
▁delightful▁8780
▁bilingual▁8781
▁Shankar▁8782
skrit▁8783
▁goddess▁8784
▁choreograph▁8785
▁tapestr▁8786
▁glory▁8787
▁civilian▁8788
oma▁8789
▁Canc▁8790
dia▁8791
▁unw▁8792
vara▁8793
▁disgust▁8794
▁enorm▁8795
▁vor▁8796
▁dried▁8797
▁ravage▁8798
▁chemotherap▁8799
▁overwhelm▁8800
▁miser▁8801
learn▁8802
urga▁8803
▁Hindu▁8804
enden▁8805
decke▁8806
fare▁8807
▁rode▁8808
▁battlefield▁8809
▁feminine▁8810
▁attribute▁8811
▁dismay▁8812
▁animate▁8813
significant▁8814
▁Sim▁8815
▁resilienc▁8816
▁Spence▁8817
▁geneticist▁8818
ographic▁8819
jo▁8820
vu▁8821
▁Guinea▁8822
▁origins▁8823
▁gorilla▁8824
masse▁8825
gar▁8826
▁Eurasi▁8827
▁gibbon▁8828
▁orangutan▁8829
▁mushroom▁8830
▁morpholog▁8831
▁hominid▁8832
▁Gor▁8833
▁Leakey▁8834
▁hab▁8835
▁aus▁8836
▁von▁8837
▁categorize▁8838
▁Natur▁8839
disc▁8840
species▁8841
▁bla▁8842
▁dismiss▁8843
rwin▁8844
▁anthropolog▁8845
Carlton▁8846
▁genealog▁8847
parent▁8848
▁3.▁8849
typ▁8850
▁substitute▁8851
▁matern▁8852
DNA▁8853
▁simplifie▁8854
▁Mit▁8855
och▁8856
rial▁8857
chromosom▁8858
▁isotope▁8859
▁glaci▁8860
emisphere▁8861
▁Seattle▁8862
▁Scan▁8863
via▁8864
▁85▁8865
▁precipitat▁8866
▁dropping▁8867
▁Sahara▁8868
▁Neanderthal▁8869
▁locker▁8870
▁grassland▁8871
▁45,000▁8872
▁Siberia▁8873
▁Pal▁8874
eolith▁8875
ourne▁8876
NG▁8877
▁coarse▁8878
▁indigen▁8879
▁Human▁8880
▁Genome▁8881
▁Rover▁8882
▁enterprise▁8883
▁plow▁8884
▁Lega▁8885
▁25,000▁8886
▁Gran▁8887
▁Gaza▁8888
▁Taj▁8889
istan▁8890
▁album▁8891
▁Map▁8892
▁Flo▁8893
2010▁8894
▁evocati▁8895
▁quart▁8896
▁Nu▁8897
▁1930▁8898
ark▁8899
▁450▁8900
▁watt▁8901
▁turbine▁8902
▁beacon▁8903
▁1947▁8904
▁Jerem▁8905
▁energetic▁8906
▁qualification▁8907
▁dyslexi▁8908
▁potter▁8909
▁irrelevant▁8910
dad▁8911
gas▁8912
▁rang▁8913
▁Mat▁8914
▁Oscar▁8915
▁Mary▁8916
▁Robinson▁8917
▁Genev▁8918
▁hippie▁8919
▁Ahmed▁8920
▁Arab▁8921
▁unwilling▁8922
▁General▁8923
▁Ass▁8924
embl▁8925
▁54▁8926
▁calendar▁8927
▁Glob▁8928
▁institutionaliz▁8929
▁nonviolence▁8930
▁cynic▁8931
▁corridor▁8932
▁Ahmad▁8933
▁Fa▁8934
▁UN▁8935
ICE▁8936
▁chap▁8937
▁Jud▁8938
▁attraction▁8939
▁constituenc▁8940
SAF▁8941
▁NATO▁8942
▁Fat▁8943
▁Gail▁8944
▁instrumental▁8945
▁kidnappe▁8946
▁1.6▁8947
▁dialect▁8948
▁offensive▁8949
▁Securit▁8950
▁Safe▁8951
utilize▁8952
▁Arena▁8953
▁petition▁8954
▁union▁8955
▁utiliz▁8956
▁Ambassador▁8957
▁relation▁8958
▁365▁8959
▁Mel▁8960
inda▁8961
▁Coca▁8962
Cola▁8963
orporation▁8964
▁distribut▁8965
▁jar▁8966
flu▁8967
▁stagger▁8968
▁entrepreneuri▁8969
▁shareholder▁8970
nowledge▁8971
▁Namibia▁8972
▁Sprit▁8973
▁evaluation▁8974
▁192▁8975
▁truck▁8976
elling▁8977
distribution▁8978
▁bicycle▁8979
erala▁8980
▁30,000▁8981
▁immunization▁8982
▁advis▁8983
▁delivery▁8984
eur▁8985
▁slogan▁8986
▁Open▁8987
▁Happiness▁8988
▁Cup▁8989
▁Wa▁8990
▁Somali▁8991
▁Teach▁8992
▁diarrhea▁8993
▁defecat▁8994
▁reuse▁8995
tail▁8996
▁girlfriend▁8997
▁paralysi▁8998
ram▁8999
▁Typ▁9000
▁Jh▁9001
▁transmission▁9002
game▁9003
cher▁9004
▁AlloSphere▁9005
▁echo▁9006
▁chamber▁9007
▁suspend▁9008
▁immer▁9009
▁atom▁9010
▁sculptor▁9011
▁lattice▁9012
▁macro▁9013
cop▁9014
▁rectangle▁9015
▁simulation▁9016
▁nanoscale▁9017
▁atomic▁9018
▁Atom▁9019
▁Micro▁9020
▁Light▁9021
▁Energ▁9022
▁emission▁9023
▁Schrödinger▁9024
orbital▁9025
▁puls▁9026
▁contract▁9027
▁Comp▁9028
▁Spin▁9029
▁Barbar▁9030
unders▁9031
cursion▁9032
▁spectator▁9033
▁contemplat▁9034
▁dich▁9035
▁Mall▁9036
▁shall▁9037
▁coal▁9038
▁embark▁9039
gun▁9040
▁Wil▁9041
▁drift▁9042
▁crust▁9043
▁caution▁9044
▁tasting▁9045
▁mach▁9046
▁pancrea▁9047
▁Captain▁9048
▁Amunds▁9049
▁Norwegian▁9050
▁demoralize▁9051
aday▁9052
▁cruise▁9053
▁audaci▁9054
▁golden▁9055
▁advisor▁9056
▁Easter▁9057
▁adversit▁9058
▁metaphorical▁9059
▁Savage▁9060
▁fascination▁9061
▁obsessive▁9062
▁Mauriti▁9063
▁assemble▁9064
▁dice▁9065
ockpit▁9066
ette▁9067
ille▁9068
▁costume▁9069
▁gigabyte▁9070
▁Sculpey▁9071
ane▁9072
▁Episode▁9073
▁dragon▁9074
▁vertebra▁9075
▁imitat▁9076
▁button▁9077
▁pelvi▁9078
▁accura▁9079
lastic▁9080
▁obtain▁9081
▁div▁9082
▁Maltese▁9083
▁Falcon▁9084
▁Kni▁9085
▁Haw▁9086
▁Count▁9087
▁falcon▁9088
▁crapp▁9089
▁Christi▁9090
eller▁9091
ek▁9092
aya▁9093
▁resin▁9094
▁controvers▁9095
▁controversial▁9096
▁Profil▁9097
▁preference▁9098
▁drip▁9099
▁triple▁9100
▁wool▁9101
▁reflection▁9102
▁Fred▁9103
del▁9104
▁Black▁9105
▁Grill▁9106
▁plaster▁9107
▁crazi▁9108
plica▁9109
▁Forum▁9110
ronze▁9111
▁silicon▁9112
quarter▁9113
▁Chip▁9114
▁Nokia▁9115
cellular▁9116
▁subconscious▁9117
▁blunt▁9118
▁stalk▁9119
▁warmth▁9120
▁Maslow▁9121
▁hierarch▁9122
rung▁9123
▁appreciate▁9124
▁PC▁9125
▁kiosk▁9126
▁convenient▁9127
▁gravity▁9128
▁illitera▁9129
mail▁9130
▁ATM▁9131
▁Grameen▁9132
ben▁9133
▁subscribe▁9134
▁churn▁9135
▁Viagra▁9136
tree▁9137
tribu▁9138
hack▁9139
shop▁9140
chai▁9141
▁intertwine▁9142
nce▁9143
▁infuse▁9144
▁relevanc▁9145
▁Nixon▁9146
aus▁9147
▁desk▁9148
▁culprit▁9149
▁degradation▁9150
▁numb▁9151
▁Prius▁9152
▁Ann▁9153
▁lifestyle▁9154
▁prevalent▁9155
consumption▁9156
▁carrot▁9157
▁heavi▁9158
natural▁9159
▁Ski▁9160
▁puppet▁9161
business▁9162
▁USDA▁9163
▁pyramid▁9164
wollen▁9165
▁unchang▁9166
fat▁9167
▁lamb▁9168
▁kindness▁9169
▁Dictionar▁9170
▁romantic▁9171
▁snack▁9172
▁Clar▁9173
eye▁9174
▁ethnic▁9175
▁fanc▁9176
▁aside▁9177
▁Julia▁9178
stab▁9179
▁sanction▁9180
ake▁9181
▁Pop▁9182
▁Chee▁9183
▁railroad▁9184
▁hub▁9185
▁lettuce▁9186
▁salad▁9187
▁broc▁9188
coli▁9189
oil▁9190
▁subsidi▁9191
▁thro▁9192
▁planetary▁9193
▁dessert▁9194
▁potato▁9195
▁Minute▁9196
▁Rice▁9197
▁cream▁9198
think▁9199
phobi▁9200
▁yogurt▁9201
icker▁9202
▁coma▁9203
▁mixed▁9204
fried▁9205
uk▁9206
▁horribl▁9207
▁spice▁9208
▁McNugget▁9209
cke▁9210
▁cheese▁9211
food▁9212
▁tightly▁9213
▁filth▁9214
▁Styro▁9215
▁veg▁9216
▁gourmet▁9217
▁pound▁9218
▁nutritional▁9219
▁omni▁9220
▁faci▁9221
▁hierarchical▁9222
▁pore▁9223
▁Advanc▁9224
▁Technolog▁9225
▁sentien▁9226
ception▁9227
Engine▁9228
▁frown▁9229
▁seed▁9230
▁Robotic▁9231
▁Wired▁9232
▁Next▁9233
▁involv▁9234
▁Philip▁9235
▁Android▁9236
▁Dream▁9237
▁Electric▁9238
▁Bla▁9239
▁spook▁9240
▁puzzles▁9241
▁EG▁9242
▁Discover▁9243
▁toys▁9244
▁fiddl▁9245
▁Gardner▁9246
▁devote▁9247
ritt▁9248
▁amuse▁9249
▁vase▁9250
scher▁9251
▁digit▁9252
▁strict▁9253
▁marvelous▁9254
appointed▁9255
▁RIS▁9256
▁Maeda▁9257
▁magician▁9258
▁Teller▁9259
▁Rush▁9260
▁Hour▁9261
▁slid▁9262
▁Fu▁9263
sequel▁9264
▁investigative▁9265
▁cartoonist▁9266
▁overlap▁9267
▁persistence▁9268
helix▁9269
▁Shuffle▁9270
Jo▁9271
▁casual▁9272
▁gam▁9273
▁Boom▁9274
exercis▁9275
▁Nintendo▁9276
▁prescribe▁9277
▁viewer▁9278
▁Photo▁9279
▁Grab▁9280
hhh▁9281
▁Tulle▁9282
▁tinker▁9283
▁Tinker▁9284
▁nail▁9285
▁ease▁9286
▁calamit▁9287
▁doodl▁9288
▁Robin▁9289
▁complet▁9290
▁decoration▁9291
cuba▁9292
▁mund▁9293
coast▁9294
▁ya▁9295
▁pol▁9296
▁RM▁9297
▁Tyrann▁9298
▁Thing▁9299
▁0▁9300
risk▁9301
▁Scottish▁9302
▁indoor▁9303
▁After▁9304
▁1953▁9305
▁Film▁9306
▁Gehry▁9307
▁lexico▁9308
▁hilarious▁9309
▁Work▁9310
motive▁9311
venge▁9312
▁Detroit▁9313
▁Techno▁9314
▁brochure▁9315
▁56▁9316
▁bark▁9317
▁Norman▁9318
die▁9319
▁Mosc▁9320
▁sentimental▁9321
▁Fitzgerald▁9322
▁Hampton▁9323
▁IV▁9324
16▁9325
▁Ricard▁9326
▁Ritz▁9327
▁Tower▁9328
▁billboard▁9329
▁1940▁9330
▁Messer▁9331
▁exaggeration▁9332
▁bunk▁9333
▁cri▁9334
▁Mississippi▁9335
hamed▁9336
print▁9337
▁Temple▁9338
▁Den▁9339
etropolitan▁9340
mber▁9341
▁Euro▁9342
▁JFK▁9343
▁Tour▁9344
▁shoe▁9345
▁audition▁9346
▁Kong▁9347
erox▁9348
▁Take▁9349
page▁9350
▁Marv▁9351
▁Sandwich▁9352
▁cru▁9353
▁Marco▁9354
▁Tempe▁9355
▁techno▁9356
mag▁9357
leigh▁9358
▁charming▁9359
▁introvert▁9360
▁inclusive▁9361
source▁9362
▁uh▁9363
▁Kar▁9364
▁Mulli▁9365
win▁9366
▁unveil▁9367
▁Philadelphia▁9368
▁alpha▁9369
▁antibod▁9370
▁invad▁9371
arijuana▁9372
▁possession▁9373
ococcus▁9374
▁ramp▁9375
amer▁9376
▁Brook▁9377
▁Rosling▁9378
▁Canne▁9379
▁IKEA▁9380
▁Volvo▁9381
▁linguistic▁9382
▁Develop▁9383
▁upgrade▁9384
▁taxonom▁9385
▁destination▁9386
▁income▁9387
aft▁9388
▁healthie▁9389
▁rainbow▁9390
enicillin▁9391
▁optimist▁9392
ossi▁9393
▁analytical▁9394
▁Joe▁9395
▁Meggendorfer▁9396
▁caves▁9397
▁ist▁9398
▁genug▁9399
▁snatch▁9400
ssors▁9401
creme▁9402
▁novelty▁9403
▁Jeff▁9404
▁ingenuity▁9405
av▁9406
J▁9407
▁merg▁9408
▁sharp▁9409
▁Missou▁9410
▁toothpaste▁9411
▁hustle▁9412
mate▁9413
▁illegal▁9414
▁smuggl▁9415
▁pornograph▁9416
▁riskier▁9417
▁profitable▁9418
fashion▁9419
oulder▁9420
▁laundr▁9421
▁limb▁9422
▁prohibit▁9423
ender▁9424
▁Mi▁9425
trey▁9426
▁animation▁9427
▁shadow▁9428
▁Ox▁9429
▁Carolin▁9430
▁Ami▁9431
▁disorder▁9432
▁gauge▁9433
▁stance▁9434
stimulator▁9435
▁disruption▁9436
▁inherit▁9437
▁fragil▁9438
▁caregiver▁9439
▁reinforc▁9440
▁candy▁9441
▁developmental▁9442
▁disable▁9443
▁fence▁9444
▁relentless▁9445
▁societ▁9446
▁excess▁9447
▁imperative▁9448
▁anomal▁9449
abilities▁9450
▁Warren▁9451
traction▁9452
▁evolutionarily▁9453
▁conserve▁9454
▁deploy▁9455
▁trench▁9456
▁intractable▁9457
▁isolation▁9458
eiler▁9459
▁agile▁9460
talk▁9461
▁bully▁9462
insky▁9463
▁Familie▁9464
▁Buffet▁9465
ets▁9466
▁Spring▁9467
daho▁9468
▁Asperger▁9469
▁ADH▁9470
ups▁9471
▁Sutherland▁9472
▁technologist▁9473
▁Eight▁9474
three▁9475
cola▁9476
▁Business▁9477
▁Review▁9478
▁Game▁9479
knit▁9480
bunker▁9481
▁Thanksgiving▁9482
▁greet▁9483
▁visitor▁9484
▁checklist▁9485
angle▁9486
most▁9487
▁Stalin▁9488
▁Uta▁9489
▁Manifest▁9490
▁Famil▁9491
▁react▁9492
jacke▁9493
help▁9494
▁guru▁9495
▁celebrity▁9496
etchup▁9497
▁psychologist▁9498
bring▁9499
▁overreact▁9500
rew▁9501
▁Over▁9502
▁salar▁9503
rock▁9504
▁Colli▁9505
▁stimulat▁9506
▁retreat▁9507
▁tourist▁9508
▁worrying▁9509
▁Emory▁9510
esteem▁9511
confidence▁9512
▁Karen▁9513
▁Tolsto▁9514
▁Leo▁9515
▁engrav▁9516
run▁9517
▁trillion▁9518
▁evaporate▁9519
▁semina▁9520
▁Cliff▁9521
▁barrel▁9522
▁bailout▁9523
▁debt▁9524
isse▁9525
bomb▁9526
-20▁9527
large▁9528
▁remedi▁9529
income▁9530
▁leverag▁9531
▁visualiz▁9532
▁360▁9533
▁32▁9534
▁dentist▁9535
tomie▁9536
▁shark▁9537
▁mola▁9538
▁gun▁9539
▁FBI▁9540
▁Cornell▁9541
▁recession▁9542
▁mindful▁9543
▁Brand▁9544
▁ego▁9545
acht▁9546
▁collar▁9547
▁Fri▁9548
La▁9549
▁pric▁9550
▁Z▁9551
ulu▁9552
▁byproduct▁9553
rang▁9554
lumni▁9555
▁Microsoft▁9556
▁Gore▁9557
▁sprint▁9558
▁9.▁9559
▁68▁9560
▁DI▁9561
▁owners▁9562
tage▁9563
▁duck▁9564
▁Line▁9565
▁reimagin▁9566
▁dividend▁9567
ootprint▁9568
▁Fide▁9569
▁artisan▁9570
▁organiz▁9571
cott▁9572
▁elastic▁9573
▁revenue▁9574
last▁9575
Cloud▁9576
▁comics▁9577
▁Nova▁9578
▁eclipse▁9579
▁Beat▁9580
▁Jagger▁9581
▁damaging▁9582
▁Lex▁9583
▁Ray▁9584
▁Route▁9585
▁rack▁9586
▁reputation▁9587
▁microbi▁9588
▁comic▁9589
▁Navy▁9590
▁Dean▁9591
▁Kamen▁9592
▁connotation▁9593
cer▁9594
▁Babbage▁9595
▁Ada▁9596
▁Lovelace▁9597
▁Van▁9598
evar▁9599
▁Meme▁9600
▁ko▁9601
▁Licklider▁9602
know▁9603
▁Jung▁9604
▁diagonal▁9605
▁symbols▁9606
▁resembl▁9607
▁properti▁9608
▁energiz▁9609
▁collid▁9610
lief▁9611
▁88▁9612
linear▁9613
▁caption▁9614
▁peel▁9615
ROM▁9616
▁McLuhan▁9617
▁phenomena▁9618
text▁9619
pati▁9620
▁Abraham▁9621
▁Lincoln▁9622
▁Plan▁9623
broken▁9624
zig▁9625
▁spiral▁9626
plate▁9627
▁Hea▁9628
▁Alan▁9629
▁Sie▁9630
ellig▁9631
▁veteran▁9632
▁simplicity▁9633
▁computation▁9634
apping▁9635
▁Jack▁9636
▁Horn▁9637
▁dinosaur▁9638
▁paleontologist▁9639
reserve▁9640
activate▁9641
▁tail▁9642
▁Chicken▁9643
osa▁9644
▁Montana▁9645
▁striving▁9646
▁hills▁9647
▁hypothese▁9648
▁Jeep▁9649
▁drill▁9650
strich▁9651
▁mosquito▁9652
▁Tyrannosaur▁9653
▁Schwei▁9654
moglobin▁9655
▁Hell▁9656
▁cubic▁9657
▁calci▁9658
ste▁9659
avian▁9660
▁clunk▁9661
rap▁9662
▁classifie▁9663
▁puff▁9664
sort▁9665
▁Matthew▁9666
▁Wisconsin▁9667
▁Lars▁9668
▁Archae▁9669
opter▁9670
▁pigeon▁9671
finger▁9672
▁modify▁9673
▁Colon▁9674
cken▁9675
record▁9676
▁deception▁9677
belief▁9678
▁Samu▁9679
▁Cole▁9680
ridge▁9681
▁suspens▁9682
▁theatric▁9683
▁dexter▁9684
▁Jean▁9685
▁conjure▁9686
▁resurrect▁9687
labor▁9688
▁sunset▁9689
▁campfire▁9690
▁fantasie▁9691
▁polish▁9692
▁Aich▁9693
afi▁9694
yllis▁9695
▁Rodrig▁9696
▁forgiveness▁9697
ao▁9698
▁convict▁9699
cted▁9700
▁penalt▁9701
▁November▁9702
▁Tree▁9703
▁hamburger▁9704
▁cruel▁9705
▁environmentally▁9706
chk▁9707
▁swap▁9708
rselves▁9709
▁Eisen▁9710
▁microbes▁9711
▁TEDMED▁9712
▁thirst▁9713
▁Rag▁9714
uddle▁9715
▁diabetic▁9716
ido▁9717
▁insulin▁9718
▁Academ▁9719
▁flesh▁9720
communica▁9721
▁Georgetown▁9722
bei▁9723
▁Crohn▁9724
▁steril▁9725
IT▁9726
▁vagina▁9727
are▁9728
coloniz▁9729
▁odor▁9730
path▁9731
▁washing▁9732
▁excessive▁9733
▁probiotic▁9734
▁UC▁9735
▁Davi▁9736
▁veterinarian▁9737
boot▁9738
igen▁9739
▁fec▁9740
hru▁9741
ociety▁9742
▁End▁9743
▁Tar▁9744
▁photography▁9745
▁haunt▁9746
▁Hama▁9747
▁Wal▁9748
▁innocuous▁9749
▁citizen▁9750
▁Index▁9751
▁compris▁9752
cap▁9753
▁1,9▁9754
▁stain▁9755
▁submerge▁9756
▁accompany▁9757
▁abstraction▁9758
▁Palestinian▁9759
▁bleed▁9760
▁simulate▁9761
▁adviser▁9762
▁Cu▁9763
▁Bord▁9764
rotection▁9765
▁Kennedy▁9766
▁seize▁9767
▁CIA▁9768
▁Langle▁9769
▁headquarter▁9770
▁diploma▁9771
▁elicit▁9772
▁Anthropo▁9773
▁acre▁9774
▁decompos▁9775
▁disorient▁9776
entropy▁9777
▁vulnerability▁9778
▁Cold▁9779
▁Braille▁9780
▁Librar▁9781
▁publication▁9782
▁Exo▁9783
▁Disease▁9784
▁Arm▁9785
▁deployment▁9786
▁weapon▁9787
▁bra▁9788
▁facade▁9789
▁annihilat▁9790
▁planets▁9791
▁Kentucky▁9792
▁Urban▁9793
Terrain▁9794
▁Arabic▁9795
▁contradict▁9796
▁lethal▁9797
▁conviction▁9798
▁eyewitness▁9799
▁perpetrator▁9800
osi▁9801
▁Polaroid▁9802
▁kidnapping▁9803
▁implicat▁9804
▁Calvin▁9805
▁Indiana▁9806
▁Arizona▁9807
dom▁9808
▁Williams▁9809
▁Tim▁9810
othy▁9811
▁Dur▁9812
▁11-▁9813
▁Troy▁9814
▁Webb▁9815
▁47▁9816
▁reiterate▁9817
▁implant▁9818
▁Enrique▁9819
▁circuit▁9820
trop▁9821
▁compute▁9822
lace▁9823
chle▁9824
clinical▁9825
▁Nagel▁9826
▁photosynthesi▁9827
▁vector▁9828
▁fabricate▁9829
▁tweak▁9830
▁opt▁9831
▁computing▁9832
rella▁9833
▁dopamine▁9834
▁generalize▁9835
through▁9836
traumatic▁9837
controlle▁9838
▁Pavlov▁9839
▁delete▁9840
▁uncommon▁9841
▁Seventy▁9842
▁algae▁9843
▁fungi▁9844
front▁9845
▁retina▁9846
▁relay▁9847
▁pigment▁9848
▁commercializ▁9849
▁Neuro▁9850
▁NIH▁9851
sensor▁9852
▁EB▁9853
process▁9854
▁augment▁9855
▁Gegen▁9856
schatz▁9857
▁wingsuit▁9858
▁dar▁9859
▁skydiv▁9860
dropping▁9861
country▁9862
▁aero▁9863
▁fl▁9864
▁helmet▁9865
green▁9866
▁carving▁9867
▁Janeiro▁9868
SE▁9869
horn▁9870
▁Jungfrau▁9871
▁hike▁9872
▁Eiffel▁9873
▁stunt▁9874
▁Coh▁9875
▁propell▁9876
ggle▁9877
▁applau▁9878
▁Mik▁9879
▁Hyp▁9880
▁NSA▁9881
▁revelation▁9882
▁Snowden▁9883
▁PRISM▁9884
▁forecast▁9885
famous▁9886
▁96▁9887
▁murderer▁9888
▁intercept▁9889
▁fears▁9890
▁Cyber▁9891
▁Sky▁9892
▁infiltrat▁9893
▁encrypt▁9894
▁file▁9895
▁decrypt▁9896
▁cooperat▁9897
ame▁9898
▁Update▁9899
▁Spiegel▁9900
▁Access▁9901
CH▁9902
▁Network▁9903
▁Analysis▁9904
▁telecom▁9905
▁Belgi▁9906
▁Thursday▁9907
▁PowerPoint▁9908
▁LinkedIn▁9909
▁i▁9910
Box▁9911
▁terrorists▁9912
▁terror▁9913
▁existential▁9914
▁Constitu▁9915
mendment▁9916
▁Universal▁9917
▁naked▁9918
▁corrupt▁9919
▁Marc▁9920
▁Meer▁9921
derson▁9922
▁harbor▁9923
▁Mann▁9924
tta▁9925
city▁9926
▁Carro▁9927
essen▁9928
▁Nevada▁9929
▁meadow▁9930
▁topograph▁9931
▁abrupt▁9932
▁125▁9933
▁Highway▁9934
▁Bridge▁9935
wich▁9936
▁Village▁9937
▁overlook▁9938
▁palm▁9939
▁cartograph▁9940
▁Archive▁9941
▁Broadway▁9942
▁vanish▁9943
▁Collect▁9944
▁Native▁9945
▁Meadow▁9946
atter▁9947
▁Rich▁9948
▁swamp▁9949
▁Gr▁9950
▁Murray▁9951
▁geo▁9952
block▁9953
▁digitize▁9954
▁shoreline▁9955
▁slope▁9956
▁beans▁9957
ional▁9958
▁shrub▁9959
▁distinctive▁9960
▁Upper▁9961
osemite▁9962
ellowstone▁9963
▁Home▁9964
▁beaver▁9965
▁reproductive▁9966
▁ecologist▁9967
▁intersection▁9968
▁gray▁9969
lichen▁9970
▁timber▁9971
▁Court▁9972
ough▁9973
▁sewer▁9974
▁windmill▁9975
▁abundance▁9976
▁Charlie▁9977
▁synchronize▁9978
▁subway▁9979
▁Improv▁9980
▁comedy▁9981
▁Pants▁9982
▁Rap▁9983
▁funnie▁9984
▁videotape▁9985
▁Brigade▁9986
▁Theater▁9987
author▁9988
Jump▁9989
ck▁9990
▁stranger▁9991
▁Best▁9992
▁tags▁9993
ueens▁9994
▁participant▁9995
▁leisure▁9996
▁valid▁9997
▁acceptable▁9998
EDI▁9999
▁Rama▁10000
▁Alb▁10001
still▁10002
▁sprang▁10003
▁63▁10004
▁Thirty▁10005
seven▁10006
▁municipal▁10007
▁pavement▁10008
bank▁10009
▁bush▁10010
▁queue▁10011
▁bribe▁10012
▁impose▁10013
▁cohesi▁10014
tag▁10015
ç▁10016
Sarko▁10017
▁ka▁10018
▁harvesting▁10019
▁Golden▁10020
▁Desert▁10021
▁superior▁10022
▁courtyard▁10023
▁monsoon▁10024
▁Jaipur▁10025
▁Zero▁10026
▁distill▁10027
aisal▁10028
kan▁10029
ai▁10030
▁silk▁10031
▁grati▁10032
▁drought▁10033
▁squeeze▁10034
▁telephone▁10035
▁planner▁10036
▁cart▁10037
liste▁10038
▁fragrance▁10039
▁Kashmir▁10040
▁Meyer▁10041
▁excel▁10042
hearted▁10043
▁stereotype▁10044
▁algebra▁10045
two▁10046
plain▁10047
▁persever▁10048
▁Milch▁10049
▁Dead▁10050
▁Men▁10051
▁impatient▁10052
▁decode▁10053
present▁10054
▁agonizing▁10055
▁tedious▁10056
▁mathematically▁10057
▁intimidat▁10058
▁McK▁10059
▁Had▁10060
▁Mother▁10061
2008▁10062
▁Jenni▁10063
▁Tso▁10064
▁McDonald▁10065
▁Burger▁10066
▁Fried▁10067
▁Cuba▁10068
▁Boot▁10069
▁assassinat▁10070
▁Roll▁10071
▁shuttle▁10072
▁pie▁10073
▁chop▁10074
▁tasty▁10075
▁Kyoto▁10076
Admiral▁10077
▁horrifie▁10078
▁1800▁10079
▁1920▁10080
▁native▁10081
▁cosmopolitan▁10082
18▁10083
▁188▁10084
clusion▁10085
▁mysteries▁10086
▁Lem▁10087
▁diplomat▁10088
▁recipe▁10089
▁McMurdo▁10090
▁Station▁10091
▁pepper▁10092
▁crisp▁10093
▁Jamaica▁10094
▁fraud▁10095
weight▁10096
▁Rest▁10097
▁Tennessee▁10098
▁lotter▁10099
▁Oma▁10100
organization▁10101
effective▁10102
▁kar▁10103
▁propagat▁10104
▁alligator▁10105
▁Atlant▁10106
▁Starbucks▁10107
▁Kr▁10108
▁Chef▁10109
▁Daf▁10110
♪▁10111
energy▁10112
▁hydrocarbon▁10113
thanol▁10114
▁Nil▁10115
▁2.5▁10116
▁subsidize▁10117
▁concentrat▁10118
nsas▁10119
Athabasca▁10120
ludge▁10121
kern▁10122
▁differential▁10123
▁petroleum▁10124
▁substantial▁10125
▁hurdle▁10126
▁Rift▁10127
walk▁10128
intelligent▁10129
▁Hominid▁10130
▁Turkana▁10131
consum▁10132
intensive▁10133
▁GPS▁10134
▁Malawi▁10135
exist▁10136
▁crocodile▁10137
▁pebble▁10138
▁rib▁10139
▁Georgia▁10140
▁Indonesia▁10141
▁Flor▁10142
▁wasteful▁10143
▁shortest▁10144
lip▁10145
▁precipi▁10146
▁Wo▁10147
▁jungle▁10148
▁Seoul▁10149
craft▁10150
▁prehistor▁10151
▁mul▁10152
worm▁10153
▁bamboo▁10154
conventional▁10155
▁Erin▁10156
▁lexicograph▁10157
▁dictionar▁10158
▁needle▁10159
▁fuzz▁10160
▁decid▁10161
▁Victoria▁10162
▁Victorian▁10163
▁Sear▁10164
▁merge▁10165
▁Online▁10166
▁hedge▁10167
▁Ooh▁10168
counterintuitive▁10169
▁arbitrar▁10170
▁charismati▁10171
▁megafauna▁10172
ED▁10173
▁Newsweek▁10174
▁burrow▁10175
▁33▁10176
▁electro▁10177
▁telescope▁10178
doch▁10179
▁Angela▁10180
balone▁10181
breaking▁10182
▁carbonate▁10183
▁geological▁10184
▁counterpart▁10185
▁chalk▁10186
▁capabilities▁10187
▁Petri▁10188
structure▁10189
▁biomaterial▁10190
▁toolbox▁10191
▁geologic▁10192
▁fracture▁10193
▁SI▁10194
▁magnet▁10195
ota▁10196
▁navigation▁10197
▁PH▁10198
altech▁10199
▁nanotube▁10200
alysis▁10201
organic▁10202
▁bubbl▁10203
dioxide▁10204
▁Stefan▁10205
▁Sag▁10206
meister▁10207
▁Hong▁10208
▁Kai▁10209
▁smack▁10210
▁Walk▁10211
▁Synchroni▁10212
genz▁10213
▁situat▁10214
▁Australian▁10215
▁Swiss▁10216
▁inaugura▁10217
▁Beatles▁10218
▁Nir▁10219
vana▁10220
▁ink▁10221
▁Tru▁10222
TA▁10223
▁Trans▁10224
▁Authorit▁10225
▁subtle▁10226
uniz▁10227
ecker▁10228
razz▁10229
verything▁10230
▁Diaman▁10231
▁Hawking▁10232
cho▁10233
▁PRI▁10234
ZE▁10235
▁Genom▁10236
solu▁10237
▁parabol▁10238
▁intent▁10239
ER▁10240
▁Licht▁10241
homa▁10242
▁wheelchair▁10243
▁Kill▁10244
worth▁10245
▁Aristot▁10246
▁intrinsic▁10247
▁debat▁10248
▁demographic▁10249
moment▁10250
happiness▁10251
org▁10252
▁investigat▁10253
wandering▁10254
▁neutral▁10255
pleasant▁10256
wand▁10257
▁preced▁10258
▁causal▁10259
▁brush▁10260
▁Silver▁10261
▁lense▁10262
▁correction▁10263
▁estimates▁10264
fifteen▁10265
▁Vision▁10266
▁nonviolen▁10267
▁olive▁10268
▁gro▁10269
▁Brazilian▁10270
▁Woman▁10271
▁Party▁10272
▁Front▁10273
▁Territori▁10274
lihood▁10275
▁influenc▁10276
atten▁10277
▁Solidar▁10278
▁solidari▁10279
budget▁10280
▁Sheikh▁10281
▁Jar▁10282
▁Sil▁10283
wan▁10284
▁Hopkins▁10285
▁transition▁10286
▁Transition▁10287
▁straw▁10288
▁scrambl▁10289
▁underpin▁10290
ermafrost▁10291
away▁10292
▁boots▁10293
▁league▁10294
▁Por▁10295
▁Easy▁10296
▁Walmart▁10297
▁Second▁10298
▁exchang▁10299
▁server▁10300
▁mineral▁10301
▁radar▁10302
▁surge▁10303
▁Bris▁10304
▁District▁10305
▁Marke▁10306
▁informative▁10307
▁renewable▁10308
▁Forest▁10309
tunnel▁10310
▁recycling▁10311
sex▁10312
▁Lei▁10313
shire▁10314
▁Somerset▁10315
▁Str▁10316
▁lawn▁10317
▁loving▁10318
▁myriad▁10319
▁inconsistenc▁10320
▁junkie▁10321
▁Guardian▁10322
▁epidemiologist▁10323
▁problematic▁10324
▁inequalit▁10325
▁Frankie▁10326
▁jail▁10327
▁Bali▁10328
▁wip▁10329
▁mismatch▁10330
▁Margaret▁10331
▁Pope▁10332
▁stigmatiz▁10333
▁heterosexual▁10334
TI▁10335
▁romance▁10336
roman▁10337
▁antiretroviral▁10338
▁Lazarus▁10339
▁Effect▁10340
▁drunk▁10341
▁transgress▁10342
▁transgender▁10343
▁dick▁10344
▁retrofit▁10345
▁suburbia▁10346
▁mall▁10347
▁uninten▁10348
develop▁10349
▁suburban▁10350
▁detach▁10351
▁CDC▁10352
▁Generation▁10353
▁asphalt▁10354
▁leapfrog▁10355
▁sprawl▁10356
▁deck▁10357
serving▁10358
▁Lion▁10359
wal▁10360
▁Phoenix▁10361
claim▁10362
▁Orange▁10363
erial▁10364
rail▁10365
▁transit▁10366
▁Main▁10367
▁buffer▁10368
▁funk▁10369
▁Colorado▁10370
▁unsafe▁10371
▁Flint▁10372
▁wav▁10373
transfer▁10374
▁Astroturf▁10375
▁culturally▁10376
▁reluctant▁10377
disproportionate▁10378
▁1.4▁10379
wana▁10380
▁PMTCT▁10381
negativ▁10382
▁advent▁10383
▁sliver▁10384
▁devastate▁10385
child▁10386
▁educat▁10387
▁frequently▁10388
▁disclose▁10389
▁Narr▁10390
▁comprehensive▁10391
▁Cape▁10392
▁Stu▁10393
▁scandal▁10394
gro▁10395
rrh▁10396
▁landfill▁10397
▁loa▁10398
▁coloss▁10399
▁empirical▁10400
▁stat▁10401
realistic▁10402
▁plott▁10403
▁refrigerat▁10404
▁pasteuri▁10405
▁whil▁10406
▁cosmetic▁10407
▁Ecuador▁10408
▁liver▁10409
▁nutritio▁10410
astronom▁10411
▁halve▁10412
▁symbolize▁10413
▁insult▁10414
▁domesticate▁10415
▁lin▁10416
▁Forbes▁10417
Rev▁10418
▁oven▁10419
▁grace▁10420
▁Lass▁10421
▁Ober▁10422
▁Road▁10423
▁mama▁10424
▁overhear▁10425
▁sensib▁10426
▁Now▁10427
▁stir▁10428
▁Rabbi▁10429
▁Sel▁10430
▁riot▁10431
▁affirm▁10432
▁twelve▁10433
▁stink▁10434
▁Chag▁10435
bilitat▁10436
▁Samarit▁10437
▁charter▁10438
▁biblical▁10439
▁McCart▁10440
▁actress▁10441
▁Arthur▁10442
bject▁10443
threaten▁10444
▁tinie▁10445
▁bastard▁10446
▁snor▁10447
▁toaster▁10448
▁boo▁10449
▁anniversar▁10450
blind▁10451
▁placebo▁10452
▁monogam▁10453
▁pinpoint▁10454
▁honey▁10455
▁clarif▁10456
▁Betti▁10457
▁Cra▁10458
spoon▁10459
▁starr▁10460
▁plummet▁10461
▁contagio▁10462
▁brin▁10463
▁Emil▁10464
▁definitiv▁10465
▁Zeta▁10466
▁traffick▁10467
▁apathy▁10468
▁disguise▁10469
ahua▁10470
ó▁10471
í▁10472
▁Juli▁10473
á▁10474
▁sacred▁10475
▁Mahatma▁10476
▁festival▁10477
ada▁10478
▁Mont▁10479
▁Sebastian▁10480
▁Glenn▁10481
▁Herbi▁10482
▁Hancock▁10483
▁straightforward▁10484
▁translation▁10485
▁cheek▁10486
▁scal▁10487
▁kettle▁10488
▁vibration▁10489
▁Royal▁10490
▁rust▁10491
lei▁10492
oscope▁10493
▁enhance▁10494
▁clap▁10495
▁clapp▁10496
▁relat▁10497
▁practic▁10498
iddle▁10499
▁Rube▁10500
▁labyrinth▁10501
▁ascend▁10502
square▁10503
▁oblige▁10504
▁timing▁10505
▁Heather▁10506
▁Knight▁10507
▁susceptib▁10508
▁humid▁10509
stress▁10510
▁Gramm▁10511
rios▁10512
▁Kay▁10513
owa▁10514
▁Allen▁10515
osphere▁10516
▁Vene▁10517
▁resign▁10518
▁1850▁10519
▁0.▁10520
▁Cel▁10521
ius▁10522
▁Passage▁10523
▁warmer▁10524
▁vapor▁10525
▁latent▁10526
▁hoop▁10527
▁Sophi▁10528
▁Conno▁10529
▁criticiz▁10530
▁Geo▁10531
▁occur▁10532
▁explod▁10533
▁Hiroshima▁10534
▁snowflake▁10535
▁lag▁10536
▁amplify▁10537
90▁10538
▁devastation▁10539
▁monarch▁10540
▁butterfl▁10541
▁Ok▁10542
ket▁10543
▁Pla▁10544
▁Jake▁10545
▁enthusiastic▁10546
▁Environmental▁10547
▁frack▁10548
▁tipping▁10549
▁asteroid▁10550
▁Philosoph▁10551
▁Break▁10552
pass▁10553
▁philosopher▁10554
▁inquiry▁10555
▁183▁10556
▁confrontation▁10557
▁cosmo▁10558
▁Whewell▁10559
▁polite▁10560
▁Pri▁10561
▁literar▁10562
▁Herschel▁10563
▁mechanical▁10564
▁calculator▁10565
▁pledge▁10566
▁wildest▁10567
▁generalization▁10568
▁queen▁10569
▁lobbie▁10570
▁1,3▁10571
▁processor▁10572
▁punch▁10573
emost▁10574
▁discontinu▁10575
ungen▁10576
▁astronom▁10577
building▁10578
▁Origin▁10579
▁Zach▁10580
▁Kaplan▁10581
▁Keith▁10582
▁Schach▁10583
▁Invent▁10584
▁squish▁10585
▁Gel▁10586
Tech▁10587
▁slam▁10588
▁Copp▁10589
ila▁10590
▁magnetic▁10591
▁electromagnet▁10592
▁repel▁10593
▁brainstorm▁10594
▁spider▁10595
▁sir▁10596
▁Target▁10597
▁squirt▁10598
▁Supercomputer▁10599
▁circulat▁10600
▁sprinkle▁10601
▁Sek▁10602
▁stiff▁10603
▁embed▁10604
▁Wat▁10605
▁Dai▁10606
▁Farm▁10607
Sensing▁10608
▁inexpensive▁10609
▁mesmeriz▁10610
▁plunge▁10611
▁poop▁10612
▁adequate▁10613
▁Mari▁10614
▁latrine▁10615
▁seal▁10616
exhausti▁10617
bug▁10618
▁94▁10619
▁bride▁10620
▁disgusting▁10621
▁colon▁10622
▁nozzle▁10623
▁crumbl▁10624
nice▁10625
onica▁10626
riet▁10627
▁garage▁10628
elimina▁10629
▁Rick▁10630
modernism▁10631
rand▁10632
▁Architectur▁10633
▁Record▁10634
▁scanne▁10635
▁gef▁10636
lte▁10637
▁AT▁10638
▁forgive▁10639
▁collide▁10640
▁Rauschen▁10641
▁Sacr▁10642
amento▁10643
▁cafeteria▁10644
▁Tiger▁10645
▁simpler▁10646
▁guard▁10647
▁Goliath▁10648
▁prominent▁10649
arcelo▁10650
damm▁10651
▁defensive▁10652
▁schizophrenic▁10653
▁Minnesota▁10654
▁sculptural▁10655
▁Cleve▁10656
▁Burn▁10657
elli▁10658
▁Koh▁10659
▁Fox▁10660
▁underwa▁10661
▁Brent▁10662
▁servant▁10663
▁separat▁10664
▁Eis▁10665
▁Ana▁10666
heim▁10667
▁Sein▁10668
▁Sport▁10669
▁Financ▁10670
▁balcon▁10671
estone▁10672
▁Baxter▁10673
skies▁10674
shaw▁10675
▁cunning▁10676
vil▁10677
▁strengthen▁10678
OC▁10679
▁criteri▁10680
▁compartment▁10681
▁Berlin▁10682
carriage▁10683
▁introduc▁10684
sceni▁10685
▁crank▁10686
▁teapot▁10687
iva▁10688
▁Merri▁10689
ziger▁10690
▁Colombia▁10691
▁guerrilla▁10692
connected▁10693
▁Education▁10694
▁comprehensi▁10695
▁Bogota▁10696
▁inoculat▁10697
▁electora▁10698
Kerry▁10699
▁democratic▁10700
▁Arka▁10701
▁App▁10702
▁admitted▁10703
▁vot▁10704
▁impoverish▁10705
▁Survey▁10706
▁facilitate▁10707
▁Schau▁10708
icious▁10709
▁animator▁10710
▁critic▁10711
▁Beethoven▁10712
cene▁10713
gatherer▁10714
▁physiolog▁10715
▁lik▁10716
▁barbecue▁10717
▁arous▁10718
magnetism▁10719
▁blu▁10720
▁artwork▁10721
▁decorati▁10722
▁neck▁10723
▁Ach▁10724
▁roam▁10725
▁delicate▁10726
▁trait▁10727
▁reclaim▁10728
▁Lesterland▁10729
▁Lester▁10730
▁Supreme▁10731
▁Jerry▁10732
▁aristocra▁10733
▁coalition▁10734
▁Rod▁10735
▁baseline▁10736
▁republic▁10737
▁Federal▁10738
▁bipartisan▁10739
Capitol▁10740
▁invasive▁10741
▁polariz▁10742
▁dysfunction▁10743
▁Thor▁10744
▁translator▁10745
▁fusion▁10746
▁analytic▁10747
▁homo▁10748
▁hopeless▁10749
▁178▁10750
▁Ree▁10751
▁cosm▁10752
▁Express▁10753
▁supernova▁10754
▁remnant▁10755
▁cosmologist▁10756
▁galax▁10757
▁subtract▁10758
▁irregular▁10759
▁nuclei▁10760
▁gravitational▁10761
▁synthesi▁10762
▁unifie▁10763
▁hazard▁10764
▁imprison▁10765
▁proton▁10766
▁eng▁10767
technologie▁10768
▁fanatic▁10769
▁Joy▁10770
grain▁10771
▁relativ▁10772
▁unify▁10773
▁Roth▁10774
blatt▁10775
▁Bert▁10776
▁Russell▁10777
▁schematic▁10778
lapse▁10779
▁tribute▁10780
▁plaque▁10781
▁4.5▁10782
ession▁10783
▁vegetation▁10784
▁vigil▁10785
lose▁10786
▁biosphere▁10787
see▁10788
smal▁10789
▁tenth▁10790
▁engulf▁10791
strom▁10792
▁Disneyland▁10793
▁hive▁10794
▁beehive▁10795
▁reefs▁10796
▁urchin▁10797
feld▁10798
▁snapshot▁10799
▁constituent▁10800
▁powder▁10801
▁bombard▁10802
▁lava▁10803
kala▁10804
▁infinit▁10805
▁glimmer▁10806
▁mesh▁10807
oubted▁10808
ruder▁10809
▁chin▁10810
bel▁10811
▁knot▁10812
▁lumin▁10813
▁octopus▁10814
▁Avatar▁10815
▁Se▁10816
▁gentl▁10817
▁plume▁10818
▁Eye▁10819
▁bloom▁10820
▁Bah▁10821
▁webcam▁10822
▁Monterey▁10823
▁Hum▁10824
▁Lesley▁10825
▁Astronom▁10826
▁astronomical▁10827
voluntary▁10828
▁capaciti▁10829
italin▁10830
▁depress▁10831
affe▁10832
programm▁10833
▁rewrit▁10834
▁arithmetic▁10835
▁modalit▁10836
▁module▁10837
▁spiritualit▁10838
▁chatt▁10839
control▁10840
imini▁10841
▁subset▁10842
▁Mama▁10843
▁Afrika▁10844
▁Turn▁10845
▁drivers▁10846
▁multitask▁10847
signal▁10848
▁crashe▁10849
▁51▁10850
oline▁10851
▁8.▁10852
▁Scho▁10853
▁vigorous▁10854
▁execute▁10855
fabricat▁10856
▁Watson▁10857
omo▁10858
lec▁10859
▁electrochemi▁10860
▁flopp▁10861
▁See▁10862
▁origami▁10863
▁intestine▁10864
thousand▁10865
▁Erik▁10866
▁Winfre▁10867
▁Feynman▁10868
▁Mai▁10869
▁Kal▁10870
itting▁10871
▁purple▁10872
▁elegan▁10873
personal▁10874
▁suitcase▁10875
Mann▁10876
▁condense▁10877
atz▁10878
▁Taxi▁10879
▁Botox▁10880
tun▁10881
nick▁10882
▁Cod▁10883
▁Element▁10884
▁Pol▁10885
SP▁10886
▁Muh▁10887
▁Principle▁10888
▁Hygiene▁10889
▁paranoid▁10890
▁Aviv▁10891
anguish▁10892
▁Hart▁10893
▁Gersh▁10894
▁38▁10895
▁cemeter▁10896
oleum▁10897
▁Swee▁10898
witz▁10899
▁Chaplin▁10900
▁Ich▁10901
▁habe▁10902
ata▁10903
▁Dennett▁10904
▁glaze▁10905
▁hoo▁10906
chu▁10907
ethos▁10908
▁Saul▁10909
▁Stein▁10910
▁Suzan▁10911
▁pointillis▁10912
▁unconscious▁10913
▁Net▁10914
▁inflate▁10915
▁Hawkins▁10916
▁Canal▁10917
▁rotate▁10918
▁rotat▁10919
▁Roger▁10920
hepherd▁10921
▁angular▁10922
▁rotation▁10923
▁Bradley▁10924
cker▁10925
▁240▁10926
▁15.▁10927
▁Boeing▁10928
▁describ▁10929
▁Sandel▁10930
▁Fast▁10931
▁VIP▁10932
▁dominate▁10933
▁affluen▁10934
▁Dallas▁10935
▁Mose▁10936
▁MS▁10937
EL▁10938
▁taint▁10939
material▁10940
market▁10941
▁disagreement▁10942
▁commonalit▁10943
▁anonym▁10944
profil▁10945
▁Winnipeg▁10946
▁liar▁10947
tern▁10948
▁Confuci▁10949
▁Butler▁10950
▁Puppe▁10951
code▁10952
▁coworker▁10953
▁nonverbal▁10954
▁Fif▁10955
▁Pin▁10956
▁millennia▁10957
▁singular▁10958
▁messag▁10959
▁Cox▁10960
HC▁10961
▁lud▁10962
▁CERN▁10963
▁Wonder▁10964
▁Solar▁10965
▁Enc▁10966
eladu▁10967
▁fountain▁10968
▁Europa▁10969
▁turbulent▁10970
destruct▁10971
metric▁10972
▁1890▁10973
▁emit▁10974
lium▁10975
▁esoteri▁10976
▁transistor▁10977
gala▁10978
oxy▁10979
ekhar▁10980
▁majest▁10981
▁Uran▁10982
▁Neptun▁10983
▁Sagan▁10984
haft▁10985
▁humbl▁10986
▁conceit▁10987
▁Da▁10988
▁assault▁10989
▁Billy▁10990
▁Poet▁10991
▁Laureate▁10992
▁Walter▁10993
▁disast▁10994
▁verbal▁10995
▁Dickinson▁10996
▁Melodie▁10997
▁Delta▁10998
▁Airline▁10999
▁deflect▁11000
apest▁11001
▁forager▁11002
▁pl▁11003
midst▁11004
dient▁11005
▁Para▁11006
▁lurk▁11007
▁Country▁11008
▁padd▁11009
▁flora▁11010
▁gripp▁11011
▁flare▁11012
grat▁11013
bottom▁11014
▁sch▁11015
▁adolescence▁11016
▁Favorit▁11017
▁Partheno▁11018
▁Pascal▁11019
▁blossom▁11020
▁youngster▁11021
▁Call▁11022
▁Levin▁11023
▁Galileo▁11024
▁cel▁11025
▁Schwarzschild▁11026
▁throat▁11027
▁harsh▁11028
▁catastrophic▁11029
▁km▁11030
▁Galaxy▁11031
▁lane▁11032
▁tunnel▁11033
▁emanat▁11034
▁glamor▁11035
▁trail▁11036
assi▁11037
▁Hubble▁11038
▁Proton▁11039
▁chaotic▁11040
▁frantic▁11041
▁multiverse▁11042
▁Ri▁11043
az▁11044
▁Presto▁11045
▁surreal▁11046
blowing▁11047
condition▁11048
theater▁11049
▁mild▁11050
atar▁11051
▁Speer▁11052
▁cooling▁11053
▁analyz▁11054
▁Athen▁11055
mbra▁11056
▁diffuse▁11057
omfort▁11058
▁hurricane▁11059
▁chill▁11060
▁stabil▁11061
▁energies▁11062
volt▁11063
▁Future▁11064
▁Abu▁11065
▁plaza▁11066
aw▁11067
▁apparatus▁11068
▁perceiv▁11069
▁emergent▁11070
mple▁11071
▁fractal▁11072
▁Gapminder▁11073
▁catalyze▁11074
▁bash▁11075
▁Pythagor▁11076
▁mathematician▁11077
▁Lauren▁11078
▁Gilli▁11079
▁bats▁11080
▁AK▁11081
Ch▁11082
▁expenditure▁11083
▁characterize▁11084
location▁11085
▁Sydney▁11086
▁Sto▁11087
▁angel▁11088
▁colony▁11089
▁insecticide▁11090
▁genomic▁11091
▁disrupt▁11092
▁sie▁11093
▁1500▁11094
▁expend▁11095
▁Rive▁11096
▁Friend▁11097
▁Monster▁11098
▁interviewer▁11099
▁flirt▁11100
apster▁11101
▁automat▁11102
chard▁11103
▁Grandma▁11104
itz▁11105
▁mortal▁11106
▁penis▁11107
▁wireless▁11108
data▁11109
medicine▁11110
▁aller▁11111
▁manufacture▁11112
articulate▁11113
▁ozone▁11114
▁wreck▁11115
▁Jami▁11116
▁ALS▁11117
▁aisle▁11118
▁Patient▁11119
▁Flash▁11120
kinetic▁11121
agnesium▁11122
▁rearrange▁11123
ithium▁11124
▁bipolar▁11125
▁critique▁11126
PL▁11127
▁Treat▁11128
stern▁11129
RB▁11130
▁outlier▁11131
▁Remix▁11132
▁pinnacle▁11133
sten▁11134
▁dissent▁11135
▁Burt▁11136
▁Album▁11137
▁Town▁11138
▁idol▁11139
▁Woody▁11140
▁Gut▁11141
▁Land▁11142
fang▁11143
found▁11144
▁exaggerat▁11145
▁mature▁11146
▁biase▁11147
▁lawsuit▁11148
▁Blind▁11149
▁61▁11150
▁Nar▁11151
▁Personal▁11152
▁quantitative▁11153
▁diffusion▁11154
ometer▁11155
EM▁11156
▁inhale▁11157
isco▁11158
garde▁11159
▁JR▁11160
nonymous▁11161
▁graffiti▁11162
▁Champ▁11163
lot▁11164
▁curator▁11165
▁detaine▁11166
▁Monro▁11167
ibera▁11168
▁Helen▁11169
▁Levitt▁11170
▁minaret▁11171
▁Chernobyl▁11172
▁mafia▁11173
▁yeast▁11174
organism▁11175
▁ferment▁11176
▁dissolve▁11177
▁optim▁11178
rmostat▁11179
▁mini▁11180
▁dip▁11181
ompatible▁11182
▁excite▁11183
▁textile▁11184
▁SL▁11185
▁vibrat▁11186
▁bumblebee▁11187
kon▁11188
ellow▁11189
▁sovereign▁11190
evolution▁11191
▁Cartesian▁11192
▁biochemist▁11193
▁Joel▁11194
▁Salat▁11195
▁Poly▁11196
▁graze▁11197
▁maggot▁11198
▁larva▁11199
▁nitrogen▁11200
shoot▁11201
WF▁11202
▁2030▁11203
▁decisive▁11204
chester▁11205
▁lightbulb▁11206
logen▁11207
people▁11208
logging▁11209
▁Council▁11210
udi▁11211
▁auditor▁11212
▁wallet▁11213
▁Ngu▁11214
▁PBS▁11215
▁Nye▁11216
▁UCLA▁11217
izon▁11218
▁Pluto▁11219
▁Gras▁11220
ST▁11221
▁connectome▁11222
▁SS▁11223
▁intellect▁11224
▁synapse▁11225
▁wa▁11226
▁spaghetti▁11227
▁insignifican▁11228
▁plausib▁11229
▁synapti▁11230
▁hypothesize▁11231
orex▁11232
▁Autist▁11233
plausible▁11234
▁ridicule▁11235
▁erase▁11236
▁Fusion▁11237
akash▁11238
▁Ode▁11239
▁Major▁11240
▁Electronic▁11241
▁Jacque▁11242
▁Novo▁11243
▁mistrust▁11244
▁compliment▁11245
▁Mobutu▁11246
hren▁11247
spora▁11248
▁Amitabha▁11249
▁bypass▁11250
emeral▁11251
iest▁11252
▁Khan▁11253
▁Textil▁11254
▁Manufactur▁11255
spring▁11256
▁Acumen▁11257
▁ambulance▁11258
▁Innovation▁11259
finance▁11260
▁converse▁11261
▁judicia▁11262
▁sunflower▁11263
▁Raja▁11264
zel▁11265
▁dignit▁11266
▁reckless▁11267
▁abusi▁11268
▁innovat▁11269
▁Skycar▁11270
▁Vo▁11271
passen▁11272
▁motivator▁11273
OT▁11274
▁redundan▁11275
▁recreation▁11276
400▁11277
takeoff▁11278
OL▁11279
▁Hawke▁11280
▁Harrie▁11281
kel▁11282
▁Maz▁11283
▁Video▁11284
▁NAS▁11285
▁Twenty▁11286
▁Britanni▁11287
razo▁11288
▁preferabl▁11289
▁equator▁11290
eureka▁11291
▁brows▁11292
▁unconta▁11293
▁leopard▁11294
▁col▁11295
▁Volks▁11296
▁Egyptian▁11297
▁Pharao▁11298
tank▁11299
▁firefl▁11300
▁Smithsonian▁11301
▁Gagarin▁11302
nourishe▁11303
▁hut▁11304
▁cramp▁11305
illiard▁11306
ella▁11307
▁Potter▁11308
▁playwright▁11309
▁breastfeed▁11310
▁Superman▁11311
▁Mor▁11312
pur▁11313
fug▁11314
▁Alice▁11315
▁Purpl▁11316
▁nun▁11317
▁utilitarian▁11318
▁patron▁11319
▁Emp▁11320
▁Hai▁11321
▁Powell▁11322
▁Devil▁11323
Script▁11324
▁sinn▁11325
▁grape▁11326
truth▁11327
▁dysfunctional▁11328
station▁11329
▁gland▁11330
▁cocoon▁11331
▁weave▁11332
▁vein▁11333
integration▁11334
▁effic▁11335
magine▁11336
▁Budget▁11337
▁Office▁11338
partisan▁11339
▁miraculous▁11340
▁circl▁11341
▁committee▁11342
▁Rom▁11343
▁dislike▁11344
polar▁11345
▁supplement▁11346
▁Start▁11347
▁Hispanic▁11348
▁Asteroid▁11349
▁quadruple▁11350
overty▁11351
▁Grove▁11352
▁bankrupt▁11353
▁fisc▁11354
▁Crime▁11355
▁printer▁11356
▁strive▁11357
▁Zucker▁11358
▁logge▁11359
▁Schmidt▁11360
▁Netflix▁11361
▁Iron▁11362
▁Wait▁11363
▁impulsive▁11364
▁Ventur▁11365
▁Justin▁11366
rman▁11367
▁expanding▁11368
▁meditation▁11369
una▁11370
▁implicit▁11371
▁Saint▁11372
sanga▁11373
▁Buddha▁11374
▁doctrine▁11375
▁hin▁11376
haut▁11377
rotten▁11378
▁methodolog▁11379
▁Saddam▁11380
▁Hussein▁11381
▁mustache▁11382
▁satisfie▁11383
▁ruthless▁11384
▁Buddhism▁11385
▁Charter▁11386
▁regenerative▁11387
▁regenerate▁11388
▁Lindbergh▁11389
▁Rockefeller▁11390
reactor▁11391
▁ankle▁11392
▁diagnos▁11393
▁induce▁11394
▁Bad▁11395
specific▁11396
▁Blackberr▁11397
▁ulcer▁11398
▁amputation▁11399
institut▁11400
▁randomize▁11401
▁laparoscopic▁11402
▁reactor▁11403
▁Terr▁11404
▁Turk▁11405
bra▁11406
parate▁11407
▁translat▁11408
CK▁11409
%▁11410
▁toddler▁11411
▁overlapp▁11412
ironment▁11413
▁recreat▁11414
▁petrochemical▁11415
▁recombin▁11416
▁residu▁11417
▁mixture▁11418
▁flake▁11419
ilo▁11420
▁Maker▁11421
first▁11422
▁Senegal▁11423
▁Nathan▁11424
▁Myhrvold▁11425
▁Adria▁11426
▁Blumen▁11427
▁pickle▁11428
▁Hamburger▁11429
▁charcoal▁11430
temperatur▁11431
osh▁11432
▁eyebrow▁11433
▁appliance▁11434
▁Watt▁11435
▁whiske▁11436
▁CSI▁11437
▁2,4▁11438
▁Sophia▁11439
▁inflation▁11440
▁numer▁11441
pul▁11442
▁violin▁11443
▁quark▁11444
▁neutrino▁11445
guide▁11446
▁Kepler▁11447
itter▁11448
hotter▁11449
▁fastest▁11450
izzy▁11451
▁13.▁11452
▁squeak▁11453
▁improvis▁11454
▁Pan▁11455
ara▁11456
▁Violin▁11457
29▁11458
▁chord▁11459
stone▁11460
▁improvisation▁11461
▁1600▁11462
▁wicked▁11463
▁MTT▁11464
▁Fifth▁11465
student▁11466
udience▁11467
▁democratiz▁11468
▁impenetrab▁11469
▁Stern▁11470
▁Kabi▁11471
▁riddle▁11472
▁consent▁11473
▁litigation▁11474
▁primordial▁11475
▁Diamond▁11476
▁dispute▁11477
▁scor▁11478
▁retirement▁11479
bodie▁11480
▁babysitt▁11481
▁cult▁11482
▁pension▁11483
▁fluent▁11484
▁outstanding▁11485
▁multiplic▁11486
▁logarithm▁11487
digit▁11488
▁knob▁11489
▁plague▁11490
▁cleaner▁11491
▁toxin▁11492
▁Control▁11493
▁respirator▁11494
▁Infinit▁11495
▁Mushroom▁11496
▁ta▁11497
▁decay▁11498
▁myceli▁11499
▁Image▁11500
▁cliche▁11501
▁crucifi▁11502
schwitz▁11503
▁Holocaust▁11504
Ghraib▁11505
▁Gua▁11506
amo▁11507
▁Guard▁11508
▁Ohio▁11509
▁Katrina▁11510
▁Eu▁11511
▁Dori▁11512
▁Lyndon▁11513
▁Sarah▁11514
▁legislat▁11515
▁suicid▁11516
▁rally▁11517
▁Erne▁11518
▁rival▁11519
▁peril▁11520
▁possess▁11521
parallele▁11522
▁subordinat▁11523
▁griev▁11524
▁1900▁11525
uca▁11526
▁Napoleon▁11527
▁sunrise▁11528
▁encompass▁11529
▁memoir▁11530
▁psychic▁11531
▁ranch▁11532
▁anecdotal▁11533
▁Bai▁11534
check▁11535
cloth▁11536
▁sank▁11537
▁spac▁11538
▁replenish▁11539
▁Ethan▁11540
▁Dod▁11541
▁Roy▁11542
▁Field▁11543
ankees▁11544
▁Serie▁11545
▁loyal▁11546
&▁11547
▁superinte▁11548
▁Pam▁11549
▁County▁11550
▁Ridge▁11551
▁Tweet▁11552
▁Southwest▁11553
mitten▁11554
▁Far▁11555
▁visionar▁11556
▁Grad▁11557
testament▁11558
▁eeri▁11559
▁Miss▁11560
school▁11561
▁Plexiglas▁11562
▁Secretary▁11563
rolle▁11564
▁dealer▁11565
▁Agn▁11566
information▁11567
zu▁11568
▁facilitator▁11569
▁Brenn▁11570
jec▁11571
▁unpredictabl▁11572
▁Shirk▁11573
▁Clay▁11574
ermaid▁11575
Parade▁11576
▁Flickr▁11577
▁Del▁11578
▁librarian▁11579
,4▁11580
▁merchandis▁11581
▁Psycho▁11582
▁bargain▁11583
▁captur▁11584
▁drank▁11585
flow▁11586
▁Meet▁11587
▁Heife▁11588
litz▁11589
▁Judi▁11590
journalism▁11591
▁Lance▁11592
▁hijack▁11593
▁Happy▁11594
▁statistician▁11595
pocalyp▁11596
▁Economic▁11597
▁reasonably▁11598
▁Hobbes▁11599
▁Dow▁11600
▁execution▁11601
▁commentar▁11602
▁reunite▁11603
▁ideological▁11604
▁embody▁11605
▁ideolog▁11606
▁Morocc▁11607
▁Casa▁11608
tradition▁11609
▁Row▁11610
▁31▁11611
▁Airbnb▁11612
▁TaskRabbit▁11613
▁microsecond▁11614
▁advert▁11615
▁Craigslist▁11616
▁precedent▁11617
otter▁11618
▁gambl▁11619
▁enshrin▁11620
tium▁11621
▁vet▁11622
▁earning▁11623
▁improbab▁11624
▁tur▁11625
▁iTunes▁11626
▁Selig▁11627
▁practitioner▁11628
▁Psychologi▁11629
▁Doctor▁11630
▁rig▁11631
▁psychiatr▁11632
▁psychiatrist▁11633
talent▁11634
▁Gilbert▁11635
ikszent▁11636
▁Robbi▁11637
▁alleged▁11638
▁Matthieu▁11639
millionaire▁11640
ardi▁11641
▁Deb▁11642
absorption▁11643
▁whipp▁11644
▁cherry▁11645
▁morbid▁11646
▁dough▁11647
▁prototyping▁11648
tangible▁11649
Doh▁11650
▁microprocessor▁11651
amme▁11652
opening▁11653
▁Charlotte▁11654
▁steward▁11655
▁pinch▁11656
▁Psalm▁11657
▁contradiction▁11658
▁Creat▁11659
▁pluck▁11660
▁plutonium▁11661
▁Job▁11662
▁Cli▁11663
odium▁11664
▁Clark▁11665
▁deathbed▁11666
▁Wer▁11667
▁Braun▁11668
▁Chance▁11669
zhen▁11670
▁rede▁11671
▁39▁11672
▁embodiment▁11673
atricia▁11674
bai▁11675
▁Kuwait▁11676
▁bandw▁11677
speaking▁11678
▁prophec▁11679
▁Dark▁11680
▁equate▁11681
▁Universi▁11682
limb▁11683
▁Award▁11684
▁Steff▁11685
▁Maps▁11686
uer▁11687
▁pedestrian▁11688
▁crowdsource▁11689
▁stockpile▁11690
▁vacan▁11691
▁bundle▁11692
shine▁11693
▁furnace▁11694
▁pollination▁11695
▁sequester▁11696
ozi▁11697
▁Reserve▁11698
▁safari▁11699
▁slipper▁11700
ubunt▁11701
▁Solly▁11702
▁über▁11703
croc▁11704
▁slick▁11705
▁waist▁11706
▁invert▁11707
▁bracket▁11708
▁hollow▁11709
atriarch▁11710
▁psych▁11711
▁visibl▁11712
▁Oprah▁11713
▁PM▁11714
▁Dennis▁11715
▁Dis▁11716
▁beekeeper▁11717
RA▁11718
▁beekeep▁11719
▁squa▁11720
▁Hack▁11721
▁Kate▁11722
▁honeybee▁11723
▁colonialis▁11724
social▁11725
system▁11726
▁soprano▁11727
▁Mein▁11728
▁Lippen▁11729
▁küssen▁11730
grid▁11731
▁Tongu▁11732
▁Emergenc▁11733
▁Pentagon▁11734
▁Twin▁11735
Bath▁11736
▁Horse▁11737
▁decentraliz▁11738
▁Ground▁11739
▁Clint▁11740
▁Zeit▁11741
▁Wein▁11742
▁fungus▁11743
▁Share▁11744
▁Conference▁11745
▁Mola▁11746
▁Pink▁11747
▁Bauer▁11748
▁memes▁11749
▁Ask▁11750
▁reframe▁11751
▁Namaste▁11752
Day▁11753
▁Vagina▁11754
▁Monolog▁11755
wege▁11756
▁Kosov▁11757
nitha▁11758
custome▁11759
▁14-▁11760
▁Butter▁11761
▁mutilat▁11762
itoris▁11763
▁hyena▁11764
▁Emotion▁11765
▁pissed▁11766
▁coconut▁11767
▁inconvenience▁11768
▁autops▁11769
▁Spirit▁11770
uent▁11771
▁Mohamed▁11772
▁Alberto▁11773
▁Giacometti▁11774
▁franc▁11775
▁Dame▁11776
▁succumb▁11777
Marge▁11778
▁puzzling▁11779
▁Rand▁11780
ennial▁11781
▁Blair▁11782
▁Tipp▁11783
▁Dyson▁11784
▁Barricelli▁11785
▁Trini▁11786
▁Neumann▁11787
▁Leib▁11788
▁Turing▁11789
EN▁11790
▁revise▁11791
RCA▁11792
▁Morgen▁11793
▁hackers▁11794
▁vacuum▁11795
▁disk▁11796
▁Graph▁11797
600▁11798
▁Arithmeti▁11799
crony▁11800
▁Mathematica▁11801
▁Integr▁11802
▁regain▁11803
▁Aha▁11804
▁lightning▁11805
▁Mega▁11806
hertz▁11807
▁Wolfram▁11808
enotyp▁11809
▁proteomics▁11810
▁Renn▁11811
delt▁11812
▁Mandarin▁11813
omorrow▁11814
▁regnet▁11815
▁visceral▁11816
ID▁11817
▁Bru▁11818
▁Haus▁11819
▁Igbo▁11820
▁Tasmanian▁11821
▁virulent▁11822
▁kangaroo▁11823
▁Tasmania▁11824
inister▁11825
entia▁11826
▁Derek▁11827
ckel▁11828
doubt▁11829
▁Nan▁11830
▁AO▁11831
▁Philharmoni▁11832
rippe▁11833
▁Chop▁11834
▁Tat▁11835
▁Skeptic▁11836
▁conflicts▁11837
▁Davos▁11838
06▁11839
▁Schell▁11840
▁Brad▁11841
▁pneumo▁11842
▁temperat▁11843
▁afflict▁11844
▁parasite▁11845
▁vest▁11846
▁KIPP▁11847
▁66▁11848
▁tenure▁11849
▁lend▁11850
▁mourn▁11851
ollateral▁11852
▁outfit▁11853
▁Cluster▁11854
amel▁11855
▁lemon▁11856
▁malignan▁11857
acco▁11858
▁salv▁11859
mption▁11860
▁Griffi▁11861
alt▁11862
itude▁11863
▁kite▁11864
▁Wright▁11865
▁relegate▁11866
▁autonomous▁11867
▁kilowatt▁11868
▁747▁11869
mega▁11870
▁1000▁11871
▁Natasha▁11872
▁multimedia▁11873
wake▁11874
▁decipher▁11875
visual▁11876
▁Zipcar▁11877
▁Buzz▁11878
▁Peer▁11879
▁Inc▁11880
▁customiz▁11881
▁Top▁11882
Code▁11883
▁24-▁11884
▁Garten▁11885
▁Know▁11886
▁sage▁11887
▁clutter▁11888
▁notorious▁11889
▁levitat▁11890
▁navigat▁11891
▁seamless▁11892
▁Mut▁11893
▁stove▁11894
▁Coul▁11895
▁Paol▁11896
▁MoMA▁11897
▁typeface▁11898
▁knack▁11899
▁Argentin▁11900
erra▁11901
▁proxim▁11902
▁Livermore▁11903
▁IDEO▁11904
▁cubicle▁11905
▁rifle▁11906
▁mount▁11907
▁impairment▁11908
▁Tribu▁11909
▁Paulo▁11910
Fernando▁11911
▁Eames▁11912
glas▁11913
▁Math▁11914
India▁11915
▁Telegraph▁11916
▁telegraph▁11917
▁Opium▁11918
▁Mao▁11919
▁Deng▁11920
iaoping▁11921
▁inequit▁11922
MF▁11923
▁Lehman▁11924
▁doorstep▁11925
▁interven▁11926
▁Gol▁11927
▁serotonin▁11928
RI▁11929
▁palette▁11930
▁Atala▁11931
▁Mass▁11932
▁bladder▁11933
▁Cultur▁11934
▁Organ▁11935
vascular▁11936
ckenber▁11937
▁cone▁11938
▁tether▁11939
▁sauce▁11940
▁centrifug▁11941
▁ripple▁11942
▁persuasive▁11943
▁Seth▁11944
esis▁11945
will▁11946
▁Ki▁11947
▁jogg▁11948
▁circa▁11949
▁absolut▁11950
▁Aura▁11951
▁Sar▁11952
▁Pamel▁11953
▁Kurs▁11954
▁untouch▁11955
▁Theremin▁11956
▁bumm▁11957
▁Sieg▁11958
portrait▁11959
▁vague▁11960
▁Laur▁11961
▁Blog▁11962
▁Holly▁11963
closure▁11964
▁Honey▁11965
▁qualitative▁11966
▁evaluat▁11967
▁psyche▁11968
ishman▁11969
▁portable▁11970
iuk▁11971
▁TB▁11972
▁warrant▁11973
▁biopsy▁11974
▁appointment▁11975
▁graduat▁11976
▁Ash▁11977
performance▁11978
▁badge▁11979
uinea▁11980
▁Intel▁11981
▁mainframe▁11982
▁abdomen▁11983
▁DARw▁11984
▁CL▁11985
Me▁11986
Tri▁11987
pedal▁11988
▁Dynamic▁11989
Robot▁11990
▁locomot▁11991
range▁11992
▁1.8▁11993
MPA▁11994
▁Intelligent▁11995
▁tacti▁11996
mann▁11997
▁Limb▁11998
▁Match▁11999
▁geologist▁12000
▁MA▁12001
▁Multi▁12002
App▁12003
▁payload▁12004
▁Mechanism▁12005
▁Hand▁12006
▁prosthes▁12007
echanical▁12008
reedom▁12009
ntelligence▁12010
▁Orchestra▁12011
▁Challenge▁12012
Drive▁12013
▁wack▁12014
electrifie▁12015
inch▁12016
▁Basi▁12017
▁Abbott▁12018
▁Bin▁12019
▁Laden▁12020
▁Alla▁12021
▁Crash▁12022
▁Server▁12023
▁Gang▁12024
NT▁12025
▁cybercrim▁12026
▁14.▁12027
stonia▁12028
Hex▁12029
seek▁12030
▁Mercedes▁12031
▁20-▁12032
amara▁12033
virus▁12034
loyd▁12035
▁Rosi▁12036
Wayne▁12037
▁grit▁12038
▁dumm▁12039
▁Show▁12040
Engineering▁12041
▁airbag▁12042
▁bounc▁12043
▁retrospective▁12044
▁Terminator▁12045
izz▁12046
▁friction▁12047
▁Excel▁12048
▁Rule▁12049
▁reciprocal▁12050
▁conduc▁12051
▁loser▁12052
▁Islam▁12053
▁refra▁12054
▁Eva▁12055
▁ceramic▁12056
▁Stil▁12057
▁Hungarian▁12058
▁Hamburg▁12059
▁Moderator▁12060
▁purg▁12061
▁Attentat▁12062
▁Bonnie▁12063
▁Bas▁12064
▁Vibrio▁12065
▁fischer▁12066
▁receptor▁12067
▁census▁12068
▁mutant▁12069
quo▁12070
▁therapeutic▁12071
▁Grace▁12072
▁McCu▁12073
▁medal▁12074
▁accomplishment▁12075
▁Jazz▁12076
▁stereotypical▁12077
▁bloodline▁12078
▁Shi▁12079
vdutt▁12080
▁serial▁12081
▁establishment▁12082
▁index▁12083
migration▁12084
security▁12085
▁massacre▁12086
▁exhum▁12087
▁Commission▁12088
▁Person▁12089
▁Ort▁12090
▁solicit▁12091
▁Information▁12092
oreign▁12093
▁Propaganda▁12094
▁instruct▁12095
▁Hitler▁12096
▁Reich▁12097
▁Raphael▁12098
▁Portrait▁12099
▁Northeast▁12100
▁bystander▁12101
▁retaliat▁12102
▁orphanage▁12103
▁Ukraine▁12104
sufficien▁12105
▁projector▁12106
▁phosphorus▁12107
fest▁12108
▁phosphor▁12109
dispens▁12110
▁mycorrhiza▁12111
millimeter▁12112
▁penetrat▁12113
▁Key▁12114
▁reef▁12115
▁overfish▁12116
▁Indi▁12117
▁seaweed▁12118
▁Anti▁12119
▁embarrassment▁12120
quarium▁12121
▁Horror▁12122
▁droplet▁12123
▁acute▁12124
▁paradi▁12125
▁toast▁12126
▁bleach▁12127
▁Pick▁12128
▁OPEC▁12129
East▁12130
▁polic▁12131
▁Saudi▁12132
BP▁12133
competitive▁12134
▁Barnett▁12135
▁renewables▁12136
▁accent▁12137
▁aquifer▁12138
arawa▁12139
▁crease▁12140
▁Capital▁12141
kul▁12142
helm▁12143
▁spreadsheet▁12144
▁Viking▁12145
provok▁12146
▁Heart▁12147
ivers▁12148
▁Mutter▁12149
angst▁12150
▁Rutan▁12151
▁Hous▁12152
▁Lockheed▁12153
ggie▁12154
rtiller▁12155
uz▁12156
Ship▁12157
▁airline▁12158
▁ellipti▁12159
▁billionaire▁12160
▁Musk▁12161
▁Branson▁12162
▁Bez▁12163
▁Carm▁12164
▁SR▁12165
▁capitalist▁12166
▁accelerator▁12167
▁shave▁12168
▁Telescope▁12169
▁mir▁12170
▁streak▁12171
▁Larg▁12172
▁Hadron▁12173
Collider▁12174
▁exoskeleton▁12175
machine▁12176
▁crave▁12177
▁perceptual▁12178
▁Laboratorie▁12179
▁lesion▁12180
▁Kirk▁12181
▁moratorium▁12182
▁Alaska▁12183
▁Mineral▁12184
▁Management▁12185
▁geopolitic▁12186
▁carcinogen▁12187
▁Prestige▁12188
▁perverse▁12189
▁BP▁12190
▁Beverl▁12191
bill▁12192
▁1870▁12193
▁Exxon▁12194
▁Valdez▁12195
▁Chad▁12196
▁sanctuar▁12197
fin▁12198
▁Transport▁12199
▁Berner▁12200
Lee▁12201
▁HTML▁12202
▁HTTP▁12203
RL▁12204
▁grassroots▁12205
fetch▁12206
▁Data▁12207
▁sprout▁12208
▁Frei▁12209
▁Wiki▁12210
▁Ludwi▁12211
▁jug▁12212
▁Limpopo▁12213
tete▁12214
▁gravel▁12215
▁Treasur▁12216
▁headphone▁12217
▁Schafe▁12218
▁unhealth▁12219
▁irrit▁12220
▁soundscape▁12221
▁antidote▁12222
▁petrol▁12223
▁Fortune▁12224
▁Kumar▁12225
▁offshor▁12226
▁accountant▁12227
▁Hyderabad▁12228
▁industrie▁12229
▁outsourc▁12230
▁Technologie▁12231
▁analyst▁12232
MT▁12233
RT▁12234
▁skeptical▁12235
▁Rang▁12236
▁Wang▁12237
▁authoritarian▁12238
ampaign▁12239
aunch▁12240
▁Ton▁12241
ernstein▁12242
▁Architect▁12243
▁Migration▁12244
▁porch▁12245
▁relocate▁12246
▁Shin▁12247
▁prosper▁12248
▁elevate▁12249
aswam▁12250
NK▁12251
▁pilgrim▁12252
▁Atacama▁12253
▁radioactiv▁12254
▁candle▁12255
▁Extreme▁12256
▁stratospher▁12257
astery▁12258
▁juxtaposition▁12259
▁Shim▁12260
▁Schock▁12261
▁Rabin▁12262
▁Russ▁12263
▁Arr▁12264
▁unconditional▁12265
▁underdog▁12266
aka▁12267
▁marrow▁12268
▁Caf▁12269
▁Enlighten▁12270
▁flori▁12271
▁incubator▁12272
▁Malthus▁12273
▁barricad▁12274
▁informal▁12275
iff▁12276
▁bleep▁12277
▁McCl▁12278
▁Hara▁12279
▁terabyte▁12280
▁receiver▁12281
mplitude▁12282
regal▁12283
▁Wade▁12284
▁raisin▁12285
▁arrogan▁12286
verbal▁12287
▁posture▁12288
▁Shoot▁12289
▁Kraft▁12290
▁Marrow▁12291
▁pediatric▁12292
▁Jill▁12293
▁Bolt▁12294
▁catheter▁12295
▁puncture▁12296
▁embryonic▁12297
▁neurolog▁12298
union▁12299
▁acquir▁12300
â▁12301
▁12302
▁12303
▁nein▁12304
▁4,▁12305
Vo▁12306
▁texting▁12307
▁LOL▁12308
▁3,3▁12309
▁pivot▁12310
▁Phil▁12311
▁tadpole▁12312
▁compensat▁12313
▁paycheck▁12314
▁Hendri▁12315
▁stump▁12316
balance▁12317
▁crest▁12318
▁Buckminster▁12319
atalog▁12320
▁MacCready▁12321
▁Aero▁12322
▁generator▁12323
▁Diane▁12324
▁inflat▁12325
▁dissertation▁12326
▁skelet▁12327
▁copulat▁12328
▁spong▁12329
▁voil▁12330
▁contraction▁12331
▁Thailand▁12332
uzzle▁12333
ahn▁12334
▁WiFi▁12335
▁mechanistic▁12336
▁Und▁12337
▁portal▁12338
▁Physi▁12339
ewage▁12340
▁hatred▁12341
▁patriarch▁12342
▁agnostic▁12343
▁egalitarian▁12344
▁Armen▁12345
▁prosecute▁12346
Arm▁12347
▁Ottoman▁12348
▁Rumi▁12349
▁Sufi▁12350
▁Cheval▁12351
▁blush▁12352
▁Vermeer▁12353
ippe▁12354
▁earring▁12355
▁Goldilock▁12356
▁innocen▁12357
▁Tudor▁12358
▁glance▁12359
▁nickname▁12360
♫▁12361
▁Hund▁12362
▁Chaucer▁12363
▁nominate▁12364
▁Palin▁12365
cumen▁12366
▁credi▁12367
▁Ig▁12368
kno▁12369
▁Governor▁12370
▁Perry▁12371
▁Maya▁12372
▁reminisc▁12373
▁Leg▁12374
anne▁12375
▁SM▁12376
▁Festival▁12377
▁Katar▁12378
▁Pool▁12379
filter▁12380
▁Scientolog▁12381
▁Cru▁12382
Space▁12383
▁sacrific▁12384
▁CP▁12385
▁advanc▁12386
exual▁12387
▁49▁12388
▁bist▁12389
▁FO▁12390
distance▁12391
▁quarrie▁12392
▁Tier▁12393
einrich▁12394
Hertz▁12395
▁Tesla▁12396
oni▁12397
frequenc▁12398
▁sling▁12399
▁telephon▁12400
nsky▁12401
▁resume▁12402
▁netter▁12403
▁thylacine▁12404
▁Direct▁12405
▁Shap▁12406
▁reassemble▁12407
▁Multiple▁12408
▁Automat▁12409
▁pronounce▁12410
▁primitiv▁12411
▁Fern▁12412
nde▁12413
▁Lanz▁12414
▁Java▁12415
▁pluripotent▁12416
▁ivory▁12417
▁eagle▁12418
▁Zoo▁12419
▁Dia▁12420
▁Eskimo▁12421
SB▁12422
▁Cesar▁12423
▁Fuku▁12424
shima▁12425
▁rudder▁12426
▁Protei▁12427
▁ballast▁12428
▁Kickstarter▁12429
ruct▁12430
▁Ein▁12431
▁Arduino▁12432
▁cortic▁12433
▁EEG▁12434
▁conductiv▁12435
rasio▁12436
▁fad▁12437
▁Pra▁12438
▁Kara▁12439
▁snapp▁12440
obb▁12441
▁quadriplegi▁12442
Life▁12443
▁Gho▁12444
bald▁12445
▁assert▁12446
kt▁12447
▁diplomatic▁12448
▁idealis▁12449
▁Minist▁12450
-1▁12451
aeda▁12452
▁sabbatical▁12453
▁Pac▁12454
▁Insider▁12455
ulp▁12456
▁Kosovar▁12457
▁Status▁12458
▁Diplomat▁12459
politik▁12460
Shabaab▁12461
▁militia▁12462
▁embodie▁12463
▁Kazak▁12464
▁Darfur▁12465
▁Ahmadine▁12466
lein▁12467
▁Bagh▁12468
▁Read▁12469
trick▁12470
▁Maddie▁12471
▁Tob▁12472
stein▁12473
▁pacemaker▁12474
▁coil▁12475
▁Investigat▁12476
similar▁12477
▁spectroscop▁12478
▁SETI▁12479
▁Lithium▁12480
▁Have▁12481
▁spectrogra▁12482
▁spectra▁12483
▁Kelvin▁12484
▁Gib▁12485
▁interstellar▁12486
▁Alpha▁12487
▁uranium▁12488
otassium▁12489
marke▁12490
▁Drake▁12491
▁UFO▁12492
feder▁12493
▁Boulevard▁12494
▁Schw▁12495
▁Eden▁12496
▁welcom▁12497
beat▁12498
▁Linda▁12499
platin▁12500
▁Memori▁12501
▁Sloan▁12502
proving▁12503
▁cowboy▁12504
Levit▁12505
▁roommate▁12506
ibati▁12507
▁marginaliz▁12508
▁eject▁12509
▁oxide▁12510
▁Pav▁12511
ona▁12512
clav▁12513
▁backdrop▁12514
statt▁12515
▁Report▁12516
▁Macintosh▁12517
splitter▁12518
▁undertake▁12519
▁McDo▁12520
▁Minorit▁12521
▁Environment▁12522
▁Ernst▁12523
▁Ob▁12524
95▁12525
format▁12526
▁Case▁12527
girl▁12528
▁Cash▁12529
▁Name▁12530
▁Sue▁12531
▁Vase▁12532
▁Clooney▁12533
▁Accenture▁12534
▁Irish▁12535
▁Elephant▁12536
▁insurgent▁12537
▁crusade▁12538
▁patrioti▁12539
▁Ragh▁12540
▁Az▁12541
eryl▁12542
▁Arav▁12543
▁Venkat▁12544
dominate▁12545
▁Tamil▁12546
▁Brillian▁12547
▁franchise▁12548
▁TR▁12549
▁gla▁12550
▁rupee▁12551
phthalm▁12552
▁complication▁12553
Monkey▁12554
▁typewriter▁12555
▁astrolog▁12556
▁banal▁12557
ector▁12558
▁Archi▁12559
hili▁12560
▁404▁12561
▁cou▁12562
▁Kinect▁12563
▁Athlet▁12564
ainforest▁12565
▁Sabbat▁12566
▁homicide▁12567
▁Uniform▁12568
▁Associat▁12569
▁Press▁12570
▁Singer▁12571
▁contingen▁12572
▁cyborg▁12573
▁Liz▁12574
▁Donnell▁12575
▁heel▁12576
▁Arabia▁12577
▁Participa▁12578
▁Production▁12579
▁Nachtwey▁12580
▁Humanit▁12581
chen▁12582
▁Ent▁12583
▁carcass▁12584
RD▁12585
gainst▁12586
▁Equ▁12587
▁Opportunit▁12588
▁Last▁12589
Barrel▁12590
▁Snow▁12591
▁2,3▁12592
▁Mem▁12593
▁Ferris▁12594
=▁12595
misunderstanding▁12596
▁intergala▁12597
ncyclopedia▁12598
▁crystalliz▁12599
ematode▁12600
▁quasi▁12601
▁eukaryot▁12602
▁temptation▁12603
▁muss▁12604
▁Relation▁12605
bias▁12606
▁Summi▁12607
▁shuffle▁12608
▁Mandelbrot▁12609
▁blindfold▁12610
enhanc▁12611
▁Odysse▁12612
▁climax▁12613
▁Aldri▁12614
reviewe▁12615
▁Tahrir▁12616
oh▁12617
,2▁12618
▁1.2▁12619
▁inertia▁12620
▁Oslo▁12621
rahi▁12622
▁Cairo▁12623
▁magnify▁12624
▁slug▁12625
pick▁12626
atrol▁12627
▁groom▁12628
ommission▁12629
▁BB▁12630
▁Pollock▁12631
▁penguins▁12632
▁Sopran▁12633
oyo▁12634
▁digitiz▁12635
▁Turbo▁12636
chef▁12637
▁calibrate▁12638
▁Foster▁12639
▁denominator▁12640
▁Kohle▁12641
▁puppeteer▁12642
▁Faust▁12643
▁canoe▁12644
▁Pun▁12645
▁Mali▁12646
▁Marionette▁12647
▁Tro▁12648
▁giraffe▁12649
▁Morris▁12650
▁Theatr▁12651
▁Stand▁12652
wick▁12653
▁Brett▁12654
▁uneas▁12655
orthodox▁12656
▁sectarian▁12657
▁rabbi▁12658
▁Tora▁12659
▁contempt▁12660
▁spectacle▁12661
religion▁12662
▁synagogue▁12663
transcendence▁12664
lliance▁12665
▁extremism▁12666
▁Sey▁12667
mour▁12668
osmos▁12669
▁Heid▁12670
▁OMG▁12671
▁Sensor▁12672
▁extrinsi▁12673
▁Agu▁12674
▁aerodynamic▁12675
▁Lovegrove▁12676
▁Hazle▁12677
weh▁12678
Sinai▁12679
▁Bedouin▁12680
hypnoti▁12681
▁masculin▁12682
▁swelling▁12683
ē▁12684
▁cradle▁12685
▁Gau▁12686
▁nitr▁12687
▁Berk▁12688
▁Sound▁12689
▁Corbusier▁12690
▁Brut▁12691
▁NO▁12692
AA▁12693
climate▁12694
▁Crick▁12695
▁Birke▁12696
▁4000▁12697
▁Biotech▁12698
▁Model▁12699
▁Rouge▁12700
▁Madam▁12701
Mart▁12702
▁Patrick▁12703
▁catapult▁12704
▁presumption▁12705
▁dissident▁12706
▁surpass▁12707
▁Justi▁12708
▁Zambia▁12709
▁concussion▁12710
psycholog▁12711
www▁12712
ggy▁12713
▁NFL▁12714
▁Senator▁12715
▁Form▁12716
replicating▁12717
tig▁12718
▁Diagnos▁12719
cose▁12720
▁surrogate▁12721
-47▁12722
▁Patent▁12723
nthia▁12724
▁Schneide▁12725
▁Idol▁12726
TV▁12727
▁Talent▁12728
▁allegiance▁12729
▁Danny▁12730
▁Hillis▁12731
▁fission▁12732
tung▁12733
200▁12734
▁violinist▁12735
▁Finger▁12736
▁wann▁12737
▁Randi▁12738
▁Alphabet▁12739
▁Movember▁12740
▁legitim▁12741
▁Prostat▁12742
▁Bro▁12743
▁77▁12744
▁Mond▁12745
▁traumatiz▁12746
▁repressive▁12747
▁Brenda▁12748
▁AAA▁12749
▁Wii▁12750
▁Monopol▁12751
▁Reservat▁12752
▁Mommy▁12753
▁Ava▁12754
▁nie▁12755
▁mitigate▁12756
▁Extrem▁12757
▁grill▁12758
▁strawberr▁12759
▁Eat▁12760
private▁12761
▁Lunch▁12762
▁Program▁12763
▁Fabian▁12764
▁psychedeli▁12765
▁Phantom▁12766
rofluid▁12767
▁Martian▁12768
▁Luri▁12769
▁Such▁12770
▁1910▁12771
▁Progress▁12772
munition▁12773
▁Kipling▁12774
Grad▁12775
▁Bernoulli▁12776
letter▁12777
▁Ring▁12778
▁tornado▁12779
▁Asthma▁12780
schmuck▁12781
▁Spam▁12782
▁troubling▁12783
▁reced▁12784
▁seatbelt▁12785
▁Terror▁12786
▁Leonard▁12787
▁irreveren▁12788
▁calculus▁12789
▁Wilkins▁12790
▁gradient▁12791
▁fluke▁12792
▁junior▁12793
eval▁12794
▁cortiso▁12795
▁cardio▁12796
▁batch▁12797
▁opa▁12798
▁Send▁12799
▁Mul▁12800
consistent▁12801
▁persuasion▁12802
▁Positive▁12803
▁Niss▁12804
volume▁12805
mission▁12806
bane▁12807
▁Region▁12808
▁scaling▁12809
▁additive▁12810
▁1.0▁12811
▁Bots▁12812
Car▁12813
Dog▁12814
▁SuperRabbit▁12815
Internet▁12816
▁dashboard▁12817
▁Conne▁12818
verflow▁12819
▁Libeskind▁12820
▁underlie▁12821
▁neu▁12822
▁abyss▁12823
▁obscur▁12824
focal▁12825
▁plural▁12826
abul▁12827
▁Stephan▁12828
▁20.▁12829
▁seismi▁12830
▁saddle▁12831
▁Lang▁12832
▁predicat▁12833
▁uninform▁12834
▁Kurzweil▁12835
▁Niels▁12836
unter▁12837
▁preconce▁12838
▁recline▁12839
▁crania▁12840
▁EV▁12841
▁Jesse▁12842
▁increment▁12843
▁collaborat▁12844
▁uncertain▁12845
orado▁12846
▁Kahn▁12847
▁Agra▁12848
▁Entertainment▁12849
▁Stygi▁12850
▁perimeter▁12851
▁yo▁12852
▁Hondura▁12853
▁Corp▁12854
▁hmm▁12855
▁ging▁12856
▁psychopath▁12857
▁Strang▁12858
great▁12859
▁doubling▁12860
▁scrub▁12861
▁Babel▁12862
▁arrogant▁12863
▁splendid▁12864
▁rigg▁12865
▁circus▁12866
▁Papua▁12867
▁eavesdrop▁12868
taste▁12869
▁Denisova▁12870
▁blackboard▁12871
▁destiny▁12872
▁MR▁12873
▁Statue▁12874
▁misuse▁12875
▁cocaine▁12876
▁Barbie▁12877
▁trumpet▁12878
▁latch▁12879
▁influenza▁12880
▁Gibra▁12881
quisition▁12882
▁Alien▁12883
▁Krishna▁12884
▁rescu▁12885
▁mason▁12886
▁Dhara▁12887
▁privatiz▁12888
▁NBA▁12889
▁Reuters▁12890
▁venom▁12891
▁hedoni▁12892
▁altruist▁12893
sprung▁12894
job▁12895
oca▁12896
materiali▁12897
▁Prosper▁12898
orruption▁12899
Prince▁12900
à▁12901
▁Respons▁12902
▁handheld▁12903
▁Essen▁12904
▁Jess▁12905
▁Mitch▁12906
brid▁12907
Dodi▁12908
▁Camill▁12909
▁celebrit▁12910
▁BBC▁12911
▁Arche▁12912
▁Taschen▁12913
▁Ep▁12914
▁Linu▁12915
▁scoop▁12916
▁rumor▁12917
▁pH▁12918
alanine▁12919
▁vocation▁12920
▁mustard▁12921
▁BR▁12922
▁Dana▁12923
▁Farbe▁12924
▁academi▁12925
▁Therapeut▁12926
▁crowdsourc▁12927
▁superficial▁12928
▁Blick▁12929
▁Cristin▁12930
gestalt▁12931
▁splint▁12932
brot▁12933
▁precursor▁12934
▁Emba▁12935
▁embass▁12936
▁Tumor▁12937
vitro▁12938
▁Novocure▁12939
▁GB▁12940
urren▁12941
▁Dill▁12942
fusion▁12943
▁Karo▁12944
felder▁12945
Claud▁12946
inancial▁12947
▁Dir▁12948
▁interconnect▁12949
▁TNC▁12950
▁Tele▁12951
▁dogma▁12952
▁drone▁12953
▁Sarajevo▁12954
ongolese▁12955
▁extremist▁12956
▁flour▁12957
▁ventilat▁12958
▁Biolog▁12959
Built▁12960
ET▁12961
▁crater▁12962
▁Huygens▁12963
▁Ontario▁12964
▁Julie▁12965
▁synesthe▁12966
▁Kiki▁12967
▁mislead▁12968
▁recommendation▁12969
▁Wald▁12970
▁Emer▁12971
▁cogit▁12972
▁Fleisch▁12973
▁Moleeds▁12974
▁hysterical▁12975
▁Fluctus▁12976
▁Nicaragua▁12977
▁Franc▁12978
Uni▁12979
▁Internationale▁12980
▁Bohr▁12981
ahedron▁12982
▁Copernic▁12983
▁Tit▁12984
▁Fibonacci▁12985
▁Cala▁12986
▁Rat▁12987
▁18.▁12988
▁19.▁12989
24▁12990
▁ONE▁12991
hampagne▁12992
▁Edinburgh▁12993
retroviral▁12994
▁7.▁12995
▁Mill▁12996
▁Ushahidi▁12997
▁dictatorship▁12998
Biafra▁12999
▁dir▁13000
▁melanchol▁13001
▁enact▁13002
▁Emmanuel▁13003
▁Spider▁13004
▁Reddit▁13005
▁humpback▁13006
▁Mister▁13007
Splashy▁13008
peace▁13009
▁whal▁13010
▁veterinar▁13011
▁Picture▁13012
▁guck▁13013
▁mantis▁13014
▁McCan▁13015
▁Billion▁13016
▁Dollar▁13017
▁flatten▁13018
▁typograph▁13019
▁Tor▁13020
▁USB▁13021
gras▁13022
▁Pub▁13023
neutral▁13024
▁TEDxC▁13025
▁Tunisia▁13026
▁Ornis▁13027
▁Swami▁13028
▁clogg▁13029
▁maximal▁13030
▁loneli▁13031
▁impoten▁13032
▁Atkins▁13033
-3▁13034
▁saturate▁13035
cholester▁13036
▁headache▁13037
▁UCS▁13038
▁PSA▁13039
▁Round▁13040
▁Nano▁13041
▁Segment▁13042
▁vendor▁13043
auto▁13044
▁academ▁13045
▁socket▁13046
(▁13047
▁validat▁13048
▁announce▁13049
ndustry▁13050
▁Thought▁13051
▁muffin▁13052
nox▁13053
uisance▁13054
▁tuna▁13055
▁Jorge▁13056
SHA▁13057
▁mak▁13058
PP▁13059
▁Shaff▁13060
▁Schi▁13061
▁Turtle▁13062
▁Gate▁13063
▁Lead▁13064
▁lone▁13065
NH▁13066
▁GM▁13067
mpact▁13068
▁AV▁13069
▁71▁13070
▁220▁13071
▁Morgan▁13072
different▁13073
urban▁13074
▁Hono▁13075
dorf▁13076
▁botanical▁13077
▁Comedy▁13078
▁Venezuela▁13079
▁Jabb▁13080
▁Allah▁13081
▁Hass▁13082
oooo▁13083
▁Bond▁13084
▁Broad▁13085
▁bureaucrac▁13086
▁Ebert▁13087
▁monoton▁13088
flection▁13089
AL▁13090
Pro▁13091
▁Commerc▁13092
Time▁13093
▁Audio▁13094
erium▁13095
▁neutron▁13096
▁Exil▁13097
▁Helm▁13098
▁Rep▁13099
▁missionar▁13100
▁Amsterdam▁13101
▁Bueno▁13102
▁Die▁13103
kor▁13104
▁mailbox▁13105
designer▁13106
▁Expedition▁13107
▁Panama▁13108
awkins▁13109
▁Ebola▁13110
▁dein▁13111
▁Methan▁13112
schi▁13113
monoxid▁13114
terrorism▁13115
dimension▁13116
▁Heiz▁13117
▁Atmosph▁13118
▁Himmel▁13119
blau▁13120
▁Greg▁13121
▁Lynn▁13122
▁Gothic▁13123
▁Antoni▁13124
▁Otto▁13125
▁Bateson▁13126
Station▁13127
serie▁13128
▁janitor▁13129
mbstone▁13130
quivalent▁13131
hib▁13132
▁Paradi▁13133
▁Richter▁13134
▁mosaic▁13135
▁Cousteau▁13136
▁wilderness▁13137
▁Hippie▁13138
▁Fiji▁13139
quator▁13140
▁Maldiv▁13141
▁PIPA▁13142
▁Stacey▁13143
▁Kram▁13144
▁Command▁13145
▁Male▁13146
▁Moh▁13147
▁Islamist▁13148
▁refuge▁13149
▁Nadi▁13150
▁Libya▁13151
azi▁13152
▁Geoff▁13153
▁Summe▁13154
▁GCSE▁13155
▁Dinosaur▁13156
Pachycephalosaur▁13157
loch▁13158
atops▁13159
▁Torosaurus▁13160
Rex▁13161
▁Shadow▁13162
▁Archimedes▁13163
ltimo▁13164
▁Johan▁13165
▁transcribe▁13166
▁Radi▁13167
▁Spar▁13168
▁Thermo▁13169
▁collaps▁13170
wetter▁13171
▁Inuit▁13172
held▁13173
▁flog▁13174
City▁13175
▁Bowden▁13176
▁ESP▁13177
rger▁13178
▁Test▁13179
▁Sherman▁13180
▁Lago▁13181
folklore▁13182
▁fang▁13183
▁Hul▁13184
▁kelp▁13185
romegal▁13186
▁Letter▁13187
▁swift▁13188
▁Rao▁13189
▁conceal▁13190
▁Imperial▁13191
▁Accra▁13192
▁Volta▁13193
▁Milton▁13194
▁Montessori▁13195
▁Zip▁13196
▁Lip▁13197
▁reorganize▁13198
▁flop▁13199
▁Amnes▁13200
▁Hof▁13201
stadt▁13202
▁Schwartz▁13203
▁Charle▁13204
park▁13205
monade▁13206
▁motel▁13207
▁NPR▁13208
moral▁13209
emplar▁13210
Atti▁13211
▁Aaron▁13212
▁Feuer▁13213
▁Polar▁13214
EP▁13215
▁UNAIDS▁13216
▁vodka▁13217
ummer▁13218
▁arsenal▁13219
▁FEMA▁13220
▁Physic▁13221
▁Cola▁13222
uten▁13223
▁Osa▁13224
▁Leb▁13225
▁Geiger▁13226
▁Full▁13227
▁gecko▁13228
▁Velcro▁13229
Stick▁13230
bombe▁13231
▁wizard▁13232
▁Keller▁13233
▁Inti▁13234
▁coerc▁13235
▁Sally▁13236
▁Christoph▁13237
Button▁13238
▁meteorite▁13239
▁Rasmus▁13240
▁replicator▁13241
▁substrate▁13242
ahr▁13243
ø▁13244
▁alliance▁13245
standard▁13246
▁biomimic▁13247
▁Arian▁13248
▁Angel▁13249
▁Tap▁13250
▁WikiLeaks▁13251
▁wiki▁13252
▁Gutenberg▁13253
moor▁13254
eight▁13255
▁Marathon▁13256
▁Derart▁13257
▁Tulu▁13258
▁Paula▁13259
▁Rad▁13260
cliff▁13261
▁Tarahumara▁13262
web▁13263
▁Ap▁13264
▁59▁13265
Gamble▁13266
▁paranormal▁13267
emeni▁13268
▁ballot▁13269
rinde▁13270
netary▁13271
▁sublim▁13272
▁incision▁13273
upta▁13274
▁revolt▁13275
▁Bollywood▁13276
isela▁13277
▁Misha▁13278
upert▁13279
▁Turin▁13280
▁Hacker▁13281
▁cybercriminal▁13282
▁Carder▁13283
Planet▁13284
Marke▁13285
Colombo▁13286
▁asylum▁13287
frau▁13288
Co▁13289
▁McKi▁13290
hbab▁13291
ï▁13292
▁reckon▁13293
▁Noor▁13294
▁remake▁13295
Account▁13296
▁Portal▁13297
▁conductor▁13298
▁Ensemble▁13299
variabl▁13300
▁Coli▁13301
▁Paralympic▁13302
▁Aus▁13303
▁Baum▁13304
▁Protest▁13305
▁Feministin▁13306
▁Steine▁13307
▁Parker▁13308
Robi▁13309
▁Guzm▁13310
▁Mess▁13311
▁Electro▁13312
lux▁13313
arez▁13314
suppe▁13315
▁Donald▁13316
dministration▁13317
▁Worldchanging▁13318
spiel▁13319
▁Ganesh▁13320
▁PDA▁13321
▁Bolin▁13322
Hop▁13323
iges▁13324
▁blubb▁13325
▁Rita▁13326
▁Glas▁13327
▁Piero▁13328
▁Francesca▁13329
▁Visual▁13330
▁Note▁13331
▁Magritte▁13332
iscipline▁13333
Kinsey▁13334
▁Sharp▁13335
▁Allianz▁13336
▁Noa▁13337
▁Gaga▁13338
▁Angelin▁13339
▁trickster▁13340
▁Kelle▁13341
▁550▁13342
▁Pixar▁13343
▁volle▁13344
conscious▁13345
▁Benki▁13346
▁Ashaninka▁13347
▁Nation▁13348
▁Portuguese▁13349
▁Sanghamitr▁13350
▁southwest▁13351
▁Step▁13352
percepti▁13353
▁WI▁13354
▁Profit▁13355
▁Venture▁13356
▁Philanthrop▁13357
▁supermassive▁13358
-2▁13359
▁Schwarz▁13360
▁stell▁13361
▁Bug▁13362
▁sag▁13363
▁perturb▁13364
▁appendage▁13365
Gecko▁13366
▁capillar▁13367
▁Lob▁13368
▁intangible▁13369
▁Burkin▁13370
▁Gando▁13371
▁classmates▁13372
▁confound▁13373
▁marshmallow▁13374
uiz▁13375
▁AMD▁13376
▁Johann▁13377
▁Michoac▁13378
▁sei▁13379
▁Proz▁13380
revolution▁13381
▁Zimba▁13382
▁Kra▁13383
▁Gay▁13384
▁ABC▁13385
▁pillow▁13386
▁Kiva▁13387
▁aber▁13388
baum▁13389
lö▁13390
▁Pepper▁13391
▁Okapi▁13392
▁Fauna▁13393
▁poacher▁13394
▁Ituri▁13395
script▁13396
▁1963▁13397
▁UNESCO▁13398
titution▁13399
▁Liberal▁13400
▁utopia▁13401
▁Juni▁13402
pex▁13403
▁Mind▁13404
▁Pic▁13405
▁Suga▁13406
kwa▁13407
▁Arhuaco▁13408
▁Villa▁13409
fan▁13410
▁Romo▁13411
Store▁13412
▁semantic▁13413
▁Parikrma▁13414
▁Puls▁13415
teacher▁13416
▁Ahmedabad▁13417
abyte▁13418
▁RAM▁13419
▁approximation▁13420
▁Photosynth▁13421
▁AI▁13422
▁46664▁13423
▁Avelile▁13424
▁Higgs▁13425
neu▁13426
▁Sousa▁13427
▁ASCAP▁13428
fern▁13429
▁trespass▁13430
MI▁13431
▁prohibition▁13432
▁Orte▁13433
▁Gas▁13434
▁Gould▁13435
▁attorney▁13436
▁Nazis▁13437
▁Brust▁13438
ein▁13439
ventil▁13440
driving▁13441
▁crook▁13442
▁ignor▁13443
▁molt▁13444
▁banjo▁13445
▁Reg▁13446
▁Register▁13447
▁Mathe▁13448
appen▁13449
▁GP▁13450
▁detriment▁13451
▁Gustav▁13452
▁Teresa▁13453
√▁13454
±▁13455
stema▁13456
▁Caracas▁13457
▁Abreu▁13458
▁SW▁13459
▁Container▁13460
▁Indus▁13461
▁Indo▁13462
European▁13463
▁Dravidian▁13464
▁obey▁13465
ieroglyph▁13466
▁Der▁13467
▁shiver▁13468
loh▁13469
▁cheetah▁13470
▁Sole▁13471
▁ganz▁13472
▁widerlich▁13473
▁Geruch▁13474
▁nah▁13475
list▁13476
▁Heli▁13477
▁CAPTCHA▁13478
▁Duolingo▁13479
▁Ticket▁13480
CAPTCHA▁13481
▁Kind▁13482
▁Snoop▁13483
▁Dogg▁13484
hhhh▁13485
▁beginn▁13486
▁rau▁13487
▁Borne▁13488
▁mangrove▁13489
▁twitch▁13490
▁Londoner▁13491
▁Interviewer▁13492
▁conform▁13493
▁skat▁13494
▁Herz▁13495
studie▁13496
quawk▁13497
▁vocaliz▁13498
▁Fab▁13499
▁Investment▁13500
▁Warhol▁13501
▁Sisyphus▁13502
▁Hip▁13503
▁Borg▁13504
fuel▁13505
▁plunder▁13506
▁Extra▁13507
▁Hab▁13508
kau▁13509
▁Flip▁13510
▁Aimee▁13511
Gadget▁13512
▁Fashion▁13513
▁Kemp▁13514
▁7,5▁13515
tipp▁13516
▁Masse▁13517
▁Gra▁13518
▁Downtown▁13519
metall▁13520
▁Dimitri▁13521
▁Mendel▁13522
▁Virgin▁13523
▁Terminal▁13524
▁Hammer▁13525
▁Detail▁13526
Ashbur▁13527
KA▁13528
▁KB▁13529
public▁13530
▁Student▁13531
▁null▁13532
▁Mahab▁13533
▁Beatrice▁13534
▁79▁13535
▁progeri▁13536
▁glorifi▁13537
▁fringe▁13538
▁Kauf▁13539
harisma▁13540
convenient▁13541
▁dragonfl▁13542
▁Wander▁13543
elle▁13544
▁evaporat▁13545
▁Rolle▁13546
▁cyberattack▁13547
aub▁13548
▁Blitz▁13549
krieg▁13550
ë▁13551
▁Elisabeth▁13552
uffard▁13553
▁Instagram▁13554
sistence▁13555
▁Ego▁13556
▁Box▁13557
▁Level▁13558
▁Trends▁13559
▁Evaluation▁13560
▁SOPA▁13561
TEC▁13562
▁Motion▁13563
▁Seminar▁13564
▁Zander▁13565
▁Rebe▁13566
▁grosse▁13567
▁Hin▁13568
Python▁13569
atorium▁13570
▁brach▁13571
hantom▁13572
▁glamour▁13573
▁desalinati▁13574
▁Magazin▁13575
capacity▁13576
▁juncture▁13577
▁Farmer▁13578
vier▁13579
otho▁13580
atmen▁13581
▁Ehrlich▁13582
▁Amor▁13583
▁Lovin▁13584
▁CPU▁13585
▁Ding▁13586
▁Faul▁13587
▁prune▁13588
eocortex▁13589
▁antidepressant▁13590
▁Bolivi▁13591
▁Shackleton▁13592
▁Hunt▁13593
▁Blogger▁13594
yntax▁13595
▁hiccup▁13596
grier▁13597
▁Pizza▁13598
▁decoupl▁13599
▁grizzl▁13600
▁Geld▁13601
▁pragmatis▁13602
▁DA▁13603
▁Oval▁13604
▁sublinear▁13605
▁Birmingham▁13606
▁fluctuation▁13607
bio▁13608
*▁13609
▁blonde▁13610
▁Date▁13611
▁Auge▁13612
▁extrem▁13613
▁neurosurgeon▁13614
▁jihad▁13615
akti▁13616
▁Mujahid▁13617
▁disengage▁13618
▁Team▁13619
Ladenism▁13620
▁Miz▁13621
▁hump▁13622
bare▁13623
onne▁13624
thema▁13625
buttermil▁13626
HIN▁13627
▁PS▁13628
▁bottleneck▁13629
▁Ashdown▁13630
▁Blend▁13631
▁000▁13632
▁Seren▁13633
▁Sin▁13634
▁Vel▁13635
▁Dewey▁13636
museum▁13637
▁Swap▁13638
▁twitter▁13639
service▁13640
Ge▁13641
Sharing▁13642
▁Wiese▁13643
operation▁13644
motor▁13645
▁Irr▁13646
▁lollipop▁13647
▁floss▁13648
▁Bandura▁13649
▁Diabetes▁13650
▁Papa▁13651
▁spoof▁13652
uft▁13653
▁Gowanus▁13654
▁16.▁13655
uffalo▁13656
▁rebound▁13657
▁Resnick▁13658
Dopa▁13659
▁Phillip▁13660
▁hurd▁13661
urdy▁13662
▁viel▁13663
▁Money▁13664
▁Manager▁13665
BO▁13666
▁Tests▁13667
▁VC▁13668
▁berate▁13669
Contra▁13670
anz▁13671
▁Bunker▁13672
▁Labor▁13673
Dollar▁13674
▁Anders▁13675
▁JA▁13676
▁Giuliani▁13677
▁Feld▁13678
▁Fermi▁13679
▁Paradox▁13680
▁Anthr▁13681
▁Trek▁13682
▁Fische▁13683
▁Implant▁13684
▁Mohammed▁13685
stimul▁13686
turm▁13687
▁Expo▁13688
▁Bike▁13689
wei▁13690
ilhouette▁13691
▁Peak▁13692
▁Neurologi▁13693
▁10.▁13694
▁Ost▁13695
▁epidemiolog▁13696
▁Total▁13697
▁Tradition▁13698
▁Kino▁13699
▁Tablet▁13700
▁Ideal▁13701
rigonometr▁13702
▁Stirling▁13703
▁revisit▁13704
▁Kuh▁13705
▁Event▁13706
▁gib▁13707
▁Chor▁13708
▁Fond▁13709
▁depressiv▁13710
▁thermodynamic▁13711
▁Geh▁13712
▁Satya▁13713
alandar▁13714
▁appall▁13715
▁Pixel▁13716
Moral▁13717
▁aphid▁13718
▁Organism▁13719
▁Ei▁13720
49▁13721
▁Klo▁13722
▁Hoover▁13723
▁wrinkle▁13724
▁Instant▁13725
▁Safeway▁13726
▁Illustrator▁13727
platte▁13728
▁Invasion▁13729
▁Larami▁13730
Dynast▁13731
House▁13732
▁Neu▁13733
uh▁13734
▁Pinatubo▁13735
eira▁13736
tzen▁13737
▁supernormal▁13738
bergen▁13739
▁Regina▁13740
▁cardiologist▁13741
▁Um▁13742
▁Majest▁13743
▁Bau▁13744
oruba▁13745
▁Kongo▁13746
ü▁13747
ende▁13748
ā▁13749
▁Kost▁13750
gier▁13751
▁Ruf▁13752
▁Gris▁13753
▁Alisa▁13754
▁Volk▁13755
▁Nerv▁13756
listen▁13757
▁proverbial▁13758
▁Smoot▁13759
COB▁13760
▁Cosmi▁13761
hwaite▁13762
▁Toaster▁13763
iker▁13764
llows▁13765
▁snail▁13766
▁Recycling▁13767
▁Feder▁13768
▁herein▁13769
For▁13770
_▁13771
▁SAN▁13772
▁Gamma▁13773
voice▁13774
ophile▁13775
▁Remote▁13776
▁Resolut▁13777
▁plutocra▁13778
Percent▁13779
▁Tumbl▁13780
▁Bernard▁13781
▁meritocra▁13782
▁Deal▁13783
▁Dietrich▁13784
pilot▁13785
▁Pilot▁13786
tik▁13787
ymnosoph▁13788
▁Minotaur▁13789
É▁13790
harata▁13791
▁immunize▁13792
▁hing▁13793
▁Git▁13794
Hub▁13795
▁Ente▁13796
▁Ruby▁13797
▁Parag▁13798
▁Heil▁13799
ailway▁13800
▁Medina▁13801
▁Mental▁13802
▁Idiot▁13803
▁Patriot▁13804
trug▁13805
▁Kampf▁13806
▁Redwood▁13807
▁Gedanken▁13808
▁fern▁13809
reiter▁13810
vatar▁13811
▁RP▁13812
▁Depp▁13813
▁11.▁13814
▁photojournalist▁13815
School▁13816
▁Kasparo▁13817
▁adversari▁13818
▁Foldi▁13819
▁relational▁13820
▁Terrorist▁13821
ete▁13822
▁Lev▁13823
tsch▁13824
▁Mord▁13825
Baptiste▁13826
▁Ola▁13827
▁reconfigur▁13828
ij▁13829
minister▁13830
olo▁13831
2-▁13832
wink▁13833
▁Victor▁13834
mord▁13835
▁Wert▁13836
▁Barrier▁13837
▁Figur▁13838
Art▁13839
Ark▁13840
▁Chapel▁13841
▁Glasgow▁13842
nerv▁13843
▁Smol▁13844
▁Aristotel▁13845
▁Locke▁13846
▁Neo▁13847
etera▁13848
▁Merz▁13849
pattern▁13850
Syndrom▁13851
ische▁13852
▁EKG▁13853
▁Cedars▁13854
▁ARES▁13855
▁Mais▁13856
▁Binde▁13857
▁Protokoll▁13858
▁Lux▁13859
▁Sultan▁13860
▁Small▁13861
▁Bag▁13862
▁Mitra▁13863
▁Horizont▁13864
▁Zone▁13865
▁eff▁13866
▁bilateral▁13867
▁Breivik▁13868
▁font▁13869
▁Classic▁13870
▁Institution▁13871
erin▁13872
▁Lucifer▁13873
ambo▁13874
▁klug▁13875
▁Kwa▁13876
▁Secret▁13877
▁Eno▁13878
▁Kareem▁13879
▁RD▁13880
▁Kyl▁13881
▁hitchhik▁13882
▁Oper▁13883
apparat▁13884
▁Monde▁13885
▁Couch▁13886
▁Abdul▁13887
auf▁13888
wu▁13889
▁Gibbon▁13890
monitor▁13891
▁Magellan▁13892
▁homeopath▁13893
▁boson▁13894
trium▁13895
▁Genen▁13896
▁antiviral▁13897
▁Tamiflu▁13898
▁Forrest▁13899
▁Hannah▁13900
▁astrolabe▁13901
▁Fowler▁13902
hormon▁13903
▁Lynch▁13904
▁questionnaire▁13905
▁Hier▁13906
ehr▁13907
▁Burk▁13908
hnu▁13909
tanz▁13910
▁Samantha▁13911
▁Sergio▁13912
▁Misch▁13913
weile▁13914
▁miserabl▁13915
ã▁13916
astro▁13917
lich▁13918
▁Ork▁13919
▁Tool▁13920
nswers▁13921
importe▁13922
▁Aber▁13923
▁Furch▁13924
gott▁13925
▁scrot▁13926
▁Mahmo▁13927
▁PG▁13928
▁Golf▁13929
▁Kor▁13930
kram▁13931
▁metastase▁13932
▁angiogen▁13933
angiogen▁13934
tumor▁13935
▁DL▁13936
iven▁13937
▁Weg▁13938
▁amputate▁13939
▁Merchant▁13940
▁Kapur▁13941
▁cochlear▁13942
▁frag▁13943
▁rehabilitati▁13944
▁germinat▁13945
▁Guatemala▁13946
lethal▁13947
▁Dominican▁13948
▁recursive▁13949
▁Beau▁13950
▁Primat▁13951
uza▁13952
▁Studie▁13953
▁gras▁13954
Taste▁13955
▁Eduardo▁13956
chmal▁13957
▁Janin▁13958
▁Najmuddin▁13959
▁Das▁13960
▁TEEB▁13961
▁Amazonas▁13962
▁Plus▁13963
▁Karma▁13964
▁Crimin▁13965
▁Bei▁13966
Khmer▁13967
▁boast▁13968
▁boreal▁13969
▁Aborigin▁13970
▁Pipeline▁13971
▁Verb▁13972
▁memetic▁13973
▁Leon▁13974
▁Freestyle▁13975
▁Flow▁13976
▁Simulator▁13977
▁Jaguar▁13978
▁Zinta▁13979
▁Bengal▁13980
▁Koolhaas▁13981
▁Hirn▁13982
▁Winter▁13983
▁Loren▁13984
▁cough▁13985
▁Prophe▁13986
▁Fell▁13987
▁PAT▁13988
▁Position▁13989
▁Bubble▁13990
▁Limo▁13991
msala▁13992
▁peasant▁13993
▁Huaorani▁13994
▁shaman▁13995
▁inspector▁13996
▁bitte▁13997
▁Hasan▁13998
▁Ranch▁13999
tasking▁14000
Reilly▁14001
▁Info▁14002
▁Cover▁14003
Design▁14004
▁Nun▁14005
▁Banjo▁14006
▁Ninja▁14007
▁Junior▁14008
▁Veteran▁14009
ARE▁14010
▁Hewlett▁14011
▁impostor▁14012
▁bloop▁14013
▁Boltzmann▁14014
▁Gravitation▁14015
▁incorporat▁14016
ige▁14017
▁Herzog▁14018
▁custod▁14019
▁Nathali▁14020
▁hypersonic▁14021
▁Gecko▁14022
▁Katie▁14023
▁Volkswagen▁14024
▁Geleh▁14025
kb▁14026
▁restorati▁14027
▁Authenti▁14028
▁Grier▁14029
▁las▁14030
Master▁14031
relevant▁14032
▁schaden▁14033
freude▁14034
▁positiv▁14035
igai▁14036
▁Bluegrass▁14037
▁Laufen▁14038
▁experien▁14039
▁Lakota▁14040
▁stomatopod▁14041
uperstring▁14042
phase▁14043
▁demobiliz▁14044
▁Hugh▁14045
▁Naja▁14046
▁Knee▁14047
▁AIMS▁14048
Choice▁14049
▁rhinovirus▁14050
Bank▁14051
publishe▁14052
▁Tusca▁14053
iche▁14054
bett▁14055
protein▁14056
Tipp▁14057
▁Wort▁14058
Horo▁14059
▁Milli▁14060
▁Regen▁14061
▁Biomimi▁14062
▁Okol▁14063
eben▁14064
▁Galois▁14065
▁Essay▁14066
▁Hock▁14067
▁Nathaniel▁14068
▁Berg▁14069
FG▁14070
▁Safdie▁14071
witsch▁14072
▁guten▁14073
▁Abend▁14074
▁Wurzel▁14075
▁Norden▁14076
▁bombsight▁14077
▁bombardier▁14078
▁militant▁14079
▁Balk▁14080
▁Krypto▁14081
▁Trivial▁14082
▁Ramadan▁14083
▁Polit▁14084
afel▁14085
▁Comics▁14086
firma▁14087
▁denn▁14088
▁Bronze▁14089
▁Okinawa▁14090
▁Adventist▁14091
▁Methodi▁14092
▁Rawl▁14093
▁Cello▁14094
▁Strat▁14095
▁Cyborg▁14096
▁Nollywood▁14097
▁Leber▁14098
cht▁14099
▁Sudh▁14100
.000▁14101
CM▁14102
▁amputee▁14103
▁12.▁14104
è▁14105
▁Kunst▁14106
▁Pei▁14107
▁Normal▁14108
▁Slim▁14109
▁Liebe▁14110
▁SOLE▁14111
▁Beijerinck▁14112
▁pretzel▁14113
uark▁14114
▁Ric▁14115
▁squatter▁14116
sche▁14117
£▁14118
▁gab▁14119
▁ich▁14120
▁für▁14121
▁Toast▁14122
Shreddies▁14123
eher▁14124
▁Doodle▁14125
▁masturbat▁14126
▁Kon▁14127
assava▁14128
management▁14129
kei▁14130
▁Chech▁14131
▁Gro▁14132
▁Kund▁14133
▁MaKey▁14134
▁Olive▁14135
▁Ideo▁14136
▁Liste▁14137
▁protocell▁14138
▁unregul▁14139
▁Melani▁14140
nagnoris▁14141
▁peripet▁14142
dipus▁14143
▁Sixth▁14144
▁Schwartzberg▁14145
Rast▁14146
▁Clau▁14147
▁Keene▁14148
▁Interval▁14149
▁Rockett▁14150
▁Football▁14151
▁Trick▁14152
▁Hallo▁14153
▁Lifesaver▁14154
▁Brahm▁14155
▁cyclist▁14156
route▁14157
▁Vash▁14158
▁Sikh▁14159
Guru▁14160
▁platt▁14161
▁Kunde▁14162
▁Enric▁14163
▁seine▁14164
▁wilde▁14165
▁NAND▁14166
▁0,0▁14167
▁Insel▁14168
rhythm▁14169
▁roughness▁14170
kus▁14171
▁eigen▁14172
▁megabyte▁14173
▁Explosion▁14174
▁chainsaw▁14175
▁paraplegi▁14176
▁juri▁14177
▁Phase▁14178
▁meister▁14179
aida▁14180
▁BOMB▁14181
\▁14182
▁Latino▁14183
▁Herr▁14184
topf▁14185
▁Tunnel▁14186
▁Blanc▁14187
desto▁14188
▁briquette▁14189
ć▁14190
▁narco▁14191
▁Isabelle▁14192
▁Trip▁14193
▁Original▁14194
ahara▁14195
▁Moog▁14196
essel▁14197
problem▁14198
▁Dragon▁14199
▁Galvani▁14200
▁Critic▁14201
▁pseudo▁14202
▁Riley▁14203
▁Prickly▁14204
▁Snack▁14205
▁Seva▁14206
▁Moment▁14207
▁Kenne▁14208
Prize▁14209
▁Industrie▁14210
▁Probe▁14211
▁Hercul▁14212
▁serif▁14213
▁Lerner▁14214
▁Curitiba▁14215
▁Solomon▁14216
▁dragline▁14217
▁arg▁14218
mobil▁14219
ercover▁14220
gaga▁14221
▁Kuba▁14222
▁Welle▁14223
▁valentine▁14224
ourage▁14225
Tetris▁14226
▁MOOC▁14227
bund▁14228
▁Fang▁14229
▁schmi▁14230
Mobile▁14231
▁Mead▁14232
▁convulsion▁14233
▁Hohe▁14234
nix▁14235
▁Proct▁14236
▁Pragmati▁14237
▁Chaos▁14238
SW▁14239
▁Talg▁14240
▁Muti▁14241
▁Karajan▁14242
▁Klei▁14243
koko▁14244
▁Olu▁14245
uuu▁14246
abend▁14247
▁Deutsch▁14248
^▁14249
laden▁14250
▁Sata▁14251
▁mockingbird▁14252
▁gil▁14253
▁Fragment▁14254
öhl▁14255
▁Kap▁14256
▁Source▁14257
maxim▁14258
outube▁14259
Land▁14260
▁Brunel▁14261
Kaiser▁14262
▁cavit▁14263
▁Roche▁14264
ologe▁14265
▁Programme▁14266
▁Helium▁14267
▁Gaia▁14268
raten▁14269
▁Dumm▁14270
iel▁14271
▁Cheeto▁14272
fleck▁14273
▁Optimist▁14274
ô▁14275
▁neocort▁14276
▁Schnabel▁14277
▁Ganz▁14278
▁Kick▁14279
Star▁14280
▁Banker▁14281
▁Cromwell▁14282
▁Parks▁14283
▁spontan▁14284
▁Himba▁14285
▁DUM▁14286
▁280▁14287
falls▁14288
▁Maus▁14289
sbro▁14290
▁Liquid▁14291
▁cobra▁14292
bung▁14293
▁mache▁14294
▁Domain▁14295
▁Ekman▁14296
▁Cochrane▁14297
▁Taniyama▁14298
▁Jarrett▁14299
▁Krosoczka▁14300
▁Cousin▁14301
▁Elementar▁14302
▁Punk▁14303
Team▁14304
▁Limit▁14305
▁Stell▁14306
▁Toraja▁14307
Truck▁14308
▁teme▁14309
▁stethoscope▁14310
traut▁14311
▁Monitor▁14312
mitte▁14313
▁Wireless▁14314
▁Mehr▁14315
XX▁14316
▁Tank▁14317
▁Zabbal▁14318
ographie▁14319
▁Scratch▁14320
▁profane▁14321
▁Atheist▁14322
▁IGF▁14323
▁Gestalt▁14324
ietzsch▁14325
▁Trag▁14326
▁Imagination▁14327
▁Eile▁14328
▁Mott▁14329
▁interplanetar▁14330
▁Merk▁14331
▁Popcorn▁14332
▁USD▁14333
▁Vivian▁14334
▁Vivr▁14335
▁Schachtel▁14336
▁Almo▁14337
▁superconductor▁14338
▁Whirlwind▁14339
Auto▁14340
▁Winky▁14341
Dink▁14342
▁Engelbart▁14343
▁LS▁14344
▁HyperCard▁14345
Sakkaf▁14346
tromatolite▁14347
ryptophan▁14348
gut▁14349
▁Parasit▁14350
▁Schwa▁14351
▁401▁14352
▁17.▁14353
▁Strick▁14354
▁Heinz▁14355
▁Vati▁14356
pei▁14357
▁Singularit▁14358
▁neurologic▁14359
▁Instrument▁14360
▁halte▁14361
▁BM▁14362
▁negativ▁14363
ä▁14364
▁Leviathan▁14365
▁Admin▁14366
▁Pension▁14367
Screen▁14368
omuncul▁14369
QQ▁14370
▁Firewall▁14371
▁Vampir▁14372
送你葱▁14373
▁microblogg▁14374
▁Engel▁14375
▁Logo▁14376
▁Generator▁14377
autor▁14378
stelle▁14379
▁Tempo▁14380
▁Magnet▁14381
▁Stimulation▁14382
▁Moral▁14383
▁Fraser▁14384
▁Carrillo▁14385
▁sass▁14386
▁Lotto▁14387
Tool▁14388
von▁14389
▁Blackawton▁14390
▁Strud▁14391
▁Institut▁14392
olpert▁14393
ú▁14394
▁Röntgen▁14395
▁Wehr▁14396
▁Amt▁14397
▁Geist▁14398
▁Eigentum▁14399
▁Laut▁14400
prüf▁14401
recht▁14402
▁wird▁14403
▁Verfahren▁14404
weise▁14405
rechtlich▁14406
▁geschützt▁14407
▁welche▁14408
▁durch▁14409
▁spezifisch▁14410
▁aufge▁14411
räumt▁14412
▁Regel▁14413
mässig▁14414
keit▁14415
▁allgemeine▁14416
▁Formen▁14417
▁neue▁14418
▁Wirkung▁14419
▁zu▁14420
▁erziel▁14421
▁möglich▁14422
halle▁14423
▁Vinc▁14424
egel▁14425
▁Galvao▁14426
▁Rede▁14427
▁Trend▁14428
▁Hypertext▁14429
▁Impulse▁14430
▁Seg▁14431
Mail▁14432
▁natur▁14433
▁Thron▁14434
▁Weibo▁14435
▁Kern▁14436
kong▁14437
▁Suppe▁14438
▁Capgras▁14439
▁Diese▁14440
druck▁14441
garten▁14442
▁Mode▁14443
▁alt▁14444
▁Evangeli▁14445
▁Lolli▁14446
fel▁14447
▁kenne▁14448
▁melde▁14449
fallen▁14450
▁Garage▁14451
▁Ocul▁14452
▁Divergen▁14453
▁Rasse▁14454
▁Trabant▁14455
▁Idri▁14456
▁fand▁14457
▁Bacch▁14458
▁dank▁14459
isten▁14460
ysmorphophobi▁14461
▁Bilbao▁14462
▁Kante▁14463
chance▁14464
▁Myco▁14465
▁Alternative▁14466
artig▁14467
▁WorldWide▁14468
▁Mund▁14469
Telescope▁14470
▁Biospher▁14471
▁Modul▁14472
spray▁14473
▁Leit▁14474
rlei▁14475
Patient▁14476
▁Koch▁14477
▁Hyo▁14478
▁Mario▁14479
gora▁14480
sklav▁14481
▁Variation▁14482
uditorium▁14483
▁Meeting▁14484
▁Collusion▁14485
▁Humor▁14486
trieb▁14487
▁Sprint▁14488
status▁14489
▁Stadium▁14490
▁gluten▁14491
lager▁14492
▁Cantor▁14493
▁Afro▁14494
▁Cholera▁14495
▁Gottes▁14496
zelle▁14497
▁Gott▁14498
▁Schlau▁14499
▁Solo▁14500
Touch▁14501
▁Milgram▁14502
▁Schule▁14503
▁Slam▁14504
▁Trickster▁14505
▁Geek▁14506
▁friss▁14507
▁Bare▁14508
ambia▁14509
▁Toten▁14510
grab▁14511
ieder▁14512
Strateg▁14513
▁Hyun▁14514
▁Ngram▁14515
▁ELA▁14516
▁Brock▁14517
▁Eigen▁14518
echten▁14519
▁Wann▁14520
äcke▁14521
▁Frau▁14522
ohn▁14523
▁Klan▁14524
▁Dodo▁14525
Rumbaugh▁14526
▁Bonobo▁14527
▁Kanzi▁14528
▁Drug▁14529
▁mitten▁14530
▁Bilder▁14531
▁Huf▁14532
▁Bionicle▁14533
▁Software▁14534
anav▁14535
▁Mist▁14536
▁Hepburn▁14537
▁Knopf▁14538
scha▁14539
▁Metall▁14540
Sauce▁14541
▁Cura▁14542
▁Haut▁14543
▁Pantheon▁14544
▁Piano▁14545
▁Surf▁14546
▁Meetings▁14547
▁Smiley▁14548
▁Bergen▁14549
▁Brei▁14550
Korea▁14551
▁Trott▁14552
▁Weblog▁14553
ophonie▁14554
▁Multimedia▁14555
ASDF▁14556
▁Koko▁14557
ummel▁14558
▁Cait▁14559
▁Pastor▁14560
Freak▁14561
fett▁14562
▁Flut▁14563
ologie▁14564
▁pigmentation▁14565
▁Mosk▁14566
▁Ragu▁14567
▁Poupon▁14568
▁Hotmail▁14569
▁4,5▁14570
▁Fest▁14571
▁Immigrant▁14572
▁Placebo▁14573
▁1,8▁14574
Fiction▁14575
▁Hirshhorn▁14576
▁Lava▁14577
▁kam▁14578
▁Situation▁14579
▁Psychopath▁14580
▁Dunlap▁14581
▁Bein▁14582
▁SK▁14583
▁Alligator▁14584
XXX▁14585
▁Sexual▁14586
▁Potential▁14587
▁Nah▁14588
▁Lust▁14589
▁Gift▁14590
▁Bitcoin▁14591
▁Tide▁14592
▁Teszler▁14593
▁Anschluss▁14594
leiter▁14595
begg▁14596
▁Variabilit▁14597
▁Lean▁14598
presse▁14599
▁Baseball▁14600
▁phthalate▁14601
▁Transfer▁14602
Ei▁14603
mals▁14604
▁atheism▁14605
▁Katzen▁14606
▁Religion▁14607
▁Inner▁14608
▁Privat▁14609
▁Kapital▁14610
uthanasi▁14611
▁KT▁14612
Reality▁14613
▁Irrational▁14614
oxica▁14615
▁Latte▁14616
▁Lamanite▁14617
▁Gayla▁14618
miculit▁14619
▁Stratford▁14620
▁biofluorescen▁14621
▁Hippocamp▁14622
▁lang▁14623
öl▁14624
schw▁14625
▁Comic▁14626
▁Acht▁14627
▁Strategie▁14628
▁KI▁14629
▁3000▁14630
▁Gute▁14631
▁Scrapper▁14632
▁Nest▁14633
▁Trauma▁14634
rö▁14635
▁CRISPR▁14636
▁Wie▁14637
heft▁14638
▁neurogenesis▁14639
▁Everglades▁14640
▁Okeechobee▁14641
▁Selasi▁14642
▁Drink▁14643
▁immens▁14644
ū▁14645
ī▁14646
apien▁14647
▁Aglo▁14648
vril▁14649
▁Intervention▁14650
▁Khali▁14651
ntercept▁14652
▁Osmakac▁14653
▁wetsuit▁14654
▁Landes▁14655
▁Tori▁14656
▁Supernova▁14657
▁Knie▁14658
augen▁14659
▁Boni▁14660
▁Kinder▁14661
transport▁14662
▁Stonewall▁14663
▁StoryCorps▁14664
erasa▁14665
shea▁14666
▁Shiritori▁14667
▁Held▁14668
Saa▁14669
▁Altern▁14670
iq▁14671
▁peacebuild▁14672
▁Juliano▁14673
▁Transformation▁14674
ardino▁14675
▁Linguist▁14676
formation▁14677
▁Pimp▁14678
tadore▁14679
▁Katz▁14680
▁NRK▁14681
rtigr▁14682
Å▁14683
immel▁14684
▁Maidan▁14685
▁Maxim▁14686
▁Plot▁14687
▁tippe▁14688
¡▁14689
▁Marker▁14690
▁Nadel▁14691
▁Foto▁14692
▁Kette▁14693
▁handwash▁14694
▁Handel▁14695
▁ELAM▁14696
potential▁14697
▁los▁14698
▁Seide▁14699
́▁14700
▁Rehabilitation▁14701
▁intim▁14702
kry▁14703
leau▁14704
▁Manya▁14705
gramm▁14706
▁straf▁14707
▁privat▁14708
▁Funk▁14709
▁Meter▁14710
gt▁14711
▁Fresh▁14712
▁Slick▁14713
Č▁14714
▁SAMS▁14715
▁Balz▁14716
sambi▁14717
▁Bombe▁14718
uhr▁14719
▁Mysteri▁14720
▁Zimmer▁14721
▁Toxo▁14722
▁Signal▁14723
▁Cowboy▁14724
▁FreeSpeech▁14725
▁Heu▁14726
▁INCRA▁14727
▁ESG▁14728
▁Frame▁14729
▁Tijuana▁14730
▁Faiza▁14731
▁Reservoir▁14732
▁Archiv▁14733
Alla▁14734
Player▁14735
lfalfa▁14736
▁Reis▁14737
▁Orang▁14738
€▁14739
▁Cartoon▁14740
▁Malaria▁14741
▁Schott▁14742
▁21.▁14743
▁Schar▁14744
kinder▁14745
▁Donner▁14746
▁Gentlem▁14747
▁interne▁14748
▁neuromodulator▁14749
▁Schnell▁14750
▁Krill▁14751
▁Hase▁14752
▁Journalism▁14753
journalist▁14754
animation▁14755
Center▁14756
ommissar▁14757
▁Pleo▁14758
▁Furby▁14759
▁Camarasaurus▁14760
▁erst▁14761
▁globale▁14762
