▁convenience~~6664
erium~~13095
▁component~~2345
Uni~~12979
▁Pal~~8874
▁current~~3432
▁Fleisch~~12973
four~~8171
▁Gould~~13435
ruct~~12430
▁boxes~~1797
▁currenc~~8081
centimeter~~7141
communica~~9721
▁Stonewall~~14663
educ~~7800
▁counteract~~7053
ndustry~~13050
ryptophan~~14348
▁Talk~~13
▁Mouse~~5400
▁laptop~~1008
gab~~6609
▁Fide~~9569
▁proof~~2883
▁contract~~9027
▁Glenn~~10481
lord~~6797
▁meet~~1269
▁spell~~6774
▁construction~~7485
digit~~11488
▁Hominid~~10130
▁cells~~1876
▁carry~~3586
▁Gandhi~~2300
▁cell~~2863
delt~~11812
▁megabyte~~14173
ltar~~8145
▁ruling~~7947
▁theater~~1123
▁ultraviolet~~8303
▁broc~~9188
▁Navy~~9590
▁solicit~~12091
akash~~11238
▁Patrick~~12703
▁Dyson~~11784
▁affluen~~10934
oooo~~13083
▁Rodrig~~9696
▁radiologist~~7064
▁thought~~1238
▁cherry~~11645
▁background~~1432
▁Million~~2087
▁Victoria~~10162
acula~~8332
▁agency~~7275
▁consider~~649
▁Missou~~9410
▁sympath~~8603
▁settl~~6934
▁Fusion~~11237
second~~6648
49~~13721
▁maximal~~13030
▁stereo~~7099
▁detector~~7112
▁humpback~~13006
Dog~~12814
▁controvers~~9095
▁SAMS~~14715
▁Pot~~6873
▁grabb~~5480
▁Pop~~9182
▁tape~~7119
▁Optimist~~14274
▁fleet~~5652
▁fake~~3237
▁Pol~~10885
▁radioactiv~~12254
▁Brei~~14550
▁Extra~~13507
ronze~~9111
ated~~942
▁There~~4363
▁dem~~7821
daho~~9468
▁Fransisco~~7356
▁possible~~1358
▁Darwin~~8318
reported~~7481
laden~~14250
▁Nairobi~~8521
▁designer~~3255
▁Rep~~13099
▁enact~~13002
▁archaeolog~~6054
▁Depression~~3346
,500~~6401
▁artifact~~1574
▁starch~~8337
▁optimist~~9392
k~~913
▁exponentially~~7282
▁Spiel~~6115
▁Ring~~12778
▁240~~10926
▁Automat~~12409
▁Lange~~61
▁metaphorical~~9059
▁Laden~~12020
▁influen~~1985
▁hear~~313
▁heat~~4034
▁pounds~~514
▁Nick~~5900
▁blonde~~13610
▁pric~~9550
▁Radio~~7156
▁Brent~~10662
▁manner~~2188
uniz~~10227
▁ubiquitous~~7098
▁occurrence~~8453
▁head~~331
stern~~11129
▁heal~~4812
▁regular~~6993
▁Airline~~10999
▁500,000~~4343
▁Cowboy~~14724
▁Tipp~~11783
▁swam~~5471
<s>~~2
▁Bill~~60
▁intelligent~~1636
▁person~~1916
▁neurological~~8744
▁Chip~~9114
▁Testament~~8165
▁swap~~9708
▁ambition~~2326
▁Happy~~11594
▁miniaturiz~~8288
▁modest~~3048
holm~~4093
▁Pac~~12454
91~~2379
▁wonder~~505
hole~~3740
hold~~3518
95~~12525
▁stack~~1314
▁prevent~~4071
▁conceive~~3807
▁Pink~~11747
▁helpless~~5676
EDI~~9999
lves~~6978
▁existence~~7750
▁indicat~~8198
▁measurabl~~1689
impose~~2299
▁year~~721
wand~~10257
▁claim~~4114
▁Philharmoni~~11832
▁Mash~~7381
▁Regina~~13740
▁Schafe~~12218
Reality~~14613
▁beating~~4307
▁Mass~~11932
▁copulat~~12328
▁producer~~4994
▁Ideo~~14136
Biafra~~12999
▁caterpillar~~7259
▁disable~~9443
▁shiver~~13468
motion~~8422
▁advoca~~7548
▁systems~~1315
▁blurr~~5956
LC~~8097
▁prohibit~~9423
▁Haiti~~7633
LL~~7361
▁Advanc~~9224
machine~~12176
how~~1012
hou~~8322
augen~~14659
hop~~3171
place~~4106
▁paleontologist~~9639
A~~1819
▁own~~1222
▁tough~~766
▁owl~~4730
▁Kobe~~7609
▁owe~~5738
▁nanoscale~~9017
▁TEDMED~~9712
▁Seren~~13633
▁Steven~~6114
▁MacArthur~~7183
▁Lem~~10087
▁Kelly~~8546
▁world~~175
▁woman~~926
▁mentor~~3010
▁Somerset~~10315
aving~~5048
▁thermodynamic~~13711
▁guards~~6272
▁Situation~~14579
▁Ebene~~3714
▁Ricard~~9326
wink~~13833
▁Mendel~~13522
▁gun~~9539
▁strap~~4484
wind~~6937
▁surface~~518
blind~~10451
▁polite~~10560
▁protest~~7502
▁Acht~~14627
▁want~~168
acco~~11858
▁wann~~12737
▁matters~~1442
vara~~8793
▁movie~~1935
▁slipp~~7524
▁Higgs~~13425
▁stimulation~~8689
▁hunger~~4888
▁profit~~1167
▁episode~~7974
▁instantly~~5552
▁bake~~8116
▁emphasi~~4999
▁Hour~~9261
▁Hous~~12152
▁crucial~~7785
fin~~12198
▁participate~~2423
▁antibod~~9370
▁computer~~380
▁valu~~889
▁proceed~~5647
▁validat~~13048
▁John~~4538
▁Rhode~~7058
similar~~12477
▁Ley~~7927
▁Ahmed~~8920
▁symbio~~8312
tenance~~6480
▁Lev~~13823
▁astronom~~10577
interrupt~~2030
▁consequent~~7783
▁Ariel~~2545
▁stretch~~3033
▁skeleton~~7650
▁Securit~~8950
▁Junior~~14008
▁fires~~6227
▁property~~4461
▁Kentucky~~9792
▁nation~~5133
▁celebration~~7373
▁properti~~9608
▁Lob~~13368
▁regnet~~11815
▁lesson~~1457
▁Dor~~8333
▁Brook~~9377
▁plumb~~719
▁br~~4534
▁democratic~~10700
▁final~~1057
onica~~10626
▁by~~27
▁emotions~~1099
▁downtown~~6870
▁be~~223
▁Regel~~14413
▁ba~~4163
▁joystick~~378
▁bo~~7836
▁harvest~~614
▁Mongol~~6759
▁bi~~1233
ru~~3379
▁cross~~5986
OL~~11279
▁explode~~2608
▁weeks~~828
▁10.~~13694
ry~~2958
▁invest~~1490
cooter~~8518
re~~66
Python~~13569
ra~~308
▁synapse~~11225
▁Economi~~830
ro~~1932
ri~~974
▁Church~~7920
▁curious~~2171
▁transcend~~5702
▁decade~~1557
▁exhibition~~3792
▁Hugh~~14045
▁Myco~~14465
▁unchang~~9166
knit~~9480
▁crucifi~~11502
crony~~11800
ate~~1246
ata~~10903
▁Peace~~8010
▁Russell~~10777
ath~~3479
upp~~6070
▁rendering~~6336
▁wealthie~~7284
▁Coca~~8962
▁initial~~2639
200~~12734
▁subtle~~10226
▁patient~~1914
▁lever~~987
▁institutionaliz~~8929
▁choreograph~~8785
vitro~~12938
▁relativ~~10772
wash~~3969
▁description~~2331
▁Mann~~9924
▁level~~1247
▁traits~~1032
▁creep~~8403
▁Cait~~14559
▁stomach~~3457
olds~~1323
basketball~~3174
xploration~~949
service~~13640
▁scroll~~6093
▁NSA~~9881
▁activist~~6599
master~~4488
▁primate~~7020
▁vine~~6245
flection~~13089
▁satisfy~~8062
▁1930~~8898
genesis~~508
▁Fischer~~6497
▁trends~~7862
▁ecologist~~9967
cted~~9700
▁Hoover~~13723
▁keys~~3113
▁frame~~1635
▁mosque~~7898
▁Robin~~9289
▁move~~722
▁prevail~~5265
▁Jack~~9636
▁condense~~10877
Code~~11883
▁free~~2788
tree~~9137
project~~6717
▁masse~~2871
▁Powell~~11322
▁determine~~6589
friend~~7261
▁librarian~~11579
▁HIV~~5218
tion~~1073
▁truth~~86
▁biomedic~~7123
▁distill~~10027
▁hardware~~2585
▁cobra~~14292
runner~~5029
▁miserabl~~13915
▁constituenc~~8940
▁Fellow~~8286
▁democrac~~8540
▁Deep~~7411
▁wreck~~11115
▁constituent~~10800
▁ingenious~~6214
▁Mind~~13404
▁Mine~~8713
▁strategy~~5310
▁Mini~~6719
phase~~14043
uark~~14114
▁dough~~11647
▁celebrit~~12910
▁distinct~~6296
▁6,000~~8080
▁strategi~~5396
▁details~~2900
Bank~~14051
▁threaten~~5553
▁charming~~9359
▁north~~402
▁resilien~~54
▁Majest~~13743
▁eradicate~~1258
▁pixel~~5903
mouth~~4802
▁Intelligent~~11995
letter~~12777
▁robb~~2213
▁away~~606
▁decorat~~6032
▁sketch~~6736
▁Leit~~14474
▁Samantha~~13911
▁supermarket~~6944
▁Por~~10295
▁Burn~~10657
▁Burm~~8619
▁Burk~~13908
▁colon~~10622
▁empirical~~10400
tech~~3810
▁manufactur~~6761
▁legitimate~~4607
came~~2116
▁wipe~~726
Marke~~13285
bomb~~9526
reactor~~11391
▁Nintendo~~9276
▁quad~~1445
▁cyborg~~12573
liest~~6384
▁methodolog~~11379
▁hello~~2999
lethal~~13947
▁Academ~~9719
▁Drink~~14643
▁giant~~314
▁contraction~~12331
▁testosterone~~6547
ment~~1298
▁Vampir~~14372
▁coverage~~7074
▁Lakota~~14040
than~~6449
▁inflict~~8357
▁bully~~9462
▁Angela~~10180
rich~~458
rice~~7942
▁chromosome~~5382
▁pharmac~~5238
▁undern~~5454
plate~~9627
Account~~13296
motivat~~6487
wide~~4028
▁evident~~5308
▁communicat~~282
▁Piano~~14545
▁Propaganda~~12094
▁gathering~~1744
▁Album~~11137
▁warrior~~7751
▁innocent~~3933
X~~275
▁Every~~2280
▁criminal~~997
Prize~~14209
▁film~~1934
▁fill~~2507
▁spaces~~2512
▁wrap~~3911
▁Scan~~8863
▁direction~~1560
asis~~6237
▁micro~~306
▁Senate~~6567
▁Dome~~4137
▁drugs~~3976
tomie~~9536
▁incident~~5569
▁success~~1291
blew~~6430
▁adaptive~~3219
▁mysterious~~4767
▁opening~~4513
▁Behind~~2713
Mart~~12702
etic~~5692
▁Easy~~10296
centric~~8259
▁Oregon~~6266
▁prevalence~~5227
▁organism~~5313
▁relate~~5716
▁Tyrannosaur~~9653
▁spott~~6267
▁mega~~7483
▁autonomous~~11867
▁biotech~~5407
▁pigmentation~~14565
figur~~2777
▁eventually~~418
▁place~~658
▁Hamburg~~12059
Tri~~11987
ire~~3020
▁African~~3187
▁Noa~~13337
▁worse~~911
▁hmm~~12855
▁deserve~~4318
▁Ideal~~13701
▁Madonna~~6059
carbon~~6560
▁worst~~827
affe~~10832
mmonia~~7295
▁Potter~~11308
ë~~13551
ekhar~~10980
▁supermassive~~13358
▁Bernard~~13781
▁tempt~~2616
▁Villa~~13409
▁volatil~~4920
▁dein~~13111
dorf~~13076
▁MRI~~1880
▁ca~~3917
pite~~729
esis~~11945
▁Ferris~~12594
▁anniversar~~10450
▁subtract~~10758
▁Stand~~12652
▁SUV~~7412
▁pajama~~7776
▁practic~~10498
▁SUN~~7010
▁genital~~6528
▁lawn~~10317
▁clone~~6786
▁grade~~4603
union~~12299
▁Block~~3851
▁Pat~~3337
▁external~~7986
▁fair~~3129
▁choir~~6110
.~~499
▁Pan~~11455
▁jazz~~3143
▁fail~~4565
▁Pam~~11549
▁shove~~7669
romegal~~13186
è~~14105
▁finish~~1225
▁welcome~~5184
life~~2662
▁tooth~~4126
pri~~1283
▁Kick~~14279
▁merg~~9408
child~~10386
▁rebel~~7915
▁abrupt~~9932
▁tinker~~9283
▁magnify~~12624
overty~~11351
▁enshrin~~11620
▁defecat~~8994
▁Erik~~10866
▁depth~~50
inch~~12016
▁bubbl~~10203
▁President~~7573
▁semantic~~13413
▁marginal~~1192
▁poacher~~13394
▁viewer~~9278
▁Northern~~4088
▁relegate~~11866
▁Fraser~~14384
▁contemplat~~9034
desto~~14188
▁historical~~7596
▁heck~~8741
▁Was~~6839
▁War~~2778
▁Wat~~10605
▁paddle~~2522
hwaite~~13762
▁flour~~12957
llows~~13765
▁Liquid~~14291
credit~~8712
▁horrific~~4293
▁4000~~12697
pulsion~~5758
▁stor~~4033
▁stop~~1090
▁narrative~~1937
▁Tide~~14592
▁Explosion~~14174
▁Paralympic~~13302
▁physical~~2798
▁position~~4510
electrifie~~12015
pocalyp~~11596
▁offering~~4454
▁closing~~6229
▁unprepared~~4814
▁Biolog~~12959
▁savor~~5163
▁Penn~~7337
▁Islamic~~7623
geist~~8504
▁always~~1254
tung~~12733
▁Kelle~~13341
▁motion~~3029
▁school~~261
▁difficult~~590
▁advert~~11615
▁cave~~1963
▁chase~~3848
▁Broadway~~9942
▁fundrais~~7615
▁Olymp~~8496
▁8.~~10852
▁surreal~~11046
▁advanc~~12386
quarium~~12121
▁Chinese~~3285
▁85~~8865
▁86~~8729
▁87~~1407
▁80~~2435
▁82~~4942
▁83~~7140
▁Maus~~14289
▁88~~9612
ctic~~7167
witzer~~6704
trong~~4272
▁Transport~~12199
hak~~4591
hal~~3421
ham~~3641
han~~5909
kon~~11188
▁heavi~~9158
▁libert~~7349
▁phase~~6213
▁mappe~~415
har~~4348
hat~~6828
istan~~8890
▁cardiologist~~13741
▁Julia~~9178
▁Julie~~12965
▁guideline~~4405
▁age~~1088
▁prehistor~~10151
birth~~6542
▁ago~~829
▁campus~~8202
▁nest~~3443
▁atheism~~14605
▁research~~1670
▁Second~~10298
▁priest~~7470
▁IGF~~14323
▁yogurt~~9201
▁Russ~~12263
▁Anders~~13675
▁recall~~2640
▁traumatiz~~12746
▁crochet~~3492
▁pace~~5085
▁Designer~~3850
ction~~6256
▁recursive~~13949
▁household~~6161
▁pack~~453
▁preferabl~~11289
ola~~3823
right~~1115
old~~905
▁boss~~994
▁Mental~~13802
▁jurisdiction~~4103
olo~~13831
▁eating~~3135
▁Giacometti~~11774
▁Aquarium~~3485
▁dying~~3459
animate~~5302
atrol~~12627
▁German~~1515
▁prince~~5831
ä~~14364
▁Rouge~~12700
▁Snack~~14205
for~~5512
bottom~~11014
▁just~~555
▁board~~1837
▁sociologist~~8545
▁Confuci~~10949
▁bait~~5791
▁quantit~~4909
▁Antoni~~13124
▁Head~~3075
▁opinion~~2170
▁chance~~1434
mpact~~13068
▁suffer~~7640
▁mystic~~7799
energy~~10112
ommissar~~14757
▁Profit~~13355
▁Eile~~14328
▁fixed~~6420
▁practical~~3207
▁vault~~6877
▁Profil~~9097
▁fingerprint~~8483
▁Swap~~13638
▁Verfahren~~14404
▁disease~~2914
▁plankton~~3499
▁Swami~~13028
▁lifetime~~4713
MPA~~11994
▁unbearabl~~7908
▁response~~3973
▁possibilit~~1868
▁coincidence~~6603
o~~772
▁biolog~~5357
▁Cosmi~~13761
▁learner~~7549
▁creator~~7380
▁possibl~~5801
▁Wein~~11742
ncyclopedia~~12598
▁offshor~~12226
▁consum~~6545
▁aircraft~~1816
▁Gedanken~~13808
mba~~6500
son~~422
▁exaggerat~~11145
▁Pu~~6767
▁jealous~~4664
▁doorstep~~11925
▁legitim~~12741
▁apparent~~3689
▁Neptun~~10983
▁Marc~~9920
Ashbur~~13527
▁BBC~~12911
spring~~11256
▁revise~~11791
▁palette~~11930
▁function~~1886
▁correspondence~~5923
▁Genev~~8918
cumen~~12366
▁Voyage~~6205
▁publication~~9782
▁critical~~593
shoot~~11201
▁mobiliz~~7938
▁Kelvin~~12484
▁FILMCLUB~~1950
▁Mitra~~13863
▁Genen~~13896
▁Zinta~~13979
▁String~~7835
▁abnormal~~8684
▁Harris~~6499
▁subject~~1841
▁sector~~4987
▁Metric~~8463
▁wall~~2290
uer~~11687
▁walk~~1116
▁sympathetic~~5262
krieg~~13550
▁was~~466
▁war~~2751
ewage~~12340
▁Magritte~~13332
▁wav~~10373
▁ceiling~~3833
▁wax~~2485
▁Amunds~~9049
<unk>~~1
ugoslav~~7916
▁technological~~3038
▁Grill~~9106
▁ancestor~~3569
▁glamour~~13573
▁safari~~11699
▁inconvenience~~11768
▁Athen~~11055
▁upper~~1444
▁roommate~~12506
▁Sculpey~~9071
▁embass~~12936
▁Birmingham~~13606
▁PC~~9125
▁crumbl~~10624
▁prett~~1062
▁Glas~~13327
▁philanthropi~~5405
dipus~~14143
▁socket~~13046
▁Summi~~12607
monoxid~~13114
▁philanthropy~~4686
cortex~~1102
▁Gel~~10586
▁Geo~~10531
▁Gen~~4568
E~~1785
▁Geh~~13712
▁meaningless~~6199
▁listen~~750
▁CERN~~10963
▁robust~~5321
▁tweet~~5491
▁massive~~1707
▁Par~~5901
▁crystal~~5529
▁Get~~4501
▁Louis~~2412
▁sufficient~~4177
▁penguin~~6896
▁murderer~~9888
▁Ger~~8509
▁coward~~4834
▁leopard~~11294
▁sentien~~9226
▁elementary~~7975
▁wetland~~6268
time~~2124
▁tacti~~11996
lium~~10975
▁Clay~~11574
▁Lex~~9583
▁proposition~~4996
▁Clar~~9173
▁Gabriel~~2858
people~~11208
▁Clau~~14147
▁ran~~2016
▁gallon~~6625
▁rap~~7208
osh~~11432
▁approache~~4333
▁rat~~6411
▁rau~~13487
▁raw~~3734
osa~~9644
▁ray~~7116
ose~~3458
midst~~11004
▁Thre~~6419
▁candidate~~8224
▁Cleve~~10656
ver~~2452
▁history~~737
▁burglar~~5773
▁interpret~~7080
▁Christopher~~1852
▁avert~~4186
▁license~~4750
▁majest~~10981
▁notebook~~5567
▁fund~~2593
▁dawn~~4554
▁cigarette~~3462
▁funk~~10369
▁Australia~~4775
pei~~14357
▁Best~~9992
▁comedy~~9981
▁Los~~5504
▁Rwanda~~2131
▁taste~~6948
▁Low~~6187
▁Fat~~8943
▁bound~~3612
▁unusual~~2902
▁delivery~~8984
erala~~8980
▁Fal~~6057
▁Fan~~7044
▁roll~~4340
▁Log~~8216
▁sapien~~7674
▁Kyl~~13881
▁role~~3956
▁Kyi~~8623
▁Plato~~7430
minute~~2467
▁monsoon~~10024
▁cortic~~12433
▁Wer~~11667
▁slug~~12625
▁Lamanite~~14617
▁contain~~3505
team~~7369
▁lag~~10536
▁Richard~~7187
▁enlighten~~6791
▁relay~~9847
▁relax~~5043
▁increase~~1144
▁peril~~11520
constru~~7786
▁dexter~~9684
▁Treasur~~12216
▁relat~~10497
ermaid~~11575
▁Ed~~3242
▁Lynch~~13904
▁handwrit~~5566
educate~~1484
▁Pandora~~8207
▁Jaipur~~10025
▁Valdez~~12195
▁matche~~7725
▁glorifi~~13537
▁Garage~~14451
▁ride~~4415
extraterrestrial~~5509
▁protected~~3664
▁excerpt~~7185
▁gateway~~6867
▁Schar~~14744
▁dragon~~9074
Me~~11986
▁point~~1894
▁substrate~~13242
▁El~~743
Ma~~4843
▁bone~~5835
Mo~~6829
▁compensat~~12313
lange~~2989
▁Revolution~~978
▁monarch~~10540
▁catalog~~5501
▁twentie~~8474
magnetism~~10719
▁dreadful~~7968
▁smoke~~5034
▁cheat~~2551
▁Solomon~~14216
▁Protest~~13305
▁tu~~5869
▁infinit~~10805
▁photographer~~4057
MA~~6406
▁kiosk~~9126
▁know~~809
ML~~4120
▁geometr~~3845
▁inadvertent~~892
MI~~13431
▁none~~3600
MT~~12233
▁fire~~1241
▁ourselves~~873
▁Left~~2712
▁firm~~4831
▁Performance~~8239
▁leave~~1204
▁suggest~~1953
▁cooperate~~8179
▁activation~~1895
▁Knee~~14047
▁Ep~~12914
▁Global~~7859
▁wheat~~8535
wana~~10380
▁differ~~5325
▁purpose~~369
▁Koolhaas~~13981
▁Baseball~~14600
▁los~~14698
▁lot~~662
▁low~~2637
positive~~8724
La~~9549
by~~5777
▁loa~~10398
▁Binde~~13857
▁obscur~~12824
▁inevitabl~~3322
▁Domin~~7635
▁log~~8400
▁quick~~1161
▁mean~~799
▁potter~~8909
▁meal~~3549
▁CT~~7685
▁catapult~~12704
▁Peer~~11879
▁Nazi~~2257
ankees~~11544
▁Nah~~14588
▁Himmel~~13119
enhanc~~12611
▁CD~~3009
visual~~11876
▁CA~~5420
▁CC~~4119
▁CB~~3064
▁CL~~11985
▁Laura~~6140
▁meetings~~6274
▁diverge~~3164
▁EB~~9853
▁Cu~~9763
▁Speed~~5457
▁Budweiser~~8222
▁lumin~~10813
▁Tom~~2292
▁royal~~1861
▁embryo~~5423
▁Tod~~2831
▁discard~~8215
▁quasi~~12601
▁improvisation~~11461
▁Mexican~~6119
▁Ca~~392
skrit~~8783
▁Top~~11882
▁academ~~13045
▁Co~~4696
▁Ch~~1726
▁Motion~~13563
▁ivory~~12417
Monkey~~12554
▁instabil~~5451
▁basement~~4065
▁Emmanuel~~13003
▁bark~~9317
▁shopp~~1600
▁Native~~9945
▁Serbia~~7910
▁sequenc~~4223
▁Brit~~2161
▁bare~~2209
▁computation~~9634
▁signature~~647
▁tale~~864
▁exchang~~10299
▁worthless~~8082
▁Brin~~5807
▁bars~~3169
▁barr~~7605
▁devise~~3839
▁tall~~661
▁talk~~687
▁social~~814
▁Zander~~13565
▁drama~~2275
▁gibbon~~8828
▁Texas~~8037
▁Michelangelo~~7416
▁deliberate~~3720
atar~~11051
▁resembl~~9607
data~~11109
rgon~~7558
stress~~10510
▁till~~601
▁style~~6845
conscious~~13345
▁tile~~5547
sp~~5338
▁neutrino~~11445
▁Sebastian~~10480
st~~611
▁remorse~~4459
▁WikiLeaks~~13251
so~~1412
▁interrogate~~7849
▁Laureate~~10992
▁tilt~~2079
▁generate~~656
▁sleeve~~3928
▁terror~~9913
▁paradi~~12125
tification~~4976
▁hoop~~10527
▁Aristotel~~13845
▁razor~~7199
▁FEMA~~13220
course~~7839
▁hook~~4156
▁intersect~~6305
tta~~9925
▁Hase~~14752
▁comedian~~5493
▁Ort~~12090
ographic~~8819
▁stir~~10428
▁conform~~13493
▁tribal~~8217
▁masterpiece~~6028
▁forget~~294
▁attack~~1874
▁Ada~~9596
▁attach~~5538
▁boil~~565
eolith~~8875
▁Argentin~~11900
▁prejudice~~7906
▁screening~~2017
▁antenna~~6046
▁super~~2298
▁inertia~~12620
iuk~~11971
▁impostor~~14012
▁Report~~12516
▁suspend~~9008
▁marsh~~7747
▁artwork~~10721
▁criticize~~1390
Gordon~~8595
▁gluten~~14491
▁Crimin~~13965
\~~14182
▁submarine~~28
▁Cent~~8338
▁cats~~8659
▁abdomen~~11983
▁crave~~12177
▁Pants~~9982
▁inoculat~~10697
▁Howard~~2304
▁tiger~~5816
▁distance~~651
▁Bein~~14582
▁glacier~~742
▁Nar~~11151
▁scaffold~~7029
viation~~5949
quarter~~9113
▁solar~~6202
▁Stage~~8234
kram~~13931
square~~10503
▁Religion~~14607
▁Carl~~3998
▁Carm~~12164
▁Baker~~3161
▁shatter~~6667
▁template~~7243
▁bucks~~3482
organic~~10202
▁confine~~5589
▁devotion~~6886
▁urine~~6605
▁Monopol~~12751
▁direct~~1377
▁trade~~3601
▁vigil~~10785
▁thrust~~253
▁seduce~~8679
▁instinct~~5680
▁emergent~~11070
▁critique~~11126
ble~~1129
bla~~5687
▁invit~~3778
▁Gardner~~9246
▁some~~33
▁shepherd~~8162
▁Morgan~~13072
▁container~~7645
▁Faul~~13587
▁collapse~~1890
▁summar~~1285
quite~~2214
▁Kong~~9347
▁Luca~~3435
▁defense~~5775
▁Lyndon~~11513
▁medium~~3176
▁Universi~~11682
hamed~~9336
▁Stell~~14306
Z~~6082
▁phosphorus~~12107
▁remain~~5339
▁Proton~~11039
▁forth~~3964
▁Jewish~~8137
▁injur~~5868
▁internet~~5598
oni~~12397
▁staple~~5210
▁lightning~~11805
▁choice~~1597
ona~~12512
ong~~2543
▁Paol~~11896
one~~1334
▁moderate~~5337
▁Mushroom~~11496
▁Schnell~~14750
▁faint~~7134
▁persuasion~~12802
city~~9926
▁Carrie~~5016
▁Authenti~~14028
▁outward~~1659
▁boat~~2199
▁displace~~6668
▁destination~~9386
teacher~~13416
2~~6129
typing~~3294
▁distress~~7931
▁behavior~~1611
▁therap~~3982
▁Prince~~2859
▁Ahmad~~8933
▁Ninja~~14007
▁confront~~4036
▁equi~~7553
▁Gius~~7313
▁existential~~9914
proving~~12503
▁Raja~~11264
▁Stop~~754
▁trouble~~1367
forward~~5013
▁Rumi~~12349
spora~~11248
▁tendenc~~8087
▁psychology~~7798
▁service~~1166
▁relief~~2736
▁antibiotic~~5336
▁facult~~5962
▁appearance~~5783
▁interrupt~~8688
▁yield~~7362
▁Solly~~11702
▁Daniel~~7182
▁Football~~14151
▁TEDster~~6379
▁congress~~4241
▁wider~~5753
▁Island~~4411
▁halt~~6035
▁OPEC~~12129
wandering~~10254
▁decompos~~9775
sai~~8167
emen~~6604
▁unimaginabl~~6286
sam~~3387
▁fr~~1150
▁fu~~763
▁Transfer~~14602
▁plastic~~3330
▁fl~~9864
▁evaluat~~11967
▁Zucker~~11358
borough~~6885
saw~~5663
▁wrinkle~~13724
▁complicated~~3944
▁fe~~6551
▁biomimic~~13247
▁makers~~1851
▁voyage~~197
▁cubicle~~11905
▁Irish~~12535
▁Suga~~13406
iscipline~~13333
note~~5367
▁demonstrate~~1856
take~~6397
rechtlich~~14406
▁crater~~12962
▁Erne~~11518
▁spectrogra~~12482
▁dragline~~14217
▁printed~~6799
▁reimagin~~9566
▁Trek~~13682
▁Jesse~~12842
abul~~12827
▁life~~7
▁evacuat~~7637
▁dispute~~11477
▁dentist~~9535
▁territor~~4112
▁cavit~~14263
▁Turing~~11789
▁hills~~9647
▁lift~~4422
▁Count~~9087
▁Pixar~~13343
▁Technologie~~12231
▁conventional~~5076
▁entire~~1628
montage~~8467
▁extrinsi~~12673
phil~~2894
drive~~5982
▁flesh~~9720
▁blogs~~8417
jacke~~9493
▁straw~~10288
▁Rap~~9983
♪~~10111
▁walls~~2970
▁airline~~12158
▁becom~~4718
stimulator~~9435
▁syndrome~~8652
▁Kiki~~12967
▁tun~~4167
▁Wright~~11865
▁Camp~~6403
▁related~~6027
▁tut~~2167
▁embed~~10604
▁twin~~7210
▁Edinburgh~~12993
▁1950~~4213
▁seatbelt~~12785
▁region~~435
legation~~7329
▁mortality~~7163
▁more~~1044
▁contribut~~3471
▁owner~~3252
▁crossing~~5283
▁printer~~11356
liberation~~7935
▁EEG~~12434
▁checklist~~9485
▁Hass~~13082
▁formula~~6563
▁dogs~~6930
▁Bulgaria~~773
▁Garret~~8557
▁ferocious~~6432
touch~~6064
▁Mul~~12800
▁Just~~4407
▁Sleep~~6131
▁Sixth~~14144
▁evidence~~1952
▁beaver~~9965
▁teme~~14309
▁specialist~~4771
▁sister~~2217
▁Mur~~4627
▁Dinosaur~~13156
platte~~13728
▁Niagara~~7451
▁wavelength~~6960
bombe~~13231
▁gorilla~~8824
▁onto~~2025
▁Live~~6106
▁addition~~5833
▁incremental~~5324
▁frag~~13943
▁conserve~~9454
▁transport~~3563
▁nuclear~~6369
▁Recycling~~13767
where~~464
vision~~7813
▁costs~~1494
▁minimal~~6314
verything~~10230
▁stimul~~3974
▁Japanese~~1615
▁government~~1528
▁wetsuit~~14654
▁timeline~~8520
▁collective~~2163
▁650~~3757
อร~~5825
อย~~5827
▁Impulse~~14430
▁Google~~2404
▁collaborate~~2875
▁regenerative~~11387
▁Atom~~9019
ff~~6907
decke~~8806
▁seventh~~4692
▁metabolism~~5298
▁Road~~10423
▁gloom~~4056
▁material~~493
▁Rawl~~14093
▁adequate~~10613
▁full~~1790
▁Jess~~12905
▁Liz~~12574
▁homogene~~1575
▁Geld~~13601
▁supplie~~4631
▁Lis~~2145
▁Isabel~~6851
▁significan~~7661
▁mantis~~13014
▁cliche~~11501
▁Picture~~13012
▁Lin~~5742
ud~~3359
▁Lib~~8519
▁contaminant~~3374
▁Jorge~~13056
▁alpha~~9369
▁Honor~~2654
▁Lockheed~~12153
▁ruthless~~11384
▁donor~~4938
▁frown~~9229
millionaire~~11640
personal~~10874
s~~24
▁Galvao~~14426
▁recession~~9542
▁Fuller~~6136
▁Geographic~~6393
expression~~895
▁circus~~12866
▁videotape~~9985
hormon~~13903
▁quer~~5838
▁AAA~~12749
▁Ray~~9584
▁citizen~~9750
▁masculin~~12682
effective~~10102
Team~~14304
▁ink~~10221
,~~5460
▁reasonably~~11598
▁Tradition~~13698
anti~~4654
isse~~9525
▁Norden~~14076
▁technologies~~1396
▁crude~~2272
▁necessar~~4904
▁emit~~10974
▁Geleh~~14025
▁dancer~~3150
▁Franz~~8366
iges~~13324
▁Frank~~2104
Tetris~~14226
▁miss~~5245
▁Dallas~~10935
▁miracle~~3553
▁stopp~~2646
▁alle~~3765
▁voice~~2864
▁peacekeep~~8645
thousand~~10865
▁socio~~1548
gger~~3489
▁circulation~~8429
▁Open~~8987
▁horses~~3529
▁industrie~~12229
▁stunn~~1519
▁Ana~~10666
▁Pharao~~11298
▁sites~~587
leiter~~14595
ived~~4678
moglobin~~9655
▁guns~~7697
iven~~13937
▁thus~~4101
▁Micro~~9020
▁brand~~4608
▁burie~~6388
freude~~14034
▁Tyle~~7510
▁Fern~~12412
▁responsibilit~~1540
▁intractable~~9457
ive~~529
▁pervasive~~5551
▁flirt~~11100
iva~~10688
brot~~12933
blau~~13120
▁20,000~~6370
▁scratch~~2813
▁complement~~5098
▁Ehrlich~~13582
▁worrying~~9509
▁explanation~~2636
▁Electronic~~11241
▁1600~~11462
▁edge~~169
▁Chor~~13708
▁Citizen~~2284
▁centimeter~~7117
▁quiet~~3134
▁cope~~7687
▁manager~~6710
mont~~5787
▁lit~~5200
▁graceful~~336
▁lik~~10716
▁beacon~~8903
▁retail~~6800
otto~~1165
▁retain~~3464
▁reason~~1182
▁illitera~~9129
▁unles~~2281
▁lie~~2276
eopard~~6541
erence~~4747
▁AV~~13069
▁AT~~10638
▁witness~~2329
▁sunset~~9689
▁excitement~~2739
ck~~9990
▁demo~~2449
▁AB~~3059
▁AK~~11081
▁Stygi~~12850
▁nanotube~~10200
▁AO~~11831
▁agreed~~8770
▁Mommy~~12753
▁Ar~~6740
▁Huh~~2433
▁Ap~~13264
▁throwaway~~3354
▁Au~~5246
▁Hum~~10824
▁decisive~~11204
▁Huf~~14532
▁developer~~7508
▁competitor~~8549
▁Tib~~5754
▁Ab~~4975
▁beekeep~~11719
▁Ad~~4973
▁Ak~~5917
▁Bjor~~8347
▁comparative~~6192
▁scanner~~1889
▁An~~3662
▁friends~~874
▁Al~~181
▁Agu~~12674
▁orphanage~~12103
▁action~~2963
▁proposal~~5403
▁fame~~4633
being~~824
▁Pek~~4727
▁Environmental~~10547
▁Pen~~6893
Hub~~13795
▁Per~~2190
▁Pet~~6448
▁creating~~967
▁Sousa~~13427
▁short~~695
▁calculus~~12789
ronto~~3744
itanium~~6436
▁antiviral~~13897
▁heard~~1773
pox~~4217
▁last~~578
▁tumbl~~6413
▁Hancock~~10483
▁artist~~1988
▁political~~2113
▁Alphabet~~12739
▁couple~~338
instrument~~2856
▁youth~~5346
▁heart~~2282
exercis~~9275
▁shelve~~6882
▁tank~~6435
▁Allende~~6852
pot~~8119
▁involv~~9234
▁Creat~~11659
around~~246
▁objective~~6075
▁chimney~~486
▁Sopran~~12633
▁ambulance~~11258
▁include~~1424
▁clutch~~6685
▁decentraliz~~11738
▁forecast~~9885
▁Kampf~~13806
world~~8773
therland~~7289
▁Integr~~11802
▁Kongo~~13746
▁Klein~~8185
▁lettuce~~9186
▁hing~~13793
pol~~1387
▁global~~1310
clav~~12513
weight~~10096
▁whisper~~2263
▁ist~~9398
▁overfish~~12116
▁commentar~~11602
idney~~2165
ggregat~~4096
▁performer~~1361
▁wrestle~~2752
▁Geoff~~13153
▁interference~~5315
▁powder~~10801
▁laughter~~1128
▁confidence~~2318
ddy~~4403
▁which~~485
▁report~~837
▁Oper~~13883
▁NATO~~8942
▁Republic~~5224
▁Abu~~11065
▁carbonate~~10183
evolv~~8320
▁WiFi~~12335
▁stamp~~5867
process~~9854
▁Philosoph~~10551
▁Merchant~~13940
power~~5770
▁hum~~3743
▁hub~~9185
▁Matrix~~1926
▁game~~1236
▁valley~~46
▁disappointment~~6638
▁forever~~2938
▁hormone~~2807
▁app~~6651
▁religious~~2645
▁Meet~~11587
▁Meer~~9921
▁hut~~11304
▁Ohio~~11509
▁Irr~~13646
stone~~11460
▁spider~~10595
▁Latte~~14616
ack~~4487
▁Mister~~13007
ach~~5150
▁rewire~~3847
▁Pitt~~6908
tumor~~13935
▁planner~~10036
▁millennia~~10957
act~~4899
▁backdrop~~12514
acy~~1200
luck~~7341
ffer~~6506
▁Enc~~10966
▁Party~~10272
▁End~~9743
No~~2395
▁inhabitant~~7271
▁passage~~3189
▁gear~~5187
▁Eno~~13878
legged~~7738
▁Enr~~2607
▁hypothesis~~4512
▁cycl~~5063
▁Ent~~12583
▁Tempe~~9355
▁generalization~~10568
essen~~9928
▁Kara~~12439
▁Maya~~12372
NH~~13066
▁McCain~~8280
NK~~12251
▁visceral~~11816
NN~~5012
▁tourist~~9508
▁Steff~~11685
NC~~4489
▁crease~~12140
NG~~8877
▁complex~~2273
▁salut~~5024
▁Primat~~13951
▁vapor~~10525
▁Boot~~10069
Bird~~8191
▁savanna~~3209
▁fabricate~~9829
Stick~~13230
lang~~8328
complete~~5379
▁term~~1070
▁act~~2458
witz~~10899
▁soon~~550
▁adult~~883
▁resonate~~7360
▁MoMA~~11897
▁Portal~~13297
▁Logo~~14376
▁Titan~~6216
▁ecological~~5264
▁whom~~3905
assi~~11037
ragg~~2509
▁assume~~3234
▁home~~778
asse~~6415
▁coast~~3408
▁homo~~10748
▁textile~~11184
▁sewer~~9974
▁window~~342
▁waterfall~~6410
▁Elementar~~14302
▁muffin~~13052
▁nervous~~2930
▁page~~1736
gone~~3526
ac~~242
▁option~~2625
ad~~919
▁club~~2027
af~~7499
ai~~10030
▁potential~~811
ak~~1130
am~~3780
al~~287
ao~~9698
an~~394
ap~~3643
as~~2421
ar~~405
au~~5767
at~~4385
aw~~11067
▁avatar~~7419
ay~~7648
ax~~5638
az~~11044
▁excellence~~1456
▁distinguish~~7091
▁bottleneck~~13629
▁danc~~1125
▁Titanic~~77
▁charismati~~10171
▁Sam~~6872
▁350~~7392
▁dank~~14459
▁San~~1748
▁nach~~8223
▁Winnipeg~~10946
▁pure~~6995
▁principal~~1656
▁purg~~12061
inancial~~12947
▁hack~~5662
phenol~~6558
▁Sar~~11952
▁Taniyama~~14298
▁mund~~9293
▁Kosovar~~12457
▁northwest~~3654
▁Allianz~~13336
▁operation~~3897
▁dispers~~4571
▁Stil~~12057
▁Heu~~14726
▁island~~3406
▁model~~1581
rman~~11367
aday~~9052
▁welche~~14408
▁complexity~~7787
▁fuzz~~10160
▁Whewell~~10559
▁outrage~~7075
▁often~~1639
▁swing~~7773
▁stead~~5328
▁anywhere~~3194
▁steal~~2552
▁steam~~3742
▁grandchildren~~5487
▁steak~~6156
▁resolution~~6330
▁unfair~~1393
▁surveill~~7008
▁refra~~12054
▁statistician~~11595
sch~~7460
▁monitoring~~4052
▁UNESCO~~13398
▁nomad~~8529
▁Gift~~14590
▁Aimee~~13511
▁plugg~~5654
▁muscle~~1864
▁juvenile~~1074
etz~~7595
▁bombs~~6361
▁anyone~~2906
tz~~4882
▁nothing~~1183
▁Hepburn~~14537
▁Venezuela~~13079
tu~~8262
▁despair~~3990
▁Water~~6132
▁quote~~6715
▁teach~~1496
to~~3446
tail~~8996
▁Dill~~12942
▁Barrier~~13837
th~~1352
ti~~2511
▁genealog~~8847
te~~1968
ta~~1777
▁nuclei~~10760
pple~~8140
▁congesti~~7418
▁produc~~1909
▁decay~~11498
▁Choir~~6105
▁coarse~~8878
▁liquid~~2454
▁optimiz~~1533
▁Wait~~11363
▁round~~2482
▁extrem~~13613
condition~~11048
▁mayor~~7632
▁skeptical~~12235
▁Meeting~~14484
▁Alabama~~8514
▁neurolog~~12298
▁sandwich~~6818
▁Brut~~12691
large~~9528
▁psychedeli~~12765
▁Jazeera~~8515
ifying~~3975
▁Whirlwind~~14339
▁Architectur~~10633
▁Teddy~~7345
sani~~7314
▁sad~~806
▁sag~~13363
▁scrot~~13926
▁banjo~~13445
▁trains~~3685
▁sai~~193
ngest~~7328
▁two~~112
▁correlate~~5966
▁sat~~4728
▁saw~~539
▁decreas~~2656
pass~~10553
▁vaccinate~~4249
▁say~~753
▁regime~~4068
▁Das~~13960
▁does~~570
▁Origin~~10579
clock~~1208
section~~1842
uiz~~13375
▁Trini~~11786
▁Blackberr~~11397
▁Network~~9903
lein~~12467
▁EKG~~13853
▁swelling~~12683
▁Mississippi~~9335
ID~~11817
▁technologist~~9473
▁Region~~12808
▁Gas~~13434
▁Gar~~3336
▁Gau~~12686
▁Gay~~13384
▁wingsuit~~9858
urnier~~8372
▁sort~~93
▁Babbage~~9595
▁Himalaya~~4850
▁Gab~~4842
▁invisib~~8059
▁Babylon~~8133
▁rhinovirus~~14050
▁Gal~~7246
▁Far~~11555
▁Ei~~13720
▁da~~3551
razz~~10229
▁de~~884
▁Koko~~14557
▁Russian~~6354
▁di~~4047
eiler~~9459
▁do~~429
▁dr~~3358
ymnasium~~7638
▁serial~~12081
▁du~~3268
razo~~11288
social~~11725
▁frog~~6113
ein~~13439
itoris~~11763
▁Finger~~12736
▁epiphan~~6088
▁Libya~~13151
▁whole~~558
via~~8864
▁Free~~6820
vig~~1294
▁Frei~~12209
▁windmill~~9975
▁reaction~~5052
vin~~182
▁heads~~5060
vil~~10677
▁red~~621
vis~~6672
▁Transition~~10287
▁renewables~~12136
gosh~~7205
ating~~1296
▁executive~~6826
▁Predator~~4160
▁altruism~~8572
▁compliment~~11245
▁rubb~~3460
▁neighborhood~~4447
▁inhabit~~635
atalog~~12320
▁Beatrice~~13534
6~~1821
▁altruist~~12893
▁Rock~~7422
▁coordinat~~4148
▁hydrant~~6766
mord~~13835
more~~2478
door~~7636
▁canoe~~12644
▁Kyoto~~10076
relevant~~14032
▁remove~~2677
▁186~~6249
▁187~~8117
▁180~~497
▁183~~10556
▁18-~~8739
▁18.~~12988
▁Reservat~~12752
▁chalk~~10186
▁Levitt~~11170
▁Loren~~13984
▁Troy~~9814
▁Mohammed~~13685
unders~~9031
▁CRISPR~~14636
science~~2492
▁grateful~~8163
▁detriment~~13451
▁Life~~4161
wksb~~2917
▁obsessive~~9062
▁propose~~2443
▁scan~~6473
▁Manhattan~~6189
▁rebuild~~4583
learn~~8802
▁TEEB~~13961
razine~~6510
▁Scot~~3655
lude~~2368
▁write~~1840
▁ill~~4450
▁Harvard~~4708
▁hobby~~7309
▁Program~~12763
▁Para~~11006
▁capita~~834
▁Pizza~~13598
▁Schwarzschild~~11026
▁deforest~~7603
station~~11329
▁multicultural~~5979
axis~~5965
information~~11567
▁Accenture~~12534
▁storm~~4342
▁Hand~~12006
▁store~~2586
▁agenc~~5220
▁story~~98
▁Picasso~~6242
▁Tanzania~~8637
▁assessment~~1403
phobi~~9200
▁agent~~5113
▁Vint~~6376
▁Dogg~~13484
upta~~13274
entrepreneurship~~4879
▁Vinc~~14424
▁provoke~~2134
▁studies~~1750
▁playground~~2324
▁Placebo~~14573
▁Bare~~14508
omi~~7741
▁central~~2923
▁Maker~~11421
▁nitrogen~~11200
holera~~7793
▁3000~~14630
▁Teach~~8992
▁match~~2081
▁Blood~~7771
▁thank~~767
▁pancrea~~9047
▁strike~~4312
▁thunder~~6118
▁palace~~8385
▁Move~~5079
▁language~~1990
▁five~~724
▁fresh~~2484
▁Film~~9306
ith~~8152
iti~~2166
▁porch~~12245
▁similar~~1481
ite~~1240
▁angle~~1379
ita~~8034
▁critter~~8525
▁sport~~7763
▁Knie~~14658
itz~~11105
ity~~1066
▁accus~~8678
▁Turkish~~6698
▁consist~~7285
▁wheel~~6159
register~~6537
▁corn~~6512
▁Chat~~2353
▁Boom~~9274
▁cord~~3942
▁core~~3694
▁Landes~~14655
oubted~~10808
▁inclin~~1830
▁eternal~~4527
▁Chad~~12196
▁corp~~6837
▁volcan~~47
▁spawn~~4087
ally~~363
▁steril~~9725
▁pragmatis~~13602
▁GP~~13450
▁classic~~2106
zhen~~11670
▁Eight~~9474
▁GM~~13067
▁pianist~~2898
▁House~~2119
▁GB~~12940
▁dozen~~1803
▁average~~111
▁incidental~~5072
▁Bar~~8361
▁Bas~~12064
▁Bat~~6916
▁Street~~3646
▁bats~~11080
▁apes~~6964
▁excruciating~~3930
ector~~12558
▁Gr~~9950
▁presence~~4839
▁Gi~~8413
▁Bab~~8160
▁Insider~~12455
▁Bad~~11395
▁Go~~2097
▁Bag~~13862
▁massage~~5110
found~~11144
▁Ge~~1179
▁Bam~~3869
▁Ban~~7586
▁arrogant~~12863
status~~14489
▁Hacker~~13281
▁Theremin~~11956
detect~~7724
▁face~~360
▁reject~~5287
▁randomize~~11401
▁silent~~5362
▁fact~~295
▁societ~~9446
▁constitute~~7782
scribe~~3876
▁erst~~14761
▁Side~~6188
▁Action~~8714
▁loser~~12052
▁Emma~~6166
▁rehab~~6146
▁prevention~~5311
▁lecture~~4700
▁commander~~4547
▁lock~~4509
▁synthesi~~10762
▁subordinat~~11523
▁athlete~~1153
▁prison~~6234
Saa~~14669
▁production~~3348
belief~~9678
▁known~~1043
▁drain~~5068
▁square~~516
▁violence~~2195
emplar~~13210
▁virtue~~5989
▁switch~~3936
▁crew~~2226
▁Rift~~10127
▁virtuo~~2841
▁Civil~~6371
definition~~2325
▁Borne~~13488
▁RAM~~13419
▁Krill~~14751
▁customer~~1170
▁leisure~~9996
▁spatial~~7705
castle~~8399
▁realistic~~7766
fu~~7218
▁stem~~6479
▁intellect~~11224
▁hostilit~~8240
▁Vermeer~~12353
▁early~~1544
▁cowboy~~12504
▁swin~~4753
▁swim~~5436
▁proteomics~~11810
netary~~13271
▁right~~340
▁rules~~2817
▁ruler~~8120
trick~~12470
▁step~~925
▁jobs~~1376
▁Jerry~~10732
▁weak~~2828
▁commitment~~4332
jet~~2994
▁Flickr~~11577
▁radiation~~645
▁tribes~~7599
jec~~11571
▁impress~~4634
▁confer~~5319
▁censor~~8742
▁Di~~4756
▁iron~~2009
▁stake~~4194
▁wear~~2687
▁height~~408
▁detergent~~7242
harata~~13791
▁McCart~~10440
▁Orte~~13433
▁Mega~~11806
▁headset~~425
▁glimmer~~10806
elling~~8977
▁dissertation~~12326
▁Sesam~~8671
▁attribute~~8811
▁cradle~~12685
ī~~14646
▁Bosnia~~7909
▁Production~~12579
▁precise~~3056
cott~~9572
Shreddies~~14123
▁dissident~~12706
▁Gange~~6228
▁dwarf~~6404
▁vein~~11333
▁veil~~7819
▁Demo~~8648
▁strive~~11357
▁Stratford~~14620
▁municipal~~10007
▁Amazon~~6858
▁Develop~~9383
buttermil~~13626
▁vegetation~~10784
▁assess~~5363
listen~~13757
▁reflection~~9102
▁conductor~~13298
▁higher~~157
▁Royal~~10490
▁Iranian~~2192
▁occur~~10532
▁permission~~7388
▁nah~~13475
▁blu~~10720
▁spiritual~~3621
▁earning~~11623
▁decide~~2626
▁village~~5633
▁mason~~12886
▁Song~~3044
▁command~~4498
▁book~~1235
▁Sony~~189
▁inequit~~11922
▁frequently~~10388
▁valid~~9997
▁Hawaii~~3498
▁magician~~9258
play~~2728
▁opposite~~1133
▁Last~~12589
▁summer~~4115
▁Morgen~~11793
▁trauma~~8749
M~~1011
▁Chaucer~~12363
virus~~12034
plan~~7869
▁Java~~12415
▁Sel~~10430
▁Banjo~~14006
▁crank~~10686
▁whil~~10406
▁surrender~~5682
▁monolith~~5933
▁discoveries~~4011
▁Kennedy~~9766
▁additive~~12810
▁DH~~7179
▁impatient~~10052
▁vend~~8192
▁TNC~~12950
amme~~11652
▁carcass~~12584
▁whip~~4399
▁famous~~3624
▁DJ~~3860
Cloud~~9576
▁favela~~2089
▁Home~~9964
▁failing~~4357
uga~~4628
▁comparison~~1325
▁Homo~~7673
▁bomb~~3127
▁Whoa~~5055
▁economic~~1336
▁disengage~~13618
▁left~~1640
▁Lip~~13197
▁cooler~~4107
▁explor~~5744
▁Pack~~7353
▁curator~~11165
▁admitted~~10703
▁100,000~~5082
▁Sch~~2142
▁electrode~~1887
Muslim~~8175
▁Fowler~~13902
▁measurement~~1311
▁Avatar~~10815
▁Formen~~14417
▁zu~~14420
▁husband~~2229
▁stethoscope~~14310
▁comfortabl~~4936
dependent~~3568
▁strengthen~~10678
▁into~~179
▁Schmidt~~11360
▁fragil~~9438
▁girls~~4428
▁Hippie~~13138
▁everything~~574
▁Twitter~~2823
▁accelerate~~2819
▁Faust~~12643
▁Iraq~~4613
violent~~7870
▁monogam~~10453
▁conception~~7825
adapte~~8194
▁Christin~~5237
▁Altern~~14670
▁Sunni~~2749
▁daylight~~6428
▁planets~~9791
▁Aglo~~14648
▁selfish~~7472
▁fluke~~12792
set~~8334
▁lexicograph~~10157
▁Muslim~~4326
For~~13770
▁optimal~~7820
▁Reform~~8539
▁brilliant~~5414
sex~~10312
▁brin~~10463
▁pro~~2182
see~~10788
migration~~12084
sea~~352
▁hopeless~~10749
▁govern~~4026
▁brainstorm~~10594
▁kilo~~6339
trey~~9426
#~~2378
▁Fische~~13683
▁close~~666
▁upset~~8036
▁passport~~7497
▁Gravitation~~14015
▁Sudan~~8602
▁System~~2969
▁Such~~12770
chester~~11205
▁translator~~10745
available~~2468
ahoo~~8481
▁crashe~~10849
▁Pixel~~13716
▁scaveng~~3452
▁exhum~~12087
▁survivor~~2264
▁order~~723
▁PBS~~11215
▁Mozart~~2849
▁identical~~6295
▁upside~~6743
▁guide~~4322
▁virus~~938
▁fiction~~1111
▁Butler~~10950
▁rewrit~~10834
▁microbes~~9711
▁internal~~5202
▁wave~~135
lash~~5001
▁plunge~~10611
▁execute~~10855
load~~5192
▁anesthesi~~3887
▁origin~~6292
bell~~6478
▁harass~~603
Truck~~14308
▁motivator~~11273
▁metropolitan~~3718
bject~~10443
phthalm~~12552
▁biopsy~~11974
church~~7646
▁convulsion~~14233
▁insane~~6830
surance~~4840
▁Battle~~6018
▁advice~~6454
gatherer~~10714
▁newspaper~~4643
▁drag~~4313
▁mama~~10424
▁register~~5881
▁Alternative~~14466
▁Und~~12337
▁Uni~~6065
▁draw~~1337
▁monk~~8620
▁Dana~~12923
▁impossibl~~2346
▁Stimulation~~14382
▁opa~~12798
▁Miz~~13621
fire~~4262
infect~~4265
ainforest~~12565
▁Mit~~8855
▁Mir~~1944
mine~~7334
fund~~6784
▁Mil~~2306
▁awesome~~2805
▁Hack~~11721
▁Seventy~~9842
▁Variabilit~~14597
▁Mig~~7014
talent~~11634
▁Mid~~3445
▁finger~~2590
outube~~14259
▁rumor~~12917
ingdom~~4362
▁je~~288
budget~~10280
▁ja~~5158
▁plaster~~9107
▁celebrate~~2066
Cola~~8963
ami~~7318
pound~~6306
▁night~~3257
▁gravitational~~10761
▁Wagen~~7311
von~~14389
▁enterprise~~8883
▁print~~2059
▁Boulevard~~12494
vor~~6328
▁beekeeper~~11717
nitha~~11758
different~~13073
▁Len~~2251
zzar~~8122
▁imaginative~~5354
▁neutron~~13096
cene~~10713
▁Koran~~7892
▁Lei~~10313
▁Leg~~12374
▁Lee~~4537
▁Leb~~13225
▁paralyz~~3919
▁killing~~7443
read~~3645
▁Romo~~13411
▁condemn~~5279
▁dollar~~2615
▁elder~~5623
▁chore~~6155
▁Rome~~3625
▁Let~~4745
▁Parkinson~~2913
▁Les~~7902
▁geriatric~~5306
▁meadow~~9930
▁crusade~~12538
▁holiday~~7467
▁2,3~~12592
▁sei~~13379
▁amaze~~595
▁ensu~~1431
▁Hirshhorn~~14576
▁Sunday~~3673
focal~~12825
▁AIDS~~8289
kno~~12369
▁Slim~~14109
▁Buzz~~11878
▁black~~576
▁Laboratorie~~12179
▁penetrate~~4198
maker~~7976
person~~2748
de~~457
▁daydream~~8443
▁sacrific~~12384
▁uns~~3739
▁country~~1313
▁unw~~8792
▁Attenborough~~3195
▁Bilbao~~14462
▁Chapel~~13841
▁mistakes~~2603
▁StoryCorps~~14664
▁strangl~~8430
▁Parasit~~14350
▁Scal~~3120
▁und~~6322
▁Craig~~7033
</s>~~3
▁fischer~~12066
▁Atlas~~6175
▁Portuguese~~13349
▁anonymous~~1219
▁mastery~~1146
location~~11085
▁Sandel~~10930
▁Vati~~14356
▁noble~~4815
▁Bris~~10304
▁blueprint~~7525
▁node~~2761
▁expectation~~4892
lvani~~7338
▁diplomat~~10088
▁foreign~~4268
▁transmit~~3208
▁Atmosph~~13118
▁Ontario~~12964
▁alliance~~13245
▁DUM~~14286
▁except~~577
ommittee~~4334
▁crossroad~~4364
▁diagnostic~~8284
d~~26
▁entrepreneuri~~8969
▁Machine~~5877
▁sponsor~~4967
OC~~10679
▁Media~~2837
▁capital~~4238
▁explosive~~4230
▁sensation~~2001
▁continuous~~1089
scape~~2246
▁Hmm~~5817
technologie~~10768
mässig~~14414
icious~~10709
▁humbl~~10986
▁leg~~2942
▁led~~2880
▁Investment~~13500
▁Glori~~7198
▁headache~~13037
▁alphabet~~8507
limb~~11683
▁Fire~~3018
▁accompany~~9757
mobil~~14219
▁let~~835
▁Truth~~8260
▁respectful~~7405
▁cultivat~~5088
▁Training~~4552
▁audio~~7398
▁eBay~~8579
▁cold~~1112
religion~~12662
▁department~~2560
▁incompatib~~7757
▁ball~~3178
▁pitch~~575
▁reconsider~~7155
be~~1039
▁Cross~~4335
ba~~1930
bb~~6693
▁tuna~~13055
▁Gaga~~13338
bo~~3434
▁Justi~~12708
bi~~2781
quivalent~~13131
bt~~7876
bu~~5468
▁Eu~~11511
▁Es~~8616
▁Er~~5514
▁climbing~~6418
▁Goldilock~~12356
▁irrelevant~~8910
▁rebreather~~6434
▁boost~~4500
▁enjoy~~1230
▁Ex~~4940
▁EG~~9242
▁Rest~~10097
▁Cholera~~14495
▁permanent~~2877
▁superhydrophobi~~2474
▁declare~~2750
▁replacement~~5519
▁laser~~623
▁Diplomat~~12459
▁Hyp~~9880
▁remark~~2148
▁EV~~12841
▁EU~~1783
uffalo~~13656
osion~~2529
▁feather~~3900
ttar~~4344
▁gradient~~12791
▁hockey~~3175
fern~~13429
▁slice~~6331
▁hike~~9872
▁knot~~10812
▁load~~4494
▁Chop~~11834
▁Peak~~13692
▁loan~~8180
▁slick~~11705
appropriate~~4452
▁suggestion~~2573
▁Space~~6898
▁Helium~~14267
story~~5799
▁surprised~~2339
▁sang~~5120
▁Zeta~~10466
▁months~~1231
▁reproductive~~9966
▁expense~~7300
▁OECD~~838
▁Cochrane~~14297
▁misunderst~~7965
▁verbal~~10995
▁introduction~~3353
chu~~10907
▁institute~~5404
▁DL~~13936
ator~~4253
▁Horse~~11737
tally~~2804
▁registr~~5864
▁jacket~~6399
▁synthesizer~~7035
▁innate~~8552
link~~6676
▁month~~4215
lini~~6232
atom~~7147
ling~~1175
▁unit~~5935
line~~3545
▁4,000~~513
▁refine~~2503
▁Fauna~~13393
▁mindset~~5073
▁England~~2240
▁carcinogen~~12187
▁blessing~~3779
uz~~12156
ut~~4048
up~~2602
us~~192
ur~~1108
um~~3737
ul~~455
uo~~3854
un~~888
ui~~5521
uh~~13734
uk~~9206
ue~~8178
▁arise~~5286
ug~~7899
ua~~3503
▁bless~~7879
ub~~1843
▁memorial~~6496
▁human~~716
▁attain~~5674
▁formal~~358
▁loneli~~13031
▁behind~~1467
▁And~~5373
chai~~9141
chan~~983
▁mist~~4384
▁cartoons~~8669
▁sides~~4220
▁Strang~~12858
▁Imperial~~13191
▁Kurs~~11954
▁location~~4579
▁sounds~~1209
▁forgot~~880
sche~~14117
▁format~~5932
▁armor~~4236
yntax~~13595
▁stair~~5209
ulation~~3957
tari~~7488
ception~~9227
wick~~12653
▁stranger~~9991
▁jelly~~216
▁doing~~370
▁Burt~~11136
▁Seth~~11944
▁limits~~1669
▁stain~~9755
▁Kinect~~12563
▁intimacy~~7440
▁mechanism~~7024
▁proportion~~1331
▁Lass~~10421
▁Auge~~13612
▁Center~~4553
▁exhibit~~6191
▁shall~~9037
▁Multiple~~12408
▁gain~~2623
▁flatter~~3111
▁mach~~9046
▁dung~~7266
▁unicorn~~6069
ago~~671
▁genug~~9399
land~~1418
▁pluripotent~~12416
▁election~~7402
age~~367
▁processing~~4680
terior~~3806
▁improv~~1194
▁Hono~~13075
▁Mead~~14232
▁epilep~~7709
▁dogma~~12952
▁experimentation~~2725
▁Alpha~~12487
code~~10952
▁provocati~~5244
▁count~~581
sistence~~13555
▁Papua~~12867
▁reviv~~6465
▁speak~~655
▁Seide~~14699
▁Polaroid~~9802
▁joint~~7219
istic~~3803
▁feed~~3558
▁causal~~10259
▁demolish~~5698
▁Familie~~9464
▁feel~~1134
▁idealis~~12449
▁cable~~4751
▁transplant~~7030
▁feet~~227
▁kelp~~13185
▁passenger~~3677
▁longitud~~7719
▁diarrhea~~8993
▁garage~~10628
▁aspire~~3907
▁ballast~~12428
▁overlapp~~11412
▁Anthr~~13681
▁Lock~~5216
▁dismay~~8812
▁arts~~1124
▁Bart~~7400
▁Climate~~1725
▁rolled~~4659
tro~~3320
tra~~3159
▁Trauma~~14634
▁differential~~10123
▁illness~~4809
▁Gallup~~6374
uel~~5888
hydr~~5766
▁Hock~~14067
▁opponent~~7403
▁questionnaire~~13905
▁cosmo~~10558
▁redefin~~4393
▁Level~~13558
▁boom~~4400
▁Whit~~6103
ode~~5000
▁focus~~1452
▁Sek~~10602
▁Hopkins~~10285
▁reference~~3813
▁peripher~~3695
▁photos~~3297
▁Sea~~4084
▁awful~~4214
▁See~~10862
▁Seg~~14431
▁Sey~~12667
▁Sex~~5125
▁process~~1003
▁Where~~4598
▁CDC~~10352
▁expression~~2111
▁Step~~13352
▁regenerate~~11388
▁Jobs~~6012
▁staircase~~6094
lec~~10859
led~~3782
leg~~1245
lei~~10492
▁shooting~~477
▁steel~~4586
▁steer~~4518
ler~~2144
les~~243
let~~2022
▁ceramic~~12056
ley~~2297
▁geologist~~12000
fifteen~~10265
▁Oprah~~11713
▁you~~69
ctu~~5109
great~~12859
▁mutant~~12069
▁geek~~2783
▁user~~1647
▁toxic~~43
▁hominid~~8832
technolog~~7031
▁Willi~~7370
fetch~~12206
▁used~~1229
▁helicopter~~6493
▁attribut~~6074
▁gyr~~3497
▁vital~~3955
▁amputee~~14103
▁use~~180
▁Review~~9478
▁generator~~12323
artig~~14467
▁hostage~~4423
apping~~9635
▁Banker~~14281
▁because~~220
▁Ranger~~4593
▁invention~~3610
alencia~~6775
▁Garten~~11885
route~~14157
▁Strategie~~14628
▁cloud~~451
confidence~~9512
▁Vinci~~6017
▁recording~~7706
▁fever~~7291
zig~~9625
▁breakthrough~~5323
doubt~~11829
▁juggl~~7170
▁Linguist~~14676
▁amputation~~11399
▁PDA~~13321
▁National~~3450
▁counsel~~5360
thema~~13625
▁marine~~4124
▁dangl~~244
▁vaccine~~4204
▁sample~~2644
▁criticiz~~10530
▁purse~~8075
▁abyss~~12823
▁Shap~~12406
Bath~~11736
▁seize~~9767
▁monumental~~7446
▁Austria~~2744
potential~~14697
▁pursu~~6735
▁indicate~~6469
▁thrive~~496
▁bunch~~4546
ludge~~10121
▁enrich~~5938
▁fur~~7042
▁thumb~~2729
▁glow~~2793
▁Bla~~9239
▁Acumen~~11257
▁fun~~1016
▁speculate~~6471
▁3,000~~6405
▁writer~~3230
▁British~~1940
▁marathon~~7811
▁sea~~72
lock~~5479
loch~~13158
▁see~~119
ette~~9067
▁sex~~4438
▁latrine~~10615
etts~~6911
▁biologically~~5345
▁troop~~4836
▁set~~1643
▁sew~~2231
▁chuck~~8307
▁interne~~14748
▁biological~~5384
▁pick~~796
▁Sloan~~12502
▁developmental~~9442
▁molt~~13444
▁Najmuddin~~13959
▁illustration~~5087
▁Kenne~~14208
▁passive~~5941
▁toys~~9244
▁letter~~5161
▁Fulbright~~4732
▁BOMB~~14181
▁mold~~3872
intelligent~~10129
▁mola~~9538
▁boundar~~1989
▁Salat~~11195
▁Theatr~~12651
▁parking~~5522
▁Mor~~11312
▁matched~~7395
Q~~2852
▁Moh~~13147
fett~~14562
▁remarkabl~~3073
tier~~5632
▁Fortune~~12224
▁Mob~~8462
▁agricultur~~3611
▁teacher~~1489
▁coral~~4062
▁Skinner~~8208
▁pluck~~11660
▁series~~580
▁sculptor~~9011
▁McCu~~12073
▁corrosi~~2530
▁spouse~~8404
▁quant~~7432
▁Miller~~6726
▁he~~332
▁McCl~~12278
▁ha~~2440
▁ho~~5534
▁hi~~2998
▁Frau~~14522
▁Cuba~~10068
▁popular~~3102
Kaiser~~14262
▁retriev~~5943
▁rip~~2564
▁Room~~6844
▁needs~~3240
▁origami~~10863
▁Root~~6927
▁fascinating~~2366
▁grocer~~3251
▁anti~~2525
▁shoes~~2342
▁rid~~6675
▁losing~~3588
▁rig~~11631
▁hijack~~11593
▁sculpture~~7423
▁channel~~1903
▁pair~~2490
▁meaningful~~1687
▁Francis~~7357
▁rote~~945
▁unlike~~2164
▁gender~~5703
▁Reuters~~12890
2010~~8894
▁reservation~~6653
▁Bowden~~13176
▁Main~~10367
▁comprehensive~~10391
▁specific~~3100
▁Tusca~~14053
▁replenish~~11539
▁brows~~11292
doch~~10179
▁Milton~~13194
▁Initiative~~8039
▁initiative~~4100
▁sanction~~9180
▁pessimist~~8040
▁blame~~5686
▁oncologist~~4799
▁1800~~10079
▁quadriplegi~~12442
eben~~14064
▁Dolby~~3773
▁Hyun~~14514
▁familiar~~167
▁file~~9895
truth~~11327
▁Rasse~~14454
glasses~~4731
▁reporter~~4263
▁kiss~~1082
▁sacrifice~~7173
mbstone~~13130
▁estimate~~3578
▁acute~~12124
▁rehabilitati~~13944
▁reported~~8148
▁overlap~~9267
▁flute~~7664
▁community~~667
▁Almo~~14337
▁Implant~~13684
▁state~~890
matrix~~8444
▁Schule~~14503
Rumbaugh~~14526
▁botanical~~13077
▁Jun~~4338
▁never~~444
▁Kazak~~12464
▁pond~~8459
▁Jud~~8938
▁Schulz~~7958
▁chaotic~~11040
▁therapist~~1897
▁kri~~4117
▁Falcon~~9084
▁Mord~~13825
▁More~~3703
▁shapes~~292
▁fisher~~4067
▁Board~~4947
tempo~~3179
▁yard~~5611
▁kenne~~14448
▁Abend~~14074
▁dust~~4689
ociety~~9742
rofluid~~12767
▁Smiley~~14548
▁Cat~~5039
▁remind~~2699
▁Cap~~2105
▁Car~~3629
gestalt~~12931
▁bypass~~11250
▁lumber~~4495
▁Manifest~~9490
Jump~~9989
length~~6347
▁Caf~~12269
▁astronomical~~10827
▁doctrine~~11375
▁Mom~~5667
▁problems~~585
▁Can~~7279
▁preach~~1958
ographie~~14319
▁spectator~~9033
▁double~~1555
▁Chee~~9183
▁Chef~~10109
blown~~4600
▁Joseph~~5236
▁Monument~~3451
▁cousin~~6900
▁knack~~11899
uous~~7814
hertz~~11807
▁spong~~12329
▁meister~~14179
▁refugee~~7478
▁intensive~~3985
▁ging~~12856
▁laborator~~8294
▁militant~~14079
▁aphid~~13718
system~~11726
percussion~~6616
▁retreat~~9507
▁idylli~~6111
▁carpet~~6699
▁sprint~~9558
▁Ethan~~11540
▁Letter~~13187
▁conc~~1577
▁riskier~~9417
▁Bee~~1929
▁Ko~~7138
▁Ki~~11947
▁Kh~~5467
ambiguous~~8757
▁Bel~~8121
▁Ben~~2295
▁Ka~~3502
▁Bei~~13966
▁Wow~~7196
Levit~~12505
▁Patriot~~13804
▁desk~~9148
▁Ber~~7629
▁Ku~~5736
▁demand~~2146
▁idol~~11139
▁innovation~~817
▁Bez~~12163
▁Kr~~10108
▁embodie~~12463
▁advance~~2771
▁KI~~14629
▁suspicious~~7880
omfort~~11058
sourcing~~8569
▁cultures~~1954
▁Harlem~~4387
▁Zipcar~~11877
psycholog~~12711
▁pronounce~~12410
▁necessit~~7795
▁charter~~10438
▁grand~~2984
▁disagreement~~10942
▁look~~122
▁both~~1719
▁industrial~~3667
▁Improv~~9980
▁psychologist~~9498
▁jug~~12212
▁loop~~3172
▁Sil~~10283
eryl~~12542
heft~~14638
▁nude~~4449
▁bumblebee~~11187
▁Emil~~10464
▁Business~~9477
▁rabbi~~12658
▁East~~3212
▁boreal~~13969
▁unemploy~~1370
▁Wurma~~7194
▁Shakespeare~~2310
▁crap~~951
▁northeast~~3663
▁Tarahumara~~13262
fidel~~5241
▁DARw~~11984
▁crab~~543
▁brew~~5002
▁wasteful~~10143
▁tippe~~14688
cke~~9210
▁edit~~6815
▁treatment~~2924
▁hours~~1507
▁hill~~5483
▁customiz~~11881
echanical~~12008
raten~~14269
ventive~~1657
▁Philipp~~5531
▁awareness~~2698
▁simplifie~~8854
Tool~~14388
▁Computer~~5953
▁Ali~~6739
▁star~~3599
▁All~~6823
▁stay~~2987
▁Alb~~10001
▁Hudson~~5631
bring~~9499
▁Alp~~412
▁Charles~~3327
▁accura~~9079
▁calculate~~4927
▁spreadsheet~~12144
▁church~~6043
▁Charle~~13204
▁hitchhik~~13882
▁week~~714
▁eyebrow~~11433
tude~~6204
▁bedroom~~5117
▁Igbo~~11820
▁Fiji~~13139
familiar~~174
▁chair~~2908
sbro~~14290
first~~11422
▁chain~~3513
▁lobe~~6475
▁iPhone~~5546
▁Tempo~~14380
▁processor~~10572
▁championship~~2416
izzy~~11451
▁variet~~1752
▁painter~~8409
▁Idiot~~13803
▁alt~~14444
▁Snowden~~9883
h~~2361
▁puzzles~~9241
▁Curitiba~~14215
▁lifted~~4564
▁solid~~6400
rtigr~~14682
rapped~~3541
▁prompt~~4894
▁inspiring~~6783
▁sustain~~1663
mption~~11860
oma~~8789
atz~~10878
▁seeds~~4924
▁recipient~~4848
▁cylinder~~6317
▁bucket~~5988
▁repetiti~~8667
▁rib~~10139
▁walks~~1307
▁shore~~4040
▁mustache~~11382
▁undergo~~5385
▁twist~~4391
▁shield~~2460
partisan~~11339
▁Die~~13103
▁safe~~5488
▁ozone~~11114
PA~~6559
▁prepar~~4412
▁summit~~5455
▁Serie~~11545
PJ~~6556
▁Test~~13179
PO~~6711
PL~~11127
▁rage~~7162
omo~~10858
▁truck~~8976
▁text~~2403
▁literal~~3053
▁literar~~10562
▁Fibonacci~~12985
ende~~13748
▁chemotherap~~8799
▁access~~2012
▁000~~13632
▁casual~~9272
▁se~~4019
ets~~9466
▁goat~~6945
▁sa~~3590
ett~~2526
▁radi~~6312
▁title~~2419
▁so~~199
▁Barry~~7175
▁Operation~~7574
▁sh~~130
▁Kumar~~12225
▁limited~~4984
▁st~~702
▁sw~~3478
parallele~~11522
▁amount~~1471
▁sp~~3635
ete~~13822
lager~~14492
heart~~8004
▁ghetto~~6221
▁shirt~~5696
▁hail~~4212
▁intangible~~13369
ci~~2136
▁motorbike~~5422
co~~2475
▁functional~~7021
▁recreate~~7729
ca~~6942
▁birds~~3196
Hex~~12029
▁execution~~11601
ce~~2063
▁filling~~6002
▁Christi~~9090
cy~~3989
▁Sophia~~11439
uca~~11526
▁Kram~~13144
▁behaviors~~2340
labor~~9688
uck~~4486
▁hair~~619
uch~~4796
▁specify~~6303
▁investigat~~10253
▁Jenn~~5554
▁Baxter~~10673
▁suitcase~~10875
▁texture~~8323
▁emitt~~643
▁Proct~~14236
▁respect~~3302
▁jeopard~~4443
gue~~7308
▁Mission~~5740
▁Environment~~12522
▁pat~~6943
▁cartoon~~7106
▁Ngram~~14515
▁Bitcoin~~14591
▁Show~~12040
▁plutonium~~11661
räumt~~14412
banish~~8394
▁atmosphere~~1779
▁Kath~~6494
uisance~~13054
▁animation~~9427
▁Phantom~~12766
emost~~10574
▁Game~~9479
▁wiki~~13252
▁Kate~~11722
▁Katz~~14680
oung~~7326
▁blogg~~8621
▁Protestant~~8538
▁Canadian~~6522
country~~9862
▁Amazonas~~13962
eur~~8985
▁predict~~5326
▁Asian~~6988
va~~6810
▁Keene~~14148
▁Maz~~11283
ve~~74
▁Held~~14668
vi~~914
▁fallen~~1353
▁Andrew~~5596
▁ATM~~9131
▁Tiger~~10645
vo~~3934
sity~~156
archiv~~286
vu~~8821
▁complain~~1573
▁wip~~10329
vy~~5160
▁mutation~~5381
▁Andrea~~1302
▁crook~~13442
▁Israeli~~3249
▁pose~~3584
▁parenting~~5145
▁complet~~9290
▁princess~~8702
▁clear~~868
▁Hyper~~2888
▁infect~~777
▁post~~3246
▁Blogger~~13594
▁Pythagor~~11076
▁discovery~~198
▁cosmolog~~6193
▁hearing~~3058
terrorism~~13115
▁slate~~2242
▁Weibo~~14435
disc~~8840
ball~~8252
balk~~7921
▁juri~~14177
iker~~13764
▁CFO~~7978
▁Seven~~7216
▁Prestige~~12188
▁Circle~~7742
phy~~4116
▁introduce~~1426
▁tickle~~2952
▁absolut~~11950
▁delicious~~5823
▁moves~~1883
▁Geiger~~13226
lliance~~12665
off~~2362
▁Lauren~~11078
▁Marine~~3332
▁millisecond~~1891
▁Phase~~14178
▁permit~~678
▁Clinton~~8225
Colombo~~13286
▁warm~~6464
▁control~~1098
É~~13790
▁cockroach~~6996
▁inflate~~10915
▁justice~~4358
▁organization~~1651
less~~969
▁instant~~1264
▁Jersey~~6881
▁Echo~~6901
▁compell~~7959
osmos~~12669
▁84~~3521
▁Uniform~~12568
▁Bank~~4937
▁healthie~~9389
▁presentation~~5622
▁pregnan~~6460
▁town~~3470
▁retirement~~11479
▁robotic~~970
wei~~13690
weh~~12678
▁Buddhist~~8755
▁Gowanus~~13654
▁synchronize~~9978
▁Massac~~6909
▁competition~~6662
▁Buddhism~~11385
▁Oxford~~4709
5~~2422
▁meta~~5171
▁abundance~~9976
▁specimen~~7693
government~~1723
haut~~11377
haus~~7045
▁accelerator~~12167
spiring~~8414
five~~3364
taking~~1711
tick~~5705
▁Valenti~~6763
▁Neurologi~~13693
▁Eames~~11912
▁rehearse~~2436
▁infection~~3896
Creek~~3383
▁Tru~~10222
▁concentrat~~10118
entia~~11826
▁submission~~5981
▁knowing~~1668
▁na~~8269
▁antiretroviral~~10338
▁humor~~5562
▁energies~~11062
▁ne~~3515
▁Tri~~5789
▁impenetrab~~11469
▁Tro~~12648
▁no~~140
▁Neumann~~11787
▁Griffi~~11861
▁revisit~~13704
▁Fuku~~12424
▁watch~~569
▁Idol~~12726
▁Donald~~13316
ronic~~7779
▁indication~~5387
▁Check~~6840
▁mycorrhiza~~12111
▁Sound~~12689
▁statistic~~6521
▁Las~~7448
▁Budget~~11337
▁Law~~8238
▁Paulo~~11910
▁Paula~~13259
▁hypothesize~~11231
▁Bangladesh~~5452
▁viel~~13663
▁Lab~~2838
▁lurk~~11007
▁futurist~~3809
▁imag~~1888
▁Lak~~5556
▁screaming~~5841
▁Kunst~~14106
▁lure~~238
▁connected~~2767
blowing~~11047
▁wheelchair~~10243
▁Trade~~4948
▁certificate~~5929
▁rev~~7970
▁energy~~521
▁score~~3045
▁Favorit~~11017
▁Mathe~~13448
▁Heli~~13477
▁Gender~~8018
▁NGO~~8584
▁dry~~2448
stage~~2743
kry~~14703
▁Kauf~~13539
▁Software~~14534
▁update~~2822
▁Pav~~12511
▁hump~~13622
▁preserve~~6337
▁bath~~6612
▁ideolog~~11606
▁conquer~~4825
▁buck~~4319
▁Ecuador~~10408
▁child~~1591
▁Bionicle~~14533
▁proven~~6569
▁Chicago~~4946
▁subsidize~~10117
activate~~9641
▁Klan~~14524
▁enroll~~5876
▁whal~~13010
▁TEDGlobal~~7480
▁Dickinson~~10996
▁Pascal~~11019
▁stare~~3732
▁klug~~13875
▁poly~~3417
▁ellipti~~12159
▁radical~~1317
▁stark~~4355
▁heavy~~4485
▁Admin~~14366
uperstring~~14042
▁starv~~4865
▁Downtown~~13519
▁start~~504
▁stars~~8420
▁starr~~10460
▁grazing~~8558
▁pole~~7413
▁stuff~~235
onald~~7332
▁sprawl~~10356
function~~4451
▁custod~~14019
~~12302
▁brigade~~5186
~~12303
▁negativ~~14363
▁mountains~~409
▁Opium~~11918
▁patrioti~~12539
▁equipp~~6440
▁brave~~4543
▁pollution~~4046
▁gripp~~11011
▁ecsta~~7855
▁organs~~7288
▁Fisher~~5017
▁nature~~1036
▁adhere~~4466
▁luck~~4378
▁contradiction~~11658
▁announc~~3352
▁disrespect~~4383
▁Mysteri~~14720
▁row~~7962
▁rot~~4929
▁university~~2578
▁Variation~~14482
▁Blue~~5741
▁mines~~8697
▁bioluminescence~~278
▁Wind~~2348
▁favorite~~219
▁microphone~~3155
▁law~~4001
▁laz~~5177
▁lay~~4097
▁contempt~~12660
▁fisherm~~5794
▁lab~~1866
ino~~4734
ini~~2223
ind~~2143
ine~~3777
▁diplomatic~~12448
ing~~132
ina~~3158
▁Five~~8235
▁valve~~8297
CM~~14102
▁contagio~~10462
▁scheme~~5706
▁Crowd~~5619
▁cyclist~~14156
▁emotionally~~7967
▁deplet~~8561
▁panels~~3843
▁mosaic~~13135
▁venom~~12891
skies~~10674
▁technical~~2011
▁experimental~~2579
▁stove~~11894
▁Rube~~10500
▁mechanic~~8750
▁Ig~~12368
▁Illinois~~4943
chance~~14464
▁mechanistic~~12336
U~~826
▁circular~~7713
▁childhood~~1545
▁pulse~~7702
▁Ruby~~13797
▁circulat~~10600
▁strand~~7486
▁hero~~4819
▁caption~~9614
▁lim~~4416
▁filter~~8343
osni~~8000
▁here~~73
▁investment~~1530
▁recreation~~11276
▁part~~114
▁park~~906
▁arbitrar~~10170
▁requirement~~4585
▁para~~3319
▁Herbi~~10482
▁IV~~9324
▁IT~~5618
▁outcome~~1391
▁Gang~~12024
▁Black~~9105
▁Milgram~~14502
▁subjective~~6076
▁fierce~~6438
▁establish~~3653
▁graph~~5927
entropy~~9777
▁impos~~6462
▁Uran~~10982
▁Alisa~~13754
▁convincing~~5317
▁gelatin~~8478
▁Economic~~11597
▁browser~~5957
ali~~8272
▁unacceptabl~~1281
▁dragg~~7934
mate~~9413
▁driving~~1500
▁am~~1095
▁parasit~~8196
regal~~12283
▁Octo~~3853
Claud~~12946
▁grandmaster~~2818
▁vaccines~~4237
▁tolerate~~5268
▁disgusting~~10621
eira~~13736
▁applie~~2473
▁fungus~~11743
▁crow~~8201
▁crop~~1762
Ghraib~~11505
▁accumulate~~5304
▁scoop~~12916
replication~~7537
▁demographic~~10249
tank~~11299
▁Smart~~8528
▁conclusion~~5267
▁hint~~470
▁relationships~~4616
▁Gore~~9557
▁hurt~~2260
▁behavioral~~2547
▁devastating~~4229
▁dwindl~~4091
▁representation~~8512
▁Februar~~4094
▁obvious~~996
▁hurd~~13661
▁marriage~~4622
▁preview~~2979
▁giraffe~~12649
▁explain~~711
ches~~339
▁extremist~~12956
▁Hill~~3770
▁Florida~~7022
▁Eden~~12496
▁innovator~~7105
▁peek~~343
chef~~12637
▁iTunes~~11626
▁Ode~~11239
▁Brand~~9544
▁peer~~5853
▁former~~6024
chen~~12582
spect~~4954
▁teapot~~10687
▁those~~229
▁extremism~~12666
▁emanat~~11034
▁census~~12068
▁engine~~852
▁impression~~2638
▁compass~~7734
▁okay~~2291
▁Mitch~~12906
▁microprocessor~~11651
▁concentration~~6476
▁utilitarian~~11318
▁south~~3642
▁McMurdo~~10090
▁Kon~~14127
politik~~12460
▁emulat~~6744
▁Lazarus~~10339
▁latent~~10526
tanz~~13910
▁gate~~5865
▁chaos~~2732
▁atom~~9010
▁uneas~~12655
▁Wolf~~8376
▁sustainability~~6257
▁Netflix~~11361
▁technician~~2439
egulation~~8340
▁bloodline~~12078
▁Corp~~12854
▁shortage~~7078
▁fertil~~3609
▁Schell~~11840
gli~~2516
▁administration~~1681
balance~~12317
▁Europe~~816
▁Canal~~10917
▁allegiance~~12729
gle~~8479
▁Canad~~1419
aki~~3855
▁Arithmeti~~11799
bunker~~9481
aka~~12267
▁sexy~~5168
▁creative~~981
ake~~9181
▁chemicals~~6507
▁Shackleton~~13592
secure~~6158
▁Carlo~~6023
▁stomatopod~~14041
echten~~14519
iz~~7698
▁tasting~~9045
▁trajector~~4060
bre~~5247
▁Eva~~12055
▁satellite~~1760
bra~~11406
▁Eve~~2301
▁uncann~~7171
Star~~14280
▁Look~~1328
▁Face~~6426
▁Meetings~~14547
▁dazzling~~8301
▁babies~~881
▁Parker~~13308
▁fear~~1259
▁Carson~~6608
▁Neo~~13847
is~~3704
▁feat~~8778
▁commandment~~8740
▁players~~1063
▁homework~~5135
▁Pra~~12438
▁restrict~~1005
▁paraphras~~7544
aware~~3672
▁plac~~1601
▁contaminat~~6598
▁scripture~~8129
▁Levin~~11023
▁disorient~~9776
▁Berg~~14069
word~~5176
▁Voice~~8485
ers~~254
▁peripet~~14142
▁militia~~12462
work~~3846
ueens~~9994
▁Harry~~7772
▁foresee~~2317
▁shipp~~4038
▁Limit~~14305
▁qu~~5042
▁play~~560
ern~~4109
▁association~~8691
▁legen~~4007
illiard~~11306
▁clogg~~13029
cited~~5155
uar~~6987
▁Atacama~~12253
▁autobiograph~~7727
▁Way~~5605
▁Literatur~~5496
ual~~2032
uan~~7626
▁numb~~9151
▁pillow~~13386
uad~~8442
▁furious~~1975
▁progress~~4074
▁Lincoln~~9622
▁Star~~2775
▁imagination~~5332
▁flexible~~6780
▁Fri~~9548
▁Kamen~~9592
▁percent~~108
▁prioritize~~6657
▁Sir~~2155
▁Sim~~8815
very~~172
▁Sin~~13634
▁imprison~~10765
▁question~~950
▁instrument~~1080
▁Sie~~9630
▁vacuum~~11795
▁Stan~~4467
▁prostitute~~8025
▁inspire~~2315
lah~~5399
▁recommend~~7073
▁sensible~~5083
▁hierarchical~~9222
▁Chris~~2534
millimeter~~12112
▁collid~~9610
▁skelet~~12327
▁widow~~7882
▁Week~~5747
▁anyway~~3076
▁Iron~~11362
custome~~11759
▁microbi~~9588
law~~2391
▁compound~~3834
lar~~2647
▁Hallo~~14153
▁administrator~~8536
▁guy~~356
▁protagonist~~6097
▁outlet~~6633
▁gut~~3235
▁Hiroshima~~10534
▁frighten~~5438
▁Diamond~~11476
ical~~1622
▁dive~~579
▁ideological~~11604
▁fluent~~11484
▁Phil~~12311
▁tenth~~10790
▁crust~~9043
▁gef~~10636
sceni~~10685
▁Highway~~9934
▁breathtaking~~5797
zen~~7456
zel~~11265
zer~~3715
▁slap~~5704
▁privilege~~4184
▁among~~1476
▁horrifie~~10078
▁dictate~~7475
▁tweak~~9830
incin~~6913
▁tournament~~8550
▁crush~~598
▁joking~~6513
▁Turin~~13280
▁stoo~~2683
▁survived~~6387
▁analyz~~11054
▁balls~~7276
▁Cheeto~~14272
▁Anthropo~~9773
▁Andromeda~~8493
▁kilometer~~4164
▁vest~~11846
▁kid~~953
▁dance~~1081
▁Tumbl~~13780
▁Safe~~8951
▁assembl~~8050
bane~~12807
▁kit~~6463
▁guys~~269
▁Chen~~7624
▁arena~~3072
ahua~~10470
▁altitude~~5458
ther~~589
▁rehabilitat~~5191
▁simplistic~~7780
l~~1759
▁Scott~~3144
▁hostile~~7668
▁Bah~~10821
▁astrolog~~12556
▁skull~~5530
▁marketing~~4912
▁elite~~5154
▁drastic~~800
▁Mechanism~~12005
▁six~~487
▁McK~~10059
▁sit~~379
▁McG~~2726
▁weakness~~5568
logy~~7069
▁saddle~~12831
▁sin~~4617
▁where~~51
▁sie~~11093
▁install~~998
▁throw~~988
▁minute~~1800
▁tour~~2876
▁credi~~12367
▁Julian~~7347
▁drop~~2481
▁magic~~4887
▁disappoint~~1518
medicine~~11110
-1~~12451
▁uncertaint~~8751
▁Monitor~~14312
▁symbols~~9606
▁intend~~5112
▁dealer~~11565
▁composer~~2846
-2~~13359
standard~~13246
▁Service~~7071
tial~~1986
▁blogger~~8574
▁encouragement~~7749
▁intens~~2566
▁Reich~~12097
ange~~1727
▁hacker~~8187
Parade~~11576
▁endless~~3338
▁Discover~~9243
▁progressive~~7691
▁vehicle~~5752
▁Inti~~13234
▁lo~~912
▁la~~2364
▁barbari~~8043
▁le~~6004
▁playwright~~11309
ouTube~~6124
▁love~~233
▁France~~3306
▁reserve~~3632
▁water~~110
▁qualit~~989
▁Amitabha~~11249
topf~~14185
▁arrangement~~7794
▁patien~~5035
▁Kur~~3444
▁glamor~~11035
▁adolescence~~11016
▁conflicts~~11837
▁defensive~~10652
▁Kosov~~11757
▁tadpole~~12312
▁Turkana~~10131
▁vulnerability~~9778
▁reproduction~~7268
▁Buick~~8090
▁minorit~~5858
▁spectacle~~12661
▁rope~~6417
B~~3066
▁ESP~~13177
▁restaurant~~3561
▁scope~~6307
▁elaborate~~6313
▁courtyard~~10023
▁clay~~7428
▁ESG~~14728
▁verge~~3275
▁families~~4314
▁pissed~~11766
▁learn~~758
▁nitr~~12687
▁interdependenc~~8526
▁cone~~11938
last~~9575
▁virtual~~434
▁Kurzweil~~12835
doption~~7158
▁crest~~12318
▁Multimedia~~14555
▁rotate~~10918
materiali~~12897
▁mature~~11146
▁consumer~~1976
▁900~~1775
▁haunt~~9746
▁convince~~1595
▁10,000~~3253
Robi~~13309
▁Kost~~13750
▁bleed~~9760
▁Triumph~~2249
▁solution~~3017
▁chronological~~8465
▁TEDWomen~~4381
▁reinvent~~789
▁Afghanistan~~1360
osphere~~10516
▁bleep~~12277
▁Sutherland~~9472
East~~12130
gier~~13751
▁import~~3626
convenient~~13541
▁study~~956
▁interviewer~~11099
▁irre~~4287
▁turbulent~~10970
▁logical~~3832
rati~~8428
▁theatric~~9683
▁penis~~11107
▁Mein~~11728
▁Mont~~10479
▁Court~~9972
▁nozzle~~10623
▁burst~~4418
▁Talg~~14240
▁engulf~~10791
▁Roman~~3222
▁Eskimo~~12421
Button~~13238
▁Herr~~14184
recht~~14402
▁Mond~~12745
▁Mona~~2981
programm~~10833
▁burning~~3931
Patient~~14476
▁lucki~~5475
▁excellen~~2791
QQ~~14370
▁decoration~~9291
▁strict~~9253
▁pride~~2737
▁miser~~8801
▁landing~~5502
▁Kor~~13930
▁seriously~~1287
▁Cel~~10521
ative~~2175
▁Model~~12699
▁editor~~6787
▁Kraft~~12290
▁triangle~~7720
reserve~~9640
▁Zip~~13196
▁galleries~~8388
▁broad~~4189
▁wonderful~~2208
▁Blumen~~11427
▁younger~~4431
▁plural~~12826
▁rescue~~6450
▁reinforce~~8707
European~~13463
▁omni~~9220
▁urbanization~~5061
▁electronics~~8088
hru~~9741
▁steward~~11655
version~~4605
hri~~5885
▁books~~2641
autor~~14378
▁diverse~~2843
adequate~~7503
itter~~11448
▁Cloud~~6122
do~~2086
▁minutes~~1703
▁Or~~3086
▁kitten~~1048
▁Bin~~12019
di~~3767
▁bullet~~4258
oplankton~~3495
▁weapons~~4590
▁Oz~~2279
da~~672
▁Luri~~12769
▁Bomba~~2991
▁Ob~~12524
▁Bombe~~14718
▁arms~~793
▁Oh~~552
▁Ok~~10542
du~~6495
▁Bit~~8585
▁drown~~3138
▁installation~~4690
▁On~~2321
▁Night~~3544
▁help~~188
▁mild~~11050
▁strapp~~5840
▁conductiv~~12435
▁expansion~~1343
▁held~~2189
rung~~9123
▁Industrie~~14210
▁OK~~2550
▁hell~~677
▁several~~631
90~~10538
agnesium~~11122
▁rejection~~7153
▁thick~~2497
▁1,500~~2766
▁lying~~7209
▁slime~~7533
▁heaven~~907
▁hysterical~~12975
▁Herz~~13495
▁Portugal~~1566
▁injection~~6458
▁KB~~13529
▁marginaliz~~12508
▁Lovin~~13584
▁Bolivi~~13591
▁piano~~2948
▁slash~~8554
▁true~~196
▁Mineral~~12184
atur~~5557
▁feminism~~7946
Auto~~14340
away~~10292
▁Michelle~~7951
▁Emer~~12971
▁89~~8728
▁feminist~~7886
▁Tahrir~~12616
▁Carolin~~9430
▁Newton~~7431
▁charcoal~~11430
▁constellation~~8497
parate~~11407
▁altruistic~~8564
we~~6795
wa~~5672
hai~~2376
wo~~2757
▁belief~~1535
wi~~3356
▁infections~~8723
wu~~13889
▁robots~~2957
▁infinite~~2338
▁KT~~14612
▁Power~~2935
▁believ~~3842
▁length~~1781
cop~~9014
▁design~~1085
ile~~8250
▁Would~~6157
▁Grove~~11352
▁propell~~9876
ilo~~11420
ill~~5097
▁RIS~~9256
▁Gavi~~6850
ili~~2118
▁Aurora~~8502
▁Strud~~14391
▁Gott~~14498
▁Sultan~~13860
▁myceli~~11499
▁conviction~~9798
▁Gilbert~~11635
com~~887
▁Evan~~3775
ily~~3552
▁undergraduate~~5162
▁Match~~11999
▁Thank~~6151
▁delete~~9840
▁serve~~2274
▁pollutant~~3510
▁Hind~~7888
▁ARPA~~6377
▁middle~~1809
▁caregiver~~9439
▁Off~~5905
▁banana~~8709
▁adversari~~13818
▁brach~~13571
▁Aha~~11804
▁spaghetti~~11227
▁main~~1462
▁corporate~~1162
▁scientific~~364
Kerry~~10699
che~~7348
▁field~~1319
▁maid~~2267
▁fan~~1288
ietzsch~~14325
▁Constitu~~9915
cholester~~13036
▁guid~~8265
▁Neil~~6777
baum~~13389
▁crazi~~9108
▁Cristin~~12930
▁French~~7206
▁Cole~~9680
coherent~~1662
▁spectacular~~8439
▁Cola~~13222
▁educate~~4723
▁wisdom~~1646
▁crazy~~2829
▁Coli~~13301
otter~~11618
▁transgender~~10343
oreign~~12093
▁Bruc~~4201
▁grant~~7136
▁GCSE~~13155
▁globale~~14762
▁entrepreneur~~7292
air~~2088
▁ending~~5206
▁information~~1911
▁colonialis~~11724
▁cookie~~4934
▁urchin~~10797
▁decision~~1109
aid~~2506
ssociation~~4743
voice~~13774
▁Serious~~7562
▁Vega~~7449
▁Carro~~9927
▁frontier~~8609
▁flake~~11419
▁diese~~3391
▁Swiss~~10216
▁indirect~~6634
▁cubic~~9657
▁tone~~2437
▁beneficia~~8052
▁reception~~5621
▁morning~~1203
perform~~1316
▁air~~1717
▁simulation~~9016
▁China~~4726
▁Nevada~~9929
▁viewpoint~~7733
▁Jane~~2287
▁soap~~6686
▁aim~~6091
▁need~~637
▁sensitivit~~4570
plin~~3146
▁aid~~4269
wheel~~4640
evic~~8424
▁Governor~~12370
nia~~3925
hang~~8045
hand~~4798
▁mutate~~6554
▁Wide~~7759
▁what~~142
▁stick~~709
Y~~2693
▁prepared~~1395
felder~~12945
▁Internationale~~12980
▁wi~~4663
▁Laut~~14400
▁mitigate~~12756
kept~~2577
▁privacy~~7639
▁wo~~2830
▁district~~7610
ept~~8195
▁we~~65
▁HTML~~12202
▁initiat~~7538
▁Rebe~~13566
▁deception~~9677
▁urge~~4154
▁1980~~1342
the~~2598
▁modular~~5934
▁Kafka~~8367
▁mouth~~531
▁flower~~8302
ourne~~8876
kala~~10804
▁Laur~~11961
ough~~9973
▁nail~~9285
▁bipartisan~~10739
▁Ski~~9160
▁pillar~~630
▁photographs~~441
▁Debora~~7057
▁alternative~~1902
▁touche~~551
▁photography~~9745
▁Holly~~11963
▁cooling~~11053
▁fractal~~11072
▁Sky~~9892
ourage~~14225
aub~~13548
▁alleged~~11638
▁Liberia~~7875
▁Miss~~11560
▁Mist~~14536
▁plow~~8884
▁recover~~3366
▁Galvani~~14200
outheast~~2415
▁stupid~~1020
▁spac~~11538
▁IKEA~~9380
▁span~~2741
▁balcon~~10671
plasma~~7037
▁national~~1065
▁leaving~~3525
▁Tolsto~~9514
▁Friedman~~5873
▁relocate~~12246
hantom~~13572
izing~~4359
▁urban~~3582
▁inner~~4429
▁Martin~~3774
▁legendar~~2826
▁quality~~1474
▁Tso~~10064
▁blubb~~13325
hampagne~~12992
▁satisfact~~8069
▁atomic~~9018
▁subconscious~~9117
embl~~8925
▁bloodstream~~1873
▁Grandma~~11104
▁Pleo~~14758
night~~2117
▁Mach~~2832
security~~12085
▁on~~147
▁Gaia~~14268
▁imperial~~7844
▁obey~~13465
▁Geek~~14506
▁negotiate~~4919
▁Einstein~~6011
▁gla~~12550
▁immortal~~4803
▁Gallo~~5
born~~4511
▁serif~~14213
auf~~13888
prüf~~14401
omics~~7176
▁Morning~~8446
▁straight~~3431
▁ferment~~11176
▁Laborator~~7048
Lee~~12201
▁disability~~3015
▁replie~~4635
▁grappl~~6883
/~~3311
▁happiness~~4853
▁concert~~7631
▁corporation~~7761
School~~13816
▁for~~102
▁Millennium~~8022
▁Motor~~8242
▁puncture~~12296
▁literally~~1882
▁fog~~8466
▁future~~861
pla~~4594
post~~8452
▁discourag~~6824
▁incorporat~~14016
trophy~~7979
Ark~~13840
▁Liste~~14137
▁obtain~~9081
▁glory~~8787
obb~~12441
literatur~~2313
▁Montana~~9645
▁defeat~~4828
▁jump~~2907
▁understanding~~1730
▁1970~~1339
▁microscope~~7520
eight~~13255
▁documentar~~2174
▁Cedars~~13854
▁Natalie~~7582
▁performance~~1409
▁supreme~~5006
▁deform~~8673
▁conscience~~8600
▁colleague~~1136
bound~~6173
▁Alberto~~11773
ynthetic~~537
▁squeez~~2986
▁Glob~~8928
▁perceive~~3298
▁rescu~~12885
▁Commerc~~13092
wan~~10284
▁abandon~~4300
▁Mat~~8914
▁Mar~~6903
▁Map~~8892
▁squish~~10585
▁Eye~~10819
▁May~~7110
▁Max~~2444
▁Mag~~6079
▁Mad~~2975
▁Mac~~7299
way~~3274
▁Mao~~11919
▁Man~~6348
▁Earle~~4197
▁Mal~~7455
war~~6683
▁Mai~~10869
▁Minute~~9196
▁Re~~2347
▁Ra~~6068
▁Ro~~3412
▁links~~8772
▁Episode~~9073
▁Ri~~11043
▁forehead~~7683
▁Ru~~2392
▁effective~~3620
▁Position~~13989
trug~~13805
▁RG~~5898
▁RD~~13880
▁build~~1305
▁greet~~9483
▁leverage~~4077
emia~~6520
▁seductive~~4302
▁RM~~9297
▁Chair~~6060
▁nostalgi~~6644
▁0,0~~14167
▁volcano~~150
▁enthusias~~4360
▁RP~~13812
nsas~~10119
▁again~~620
▁aspect~~1927
ochai~~8566
▁schools~~791
▁after~~501
▁simple~~541
▁jumped~~6200
hotter~~11449
▁exaggeration~~9332
▁Somali~~8991
▁Jim~~2126
▁shock~~1915
▁lots~~3272
▁convict~~9699
▁schematic~~10778
▁abusi~~11268
▁phosphor~~12109
face~~7252
▁Feministin~~13306
▁seven~~1423
▁meritocra~~13782
test~~8527
▁headed~~4146
▁Kwa~~13876
▁thankful~~5054
▁habit~~5844
▁Imagination~~14327
▁stumbl~~6466
▁Galaxy~~11031
▁Taiwan~~7617
▁imitation~~7963
▁Insel~~14168
▁assist~~7897
▁Billy~~10990
ership~~7384
itude~~11863
▁Heife~~11588
▁Camill~~12909
▁obsess~~5014
▁bugs~~2549
▁ski~~1154
▁observation~~5005
▁Apollo~~5607
▁ballet~~8380
▁intrigu~~5850
▁export~~8643
▁sky~~1692
▁bugg~~2546
▁Frederic~~8282
▁fluorescent~~6801
▁Brigade~~9986
▁laparoscopic~~11402
consum~~10132
▁worked~~1292
▁giganti~~2944
▁quark~~11444
▁award~~4855
▁aware~~480
▁apolog~~4420
▁obligation~~7427
▁vaccination~~4243
▁slavery~~8624
▁Aus~~13303
▁Astroturf~~10375
▁Migration~~12244
▁Gegen~~9856
zone~~4530
▁heartbeat~~6481
graph~~5573
ibati~~12507
▁pseudo~~14202
▁advocate~~7165
▁stole~~7444
rhythm~~14169
▁restorati~~14027
ggie~~12154
rella~~9833
▁biograph~~8114
▁Pick~~12128
▁MacCready~~12321
▁Britanni~~11287
▁Commission~~12088
▁Shoot~~12289
▁Savage~~9060
▁commemorat~~8644
▁Korean~~1363
▁recogniz~~3748
▁Liebe~~14110
▁gold~~6975
▁provider~~4719
▁golf~~7143
▁Mola~~11746
▁error~~5987
gua~~6758
▁lens~~7324
▁administrative~~1649
▁forgiveness~~9697
▁spike~~5928
p~~2455
▁multipli~~6247
▁Doc~~7231
▁segregat~~1603
gut~~14349
▁qualifie~~7079
▁commute~~7768
eclaration~~5095
rselves~~9709
▁multiple~~4250
▁catch~~376
revolution~~13381
▁bombsight~~14077
▁discount~~5946
▁code~~1978
▁iteration~~6300
▁elusive~~5727
cost~~4702
▁250~~5882
▁Zoo~~12419
Reilly~~14001
▁filth~~9214
ST~~11221
Ladenism~~13620
▁Love~~2156
▁arm~~1865
▁arc~~6635
▁form~~688
▁arg~~14218
sprung~~12894
▁are~~106
▁Welle~~14223
▁art~~1987
▁Haw~~9086
▁discomfort~~7905
▁Scho~~10853
▁Har~~2302
▁My~~3042
▁pave~~5225
▁carving~~9867
▁Mu~~3304
▁Boy~~1947
▁Manager~~13665
▁Mr~~2095
▁Schi~~13061
▁Mo~~2746
▁Had~~10060
▁sunlight~~6754
▁Mi~~9425
▁Enric~~14163
▁Han~~8416
▁Hal~~4155
▁Ham~~6889
▁Mc~~6794
▁excessive~~9733
▁Ma~~2857
▁Hai~~11321
▁Venter~~7034
▁heartbreak~~6637
buch~~8130
▁prize~~4857
▁tube~~526
▁MS~~10937
▁MR~~12873
▁MP~~3184
▁suspicio~~5759
▁declin~~6253
▁Institution~~13871
▁business~~841
lastic~~9080
▁telephon~~12400
▁intergala~~12597
▁hard~~1113
▁Flint~~10372
▁complete~~1332
▁harm~~4073
▁unsafe~~10371
▁Mountain~~2211
▁brochure~~9315
▁stimulate~~1092
▁ROV~~5765
▁secondar~~4354
▁shadow~~9428
▁Helm~~13098
▁born~~1443
▁packet~~3700
▁regulate~~6552
▁grati~~10032
▁copyright~~7323
▁horrible~~7523
▁danger~~6485
▁dimension~~1427
▁accidental~~8759
▁queue~~10011
▁nominate~~12364
▁messages~~2802
▁Cousin~~14301
▁guru~~9495
▁calibrate~~12638
▁pathway~~1637
▁priorit~~1588
▁integration~~1802
▁Atala~~11931
▁purple~~10872
F~~7181
club~~7217
▁aero~~9863
▁bite~~5010
mplitude~~12282
▁instrumental~~8945
▁controller~~3023
▁Brenn~~11570
▁bitte~~13997
▁Aspen~~7234
▁outside~~2934
▁FedEx~~1163
▁expect~~1608
car~~4018
▁broadcast~~8425
cap~~9753
abyte~~13418
▁diameter~~7589
▁embedded~~6641
can~~4992
cal~~8384
▁hurricane~~11059
▁instruction~~5994
▁Instant~~13725
ibu~~3913
▁hospice~~4813
▁Ost~~13695
▁prayer~~6501
▁Edit~~5725
▁peak~~4251
noch~~2747
cular~~8657
chip~~5111
▁chainsaw~~14175
▁grandfather~~2234
▁usage~~5926
heard~~8438
topia~~3728
▁Lear~~8407
▁hallucinat~~8660
▁novel~~1388
▁Mello~~2689
▁optimistic~~860
▁shaman~~13995
▁hav~~205
▁hat~~2570
▁pediatrician~~3886
▁yellow~~1411
▁has~~185
▁unveil~~9367
▁McChr~~4468
▁make~~165
▁views~~3229
species~~8841
write~~3771
▁cities~~3548
▁had~~469
▁Middle~~3276
▁hab~~8835
▁Dhara~~12887
▁ham~~2021
▁feminine~~8810
,8~~3296
▁Major~~11240
▁Trickster~~14505
▁able~~648
▁cafe~~4970
sklav~~14481
▁Copp~~10589
▁Deb~~11642
▁Dec~~7571
▁Den~~9339
▁tectonic~~6394
▁Del~~11578
▁premi~~4983
▁selective~~6938
▁inspired~~5575
▁typograph~~13019
▁th~~6572
▁puzzle~~7871
Ship~~12157
▁rocket~~4182
serving~~10358
▁Psalm~~11657
ender~~9424
▁convention~~7330
▁prosthetic~~7016
ities~~730
▁essential~~2344
▁traffick~~10467
▁vice~~2589
▁dominance~~4960
▁grind~~1278
▁taboo~~5174
▁Helen~~11169
enden~~8805
ular~~6425
cola~~9476
▁Chile~~1421
▁Child~~2711
▁dilemma~~3874
selves~~6687
▁veteran~~9632
▁Nicaragua~~12977
▁magnetic~~10591
▁toll~~5031
▁foot~~366
RD~~12585
▁migrant~~7484
▁neck~~10723
▁Bots~~12812
▁First~~7865
▁fool~~3840
RC~~5226
RL~~12204
ttendee~~6920
▁broken~~856
▁summon~~6391
▁food~~610
▁legal~~4021
▁mourn~~11851
▁perimeter~~12851
fline~~5600
▁morally~~8756
nox~~13053
▁temptation~~12603
half~~3520
not~~4402
▁Bra~~7352
down~~7755
▁us~~31
▁Obama~~8228
▁up~~225
▁configuration~~2772
▁Rauschen~~10641
kern~~10122
▁Nollywood~~14097
▁rank~~836
▁Pedr~~3486
▁automatic~~1374
▁suffering~~7612
▁un~~173
▁um~~7516
▁Angel~~13249
▁storyteller~~1962
▁uh~~9363
em~~1284
el~~2128
en~~641
ei~~8106
eh~~4968
▁vari~~1565
▁object~~2701
▁Radi~~13167
ed~~187
eg~~6807
▁Kapur~~13941
wrestl~~2730
▁interplanetar~~14330
eb~~8488
trieb~~14487
ex~~2993
▁vary~~7301
year~~752
ft~~6258
ew~~2576
ev~~3074
ep~~1913
es~~151
er~~411
▁forbid~~908
▁paranormal~~13267
hhhh~~13485
▁pregnanc~~6580
▁swirl~~245
space~~5565
▁accurate~~7148
▁Convention~~4151
estone~~10672
▁temper~~7441
▁Electro~~13312
▁Kle~~5891
▁Hippocamp~~14622
▁eyeball~~7204
ummel~~14558
▁Fitzgerald~~9322
▁instinctive~~3226
▁negative~~7847
▁def~~2122
▁street~~4331
▁optimism~~5390
▁Osa~~13224
▁collision~~4188
▁Laptop~~6745
▁Wilkins~~12790
▁dirt~~909
▁Person~~12089
▁der~~3722
▁des~~728
▁deposit~~3396
lma~~6050
▁rival~~11519
lright~~5350
▁unnecessar~~5280
care~~7762
▁Work~~9310
fa~~4012
▁hallmark~~7682
▁ignore~~8692
▁Status~~12458
▁pledge~~10566
▁times~~903
▁rod~~7806
▁Statue~~12874
▁embark~~9039
xi~~4757
▁Okeechobee~~14641
▁rise~~1354
▁algorithmic~~6316
▁risk~~1712
ition~~5870
▁computational~~5913
▁explore~~312
▁infant~~6565
▁Achilles~~7239
▁waste~~1441
▁simplicity~~9633
rine~~7469
▁diffusion~~11154
▁Bolin~~13322
▁pour~~3225
▁address~~3987
▁demos~~2450
▁orphan~~8638
▁Station~~10091
traction~~9452
▁agenda~~7461
▁yeast~~11174
▁forensic~~8306
gging~~7541
frame~~6639
▁powerful~~1674
▁squash~~891
nutrition~~4890
▁neurologist~~8650
▁exceed~~1631
▁Leib~~11788
▁flip~~3993
public~~13530
▁Saint~~11372
▁Luxemb~~1477
▁seizure~~8747
▁aesthetic~~7414
▁Craigslist~~11616
▁Neuro~~9850
▁milestone~~5352
▁handwash~~14694
tangible~~11649
almon~~6967
▁program~~1863
▁defect~~6529
▁What~~2795
▁movement~~2912
▁glass~~3372
▁ordinar~~1624
▁destroy~~4061
▁merc~~4917
▁foster~~5681
▁mere~~5250
▁mode~~5195
▁Relation~~12605
▁Floren~~6022
Mail~~14432
▁judge~~6865
▁Huaorani~~13994
oleum~~10897
▁symmetric~~6742
▁probe~~8548
▁cunning~~10676
▁atheist~~2648
uten~~13223
institut~~11400
▁Indiana~~9806
orruption~~12899
▁glance~~12359
▁Hama~~9747
▁Smol~~13844
▁silence~~2243
▁Express~~10753
▁smell~~3651
SS~~6184
▁Po~~1563
▁Ph~~1766
▁electronic~~4581
▁Spar~~13168
▁Cape~~10392
▁Pe~~3475
▁Bro~~12743
▁planetary~~9193
▁Pa~~6121
▁sequence~~5330
▁Bru~~11818
▁document~~3402
▁lifestyle~~9154
▁Pr~~4345
▁animate~~8813
▁Koh~~10659
▁PH~~10198
▁Chaos~~14238
▁hope~~2070
▁headline~~1701
▁amp~~7569
ance~~1655
▁Luc~~7658
mbient~~8335
pattern~~13850
▁intuitive~~3227
professional~~1013
▁Kol~~5849
blatt~~10775
▁PR~~4004
▁PS~~13628
▁disclose~~10389
▁Umar~~4305
▁dependenc~~7688
▁influenc~~10276
▁Principle~~10888
▁runn~~923
▁farm~~3617
▁responsibl~~7082
▁briquette~~14189
▁cover~~1406
ectar~~8311
▁systematic~~2724
fifth~~7146
ground~~5450
▁grim~~3604
▁retrospective~~12044
stair~~4439
▁profane~~14321
▁grid~~1796
▁Therapeut~~12926
▁vessel~~3224
,4~~11580
▁esoteri~~10976
SW~~14239
▁operator~~4752
▁Communi~~5642
▁canvas~~3665
▁grip~~4296
▁investigator~~7139
azi~~13152
▁telescope~~10178
▁Post~~7076
▁geographic~~5651
▁alien~~632
▁bracket~~11708
▁minister~~7630
▁Tric~~6141
▁wag~~4561
held~~13173
▁prove~~1021
▁symphon~~748
leuk~~6519
▁serendipit~~7109
▁kindergarten~~1542
▁borrow~~4804
▁NAS~~11285
urdy~~13662
▁bloop~~14013
▁Ash~~11977
▁Ask~~11750
▁biofuel~~1764
▁stone~~6015
▁Camarasaurus~~14760
▁helmet~~9865
▁disconnect~~3805
hell~~6576
▁Ass~~8924
reiter~~13810
▁Um~~13742
▁Alex~~3130
▁accumulation~~3381
▁remov~~2714
▁Spence~~8817
▁jig~~5793
Engineering~~12041
▁AlloSphere~~9005
▁192~~8975
3~~1742
ambo~~13874
▁Building~~5507
▁Teresa~~13453
▁annoying~~2398
▁fortune~~6357
▁resort~~5776
▁Orion~~8490
▁Ebola~~13110
▁Town~~11138
▁sibling~~8019
▁correction~~10263
▁computers~~5333
▁withdraw~~4932
▁Ich~~10901
garde~~11159
▁way~~300
▁prosecute~~12346
▁curtain~~6814
▁Pier~~2307
▁Meta~~8368
▁Northwest~~3447
mond~~8261
▁adapt~~979
rippe~~11833
▁specula~~5358
▁jumble~~5612
▁junkie~~10321
▁Stock~~4092
送你葱~~14373
▁package~~3542
▁large~~1448
▁Autist~~11233
▁surprising~~2796
▁Everest~~4668
▁Portland~~7960
▁gland~~11330
▁Professor~~6056
presse~~14599
▁Seminar~~13564
▁acquisition~~2343
▁trawl~~3496
▁Course~~5851
▁50-~~4337
▁quiz~~5852
▁500~~3702
COB~~13760
▁oxygen~~535
SHA~~13057
▁gadget~~8057
▁nonviolen~~10267
cycling~~4670
▁Muti~~14241
▁Everglades~~14640
▁elegant~~2256
▁aggressive~~4764
▁security~~4925
▁fossil~~3593
▁prototype~~2947
▁globaliz~~1326
▁feedback~~3882
▁redefine~~4806
▁Donnell~~12575
▁reliabl~~4906
▁inventor~~1855
▁Front~~10273
▁mysteries~~10086
▁slums~~2051
▁force~~1835
▁Starbucks~~10107
▁animal~~248
stema~~13456
▁Medina~~13801
▁simultaneous~~6671
apien~~14647
▁Sake~~7891
▁intellectual~~5970
▁healthcare~~4787
▁passe~~937
▁sc~~904
▁3-~~6143
▁regional~~4121
▁3.~~8849
▁living~~810
▁35~~1511
▁34~~2384
▁37~~5134
▁36~~4035
▁31~~11611
▁30~~2069
▁33~~10176
▁32~~9534
▁drip~~9099
exist~~10136
▁39~~11672
eil~~770
ization~~947
▁nurse~~2431
▁elevation~~6323
▁baby~~927
▁city~~2427
metric~~10972
▁Blair~~11782
▁hate~~7195
▁polariz~~10742
▁Park~~6781
bias~~12606
▁hardwir~~1026
▁thigh~~4521
▁stagger~~8968
▁disagree~~7989
▁mathematics~~1612
▁cite~~5389
Israel~~3290
develop~~10349
litz~~11589
media~~1974
▁when~~104
food~~9212
▁return~~779
▁implicat~~9804
Charm~~1853
▁null~~13532
▁collage~~7240
▁expansive~~5635
▁serving~~5009
Č~~14714
▁Poly~~11196
▁hide~~1139
▁secur~~2707
foam~~5720
▁Branson~~12162
ā~~13749
Splashy~~13008
Lorenz~~3760
▁bird~~3414
▁Pole~~5437
▁backpack~~2618
▁snapshot~~10799
▁devou~~5731
theater~~11049
▁PAT~~13988
▁punch~~10573
▁presum~~3185
▁Shir~~7952
▁Dean~~9591
▁bli~~7804
▁Firewall~~14371
▁Paris~~6666
▁attractive~~1599
wege~~11756
▁bla~~8842
▁punct~~8486
cca~~6804
Packard~~3890
▁comfort~~7177
▁coloniz~~5515
▁tipping~~10549
▁rifle~~11906
▁spade~~5270
▁lobby~~5536
▁statistical~~8469
▁lense~~10262
▁support~~510
▁entrance~~6630
▁pre~~973
ch~~517
▁rectangle~~9015
▁account~~1650
▁immunization~~8982
▁improvise~~3152
speed~~3177
▁Bengal~~13980
▁answer~~1497
▁immune~~5409
▁offer~~1972
euros~~7281
▁Ji~~8063
▁acceptable~~9998
verse~~5936
▁Lucifer~~13873
▁offen~~8007
▁exuberan~~8701
▁electro~~10177
disproportionate~~10378
real~~5675
▁illustrate~~3927
▁wage~~3628
▁craft~~2371
amo~~11507
▁soundscape~~12221
▁colonies~~511
▁dataset~~8477
ame~~9898
▁pray~~5724
▁party~~2390
▁strange~~613
▁clump~~5610
▁Mott~~14329
▁dialog~~7459
amp~~7568
threaten~~10444
▁Synchroni~~10212
▁auto~~990
▁hands~~271
▁grave~~1682
▁Summe~~13154
▁situations~~1389
▁comprehend~~6647
▁spite~~3395
▁Bandura~~13649
benefit~~2621
▁something~~184
t~~21
▁Nazis~~13437
▁distortion~~3958
▁striving~~9646
▁Tribu~~11909
▁Asteroid~~11349
▁synagogue~~12663
▁brief~~5653
▁Maeda~~9257
▁sand~~5309
▁sane~~8656
verbal~~12287
▁tattoo~~2266
▁sank~~11537
▁screen~~2094
▁dorm~~6127
▁uncover~~5523
▁near~~2184
▁neat~~673
▁hamburger~~9704
▁reache~~4901
▁mul~~10152
▁Gro~~14132
▁civilian~~8788
▁circa~~11949
▁lower~~1517
▁engagement~~2328
▁Gra~~13518
emeral~~11251
platin~~12500
▁Lago~~13181
▁Hart~~10893
ethos~~10908
▁Page~~5890
▁tutor~~5136
▁teache~~4519
▁once~~1400
▁dream~~2432
▁auditor~~11212
▁section~~3049
ilhouette~~13691
▁herein~~13769
▁predominant~~8041
▁dread~~5203
▁assignment~~5854
habi~~3413
uddle~~9715
▁psychic~~11531
argassum~~4085
▁theorist~~7833
▁bend~~3836
▁circl~~11341
▁1947~~8904
▁1940~~9330
▁Brahm~~14155
▁sports~~1076
▁Diaman~~10231
▁Accra~~13192
▁Infinit~~11495
▁Avelile~~13424
▁Jeff~~9404
thanol~~10114
▁TEDxC~~13025
▁Bogota~~10696
▁Christmas~~2389
▁name~~3000
▁messag~~10959
▁Athlet~~12564
▁eye~~3841
▁supposed~~1276
▁Expedition~~13107
▁Comics~~14086
▁amorph~~5624
Store~~13412
feld~~10798
▁hotspot~~4178
log~~7131
▁spring~~634
▁assault~~10989
▁taxonom~~9385
loh~~13469
lon~~4526
▁penalt~~9701
▁Flo~~8893
start~~6351
lop~~6782
lov~~7911
low~~6196
▁spen~~1473
▁propriet~~2108
▁digit~~9252
▁Kni~~9085
▁tornado~~12779
▁Gates~~4369
▁Trends~~13559
▁yet~~162
▁yes~~732
▁summarize~~6008
▁Okay~~3277
J~~9407
▁Brown~~8596
▁curriculum~~5940
ulu~~9552
▁manufacturer~~6721
▁Ernst~~12523
▁janitor~~13129
▁yea~~3060
▁gest~~6991
▁Director~~8113
▁these~~236
▁Exo~~9783
▁sword~~7164
▁bored~~4684
▁manufacture~~11112
▁pharmaceutical~~8570
▁barrier~~7237
▁common~~2003
▁cyberattack~~13547
▁sculptural~~10655
▁Cliff~~9521
▁qualitative~~11966
▁cruise~~9053
▁novelist~~6620
▁actress~~10441
nerv~~13843
▁McKi~~13290
▁extra~~1386
▁Grand~~6039
▁comics~~9577
oulder~~9420
udience~~11467
▁snapp~~12440
▁Union~~6350
▁amateur~~2842
▁Velcro~~13229
▁parliament~~4981
▁DMCA~~7396
▁reiterate~~9817
▁detaine~~11166
▁detach~~10351
▁worldview~~1939
polar~~11345
▁injustice~~8055
▁proud~~6149
▁Doodle~~14125
Fernando~~11911
▁syringe~~6455
▁skat~~13494
▁shut~~7006
▁consciousness~~2147
▁Niss~~12804
pool~~5595
building~~10578
▁acid~~682
▁beautiful~~44
uinea~~11980
▁custom~~8733
▁OLPC~~6752
▁Kasparo~~13817
▁verse~~5583
▁riches~~2035
▁mentioned~~2227
▁winter~~4139
▁melt~~3370
▁Nu~~8897
▁thriv~~684
▁squeak~~11453
month~~3456
▁drug~~4780
erkeley~~3800
▁drum~~3070
otassium~~12489
▁evangelical~~6899
▁effic~~11335
▁equation~~4462
elle~~13544
▁Men~~10051
▁Mem~~12593
▁Mel~~8960
▁petrol~~12223
▁Med~~6042
▁snippet~~6359
▁Vi~~2044
▁slam~~10588
▁newborn~~6564
▁Chamb~~1787
▁Va~~6033
▁insignifican~~11228
▁poor~~604
▁grown~~3736
▁Ve~~6030
▁appropriate~~2697
verb~~5722
minded~~4884
▁great~~124
▁epic~~6492
▁Champ~~11163
▁Cyr~~8109
▁narco~~14191
▁aisle~~11118
anav~~14535
▁evolv~~686
▁oblige~~10504
▁VC~~13668
▁digitiz~~12635
▁beyond~~774
▁Jones~~7736
▁Murray~~9951
percepti~~13353
-3~~13034
▁PSA~~13039
▁advertis~~6716
▁billionaire~~12160
rench~~7124
pul~~11442
▁shoot~~3266
▁monoton~~13088
▁rule~~2759
▁problematic~~10324
▁crime~~966
▁inhibit~~5372
▁Capital~~12141
▁embarrassing~~7969
ococcus~~9374
▁breakdown~~8470
atory~~5937
▁cochlear~~13942
▁Telescope~~12169
▁predictabl~~2554
Korea~~14551
▁quantitative~~11153
▁CSI~~11437
▁asphalt~~10354
▁Jarrett~~14299
▁ulcer~~11398
▁visibl~~11712
onne~~13624
▁Karen~~9513
▁technology~~177
▁grow~~618
▁spacecraft~~6208
▁analyze~~3051
▁align~~1661
▁rally~~11517
▁Breivik~~13868
▁Hummer~~7100
▁45,000~~8872
▁nine~~400
weile~~13914
▁cycle~~738
ommission~~12629
▁attitude~~2158
ureau~~8218
▁vector~~9828
▁radio~~3157
▁midst~~7230
amount~~4020
▁why~~712
▁blunt~~9118
▁tea~~5782
▁ten~~1845
▁premier~~2980
▁Hyo~~14478
altech~~10199
▁pig~~3678
▁conference~~6389
▁pie~~10073
▁classmates~~13372
▁pin~~2755
▁benefit~~846
▁facade~~9789
halle~~14423
put~~8586
▁pit~~3128
▁stripped~~3821
▁Schwa~~14351
hren~~11247
▁lud~~10962
conventional~~10155
▁allocate~~8706
▁gaze~~2349
▁employment~~4714
▁realiz~~7900
▁bonus~~7294
▁remix~~7319
orporation~~8964
▁Cairo~~12623
▁spectroscop~~12478
▁disappointed~~7547
▁maps~~403
▁normal~~548
▁loyal~~11546
▁Mandelbrot~~12609
▁dissolve~~11177
▁Tour~~9344
▁prosthes~~12007
▁Reader~~3768
▁tight~~4492
▁implement~~1667
▁people~~207
▁Dai~~10606
uarter~~6796
▁747~~11869
▁plague~~11490
mounted~~5809
▁them~~263
▁penetrat~~12113
▁then~~359
▁afflict~~11844
▁Asperger~~9469
▁Melodie~~10997
▁semi~~3707
▁character~~2941
SP~~10886
▁publish~~5007
▁survey~~1221
▁apply~~897
▁apple~~2610
▁Vietnamese~~7611
SB~~12422
SA~~4961
▁describe~~2332
▁Congo~~5217
SE~~9869
▁Rice~~9197
▁above~~1212
ockpit~~9066
▁transcendent~~5614
▁Niels~~12836
▁proliferation~~7824
▁modification~~7127
▁Schlau~~14499
▁funeral~~5580
▁spread~~3273
▁decline~~4130
▁isolat~~5834
▁optical~~5749
▁bounce~~2466
▁Conference~~11745
▁Rick~~10630
▁family~~875
▁Winky~~14341
▁revelation~~9882
utilize~~8952
▁Lord~~2120
▁redesign~~7567
▁temperature~~562
▁Respons~~12902
▁happy~~1172
▁Hey~~1242
▁2008~~2424
▁2009~~1404
rude~~5243
▁Her~~2882
▁bounc~~12043
▁2006~~2015
olecular~~7120
▁2000~~1509
▁2001~~4529
▁2002~~3783
▁Microsoft~~9556
▁Stanford~~3892
tries~~5371
▁Furby~~14759
fe~~3357
▁Hel~~4705
▁Neanderthal~~8869
fi~~456
▁Hea~~9628
Sensing~~10608
a~~1097
▁timber~~9971
▁favor~~2179
▁nutritional~~9219
▁Who~~3280
▁deceptive~~6142
▁Pun~~12645
▁Graham~~8412
ï~~13292
▁1.~~8721
▁Daw~~6619
▁13~~1351
▁12~~2670
▁11~~1741
▁10~~699
▁17~~3115
▁16~~3878
▁15~~1746
▁14~~3245
▁19~~8020
▁18~~2029
▁lifespan~~5356
▁Lithium~~12480
▁mockingbird~~14252
keit~~14415
▁wildest~~10567
▁centrifug~~11941
▁packag~~3533
help~~9494
▁seal~~10616
▁universit~~2691
▁Prius~~9152
▁pyramid~~9164
▁have~~139
▁Horn~~9637
erox~~9348
helm~~12143
▁consult~~3866
kinetic~~11121
▁predicat~~12833
▁tasty~~10075
▁clean~~2241
▁rent~~6793
▁logistic~~4327
ranscript~~18
▁Fab~~13499
▁Chech~~14131
▁singer~~2940
▁eloquent~~5119
▁Natur~~8839
▁applau~~9878
sensor~~9852
▁under~~351
▁approv~~5106
▁innocen~~12357
▁storytelling~~6702
▁therapie~~5104
▁composition~~1578
▁Kavita~~7856
cer~~9594
▁older~~2101
foot~~2210
▁persuade~~5263
▁plutocra~~13778
▁diabetes~~6530
▁Tier~~12393
▁terrorists~~9912
▁proper~~3597
▁discuss~~3491
▁simpler~~10646
▁Tora~~12659
▁Dominican~~13948
iff~~12276
▁wander~~7715
▁clapp~~10496
ifi~~7474
▁someone~~2756
▁Surf~~14546
▁paragraph~~5041
▁Terminal~~13524
▁IBM~~6362
▁television~~5498
▁eager~~4737
pho~~8156
▁Tori~~14656
Engine~~9228
▁curse~~7936
▁paraplegi~~14176
▁suspect~~4675
▁her~~1709
▁salv~~11859
▁versa~~4577
▁Stalin~~9488
▁NRK~~14681
▁Schwarz~~13360
7~~3121
▁versu~~5983
▁Fragment~~14254
▁overreact~~9500
▁Aust~~2288
▁list~~1501
▁expedition~~5735
▁unbelievabl~~680
bald~~12445
▁who~~788
▁Dakota~~7961
▁Poupon~~14568
BC~~8279
▁sell~~3523
▁whe~~1382
▁marshmallow~~13374
base~~2461
▁möglich~~14422
ase~~5412
▁Gladwell~~7103
pur~~11313
▁Pic~~13405
▁Pur~~2269
▁shrimp~~602
▁propeller~~2951
▁smash~~8708
▁Dan~~2544
▁Dam~~5232
▁fourth~~1901
▁lack~~3037
script~~13396
▁Daf~~10110
▁Dad~~5212
▁Pub~~13023
▁Pin~~10956
▁Day~~3474
▁brick~~2289
reedom~~12009
▁Dar~~4801
▁ovari~~6540
▁Dap~~5847
▁soldiers~~4531
▁unconditional~~12265
▁Army~~4480
▁electromagnet~~10592
▁Wilson~~3786
▁vertebra~~9075
▁SOLE~~14111
▁Ezra~~8147
▁outrageous~~6289
▁sale~~2896
endai~~8206
▁Serb~~7925
Gru~~5745
membran~~3299
▁Steve~~768
▁concrete~~2500
▁bottle~~3399
▁salt~~6813
▁Volk~~13755
▁mammal~~6959
▁admission~~5863
▁coach~~4425
▁utilit~~3820
▁utiliz~~8956
▁Oval~~13604
▁shortest~~10144
▁react~~9492
▁reach~~2513
▁Award~~11684
▁mitochondria~~5383
▁prospect~~5930
▁pointillis~~10912
▁Knopf~~14538
▁Colombia~~10691
ironment~~11413
▁Rede~~14427
▁intervene~~5307
▁subsidi~~9191
pecial~~3325
▁Kuh~~13705
▁mount~~11907
▁graffiti~~11162
▁1963~~13397
▁1960~~1330
▁dislike~~11344
▁Monro~~11167
▁Cold~~9779
▁pandemic~~4282
▁mound~~8476
nce~~9143
▁bell~~8779
▁Institute~~6985
▁intuition~~2672
sta~~6979
▁understand~~1804
▁jewel~~5664
passen~~11272
▁Old~~8164
▁interconnection~~7731
▁cricket~~6112
▁Ola~~13827
▁female~~567
▁Larry~~7321
▁Asia~~1416
▁Emba~~12935
▁belt~~5648
▁ya~~9295
▁Olu~~14245
▁education~~782
▁nast~~4637
▁acquir~~12300
▁member~~6866
▁Karajan~~14242
▁Starck~~5532
ncy~~6139
▁equal~~1433
kara~~8395
▁Bacch~~14458
▁sixth~~4602
▁stream~~3367
▁Terror~~12786
▁phrase~~4805
lib~~5156
lic~~5768
lin~~3591
▁ideas~~1272
▁collar~~9547
lit~~5038
liv~~696
▁projector~~12106
▁ideal~~3723
▁Pepper~~13391
▁Leo~~9515
▁feeling~~1159
▁Kabi~~11471
▁Brunel~~14261
▁coil~~12475
venge~~9312
kam~~928
▁day~~958
▁Tulle~~9282
kau~~13509
▁wool~~9101
▁dar~~9859
▁das~~5027
▁UCLA~~11217
▁Mais~~13856
▁pilot~~1832
▁UCS~~13038
▁beauty~~4683
astery~~12258
▁phthalate~~14601
ternis~~7122
mobile~~6275
clear~~5293
▁hummingbird~~8313
▁debate~~1450
▁mitten~~14530
clean~~2532
▁patent~~4681
▁recombin~~11416
▁utopia~~13401
▁riot~~10431
▁digitize~~9954
▁SW~~13459
▁humiliat~~4558
▁Journal~~8247
▁manifestation~~5717
▁Rasmus~~13240
▁fragment~~1569
dimension~~13116
▁175~~2488
▁pollinator~~8317
▁fig~~8685
▁Sand~~6623
▁170~~6859
▁collaborative~~6190
▁fin~~6705
▁symptom~~3881
▁178~~10750
▁fit~~3032
▁Graph~~11797
▁symmetr~~7722
abend~~14247
▁annual~~1743
circle~~6281
▁17.~~14353
▁fix~~3528
▁addict~~6861
▁kar~~10103
▁kam~~14578
famous~~9886
▁acoustic~~2953
▁radar~~10302
▁insecticide~~11090
▁Tony~~4379
▁ultra~~7980
▁Schau~~10708
Freak~~14561
oxy~~10979
▁conduc~~12051
▁Ranch~~13999
▁Anne~~2244
▁construct~~5856
▁explicit~~5931
geld~~6976
x~~2078
tromatolite~~14347
▁small~~851
scanning~~5046
▁Airbnb~~11612
▁decrypt~~9896
▁Lux~~13859
▁navigation~~10197
▁menu~~7306
▁Case~~12527
▁films~~1951
plausible~~11234
culture~~3753
▁chip~~7005
▁Terrorist~~13821
▁Juan~~8033
jury~~5103
▁Melani~~14140
▁before~~571
▁slogan~~8986
▁sustainabl~~4200
opper~~7186
▁Iraqi~~8141
▁booth~~3791
▁partially~~5388
stall~~6834
▁boots~~10293
▁debt~~9524
▁Saul~~10909
▁centi~~5440
▁poverty~~2052
▁über~~11703
▁multiply~~6785
web~~13263
▁Thai~~5824
ison~~6631
▁Ta~~4397
spray~~14473
▁Plot~~14687
▁America~~396
▁group~~691
spiration~~6482
▁Spec~~7808
▁subtitle~~2173
▁To~~3083
▁northern~~4289
▁TR~~12549
▁TV~~5182
▁Malaysia~~1807
▁bankrupt~~11353
▁intercept~~9889
▁debri~~3343
sensitive~~2633
▁provision~~1658
▁Wonder~~10964
▁TM~~3041
▁advis~~8983
▁Info~~14002
▁alter~~6645
▁multitask~~10847
format~~12526
▁neutral~~10255
▁Nation~~13348
▁Physic~~13221
▁suburbia~~10346
▁Congress~~6367
▁migrat~~3865
▁excavat~~5510
atops~~13159
▁dich~~9035
▁Orchestra~~12011
▁Vagina~~11754
▁Jackson~~8426
▁squea~~7258
▁Adventist~~14091
▁rest~~2019
▁ultrasound~~7095
▁sacred~~10475
▁Columbia~~6222
damm~~10651
▁donate~~7618
▁randomly~~8763
militar~~7955
▁Weather~~6444
▁beach~~117
Women~~4703
▁huge~~1091
▁Joshua~~8184
▁clothes~~6459
leigh~~9358
ada~~10478
▁antiqu~~941
N~~4016
▁Dublin~~6918
▁politic~~5602
▁Deutsch~~14248
folklore~~13182
▁correspond~~4738
pollinat~~6833
▁games~~2845
▁animals~~148
▁but~~138
▁underpin~~10290
▁violation~~5685
iya~~7643
look~~674
▁ballot~~13269
▁bus~~5074
Taste~~13955
▁desire~~5710
▁Hawaiian~~3448
▁buy~~1176
▁costume~~9069
▁bud~~6642
while~~2797
▁bug~~4807
▁Afghan~~4601
▁bulldoze~~5658
▁fission~~12732
▁signals~~2954
guide~~11446
pack~~2658
lfalfa~~14736
Sarko~~10017
▁Alan~~9629
▁58~~6130
▁voluntary~~7818
▁Bluegrass~~14037
▁ancient~~3555
▁linguist~~5584
ready~~715
▁seldom~~8387
▁oceans~~11
▁investigation~~1921
▁transfer~~8309
▁norm~~2694
▁mark~~640
▁knob~~11489
gali~~3331
▁Drug~~14529
▁militari~~3634
▁religions~~8153
▁accent~~12137
conflict~~7907
▁galax~~10757
▁leadership~~4472
▁rug~~8115
▁rub~~8232
▁rum~~8182
▁run~~1677
▁foundation~~1695
▁rut~~1256
lig~~7250
▁strangers~~7789
▁speaker~~7339
▁functionalit~~6718
▁minor~~5497
▁streak~~12171
▁catalyst~~1024
▁termite~~7607
▁Abreu~~13458
▁Ross~~3131
▁Armen~~12345
▁afterward~~6947
▁participat~~2316
่~~5826
▁deploy~~9455
▁scrutin~~4569
▁Bike~~13689
▁trash~~3340
▁Wale~~3656
Internet~~12816
▁Bohr~~12981
▁gentle~~5100
gt~~14711
▁Scientolog~~12381
▁orangutan~~8829
$~~6697
▁leather~~8076
chromosom~~8858
▁litigation~~11474
▁famine~~4859
▁derivative~~2704
▁magazine~~5114
lip~~10145
▁psychological~~5071
▁distinction~~6656
ight~~4615
▁emblem~~8177
stein~~12473
lika~~7926
▁artificial~~6594
▁Heather~~10506
▁Gentlem~~14747
▁saturate~~13035
▁monopol~~8214
game~~9003
▁palm~~9939
▁oblivio~~8661
▁area~~727
▁lowest~~842
▁retire~~7767
▁entertain~~7055
▁Jerem~~8905
▁Target~~10597
▁statement~~5301
▁trillion~~9518
▁Schul~~4881
▁Jok~~6811
signal~~10848
▁strawberr~~12759
▁frantic~~11041
▁79~~13535
▁78~~6373
▁Freestyle~~13975
▁Nino~~744
▁Arena~~8953
▁rainbow~~9390
▁71~~13070
▁70~~468
▁73~~6133
▁72~~7797
▁75~~107
▁74~~1405
▁77~~12744
▁76~~5229
▁Gamma~~13773
▁factories~~3427
▁Nachtwey~~12580
▁tender~~3772
▁proportional~~1470
creation~~5419
some~~4524
▁tribe~~8227
▁Authorit~~10225
economic~~1549
▁Medicine~~8248
▁allgemeine~~14416
▁primitive~~7694
▁campfire~~9690
ulosi~~8640
▁Michel~~8371
▁parabol~~10238
▁rely~~1684
▁Thron~~14434
ntelligence~~12010
▁quest~~2271
ishman~~11969
▁atrocit~~8263
▁Tra~~6902
▁grandparents~~2103
▁printing~~6327
▁essay~~6842
▁Bunker~~13672
▁reli~~7128
▁wicked~~11463
▁2020~~7303
▁cohesi~~10014
▁staring~~7019
▁consideration~~2716
▁headphone~~12217
▁receiv~~5231
▁Detail~~13526
▁Rush~~9260
▁Tamiflu~~13898
run~~9517
▁spiritualit~~10838
rum~~8331
acht~~9546
▁Pamel~~11953
ummer~~13218
sten~~11134
▁winds~~4988
kan~~10029
ster~~355
step~~7221
▁recap~~2794
¡~~14689
rus~~995
lichen~~9970
▁cafeteria~~10644
▁Collect~~9944
shine~~11693
▁Ocul~~14452
▁publicly~~8410
quisition~~12882
▁Eco~~7560
▁meat~~3573
▁refrigerat~~10404
▁Nun~~14005
▁pilgrim~~12252
▁Zambia~~12709
▁WMAP~~6197
▁compose~~3046
▁reconcili~~8264
ide~~6511
▁Gold~~7577
block~~9953
▁Victorian~~10163
▁Lippen~~11729
rolle~~11564
▁Benki~~13346
▁KIPP~~11847
öl~~14624
£~~14118
▁Hotmail~~14569
▁manag~~2539
▁Augustin~~7994
▁stiff~~10603
▁guess~~857
▁Meyer~~10041
▁assassinat~~10070
▁novelty~~9403
▁guest~~4699
▁empti~~4417
▁Code~~2655
▁Ver~~8489
▁Wade~~12284
▁sunflower~~11263
▁von~~8837
kus~~14171
pionage~~7527
▁limb~~9422
▁empty~~599
▁wack~~12014
▁distribution~~3622
▁prey~~281
▁Ford~~8506
▁potato~~9195
▁affection~~8457
kinder~~14745
▁hygien~~5335
▁Lynn~~13122
▁hypothetical~~8437
ductive~~3750
▁trance~~5272
▁Fort~~4476
▁Minist~~12450
▁dragonfl~~13542
▁bank~~1834
▁basket~~4849
▁memoir~~11530
▁bang~~3050
▁band~~250
▁lamb~~9168
▁Ituri~~13395
▁Alien~~12883
▁ADH~~9470
▁vor~~8796
▁Afrika~~10844
▁loo~~8517
▁layer~~2514
▁Opportunit~~12588
▁mineral~~10301
▁definite~~6101
naissance~~5086
metall~~13520
▁done~~1255
▁scream~~5778
dding~~6926
▁tedious~~10056
▁remedi~~9529
▁ooh~~5785
▁missing~~4320
▁Tesla~~12396
▁Pleas~~2399
TV~~12727
▁extract~~534
▁leap~~6919
▁Davos~~11838
▁Have~~12481
▁Bord~~9764
▁lean~~4877
▁disruptive~~7097
transport~~14662
TH~~7049
▁leak~~6570
▁lead~~1177
▁Tropic~~4147
▁leaf~~4687
▁included~~7399
TA~~10223
AA~~12693
▁Human~~8880
AC~~3912
awkins~~13109
▁ritual~~8771
weise~~14405
evar~~9599
rlei~~14475
▁Kette~~14693
▁surprise~~858
▁Pepsi~~600
AL~~13090
▁nun~~11317
▁1900~~11525
▁nur~~8653
est~~40
▁TEDTalk~~8027
eval~~12794
▁Guardian~~10322
structure~~10189
feder~~12493
▁convert~~540
▁elevate~~12249
e~~129
▁whistl~~2372
▁superior~~10022
▁designers~~3271
▁Charlie~~9977
▁One~~5050
▁miraculous~~11340
▁bigge~~1045
▁corruption~~7627
▁algorithm~~6288
▁undertake~~12519
▁spin~~3941
▁Karma~~13964
▁reassemble~~12407
▁0.1~~6538
▁army~~2956
ge~~1268
▁Mike~~5563
ga~~3647
▁mapping~~4321
go~~3762
▁cult~~11482
▁Rand~~11780
▁CO~~7565
gi~~3454
gh~~8746
▁cingul~~6488
▁neighbor~~3261
▁residenc~~8253
▁Lifesaver~~14154
fried~~9205
▁attorney~~13436
ese~~7496
▁remotely~~3709
▁handheld~~12903
▁resident~~2995
▁mathematical~~5951
▁Telegraph~~11916
▁paintings~~1964
▁recycling~~10311
openhagen~~8631
▁sparkl~~784
▁Forbes~~10417
▁increasing~~1970
▁got~~75
▁Make~~3269
▁approach~~2563
wave~~7017
▁opera~~2844
▁PowerPoint~~9908
cellular~~9116
▁god~~8159
▁capabilit~~8290
▁Safeway~~13726
▁substitute~~8851
▁augmented~~6089
▁hallway~~8255
▁Hewlett~~14011
▁churn~~9135
▁ambitio~~1627
ziger~~10690
▁Techno~~9314
▁outskirt~~3693
▁view~~373
ulp~~12456
▁trivial~~3910
▁emphasize~~5750
zi~~6014
▁celebrity~~9496
ze~~1776
za~~4620
vaccin~~4252
▁Amt~~14397
▁clock~~4404
zu~~11568
▁leading~~3398
▁Interface~~8578
▁lexico~~9308
▁Katzen~~14606
▁flog~~13174
▁ears~~335
▁Sala~~8734
▁150~~226
cell~~2985
▁15.~~10927
▁15-~~1322
▁flop~~13199
▁applaud~~8256
▁replac~~5427
▁earn~~2429
▁Speer~~11052
;~~38
▁electric~~3163
▁director~~1941
▁shit~~5252
▁Cra~~10458
▁subsid~~1676
▁ship~~3857
ozo~~6553
▁landfill~~10397
▁violat~~5684
▁Samu~~9679
▁Cro~~7874
▁absolute~~3995
▁Cru~~12382
▁Milli~~14060
▁concussion~~12710
▁shin~~6061
▁Leon~~13974
▁Tor~~13020
▁Food~~5081
▁pull~~1907
genz~~10213
▁pretend~~4517
▁cosmopolitan~~10082
▁Vase~~12532
▁investor~~6378
▁Halleluja~~5053
▁vacan~~11691
▁Michael~~6284
▁Bible~~2650
ule~~8482
▁puls~~9026
▁Dori~~11512
▁PRI~~10234
wie~~8287
claim~~10362
win~~9366
▁embrace~~1619
▁widerlich~~13473
traut~~14311
▁floating~~3339
▁tubes~~7113
▁three~~303
▁larger~~2936
▁umbrella~~2465
icular~~5137
▁consistent~~1666
zelle~~14497
▁student~~1383
▁distract~~5406
▁Schwartzberg~~14145
▁Christian~~3186
▁animator~~10710
▁rack~~9586
▁Nash~~3089
ithium~~11124
▁Moment~~14207
▁identifie~~1585
▁Field~~11543
▁coffin~~8510
ien~~5233
▁gross~~4852
▁Zo~~8176
▁Mahatma~~10476
▁Prosper~~12898
▁Generator~~14377
▁Billion~~13016
▁Ze~~7647
appointed~~9255
▁Za~~7903
▁genomic~~11091
▁Potential~~14587
▁Hul~~13184
lapse~~10779
▁interstellar~~12486
▁borders~~8720
▁volunteer~~2742
▁elephant~~6087
▁zoom~~3404
▁magnific~~8230
▁intention~~2596
▁SETI~~12479
control~~10840
▁planes~~8435
▁preserv~~761
▁Chance~~11669
▁planet~~109
▁Johan~~13165
▁general~~1274
▁interconnected~~7704
▁preconception~~6293
▁union~~8955
▁icon~~419
▁Hannah~~13900
einrich~~12394
▁Solar~~10965
▁deficit~~4911
▁granted~~103
falls~~14288
▁kindness~~9169
▁through~~329
▁unhapp~~862
▁creativity~~893
▁Lake~~4944
HIN~~13627
▁places~~158
▁ecolog~~7344
▁detect~~7711
▁grit~~12038
▁ripple~~11942
▁bike~~2388
▁music~~749
▁Laufen~~14038
▁plane~~1817
▁tax~~1522
▁Flip~~13510
▁toilet~~3965
▁tap~~5099
▁survive~~1055
▁Tutsi~~7601
▁tat~~8551
▁tau~~5299
▁plant~~3392
▁tan~~3210
▁segment~~6334
▁plans~~7511
▁hackers~~11794
▁drift~~9042
▁trespass~~13430
▁tag~~1846
▁improve~~1143
▁criticism~~1250
▁Franklin~~5070
▁while~~1373
▁contest~~1401
▁ascend~~10502
▁antidepressant~~13590
▁distort~~2703
▁ARES~~13855
▁viral~~7355
▁hydrothermal~~448
▁Bloom~~5991
▁handicap~~878
▁spray~~2464
▁staff~~6843
▁math~~840
▁Merk~~14331
▁case~~347
▁gods~~3623
▁influenza~~12880
ruder~~10809
▁Merc~~6217
▁than~~159
▁mate~~280
nonymous~~11161
▁cash~~2676
▁Merz~~13849
▁that~~78
▁cast~~4023
▁prostate~~6581
▁note~~756
▁persist~~3898
▁verb~~5721
▁700~~462
▁Cox~~10960
▁independen~~2107
frontal~~1101
▁typically~~1613
▁events~~3852
▁whale~~4132
▁harmon~~7872
▁pollut~~3517
▁weigh~~1587
▁Con~~2776
▁Com~~4939
front~~9845
▁Selig~~11627
▁Cod~~10883
▁lung~~4207
▁logo~~3287
▁luna~~7406
modu~~7851
▁active~~713
▁Elephant~~12536
▁fate~~4064
▁surgical~~7135
▁Leber~~14098
▁Desert~~10021
▁Okol~~14063
▁figur~~1321
▁spice~~9208
▁Inner~~14608
▁canopy~~1828
▁beginning~~561
▁poison~~3514
▁Mario~~14479
▁Captain~~9048
▁locate~~3659
▁wrote~~1735
▁TED~~12
mar~~7981
▁works~~706
▁Sargasso~~4083
ille~~9068
▁Greek~~2960
illa~~7115
▁corner~~4371
▁Hin~~13568
▁cocaine~~12876
▁Arian~~13248
▁DDT~~6588
▁Schrödinger~~9024
▁Rockefeller~~11390
▁empower~~1244
▁pant~~4457
▁Farm~~10607
▁argu~~1982
▁Anna~~8508
▁forms~~522
▁Maltese~~9083
▁Hip~~13503
ogue~~7822
▁Grim~~7378
▁horror~~6665
▁leverag~~9531
▁seismi~~12830
▁molecular~~7129
▁juxtaposition~~12259
ech~~7551
▁examine~~2583
ect~~7168
Barrel~~12590
▁Gris~~13753
▁57~~7264
▁56~~9316
▁55~~5320
▁54~~8926
▁stri~~7929
▁52~~6847
▁51~~10850
▁50~~2056
▁stadium~~3173
▁Veteran~~14009
▁provid~~371
▁genetic~~1114
▁numerical~~8475
▁flopp~~10861
keep~~2139
-20~~9527
▁Orleans~~3469
▁give~~209
▁healing~~5102
▁Isabelle~~14192
▁challenges~~1460
▁Emergenc~~11733
mag~~9357
▁organize~~1206
▁generations~~1359
▁ga~~6864
▁microblogg~~14374
▁superhero~~6874
quality~~5918
▁element~~2678
▁geneticist~~8818
management~~14129
▁romance~~10336
▁poll~~7966
mal~~8580
▁schedule~~964
ubunt~~11701
neurotransmitter~~3947
▁Nixon~~9146
▁Immigrant~~14572
▁Nord~~5129
▁chronic~~1905
▁reset~~4611
▁announcement~~6769
liste~~10038
natural~~9159
▁pigeon~~9671
▁calorie~~3595
bei~~9723
▁expos~~4246
bel~~10811
ara~~11456
▁transformation~~4955
▁Listen~~7519
▁hippie~~8919
▁3,3~~12309
ber~~3117
bare~~13623
▁Eat~~12760
▁lobbie~~10570
▁hin~~11376
▁filmmaker~~2005
▁him~~2370
▁Coul~~11895
▁Washington~~2098
▁slack~~5178
▁hid~~2233
▁referr~~1211
▁superinte~~11548
▁LGBT~~7918
ventil~~13440
▁obsolet~~5998
▁hit~~2515
▁hir~~8534
▁his~~330
▁hip~~3170
▁arsenal~~13219
▁Hampton~~9323
▁footprint~~7056
ark~~8899
▁painting~~6067
▁chord~~11459
▁collaboration~~1198
▁Barack~~8513
▁wit~~6696
ably~~1983
truck~~6621
▁summ~~5297
▁Equ~~12587
▁Foto~~14692
▁shoulder~~3026
▁violent~~42
▁Midwest~~4949
▁pathetic~~7972
▁promote~~1100
connected~~10693
▁lattice~~9012
awa~~7642
ure~~4556
urf~~6703
urg~~1478
ura~~2873
▁Australopithec~~7656
insky~~9463
uro~~5755
▁bald~~5712
▁terminal~~4971
▁secure~~5489
▁deeper~~2933
inda~~8961
▁Aldri~~12614
▁Brother~~7169
ury~~2918
▁reckless~~11267
▁extensive~~3027
▁unexpected~~5842
▁consultant~~8142
▁Lama~~7827
▁flash~~7197
▁Emotion~~11765
inister~~11825
▁Enlighten~~12270
▁discriminati~~8626
▁frank~~3978
elecommunication~~4902
▁Team~~13619
▁discriminate~~8731
▁Name~~12530
▁oil~~2504
▁franc~~11775
▁hardest~~2784
▁Baby~~6515
▁City~~3717
▁devastate~~10385
(~~13047
rash~~4248
▁sequester~~11696
▁specialize~~5659
▁Gho~~12444
▁Armstrong~~4666
▁Hut~~7600
libri~~7554
▁missile~~3254
mortality~~5413
▁neglect~~1539
▁torch~~3903
▁protocol~~5615
▁Perry~~12371
▁odor~~9730
▁mice~~5351
▁Galler~~8127
variabl~~13300
▁alumin~~3824
▁Klei~~14243
▁headquarter~~9770
▁1920~~10080
kong~~14437
▁mathematician~~11077
▁coerc~~13235
evolution~~11191
▁slight~~1559
▁symbolic~~5453
▁indoor~~9303
▁Personal~~11152
gras~~13022
grat~~11013
▁synapti~~11230
gram~~8473
ification~~4463
▁Homer~~7699
▁faithful~~4544
grad~~2661
▁engineer~~5666
▁output~~4900
▁vagina~~9727
▁according~~2815
▁Heiz~~13117
▁Messer~~9331
computer~~6832
▁Sun~~8568
▁Roche~~14264
▁Sub~~8281
▁metric~~6006
▁uranium~~12488
▁Tu~~7247
▁faster~~1355
▁generous~~7990
▁confusion~~6445
▁Brooklyn~~6779
▁halte~~14361
uuu~~14246
state~~3708
▁virgin~~7202
tte~~5694
▁wise~~4542
▁plea~~5142
▁wish~~2041
▁eco~~7260
▁superficial~~12928
±~~13455
Station~~13127
ken~~2669
kel~~11282
kei~~14130
▁Movember~~12740
rock~~9504
▁Mama~~10843
▁gil~~14253
▁revolutionize~~2533
▁Rad~~13260
▁flick~~6887
▁impressed~~8098
ker~~8654
▁Pantheon~~14544
▁erupt~~502
▁commit~~2628
▁anxiety~~8753
▁Rag~~9714
▁North~~1420
▁bilateral~~13867
▁stagna~~4891
▁geometric~~6309
▁perform~~1366
▁breathe~~4208
▁appear~~2235
▁Palestinian~~9759
▁las~~14030
▁legislat~~11515
▁lap~~6109
▁Afro~~14494
Fiction~~14575
▁challenge~~1251
▁evolve~~3063
▁Rao~~13189
▁appeal~~8056
▁effort~~1617
▁reuse~~8995
▁Barbie~~12877
93;~~2380
▁Richter~~13134
sari~~6034
▁gerontolog~~5305
▁1.8~~11993
▁fifth~~5355
▁130~~1825
▁fec~~9740
▁fed~~2225
▁fee~~3397
cent~~6026
▁Dong~~8064
▁Psychopath~~14580
ulate~~6989
▁Sara~~5671
▁trend~~2601
▁nois~~3149
▁key~~1147
▁fifty~~5889
▁flat~~6172
▁suspens~~9682
▁daunting~~7770
▁few~~1769
▁immer~~9009
▁contrar~~8704
▁collection~~2866
ota~~10196
▁Paradi~~13133
▁Nicole~~7015
▁Taschen~~12913
▁creation~~3192
▁branch~~6248
▁engage~~2314
▁Lean~~14598
▁Leah~~7914
▁Hillis~~12731
▁Kern~~14436
▁tomorrow~~755
▁reduction~~4280
▁1.1~~7492
▁Abbott~~12018
▁firing~~5813
mega~~11870
▁facilitator~~11569
▁clap~~10495
▁converse~~11261
▁clar~~7514
▁glove~~2491
▁claw~~607
▁input~~3024
▁doubt~~4390
▁Bonnie~~12063
▁cement~~7570
▁Ork~~13919
▁shell~~554
hbab~~13291
▁poetic~~8349
▁Virtual~~6125
▁piss~~8204
▁precursor~~12934
▁submerge~~9756
▁resin~~9094
fallen~~14450
▁Hurricane~~6622
finance~~11260
orbital~~9025
▁Spin~~9029
▁sick~~807
▁Georgetown~~9722
▁furnace~~11694
▁TB~~11972
▁slow~~1210
▁slot~~8211
▁warehouse~~4953
▁depress~~10831
ultiplayer~~2733
▁defi~~5921
▁resume~~12402
▁sniff~~8696
▁Guatemala~~13946
▁camera~~183
avian~~9660
absorb~~2336
▁Nagel~~9826
▁ambassador~~3326
▁Haut~~14543
▁Popcorn~~14332
▁concentrate~~3508
▁anecdotal~~11533
isco~~11158
▁degree~~401
▁ob~~8325
destruction~~7999
rift~~6670
▁eradicat~~4203
▁categor~~5380
i~~2252
▁piece~~439
▁OMG~~12671
▁cub~~6691
well~~2073
▁whiske~~11436
finishe~~6072
welt~~4256
▁Physi~~12339
scha~~14539
▁cup~~6566
▁cur~~4816
ified~~2004
▁cut~~3830
▁picnic~~7964
schi~~13113
▁partnership~~4219
▁grad~~4951
▁grab~~546
▁Pakistan~~4373
▁select~~1028
▁gram~~7272
▁Phillip~~13660
dose~~4435
▁Times~~5874
▁harder~~3701
▁Knight~~10507
▁third~~2667
▁gras~~13954
▁coyote~~7973
▁gray~~9969
Be~~6892
▁improbab~~11624
▁trailer~~3785
▁circuit~~9820
▁col~~11295
▁also~~213
▁microscop~~6321
▁squid~~315
▁Gecko~~14022
▁NPR~~13208
▁Nadel~~14691
▁bump~~2966
▁crowdsourc~~12927
▁uninten~~10348
▁spoken~~6750
▁Moderator~~12060
▁bumm~~11957
▁charge~~4122
urkey~~7620
▁Röntgen~~14395
▁engaged~~2854
▁serious~~775
tles~~15
▁Democratic~~5223
▁Ambassador~~8957
▁battery~~4612
▁capture~~25
▁sum~~3754
▁21.~~14743
▁sun~~519
▁Shim~~12260
▁Shin~~12247
▁sub~~345
▁sue~~7081
page~~9350
▁pot~~7340
▁pop~~3190
omorrow~~11814
▁breath~~4209
shea~~14666
▁Israel~~2219
▁racis~~6283
▁effect~~2850
▁corridor~~8932
▁modern~~3557
▁für~~14121
motive~~9311
▁toothpaste~~9411
▁pol~~9296
home~~4185
▁Glass~~5808
homa~~10242
vril~~14649
ROM~~9616
broad~~4465
▁duct~~7125
traumatic~~9837
▁troubling~~12783
▁autonom~~7013
▁duck~~9564
▁thou~~8168
▁veg~~9216
▁Satya~~13713
▁crania~~12840
▁pavement~~10008
ntercept~~14652
▁portrait~~6084
▁hidden~~2203
▁Khali~~14651
▁engag~~7532
Up~~3473
▁messenger~~1265
▁astonishing~~2459
▁Broad~~13085
▁alarm~~5774
▁brillian~~7463
▁embody~~11605
▁particular~~1480
▁late~~1402
▁Ramadan~~14083
▁Curt~~7743
▁Pla~~10544
▁separate~~3426
▁grace~~10420
▁shout~~3095
▁Canyon~~7450
lbatross~~3442
▁aller~~11111
▁Reservoir~~14732
▁ASCAP~~13428
▁rotation~~10923
▁vicious~~7868
▁exceptional~~4310
▁litera~~7893
▁axe~~7721
▁Tests~~13667
▁Koch~~14477
▁butterfl~~10541
▁cyber~~5564
▁imperfect~~5340
▁determin~~6324
▁nett~~8203
▁prepare~~4515
▁amputate~~13939
▁Sein~~10668
▁interesting~~445
▁reinforc~~9440
▁Lunch~~12762
▁baffl~~7464
▁susceptib~~10508
▁mammogram~~7061
atriarch~~11710
museum~~13637
▁distribute~~1439
▁scene~~1943
inner~~6153
▁7,000~~2186
▁Mytho~~8501
▁repressive~~12747
▁embrac~~3605
eah~~3317
ematode~~12600
▁climate~~1700
▁vibrat~~11186
▁notorious~~11889
▁II~~3347
ht~~3420
hu~~5064
astro~~13917
▁vibran~~20
hi~~5189
ho~~4118
▁bridge~~5819
▁indicator~~6575
ear~~4773
eat~~7278
he~~5588
▁Honey~~11965
▁Scrapper~~14632
▁join~~1805
▁Secretary~~11563
▁agricultural~~4895
▁toddler~~11411
▁Zimba~~13382
▁Out~~4502
carriage~~10683
▁random~~6325
▁Cesar~~12423
▁Our~~8499
itis~~4231
▁probabilit~~2622
▁nuts~~7315
Alla~~14734
▁Margaret~~10331
▁Hawke~~11280
▁Stra~~6848
▁dominat~~1521
erin~~13872
▁shallow~~5476
▁represent~~2971
isier~~5764
▁slave~~8610
▁graphics~~6707
▁asthma~~6523
▁implicit~~11371
▁complication~~12553
▁FAA~~1822
▁caution~~9044
▁wind~~4599
▁wine~~2400
▁wing~~5196
▁Tamil~~12546
▁geologic~~10192
▁amplification~~3106
▁pipeline~~5969
▁introduc~~10684
▁Eisen~~9710
▁environmentally~~9706
▁knock~~4625
▁Gaza~~8888
esearch~~3334
▁belly~~4560
star~~4471
▁dad~~2382
▁digg~~7662
▁metastase~~13932
▁probabl~~507
▁frontal~~6474
▁kangaroo~~11823
stab~~9179
▁Note~~13331
▁Maps~~11686
stan~~4619
▁Brazilian~~10270
▁buffer~~10368
▁violin~~11443
▁steroid~~6456
▁includ~~4673
hne~~5848
▁Ego~~13556
▁sneak~~2978
insel~~4658
▁critic~~10711
▁Egg~~6771
▁challeng~~1253
▁seamless~~11892
hnu~~13909
▁JR~~11160
▁3.5~~5485
ysmorphophobi~~14461
▁3.3~~7655
▁Val~~8738
▁Diabetes~~13650
▁Van~~9598
▁Lega~~8885
▁share~~1290
▁recreat~~11414
▁shark~~9537
▁Playstation~~7778
▁enable~~1644
▁conduct~~3003
▁sharp~~9409
▁Connecti~~7160
▁outdoor~~3069
▁plaza~~11066
schmuck~~12781
▁morph~~3972
▁palpabl~~2010
▁prim~~8345
▁diploma~~9771
▁Unite~~1180
▁rhino~~7671
▁shuffle~~12608
ppel~~5503
▁macro~~9013
▁calv~~4520
▁Sergio~~13912
aus~~9147
▁technique~~4572
▁call~~423
▁calm~~6280
▁inconsistenc~~10320
▁crane~~8091
▁homicide~~12567
▁Gehry~~9307
▁Alexandr~~4827
▁Remix~~11132
▁Krypto~~14081
void~~3690
▁fisc~~11354
misunderstanding~~12596
▁many~~812
▁Schneide~~12725
▁Matthew~~9666
▁Shankar~~8782
▁Comic~~14626
▁ghost~~8758
▁Wurzel~~14075
▁shap~~7781
▁camps~~6408
▁goddess~~8784
▁body~~644
▁Dow~~11600
▁studie~~5993
▁income~~9387
▁battl~~8494
▁Arka~~10701
▁laid~~1694
▁neurologic~~14359
▁Don~~7457
▁Doo~~8077
sleep~~5544
▁studio~~5008
▁young~~1362
▁Dod~~11541
ups~~9471
▁bodi~~5463
▁disast~~10994
▁soul~~5574
force~~7753
▁Gibbon~~13890
▁flame~~1289
▁Jabb~~13080
▁nein~~12304
▁bread~~6152
▁Tech~~8237
▁break~~794
▁underwa~~10661
▁meteorite~~13239
▁save~~4063
▁soup~~3500
▁Charter~~11386
▁trust~~1243
▁Nadi~~13150
▁Ebert~~13087
▁absence~~4903
▁useless~~8370
▁grape~~11326
ney~~8078
tipp~~13516
net~~6243
neu~~13426
ever~~1228
▁Walker~~6380
▁collect~~368
▁cu~~4173
▁rats~~1041
million~~4679
▁indefinite~~5289
▁Aura~~11951
drew~~3827
▁surge~~10303
▁railroad~~9184
met~~6972
▁rate~~683
▁Blackawton~~14390
active~~5802
▁cl~~625
▁co~~4959
oshi~~4324
▁Renn~~11811
▁Galileo~~11024
▁Comedy~~13078
▁Erin~~10156
▁audition~~9346
▁Bronx~~4388
▁Eric~~2754
litary~~6278
▁photosynthesi~~9827
▁mailbox~~13105
▁stands~~6571
dra~~5369
▁Pittsburgh~~2690
▁Disease~~9784
▁Bell~~2365
▁roam~~10725
▁pacemaker~~12474
▁physiolog~~10715
▁road~~4266
ippe~~12354
moral~~13209
org~~10252
▁Atlant~~10106
▁Disneyland~~10793
▁dialogue~~7364
▁depressing~~8095
▁batteries~~6626
▁halve~~10412
▁desalinati~~13574
ellow~~11189
call~~5617
▁perverse~~12189
▁uplift~~5183
type~~267
▁Silicon~~6708
▁fabulous~~8327
▁abduct~~7830
▁flies~~1823
▁dot~~622
▁Schott~~14742
▁cause~~2680
▁Lion~~10359
▁illusion~~6343
▁laws~~4037
▁don~~375
V~~5157
ward~~2075
ware~~7255
▁burden~~6618
▁dog~~3730
▁Force~~4497
▁AIMS~~14048
room~~2076
▁steep~~6427
▁Trag~~14326
▁Michigan~~4945
worth~~10245
▁Male~~13146
▁networks~~3735
▁Date~~13611
▁light~~259
▁doors~~3967
▁spaceship~~1870
▁Johann~~13377
▁warrant~~11973
▁Spider~~13004
▁homosexual~~7904
▁talks~~2369
Screen~~14368
▁11.~~13814
▁11-~~9813
▁110~~2487
▁culminat~~4166
▁aufge~~14411
rid~~8646
▁caves~~9397
aging~~5291
▁1918~~8172
▁Twin~~11735
quot~~194
▁dealing~~1171
▁marvel~~4190
RCA~~11792
coloniz~~9729
▁Exil~~13097
polis~~2191
▁saying~~734
assava~~14128
▁consent~~11473
▁subset~~10842
▁writing~~2177
▁Dotcom~~6980
▁dispos~~3566
▁item~~4645
▁skip~~6689
▁skin~~3844
▁rabbit~~8531
▁Smoot~~13759
▁Andy~~6498
▁potent~~4247
shaw~~10675
▁Swa~~6723
▁fuse~~5665
third~~3507
▁interactive~~6185
▁date~~4181
▁disseminat~~4982
▁astronomer~~8350
▁data~~365
think~~9199
▁twitter~~13639
▁pickle~~11428
▁laminate~~3789
▁hectare~~3587
▁Diagnos~~12719
▁juncture~~13577
▁Davi~~9736
▁chop~~10074
▁repress~~8144
▁Hospital~~2919
ueen~~7816
▁arteries~~1877
▁refuge~~13149
▁coup~~7476
lumni~~9555
▁autops~~11769
▁Eigen~~14518
▁mutual~~3238
▁Phoenix~~10361
▁chok~~3342
tched~~3198
▁secretar~~7142
▁heritage~~6052
▁slid~~9262
osi~~9801
▁enslave~~8143
▁roast~~8680
▁slim~~4837
▁slip~~4507
▁inexpensive~~10609
▁avail~~4860
▁Element~~10884
ologie~~14564
▁skateboard~~3867
▁teeth~~5723
▁hotel~~5234
▁erase~~11236
ania~~7354
▁digital~~4604
▁Zone~~13865
▁ironic~~5837
▁Snoop~~13483
▁patron~~11319
▁unsustainabl~~3606
▁content~~2740
▁unto~~3538
▁Calcu~~5886
▁plent~~2597
▁counter~~5543
▁towel~~5033
▁tower~~1814
▁Digital~~6170
▁anatomy~~1881
▁Beijerinck~~14112
went~~952
▁upload~~7394
▁Dictionar~~9170
side~~3644
bone~~6731
▁predator~~4171
▁These~~5018
▁enabl~~8542
balone~~10181
▁charm~~8353
▁Mulli~~9365
▁dishe~~3361
aida~~14180
▁Tasmanian~~11821
▁Stefan~~10205
▁stratospher~~12257
▁example~~813
ISA~~6053
▁veterinar~~13011
▁reus~~7593
▁BM~~14362
▁productive~~3616
▁logarithm~~11487
▁curiosity~~2738
▁accomplishment~~12075
▁Novocure~~12939
▁restaurants~~5518
manda~~4725
▁assign~~6853
▁since~~1463
▁embarrass~~4792
India~~11915
linear~~9613
Dodi~~12908
▁things~~231
▁Leonardo~~6016
▁Beijing~~7889
Planet~~13284
▁Bu~~4539
▁Brillian~~12547
▁classifie~~9663
▁users~~6729
▁unravel~~5673
▁unlock~~2836
▁identify~~4143
▁Tutor~~6821
logging~~11209
▁medi~~7765
▁Drama~~8401
▁pinpoint~~10454
▁retard~~6585
▁fellow~~4642
ist~~2061
ish~~3461
fleck~~14273
▁neural~~1093
ism~~472
rinde~~13270
▁Corbusier~~12690
▁activat~~7730
ise~~2154
▁Rob~~6424
▁bystander~~12101
▁Blog~~11962
▁pay~~1488
grade~~5441
▁paw~~3631
▁models~~1794
▁par~~5585
▁adjust~~4491
▁pan~~4991
▁pal~~3002
▁disruption~~9436
▁Spot~~6912
cher~~9004
▁pad~~4632
▁pac~~4169
hood~~4394
▁erziel~~14421
▁Dunlap~~14581
OT~~11274
▁Rod~~10735
▁lightbulb~~11206
▁Fight~~6048
▁Modern~~8500
▁peel~~9615
▁smooth~~2510
▁transmitt~~6489
▁prosper~~12248
▁quarrie~~12392
▁malignan~~11857
consistent~~12801
▁bicycle~~8979
▁plausib~~11229
▁vent~~449
▁probiotic~~9734
▁Sich~~7625
▁capitalist~~12166
▁Robotic~~9231
▁minus~~3312
▁exposure~~6555
▁enhance~~10494
▁Slow~~5078
▁capillar~~13367
clamation~~4980
uction~~6816
▁slum~~2072
ference~~4574
requisite~~4051
horn~~9870
▁chemist~~1705
▁Slam~~14504
▁lava~~10803
distance~~12391
▁version~~2592
▁taxpayer~~7094
▁musical~~1079
▁shows~~1357
▁sprinkle~~10601
▁couch~~1898
▁seek~~201
▁seem~~2926
▁finite~~5067
▁seen~~81
▁Leban~~3284
▁seed~~9230
▁Tata~~5641
▁children~~1440
▁Exxon~~12194
▁trait~~10727
▁afr~~2505
mino~~8365
modern~~5004
▁Critic~~14201
▁fell~~3909
▁Kanzi~~14528
▁nerd~~6733
▁keep~~2790
▁train~~921
▁trail~~11036
seek~~12030
▁opt~~9831
▁oven~~10419
▁arch~~5526
▁fence~~9444
▁intertwine~~9142
▁Interviewer~~13492
▁mammals~~6578
▁definition~~660
▁Oakland~~6614
▁dinosaur~~9638
▁over~~389
▁axis~~459
▁brings~~2927
▁Bronze~~14089
koko~~14244
▁Diego~~6051
▁girl~~3262
▁mortal~~11106
▁festival~~10477
▁Kenya~~8589
marin~~5030
▁republic~~10737
▁cellulos~~4677
regulat~~4043
▁Happiness~~8988
typ~~8850
▁Limo~~13991
▁stroke~~2911
▁99~~4279
▁98~~5995
don~~5586
▁Morton~~1696
dom~~9808
▁93~~5230
doc~~5699
▁ensure~~1665
▁90~~1350
m~~63
▁96~~9887
▁95~~4350
▁94~~10619
▁9.~~9559
▁joke~~3721
▁rediscover~~1227
+~~2834
▁vodka~~13217
▁Stein~~10910
▁escape~~3817
▁gourmet~~9217
▁Toten~~14510
▁senior~~4584
▁proverbial~~13758
▁opposition~~7901
▁freeze~~5447
▁expressive~~3028
▁feature~~1516
▁encompass~~11529
▁conspirac~~866
▁will~~572
▁Ashaninka~~13347
▁Marathon~~13256
▁Japan~~1607
▁Fil~~7941
▁recess~~960
▁wild~~3524
ahara~~14195
▁synesthe~~12966
▁Tool~~13920
▁afford~~1447
kul~~12142
▁Tasmania~~11824
▁blush~~12352
▁absurd~~757
▁dial~~4972
▁Mark~~4823
▁Mari~~10614
▁experiment~~2612
▁Amsterdam~~13101
▁gene~~924
▁landmark~~6658
coast~~9294
▁Hubble~~11038
▁Novo~~11243
▁Glasgow~~13842
▁stressed~~7458
▁Marx~~7943
XY~~6081
▁Marv~~9351
▁highly~~1589
▁Nova~~9578
▁Mars~~6398
▁profession~~1492
▁Linda~~12499
▁soccer~~1126
ggression~~5470
▁promot~~1196
bar~~8001
▁repeat~~4785
▁300~~299
▁terrifi~~4205
▁employee~~1220
ucci~~8419
bad~~7923
▁champion~~2356
ssors~~9401
▁volume~~3092
▁Great~~2245
bal~~8441
▁30-~~4523
▁employer~~1216
▁brown~~3946
ethical~~7509
▁reconfigur~~13828
▁Foster~~12639
▁like~~121
▁Hobbes~~11599
▁Indonesia~~10141
hypnoti~~12681
▁suit~~2595
▁Apple~~8096
▁50,000~~2498
▁Prize~~5401
▁shape~~1938
▁observe~~2962
▁Appli~~8576
▁Musk~~12161
00~~3481
06~~11839
05~~6128
▁reflect~~1604
▁renew~~5066
▁Crime~~11355
▁WorldWide~~14468
Choice~~14049
▁Wann~~14520
▁desperate~~4315
ZE~~10235
▁Otto~~13125
▁Wang~~12237
▁apathy~~10468
▁Blick~~12929
▁HyperCard~~14345
C~~1729
▁Dia~~12420
Central~~395
▁death~~277
ome~~5643
▁ventilat~~12958
▁Atkins~~13033
▁Biomimi~~14062
▁personal~~1263
▁confrontation~~10557
▁secular~~1971
▁Alice~~11315
▁Dir~~12948
▁Dis~~11716
▁continu~~5374
▁romantic~~9171
▁professor~~4698
▁outsourc~~12230
▁spreading~~6490
unt~~2207
▁sho~~3494
▁universal~~785
▁principle~~2125
▁mistake~~3463
against~~398
una~~11370
▁Palo~~3893
▁Palm~~8604
ung~~1571
▁boast~~13968
▁Pala~~6029
unk~~6446
▁climax~~12613
▁Area~~6857
▁lake~~5449
▁smile~~7517
▁humble~~5466
▁disappearing~~5570
▁exquisite~~4835
▁Wired~~9232
▁Bang~~5786
▁employ~~7383
▁Band~~2561
▁Wiki~~12210
▁latter~~2197
▁poetry~~4820
▁rural~~2020
▁legs~~2600
▁NASA~~5803
▁mutilat~~11762
▁wizard~~13232
▁India~~4290
▁contribute~~1710
three~~9475
tiny~~629
ting~~416
▁inter~~2367
▁Dennett~~10904
äcke~~14521
interest~~7077
▁wandering~~3650
▁enlist~~8524
▁as~~204
▁Ellen~~7939
▁jerk~~4744
▁corrupt~~9919
▁at~~116
▁modalit~~10836
▁genetically~~6958
▁media~~1593
▁ac~~8711
▁ab~~4624
▁veterinarian~~9737
nowledge~~8971
▁ag~~5408
tradition~~11609
▁an~~322
▁rare~~3559
▁al~~693
▁refus~~7404
Ch~~11082
▁watershed~~8562
arawa~~12139
▁invert~~11707
▁USB~~13021
Dollar~~13674
▁decode~~10053
▁damage~~5028
▁stereotype~~10044
▁argue~~1678
▁County~~11550
▁scaling~~12809
▁implie~~5683
Capitol~~10740
nsky~~12401
▁fo~~3197
▁marry~~8003
▁sometime~~4777
seven~~10006
▁plan~~3731
▁Scottish~~9302
iq~~14671
ip~~3684
▁desir~~5057
ir~~3580
it~~2157
▁spot~~1884
iv~~1151
▁marri~~4746
ik~~7659
ij~~13829
im~~4697
il~~3118
io~~2046
in~~346
ia~~2895
▁rock~~626
ic~~48
ib~~4740
ie~~2715
id~~1568
ig~~1239
if~~4170
▁gel~~8258
▁geo~~9952
▁Raphael~~12098
▁dig~~6695
▁did~~484
▁die~~2000
▁candy~~9441
erebral~~3001
▁delighted~~8598
▁Bush~~5893
▁dim~~7684
▁dir~~13000
▁dis~~2152
▁dip~~11181
▁div~~9082
▁get~~178
▁crows~~8186
▁Colli~~9505
elli~~10658
▁hiccup~~13596
▁constant~~3007
ella~~11307
▁cogniti~~1104
▁Arhuaco~~13408
▁squa~~11720
kin~~4712
▁drivers~~10846
▁reply~~8606
▁blade~~7201
▁operational~~8716
▁message~~786
▁province~~8769
▁premature~~6531
▁hexagon~~8693
▁Cultur~~11934
▁cassette~~8730
▁prohibition~~13432
▁pellet~~3377
▁baseline~~10736
▁upgrade~~9384
▁electron~~8305
▁Venture~~13356
▁Teszler~~14593
▁Krosoczka~~14300
▁Cal~~6135
▁Angelin~~13339
human~~7222
▁Sri~~7494
▁figure~~1645
▁seine~~14164
▁racial~~8449
▁detail~~1486
▁seren~~6279
▁fax~~7445
▁paralysi~~8998
▁shoe~~9345
▁fat~~7083
▁dictionar~~10158
▁influence~~2556
▁flex~~1912
▁far~~624
amara~~12033
▁shop~~3560
▁repertoire~~7919
▁show~~83
▁shot~~2071
▁LinkedIn~~9909
▁ABC~~13385
▁George~~3997
▁crocodile~~10137
▁Save~~8615
▁advent~~10383
▁fac~~4795
▁circuits~~1908
▁Tennessee~~10098
▁larva~~11199
▁rigorous~~3980
▁matter~~87
▁Michoac~~13378
▁Sandwich~~9352
▁airport~~3385
▁Original~~14194
▁divine~~8173
performance~~11978
▁homes~~665
▁orgasm~~5115
shoulder~~6831
▁obes~~3598
Art~~13839
▁much~~200
▁maneuver~~1833
▁Square~~8601
▁redundan~~11275
plica~~9109
▁equit~~1429
▁sausage~~5446
Arm~~12347
▁equip~~1813
www~~12712
▁honeybee~~11723
▁kg~~7293
▁chat~~4575
▁cows~~3741
▁chap~~8937
rtiller~~12155
▁Data~~12207
▁chas~~4715
▁abuse~~4386
▁participator~~8522
▁worry~~5281
▁believe~~1226
▁Puls~~13415
▁Federal~~10738
▁melde~~14449
▁Kal~~10870
▁Mathematica~~11801
▁translate~~1375
▁prescription~~1642
▁Australian~~10215
loyd~~12035
▁quart~~8896
▁badge~~11979
▁emission~~9023
▁hammer~~3939
▁sign~~2651
burg~~2413
▁Village~~9937
▁Schl~~1303
▁fragrance~~10039
burn~~8555
▁Conno~~10529
▁manifest~~771
▁degrad~~5428
▁cursor~~8460
▁Schw~~12495
▁monkey~~6962
▁Teller~~9259
▁clarif~~10456
▁kids~~882
▁Cambodia~~6223
▁rigg~~12865
▁99.9~~6308
▁emotion~~2812
orex~~11232
▁ugl~~7540
▁kidd~~5781
▁flori~~12271
=~~12595
▁encouraging~~1199
▁affect~~899
ć~~14190
lief~~9611
erra~~11901
▁inside~~344
▁cosmologist~~10756
▁contradict~~9796
▁anecdote~~7675
▁hyperbol~~5899
▁innovat~~11269
▁encrypt~~9894
▁Vanco~~7744
▁tick~~2341
tennis~~5693
▁empathy~~5690
▁hurdle~~10126
▁Bull~~8392
▁Montag~~8461
▁wings~~7004
▁guard~~10647
▁slope~~9956
▁Solidar~~10278
bert~~5960
DNA~~8853
▁Coach~~8074
form~~8107
▁too~~707
ampaign~~12239
analyse~~7296
▁companion~~8016
ford~~4540
▁expert~~3012
berg~~6116
▁agreement~~7407
▁Flor~~10142
▁top~~386
▁Liberal~~13400
▁fantasy~~2176
▁Namaste~~11752
▁wilderness~~13137
▁sometimes~~3098
▁dense~~452
▁collide~~10640
▁Mount~~6385
▁nin~~4339
▁Bug~~13362
▁evil~~7351
▁gab~~14119
▁uprising~~1286
▁transformative~~2038
▁drill~~9650
▁Gilli~~11079
diagnose~~8675
▁maze~~6412
▁percentage~~849
▁resolve~~4365
▁motel~~13207
kor~~13104
rmostat~~11179
▁shake~~2799
▁protocell~~14138
▁plume~~10818
▁sheep~~3679
▁domestic~~4993
ship~~2408
▁vocabular~~3816
▁crawl~~669
▁pleasure~~3220
handel~~2945
▁chart~~1408
▁40,000~~384
▁Pluto~~11219
▁Mehr~~14315
▁cognitive~~5429
▁PMTCT~~10381
▁drought~~10033
▁unregul~~14139
▁mistrust~~11244
▁amphibian~~6535
▁SARS~~4284
▁protein~~3963
▁else~~1335
felt~~2720
▁concept~~760
▁financial~~1675
▁painful~~2567
▁Islam~~12053
▁Marshall~~6854
▁fascinate~~5558
▁Inuit~~13172
▁aristocra~~10733
billion~~751
▁task~~1046
▁flora~~11010
▁Nest~~14633
▁Ashdown~~13630
▁Chaplin~~10900
▁ladder~~6416
▁suburban~~10350
▁idea~~141
▁fanc~~9176
▁fang~~13183
▁Pilot~~13786
▁responsive~~8197
▁dressed~~6439
▁Lava~~14577
▁structure~~533
▁Londoner~~13491
▁Giuliani~~13677
▁might~~1042
▁peculiar~~4908
invent~~7841
▁mandate~~4183
mile~~385
▁add~~2853
▁hallucination~~8649
▁incorporate~~7191
▁wrong~~2201
▁journalist~~1850
marke~~12490
▁outline~~4846
▁Hot~~6921
▁doctor~~1157
▁How~~4424
▁Hol~~6451
0~~6392
▁Hoo~~1949
▁phenomeno~~3926
▁countries~~1312
▁padd~~11009
meister~~10207
▁phenomena~~9618
▁precious~~6746
Rex~~13161
▁Hob~~6880
▁cru~~9353
▁private~~2709
▁indigen~~8879
▁Excel~~12048
▁sentiment~~7545
▁anchor~~3535
▁bother~~2559
▁facilitate~~10707
▁SOPA~~13561
▁cry~~3263
▁Philip~~9235
▁problem~~99
▁conservation~~765
▁experien~~14039
▁expend~~11095
▁4.000~~7435
▁precis~~3014
▁Hussein~~11381
die~~9319
▁Standard~~6049
▁Age~~5185
▁distant~~1318
▁sprout~~12208
▁tur~~11625
▁Agn~~11566
round~~4138
dis~~4974
ville~~3090
▁academic~~2319
villa~~6876
▁abstract~~2582
▁mammoth~~6905
▁bra~~9788
worm~~10153
▁result~~847
▁tree~~6246
▁delicate~~10726
▁postcard~~7447
▁iPod~~1510
▁Give~~2721
bacterial~~2531
▁trek~~4255
▁metabolic~~6486
ssig~~5964
oyle~~6701
etchup~~9497
▁Tibet~~6226
▁Wehr~~14396
▁merchant~~4918
▁stell~~13361
▁Wander~~13543
▁Aber~~13923
▁mammalian~~6957
▁oops~~4218
▁pebble~~10138
▁careful~~1632
▁mixed~~9204
▁Math~~11914
▁extension~~5255
▁Cameron~~4361
▁blown~~6423
▁Casa~~11608
▁disintegrat~~591
▁den~~3214
▁30,000~~8981
▁unpack~~5494
▁Cash~~12529
▁That~~1017
▁feasib~~5253
▁cheese~~9211
▁dice~~9065
▁dick~~10344
▁Guinness~~6036
▁Malco~~7101
▁Matt~~6186
▁detection~~7060
▁promis~~2438
▁fully~~5798
box~~3168
▁Verb~~13972
▁military~~1831
▁procedure~~7245
▁alert~~5032
shift~~5435
▁enforce~~4053
bot~~7000
bou~~7953
▁authorit~~1252
▁tenure~~11849
▁phone~~1007
▁Group~~4706
▁ganz~~13472
▁alcohol~~8405
▁authoriz~~4125
achi~~7977
▁Wald~~12970
▁lunch~~1266
elect~~1031
▁attachment~~7991
▁hot~~478
▁Wall~~7342
▁how~~214
▁hop~~5866
▁Walk~~10211
▁Allen~~10515
▁hol~~3126
▁everywhere~~787
▁hoo~~10906
▁nudge~~8233
▁reassur~~8674
▁humanitarian~~4240
▁shave~~12168
▁hob~~6835
▁lies~~143
▁Bubble~~13990
▁wake~~1280
aya~~9093
▁reorganize~~13198
▁thin~~5639
▁Alexander~~8155
▁definitiv~~10465
ailway~~13800
▁mangrove~~13489
▁Nerv~~13756
ood~~320
▁Africa~~3101
sharing~~2931
▁flavor~~4082
▁disturb~~7107
oon~~4595
▁analysis~~1218
distribution~~8978
ook~~4963
▁holding~~879
appen~~13449
▁pleasant~~1504
▁squirt~~10598
▁Dollar~~13017
▁VIP~~10932
▁previously~~4192
apped~~8011
▁Beach~~3390
▁suppress~~7367
▁yester~~3394
▁pesticide~~6533
▁southern~~4341
▁thoughtful~~2169
▁Taliban~~4596
▁mention~~3636
flu~~8967
ult~~3661
▁Hebr~~2575
▁Hohe~~14234
flo~~3386
making~~1110
▁Ticket~~13480
▁Ha~~961
▁Bali~~10328
▁semina~~9520
▁underst~~319
▁Ball~~7050
▁stitch~~7984
▁exciting~~97
▁mediate~~7363
▁reduc~~7583
▁found~~689
▁image~~3248
▁Muh~~10887
▁tele~~4573
irport~~5506
▁pioneer~~4025
▁substantial~~10125
▁Jura~~5906
▁tell~~68
▁rape~~8042
▁size~~291
▁college~~3994
▁Histor~~6178
apster~~11101
ido~~9717
▁committee~~11342
▁philosoph~~1992
ping~~334
idio~~3864
▁throat~~11027
▁Simon~~2959
▁Will~~2250
▁shift~~3034
▁multiplic~~11486
mat~~6549
▁interact~~1050
▁Wild~~6265
▁Wilb~~8612
▁desert~~4829
▁Bachelor~~5495
▁go~~337
▁rebuil~~7622
▁fantastic~~2865
mah~~7928
▁environment~~310
▁exhaust~~6442
▁ge~~1991
grow~~7233
▁guten~~14073
man~~2446
▁reconcile~~7846
▁Georgia~~10140
▁exten~~3191
▁Kha~~6888
▁Nelson~~8627
q~~7845
▁Frankie~~10326
▁Golf~~13929
▁Danny~~12730
▁Cathe~~7468
talk~~9461
▁Enrique~~9819
▁gambl~~11619
▁Standards~~8715
ische~~13852
▁unite~~7689
▁overwhelm~~8800
▁Sylvia~~4076
immer~~131
immel~~14684
▁target~~1688
▁sparse~~3415
group~~2696
monitor~~13891
▁mum~~6467
▁Like~~4897
▁guerrilla~~10692
▁Horizont~~13864
thane~~1780
▁vertical~~3950
▁Ram~~7857
▁gauge~~9433
▁mud~~2502
▁Cyber~~9891
▁Government~~3764
▁lollipop~~13647
▁Rat~~12987
▁sexual~~4446
mail~~9130
▁Mut~~11893
▁geschützt~~14407
▁neurogenesis~~14639
▁memes~~11749
▁buzz~~3205
▁skills~~1047
▁coffee~~932
▁Canc~~8790
She~~5737
kka~~8105
▁13.~~11452
▁Commandment~~2643
▁smartphone~~5997
▁Trick~~14152
▁breed~~6102
▁symbiotic~~3752
crypto~~7996
▁most~~41
▁reduce~~1564
▁describ~~10929
nick~~10882
▁Sata~~14251
▁40-~~7132
▁DNA~~3961
▁partner~~208
▁fatty~~7086
▁Gute~~14631
▁Container~~13460
▁401~~14352
▁400~~1739
girl~~12528
▁Brian~~3543
▁404~~12561
▁categorize~~8838
▁fist~~4588
▁Lego~~8398
▁shak~~4260
▁restore~~2910
titution~~13399
▁talent~~1344
▁punish~~8390
pock~~2151
dioxide~~10204
▁Keith~~10582
dominate~~12545
▁fish~~237
correct~~5955
▁1890~~10973
▁number~~690
▁plaque~~10781
lag~~8283
▁FreeSpeech~~14725
G~~3065
ory~~3407
▁basis~~4142
ort~~5288
▁repeated~~2718
ors~~2221
▁terabyte~~12280
▁Story~~5051
▁gentlem~~4352
▁Essay~~14066
fusion~~12943
ork~~3795
ori~~8299
▁clon~~6971
▁basic~~362
▁Stern~~11470
gott~~13925
▁Mick~~7368
MF~~11923
frequenc~~12398
App~~12003
▁payoff~~8547
▁relation~~8958
oscope~~10493
Khmer~~13967
▁entitle~~4863
▁transmission~~9002
frequent~~8471
▁cel~~11025
▁entry~~8070
▁flexibilit~~7178
▁genocide~~2132
▁vivid~~6078
▁BR~~12922
timation~~7262
▁BP~~12190
▁sole~~6611
▁convey~~3030
▁Dave~~64
▁worth~~1812
▁BG~~4374
▁Olive~~14135
▁BB~~12630
▁BC~~8124
afel~~14085
▁BL~~491
▁dried~~8797
▁streets~~1372
▁profile~~6421
▁Office~~11338
▁spoof~~13652
▁corporations~~3603
▁Br~~4567
▁guitar~~2881
modernism~~10631
▁Sport~~10669
▁Be~~2305
▁classify~~4722
▁unpredictabl~~11572
▁disorder~~9432
▁Ba~~3409
▁Bo~~3776
speaking~~11678
▁Bi~~4347
▁regulation~~6969
▁Schwartz~~13203
▁idiot~~1000
▁commercial~~4226
▁hurry~~2228
▁Pentagon~~11734
▁mosquito~~9652
▁cruel~~9705
▁airplane~~7842
▁sanit~~4349
▁sensitive~~731
ttle~~5143
▁useful~~2262
11~~6055
10~~4483
▁wrist~~2268
12~~5822
15~~7746
14~~1820
17~~8170
16~~9325
19~~3648
18~~10083
▁inflat~~12325
▁solv~~5990
▁calendar~~8927
protected~~7387
▁chief~~8013
▁needle~~10159
lich~~13918
lick~~7581
▁drank~~11585
DG~~321
mitte~~14313
▁September~~2982
▁collaps~~13170
portrait~~11959
▁coloss~~10399
DP~~833
▁immens~~14644
▁fruit~~4874
▁skirt~~2232
▁Licht~~10241
▁neuromodulator~~14749
able~~650
▁20.~~12829
efficient~~4886
▁time~~427
▁20-~~12032
▁profitable~~9418
▁essence~~7104
▁magical~~3562
▁elect~~7331
▁Hungarian~~12058
green~~9866
orado~~12846
▁Magnet~~14381
▁compartment~~10681
▁tip~~547
▁surgeon~~4759
▁egalitarian~~12344
bett~~14055
track~~3378
▁Form~~12716
▁imitat~~9076
incidence~~6518
▁Cromwell~~14282
paid~~2681
▁restriction~~1262
▁victor~~6108
▁tie~~4669
▁filament~~615
▁typical~~2760
▁apartment~~7453
▁banne~~4644
▁friendship~~6145
▁interview~~4896
▁Methodi~~14092
angst~~12150
▁sheet~~2613
▁Schwei~~9654
▁River~~4325
▁accumulat~~4685
▁Gran~~8887
▁Kapital~~14610
▁grosse~~13567
▁hybrid~~6342
▁chemistr~~1839
▁drink~~3124
▁decided~~2611
shop~~9140
WF~~11202
▁Benjamin~~5069
shot~~5198
▁Hendri~~12315
▁geological~~10184
▁gang~~6997
▁seawater~~3424
▁crutch~~4308
▁Barbar~~9030
▁differentiate~~1621
▁nightmare~~3885
▁Ventur~~11365
▁implication~~4910
▁precipi~~10146
▁Ludwi~~12211
▁peaceful~~5477
ubert~~8362
▁this~~59
▁repair~~5376
kilometer~~4075
helix~~9269
▁billion~~705
▁ignor~~13443
▁Progress~~12772
ger~~3360
▁netter~~12403
▁polar~~7864
importe~~13922
▁optim~~11178
▁arriv~~3657
▁optic~~5630
▁fall~~3094
▁architect~~3550
▁renovat~~6802
resistan~~8292
▁tightly~~9213
▁seat~~3902
▁calci~~9658
▁concern~~1554
▁seas~~3329
gel~~5295
▁bash~~11075
▁bask~~2792
▁allow~~1892
intuitive~~8270
▁Portrait~~12099
▁bastard~~10446
eller~~9091
▁valuable~~2286
▁base~~3512
▁generic~~5239
▁Opera~~2868
▁event~~3696
▁variation~~1475
ercover~~14220
▁bass~~3182
▁cough~~13985
▁grain~~3574
▁sold~~3564
▁cattle~~4755
▁Fif~~10955
▁solo~~2442
▁reflex~~3265
▁hollow~~11709
▁Angeles~~5505
Tipp~~14057
▁fraud~~10095
▁Punk~~14303
▁hole~~975
▁hold~~1118
▁Grad~~11557
▁Organization~~8278
▁fabric~~7957
▁Journalism~~14753
▁learning~~746
▁paycheck~~12314
▁commodity~~3738
▁integral~~7828
▁stink~~10434
gaga~~14221
▁Gras~~11220
▁integrat~~3863
▁fracture~~10193
▁commoditi~~2141
▁submitt~~5915
▁Furch~~13924
▁pathogen~~5378
▁jogg~~11948
▁carbon~~4032
parent~~8848
ju~~2420
jo~~8820
ji~~7270
tun~~10881
▁envision~~1869
je~~5788
ja~~3410
▁turn~~222
▁pea~~5445
▁bureaucrac~~13086
ivity~~1149
▁stand~~115
▁lamp~~6724
▁cathedral~~3110
▁pen~~4650
▁well~~704
▁per~~515
▁SPECT~~6472
▁bureaucrat~~6924
▁recognize~~2905
present~~10054
▁patch~~4044
▁pet~~2675
▁slaughter~~3680
▁Hara~~12279
▁eclipse~~9579
▁Herman~~6725
▁colony~~11089
▁queer~~7913
▁transform~~871
▁commercializ~~9849
▁Joel~~11194
▁epidemiologist~~10323
ized~~984
▁suicid~~11516
▁queen~~10569
▁AMD~~13376
▁Bridge~~9935
izen~~7817
▁spoke~~4749
▁marks~~3688
▁encounter~~6215
▁assum~~7228
▁garden~~3712
▁hire~~854
acre~~6104
▁Derek~~11827
▁recruit~~1633
▁static~~4503
▁swimm~~5465
▁Thom~~3231
▁surgery~~4760
income~~9530
▁manipulate~~6963
▁transaction~~4898
▁extinction~~6573
▁Schach~~10583
▁circum~~7552
▁Eis~~10665
▁diabetic~~9716
lihood~~10275
▁million~~703
▁merchandis~~11581
▁Thor~~10744
▁stat~~10401
^~~14249
sound~~5188
▁shower~~6627
▁devastation~~10539
▁buffalo~~6941
▁scatter~~7087
▁cabin~~3814
▁rational~~2635
▁scor~~11478
▁intentional~~6935
▁Gross~~3571
▁terribl~~1392
▁word~~2572
▁Galapagos~~4145
▁smartest~~4370
▁worn~~7229
▁worm~~527
cock~~8190
▁work~~759
▁snack~~9172
▁ethnic~~9175
▁examples~~2679
▁possession~~9373
▁activis~~8017
▁network~~2786
▁Figur~~13838
▁Rabin~~12262
▁activit~~509
▁Aaron~~13212
protein~~14056
▁Strick~~14354
par~~4830
▁kitchen~~5542
▁revenue~~9574
ongolese~~12955
▁prop~~4421
▁audience~~1849
▁relevant~~7546
▁dessert~~9194
▁wait~~708
▁Republican~~7320
pan~~128
▁Arab~~8921
oil~~9190
▁Dur~~9812
▁cheek~~10486
▁individual~~249
oid~~7690
▁parallel~~5334
▁unexplo~~161
▁Cheval~~12351
▁Arav~~12543
▁limitation~~5709
▁swamp~~9949
▁cheer~~5715
▁windshield~~2486
▁mother~~1956
▁pursui~~1714
▁mainstream~~5105
▁eng~~10767
▁end~~397
band~~8544
▁infiltrat~~9893
▁Susan~~7137
▁damn~~5392
▁disclosure~~7065
▁pursue~~1547
▁Music~~2893
▁env~~4014
▁microfluidic~~8295
▁ent~~4832
▁Macintosh~~12517
▁measure~~1306
▁regret~~6643
▁exercise~~1119
▁operate~~4259
▁tent~~241
▁levitat~~11890
▁confirm~~5708
▁tens~~413
▁turtle~~4080
▁terrifying~~3883
▁admit~~2401
▁wedding~~7728
▁geographical~~5977
▁tend~~293
cursion~~9032
▁turbine~~8902
▁Piero~~13328
▁Tue~~4474
▁hundred~~488
▁dolphin~~1061
▁endeavor~~5971
▁angel~~11088
▁em~~3683
▁el~~4826
▁overcom~~3093
▁ground~~636
▁Social~~8605
▁et~~8725
▁es~~3324
4~~2417
▁decoupl~~13599
▁culprit~~9149
▁display~~1920
▁ex~~127
▁routine~~4477
▁Share~~11744
▁Copyright~~7375
▁gather~~3531
▁geograph~~3682
▁nanoparticle~~2496
temperatur~~11431
grid~~11731
▁repetitive~~3199
▁adjacen~~3951
mog~~1718
▁Eurasi~~8827
▁dictatorship~~12998
▁Sufi~~12350
▁infrastructure~~4273
▁silicon~~9112
▁instance~~2903
▁intricate~~3104
either~~410
▁Western~~2140
▁fraction~~3380
▁flaw~~7397
▁rust~~10491
▁Ahmedabad~~13417
▁pattern~~1896
▁adolescent~~5140
▁UNAIDS~~13216
▁flowers~~3318
ante~~5902
▁60,000~~7023
▁Matthieu~~11639
▁articulate~~2194
▁polish~~9692
▁eject~~12509
▁gap~~1422
▁gas~~5472
▁gar~~3929
▁alive~~2943
▁Ocean~~4110
▁gav~~2259
▁sidewalk~~6819
colonial~~247
Gadget~~13512
▁associat~~8355
▁Schachtel~~14336
ropaganda~~2258
ellig~~9631
▁dug~~5843
▁fatigue~~8375
▁due~~4914
▁cooperative~~8541
boat~~3148
▁gam~~9273
▁gal~~7238
▁invade~~7998
▁online~~2983
▁DARPA~~7001
broken~~9624
market~~10941
▁Sydney~~11086
▁Call~~11022
▁Cala~~12986
▁Seva~~14206
▁preferr~~5528
otho~~13580
yrone~~6502
▁dodg~~4257
▁balance~~6681
▁volle~~13344
othy~~9811
▁lane~~11032
▁nut~~8205
▁Fang~~14229
▁surrogate~~12721
▁arrival~~7507
▁Sarajevo~~12954
▁century~~1984
▁thorough~~5341
terminolog~~7415
▁4,5~~14570
▁psych~~11711
▁Trabant~~14455
▁uncle~~7881
▁integrate~~7716
▁quirk~~8745
▁Bal~~6895
▁Archive~~9941
▁Fest~~14571
▁Inc~~11880
▁astounding~~5613
▁connectome~~11222
▁Monde~~13885
▁furniture~~3797
▁clinical~~1922
▁speculation~~5359
▁Santa~~6044
▁official~~2816
▁monster~~4009
▁flowing~~4505
▁melod~~2872
▁Santo~~7634
▁clip~~23
▁beehive~~10795
▁Khan~~11253
▁Latino~~14183
▁Egyptian~~11297
▁anything~~1508
▁glaci~~8860
▁eigen~~14172
▁irrigat~~4867
▁weapon~~9787
hhh~~9281
▁sir~~10596
▁swarm~~8455
▁roof~~6162
▁cube~~2968
▁mindful~~9543
▁fight~~573
▁room~~424
ember~~7572
▁sectarian~~12657
▁faucet~~6615
▁root~~4027
▁Cyborg~~14096
▁dark~~39
▁Aero~~12322
▁disk~~11796
▁mechanisms~~5303
▁Franc~~12978
Gecko~~13366
▁denn~~14088
USC~~8229
▁incubator~~12272
▁Bus~~7372
▁stunt~~9874
▁manage~~545
generat~~1648
deed~~1993
▁pound~~9218
film~~5800
fill~~1015
rotection~~9765
▁Winter~~13983
▁Thu~~2541
▁Cassini~~6212
know~~9603
▁insurgent~~12537
▁Bermuda~~4102
▁pretzel~~14113
▁MaKey~~14134
field~~3658
▁The~~195
▁Ein~~12431
▁Thi~~2769
▁insight~~5728
▁regain~~11803
▁Community~~6138
▁doughnut~~8035
▁cluster~~8687
▁Sharp~~13335
▁phones~~5839
schwitz~~11503
important~~3952
▁dramatic~~490
▁Protokoll~~13858
13~~5811
▁strain~~3536
▁elicit~~9772
▁assumption~~4024
▁pinnacle~~11133
▁poem~~4621
▁expanding~~11368
u~~2322
▁poet~~4821
▁thanks~~2990
▁rich~~482
▁evening~~5022
▁stump~~12316
▁Spirit~~11770
resolution~~5796
▁possess~~11521
▁sentimental~~9321
▁junior~~12793
dollar~~2664
gu~~6894
▁cocktail~~8193
zing~~8560
Wayne~~12037
▁bargain~~11583
▁Jordan~~3401
▁circumstance~~4311
▁menstrua~~7161
▁damaging~~9582
▁breastfeed~~11310
▁Lovegrove~~12676
▁signal~~6649
▁pension~~11483
▁amazing~~3314
▁Dutch~~2411
▁compassion~~3303
▁player~~2734
▁Flash~~11120
▁polic~~12131
▁ecosystem~~701
▁Extrem~~12757
▁conflict~~3228
▁bias~~5948
▁Wal~~9748
▁polio~~4202
▁Noor~~13294
▁bar~~1499
▁bat~~605
▁your~~556
▁bay~~4111
▁orange~~6961
▁Some~~6860
▁Volkswagen~~14024
▁victim~~4652
▁bad~~863
▁inflation~~11440
▁bag~~3493
▁Council~~11210
▁Herzog~~14018
ius~~10522
▁Shaw~~2447
▁characterize~~11084
▁Festival~~12377
▁ban~~5146
▁cosm~~10752
splitter~~12518
▁psychiatr~~11632
▁chef~~993
▁evocati~~8895
▁diagonal~~9605
▁vibrate~~2955
▁superstitio~~8774
▁ches~~2820
▁Future~~11064
▁chew~~4550
▁Drake~~12491
▁cost~~2620
▁Anschluss~~14594
▁Francesca~~13329
▁building~~2350
▁immense~~7895
▁Master~~7248
▁spectrum~~1553
▁spit~~8209
zero~~7046
▁controll~~999
shmi~~4717
▁carti~~7225
aba~~917
▁biotechnolog~~6931
▁evaporate~~9519
▁values~~944
▁Spring~~9467
stool~~6722
▁Isa~~7737
▁crash~~5421
opter~~9670
▁Facebook~~2824
▁ambiguit~~8754
▁scholarship~~6375
▁arrow~~6650
▁enthusiastic~~10546
▁fad~~12437
▁SuperRabbit~~12815
▁cofounde~~5879
K~~2028
▁Resolut~~13777
▁fusion~~10746
▁puppet~~9161
▁grass~~7298
▁informative~~10307
▁South~~4108
free~~4234
▁naked~~9918
▁skydiv~~9860
▁Slum~~2085
▁Sieg~~11958
▁batch~~12797
▁LOL~~12308
▁chlorop~~6607
▁venture~~1671
▁senses~~8681
▁invoke~~1942
▁intent~~10239
▁desolate~~6352
▁Cousteau~~13136
▁evolutionarily~~9453
▁reciprocal~~12050
▁Sprint~~14488
▁nurtur~~6790
▁putting~~3301
▁threshold~~5377
▁Lars~~9668
▁competitive~~1035
▁song~~795
▁pedestrian~~11688
▁empathiz~~5701
▁Stadium~~14490
▁test~~1309
▁Devil~~11323
▁malaria~~4286
eye~~9174
▁insult~~10414
▁Tim~~9810
▁retrofit~~10345
▁electricity~~7703
▁invasion~~8118
▁Ninety~~7159
▁disappear~~2666
▁Programm~~8577
▁still~~1052
▁ribbon~~653
▁preced~~10258
▁pepper~~10092
▁personalit~~2909
▁Fifth~~11465
▁personaliz~~1626
▁rigid~~5128
▁failure~~4473
▁prolif~~8472
American~~6606
▁sociolog~~5897
▁relations~~4735
▁snatch~~9400
▁Trend~~14428
▁ultimate~~1299
▁dysfunction~~10743
gged~~8641
town~~8005
▁Riverside~~6137
▁Ghana~~5655
▁Princeton~~5972
hour~~5126
der~~2471
des~~2517
ility~~5254
▁Act~~7377
▁Ach~~10724
▁stalk~~9119
▁Maxim~~14686
del~~9104
dem~~7877
den~~155
▁treasure~~4165
▁the~~9
▁Record~~10634
illennium~~4989
▁Zeit~~11741
▁enzyme~~6548
▁Mother~~10061
▁unifie~~10763
▁Compan~~6871
▁trap~~6706
ps~~6160
▁Well~~959
▁Leakey~~8834
▁vigorous~~10854
▁Montessori~~13195
▁trac~~3054
▁trad~~4969
!~~361
▁reclaim~~10728
▁juice~~5540
ombin~~6981
▁li~~6951
Admiral~~10077
vdutt~~12080
▁Magazin~~13575
▁burn~~1906
▁flipp~~5444
▁wife~~3264
▁deliver~~1430
▁crystalliz~~12599
▁Jesus~~7192
Doh~~11650
▁materials~~2462
ophonie~~14554
▁database~~8454
▁Garden~~3716
▁relevanc~~9145
▁aging~~5249
▁soybean~~3570
▁365~~8959
▁360~~9533
blood~~718
▁Osmakac~~14653
Atti~~13211
▁coherenc~~8690
▁European~~4089
▁Vent~~5756
▁stigma~~6770
▁create~~616
▁Kante~~14463
▁Steel~~3547
▁Vene~~10517
▁Virgin~~13523
eath~~2774
▁telephone~~10035
▁Smith~~2096
▁persecut~~8622
▁Sear~~10164
ckel~~11828
▁liar~~10947
cken~~9675
▁Manufactur~~11255
▁zebra~~6965
▁Nature~~6259
olpert~~14393
▁Grace~~12072
▁philosopher~~10554
▁equator~~11290
▁hatred~~12341
▁Word~~6917
▁lungs~~6491
▁Allah~~13081
▁Nichol~~6747
▁suck~~5539
▁pH~~12918
▁such~~1320
▁struggl~~1634
cker~~10925
24~~12990
25~~5180
20~~1733
▁Feld~~13678
arian~~7350
▁angular~~10922
▁Abraham~~9621
29~~11458
▁whims~~2358
▁uter~~2851
▁Keep~~4781
▁judgment~~7850
pend~~4655
▁Third~~7866
▁generation~~1867
▁lin~~10416
▁migration~~8093
▁Alfred~~8189
▁Hole~~431
▁phenomenal~~6922
▁Moral~~14383
wake~~11874
▁bold~~1708
▁Holi~~6817
▁check~~2722
witsch~~14072
▁reality~~2702
▁pavilion~~7592
uhr~~14719
▁copy~~1582
▁Guard~~11508
▁bolt~~972
▁Over~~9502
▁agnostic~~12343
▁lucky~~4235
▁relative~~831
▁reconstruction~~7597
▁Beatles~~10218
▁teaching~~1491
▁Girl~~8029
▁Archi~~12559
▁captur~~11584
▁calculating~~1798
▁digest~~528
▁Gui~~8762
▁push~~1543
▁prescribe~~9277
▁Dame~~11776
▁carrie~~5418
Built~~12960
▁Siberia~~8873
house~~4770
fish~~4127
▁glorious~~4786
▁Patient~~11119
▁membrane~~6577
▁eyewitness~~9799
▁tinie~~10445
orient~~8273
▁km~~11030
▁Twa~~5999
▁ko~~9601
▁kn~~4587
▁kidnapping~~9803
▁sch~~11015
▁Sherman~~13180
▁Gua~~11506
▁rehearsal~~3908
▁ka~~10018
▁inclusive~~9361
▁Two~~6402
I~~3295
▁magnificent~~6085
▁prediction~~8319
Kinsey~~13334
▁absorb~~2477
print~~9337
spiel~~13319
▁disabilit~~2922
▁evaluation~~8974
▁second~~1120
EL~~10938
EN~~11790
▁biosphere~~10787
▁Hirn~~13982
▁desktop~~8543
ED~~10173
▁Ground~~11739
EC~~4941
pleasant~~10256
▁Bruno~~7312
▁pest~~7269
▁physician~~7093
ET~~12961
ribbe~~393
gdal~~1096
ER~~10240
▁terrorism~~8630
Ei~~14603
▁economist~~2548
▁thylacine~~12404
▁moralit~~2700
▁warning~~4499
▁Moog~~14196
ã~~13916
▁tapestr~~8786
▁Barnett~~12135
â~~12301
▁terrorist~~7528
▁Hazle~~12677
á~~10474
▁Sudh~~14100
▁forager~~11002
▁Audio~~13094
adesh~~4346
▁Universal~~9917
▁synerg~~1271
▁canno~~710
▁smaller~~668
▁Dun~~5895
▁portal~~12338
▁heterosexual~~10334
▁elevator~~7417
▁forgive~~10639
▁members~~2102
▁webcam~~10822
▁Thursday~~9907
▁AI~~13422
▁socially~~1051
▁excuse~~1685
▁opens~~4441
▁mix~~1369
▁Transformation~~14674
▁sleep~~3256
▁mit~~6809
▁mis~~3932
minent~~5533
▁shareholder~~8970
▁durch~~14409
▁Red~~2394
▁min~~8717
▁residu~~11417
▁Reg~~13446
▁interest~~1381
▁Rem~~8125
▁mid~~349
▁mic~~3160
▁serotonin~~11928
odium~~11664
▁dimensions~~3837
park~~13205
▁geopolitic~~12186
▁though~~90
XX~~14316
part~~1980
▁multinational~~3602
▁Trans~~10224
▁stockpile~~11690
believe~~865
▁cleaner~~11491
b~~933
▁Online~~10166
▁institutional~~900
▁straightforward~~10484
▁justify~~8369
▁mood~~6727
▁pr~~8765
▁Az~~12541
▁moon~~4005
ô~~14275
▁Kueste~~6058
▁states~~4058
▁199~~4277
▁198~~584
▁guck~~13013
▁keyboard~~6755
▁Dodo~~14525
urban~~13074
▁193~~2099
▁associate~~2084
▁190~~5327
▁197~~4883
▁196~~5511
▁195~~2042
▁194~~2215
▁actor~~2684
▁accident~~3108
▁Masse~~13517
▁19.~~12989
▁millimeter~~3506
▁Livermore~~11903
▁tailor~~4964
▁instead~~896
▁gravel~~12215
▁Trivial~~14082
▁eleven~~8642
built~~3875
▁Biotech~~12698
▁divide~~1483
ation~~762
▁Final~~3870
▁boundary~~7712
▁exploration~~4010
▁releas~~3945
▁Classic~~13870
▁constrain~~3681
▁examination~~6071
▁leader~~4606
▁momentum~~4368
▁farmer~~4871
▁bilingual~~8781
▁Burger~~10066
▁mobil~~3831
▁thrill~~4514
▁prime~~2811
▁honor~~2115
▁State~~1181
▁holistic~~5101
▁prima~~6789
▁resonance~~6597
▁Essen~~12904
▁nickname~~12360
▁blur~~7863
▁sauce~~11940
most~~9487
▁Fund~~7860
significant~~8814
ennial~~11781
▁blue~~126
▁Carter~~6165
▁melanchol~~13001
chard~~11103
▁afternoon~~5207
kb~~14026
ka~~6233
▁Ah~~2758
ke~~3167
peration~~7758
ki~~5887
ko~~934
▁Beth~~7982
kl~~8567
▁cliff~~407
▁Bett~~8200
▁strongly~~4793
▁solutions~~1257
▁Am~~3758
kt~~12447
▁unique~~3877
▁side~~264
▁enorm~~8795
▁chose~~2065
▁Ober~~10422
▁fMRI~~1857
▁dreamed~~3691
▁fungi~~9844
coli~~9189
▁anthropologist~~8553
▁website~~5139
▁Venkat~~12544
▁Dari~~8151
▁bench~~5093
▁Dark~~11680
öhl~~14255
▁University~~2692
▁microsecond~~11614
rctic~~7564
▁Plan~~9623
▁London~~2236
▁flow~~1156
▁Fu~~9263
yllis~~9695
▁questions~~1594
▁Play~~3151
▁Fo~~4748
▁Fl~~2992
ambia~~14509
▁American~~3784
8~~2216
▁Fa~~8934
▁Bhutan~~4851
▁revolutionar~~5181
▁biologist~~586
▁flock~~5123
▁CP~~12385
▁Pei~~14107
▁kind~~234
▁king~~2002
▁Douglas~~6241
▁küssen~~11730
▁fluid~~538
▁compute~~9822
▁anticipate~~1399
▁Sally~~13236
▁therapeutic~~12071
publishe~~14052
▁Simulator~~13977
▁ALS~~11117
aku~~6396
▁poke~~8212
▁stuck~~3183
▁admir~~6077
▁Frame~~14729
▁2.0~~7256
▁2.3~~6251
▁traditions~~7861
▁murmur~~8464
▁career~~931
ologe~~14265
▁nephew~~6762
▁blend~~6100
▁tether~~11939
▁Pastor~~14560
controlle~~9838
▁nutritio~~10410
▁lotter~~10099
aswam~~12250
▁consensu~~4592
▁Foundation~~3335
▁Ahmadine~~12466
▁theory~~2619
▁reflectiv~~2519
discriminat~~7791
degree~~6429
fang~~11143
▁Pavlov~~9839
▁Gulf~~7987
▁Health~~6764
▁anthropolog~~8845
▁sponge~~3375
vascular~~11936
▁machines~~6341
▁Break~~10552
▁Fermi~~13679
▁relentless~~9445
▁Trust~~5242
▁urgent~~3766
▁narrat~~3532
▁Walmart~~10297
▁reframe~~11751
▁mobile~~1006
▁stigmatiz~~10333
▁fibro~~7088
ika~~7660
▁subway~~9979
▁raped~~4453
ozi~~11697
▁supplement~~11346
▁compete~~4710
▁Descartes~~7993
▁yards~~6276
▁opportunity~~2308
▁woke~~3258
▁comp~~1653
▁Tun~~7971
▁come~~290
▁irritat~~2386
▁coma~~9203
▁outstanding~~11485
▁Snow~~12591
solv~~6005
▁dump~~679
▁Index~~9751
point~~3368
▁requir~~7391
bai~~11675
rad~~4545
▁button~~9077
▁chatt~~10839
▁dumb~~1019
▁Tijuana~~14730
▁Gapminder~~11073
▁dumm~~12039
▁rodent~~8699
▁shame~~6009
▁luxur~~8084
▁paradigm~~1461
▁Democrat~~7322
create~~5410
rasio~~12436
▁Schwarzen~~3488
▁progeri~~13536
▁submit~~5950
▁Bilder~~14531
▁fingernail~~557
▁editorial~~8450
▁Worldchanging~~13318
▁accountant~~12227
▁committ~~5581
▁pocket~~2617
▁outfit~~11853
▁assert~~12446
▁er~~3592
▁Giant~~7777
▁Pakistani~~7493
▁polymer~~7028
▁severe~~3992
gas~~8912
gar~~8826
▁dissipate~~2270
vana~~10220
gan~~1960
▁guilt~~1135
▁thirty~~2785
solu~~10237
▁Explorer~~5743
▁Vash~~14158
▁present~~3400
▁voices~~4298
▁spontaneous~~3923
▁bring~~433
▁tumor~~3895
▁ich~~14120
bill~~12192
Dink~~14342
▁ignorant~~6617
▁condition~~2202
fug~~11314
▁tail~~9642
▁heroin~~4434
▁heroic~~2109
▁Natasha~~11872
ful~~1014
▁comparabl~~7297
▁Sag~~10206
▁Philanthrop~~13357
▁Baum~~13304
▁outweigh~~5277
century~~2067
▁proton~~10766
wollen~~9165
Gregor~~8104
▁Minnesota~~10654
firma~~14087
▁Tower~~9328
▁Idee~~3856
▁vanish~~9943
▁Anton~~4824
▁Licklider~~9602
▁imagine~~1121
▁reconnect~~3747
▁architectural~~6291
ymnosoph~~13788
▁Seoul~~10149
▁Maddie~~12471
oxica~~14615
▁Greg~~13121
▁Gree~~8647
▁Grey~~5248
▁Anthon~~4440
▁dangerous~~1829
▁only~~211
▁Mauri~~6013
trium~~13895
▁Seattle~~8862
▁practitioner~~11628
▁assure~~4977
▁touch~~2521
itch~~5779
▁debat~~10248
▁Vibrio~~12065
▁motivate~~2997
moment~~10250
▁replace~~5425
irstream~~3781
▁Flow~~13976
▁agree~~1586
sanga~~11373
▁Islamist~~13148
ckenber~~11937
▁perturb~~13364
▁communication~~2383
▁skeptic~~7126
▁moratorium~~12182
y~~239
organization~~10101
▁freedom~~1273
▁wide~~1751
▁native~~10081
▁Webb~~9815
▁illegal~~9414
shape~~639
▁without~~1122
▁Johannes~~5862
emisphere~~8861
▁fitted~~6808
▁ankle~~11392
▁controversial~~9096
▁girlfriend~~8997
cut~~4791
cus~~7224
▁appliance~~11434
▁center~~1524
▁Reserve~~11698
source~~9362
▁morpholog~~8831
▁Duke~~6040
ag~~7641
▁hive~~10794
▁flight~~1713
bio~~13608
bil~~8700
▁Ngu~~11214
apest~~11001
▁harvesting~~10019
▁scrub~~12861
▁physiological~~6936
▁agile~~9460
▁angry~~4427
▁genius~~1614
▁anxious~~8363
▁ridge~~49
▁photo~~6335
bit~~5190
▁Emp~~11320
▁Sole~~13471
▁photograph~~3906
▁realization~~5713
▁and~~16
▁parasite~~11845
▁She~~7211
▁Uru~~6757
▁Watson~~10857
▁any~~84
wir~~5650
▁globalization~~8046
▁laboratory~~437
▁Sack~~2892
back~~2706
▁grill~~12758
▁Sach~~7386
▁Couch~~13886
▁Event~~13706
▁Sacr~~10642
▁PET~~3422
▁insect~~6998
▁appendage~~13365
▁arrogan~~12286
nourishe~~11303
scale~~1801
pex~~13403
ellowstone~~9963
pez~~6277
integration~~11334
per~~7130
pel~~7555
substitut~~7439
▁toaster~~10448
ped~~6098
▁McDonald~~10065
▁Mahmo~~13927
Box~~9911
▁arrive~~3307
patient~~7254
▁realize~~1623
300~~5461
▁cheap~~5222
▁prune~~13588
Bot~~2964
▁bond~~2809
O~~4490
▁smack~~10210
▁Dick~~7257
uft~~13653
▁PISA~~1308
uff~~612
▁Animal~~6986
▁clever~~2553
▁compress~~7133
nden~~3988
▁navigat~~11891
▁Shark~~5746
mbra~~11056
ounce~~3344
▁era~~5525
▁compar~~6778
▁benchmark~~1365
▁Minister~~7305
▁Larami~~13730
haps~~2932
▁carrot~~9157
dispens~~12110
▁creature~~224
▁belong~~374
alandar~~13714
▁industrialize~~4958
▁untouch~~11955
▁Partheno~~11018
▁eliminat~~5257
Sauce~~14541
▁Carolina~~2414
▁Cornell~~9541
▁submersible~~5751
▁dress~~7754
▁in~~8
▁im~~1979
ological~~5300
▁if~~260
▁Tree~~9703
▁Woody~~11140
Strateg~~14513
▁lesbian~~7873
▁is~~52
▁Martian~~12768
▁Turbo~~12636
▁Leone~~8636
▁correlation~~1058
▁camel~~6949
▁it~~85
▁comprehensi~~10695
▁Oslo~~12621
▁instantaneous~~8608
▁changing~~1679
▁appreciat~~7557
▁platform~~4990
serie~~13128
▁Did~~8246
▁travel~~2218
▁Parliament~~5266
▁babysitt~~11481
▁medal~~12074
▁marketplace~~8447
▁telecom~~9905
▁Meadow~~9946
planet~~6201
▁lyric~~3079
▁Mahab~~13533
▁Photosynth~~13421
▁populations~~5992
▁Lust~~14589
▁Mahal~~4716
sort~~9665
▁Design~~2537
▁Parks~~14283
▁undermine~~7815
▁Solo~~14500
▁Diana~~8703
erasa~~14665
▁Bert~~10776
▁Diane~~12324
engineering~~6929
Land~~14260
▁vision~~2064
▁division~~6287
▁investigate~~5056
▁frack~~10548
▁coalition~~10734
%~~11410
▁download~~2939
▁mop~~6812
▁mor~~8386
▁antidote~~12222
▁mov~~133
▁Dietrich~~13784
▁Saudi~~12132
▁mom~~6700
ellen~~2456
▁Torosaurus~~13160
▁educat~~10387
▁mob~~8468
▁galaxie~~6195
Man~~5828
▁Weblog~~14553
▁Zu~~5555
√~~13454
▁kilowatt~~11868
▁600~~461
▁firefl~~11300
▁Smithsonian~~11301
▁Philadelphia~~9368
▁capaciti~~10829
▁press~~381
fabricat~~10856
▁prototyping~~11648
▁prefer~~7150
▁Kepler~~11447
▁Alto~~3894
▁Sensor~~12672
▁visitor~~9484
▁gay~~7823
heim~~10667
Sahara~~6219
▁important~~822
▁spontan~~14284
2008~~10062
▁intense~~3270
ieder~~14512
▁Mosc~~9320
▁determined~~7084
▁Land~~11142
▁Mose~~10936
▁Mosk~~14566
▁Milch~~10049
▁brake~~5003
▁season~~2092
▁Territori~~10274
▁achieve~~1459
Marge~~11778
▁uninform~~12834
▁Fashion~~13513
▁reptile~~6602
▁obstacle~~4199
▁constraint~~5978
mitten~~11554
▁Rosali~~8655
▁our~~285
▁culturally~~10376
▁Adria~~11426
▁scientists~~372
▁Okinawa~~14090
intensive~~10133
▁academi~~12925
▁Crick~~12695
▁refresh~~4481
▁crowdsource~~11689
▁dismantle~~7619
▁Shannon~~5924
▁Atlantic~~390
▁converge~~7652
▁disguise~~10469
▁purchas~~8089
▁prior~~4069
▁experienc~~6484
mour~~12668
▁Start~~11347
▁1,6~~8732
▁fascination~~9061
▁Full~~13227
▁Krake~~5729
▁receptor~~12067
▁MTT~~11464
▁devil~~8402
▁separat~~10664
▁SAN~~13772
▁banker~~8408
▁shortcut~~5719
▁aerodynamic~~12675
▁Round~~13040
▁experience~~1928
▁sense~~823
▁Da~~10988
▁De~~2047
▁economy~~781
▁schaden~~14033
crop~~3516
▁Do~~4442
Contra~~13670
▁Dr~~2453
▁Du~~8393
▁Pygm~~7442
croc~~11704
▁DA~~13603
▁rejuvenat~~5322
giving~~1468
▁DI~~9561
IUC~~4015
fat~~9167
▁DM~~8268
▁DR~~5219
▁orientation~~7723
▁superconductor~~14338
▁Walter~~10993
▁artisan~~9570
▁superpower~~4956
▁between~~1059
▁organ~~642
▁scientist~~6509
▁subvert~~7944
body~~850
▁cat~~6468
▁cap~~1602
▁kill~~915
▁car~~1792
▁fanatic~~10769
▁awake~~5974
ninsula~~3476
▁hug~~5572
▁generat~~6579
▁Foldi~~13819
▁video~~22
▁anonym~~10944
▁float~~2074
▁cab~~8406
▁Italian~~5124
▁can~~327
▁Alla~~12021
▁Namibia~~8972
▁Alle~~3761
▁cheetah~~13470
30~~3671
▁Hyderabad~~12228
▁emerg~~3439
▁parameter~~3031
▁Kemp~~13514
▁breakfast~~5910
▁salar~~9503
▁Hispanic~~11348
▁2,4~~11438
▁synchron~~8775
▁archive~~6655
namen~~8695
▁entrepreneurs~~844
▁communit~~4195
▁nonsens~~5361
private~~12761
FA~~7283
▁diagnose~~7067
▁first~~297
FG~~14070
▁combat~~4528
▁denial~~4794
▁diagnosi~~4765
▁bed~~2123
cha~~1267
▁falcon~~9088
▁saliva~~7043
▁attraction~~8939
chi~~3087
chk~~9707
▁bei~~6760
cho~~10233
▁memetic~~13973
▁Passage~~10523
cht~~14099
TI~~10335
▁comment~~2050
▁house~~536
Fi~~6753
▁Easter~~9057
▁bandw~~11677
burst~~6123
▁spear~~4104
▁back~~436
▁narrow~~1768
▁delight~~2121
▁period~~1664
▁knife~~1900
▁Intel~~11981
▁smiling~~2800
▁Inter~~1722
▁collaborator~~3008
train~~3984
▁spook~~9240
clusion~~10085
▁wealth~~1487
▁premise~~4304
▁feeding~~3554
▁bioluminescen~~5772
▁Fish~~6264
▁1,800~~8735
▁Famil~~9491
▁Ital~~4774
f~~2153
tunnel~~10310
▁womb~~6590
▁biochemical~~2810
▁aside~~9177
▁cook~~3565
▁cool~~1069
transcendence~~12664
▁Pacific~~399
▁paint~~2501
▁Photoshop~~6954
▁rudiment~~8101
▁Eduardo~~13956
oline~~10851
▁excel~~10042
▁Marionette~~12647
afi~~9694
▁Depp~~13813
▁posture~~12288
▁Gando~~13371
▁Bio~~3382
uver~~7745
2-~~13832
,000~~1747
▁picture~~446
▁begin~~284
▁gentl~~10817
▁slipper~~11700
▁Ox~~9429
aft~~9388
▁scarce~~4878
▁Southwest~~11553
stock~~7286
▁sensib~~10426
▁best~~1215
▁funny~~663
▁Panama~~13108
atmen~~13581
▁take~~30
▁long~~228
▁lone~~13065
▁crapp~~9089
frau~~13288
▁toolbox~~10191
▁Charlotte~~11654
▁Tank~~14317
▁Big~~5620
▁Point~~5118
▁ominous~~8767
▁Carder~~13283
▁laundr~~9421
▁inspiration~~7180
▁beast~~5730
▁thing~~500
▁Thirty~~10005
▁Handel~~14695
▁dissect~~6539
▁think~~100
▁Basi~~12017
▁Conservati~~4149
ature~~6311
▁Of~~2717
▁Base~~8389
meter~~5792
▁Adam~~2988
▁deteriorat~~4244
▁nuance~~3013
▁Gyr~~3441
▁Bast~~1697
▁catastrophe~~5349
lf~~7090
▁supply~~4861
ld~~902
le~~1945
la~~3411
lo~~7852
ll~~256
lm~~7102
sia~~8134
▁appreciate~~9124
li~~1654
▁philosophical~~5094
▁abolish~~8607
lt~~8012
▁surplus~~4724
▁murder~~7790
▁council~~8221
▁relational~~13820
ly~~56
dad~~8911
▁beam~~5649
junction~~3937
▁Brock~~14517
▁Kid~~1931
▁Time~~5627
▁Darwinian~~6932
nswers~~13921
▁positive~~877
▁beat~~2753
▁bear~~1054
day~~654
▁Karl~~8066
▁affair~~7932
▁livelihood~~4873
▁librari~~6220
▁unconta~~11293
▁primitiv~~12411
▁propagat~~10104
rought~~1815
▁nurture~~8743
astronom~~10411
▁father~~2055
▁Karo~~12944
▁company~~3790
▁library~~6846
▁Berk~~12688
▁Braun~~11668
▁impulse~~7710
▁federal~~1527
fare~~8807
▁inform~~7054
▁reign~~7038
▁tolerant~~8181
▁transferr~~8632
▁soprano~~11727
▁programm~~5952
▁valentine~~14224
▁Rover~~8882
▁Lance~~11592
▁dispense~~6765
▁outer~~4179
▁CPU~~13585
▁evaporat~~13545
▁cultural~~2013
▁persistent~~3509
rew~~9501
▁highlight~~3835
▁traged~~4187
Sense~~8575
▁MOOC~~14227
▁Ganz~~14278
▁optimize~~3802
atter~~9947
▁Dumm~~14270
▁rings~~3465
▁Carol~~3546
▁cartoonist~~9266
▁lonel~~8480
▁Net~~10914
▁Neu~~13733
▁athletic~~8021
▁New~~3132
▁demonstration~~2489
▁Kir~~7616
▁standard~~948
qua~~3369
▁techno~~9356
▁brush~~10260
que~~3166
qui~~5037
business~~9162
quo~~12070
▁carpenter~~2588
▁barricad~~12274
▁all~~92
her~~5524
▁diver~~6218
▁Fall~~7452
▁sage~~11887
▁trace~~3430
▁Terr~~11404
▁societies~~1576
▁locomot~~11991
▁next~~1022
▁Hitler~~12096
▁petrochemical~~11415
▁track~~2434
▁split~~6294
▁shelter~~4323
▁Lotto~~14387
▁Watt~~11435
▁tricks~~8300
▁Brita~~5261
▁Vivr~~14335
▁snail~~13766
urren~~12941
▁Android~~9236
▁Club~~5815
▁exclude~~7837
▁genome~~5395
▁winner~~5695
▁Here~~7676
▁wash~~3501
▁Pimp~~14678
▁Archimedes~~13163
▁hungry~~3585
▁exoti~~4589
▁acre~~9774
▁Collusion~~14485
▁Learning~~5878
▁pollination~~11695
▁Sh~~4653
▁Duolingo~~13479
▁reckon~~13293
ogi~~3759
udi~~11211
oga~~5023
▁false~~4303
▁prominent~~10649
▁whistleblower~~2355
loved~~5548
▁pornograph~~9416
italin~~10830
▁lawyer~~1592
▁Probe~~14211
NT~~12025
▁automobile~~3180
izon~~11218
▁apart~~741
▁tar~~8726
▁octopus~~10814
▁encourage~~1248
▁ridicule~~11235
▁CEO~~6738
▁hyperactiv~~8668
▁epi~~6236
▁Turk~~11405
▁plann~~5274
▁Turn~~10845
▁Sagan~~10984
▁looked~~1329
▁behave~~803
▁dreams~~7945
▁obscure~~7092
▁scrambl~~10289
▁mono~~8358
ben~~9133
▁roads~~3627
▁plank~~6806
▁drawing~~3341
▁amuse~~9249
▁or~~118
▁net~~377
▁neu~~12822
▁new~~202
▁fringe~~13538
▁Peru~~7280
ists~~1075
▁Oliver~~2891
▁anesthetic~~3979
▁of~~34
▁oh~~3871
▁shine~~447
▁across~~391
▁parable~~1966
mit~~4134
▁neo~~1071
▁paintbrush~~6239
▁Gothic~~13123
▁acu~~5107
▁mortgage~~2705
▁admire~~6045
▁exploit~~4022
▁lightweight~~3808
▁Stephan~~12828
▁Winfre~~10867
ehen~~7534
▁toxin~~11492
▁pore~~9223
▁Ethiopia~~4845
▁compris~~9752
gora~~14480
▁sudden~~2609
▁rede~~11671
▁2,000~~4618
▁asymmetric~~6297
▁cloth~~4639
▁expo~~7590
▁port~~3652
▁surger~~8251
▁burrow~~10175
▁overhead~~8492
▁Astronom~~10826
▁strategic~~4986
▁Cover~~14003
▁Singularit~~14358
▁stress~~3308
▁freeway~~3811
▁Hondura~~12853
▁erect~~5175
text~~9619
▁ELA~~14516
▁rhythm~~739
▁Januar~~5861
▁happi~~1168
▁SK~~14583
haft~~10985
▁testicle~~6544
▁genuine~~5256
▁front~~255
▁meditation~~11369
▁unleash~~3267
▁Wolfram~~11808
▁hull~~6803
▁blank~~3858
▁engrav~~9516
▁circle~~4907
▁Vision~~10266
▁maintain~~3527
▁Rio~~2090
▁tips~~5049
▁Ric~~14115
▁Rie~~2253
finger~~9672
aker~~2014
▁reform~~4893
▁tru~~1064
▁Proz~~13380
beat~~12498
▁bush~~10010
▁try~~428
▁SR~~12165
▁tra~~5036
▁Guinea~~8822
▁capsule~~8484
▁tri~~3826
▁risks~~4239
▁collaborat~~12844
▁contrast~~2663
▁homeless~~6768
▁congratulat~~2814
▁discussion~~2018
▁cabinet~~8068
▁simpl~~1384
House~~13732
▁delightful~~8780
▁recline~~12839
▁morbid~~11646
▁incarcerat~~6252
eague~~4769
▁along~~471
▁alone~~1301
▁brain~~1060
▁stabilize~~6453
▁duty~~4070
▁Gagarin~~11302
▁DVD~~2024
▁partners~~432
▁weird~~1184
▁expectanc~~5344
▁constitution~~8183
▁remake~~13295
▁Maria~~3490
literate~~8537
▁diffuse~~11057
▁impairment~~11908
refore~~4872
▁Lawrence~~7316
apos~~37
▁duration~~2565
▁Project~~5832
▁Shadow~~13162
ington~~2303
▁string~~2949
▁type~~494
▁original~~2584
▁certifi~~3522
▁engineering~~3016
▁hilarious~~9309
▁marvelous~~9254
▁Archiv~~14733
S~~1349
▁screw~~7359
▁demoralize~~9051
▁Boeing~~10928
▁Senegal~~11423
▁court~~8768
▁squirrel~~5599
▁Ryan~~5920
buster~~1999
▁Kra~~13383
▁saving~~4316
▁depriv~~1049
transplantation~~7032
Design~~14004
▁blink~~4366
▁singular~~10958
▁Lerner~~14214
▁blind~~4916
▁pinch~~11656
▁impair~~6583
▁Jo~~3145
▁Effect~~10340
▁Jh~~9001
▁clue~~3668
invasive~~1879
▁Je~~8166
▁disparit~~1449
ohn~~14523
▁Ja~~421
ab~~3483
▁biblical~~10439
▁Ju~~4930
▁demobiliz~~14044
▁augment~~9855
iger~~6953
▁Lesterland~~10729
▁8,000~~6437
▁advancement~~8008
▁mafia~~11173
▁JA~~13676
▁sterile~~6923
▁eukaryot~~12602
▁Mode~~14443
▁retina~~9846
▁vegetable~~3711
ah~~2248
igen~~9739
▁conversation~~4548
▁stunning~~6169
▁symbolize~~10413
▁Nikola~~8434
Center~~14756
▁default~~5194
▁humanity~~4864
▁Gersh~~10894
▁metal~~3373
▁dominant~~7371
▁earth~~3567
▁range~~146
▁await~~6344
▁chimp~~7686
▁argument~~5276
▁unconscious~~10913
bule~~6601
▁poop~~10612
▁fertilizer~~4869
▁Monterey~~10823
▁friend~~3293
▁220~~13071
▁orchestra~~2860
plain~~10047
ila~~10590
value~~885
ggle~~9877
defin~~7807
▁informal~~12275
▁massacre~~12086
▁arrest~~4933
IT~~9726
▁pool~~1345
▁multiverse~~11042
uit~~6792
▁single~~963
▁draft~~6290
▁PIPA~~13142
av~~9406
▁rear~~5059
▁Palestine~~3282
▁squatter~~14116
▁Rica~~4136
▁real~~296
▁flare~~11012
▁Freud~~8672
▁Poet~~10991
▁defin~~4406
▁Rich~~9948
ically~~2335
▁read~~2642
▁frequenc~~3181
▁chin~~10810
egel~~14425
▁Grab~~9280
▁Shuffle~~9270
▁psychotherap~~3986
▁reveal~~4175
▁rapid~~4275
Dopa~~13659
▁Image~~11500
▁companies~~4841
▁Cor~~6255
▁chimpanzee~~7665
▁railway~~3719
▁MIT~~2653
▁laying~~6470
▁Beverl~~12191
▁cereal~~8308
▁intermediate~~5258
▁Senator~~12715
aking~~3260
▁leaders~~1237
▁spoil~~7522
▁snor~~10447
▁drive~~426
▁swallow~~5579
▁snow~~6230
▁Total~~13697
▁consequence~~5859
▁Himba~~14285
▁agil~~7172
▁Huygens~~12963
ious~~955
▁wood~~6003
▁sublinear~~13605
▁Coh~~9875
▁coin~~5912
▁Sal~~8588
position~~3305
con~~3755
▁Plexiglas~~11562
▁malleab~~6841
▁Kris~~3999
▁vendor~~13043
▁preparation~~6407
▁Betti~~10457
▁Marcel~~190
▁route~~3556
▁Cost~~4135
▁made~~273
Gamble~~13266
▁remember~~935
▁array~~7717
▁voil~~12330
▁reunite~~11603
▁multi~~2727
ernstein~~12242
absorption~~11643
▁glue~~6730
ade~~4597
▁protect~~2520
▁Marth~~8411
ought~~2587
adi~~4535
bank~~10009
▁even~~89
▁calculation~~8072
▁speech~~1023
▁attend~~5846
▁Shaff~~13060
▁supernova~~10754
▁Taxi~~10879
hepherd~~10921
▁simulat~~6090
▁visualize~~6592
▁meant~~2058
▁means~~2848
▁fade~~8665
▁Kinder~~14661
▁Rosling~~9378
▁Engel~~14375
▁dissonance~~3114
▁alligator~~10105
▁heroes~~4270
like~~4817
▁LED~~2972
journalism~~11591
▁maggot~~11198
▁Holocaust~~11504
▁carve~~7810
▁pearl~~7214
journalist~~14754
▁Goldman~~7385
▁Mitchell~~5894
▁Prophe~~13986
▁plummet~~10461
▁Toast~~14122
aeda~~12452
▁drove~~3692
▁vom~~5473
▁billboard~~9329
▁Gor~~8833
▁vow~~4623
▁vot~~10704
▁horizontal~~6720
▁man~~2937
▁Blend~~13631
▁utter~~5478
▁re~~1072
▁ra~~588
▁articulat~~7365
▁contingen~~12572
▁characteristic~~5259
▁aggregate~~4086
▁Gol~~11927
▁tradeoff~~6329
▁gift~~4736
▁Entertainment~~12849
▁authoritarian~~12238
ogen~~1918
▁persistence~~9268
▁Diese~~14440
▁Malawi~~10135
hose~~5634
▁stimulat~~9506
▁Ushahidi~~12997
▁thorn~~7752
▁separation~~7784
▁pastor~~8556
Robot~~11990
▁Amy~~5215
▁democratiz~~11468
▁diamond~~2230
▁mail~~5545
▁musician~~3156
▁analytical~~9394
▁begu~~6269
▁Ami~~9431
▁review~~1738
▁oscill~~1756
▁Signatur~~8083
▁sampl~~4081
mmer~~5892
▁Balkan~~7924
▁motor~~5769
▁expose~~7680
▁dictator~~8002
anthrop~~7649
▁receiver~~12281
▁anticipat~~6431
▁space~~305
▁Cameroon~~5656
▁eagle~~12418
▁simplify~~6298
Grad~~12775
▁intersection~~9968
▁Zimmer~~14721
▁deconstruct~~4392
▁Selasi~~14642
▁symbol~~6073
guard~~6596
▁Thanksgiving~~9482
esteem~~9511
▁march~~4549
ridge~~9681
▁triangula~~7718
▁warmth~~9120
▁Science~~5942
spread~~7672
▁incentivize~~5968
▁handbag~~8048
▁myth~~4006
▁Hamburger~~11429
▁yell~~3122
▁resilienc~~8816
▁fields~~2890
▁Kirk~~12181
bus~~7479
brand~~8126
sequel~~9264
▁isotope~~8859
▁other~~268
▁pause~~5944
▁recycl~~7561
▁helpful~~2309
▁Ukraine~~12104
bul~~7253
▁viruses~~4224
▁spirit~~5875
bug~~10618
▁pencil~~2673
Athabasca~~10120
▁names~~2040
wise~~2150
▁Long~~3389
j~~4000
▁introvert~~9360
▁Kendal~~4395
▁odd~~7203
▁Urban~~9793
▁named~~2745
▁August~~7500
▁recommendation~~12969
▁fra~~5271
▁software~~3004
▁Gramm~~10511
▁1.6~~8947
▁1.7~~5439
▁1.4~~10379
▁1.5~~5914
▁1.2~~12619
▁1.3~~5228
▁1.0~~12811
▁treat~~985
▁transparency~~1195
▁snake~~4559
garten~~14442
▁gib~~13707
▁berate~~13669
▁Next~~9233
▁sanctuar~~12197
▁Mohamed~~11772
▁Ware~~6798
▁absent~~6663
▁divergen~~7436
▁Saturn~~6679
▁Donner~~14746
▁cybercrim~~12026
40~~3676
▁Syria~~3283
▁persuasive~~11943
▁Green~~7578
▁Financ~~10670
▁succumb~~11777
▁uniform~~5329
▁Grameen~~9132
▁shared~~1933
▁lend~~11850
▁Genome~~8881
▁transit~~10366
▁junk~~7336
ubb~~2374
▁chemo~~523
▁teenager~~2224
▁interface~~1885
▁intact~~3082
▁catastrophic~~11029
▁motivation~~1148
▁Somalia~~4264
▁highway~~5166
▁bookstore~~2897
▁stabil~~11061
▁perceiv~~11069
▁Albert~~6010
▁species~~582
▁bipolar~~11125
▁Sho~~2247
▁compet~~2178
▁landmine~~8698
iddle~~10499
▁Shi~~12079
▁missionar~~13100
▁eva~~5294
▁trou~~7922
limited~~6174
▁shrub~~9959
▁Williams~~9809
▁produce~~1763
▁Belgi~~9906
▁triple~~9100
▁Feynman~~10868
▁Zapp~~8254
▁aquifer~~12138
▁topograph~~9931
▁product~~617
▁dyslexi~~8908
▁bruise~~7803
▁vocal~~8677
▁approximate~~316
▁Bonobo~~14527
▁my~~218
▁mu~~5508
▁trustworth~~8581
▁Dravidian~~13464
▁mo~~3674
▁dedicat~~3292
▁mm~~5829
▁mi~~8396
▁Trac~~5578
▁me~~596
▁deceive~~8321
▁unbor~~6508
▁ma~~4921
@~~8587
▁empath~~5691
▁hemisphere~~7011
risk~~9301
▁implant~~9818
▁mainframe~~11982
▁Jerusalem~~8131
▁ador~~8086
▁president~~3504
▁Hypertext~~14429
wich~~9936
▁cultivate~~5084
▁wallet~~11213
▁synthesize~~3962
▁advisor~~9056
GI~~4329
▁pigment~~9848
▁hazard~~10764
▁immigrant~~1531
school~~11561
▁Alaska~~12183
▁Jon~~4216
▁fatal~~4766
▁continent~~740
▁Job~~11662
▁Kohle~~12641
▁Take~~9349
venue~~3068
▁Botox~~10880
▁Joe~~9395
▁popp~~8293
Ge~~13641
▁Joy~~10770
▁patholog~~4762
▁growth~~1094
▁IDEO~~11904
▁Hydra~~5431
▁Batman~~7775
▁effects~~2887
▁major~~1561
▁itself~~215
▁least~~1495
▁flourish~~5593
▁proxim~~11902
▁Roh~~7543
▁evaluate~~6534
▁Ron~~3241
direct~~1197
▁neuroscience~~7735
▁Ror~~8348
Rast~~14146
▁linear~~3948
▁origins~~8823
▁lease~~8433
▁Rot~~4271
▁credit~~5711
▁leash~~8710
▁NFL~~12714
▁Roy~~11542
ltimo~~13164
▁hung~~1810
▁memor~~946
▁analyst~~12232
ograf~~7232
▁Juni~~13402
▁tire~~8374
▁Rolle~~13546
ain~~6737
▁hunt~~1053
conduct~~7118
▁Kuba~~14222
▁theme~~7591
▁obsession~~7530
▁Hindu~~8804
▁matern~~8852
▁Birke~~12696
▁shy~~3006
eck~~8213
▁earring~~12355
▁football~~1127
▁parrot~~6869
▁Magazine~~3351
▁Discovery~~5733
pati~~9620
path~~9731
▁she~~936
▁Forum~~9110
▁sophistication~~5416
studie~~13496
▁Burkin~~13370
▁Fried~~10067
▁translucen~~7992
▁USA~~3596
▁less~~1380
▁mislead~~12968
▁religion~~1068
▁elements~~3954
▁topic~~1737
▁Nobel~~4856
▁immoral~~5290
▁inferior~~8686
▁cortiso~~12795
▁Bolt~~12294
▁Sto~~11087
▁pneumo~~11842
▁Holland~~2377
▁Friend~~11097
▁pediatric~~12292
▁standardize~~6007
▁immun~~7027
▁1870~~12193
visible~~3825
▁partial~~8776
▁earthquake~~149
▁Moon~~6210
▁Slick~~14713
▁Fahren~~5442
▁upright~~7653
▁expand~~5448
▁warmer~~10524
▁Bono~~7374
▁conceal~~13190
▁Conne~~12818
▁Marke~~10306
▁price~~1451
▁interpretation~~2862
▁lesion~~12180
▁donation~~7812
▁extreme~~563
▁minds~~1904
▁honey~~10455
los~~8324
▁Lovelace~~9597
grier~~13597
▁iceberg~~2884
▁downside~~5278
▁job~~1030
TEC~~13562
▁raise~~1529
▁method~~2580
▁barrel~~9522
▁lust~~7843
▁joy~~2735
ophag~~7536
▁workplace~~790
▁53~~8123
▁fuel~~3594
▁Nathaniel~~14068
me~~4525
▁succeed~~1609
Baptiste~~13826
ma~~476
onic~~3920
▁uncomfortabl~~3981
▁profound~~2037
▁replicator~~13241
essel~~14197
▁plug~~5637
▁Chicken~~9643
stadt~~13202
▁insist~~4797
mp~~4676
▁plus~~3310
▁enormous~~1793
▁escalat~~3576
▁Mayor~~6849
▁Hu~~7235
▁bioma~~272
▁Simpson~~7401
estate~~7482
▁imbalance~~6546
▁oppos~~7933
▁bailout~~9523
▁tremendous~~4460
▁He~~965
▁past~~1583
▁international~~1324
▁pass~~348
▁payment~~4978
▁Shah~~8174
▁Ho~~2360
▁Hi~~1860
▁capitalism~~8067
▁suicide~~7796
strom~~10792
bund~~14228
bung~~14293
▁birthday~~2057
▁fingertip~~3921
▁GPS~~10134
▁terrestrial~~6358
▁Rehabilitation~~14701
▁innocuous~~9749
▁insulin~~9718
enz~~4667
charging~~6632
▁Ann~~9153
▁ridiculous~~1018
▁Ava~~12754
▁chicken~~6543
▁Arduino~~12432
▁persever~~10048
lot~~11164
▁campaign~~1806
▁honest~~2387
▁accommodate~~4808
▁5.~~7207
amento~~10643
▁cogit~~12972
▁remnant~~10755
▁Gibra~~12881
▁200~~298
▁investigative~~9265
▁electrical~~2594
▁Nokia~~9115
▁Spanish~~6674
▁architecture~~3062
▁observer~~8752
▁Pragmati~~14237
vity~~309
▁irregular~~10759
▁horribl~~9207
▁condom~~4646
over~~2833
fall~~6409
▁combusti~~1791
▁astonishe~~8006
▁cherish~~5205
▁Balk~~14080
thesis~~524
▁Minorit~~12521
▁skill~~1590
▁molecule~~1715
replicating~~12717
▁working~~221
▁continual~~7708
▁Fresh~~14712
ima~~7149
▁revolv~~5517
ime~~8379
▁Interval~~14149
▁bin~~2330
▁bio~~154
imi~~1758
cle~~8243
▁certain~~2527
SAF~~8941
imo~~6041
▁big~~125
▁husk~~4688
▁Programme~~14266
▁shocking~~55
▁ever~~79
400~~11277
▁Linux~~8573
▁bis~~6557
▁bit~~438
▁Shiritori~~14667
▁anger~~7420
▁prestig~~954
Mobile~~14231
▁eff~~13866
▁Antarctic~~4133
▁farmers~~4847
▁masturbat~~14126
▁Jill~~12293
tourism~~7681
▁neuron~~7707
▁joyful~~8378
▁awe~~2080
▁resurrect~~9687
▁distinctive~~9960
▁Pinatubo~~13735
▁compassionate~~5688
▁hence~~5996
▁7,5~~13515
▁occupy~~7692
▁sediment~~735
▁workers~~971
▁bubble~~1469
▁chant~~7887
▁domain~~4721
▁Comp~~9028
▁Bangalore~~4651
▁litt~~3437
Percent~~13779
▁Bateson~~13126
▁temperat~~11843
▁ought~~5273
▁Wood~~430
▁Come~~6822
▁portable~~11970
arijuana~~9372
▁synonymous~~5179
▁Amor~~13583
▁gratuitous~~5193
▁physics~~7834
▁Minotaur~~13789
▁graduate~~1371
driving~~13441
▁southwest~~13351
▁mesmeriz~~10610
▁Ornis~~13027
▁Christ~~7193
▁voter~~3232
tadore~~14679
icero~~8330
▁cardiac~~7111
▁Clooney~~12533
▁treadmill~~5144
▁Victor~~13834
▁English~~2373
▁bowl~~2632
▁tractor~~4870
▁tags~~9993
▁frustrat~~7677
rail~~10365
ied~~5697
▁grasp~~2008
▁Agenc~~7002
▁Ang~~6019
▁tagg~~4168
▁scare~~5804
▁sling~~12399
▁scarc~~5860
W~~3019
Telescope~~14470
reviewe~~12615
▁zip~~4456
▁behav~~870
▁Kind~~13482
▁King~~2296
▁scenario~~3859
▁retrac~~549
▁shade~~8342
nix~~14235
▁Kino~~13699
filter~~12380
▁fashion~~3804
▁destiny~~12872
▁Access~~9901
ste~~9659
rand~~10632
rang~~9554
industrial~~3639
▁Guy~~7473
▁Gut~~11141
▁biofluorescen~~14621
▁puff~~9664
Å~~14683
▁accept~~1453
▁neurosurgeon~~13614
nis~~7223
▁achiev~~1556
▁eastern~~3666
▁Virginia~~8236
▁pl~~11003
ê~~2363
é~~4997
▁po~~3660
eladu~~10967
▁pi~~5148
í~~10472
▁during~~1995
tor~~2045
▁pe~~6827
top~~325
à~~12901
ç~~10016
▁race~~1067
▁Silver~~10261
▁friss~~14507
ú~~14394
▁Trott~~14552
ø~~13244
ton~~5790
▁underlie~~12821
ü~~13747
ó~~10471
▁pu~~4707
ñ~~1755
▁Roth~~10774
ö~~2780
tod~~8532
▁Dennis~~11715
▁beer~~1270
▁bees~~8310
▁Organism~~13719
stelle~~14379
▁demonstrat~~4858
derson~~9922
▁pressure~~512
▁beef~~6940
conserv~~4123
▁climber~~3868
▁been~~80
▁captain~~4128
▁expenditure~~11083
▁farming~~3710
▁TaskRabbit~~11613
▁choosing~~2129
▁wa~~11226
▁BMW~~7410
ology~~5973
▁deployment~~9786
▁compare~~2674
▁express~~3035
rag~~4638
▁tragic~~4059
fashion~~9419
▁neurons~~5426
▁Jenni~~10063
ran~~1446
▁enem~~1260
ram~~8999
▁catheter~~12295
Sharing~~13642
rat~~992
ible~~4811
rap~~9662
▁guarantee~~7529
▁organiz~~9571
▁promotion~~1232
▁Small~~13861
ray~~2996
▁products~~3350
▁significant~~4072
▁Nan~~11830
RB~~11130
-~~266
▁destructive~~7840
▁1991~~6107
▁1990~~1347
▁epidemic~~4464
▁1995~~7608
▁1994~~7598
miculit~~14619
though~~694
▁Egypt~~3630
▁97~~8431
▁different~~230
▁blossom~~11020
▁bizarre~~53
▁1982~~8682
▁local~~3011
▁minaret~~11171
▁achievement~~2320
́~~14700
flow~~11586
▁Innovation~~11259
▁infectious~~7429
▁soft~~8031
R~~646
ecause~~7854
▁Uta~~9489
▁off~~628
▁fold~~6299
▁folk~~7912
▁sake~~6661
ermafrost~~10291
▁cocoon~~11331
▁noise~~5760
▁splendid~~12864
▁1,8~~14574
▁1,9~~9754
Guru~~14160
▁1,1~~3480
▁1,2~~6368
▁1,3~~10571
▁1,4~~6836
▁health~~820
▁1,7~~7310
▁invitation~~6659
▁formation~~6318
▁barbecue~~10717
▁laureate~~8028
▁Soviet~~6349
▁knowledge~~898
och~~8856
ock~~4522
omuncul~~14369
oca~~12896
▁Register~~13447
▁fearless~~5678
▁Colorado~~10370
▁Right~~7408
Vo~~12306
▁9,000~~5657
▁broke~~5609
▁Protei~~12427
▁Polit~~14084
▁etc~~3107
▁labyrinth~~10501
watch~~5116
▁repel~~10593
▁Polic~~8277
▁Dynamic~~11989
▁half~~388
aught~~1341
▁Hodg~~5492
▁Polio~~4232
▁hall~~3099
▁habitat~~45
▁trip~~5537
▁perpetual~~7382
▁Kim~~8352
boggling~~4923
▁Beck~~6443
▁Kit~~3769
▁Paradox~~13680
▁Hotel~~2130
▁diagram~~5370
▁dynamic~~1040
RI~~11929
▁historic~~8150
▁Se~~10816
▁Sa~~3201
▁stabilit~~8154
▁Sc~~1187
▁discharge~~4042
▁Subti~~14
▁So~~3078
▁inject~~1872
▁Si~~2077
▁hyper~~2855
▁CIA~~9768
▁finance~~8432
▁Su~~8565
▁St~~5121
▁Sp~~6914
▁misconception~~5984
▁devoted~~2839
▁disrupt~~11092
mut~~2222
capacity~~13576
mus~~5025
▁SM~~12376
▁SL~~11185
▁SI~~10194
▁Stephen~~5669
▁occupie~~7948
gabe~~8618
▁attract~~279
▁scholar~~4733
▁SP~~5945
▁SS~~11223
▁battlefield~~8809
▁Mobutu~~11246
▁Wirkung~~14419
▁smuggl~~9415
▁Bradley~~10924
▁toward~~2159
▁situation~~2606
▁usual~~1327
▁captivat~~164
Carlton~~8846
▁Crash~~12022
▁automat~~11102
wear~~8014
▁perpetrator~~9800
▁Domain~~14295
istine~~8766
▁embryonic~~12297
▁Normal~~14108
▁Norman~~9318
▁HTTP~~12203
tzen~~13737
▁actual~~328
▁Redwood~~13807
▁200,000~~4095
▁Management~~12185
kwa~~13407
▁clouds~~6117
▁mat~~1107
▁mar~~7950
▁map~~3640
▁Zealand~~4129
▁Mujahid~~13617
▁may~~698
▁preconce~~12838
▁mag~~475
▁EPA~~6536
▁mad~~4426
▁consumption~~1598
▁translation~~10485
▁setting~~489
▁mal~~4889
▁mak~~13058
bureaucratic~~1638
▁Tinker~~9284
▁thermal~~3376
▁nerve~~3940
▁chunk~~5011
simplification~~5430
▁observ~~2901
▁completely~~725
▁rubber~~6756
▁plot~~5985
vatar~~13811
▁balloon~~7190
▁respond~~1526
board~~2198
▁biomaterial~~10190
▁plunder~~13506
lept~~6776
▁Leave~~6452
▁INCRA~~14727
▁together~~251
▁Route~~9585
craft~~10150
catch~~4157
▁Prostat~~12742
▁Boni~~14660
▁magni~~6203
▁tackl~~2172
▁Horror~~12122
▁USD~~14333
▁Detroit~~9313
▁Bond~~13084
▁respirator~~11494
n~~210
▁founder~~6751
▁migrate~~8047
▁forest~~3200
▁gorgeous~~4002
▁Jung~~9604
▁paradoxical~~2929
▁triumph~~4783
▁compuls~~7848
▁Toyota~~8571
▁Ensemble~~13299
▁Toxo~~14722
▁Misch~~13913
bilitat~~10436
▁enough~~597
▁explosion~~1789
▁conclude~~8267
▁Lesl~~8044
▁retrospect~~6713
▁dropping~~8867
▁megafauna~~10172
▁Hund~~12362
▁Partner~~4233
▁Stone~~5520
▁awkward~~2110
▁from~~71
▁crippl~~4228
▁irreveren~~12788
▁revolt~~13275
▁outbreak~~4222
▁Anti~~12119
▁sculpt~~6304
▁Spiegel~~9900
▁Arthur~~10442
▁immunize~~13792
▁servant~~10663
negativ~~10382
▁bathroom~~4413
▁device~~5549
pick~~12626
schen~~7184
▁Clean~~3472
action~~6271
scher~~9251
▁misuse~~12875
▁fuck~~7466
▁meaning~~1300
▁Humor~~14486
cycle~~4079
▁simulate~~9761
▁watt~~8901
▁Temple~~9338
▁Analysis~~9904
▁agonizing~~10055
ocean~~350
▁Rotterdam~~2426
▁organic~~1772
▁bitter~~1513
▁Hunt~~13593
iche~~14054
▁graphic~~3055
▁interior~~3796
▁Medica~~7983
▁weight~~1774
▁involve~~2763
▁1500~~11094
▁launch~~4099
▁Na~~6231
▁Ng~~5880
▁Ne~~1282
▁Ni~~1754
▁No~~2710
▁chemical~~442
▁Fred~~9103
▁lion~~6952
▁fiddl~~9245
▁ministr~~7307
igai~~14036
▁Luft~~5908
▁reputation~~9587
▁vitamin~~4285
▁NO~~12692
▁Mauriti~~9063
▁meter~~1827
▁styl~~6714
D~~1767
unter~~12837
▁Myhrvold~~11425
▁Janin~~13958
cultural~~8112
▁satisfie~~11383
▁somebod~~2695
▁western~~6240
sanitary~~4629
ige~~14017
▁emotional~~1106
▁naive~~3316
▁rough~~2508
▁Supernova~~14657
50~~3577
▁Manya~~14705
specific~~11396
▁impose~~10013
▁Russia~~4227
▁Johnson~~5762
hund~~7040
▁cent~~2629
▁Bernoulli~~12776
▁Catholic~~7613
▁Server~~12023
▁Jamaica~~10094
▁McNugget~~9209
▁opportunities~~1437
▁surviv~~6390
HO~~1784
HC~~10961
▁Utopia~~3706
▁neuroscientist~~1854
ick~~5961
▁Kahn~~12847
Life~~12443
ich~~3278
▁bow~~2950
▁bot~~6999
▁Gail~~8944
▁box~~94
▁boy~~2193
▁unhealth~~12219
Hu~~2542
▁Sprit~~8973
€~~14739
exhausti~~10617
▁particle~~8456
▁invisible~~5771
▁bon~~8326
▁boo~~10449
▁landscapes~~203
▁Braille~~9780
▁Bergen~~14549
tour~~8764
corn~~6066
▁Olympic~~7213
▁Olympia~~1077
▁population~~525
ASDF~~14556
▁golden~~9055
▁Negro~~6748
verflow~~12819
▁Wikipedia~~7335
▁depressiv~~13710
▁portray~~3798
plus~~1740
▁value~~819
▁medicine~~1158
▁eeri~~11559
▁White~~8599
produc~~5963
▁judicia~~11262
▁nucle~~6994
▁Vietnam~~4541
presence~~5645
▁irrit~~12220
▁cybercriminal~~13282
ahn~~12334
ahl~~2255
two~~10046
ahr~~13243
▁Francisco~~1749
▁Copernic~~12983
▁Blind~~11149
▁live~~302
▁depend~~1616
▁occupation~~3983
▁master~~5919
▁Norwegian~~9050
▁microwave~~6198
▁Canne~~9379
▁sticks~~4419
▁Taylor~~7454
▁purchase~~8054
▁induce~~11394
▁Randi~~12738
lage~~2168
▁correct~~2410
▁analytic~~10747
head~~1333
evelopment~~8023
▁sensor~~443
▁habits~~5571
▁echo~~9006
▁chopp~~6692
counterintuitive~~10169
▁suffocat~~5590
mals~~14604
▁Stewart~~2127
▁horrify~~7512
▁Warhol~~13501
▁Katrina~~11510
▁settlement~~3613
▁publisher~~7531
▁reef~~12115
▁Kill~~10244
▁quo~~5947
▁hierarch~~9122
▁zoo~~3468
▁silk~~10031
▁cutting~~2536
▁reactor~~11403
rahi~~12622
▁habe~~10902
nna~~3281
▁Eiffel~~9873
▁Ostro~~4050
▁ceremon~~7575
▁188~~10084
▁realm~~6194
▁reall~~311
trip~~2782
assembl~~5976
▁psyche~~11968
▁vi~~3822
▁tackle~~1994
no~~6884
▁psycho~~8676
na~~2977
▁va~~4317
ne~~1771
ng~~4196
til~~764
tin~~5211
▁International~~3788
▁Hoffman~~6345
▁photojournalist~~13815
▁185~~6126
▁elbow~~3922
tig~~12718
tic~~3223
▁bor~~7515
▁Air~~4496
▁adopt~~4153
▁panel~~6047
▁funnie~~9984
climate~~12694
▁cataract~~8663
▁magnet~~10195
▁sensory~~3959
▁plott~~10403
▁Prime~~7628
▁democracy~~2093
▁exit~~5820
▁intervention~~5316
▁Moore~~3328
biopsie~~7096
▁Ente~~13796
▁trench~~9456
▁auditorium~~6340
▁overall~~6320
▁rudder~~12426
nthia~~12724
▁griev~~11524
ica~~2048
▁Leviathan~~14365
▁Elizabeth~~2312
▁station~~5661
rob~~7917
focus~~1202
▁wireless~~11108
▁Okapi~~13392
▁Skeptic~~11836
llo~~3484
conceivabl~~7792
▁centuries~~6083
ros~~5201
rot~~6891
row~~3204
▁enter~~1214
▁Litt~~4768
▁ethnicit~~8448
▁stereotypical~~12077
▁candle~~12255
▁client~~3091
▁Wagner~~3071
▁histories~~1965
▁Now~~10427
▁Not~~3309
▁Nor~~5130
Day~~11753
▁depart~~4555
▁biochemist~~11193
▁exile~~6660
▁Lolli~~14446
fspring~~6591
▁refrigerator~~2660
▁label~~3699
▁limit~~1693
▁visualiz~~9532
▁napkin~~4630
,2~~12618
▁Public~~7995
level~~8071
▁tool~~3726
▁font~~13869
Terrain~~9794
▁fantasie~~9691
▁Lady~~5958
▁devices~~4328
▁Beethoven~~10712
▁down~~240
▁sail~~2220
▁Sarah~~11514
▁prairie~~6262
▁apparatus~~11068
lever~~7506
▁tuberc~~8639
▁Tumor~~12937
▁representative~~4742
▁trees~~940
▁47~~9816
▁autist~~6526
trend~~5138
▁resign~~10518
▁Sisyphus~~13502
Rev~~10418
▁electrochemi~~10860
▁scar~~4030
▁hippocamp~~7700
▁Pearl~~6365
▁thousand~~414
▁Rang~~12236
takeoff~~11278
uzzle~~12333
▁chorus~~2961
▁freez~~566
▁pragmatic~~7896
port~~8079
▁autism~~6525
Champion~~2407
▁Merri~~10689
▁Geruch~~13474
▁proliferat~~3534
▁Wireless~~14314
ecker~~10228
eritage~~4150
▁welcom~~12497
▁scal~~10487
▁Mexic~~6825
retroviral~~12994
▁Lehman~~11924
▁vegetarian~~7287
▁special~~176
▁depict~~7108
▁Sumatra~~7621
▁exoskeleton~~12175
▁humanoid~~7651
▁nano~~2463
▁deepest~~6684
water~~4162
▁Ragu~~14567
▁classroom~~1641
▁graduat~~11976
▁hand~~564
▁hang~~5814
▁denominator~~12640
▁vote~~3233
▁Roosevelt~~7346
▁orthopedic~~7226
magine~~11336
ional~~9958
▁Fox~~10660
▁activate~~3960
▁attempt~~5464
▁commonalit~~10943
▁Bear~~6680
▁compil~~5582
▁fusiform~~8683
▁non~~1847
▁nourish~~6586
▁oxide~~12510
▁McDo~~12520
▁Humanit~~12581
▁exclusive~~3239
▁jihad~~13615
enicillin~~9391
▁site~~697
▁hanging~~4432
▁Typ~~9000
▁Forest~~10309
▁now~~440
▁not~~82
▁48~~8275
▁nor~~2334
▁sitt~~675
▁Popular~~7580
▁appetit~~2327
▁exponential~~8199
anda~~5670
▁worldwide~~4278
▁Industrial~~977
▁management~~3889
▁Asthma~~12780
▁evoke~~5718
rios~~10512
▁decrease~~1178
▁brutal~~2133
oruba~~13745
▁amplify~~10537
arcelo~~10650
fuel~~13505
▁gravity~~9128
▁lawsuit~~11148
Time~~13093
▁Update~~9899
▁Tunisia~~13026
▁coming~~406
▁myself~~2441
▁Tit~~12984
bility~~6319
▁Buffet~~9465
▁years~~700
▁burned~~2558
▁v~~2183
▁Technolog~~9225
▁decent~~3080
▁Porc~~6211
stream~~4508
▁p~~670
▁Kund~~14133
▁article~~5047
▁z~~1001
▁compromise~~1458
▁x~~5967
▁g~~5020
▁f~~1967
<pad>~~0
▁Port~~4380
▁c~~1340
▁b~~916
▁a~~170
▁dye~~7277
▁o~~1207
▁k~~910
▁i~~9910
▁h~~2237
▁W~~929
▁V~~638
▁U~~1348
▁T~~17
▁S~~1786
▁R~~3333
▁their~~341
▁financ~~5240
▁Z~~9551
▁G~~832
▁F~~463
▁E~~825
▁D~~2773
▁C~~498
▁B~~1818
▁A~~2359
▁O~~5603
▁N~~4636
▁M~~2779
▁L~~3384
▁K~~769
▁J~~7212
▁I~~62
▁H~~1570
▁7~~5818
▁6~~1732
▁5~~5459
▁4~~1702
▁3~~1910
▁2~~4779
▁folks~~4414
▁0~~9300
▁?~~232
▁byproduct~~9553
▁;~~804
▁:~~6
▁9~~4566
▁8~~5821
▁cancer~~4758
▁&~~36
▁fighters~~4810
▁.~~58
▁-~~2768
▁,~~29
▁Suppe~~14438
▁mess~~3109
▁upward~~8102
▁importan~~2062
▁audaci~~9054
▁aus~~8836
▁Aviv~~10891
▁Suzan~~10911
▁arous~~10718
uent~~11771
▁passion~~2283
▁cramp~~11305
rger~~13178
▁Hall~~3067
▁disaster~~745
▁Chi~~6968
▁unten~~6925
▁interconnect~~12949
midnight~~4778
▁Cha~~6505
▁system~~530
▁originate~~4225
▁Chu~~8061
▁Chr~~8495
▁intim~~14702
▁sketches~~7462
▁Build~~7498
▁hypothese~~9648
▁blow~~1782
▁fand~~14457
▁marble~~5608
▁tongue~~7215
▁revolution~~792
▁occurr~~2493
▁whack~~608
▁recogni~~5714
▁blob~~3686
▁little~~258
▁cumulative~~4610
▁blog~~5490
uvre~~5535
▁speed~~2083
▁Peter~~1878
▁please~~3901
▁surrounding~~3511
▁Hollywood~~1997
▁must~~1138
▁loud~~2261
▁Kuwait~~11676
▁muss~~12604
▁globe~~4221
▁Pipeline~~13971
▁distraction~~5172
▁Magellan~~13892
▁muse~~6144
▁Fluctus~~12976
▁lous~~4671
tern~~10948
term~~2920
name~~5810
▁impact~~1435
▁struggle~~4782
▁encode~~2599
▁Methan~~13112
realistic~~10402
disciplinar~~8592
▁mushroom~~8830
▁Ridge~~11551
▁Photo~~9279
▁strength~~1673
▁Golden~~10020
▁Ottoman~~12348
▁disorders~~6527
▁Lu~~8065
▁Vivian~~14334
▁Shanghai~~1414
▁shredd~~2631
▁Janeiro~~9868
▁Lo~~3088
▁La~~3119
▁Le~~7317
▁slides~~2770
▁click~~5980
▁wrapp~~6682
▁ice~~2528
▁flush~~3966
rotten~~11378
profit~~4926
bodie~~11480
▁LS~~14344
▁Samarit~~10437
profil~~10945
▁ingenuity~~9405
▁cage~~7018
▁Nye~~11216
▁backward~~1141
▁recycle~~3363
▁LG~~8038
▁condescen~~8249
▁Arm~~9785
▁soldier~~3300
▁Odysse~~12612
▁Mau~~6624
▁24-~~11884
▁Are~~6904
▁Papa~~13651
wal~~10360
curable~~5251
▁Arr~~12264
▁institution~~4905
▁Sophi~~10528
grab~~14511
▁Art~~5559
▁good~~553
▁evolution~~1027
▁west~~3215
amma~~6584
turn~~7890
turm~~13687
enmark~~5132
msala~~13992
Touch~~14501
ture~~3793
▁Singer~~12571
▁causing~~4292
dient~~11005
▁precaution~~4029
▁outlier~~11131
▁Johnny~~4430
Hertz~~12395
dia~~8791
▁mediocr~~1454
▁manual~~8719
▁calamit~~9287
▁combin~~1455
▁choose~~2034
▁Pool~~12379
engineer~~6031
▁Cy~~8110
ial~~4113
ian~~1188
▁clash~~5045
designer~~13106
clinical~~9825
▁educational~~1680
▁snap~~2967
▁Monolog~~11755
white~~2160
▁class~~1505
▁lady~~6063
▁retaliat~~12102
alai~~7826
▁Associat~~12569
huh~~8360
▁color~~797
▁quadruple~~11350
ophile~~13775
▁humid~~10509
▁descend~~7883
hus~~6910
▁about~~105
▁dismiss~~8843
population~~5282
▁Elisabeth~~13552
▁protection~~4039
▁ask~~1191
▁sales~~6878
▁textbook~~7513
▁schmi~~14230
▁Book~~6838
▁finding~~1482
r~~353
▁Aich~~9693
▁bundle~~11692
▁Orange~~10363
▁rooftop~~8049
and~~3519
ane~~9072
▁Hunter~~8491
ang~~3211
▁clunk~~9661
ana~~5757
pro~~3428
ano~~6593
▁began~~1525
ani~~5836
prostitution~~8024
ank~~2293
ant~~2323
▁harbor~~9923
▁culture~~818
▁combine~~3137
▁Nathan~~11424
▁Mutter~~12149
anz~~13671
▁Blanc~~14187
▁November~~9702
▁transistor~~10977
▁bride~~10620
▁annoy~~2385
▁Sue~~12531
▁Electric~~9238
▁cardio~~12796
▁kettle~~10488
▁pivot~~12310
▁Viagra~~9136
animation~~14755
▁Cantor~~14493
mination~~8226
▁parachute~~4475
▁RNA~~5314
▁Singapore~~1415
▁participant~~9995
▁deeply~~5096
▁would~~481
urga~~8803
▁brothers~~4306
▁Command~~13145
▁prophet~~3996
▁paper~~1716
▁seeing~~450
▁tack~~7251
statt~~12515
▁hast~~8169
▁vocaliz~~13498
▁prophec~~11679
▁modify~~9673
▁William~~8611
▁trigger~~5780
PP~~13059
mber~~9341
▁Milan~~1946
▁connotation~~9593
▁communal~~1973
▁merit~~5732
lux~~13313
▁Harrie~~11281
▁Boltzmann~~14014
▁rivers~~4090
▁Press~~12570
▁perpetuate~~6669
▁authentic~~3236
▁tried~~657
▁considerabl~~5260
monade~~13206
▁Barricelli~~11785
▁Gestalt~~14324
▁mouse~~5353
▁vacation~~1838
▁training~~4478
▁Wort~~14058
arez~~13314
▁incentive~~2634
▁torpedo~~7988
▁mentality~~1223
▁via~~5644
hack~~9139
trop~~9821
oohoo~~930
▁mismatch~~10330
▁hustle~~9412
▁memorize~~7518
▁ta~~11497
▁Real~~8383
wood~~939
ossi~~9393
escent~~3608
▁Volta~~13193
▁Read~~12469
▁delay~~4516
▁to~~32
▁Malaria~~14741
▁visionar~~11556
▁earlie~~3675
▁Psycho~~11582
H~~5364
▁machine~~2114
▁Misha~~13278
▁inherit~~9437
▁negotiation~~7949
▁craftsman~~7425
▁opium~~8760
▁Sahara~~8868
▁discrete~~6636
closure~~11964
▁engineers~~5660
▁Herschel~~10563
▁emergenc~~7587
▁homeopath~~13893
▁Christoph~~13237
▁course~~1580
▁curve~~3838
▁lips~~8458
▁Tablet~~13700
▁crunch~~2591
▁endanger~~6261
▁Universe~~6171
through~~9836
schatz~~9857
▁gigabyte~~9070
Syndrom~~13851
▁Ultra~~2451
▁Alligator~~14584
▁gro~~10269
▁elastic~~9573
▁gre~~2033
▁dish~~3968
▁gra~~5019
▁Gottes~~14496
▁application~~2523
▁Maldiv~~13141
▁Luther~~8274
▁metaphor~~3022
ehran~~3291
▁Mandela~~8628
▁occasion~~2054
amel~~11855
▁there~~134
)~~3077
▁advantage~~1033
voluntary~~10828
ways~~8103
▁General~~8923
▁ELAM~~14696
▁1953~~9305
▁peasant~~13993
▁table~~2630
gainst~~12586
▁verify~~4054
▁overlook~~9938
▁Schock~~12261
▁consequences~~3466
▁banal~~12557
▁teenage~~2068
▁inaugura~~10217
▁renewable~~10308
▁public~~1520
▁closed~~2765
▁Rabbi~~10429
▁reading~~839
▁moment~~257
▁Organ~~11935
Prince~~12900
▁Fabian~~12764
▁Irrational~~14614
▁estimates~~10264
▁Hercul~~14212
▁Video~~11284
▁manuscript~~7151
▁green~~1413
▁Jami~~11116
▁communicate~~2886
▁waist~~11706
▁surpass~~12707
▁Limb~~11998
▁fly~~383
color~~3916
▁flu~~4283
▁destin~~7227
▁Fell~~13987
60~~6038
▁kne~~465
▁Down~~5164
▁Thing~~9299
arium~~6180
▁fle~~2205
▁fla~~8085
▁Think~~8583
late~~2239
ket~~10543
▁cosmetic~~10407
▁each~~1765
ivers~~12148
▁Participa~~12578
▁Dewey~~13636
▁Locke~~13846
▁nutrition~~4754
▁irrational~~2555
▁Defens~~6372
▁25,000~~8886
▁exert~~6302
▁astronaut~~2294
▁Jean~~9685
▁vase~~9250
▁coordinate~~4578
▁signed~~6461
▁precipitat~~8866
▁Department~~6254
▁adaptation~~3193
minister~~13830
emeni~~13268
▁vast~~1996
▁quarter~~2185
▁lethal~~9797
pilot~~13785
case~~7679
▁conceptual~~3725
▁Chag~~10435
▁rating~~8445
▁stories~~70
▁affirm~~10432
cast~~5626
▁server~~10300
▁catalyze~~11074
▁Dylan~~3142
▁Tunnel~~14186
▁Wi~~2278
▁Wh~~2406
▁Wo~~10147
▁Wa~~8990
▁We~~2149
▁replicate~~7157
▁expensive~~1479
▁addictive~~6890
▁Buckminster~~12319
▁splint~~12932
▁jungle~~10148
▁Wu~~8060
▁WI~~13354
▁cart~~10037
▁humans~~1029
▁sulfur~~681
▁marked~~4008
▁passionate~~2180
author~~9988
▁Remote~~13776
XXX~~14585
▁Naja~~14046
check~~11535
▁Leonard~~12787
▁marker~~7714
▁market~~2605
▁Mumbai~~5668
▁Material~~7563
▁patern~~7756
▁feels~~3819
week~~5127
▁59~~13265
▁Wisconsin~~9667
▁Source~~14257
▁populate~~3416
▁Bollywood~~13276
▁combination~~4353
▁speaking~~1117
ness~~922
▁shuttle~~10072
▁adviser~~9762
▁impoten~~13032
IM~~4701
changing~~8245
▁Madagas~~4017
▁ripp~~2568
▁eliminate~~1261
▁Jay~~4396
▁sushi~~7566
heila~~4448
▁Jar~~10282
▁paranoid~~10890
eureka~~11291
▁behold~~4458
▁Geist~~14398
▁Instagram~~13554
▁areas~~583
In~~7579
model~~6037
▁chocolate~~4657
▁Pope~~10332
▁striking~~4274
▁tomato~~7273
ē~~12684
▁met~~3005
▁seasonal~~4141
▁etern~~7788
kill~~3977
▁men~~3530
▁Rive~~11096
▁epidemiolog~~13696
▁glimpse~~1706
▁being~~559
druck~~14441
▁identification~~6970
▁puzzling~~11779
rose~~8346
sambi~~14717
▁discipline~~3057
mann~~11997
▁appointment~~11975
▁Holz~~7174
▁ancestr~~7666
▁Ton~~12241
▁pile~~3733
▁bleach~~12127
tik~~13787
▁Arche~~12912
▁Illustrator~~13727
▁pill~~1899
▁meme~~776
▁better~~872
▁develop~~186
▁mock~~3828
walk~~10128
Mann~~10876
▁Bau~~13744
▁Katar~~12378
▁boson~~13894
▁Nano~~13041
▁Hans~~6285
ggy~~12713
▁Bay~~6856
▁doodl~~9288
▁Hang~~4299
▁accompani~~3991
▁solidari~~10279
orker~~3133
xytocin~~2808
▁dollars~~1811
simulator~~7025
▁project~~2023
▁Symphon~~6897
▁clinic~~3915
▁flatten~~13018
▁Superman~~11311
▁Lewi~~5433
Master~~14031
▁Labor~~13673
▁send~~2801
▁Tokyo~~2425
▁Archae~~9669
▁sent~~1541
▁loving~~10318
moor~~13254
▁PRISM~~9884
▁Segment~~13042
♫~~12361
▁sens~~6395
▁Jagger~~9581
▁neocort~~14276
▁Tob~~12472
▁taxi~~5208
und~~5577
▁Rose~~8777
▁fast~~3047
▁Langle~~9769
▁jar~~8966
▁lose~~4367
▁taxe~~855
▁jaw~~8316
▁Ga~~6355
▁cute~~6946
▁Bai~~11534
▁horizon~~4776
▁dysfunctional~~11328
▁loss~~4950
▁lost~~2409
▁PCB~~6587
_~~13771
▁brother~~4408
oo~~354
on~~1105
om~~4506
ol~~1152
ok~~1378
▁taken~~1552
oh~~12617
of~~1084
od~~326
oc~~324
ob~~5748
▁beans~~9957
▁Brust~~13438
▁flag~~3250
▁Parag~~13798
▁subscribe~~9134
stand~~1338
▁49~~12388
ow~~1808
ov~~3289
ou~~2354
ot~~3084
os~~920
or~~1295
op~~1770
▁provide~~845
▁Orang~~14738
▁hearts~~8613
▁workshop~~4176
▁Blu~~5597
shima~~12425
▁paid~~1506
▁strip~~7241
rising~~3583
▁Robbi~~11637
▁were~~479
▁pain~~1858
▁faci~~9221
▁sugar~~542
▁Purpl~~11316
▁Wol~~6928
ehr~~13907
▁decorati~~10722
▁host~~6182
▁flood~~5221
strich~~9651
▁nutrient~~7026
▁Nike~~8094
▁uncertain~~12845
▁popped~~3286
rwin~~8844
iaoping~~11921
▁facilit~~3873
▁increment~~12843
▁floor~~460
▁Rosi~~12036
▁comic~~9589
▁App~~10702
▁Signal~~14723
▁issue~~1523
▁punishment~~2624
▁discover~~2039
▁LOLcat~~7556
▁programmer~~6167
▁shoreline~~9955
▁smok~~676
▁evolutionary~~3218
▁goals~~1690
▁pelvi~~9078
▁skyscraper~~7490
▁beetle~~7003
▁confus~~3105
▁goal~~1652
▁contribution~~7265
▁Dream~~9237
▁Experiment~~2668
▁miserable~~1277
▁Hab~~13508
enopaus~~7085
▁myriad~~10319
ollateral~~11852
▁tissue~~5432
▁Theater~~9987
▁flap~~333
▁sound~~404
▁charit~~8427
▁bist~~12389
Space~~12383
taste~~12869
▁Pomp~~7594
▁West~~2445
▁velocit~~5343
▁2010~~5739
▁genial~~6086
together~~7166
▁quantify~~6244
▁Brenda~~12748
diversity~~1620
▁monitor~~3970
operation~~13644
▁squeeze~~10034
▁Mercedes~~12031
▁sulfide~~483
▁2.~~7663
▁thirst~~9713
quator~~13140
▁reader~~5214
▁26~~4242
▁27~~4479
▁24~~3924
▁25~~2026
▁22~~4576
▁23~~4691
▁20~~1279
▁21~~1778
▁Klo~~13722
▁28~~5456
▁29~~4647
▁dinosaurs~~6574
▁fragile~~733
▁situat~~10214
▁coat~~2457
▁Rom~~11343
ICE~~8936
▁Mozambi~~8718
▁Caracas~~13457
▁envelope~~2682
▁coal~~9038
▁overhear~~10425
▁words~~1859
▁breeze~~7894
▁environmental~~6613
▁Juliano~~14673
▁innovative~~982
▁dropp~~4682
▁portion~~6483
▁Challenge~~12012
▁four~~2381
ories~~6734
▁nanometer~~2495
▁Crohn~~9724
▁won~~962
all~~5939
lace~~9823
.000~~14101
▁worthwhile~~2627
▁weekend~~8100
ale~~1584
▁insert~~7244
▁Lead~~13064
▁balanc~~7051
Hop~~13323
▁mirror~~1610
▁wow~~5784
▁carrier~~4330
alt~~11862
▁Ekman~~14296
▁Europa~~10969
▁algae~~9843
▁traditional~~1537
▁Turtle~~13062
▁jail~~10327
▁illiterate~~8099
▁virulent~~11822
▁Pre~~7070
▁Abdul~~13887
▁Pass~~2614
▁unthink~~5075
▁chamber~~9007
▁Pro~~191
▁bribe~~10012
▁smart~~2965
▁Wiese~~13643
▁Pri~~10561
▁wound~~6148
woman~~7930
▁tolerance~~8111
▁thermo~~8339
▁Renaissance~~6099
far~~7657
▁consume~~3581
▁Memori~~12501
induce~~5550
▁journey~~2200
▁sphere~~3039
fan~~13410
▁toast~~12126
▁superstar~~8516
▁archeolog~~3818
▁playful~~1132
▁arithmetic~~10835
▁render~~8058
▁airbag~~12042
list~~13476
▁resource~~1660
pping~~5040
▁themselves~~2206
▁rein~~1293
▁underestimate~~5365
▁Row~~11610
EM~~11156
▁visit~~3393
tel~~5411
ten~~520
▁reconstruct~~6095
▁rethink~~2469
rate~~1969
▁Farbe~~12924
design~~6939
▁ramp~~9375
chmal~~13957
ter~~3419
▁league~~10294
▁owners~~9562
▁worker~~7489
plex~~7739
▁puppeteer~~12642
what~~4935
▁debut~~8498
▁intimidat~~10058
▁Saturday~~6224
▁panic~~4206
▁Brain~~2867
brief~~5482
▁peacebuild~~14672
▁duplicate~~6977
▁Volvo~~9381
▁milk~~4641
▁mill~~5896
▁breaking~~91
▁excite~~11183
▁contractor~~7505
▁David~~4
ahedron~~12982
racing~~5199
▁mile~~387
▁clam~~2925
▁pur~~3371
▁pup~~6582
▁Metall~~14540
▁Genom~~10236
▁put~~262
▁seaweed~~12118
▁electora~~10698
▁pub~~7764
tage~~9563
▁stance~~9434
▁sentence~~4563
▁riddle~~11472
▁tension~~7424
▁white~~492
▁suppose~~5318
▁settle~~4301
▁Coke~~2659
▁Kran~~3879
▁sure~~2789
▁surf~~136
▁copie~~7535
▁cake~~3698
▁surround~~3615
▁Maslow~~9121
▁Toraja~~14307
▁male~~568
▁mall~~10347
▁intimate~~4660
▁germ~~5922
▁reminisc~~12373
▁glu~~1131
quawk~~13497
▁fears~~9890
▁Feder~~13768
▁roughness~~14170
▁contact~~474
▁asset~~986
▁stirring~~7748
▁acknowledg~~4818
▁entit~~4720
upert~~13279
smal~~10789
illion~~1002
▁exhilarating~~4784
▁scrap~~627
▁blast~~3188
▁built~~2861
▁1975~~6021
EP~~13215
▁--~~88
▁Safdie~~14071
▁historian~~6364
▁yo~~12852
▁transparent~~4609
▁fundamental~~3713
▁Butter~~11761
▁endur~~2091
▁dose~~4003
▁same~~609
glas~~11913
▁old~~1087
▁dissent~~11135
▁Islands~~3449
problem~~14198
▁Resnick~~13658
▁PG~~13928
known~~6333
▁delusion~~7853
▁spiral~~9626
▁underdog~~12266
▁threat~~8421
▁Bowl~~8220
▁tear~~2135
▁hospital~~2557
▁Architect~~12243
▁sync~~3812
▁Earth~~35
▁thread~~7956
▁negotiat~~2337
▁twitch~~13490
v~~6414
▁Morris~~12650
▁team~~1205
▁column~~4172
▁Jake~~10545
pont~~6749
▁writ~~1731
▁ways~~1618
▁creatures~~274
hearted~~10043
▁counterpart~~10185
▁freak~~5152
▁Narr~~10390
▁Vo~~11271
ū~~14645
▁dividend~~9567
▁wilde~~14165
breaking~~10182
▁privat~~14708
▁minimum~~7501
oyo~~12634
▁interven~~11926
tasking~~14000
w~~276
▁visualization~~6168
▁7.~~12995
▁celebrat~~1160
▁interaction~~4551
etera~~13848
▁infanc~~5677
testament~~11558
▁Spa~~1788
▁unfold~~4267
▁ingredient~~4389
▁impoverish~~10705
▁blindfold~~12610
capitalize~~4866
▁Madam~~12701
▁cooperat~~9897
▁medication~~8291
▁Cartoon~~14740
▁generalize~~9835
▁160~~318
ardi~~11641
▁journal~~7152
▁Carnegie~~2688
Player~~14735
▁Mary~~8916
▁illuminat~~2311
▁16.~~13655
Tech~~10587
▁16-~~4433
▁Henry~~4409
▁chariot~~5197
▁reverberat~~3081
▁Trip~~14193
▁power~~1936
▁Ur~~3619
▁Up~~6772
tribu~~9138
▁remote~~3405
mission~~12806
▁improvis~~11454
▁progression~~5331
▁Tee~~7327
▁rearrange~~11123
▁mustard~~12921
▁Un~~8391
▁Tel~~4800
▁rhetoric~~7063
▁weather~~1757
▁Eagle~~3043
▁UV~~6062
style~~7858
▁quit~~2430
▁US~~8296
▁annihilat~~9790
ompatible~~11182
▁physicist~~7059
▁identit~~1955
▁invent~~1397
▁receipt~~4952
▁UC~~9735
▁neuro~~8563
▁UN~~8935
▁fluctuation~~13607
▁UK~~8597
nach~~4626
▁Multi~~12002
Shabaab~~12461
▁Meggendorfer~~9396
▁landscape~~633
L~~3288
▁ring~~4656
▁temporal~~6477
▁Marker~~14690
▁atmospher~~1704
▁psychiatrist~~11633
▁mytholog~~8505
▁algebra~~10045
▁Faiza~~14731
▁Doug~~6441
▁Ells~~2835
▁Hawking~~10232
▁inmates~~6235
▁lives~~544
▁liver~~10409
▁coworker~~10953
▁ticket~~5165
▁logge~~11359
▁perspective~~717
▁Calvin~~9805
▁inquiry~~10555
▁Gayla~~14618
▁Hawkins~~10916
▁improvement~~1364
▁Flut~~14563
▁Jona~~8298
▁Capgras~~14439
▁Ritz~~9327
▁Gustav~~13452
▁Control~~11493
▁crayon~~8356
generation~~5348
▁sophisticated~~2181
▁laugh~~5026
▁bill~~2665
▁efficient~~3206
gun~~9040
▁surgeons~~4761
▁Information~~12092
▁tribute~~10780
▁Rita~~13326
▁efficienc~~4966
▁intrinsic~~10247
▁arrange~~4661
▁sperm~~6600
▁Skycar~~11270
ize~~4922
gur~~3453
▁uncommon~~9841
▁Larg~~12172
▁pasteuri~~10405
▁branches~~1720
▁laughing~~1137
hili~~12560
▁images~~120
▁imager~~592
▁Zero~~10026
hill~~7249
▁spa~~3203
▁Robert~~4536
izz~~12046
▁Jaguar~~13978
▁Nations~~4066
▁pink~~7041
▁Invasion~~13729
▁qualification~~8907
▁Atheist~~14322
▁analog~~6326
▁welfare~~8625
▁ignorance~~7838
▁egg~~3697
▁fond~~7829
▁swear~~2649
▁release~~1917
▁luc~~6457
eanor~~7878
▁sweat~~2685
▁dead~~6383
▁Dach~~7039
People~~8658
▁deal~~2847
▁inequalit~~10325
▁CAPTCHA~~13478
▁author~~5576
▁Indus~~13461
▁prosperity~~8634
▁dear~~4444
▁lymph~~7144
▁Gutenberg~~13253
▁linguistic~~9382
▁integr~~4965
▁Agra~~12848
▁advertisement~~5021
cose~~12720
▁mir~~12170
▁Studie~~13953
▁SMS~~8591
▁Cla~~8415
aunch~~12240
▁Studio~~6915
▁Cli~~11663
Sinai~~12679
▁dashboard~~12817
▁spine~~2973
▁genes~~5417
▁conceit~~10987
▁Ree~~10751
▁self~~894
▁spinn~~4105
▁Pik~~1699
▁establishment~~12082
isch~~8373
▁cinema~~1981
▁Marco~~9354
▁petition~~8954
▁March~~3244
▁Steine~~13307
▁police~~6568
▁dinner~~2397
▁structural~~3953
▁curv~~6310
schw~~14625
▁Evaluation~~13560
▁polici~~1534
▁could~~283
▁rainforest~~160
▁curb~~5091
▁chick~~3455
▁cure~~4210
▁transition~~10286
▁curl~~2375
▁policy~~1464
▁announce~~13049
▁search~~1009
king~~1234
kind~~5726
▁tradition~~7188
▁decisions~~1173
▁Bedouin~~12680
▁minimize~~2571
▁schizophreni~~2915
▁twenty~~4211
Pachycephalosaur~~13157
▁disco~~3165
▁tools~~2352
uditorium~~14483
▁Mandarin~~11813
▁embarrassment~~12120
▁lemon~~11856
▁cue~~7726
▁innovate~~5402
▁Institut~~14392
▁variable~~1799
gala~~10978
▁should~~867
▁750~~4375
▁record~~96
▁unbe~~6332
▁oppress~~7867
▁context~~901
▁Wil~~9041
▁Win~~8629
▁Wie~~14637
▁Treat~~11128
riff~~8397
▁chapter~~1844
▁Wir~~7393
▁perfume~~8329
▁pirate~~6805
gill~~532
▁280~~14287
▁Anderson~~2535
▁dialect~~8948
reach~~801
▁stock~~2604
iful~~5312
▁notice~~2762
▁occasional~~2265
▁multimedia~~11873
amas~~8359
70~~3116
▁hydrocarbon~~10113
▁distribut~~8965
▁Moleeds~~12974
▁resemble~~7701
▁loose~~6363
▁remarkable~~2049
▁Transform~~8030
▁Palin~~12365
▁mash~~7358
▁mask~~6433
▁MBI~~7121
▁worrie~~2006
destruct~~10971
▁adversit~~9058
▁mass~~3403
▁operat~~869
▁excess~~9447
gramm~~14706
▁unfortunate~~3429
▁washing~~9732
▁Supercomputer~~10599
▁high~~659
▁orchid~~8315
▁modifie~~6982
▁2030~~11203
▁repurpos~~6875
▁Euro~~9342
▁kilogram~~4868
spective~~4288
wetter~~13171
▁synthetic~~6561
▁MBA~~4694
▁parent~~1691
▁rocks~~736
▁0.~~10520
▁marrow~~12268
▁platt~~14161
ies~~289
ier~~2946
▁Guzm~~13310
▁archetyp~~6315
iev~~5151
▁Librar~~9781
▁confess~~7325
▁hitting~~5462
Jo~~9271
iel~~14271
▁plate~~664
▁vulnerabl~~4144
hatte~~8219
▁biodiversity~~153
ief~~8664
▁Send~~12799
▁civilization~~3425
▁driver~~5062
BO~~13666
▁reluctant~~10377
▁salad~~9187
▁difference~~1425
▁telling~~1672
▁happening~~652
▁grizzl~~13600
▁Presto~~11045
▁Talent~~12728
hib~~13132
▁beginn~~13486
▁Arabic~~9795
▁Arabia~~12577
▁Egla~~8614
atorium~~13570
hin~~4844
▁conscious~~3943
▁Idri~~14456
dministration~~13317
▁rotat~~10919
▁Riley~~14203
▁mimic~~1862
rigonometr~~13702
▁Iceland~~8633
▁frustration~~4297
BP~~12133
▁Malthus~~12273
▁prevalent~~9155
▁drone~~12953
▁globally~~3575
▁convenient~~9127
iness~~6950
alanine~~12919
art~~3787
▁contemporar~~3799
▁win~~270
▁Denisova~~12870
ary~~1572
▁wie~~5689
▁wid~~2499
▁Babel~~12862
▁moisture~~7606
▁solve~~1398
ard~~1683
are~~9728
matic~~6990
ari~~6020
▁Patent~~12723
▁wir~~3935
arm~~2137
▁revitaliz~~780
▁results~~1201
▁faith~~2112
▁unwilling~~8922
▁Paul~~5904
▁mesh~~10807
▁Arno~~7302
▁preference~~9098
▁garbage~~4041
▁Chernobyl~~11172
creme~~9402
▁Newsweek~~10174
▁Box~~13557
▁Heinz~~14355
▁crisp~~10093
▁gradual~~7667
▁Regen~~14061
▁Ragh~~12540
▁happens~~848
▁pupil~~1961
▁Guitar~~2885
▁Pollock~~12631
▁Spam~~12782
▁Amnes~~13200
▁Heil~~13799
▁miles~~113
▁Sexual~~14586
▁universe~~5707
▁happen~~876
▁hawk~~8314
▁deaf~~8440
▁Hippocrat~~8727
▁Heid~~12670
▁Cooper~~5640
▁Edward~~7831
▁Bob~~3141
c~~991
▁Cluster~~11854
▁Thermo~~13169
▁reactiv~~7732
roman~~10337
▁development~~1103
▁Kiva~~13387
▁trial~~1923
▁petroleum~~10124
▁budget~~3537
▁Clark~~11665
▁reward~~5204
▁mind~~968
▁mine~~2082
▁ver~~8364
▁mini~~11180
▁vet~~11622
▁battle~~4557
▁ethic~~3345
▁addiction~~6147
▁flying~~1826
▁Hof~~13201
▁Columb~~6356
tium~~11621
▁tunnel~~11033
▁Me~~5397
▁Eli~~4049
▁cotton~~4649
pp~~4772
duk~~8161
pt~~3756
pu~~5108
▁Coast~~3213
chle~~9824
auto~~13044
▁illustrat~~8128
▁secret~~5601
▁Hier~~13906
pa~~5149
pf~~7007
▁nonverbal~~10954
pe~~4789
ph~~2393
pi~~1919
▁Juli~~10473
po~~2479
▁exchange~~2671
▁Pension~~14367
▁Min~~8073
gen~~6984
▁whirl~~5594
▁For~~7985
▁inherent~~7052
▁elegan~~10873
▁immediate~~2036
▁crack~~473
▁email~~2803
▁Delhi~~6652
▁Feuer~~13213
▁penni~~7487
frozen~~3918
▁Valley~~6709
▁videos~~5916
▁impressive~~1514
▁hover~~5141
mple~~11071
▁Mahl~~3140
City~~13175
▁School~~6773
▁approximation~~13420
ris~~5080
▁Violin~~11457
rin~~5700
▁doubling~~12860
▁1910~~12771
▁Thought~~13051
▁Napoleon~~11527
▁resist~~8354
rie~~8053
anguish~~10892
▁paradox~~7433
ria~~3125
aged~~4729
shirt~~2686
akti~~13616
▁primari~~3216
▁Nir~~10219
▁Scratch~~14320
▁Nil~~10115
▁beside~~1185
shire~~10314
▁miniatur~~8666
9~~2100
▁primary~~3154
▁block~~1998
▁labor~~4875
▁badly~~1485
▁disgust~~8794
▁sass~~14386
▁computing~~9832
rö~~14635
▁one~~217
▁McCan~~13015
▁vibration~~10489
▁underly~~1536
▁bacteria~~495
▁Prickly~~14204
▁migraine~~8694
ession~~10783
▁oceanograph~~4140
▁testimon~~5975
atricia~~11674
▁Beat~~9580
▁peanut~~7274
▁liberal~~4885
▁Beau~~13950
▁roots~~3103
▁Northeast~~12100
▁administer~~8533
▁trunk~~6238
▁thro~~9192
▁friction~~12047
▁expire~~8241
ieroglyph~~13466
▁path~~3040
▁blackboard~~12871
▁MA~~12001
▁tech~~6732
▁previous~~3670
▁liberat~~3355
▁Haus~~11819
▁Bagh~~12468
self~~2899
propos~~692
▁Uganda~~6610
abilities~~9450
▁Behar~~6694
▁Wert~~13836
▁Instrument~~14360
▁defend~~2418
competitive~~12134
▁monstro~~4013
▁types~~301
▁empire~~8138
▁confound~~13373
▁straf~~14707
▁Fond~~13709
▁Disney~~3097
▁chest~~4493
sufficien~~12105
▁privatiz~~12888
▁relieve~~8662
stimul~~13686
▁Polar~~13214
▁sodas~~6741
▁darkness~~7542
alysis~~10201
▁judg~~7200
▁Schnabel~~14277
▁kidnappe~~8946
isela~~13277
▁1000~~11871
▁rode~~8808
▁Boston~~2916
▁torture~~2719
▁Fin~~1417
▁bullshit~~7465
▁Privat~~14609
uza~~13952
▁Arizona~~9807
▁drunk~~10341
Aid~~2562
▁Jeep~~9649
▁100-~~4711
▁140~~317
Bonnet~~8651
▁Kay~~10513
▁yourself~~1512
tsch~~13824
▁stepp~~3801
▁steps~~1224
▁Kap~~14256
▁Kar~~9364
▁Kam~~6382
▁educator~~1428
▁Kan~~2285
▁Kai~~10209
▁Blitz~~13549
▁Derart~~13257
▁inhale~~11157
▁Pi~~6207
rthritis~~7220
▁14-~~11760
▁14.~~12027
▁scandal~~10394
▁But~~5845
▁attention~~2827
▁Krishna~~12884
▁Bur~~6447
▁backyard~~6163
▁District~~10305
▁telegraph~~11917
▁theoretical~~4532
▁Bud~~6673
▁~~171
▁sink~~3423
▁regard~~5296
▁sinn~~11325
▁replica~~2581
▁nie~~12755
▁embodiment~~11673
▁sing~~1083
▁Hell~~9656
▁continue~~1346
▁cri~~9334
rief~~6282
▁soil~~8705
▁kick~~1186
▁motorcycle~~7236
▁economics~~2708
▁Oscar~~8915
▁zone~~3440
▁practice~~1579
▁tenaci~~4295
riet~~10627
prof~~3914
anne~~12375
▁fastest~~11450
maxim~~14258
▁Galois~~14065
▁Skype~~6134
▁Fair~~3794
▁Father~~8157
lose~~10786
▁Invent~~10584
▁instructor~~5883
▁Biospher~~14471
▁Oma~~10100
▁Jet~~5527
suppe~~13315
▁Jew~~8132
▁metaboliz~~8336
▁snowflake~~10535
▁easi~~2787
▁aspiration~~2053
▁fountain~~10968
▁criteri~~10680
▁ease~~9286
▁independent~~1217
▁easy~~1164
range~~11992
▁broader~~2889
▁restoration~~6263
▁domesticate~~10415
▁infrar~~3021
▁east~~3477
▁cemeter~~10896
osemite~~9962
credible~~76
▁Woman~~10271
▁Chevy~~7421
masse~~8825
▁Brett~~12654
▁science~~594
▁tide~~137
▁Twenty~~11286
▁rupee~~12551
▁bunk~~9333
▁Jupiter~~6678
▁Strat~~14095
▁por~~2476
▁Kinshasa~~5235
▁refer~~1190
▁exception~~4276
▁Funk~~14709
ache~~6562
▁rebound~~13657
▁resistan~~5393
long~~4254
▁plain~~6654
harisma~~13540
▁invite~~2874
▁fiber~~5629
▁cynic~~8931
▁Dimitri~~13521
▁Rockett~~14150
▁Kipling~~12774
▁merge~~10165
▁status~~2825
cloth~~11536
▁pipe~~7604
▁youngster~~11021
▁appall~~13715
▁Viking~~12145
▁statue~~7809
▁Jacque~~11242
aisal~~10028
▁Mediterrane~~8139
raising~~7802
▁statistics~~6516
▁Warren~~9451
▁Super~~6270
Cities~~5089
▁deck~~10357
▁dece~~5077
▁baker~~6629
▁Indian~~4854
▁mathematically~~10057
▁fulfill~~1169
▁office~~95
▁contributor~~5679
▁Thailand~~12332
▁classes~~1498
z~~1948
Horo~~14059
▁subsequent~~6550
▁Dead~~10050
▁presumption~~12705
▁leapfrog~~10355
▁Deal~~13783
▁Robinson~~8917
▁placebo~~10452
▁crowd~~8231
▁highest~~4876
▁patriarch~~12342
▁museum~~2879
Dynast~~13731
▁sprang~~10003
▁periodic~~5375
▁poo~~8748
▁Brad~~11841
▁imperative~~9448
▁Senior~~8285
▁Zabbal~~14318
peace~~13009
▁complaint~~4833
▁gentleman~~6150
▁spill~~3949
▁Roll~~10071
▁deadline~~5925
▁overwhelming~~4838
▁jet~~252
gro~~10395
▁vague~~11960
raine~~3884
nice~~10625
dale~~2976
▁praise~~4998
▁weave~~11332
▁lump~~7066
▁peace~~2138
▁additional~~4504
▁Cradle~~7576
etropolitan~~9340
icker~~9202
▁sliver~~10384
▁Sabbat~~12566
▁rush~~5170
▁extend~~2840
▁Ruf~~13752
arten~~8026
▁Lanka~~7495
organism~~11175
▁various~~5167
▁collector~~5499
▁Tulu~~13258
▁World~~2405
tete~~12214
▁equate~~11681
▁heel~~12576
▁NAND~~14166
▁conservative~~7263
▁Berlin~~10682
gang~~8377
▁cease~~4261
ardino~~14675
screen~~8344
▁women~~1538
▁Sanghamitr~~13350
▁Buddha~~11374
▁floss~~13648
▁cor~~8188
▁cop~~2212
▁cow~~6992
▁cou~~12562
▁con~~1959
▁become~~166
brid~~12907
▁grassroots~~12205
▁ratio~~6301
▁payload~~12004
▁tactic~~4336
▁explod~~10533
▁hinter~~3638
▁cod~~3025
▁acknowledge~~7940
▁550~~13342
▁deflect~~11000
▁800~~4376
fest~~12108
▁courage~~3321
▁inspector~~13996
▁Ganesh~~13320
ging~~4159
▁schizophrenic~~10653
P~~1728
spoon~~10459
▁seeming~~4790
▁stage~~2428
▁bladder~~11933
▁rhyme~~4309
▁breast~~5484
▁immersive~~6640
▁falls~~2652
zeit~~8503
▁gecko~~13228
uthanasi~~14611
▁nose~~6353
▁Mess~~13311
▁FO~~12390
▁Good~~3763
▁Kashmir~~10040
▁Gate~~13063
rrh~~10396
▁Plus~~13963
▁plasticity~~3971
▁sandstone~~7678
fold~~6524
▁Saddam~~11380
▁Venus~~8351
rry~~976
▁savage~~5516
makers~~1465
▁Engelbart~~14343
▁After~~9304
▁6.~~5486
▁politician~~5173
▁extinct~~7670
▁flashlight~~5795
▁pubert~~6532
▁68~~9560
Link~~5763
▁62~~859
▁63~~10004
▁60~~467
▁61~~11150
▁66~~11848
▁67~~7145
▁64~~1925
▁65~~1893
▁constructive~~1249
▁parents~~1503
▁germinat~~13945
▁Marrow~~12291
▁invad~~9371
▁locked~~6092
▁twice~~3579
▁Self~~4704
iest~~11252
▁Stirling~~13703
▁Sela~~7654
▁locker~~8870
▁Eigentum~~14399
▁prisoner~~6273
▁Generation~~10353
▁bombard~~10802
▁climb~~6386
▁Bueno~~13102
▁latitude~~3433
▁crises~~4672
apparat~~13884
▁windows~~7585
▁Kaplan~~10581
▁46664~~13423
▁hopeful~~4078
▁Luke~~6712
▁Parikrma~~13414
▁alleviate~~8594
▁w~~3259
▁shrink~~1871
▁budd~~4482
▁mystery~~3880
▁conjure~~9686
▁margin~~4913
-47~~12722
▁glad~~5044
volt~~11063
motor~~13645
▁Toaster~~13763
▁natur~~14433
▁birth~~1086
use~~5398
fee~~1174
▁Lester~~10730
consumption~~9156
&~~11547
fen~~2254
fel~~14447
▁Sharo~~6879
▁land~~3540
▁lang~~14623
ush~~2238
▁scale~~265
▁victims~~4662
▁boys~~4382
fer~~2333
▁going~~67
▁album~~8891
▁degradation~~9150
▁every~~720
▁fault~~7539
▁Cambridge~~1753
▁Sinclair~~7477
▁Katie~~14023
▁crisis~~3815
▁texting~~12307
▁trick~~3749
heit~~5443
ibera~~11168
▁transcribe~~13166
▁money~~1472
▁bombardier~~14078
▁FDA~~6966
ural~~3139
▁eat~~3123
▁ear~~3162
ootprint~~9568
▁turbulen~~5275
▁Cartesian~~11192
▁depression~~1142
▁greenhouse~~3745
▁horse~~6973
▁Expo~~13688
▁secre~~4445
▁d~~918
▁Psychologi~~11629
▁recent~~5872
▁Fe~~8451
▁invasive~~10741
proof~~2470
▁fest~~8135
▁rain~~4931
▁groom~~12628
▁rail~~2162
▁nanotechnolog~~2472
▁nonviolence~~8930
▁abstraction~~9758
▁Git~~13794
▁NBA~~12889
tag~~10015
▁moral~~1977
▁Light~~9021
▁taint~~10939
sis~~5386
▁High~~6855
nagnoris~~14141
▁Cura~~14542
▁Buch~~5560
▁source~~3539
▁medical~~2540
▁Windows~~7584
▁Rutan~~12151
▁researcher~~1466
sie~~3085
▁Keller~~13233
▁Ooh~~10168
tension~~7376
▁PM~~11714
▁whipp~~11644
▁exam~~5153
▁Textil~~11254
▁competent~~7696
▁sabbatical~~12453
▁Jefferson~~8158
▁competenc~~8257
▁numbers~~2187
▁asteroid~~10550
600~~11798
bergen~~13739
▁abundant~~57
eher~~14124
▁ranch~~11532
light~~4191
▁P~~6001
▁cramm~~5015
▁ladies~~4351
CAPTCHA~~13481
▁5,000~~5636
▁Aristot~~10246
▁line~~1550
▁devote~~9247
▁trickster~~13340
begg~~14596
▁link~~1606
▁Hong~~10208
▁Auto~~7047
fford~~5871
▁meeting~~1745
bble~~7379
▁kidney~~4763
▁Farmer~~13578
▁bust~~4455
▁diminish~~6863
▁Terminator~~12045
▁Investigat~~12476
▁gha~~5292
▁busy~~4398
▁extraordinar~~1625
1~~2043
hildren~~3891
▁nonprofit~~7389
,7~~6338
▁regulator~~4979
▁factor~~815
,5~~6250
▁successful~~1630
▁perceptual~~12178
bye~~4788
▁cream~~9198
▁mothers~~6164
Task~~7072
▁numer~~11441
▁door~~2351
orthodox~~12656
▁eyes~~206
Car~~12813
material~~10940
▁refuse~~4665
articulate~~11113
▁California~~3388
▁doom~~4055
▁Hammer~~13525
▁cartograph~~9940
▁bottom~~152
▁Meter~~14710
trag~~4985
▁measur~~1368
▁relationship~~3036
▁ready~~2821
▁Zach~~10580
▁classical~~7290
Pro~~13091
▁mission~~4582
▁monument~~5541
▁accomplish~~8266
▁maxim~~8559
▁request~~7154
▁God~~2007
▁Hygiene~~10889
▁interval~~8736
▁opposed~~5424
▁grassland~~8871
▁burial~~4410
related~~5347
▁Tweet~~11552
▁Sierra~~8635
▁Cup~~8989
ous~~1034
our~~6422
80~~3649
out~~1037
▁impulsive~~11364
▁sovereign~~11190
▁sermon~~7471
▁1~~6206
▁whistle~~2357
▁galler~~3217
▁Kickstarter~~12429
▁Empire~~3633
▁maximize~~7366
▁2.5~~10116
▁factory~~7526
▁pump~~4739
alter~~8009
▁Nigeria~~4291
▁Iran~~3243
imini~~10841
▁Str~~10316
▁aggressiv~~3313
▁encapsulate~~6688
▁days~~1493
▁river~~3147
▁Stu~~10393
▁Cello~~14094
▁cancel~~7491
▁Secret~~13877
▁Sta~~6260
▁cooperation~~7801
g~~307
▁120~~1824
▁Petri~~10188
▁Emory~~9510
▁Lindbergh~~11389
▁125~~9933
▁Rule~~12049
▁olive~~10268
▁12.~~14104
▁dopamine~~9834
lte~~10637
▁12-~~2277
Sakkaf~~14346
organiz~~8590
▁with~~19
ungen~~10576
*~~13609
▁Tar~~9744
▁latch~~12879
▁Tap~~13250
▁fridge~~3862
▁Dragon~~14199
▁Tat~~11835
▁Taj~~8889
▁Tai~~8761
▁Tan~~5122
▁Goliath~~10648
▁Tal~~7009
▁divorce~~4674
▁traffic~~5092
▁Morocc~~11607
▁Tag~~4158
▁violinist~~12735
▁Supreme~~10731
▁imagin~~3724
▁governor~~3487
▁Planet~~6179
elimina~~10629
▁economies~~853
▁eggs~~4098
▁zero~~1189
▁Friday~~3669
▁worship~~8146
▁interfere~~2574
▁walked~~2657
▁penguins~~12632
▁Direct~~12405
▁supernormal~~13738
▁biodegrad~~3362
▁emerge~~5592
▁sight~~163
shelf~~6862
▁emissions~~1761
▁deathbed~~11666
▁handle~~7426
▁Korea~~1356
KA~~13528
▁knee~~4401
▁apologize~~4562
▁framework~~3751
▁reefs~~10796
▁Hadron~~12173
▁mache~~14294
▁Clint~~11740
▁spectra~~12483
▁Sash~~8418
▁Evangeli~~14445
▁consol~~1567
▁transnational~~4693
▁dating~~5616
▁connect~~2731
▁unequal~~1438
▁silver~~2518
▁bull~~7189
▁tropic~~4245
▁bulk~~4915
▁Channel~~5734
▁Frankenstein~~7036
▁connection~~2806
▁bulb~~3938
▁reminder~~4356
angle~~9486
▁twelve~~10433
▁str~~3899
▁benign~~7068
rous~~2480
CK~~11409
bling~~4741
▁Der~~13467
▁dwell~~3727
▁Energ~~9022
▁Nepal~~6225
▁spend~~1275
ologist~~3888
▁society~~783
▁Doctor~~11630
▁module~~10837
enotyp~~11809
▁energiz~~9609
▁mechanical~~10564
▁hypersonic~~14021
▁sweet~~5213
▁Judi~~11590
▁sweep~~8210
▁Darfur~~12465
▁Juda~~8149
class~~1605
▁Bauer~~11748
▁projection~~2060
▁hunter~~8530
▁legislati~~7409
▁deem~~1546
▁translat~~11408
mendment~~9916
▁Mund~~14469
▁visual~~3052
neutral~~13024
▁sill~~5625
▁Panel~~1724
▁Ker~~8670
erial~~10364
▁Pugh~~5434
▁Positive~~12803
▁deep~~10
▁Mill~~12996
▁ethical~~7012
▁Roger~~10920
ritt~~9248
CH~~9902
▁Milo~~8423
▁droplet~~12123
▁200-~~5342
▁navigate~~7954
▁bright~~1558
ystal~~4469
▁commission~~3849
▁gesture~~2870
rried~~5065
ha~~1562
▁Berner~~12200
▁follow~~1004
▁dominate~~10933
▁Brazil~~3572
▁brains~~1025
▁Rachel~~1698
▁dropout~~4695
▁Museum~~6176
▁Divergen~~14453
▁4.5~~10782
▁adrenalin~~5169
▁chill~~11060
cuba~~9292
▁killer~~4131
Drive~~12013
▁Student~~13531
▁asking~~3279
▁fortunate~~4174
▁equivalent~~3589
▁Extreme~~12256
▁biase~~11147
▁Common~~5513
▁killed~~2196
▁raisin~~12285
▁nich~~6933
▁Penelope~~6504
▁daughter~~1957
brain~~7695
▁nice~~3096
▁manipulat~~2928
▁Ding~~13586
▁atoms~~2494
vier~~13579
▁encyclopedia~~8582
▁baseball~~7644
view~~4957
▁hedge~~10167
Collider~~12174
▁reproduce~~1385
Script~~11324
▁JFK~~9343
▁Harbo~~6366
▁Know~~11886
▁discontinu~~10575
▁Zimbabwe~~8617
▁exact~~1502
▁hour~~2569
▁hous~~7504
▁microorganism~~8593
▁Education~~10694
▁granular~~6646
▁Borg~~13504
still~~10002
▁robot~~420
▁oyster~~3637
▁strong~~1436
▁reced~~12784
▁notion~~4031
▁Wei~~8015
▁primordial~~11475
▁asylum~~13287
▁Weg~~13938
▁harsh~~11028
▁Theodor~~4880
▁Web~~7760
▁spark~~5159
RT~~12234
▁TEDx~~8244
▁bamboo~~10154
ability~~980
▁hydrophob~~2483
opening~~11653
▁spare~~7805
▁McLuhan~~9617
▁spezifisch~~14410
job~~12895
▁recipe~~10089
▁Sikh~~14159
▁Jazz~~12076
amer~~9376
▁compact~~3614
▁card~~3829
▁care~~821
▁genero~~4377
piece~~3705
▁keen~~7343
▁Tongu~~11732
▁total~~5606
▁typeface~~11898
len~~3418
▁angiogen~~13933
▁Meme~~9600
grain~~10771
▁Tudor~~12358
▁cars~~3687
▁Puppe~~10951
angiogen~~13934
eocortex~~13589
▁Sputnik~~6346
▁session~~5394
wald~~5561
▁...~~2538
munition~~12773
wall~~7559
▁detected~~8722
▁index~~12083
uffard~~13553
▁curate~~2031
quatic~~3467
▁below~~1410
▁Forrest~~13899
▁scanne~~10635
▁kingdom~~1038
▁pollinate~~7267
table~~3861
▁substance~~4648
▁40~~1734
▁41~~3315
▁42~~5646
▁43~~5884
▁44~~1924
[...]
