<unk>	0
<s>	0
</s>	0
▁,	-2.91492
▁.	-3.15102
s	-3.67014
▁the	-3.89478
;	-4.06291
▁&	-4.06579
▁and	-4.37543
▁in	-4.42569
▁to	-4.51971
▁	-4.51995
▁und	-4.54064
apos	-4.55201
n	-4.5524
▁die	-4.5651
▁of	-4.63883
▁a	-4.65165
en	-4.74725
▁that	-4.86347
▁I	-4.97031
▁it	-5.04053
▁das	-5.04286
quot	-5.06938
▁der	-5.07092
▁ich	-5.10983
▁you	-5.12355
y	-5.13493
▁we	-5.18427
▁is	-5.20646
▁ist	-5.20903
▁wir	-5.23632
▁es	-5.26245
t	-5.31719
▁zu	-5.31956
▁so	-5.32686
ing	-5.36758
ed	-5.41511
▁sie	-5.4165
▁was	-5.45341
▁this	-5.48671
-	-5.5514
▁?	-5.59576
▁:	-5.61983
▁ein	-5.64514
▁eine	-5.68425
d	-5.70642
e	-5.73455
▁an	-5.73527
ly	-5.74363
▁nicht	-5.80855
▁von	-5.80972
▁--	-5.8346
▁den	-5.89417
▁dass	-5.90075
m	-5.93282
▁mit	-5.97952
▁for	-5.98552
▁diese	-5.99348
▁auf	-6.03869
▁are	-6.06569
▁wie	-6.07078
▁have	-6.09203
▁what	-6.10149
▁Sie	-6.11794
▁on	-6.13236
▁but	-6.13648
▁with	-6.1389
▁man	-6.17399
▁be	-6.19043
▁can	-6.23037
▁sich	-6.23245
▁war	-6.25187
▁all	-6.2555
▁sind	-6.27235
▁aber	-6.29079
▁für	-6.29486
re	-6.3132
▁haben	-6.32096
▁wenn	-6.33642
▁about	-6.33937
▁there	-6.36576
▁also	-6.39615
▁als	-6.39987
▁at	-6.46473
▁do	-6.4725
▁not	-6.47932
er	-6.48591
▁er	-6.49037
▁um	-6.49087
▁one	-6.51688
▁im	-6.55885
▁as	-6.58134
▁my	-6.58481
▁like	-6.58581
▁people	-6.60585
▁-	-6.63378
r	-6.64362
▁from	-6.64877
▁if	-6.65165
▁dem	-6.6536
▁he	-6.67544
▁now	-6.70901
▁aus	-6.72291
▁uns	-6.7272
▁these	-6.7593
▁just	-6.77706
▁or	-6.78581
▁our	-6.78588
▁können	-6.78792
▁einen	-6.79272
▁oder	-6.8053
▁über	-6.80597
▁hier	-6.83187
▁werden	-6.83278
▁when	-6.83876
▁des	-6.8531
▁hat	-6.8561
▁because	-6.8597
▁think	-6.8787
▁know	-6.88762
▁how	-6.89626
▁out	-6.90338
▁me	-6.90556
▁get	-6.91353
▁by	-6.92547
▁auch	-6.93424
▁up	-6.93719
▁kann	-6.94231
▁einer	-6.95125
▁going	-6.96334
es	-6.9821
.	-6.98532
▁einem	-7.00383
▁them	-7.01192
very	-7.01776
▁nur	-7.01994
▁more	-7.02287
▁see	-7.03268
▁us	-7.03603
▁dann	-7.03858
▁sehr	-7.04033
▁etwa	-7.04306
ve	-7.04364
▁had	-7.05279
▁who	-7.06238
▁which	-7.06665
▁here	-7.07069
▁wird	-7.07777
▁your	-7.08595
▁some	-7.08735
▁would	-7.09005
▁Menschen	-7.10732
▁were	-7.11366
▁their	-7.11514
▁will	-7.12393
▁sein	-7.12527
▁nach	-7.13036
▁want	-7.13099
▁gibt	-7.14398
▁mich	-7.15004
▁meine	-7.17774
▁look	-7.18305
▁da	-7.18979
▁vor	-7.20903
▁go	-7.21181
▁time	-7.23096
▁has	-7.23175
▁sehen	-7.24686
▁dieser	-7.24798
▁actual	-7.24964
▁world	-7.25734
▁noch	-7.25772
▁other	-7.27802
▁bei	-7.29714
▁habe	-7.29782
▁into	-7.31266
▁way	-7.32354
▁mir	-7.33038
▁don	-7.33129
▁could	-7.33185
▁ihre	-7.33186
▁where	-7.33441
▁no	-7.34412
▁alle	-7.35616
▁did	-7.38089
▁things	-7.38854
▁mehr	-7.3907
▁years	-7.39483
▁Welt	-7.40215
▁unsere	-7.42163
▁make	-7.45263
▁viele	-7.47367
▁say	-7.48009
▁am	-7.48392
▁right	-7.49746
▁well	-7.5045
▁viel	-7.50702
▁then	-7.51082
▁reall	-7.51771
▁durch	-7.51863
▁zum	-7.51885
▁every	-7.52189
▁been	-7.52365
▁start	-7.525
▁weil	-7.53065
▁keine	-7.5325
▁wurde	-7.53278
▁sai	-7.54403
▁würde	-7.55568
▁Ihnen	-7.55887
▁she	-7.55983
▁something	-7.56231
▁machen	-7.57011
▁wirklich	-7.57355
um	-7.57597
▁first	-7.57822
▁two	-7.58105
▁ihn	-7.59778
▁immer	-7.60591
▁those	-7.61338
▁nun	-7.62304
▁wo	-7.62396
▁much	-7.63345
▁call	-7.63618
▁kind	-7.6399
▁than	-7.6427
▁andere	-7.64693
▁over	-7.64794
▁got	-7.64797
ll	-7.65166
▁thing	-7.65765
▁take	-7.65977
▁little	-7.66583
▁need	-7.66587
▁real	-7.66952
▁tun	-7.67418
▁ihr	-7.67523
▁back	-7.68266
▁come	-7.68464
▁his	-7.68754
▁most	-7.69105
▁jetzt	-7.69288
▁talk	-7.70783
▁TED	-7.71197
▁work	-7.71658
▁T	-7.71875
▁sagte	-7.72183
▁Dinge	-7.72527
▁hatte	-7.73017
▁her	-7.734
▁life	-7.7547
▁bis	-7.75771
▁Zeit	-7.75985
▁wissen	-7.76373
st	-7.77085
a	-7.77378
▁only	-7.77816
in	-7.77911
▁even	-7.78206
▁Leben	-7.78796
▁Leute	-7.79323
▁einfach	-7.79761
▁zwei	-7.79997
▁new	-7.82539
▁good	-7.83794
▁müssen	-7.84952
▁lot	-7.85505
▁many	-7.85619
▁sagen	-7.86371
▁does	-7.86577
▁different	-7.87837
▁;	-7.88272
▁Art	-7.89348
▁through	-7.89765
▁du	-7.90168
▁bin	-7.90386
▁Jahren	-7.90721
▁waren	-7.91247
▁denn	-7.91667
▁why	-7.91724
▁change	-7.92024
▁alles	-7.93078
▁diesen	-7.93443
▁seine	-7.93526
▁down	-7.94787
▁let	-7.94965
▁damit	-7.95044
▁mein	-7.95523
▁gut	-7.96418
around	-7.97137
▁anderen	-7.98086
▁give	-7.9849
▁use	-7.9869
▁may	-7.98709
▁vielleicht	-7.989
▁zur	-7.99073
▁selbst	-7.99292
ies	-7.99309
▁any	-7.99517
day	-8.00772
▁show	-8.01273
▁being	-8.01826
▁same	-8.02164
▁ob	-8.02789
▁ganz	-8.03145
al	-8.03806
▁try	-8.0402
▁Jahre	-8.04984
be	-8.04986
▁geht	-8.06066
▁three	-8.06096
▁great	-8.06569
▁wieder	-8.06877
▁put	-8.06895
▁doing	-8.09801
▁ver	-8.09875
▁tell	-8.09978
▁muss	-8.12042
▁einige	-8.12913
▁kleine	-8.13418
▁part	-8.1432
▁schon	-8.15235
▁20	-8.15374
▁10	-8.15875
▁un	-8.16792
▁day	-8.17402
▁Talk	-8.17939
▁möchte	-8.1818
▁human	-8.18601
heute	-8.19518
▁konnte	-8.19985
l	-8.20229
▁percent	-8.20548
tles	-8.21696
h	-8.21729
ranscript	-8.21808
▁Kinder	-8.22141
▁Subti	-8.22248
▁after	-8.22616
▁made	-8.22622
▁find	-8.22673
▁tatsächlich	-8.22714
▁fact	-8.23102
▁Geschichte	-8.23769
▁davon	-8.25142
▁ja	-8.25521
▁ge	-8.25679
▁welche	-8.25946
▁thank	-8.26994
▁year	-8.27341
▁own	-8.27345
▁drei	-8.27569
▁turn	-8.28012
▁should	-8.28076
▁genau	-8.28186
▁happen	-8.28698
▁idea	-8.2886
▁ab	-8.28954
▁dort	-8.29091
other	-8.29395
▁Ihre	-8.29885
▁ask	-8.30543
▁könnte	-8.30976
te	-8.31279
▁last	-8.31415
▁create	-8.32966
▁thought	-8.33081
▁unter	-8.33284
o	-8.33615
▁end	-8.3477
▁hatten	-8.34827
▁important	-8.34974
▁kein	-8.35629
▁big	-8.35655
▁him	-8.35685
▁darüber	-8.35915
dem	-8.36241
▁A	-8.36727
▁before	-8.36834
▁Jahr	-8.3705
▁zurück	-8.37394
▁werde	-8.37925
▁course	-8.38252
ung	-8.38348
▁wollen	-8.3855
▁design	-8.38587
▁paar	-8.38873
▁gehen	-8.39104
▁again	-8.39343
▁ganze	-8.39345
▁Problem	-8.39422
body	-8.395
▁gab	-8.40435
▁problem	-8.40468
▁live	-8.40567
▁never	-8.41063
▁denken	-8.41283
▁point	-8.4158
▁might	-8.41688
▁meiner	-8.41749
▁still	-8.42007
▁je	-8.42037
▁better	-8.42128
▁help	-8.42518
▁bit	-8.42666
▁neue	-8.43166
▁wollte	-8.43282
▁wurden	-8.43529
us	-8.43685
▁brain	-8.43841
▁lassen	-8.4402
▁story	-8.44403
▁nie	-8.44504
▁weiter	-8.44532
▁love	-8.44548
▁off	-8.45196
▁...	-8.45634
▁Beispiel	-8.45752
▁weiß	-8.45754
▁sondern	-8.45778
ally	-8.46093
▁million	-8.46104
▁sort	-8.46335
▁system	-8.46454
▁next	-8.46483
▁dazu	-8.46502
▁jeder	-8.4669
▁natürlich	-8.46696
▁während	-8.47207
▁place	-8.4732
▁few	-8.47564
▁play	-8.48529
▁doch	-8.48626
▁able	-8.48742
▁each	-8.48761
▁unserer	-8.48873
▁mean	-8.48963
▁Teil	-8.49161
w	-8.49537
▁wäre	-8.49607
▁ago	-8.49633
▁water	-8.49902
▁vom	-8.50025
ten	-8.50783
went	-8.50859
▁unser	-8.51131
▁sogar	-8.51225
▁long	-8.51232
▁together	-8.51267
▁macht	-8.52009
▁technology	-8.52439
▁große	-8.52612
ther	-8.53058
S	-8.53157
▁learn	-8.53215
▁denke	-8.53779
▁kam	-8.54237
▁zusammen	-8.54462
▁B	-8.54566
▁came	-8.5478
▁gerade	-8.54807
on	-8.55085
▁kommen	-8.55187
▁finden	-8.55843
▁ersten	-8.55977
▁einmal	-8.56116
▁ohne	-8.56485
▁question	-8.56544
▁zwischen	-8.56767
▁S	-8.57028
▁gemacht	-8.5717
k	-8.5731
▁eigene	-8.57459
▁found	-8.57783
▁between	-8.5837
▁Tag	-8.58736
▁dafür	-8.5907
▁Arbeit	-8.5967
▁geben	-8.59754
▁glaube	-8.60175
▁data	-8.60204
▁used	-8.60404
▁kommt	-8.60471
▁jede	-8.60493
▁example	-8.60571
▁ging	-8.60587
▁women	-8.60646
▁Frage	-8.60647
▁okay	-8.61053
▁erste	-8.61115
▁second	-8.61183
▁Internet	-8.6148
▁too	-8.61711
▁Frauen	-8.6211
▁believe	-8.62125
▁become	-8.62126
▁mal	-8.6254
▁zeigen	-8.62648
able	-8.63216
▁New	-8.63232
▁done	-8.63603
ok	-8.6377
ion	-8.63886
▁sagt	-8.64129
ic	-8.64156
▁Wasser	-8.6445
▁understand	-8.64511
ity	-8.64825
▁passiert	-8.6515
▁per	-8.65645
▁Prozent	-8.66827
▁30	-8.67428
▁light	-8.67686
▁verstehen	-8.67696
▁meisten	-8.67835
▁whole	-8.68226
ting	-8.68757
▁sollte	-8.68874
▁four	-8.68893
▁Land	-8.69034
▁school	-8.6931
▁daran	-8.69716
▁jemand	-8.70292
▁50	-8.70825
▁dabei	-8.71152
▁Millionen	-8.71161
▁working	-8.71168
▁person	-8.71608
▁besser	-8.71956
▁ever	-8.71968
▁dachte	-8.72266
▁always	-8.72718
▁building	-8.72886
▁children	-8.72985
▁nehmen	-8.73006
▁fast	-8.73565
▁Idee	-8.73681
▁Gehirn	-8.74215
▁sollten	-8.74574
▁feel	-8.7499
▁letzten	-8.7585
▁Daten	-8.75854
▁wichtig	-8.76076
▁reason	-8.76244
▁könnten	-8.76619
▁Bild	-8.76957
▁everything	-8.76998
▁U	-8.77051
▁ziemlich	-8.77206
▁five	-8.7731
i	-8.7742
▁power	-8.77543
▁away	-8.77711
▁E	-8.77756
▁Mal	-8.77872
▁small	-8.78172
▁stellen	-8.7823
▁möglich	-8.78395
▁darauf	-8.78401
▁kids	-8.7875
▁country	-8.79039
▁basic	-8.79177
▁Weg	-8.79222
ation	-8.79579
▁Geld	-8.8016
▁al	-8.80262
c	-8.80317
▁number	-8.80359
▁picture	-8.80386
▁sprechen	-8.80558
▁100	-8.80782
▁experience	-8.81403
▁high	-8.81544
th	-8.81873
▁information	-8.81967
▁bekommen	-8.8209
▁eigentlich	-8.82121
▁leben	-8.82173
▁Ende	-8.8256
▁ihrer	-8.82582
▁OK	-8.82788
▁home	-8.8294
▁space	-8.83329
▁old	-8.83764
▁verschiedene	-8.84074
an	-8.84075
▁arbeiten	-8.85058
▁food	-8.85204
▁money	-8.8562
91	-8.85741
▁seit	-8.85839
making	-8.85915
▁project	-8.86347
▁means	-8.86496
▁half	-8.86546
▁open	-8.87049
▁meinen	-8.87102
▁best	-8.87317
▁moment	-8.87484
▁case	-8.87876
▁interesting	-8.88108
▁left	-8.88159
▁G	-8.88211
ld	-8.8825
▁sense	-8.8868
▁future	-8.88772
93;	-8.89006
▁global	-8.89369
▁Technologie	-8.8951
quite	-8.89631
▁weniger	-8.89636
▁vier	-8.89796
▁15	-8.89909
▁heraus	-8.90358
▁China	-8.90744
▁Information	-8.90796
▁200	-8.90883
▁enough	-8.91063
▁Dollar	-8.91312
ever	-8.91436
▁Raum	-8.91718
▁health	-8.91892
▁pro	-8.92197
▁bedeutet	-8.92402
▁probabl	-8.9243
▁Grund	-8.92756
▁move	-8.92807
▁develop	-8.92862
▁hard	-8.93241
▁hin	-8.93367
▁normal	-8.93538
▁Sache	-8.9361
▁danke	-8.93852
▁begann	-8.93999
▁car	-8.94157
▁musste	-8.94269
▁C	-8.94326
▁stand	-8.94374
f	-8.94401
▁ihm	-8.94476
▁energy	-8.94494
▁zeigt	-8.94499
▁social	-8.94837
▁Dank	-8.94858
▁hand	-8.95019
▁large	-8.95699
de	-8.96199
▁less	-8.96374
▁simple	-8.9647
▁stuff	-8.9648
▁without	-8.96494
▁Mann	-8.96643
▁bringen	-8.96777
▁Oh	-8.97093
▁science	-8.97429
▁gesehen	-8.97535
erweise	-8.97873
▁group	-8.9794
▁richtig	-8.98047
ie	-8.98147
▁Africa	-8.98154
▁Möglichkeit	-8.98439
▁brauchen	-8.9884
▁unseren	-8.99038
▁imagine	-8.99055
▁bring	-8.99117
▁build	-8.99165
▁business	-8.99312
▁process	-8.99513
▁Seite	-8.99763
▁Computer	-9.00136
▁keep	-9.0019
ork	-9.00419
▁prett	-9.00526
▁such	-9.00573
▁else	-9.0079
▁jedes	-9.00805
ht	-9.00844
▁room	-9.00946
▁Weise	-9.01045
▁beide	-9.01193
▁grow	-9.01809
▁coming	-9.01854
▁lange	-9.01902
ness	-9.01925
▁anything	-9.0203
▁sicher	-9.02536
▁sei	-9.02575
▁piece	-9.02592
▁jeden	-9.02627
▁heiß	-9.0264
ce	-9.02732
▁student	-9.02943
▁beim	-9.03058
est	-9.03135
▁allow	-9.03329
▁versuchen	-9.03656
▁dollars	-9.03687
▁body	-9.03912
schen	-9.04047
▁side	-9.0433
▁Frau	-9.04396
▁Zukunft	-9.04558
▁später	-9.04587
▁The	-9.04809
▁wenig	-9.05006
▁countries	-9.05108
▁großen	-9.05715
▁System	-9.05741
▁gegen	-9.05942
▁Menge	-9.06275
▁glauben	-9.06334
▁Körper	-9.06352
▁across	-9.06505
▁wer	-9.06738
▁gleich	-9.06754
▁line	-9.06872
z	-9.06993
▁face	-9.07069
▁once	-9.07099
▁billion	-9.07172
sten	-9.07298
▁gute	-9.07319
▁lernen	-9.07455
▁form	-9.07877
▁bad	-9.0798
▁far	-9.08014
▁government	-9.08024
▁hätte	-9.08025
D	-9.08058
▁lives	-9.08062
▁hav	-9.08547
▁close	-9.08618
le	-9.08788
one	-9.08914
▁gesagt	-9.08984
▁computer	-9.0904
▁living	-9.09047
g	-9.09139
▁set	-9.09184
▁later	-9.09199
as	-9.09371
▁saw	-9.09562
▁yet	-9.09624
▁D	-9.09668
▁seem	-9.09793
▁funktioniert	-9.10058
▁Person	-9.10382
▁wahrscheinlich	-9.10519
▁remember	-9.1059
▁answer	-9.10868
▁Ort	-9.10885
▁test	-9.10973
▁particular	-9.11272
▁while	-9.11342
▁times	-9.11474
▁language	-9.11762
▁care	-9.1186
▁weg	-9.12014
▁mind	-9.12143
▁Energie	-9.12236
▁lang	-9.1226
▁Erde	-9.12263
▁fünf	-9.12402
▁Kind	-9.12562
▁makes	-9.12809
b	-9.12877
▁Probleme	-9.12989
ge	-9.13165
▁book	-9.13283
▁six	-9.13632
or	-9.13728
▁nein	-9.13853
▁seiner	-9.13891
▁schaffen	-9.14218
wohl	-9.14235
▁Ihr	-9.14254
▁Stadt	-9.14379
▁einzige	-9.14475
▁Männer	-9.14653
▁inside	-9.14697
▁schnell	-9.14749
▁thousand	-9.15173
▁watch	-9.15176
zu	-9.15322
mals	-9.15355
▁family	-9.1567
▁nichts	-9.16071
den	-9.16123
▁young	-9.16178
▁single	-9.16186
▁top	-9.16223
ment	-9.16256
▁happens	-9.16341
▁Earth	-9.16388
▁almost	-9.16388
▁Moment	-9.16527
▁Fall	-9.17185
▁both	-9.17325
▁R	-9.17431
▁walk	-9.17486
▁whe	-9.17522
▁sure	-9.17635
▁anders	-9.17838
▁interest	-9.17868
▁American	-9.17958
▁certain	-9.18049
▁40	-9.18198
einander	-9.18289
til	-9.18428
▁planet	-9.18438
▁level	-9.18585
▁video	-9.18587
ern	-9.18856
▁helfen	-9.18946
▁seen	-9.1901
▁nothing	-9.19103
▁Licht	-9.19267
▁nutzen	-9.197
▁guy	-9.19748
u	-9.1983
▁problems	-9.20144
▁under	-9.20209
▁study	-9.20592
▁schauen	-9.20739
▁erzählen	-9.21169
▁Mutter	-9.21238
▁hope	-9.21271
▁men	-9.21365
▁realize	-9.21474
▁wrong	-9.21563
▁matter	-9.21843
▁possible	-9.21859
▁entwickelt	-9.21875
▁figure	-9.21979
ready	-9.22026
▁ungefähr	-9.22107
▁b	-9.22247
▁cancer	-9.22446
▁Buch	-9.2257
▁exact	-9.22763
▁share	-9.22887
▁final	-9.22966
▁neuen	-9.23078
▁child	-9.23123
▁amazing	-9.23313
▁ideas	-9.23343
▁days	-9.23355
▁Natur	-9.23607
▁true	-9.23622
▁history	-9.23644
▁H	-9.23985
▁run	-9.24088
▁re	-9.24093
▁music	-9.2413
▁DNA	-9.24336
▁saying	-9.24359
▁USA	-9.24426
▁sah	-9.24451
▁beautiful	-9.24534
▁Hand	-9.24592
▁K	-9.24664
▁age	-9.24873
▁disease	-9.24981
▁city	-9.25268
▁State	-9.25325
▁Bilder	-9.25337
▁self	-9.25352
▁control	-9.25459
em	-9.25494
▁genug	-9.2577
▁ways	-9.25974
▁someone	-9.25983
▁read	-9.26007
chmal	-9.26572
▁nächsten	-9.26804
▁ra	-9.26851
▁Projekt	-9.27058
▁order	-9.27153
▁Ideen	-9.27459
▁M	-9.27479
▁head	-9.27815
▁couple	-9.27942
▁often	-9.28048
▁land	-9.28145
▁überall	-9.2832
▁patient	-9.29265
▁kennen	-9.29266
▁bauen	-9.29434
▁since	-9.29456
▁klar	-9.29498
▁universe	-9.29641
▁stop	-9.29774
▁heard	-9.29797
▁solche	-9.30098
▁erst	-9.30134
▁stories	-9.3052
▁looked	-9.30805
▁myself	-9.31057
▁Ich	-9.31216
▁market	-9.31273
▁Schule	-9.31327
▁instead	-9.31349
▁public	-9.31498
▁Lebens	-9.315
▁liegt	-9.31732
rum	-9.318
▁hoch	-9.31808
▁built	-9.31861
▁Design	-9.32027
▁sometimes	-9.32076
▁Planeten	-9.32098
▁Afrika	-9.32195
▁3	-9.3222
▁bevor	-9.32303
▁community	-9.32766
▁Fähigkeit	-9.32794
▁nature	-9.32811
▁gehört	-9.32929
▁issue	-9.3294
▁hundred	-9.33037
ers	-9.33091
▁difference	-9.33533
▁words	-9.33596
▁mov	-9.33651
▁Punkt	-9.33776
▁species	-9.33916
▁art	-9.34032
▁environment	-9.34089
▁deshalb	-9.34152
▁cells	-9.34244
▁Unite	-9.34259
▁Erfahrung	-9.34273
▁education	-9.34308
▁job	-9.34328
▁word	-9.34474
▁besonder	-9.34565
▁niemand	-9.34633
▁verändern	-9.34653
▁research	-9.34753
▁60	-9.34872
2	-9.35019
ste	-9.35157
A	-9.35185
▁bitte	-9.35382
▁force	-9.35422
to	-9.35447
▁Augen	-9.35555
▁follow	-9.35581
▁nennen	-9.35663
▁individual	-9.35671
▁months	-9.35794
▁term	-9.35926
▁entire	-9.35999
▁Antwort	-9.36096
▁game	-9.36183
▁woman	-9.3619
▁weit	-9.36197
▁Musik	-9.36236
▁12	-9.36386
▁CA	-9.36401
▁letzte	-9.36663
▁India	-9.36992
▁80	-9.37034
taking	-9.37168
▁gleiche	-9.37311
▁model	-9.37427
el	-9.37506
▁Form	-9.37588
▁natural	-9.38225
▁America	-9.38241
▁spend	-9.38281
▁Auto	-9.38305
▁2	-9.384
▁completely	-9.38525
▁reden	-9.38614
▁braucht	-9.3868
▁Ver	-9.38695
▁Milliarden	-9.39032
▁Fragen	-9.39054
▁name	-9.39114
▁stehen	-9.39421
▁quick	-9.39569
▁Wissenschaft	-9.39606
K	-9.39639
▁alt	-9.39732
▁hören	-9.39954
lich	-9.40028
▁Mädchen	-9.40235
▁nächste	-9.40356
▁hear	-9.40457
▁spielen	-9.40675
▁sound	-9.40748
▁house	-9.40851
▁heart	-9.41085
came	-9.41237
▁25	-9.41238
▁decided	-9.41278
▁gar	-9.41293
▁euch	-9.41802
▁Leuten	-9.41852
▁huge	-9.4195
▁Google	-9.42065
▁though	-9.42115
▁Lösung	-9.42228
▁yes	-9.42272
der	-9.42419
▁Geschichten	-9.42431
▁night	-9.42446
▁Arten	-9.42489
▁animals	-9.42721
▁herum	-9.42767
▁halten	-9.42832
▁God	-9.42838
▁Kunst	-9.4284
▁friends	-9.42843
▁itself	-9.43077
▁darin	-9.4314
▁bereits	-9.43322
▁soziale	-9.43345
▁sechs	-9.43514
▁clear	-9.43683
▁steht	-9.44167
▁leave	-9.44217
▁Spiel	-9.44232
▁benutzen	-9.44348
▁Minuten	-9.4445
▁ourselves	-9.44497
land	-9.44692
▁happening	-9.44885
▁Kopf	-9.44977
▁must	-9.45039
▁past	-9.45043
▁P	-9.4566
▁Gebäude	-9.45813
▁erreichen	-9.46021
▁machte	-9.46089
▁along	-9.46109
ä	-9.46115
▁hätten	-9.46299
▁places	-9.46323
▁weitere	-9.46416
▁third	-9.4652
▁oben	-9.46575
▁fragen	-9.46652
▁Gesellschaft	-9.46677
▁themselves	-9.46701
▁kurz	-9.46979
▁society	-9.46997
7	-9.47054
▁minutes	-9.47067
▁erkennen	-9.47173
▁mother	-9.4739
▁namens	-9.47425
▁plant	-9.4745
▁front	-9.47458
▁company	-9.47535
▁program	-9.47537
▁Familie	-9.47635
▁kne	-9.47693
▁pay	-9.47804
ch	-9.47805
▁sieh	-9.4786
▁dich	-9.479
▁Freunde	-9.47927
▁works	-9.48087
▁Sprache	-9.48228
▁Gefühl	-9.48304
▁stellt	-9.48375
▁discover	-9.48469
▁bigge	-9.48501
ability	-9.4855
▁free	-9.48588
▁machine	-9.49002
▁F	-9.49054
▁state	-9.49327
B	-9.49342
ou	-9.49539
▁Unternehmen	-9.49554
▁schwer	-9.49644
man	-9.49725
▁innerhalb	-9.4981
▁Film	-9.49826
▁Indien	-9.49879
▁focus	-9.49979
ig	-9.50056
it	-9.50089
haps	-9.50147
▁unglaublich	-9.50489
▁soll	-9.50672
dessen	-9.50721
5	-9.5078
▁c	-9.51149
▁experiment	-9.5116
amp	-9.51267
▁paper	-9.51276
ver	-9.51286
▁irgendwie	-9.51404
▁Gruppe	-9.51437
▁hours	-9.51743
▁audience	-9.51857
▁teacher	-9.51917
▁questions	-9.51982
▁object	-9.5211
▁cause	-9.52437
▁Krankheit	-9.52447
la	-9.52505
▁versucht	-9.52802
▁absolute	-9.52857
▁team	-9.52902
▁learning	-9.52954
▁guys	-9.53306
▁menschliche	-9.53344
▁base	-9.5338
▁gesamte	-9.53535
▁buy	-9.53599
▁18	-9.53615
▁cool	-9.53731
▁statt	-9.53759
▁seven	-9.53776
▁local	-9.53902
▁Chris	-9.53954
▁oil	-9.53987
▁least	-9.54068
▁air	-9.54086
▁early	-9.54109
▁90	-9.54254
nach	-9.54261
ieren	-9.54419
▁difficult	-9.54519
▁happy	-9.54519
▁color	-9.54559
▁cell	-9.54674
▁explain	-9.54683
▁HIV	-9.54972
▁Angst	-9.54981
▁Gott	-9.55174
▁worked	-9.5519
▁Haus	-9.55215
▁einzelne	-9.55329
▁Video	-9.55511
▁An	-9.55533
▁poor	-9.55592
▁Hause	-9.55769
▁vorstellen	-9.55794
▁Entwicklung	-9.56213
▁structure	-9.56217
▁Macht	-9.56269
▁listen	-9.56306
▁outside	-9.56529
▁entwickeln	-9.56634
▁obvious	-9.56652
▁schön	-9.56682
▁daher	-9.56726
▁Vater	-9.56866
▁yea	-9.56866
geben	-9.57057
▁interessant	-9.57121
▁bewegen	-9.57242
▁Stunden	-9.57545
▁erhalten	-9.57549
▁short	-9.5756
▁J	-9.5758
▁Verbindung	-9.5761
▁de	-9.57728
sch	-9.57806
▁Roboter	-9.5782
▁common	-9.57889
▁amount	-9.57934
▁wonderful	-9.58206
4	-9.5823
▁full	-9.58405
ü	-9.58428
ämlich	-9.58517
▁neu	-9.58548
▁gav	-9.5873
▁Wort	-9.5878
▁wahr	-9.58793
▁won	-9.58819
▁death	-9.58835
▁David	-9.59477
▁modern	-9.59524
either	-9.60049
▁Vorstellung	-9.60098
▁nahm	-9.60266
eher	-9.60309
▁Glück	-9.6037
▁ändern	-9.60521
▁culture	-9.60651
▁deal	-9.60721
▁beginnen	-9.60798
up	-9.60835
▁act	-9.60899
p	-9.60981
zustellen	-9.60996
▁damals	-9.61019
▁fragte	-9.61147
keit	-9.6116
▁powerful	-9.61228
▁fest	-9.61244
▁sage	-9.61374
▁Ab	-9.61385
▁scale	-9.61442
▁Eltern	-9.61526
▁Regierung	-9.61585
ist	-9.61608
heit	-9.61749
▁produce	-9.61801
▁drive	-9.61832
▁verändert	-9.61848
▁behind	-9.61864
▁Patienten	-9.61923
▁pattern	-9.62051
▁fish	-9.62085
▁during	-9.62195
▁na	-9.62234
▁verwenden	-9.62274
▁online	-9.62431
▁view	-9.62503
▁systems	-9.62529
▁Sachen	-9.62554
▁area	-9.62589
▁image	-9.62615
▁exist	-9.62724
▁send	-9.6273
▁pick	-9.62778
8	-9.62896
▁menschlichen	-9.62935
▁personal	-9.6306
▁black	-9.63171
▁cost	-9.63212
▁falsch	-9.63216
▁aller	-9.63277
▁middle	-9.63337
▁einigen	-9.63403
▁Luft	-9.6349
▁Lehrer	-9.63499
▁manche	-9.63704
▁Stück	-9.63754
▁century	-9.63813
▁eight	-9.64023
▁Universum	-9.64281
▁riesige	-9.64292
▁beginning	-9.64348
▁news	-9.64512
▁besten	-9.64613
ra	-9.64636
▁support	-9.64676
3	-9.6468
▁Be	-9.6478
▁oft	-9.65004
▁fand	-9.65022
▁hinter	-9.65023
▁Beziehung	-9.65023
▁population	-9.65033
▁Sinn	-9.65126
▁Dr	-9.652
▁Kindern	-9.65235
mal	-9.65324
▁wait	-9.65333
nimmt	-9.6539
gerne	-9.65623
▁überhaupt	-9.65674
▁economic	-9.65875
▁groß	-9.65898
▁getan	-9.66236
▁began	-9.665
▁notice	-9.66569
▁ocean	-9.66613
▁führen	-9.6672
▁easy	-9.66855
▁shows	-9.66909
F	-9.67364
▁extreme	-9.67463
▁size	-9.67495
▁Ziel	-9.67595
▁friend	-9.67661
▁L	-9.67697
doch	-9.67754
▁Wirtschaft	-9.67847
▁feeling	-9.6786
▁eyes	-9.67861
year	-9.67947
▁zwa	-9.67957
▁dar	-9.68102
▁choice	-9.68228
▁doctor	-9.68228
ische	-9.68248
ber	-9.68254
ar	-9.68295
▁begin	-9.68373
▁Länder	-9.68402
▁rest	-9.68461
▁lots	-9.68521
▁physical	-9.68575
gehen	-9.68598
▁eat	-9.68894
▁z	-9.68987
▁O	-9.69044
▁Lage	-9.69201
▁yourself	-9.6933
so	-9.69438
▁media	-9.69723
▁tut	-9.69874
▁treffen	-9.70067
▁present	-9.70155
▁führt	-9.70174
▁deine	-9.70301
old	-9.70303
▁perfect	-9.70306
▁Publikum	-9.70349
▁rate	-9.70398
ja	-9.70563
▁liebe	-9.70609
▁1	-9.7065
▁Tiere	-9.70663
▁value	-9.70681
M	-9.70745
▁John	-9.70846
▁father	-9.70857
▁taken	-9.70887
▁Well	-9.70889
▁70	-9.70895
▁Z	-9.70908
chen	-9.70927
▁dir	-9.70965
▁wohl	-9.70987
▁Herausforderung	-9.71211
▁Anfang	-9.71214
▁add	-9.7123
▁film	-9.71352
▁hands	-9.71374
▁total	-9.71461
▁Krebs	-9.71599
ous	-9.71648
▁green	-9.71768
erst	-9.71929
▁major	-9.71939
against	-9.72032
fangen	-9.72061
gebracht	-9.7208
▁völlig	-9.72105
▁11	-9.72304
▁Wissenschaftler	-9.7267
▁Hilfe	-9.72682
▁acht	-9.72911
▁behavior	-9.72913
▁befinde	-9.73154
▁falls	-9.73261
▁center	-9.73295
▁week	-9.73352
▁companies	-9.73371
▁surface	-9.73371
▁stay	-9.73373
felt	-9.73378
▁direkt	-9.73384
▁save	-9.7339
▁allem	-9.73471
▁auszu	-9.73479
▁near	-9.73557
▁mag	-9.73585
▁treat	-9.73726
▁Regel	-9.74132
▁zweite	-9.7417
▁lässt	-9.74246
▁complex	-9.74268
▁fühlen	-9.74295
▁movement	-9.74309
▁parents	-9.74354
▁safe	-9.74515
▁Kultur	-9.74562
▁longer	-9.74633
ur	-9.74672
▁seeing	-9.74696
less	-9.74811
▁World	-9.74849
▁genauso	-9.74867
▁blue	-9.7487
▁reach	-9.74902
▁anzu	-9.75014
▁slow	-9.75026
▁Liebe	-9.75297
schließlich	-9.75383
▁jene	-9.75483
▁digital	-9.75646
▁access	-9.75663
x	-9.75731
▁Situation	-9.75808
▁phone	-9.75828
▁simpl	-9.75934
▁bringt	-9.75993
▁glücklich	-9.76053
▁Verhalten	-9.76238
out	-9.7625
▁Unterschied	-9.76365
▁Gemeinschaft	-9.76392
lt	-9.76422
▁unten	-9.76446
▁sudden	-9.76514
▁cities	-9.76517
▁political	-9.76576
C	-9.76819
▁speak	-9.7686
▁stage	-9.76861
▁tried	-9.76958
▁betrachten	-9.77363
▁heut	-9.77422
▁erinnern	-9.77457
▁plötzlich	-9.77837
▁artist	-9.77853
▁anderer	-9.77853
▁canno	-9.77922
▁red	-9.77942
▁bereit	-9.7795
▁challenge	-9.77993
ance	-9.78096
▁wusste	-9.78116
▁Al	-9.78359
▁ground	-9.78475
where	-9.78524
▁record	-9.78533
▁resource	-9.786
▁positive	-9.78701
▁Vortrag	-9.78791
credible	-9.78793
▁Grunde	-9.79086
▁low	-9.79168
▁Reihe	-9.79178
▁los	-9.79279
▁Selbst	-9.7946
▁step	-9.79497
▁toward	-9.79508
▁junge	-9.79524
▁wonder	-9.79572
▁condition	-9.79589
▁eben	-9.79595
▁Gedanken	-9.79691
▁reality	-9.79714
▁recht	-9.79756
is	-9.79776
▁spen	-9.79885
P	-9.80051
N	-9.80134
wegen	-9.80134
▁organization	-9.80184
▁nice	-9.80213
ry	-9.80378
▁Richtung	-9.80538
▁write	-9.80548
▁hold	-9.80589
▁Tage	-9.80617
▁expect	-9.80921
▁feet	-9.81169
▁alte	-9.81295
▁animal	-9.8134
00	-9.81361
▁cut	-9.81445
▁Thema	-9.81483
▁opportunity	-9.8152
▁worden	-9.81731
▁girl	-9.81773
▁lead	-9.8188
▁travel	-9.81915
▁service	-9.81978
▁growth	-9.81987
▁bestimmte	-9.81996
▁schreiben	-9.82074
▁größte	-9.8208
▁lösen	-9.82086
▁sieben	-9.82092
▁einfache	-9.8227
age	-9.8231
▁product	-9.82311
▁Essen	-9.82313
her	-9.82473
▁Ein	-9.82475
▁bekannt	-9.82509
▁sollen	-9.8264
▁ent	-9.82961
▁g	-9.83017
▁unterschiedlich	-9.83205
▁humans	-9.83244
▁field	-9.83449
▁result	-9.83458
▁teilen	-9.83472
▁South	-9.83514
▁solve	-9.8359
R	-9.83631
▁14	-9.83682
▁Wochen	-9.83695
▁Boden	-9.83722
▁fight	-9.83764
▁wären	-9.83988
▁d	-9.84069
▁Du	-9.84223
▁lost	-9.84242
▁Staaten	-9.84274
▁English	-9.84323
▁weeks	-9.84326
▁shape	-9.84356
gone	-9.84452
▁innovation	-9.84536
▁Gesundheit	-9.84609
▁Markt	-9.84752
▁bestimmt	-9.84898
▁Woche	-9.84916
ive	-9.84925
▁attention	-9.84934
▁economy	-9.84934
▁schwierig	-9.85033
▁voice	-9.85065
▁impact	-9.85138
isch	-9.85185
aught	-9.85258
▁bottom	-9.85365
▁besteht	-9.85577
▁Bewegung	-9.85597
mit	-9.85683
▁zweiten	-9.85688
▁Prozess	-9.85983
▁suchen	-9.86183
▁anyone	-9.86245
ter	-9.86391
▁Krieg	-9.8642
6	-9.86435
▁Chinese	-9.86582
▁stellte	-9.86622
▁Modell	-9.86672
▁schlecht	-9.86762
▁W	-9.86904
▁action	-9.86926
▁approach	-9.86977
▁Mensch	-9.86994
▁stark	-9.8702
▁memor	-9.8705
▁Monate	-9.87077
▁Umwelt	-9.87104
▁bleiben	-9.87164
▁pull	-9.87215
▁Mars	-9.87578
▁Wissen	-9.8758
▁climate	-9.87645
▁material	-9.87664
▁hohe	-9.87665
▁zuvor	-9.8778
▁größer	-9.87794
▁sitt	-9.87826
▁needs	-9.87895
▁Namen	-9.88189
▁pass	-9.88194
▁general	-9.88206
setzen	-9.88451
▁increase	-9.88468
▁average	-9.88481
▁knowledge	-9.88493
giving	-9.88497
▁Muster	-9.88498
▁schrieb	-9.88546
▁weltweit	-9.88572
▁fun	-9.88643
▁San	-9.88675
iert	-9.88807
ia	-9.88823
▁risk	-9.88935
▁erzählt	-9.88955
▁fly	-9.89134
▁areas	-9.89162
▁p	-9.89169
▁forward	-9.89193
▁map	-9.89289
▁Labor	-9.89321
▁Meinung	-9.89326
▁benutzt	-9.8934
▁dark	-9.89371
▁key	-9.89527
▁gefunden	-9.89653
▁connect	-9.8971
▁born	-9.89731
▁fair	-9.89747
▁fall	-9.89811
▁deep	-9.89904
▁lesen	-9.8999
▁fundamental	-9.90017
▁Tages	-9.9005
▁klein	-9.90106
▁Typ	-9.9018
▁Amerika	-9.90192
▁theory	-9.90235
tage	-9.90376
▁technologies	-9.90398
▁16	-9.90488
▁images	-9.90525
H	-9.90589
▁Umgebung	-9.90607
▁genannt	-9.90624
▁white	-9.9064
▁measure	-9.90675
▁bessere	-9.90748
▁amerikanische	-9.90752
▁camera	-9.90858
▁potential	-9.90871
▁Freund	-9.90903
9	-9.91026
▁Ländern	-9.91065
▁scientists	-9.91166
▁bewusst	-9.91178
▁consider	-9.91213
▁sea	-9.91286
▁So	-9.91296
▁gelernt	-9.91328
▁books	-9.91363
▁darau	-9.91426
▁größten	-9.91546
▁Nacht	-9.91632
▁What	-9.91698
,000	-9.91806
▁Schritt	-9.91904
▁Wahrheit	-9.91914
▁essential	-9.91914
▁Innovation	-9.91939
▁raise	-9.92142
▁gern	-9.92225
▁runn	-9.92286
▁N	-9.92298
▁cover	-9.92354
ta	-9.92569
▁continue	-9.92581
▁17	-9.92593
▁hit	-9.92632
▁Revolution	-9.92861
bar	-9.92974
▁Herz	-9.93017
▁arm	-9.93178
T	-9.93185
▁similar	-9.9329
▁zehn	-9.93301
▁strong	-9.93357
durch	-9.93465
▁verwendet	-9.93627
raußen	-9.93682
▁understanding	-9.93821
▁4	-9.9402
▁Jahrhundert	-9.94035
▁network	-9.94045
▁somebod	-9.94118
▁wrote	-9.94128
▁scheint	-9.9413
▁Zellen	-9.94147
▁Medien	-9.94147
▁beginn	-9.94191
▁movie	-9.94219
▁Tier	-9.94347
▁London	-9.94378
▁5	-9.94395
▁erschaffen	-9.94399
▁literally	-9.94599
▁Bedeutung	-9.94802
▁morning	-9.94803
▁verbunden	-9.94804
▁National	-9.94903
▁train	-9.94925
▁hast	-9.94955
▁Autos	-9.94979
▁neben	-9.9503
li	-9.95035
▁Technik	-9.95055
▁Organisation	-9.95069
▁tools	-9.9508
▁sit	-9.95197
▁break	-9.95237
▁Erfolg	-9.95462
▁chance	-9.95527
ily	-9.95537
▁sterben	-9.95639
▁großartige	-9.95663
▁Forschung	-9.95669
▁gemeinsam	-9.95764
▁guess	-9.95936
▁Hände	-9.95943
▁source	-9.96012
▁late	-9.96016
▁creating	-9.96164
▁numbers	-9.96263
▁miles	-9.96278
▁erklären	-9.96287
▁funktionieren	-9.96314
▁West	-9.96324
▁Bildung	-9.96329
▁Kraft	-9.96357
▁leicht	-9.96376
▁egal	-9.96393
▁international	-9.9644
▁gebaut	-9.96467
▁passier	-9.96503
ro	-9.96628
▁meet	-9.96689
▁Team	-9.96723
▁gewesen	-9.97089
▁kid	-9.97167
▁national	-9.97186
gen	-9.97205
▁aufzu	-9.97227
▁blood	-9.97345
selbe	-9.97354
▁Re	-9.97358
▁frei	-9.97471
▁sehe	-9.9765
kaufen	-9.97746
▁fear	-9.97834
▁CO	-9.97922
▁Wert	-9.97945
▁entfernt	-9.98045
▁Haupt	-9.98099
▁No	-9.98144
▁500	-9.9818
▁met	-9.98183
▁Vor	-9.98196
▁protect	-9.98245
▁solution	-9.98263
▁activit	-9.9843
▁kleiner	-9.98663
▁current	-9.98711
▁richtige	-9.98799
▁mache	-9.98807
▁Bücher	-9.98967
▁geworden	-9.99203
▁möchten	-9.99275
▁page	-9.99335
nstatt	-9.99341
▁main	-9.99426
▁Technologien	-9.99521
▁hospital	-9.99653
▁among	-9.99673
▁Familien	-9.99679
▁stimmt	-9.99726
▁Tatsache	-9.99769
▁Europe	-9.99876
▁soon	-9.99948
▁essen	-9.99988
▁recently	-10.0006
ischen	-10.0019
▁politische	-10.002
ß	-10.0021
▁village	-10.0023
▁wish	-10.0037
▁fanden	-10.0042
▁relationship	-10.0045
▁eye	-10.0049
▁Afghanistan	-10.006
▁Anzahl	-10.0062
▁telling	-10.0064
▁Studenten	-10.0064
▁provide	-10.0064
ought	-10.0076
▁Zahl	-10.0086
▁Foto	-10.0089
▁Gründe	-10.0098
▁sell	-10.0103
▁ähnlich	-10.0121
▁Stimme	-10.0126
▁private	-10.0128
▁einzu	-10.0146
1	-10.0147
▁lab	-10.0165
▁office	-10.0192
▁Reise	-10.0198
▁ice	-10.0208
▁track	-10.0215
▁War	-10.0218
▁specific	-10.0237
▁special	-10.0239
▁situation	-10.0251
▁gezeigt	-10.0257
▁solar	-10.0261
jährige	-10.0278
▁öffentliche	-10.028
▁Web	-10.0291
▁blind	-10.0294
▁Bevölkerung	-10.0296
▁fire	-10.0303
▁bekommt	-10.0317
▁represent	-10.0325
▁smart	-10.0325
incredibly	-10.0327
▁robot	-10.0338
ab	-10.0342
▁Aufgabe	-10.0345
▁Er	-10.0346
▁tat	-10.036
▁Rest	-10.0369
▁rich	-10.0369
pecial	-10.0371
▁We	-10.0372
▁ca	-10.0373
▁success	-10.0376
▁Material	-10.0379
▁generation	-10.0388
▁alone	-10.0405
▁touch	-10.0408
available	-10.0413
▁Rolle	-10.0415
▁Platz	-10.0421
▁street	-10.0426
▁300	-10.0433
▁Mittel	-10.0439
▁findet	-10.0442
▁Gewalt	-10.0446
.000	-10.0449
E	-10.045
▁non	-10.0464
▁dead	-10.0472
▁truth	-10.0479
▁easi	-10.0479
▁teach	-10.0498
▁Teile	-10.0498
▁mass	-10.0504
▁Sicherheit	-10.0504
▁vision	-10.0505
▁offensichtlich	-10.051
▁Un	-10.0511
▁effective	-10.0511
▁development	-10.0516
ol	-10.0521
▁type	-10.0524
▁gegenüber	-10.0527
▁known	-10.0538
▁Aus	-10.0549
▁aussehen	-10.0552
▁guten	-10.0559
▁Veränderung	-10.0563
▁sun	-10.057
▁kurze	-10.0584
▁worth	-10.0589
▁sign	-10.0592
▁suggest	-10.0599
▁gas	-10.06
▁industry	-10.06
▁allein	-10.0606
self	-10.0614
▁attack	-10.0626
▁komplett	-10.0628
▁please	-10.0654
▁African	-10.0659
▁links	-10.0667
ier	-10.0671
▁box	-10.0694
▁post	-10.0696
▁several	-10.0702
▁search	-10.0702
ma	-10.0702
▁writing	-10.0713
▁cars	-10.0724
▁direct	-10.0724
▁beyond	-10.0727
▁message	-10.0729
how	-10.0734
▁Universität	-10.0736
▁changing	-10.0738
▁massive	-10.0748
▁Hälfte	-10.0753
▁evidence	-10.0753
▁Europa	-10.0753
▁absolut	-10.0756
spricht	-10.0757
▁erreicht	-10.0763
▁law	-10.0766
▁sonst	-10.08
▁push	-10.0804
▁evolution	-10.0806
▁usual	-10.0807
▁Generation	-10.0825
zeit	-10.0837
▁effect	-10.0861
▁Mitgefühl	-10.0882
▁scientific	-10.0882
▁asking	-10.0904
▁affect	-10.0905
hand	-10.0915
cy	-10.0916
▁interessiert	-10.0916
▁versuchte	-10.0922
▁verloren	-10.0929
▁13	-10.0932
▁Größe	-10.0938
▁draw	-10.0939
L	-10.0945
▁Tod	-10.0947
▁Papier	-10.0955
▁arbeitete	-10.096
▁Fehler	-10.0963
▁größere	-10.0965
▁bist	-10.0982
▁nine	-10.0989
▁rules	-10.0994
▁Experiment	-10.0999
▁bekam	-10.1008
▁vorher	-10.1009
▁medical	-10.1012
▁zeige	-10.1014
▁setzen	-10.1024
▁City	-10.1026
▁putting	-10.1027
▁Eis	-10.1032
▁involve	-10.1034
▁Hoffnung	-10.1039
ne	-10.104
▁sofort	-10.1042
▁beste	-10.1047
▁Wahl	-10.1057
▁Facebook	-10.1065
▁Realität	-10.1065
deed	-10.1066
▁Künstler	-10.1074
▁link	-10.1078
▁wichtige	-10.108
▁nenn	-10.1081
▁Straße	-10.109
▁Richard	-10.1092
▁Tat	-10.1092
▁24	-10.1097
bei	-10.1099
▁period	-10.1102
▁ziehen	-10.1106
▁Bereich	-10.1108
▁hoffe	-10.1118
▁19	-10.112
▁traf	-10.1137
▁Theorie	-10.1155
▁Ding	-10.1159
▁Mitte	-10.1171
▁software	-10.1177
▁arbeitet	-10.1184
ir	-10.1189
▁compassion	-10.1198
▁forest	-10.1198
▁21	-10.1198
▁practice	-10.1211
hin	-10.1212
▁position	-10.1216
▁brachte	-10.1217
▁Straßen	-10.1228
ism	-10.1235
▁describe	-10.124
▁region	-10.1249
▁baby	-10.1251
▁früher	-10.1253
▁Schüler	-10.1255
▁function	-10.1259
ha	-10.1265
▁computers	-10.1268
▁conversation	-10.1279
▁gleichzeitig	-10.1279
▁schneller	-10.1282
▁Städte	-10.1283
▁wind	-10.1286
ö	-10.1287
▁langsam	-10.129
the	-10.1305
ant	-10.1309
▁trust	-10.1314
▁Preis	-10.1314
führen	-10.1316
▁fing	-10.1318
com	-10.1321
▁invent	-10.1323
▁laufen	-10.1331
▁fahren	-10.134
▁V	-10.1344
▁device	-10.135
▁Gebiet	-10.1358
time	-10.1359
▁price	-10.136
▁month	-10.1362
▁connection	-10.1362
▁list	-10.1366
tiny	-10.1373
▁finding	-10.1376
▁wall	-10.1389
▁degree	-10.1393
▁Kosten	-10.1393
▁visual	-10.1397
am	-10.1409
▁carbon	-10.1413
▁AIDS	-10.1415
go	-10.1417
▁Maschine	-10.1427
halten	-10.1442
▁creative	-10.1444
son	-10.145
▁nation	-10.1458
▁role	-10.1469
▁revolution	-10.1482
▁Entscheidungen	-10.1492
▁subject	-10.1496
▁hole	-10.1506
▁recognize	-10.1508
▁199	-10.1523
ri	-10.1524
▁geschieht	-10.1525
▁favorite	-10.1525
▁further	-10.1525
ian	-10.1528
▁geboren	-10.1534
▁speed	-10.1537
▁Versuch	-10.1552
▁genommen	-10.1559
▁Studie	-10.1569
▁länger	-10.1576
▁Ebene	-10.1577
▁store	-10.1578
▁Vereinigte	-10.158
▁Evolution	-10.1609
▁wann	-10.1609
▁übrigen	-10.1614
▁gegeben	-10.1615
▁De	-10.163
▁response	-10.1636
▁lose	-10.1636
▁Gesicht	-10.1637
G	-10.1656
▁journey	-10.1664
▁Demokratie	-10.1664
▁benefit	-10.1667
▁Nachrichten	-10.1683
▁song	-10.1686
▁Hey	-10.1704
▁hinaus	-10.1712
▁hinein	-10.1717
ling	-10.1717
▁molecule	-10.172
▁selbe	-10.1724
▁meaning	-10.1745
head	-10.1748
▁Firma	-10.1754
▁bewegt	-10.1758
▁Man	-10.1769
▁collect	-10.1771
▁North	-10.1776
▁equal	-10.1778
▁Struktur	-10.1779
▁St	-10.1783
▁Japan	-10.1785
▁kill	-10.1791
▁Zahlen	-10.1795
rought	-10.1799
▁tend	-10.1802
▁concept	-10.1803
stellen	-10.1804
at	-10.1805
▁extraordinar	-10.1805
▁dream	-10.1818
▁wichtiger	-10.1819
ul	-10.1839
▁liegen	-10.1855
▁Karte	-10.1857
▁anyway	-10.1866
▁sounds	-10.1876
▁TV	-10.1876
▁institution	-10.1877
▁fliegen	-10.188
▁Sonne	-10.1888
▁Ergebnis	-10.189
▁hab	-10.1904
▁wichtigste	-10.1904
ik	-10.1911
▁girls	-10.1916
▁University	-10.192
▁Auswirkung	-10.192
▁treatment	-10.1921
▁materials	-10.1924
▁games	-10.1928
ary	-10.1947
▁000	-10.1949
▁mehrere	-10.1951
▁raus	-10.1951
▁screen	-10.1966
▁bald	-10.197
▁require	-10.197
▁6	-10.1973
▁großartig	-10.1976
▁predict	-10.1977
▁Aufmerksamkeit	-10.1977
▁herauszufinden	-10.1978
▁successful	-10.1978
▁br	-10.1985
▁count	-10.1988
▁transform	-10.199
▁geschrieben	-10.1995
▁Alter	-10.2006
▁Oberfläche	-10.201
▁road	-10.2015
▁Job	-10.2053
▁Blick	-10.2059
▁Pflanzen	-10.2059
▁adult	-10.2065
▁character	-10.2075
▁super	-10.2077
bald	-10.2078
▁globale	-10.2083
▁außer	-10.2092
▁vergessen	-10.2102
ful	-10.2111
il	-10.2118
▁ständig	-10.2118
▁onto	-10.2119
▁throw	-10.2123
▁medicine	-10.2126
▁carry	-10.2126
▁US	-10.2131
▁gesprochen	-10.2136
▁quality	-10.2145
▁198	-10.2151
▁necessar	-10.2152
▁Kontrolle	-10.2155
bringen	-10.2155
▁tragen	-10.2159
▁Produkt	-10.216
▁ones	-10.2166
ler	-10.2168
▁trotzde	-10.2169
ton	-10.2174
▁violence	-10.2184
▁außerdem	-10.2184
▁everywhere	-10.219
▁class	-10.2191
▁block	-10.2193
▁traditional	-10.2206
weise	-10.2232
▁zumindest	-10.2241
▁Bill	-10.2242
▁lieben	-10.2245
▁happiness	-10.2245
▁gre	-10.2251
▁Ozean	-10.2264
▁wild	-10.2267
▁skin	-10.227
▁lebt	-10.2282
more	-10.2289
denkt	-10.2313
and	-10.2314
▁version	-10.2328
▁Einfluss	-10.2331
▁sex	-10.2333
▁Gruppen	-10.2338
▁security	-10.2339
▁join	-10.2342
▁rein	-10.2348
▁boy	-10.2358
▁remain	-10.2361
▁democracy	-10.2367
▁plan	-10.2373
▁finde	-10.2383
▁Ergebnisse	-10.2393
▁direction	-10.2395
▁großer	-10.2401
▁toll	-10.2401
▁führte	-10.2406
▁Konzept	-10.2414
W	-10.2423
▁leaders	-10.2425
▁Orte	-10.2429
by	-10.2431
▁flow	-10.2431
▁Gemeinde	-10.2431
ungen	-10.2442
▁eventually	-10.2451
▁exciting	-10.2451
▁nuclear	-10.2452
▁led	-10.2454
O	-10.248
▁näher	-10.2484
▁table	-10.2486
▁moral	-10.2491
▁neues	-10.2496
▁gearbeitet	-10.2497
aus	-10.2502
tra	-10.2507
▁Schulen	-10.251
▁Paul	-10.2532
▁Meter	-10.2535
▁offer	-10.2536
▁machten	-10.2537
▁Menschheit	-10.2544
▁verlassen	-10.2552
▁Mo	-10.2558
▁hour	-10.2563
ate	-10.257
▁Auf	-10.2575
▁Behandlung	-10.2576
▁beobachten	-10.2581
▁etc	-10.2588
▁trees	-10.2589
▁diejenige	-10.259
▁Medizin	-10.2595
▁mine	-10.2597
▁appear	-10.2604
▁trial	-10.2605
▁Region	-10.2606
▁Entscheidung	-10.261
▁finish	-10.2613
▁unseres	-10.2616
▁Objekt	-10.2616
▁dein	-10.2618
▁fail	-10.2619
▁wussten	-10.2621
▁passierte	-10.2622
▁schools	-10.2622
▁results	-10.2624
▁tru	-10.263
▁perspective	-10.2635
▁wachsen	-10.2648
▁El	-10.2659
▁Bau	-10.2674
▁mental	-10.2678
▁sprach	-10.2691
▁depend	-10.2693
▁Reaktion	-10.2697
▁earlie	-10.2699
▁echte	-10.2703
geht	-10.2712
▁unglaubliche	-10.2727
▁extra	-10.2731
▁publish	-10.2731
ismus	-10.2755
▁poverty	-10.276
▁sitzen	-10.276
▁foot	-10.2771
▁La	-10.2773
▁door	-10.2779
▁drug	-10.2787
▁content	-10.2791
▁waste	-10.2792
▁card	-10.2794
los	-10.2804
▁secret	-10.2804
rry	-10.2808
▁spielt	-10.2815
▁tool	-10.2816
▁früh	-10.282
▁context	-10.2822
▁Monat	-10.2827
▁2000	-10.2827
ized	-10.2846
▁photograph	-10.2872
▁standard	-10.2874
▁impossibl	-10.2886
▁Software	-10.2895
▁jobs	-10.2907
au	-10.292
▁Mr	-10.2924
▁square	-10.2926
▁critical	-10.293
▁Grenzen	-10.2948
▁crazy	-10.2949
▁fine	-10.295
▁Eigenschaft	-10.295
▁Dorf	-10.2953
▁Ge	-10.2962
▁sahen	-10.2975
▁e	-10.2981
▁Twitter	-10.2981
▁return	-10.2981
▁Wh	-10.2986
▁lesson	-10.2989
falls	-10.2992
ko	-10.2993
▁supposed	-10.2996
rzte	-10.3006
▁spread	-10.3009
▁Washington	-10.3013
▁possibilit	-10.3013
▁worse	-10.3013
▁Fälle	-10.3014
▁Seiten	-10.302
▁verbesser	-10.3022
▁Strom	-10.3024
▁Iran	-10.3041
▁Sch	-10.3043
▁Sicht	-10.3049
▁connected	-10.3054
▁wear	-10.3075
▁Erinnerung	-10.3078
▁immediate	-10.3078
▁Spaß	-10.3078
▁Politik	-10.3079
satz	-10.3081
▁bleibt	-10.3081
▁400	-10.309
▁erlaubt	-10.3093
▁account	-10.3108
▁35	-10.3108
▁architecture	-10.311
▁higher	-10.3113
▁fertig	-10.3129
▁plastic	-10.3141
▁Zugang	-10.3143
▁series	-10.3143
▁rise	-10.3144
▁examples	-10.3148
wissenschaftlich	-10.3157
▁Amerikaner	-10.3158
▁warm	-10.3158
▁ho	-10.3161
▁East	-10.3162
▁Stelle	-10.3172
▁unmöglich	-10.3176
▁code	-10.3181
▁Beispiele	-10.3186
▁dieselbe	-10.3192
▁pre	-10.3198
▁hörte	-10.32
▁interact	-10.3205
▁Sohn	-10.3208
▁anschaue	-10.3212
os	-10.3213
▁check	-10.3214
▁Uhr	-10.3214
▁ready	-10.3215
▁fit	-10.3221
ood	-10.3231
▁offen	-10.3236
▁enjoy	-10.324
▁fuel	-10.3246
▁verlieren	-10.3246
▁named	-10.326
▁Monaten	-10.3268
▁launch	-10.3273
▁Mathematik	-10.3276
▁Programm	-10.3279
▁aufgrund	-10.3281
▁Gene	-10.3285
▁letter	-10.3289
▁hielt	-10.3293
▁bilden	-10.3308
▁original	-10.3312
▁bacteria	-10.3312
▁deliver	-10.3313
▁kau	-10.3317
▁emotional	-10.3318
▁schaut	-10.3327
▁includ	-10.3328
▁George	-10.3339
▁Englisch	-10.334
▁choose	-10.334
igen	-10.3343
▁Gerät	-10.3343
▁communit	-10.335
▁Zeug	-10.336
ien	-10.3361
▁betrachtet	-10.3371
▁England	-10.3373
▁task	-10.3373
▁unfortunate	-10.3373
▁serious	-10.3374
habt	-10.3377
▁minute	-10.338
▁schöne	-10.338
▁goal	-10.3389
▁Studien	-10.34
▁negative	-10.3404
▁Vergangenheit	-10.3406
▁James	-10.3406
▁faster	-10.3415
▁Spezies	-10.3418
▁schlechte	-10.342
▁voller	-10.3424
▁larger	-10.3425
▁Arm	-10.3426
▁irgendwo	-10.344
▁Ha	-10.3441
▁models	-10.3441
▁8	-10.3457
▁abzu	-10.3458
ut	-10.3464
▁Sinne	-10.3466
▁Wirklichkeit	-10.3473
▁principle	-10.3473
▁relative	-10.3475
▁aussieh	-10.3477
▁vorbei	-10.3483
sitzt	-10.3484
▁Flugzeug	-10.3488
▁f	-10.349
▁manage	-10.3499
▁dritte	-10.3502
▁enter	-10.3505
▁150	-10.3505
▁ehrlich	-10.3507
▁Armut	-10.3507
▁crisis	-10.3509
▁sent	-10.3511
▁studies	-10.3517
▁ultimate	-10.3541
▁wife	-10.3541
▁site	-10.3548
ige	-10.355
system	-10.3557
▁interessante	-10.3557
▁tree	-10.3568
▁colleague	-10.3574
▁complicated	-10.3574
▁produzieren	-10.3574
▁above	-10.3575
▁Tür	-10.3578
▁drugs	-10.3579
▁leider	-10.3581
co	-10.3587
▁sleep	-10.3587
▁hot	-10.359
▁strange	-10.3594
▁Wind	-10.36
▁products	-10.3602
▁tolle	-10.3603
▁Bakterien	-10.3608
▁electricity	-10.3609
▁gewinnen	-10.3611
▁peace	-10.3614
▁fund	-10.3623
▁shot	-10.3625
▁hilf	-10.3635
▁bunch	-10.3643
▁MIT	-10.3643
▁nachzudenken	-10.3643
ziehen	-10.3649
▁none	-10.367
▁writ	-10.3689
▁Nachricht	-10.3693
▁male	-10.3706
▁Ja	-10.3708
▁Personen	-10.3711
▁college	-10.3711
▁fill	-10.3711
▁argument	-10.3733
▁lag	-10.3737
art	-10.3737
▁lower	-10.3739
▁medizinische	-10.3741
▁except	-10.3744
▁versuche	-10.3744
▁fantastic	-10.3746
kept	-10.3748
▁famous	-10.3752
▁neurons	-10.3752
ei	-10.3755
▁decision	-10.3768
▁expert	-10.378
▁Morgen	-10.378
▁concern	-10.378
▁Firmen	-10.3784
▁reading	-10.3785
though	-10.3787
▁Das	-10.3788
▁extrem	-10.3791
▁Orten	-10.3797
▁invest	-10.3811
▁entscheiden	-10.3813
▁communication	-10.3815
▁afford	-10.3825
▁genetic	-10.3844
▁Bürger	-10.3848
▁Kamera	-10.3849
▁website	-10.385
refore	-10.3851
▁Leistung	-10.3851
▁ebenso	-10.3852
▁voll	-10.3852
tic	-10.3855
▁nenne	-10.3856
▁police	-10.3857
▁tief	-10.3861
▁folgen	-10.3868
▁erzeugen	-10.387
▁Designer	-10.3872
▁complete	-10.3874
▁legal	-10.388
▁visit	-10.3882
▁o	-10.3884
▁Bäume	-10.3885
▁families	-10.3885
stand	-10.3889
▁Sex	-10.3894
▁ermöglicht	-10.3901
▁Gegen	-10.3904
op	-10.3905
▁echt	-10.3916
▁zero	-10.3919
▁clean	-10.3922
▁shift	-10.3922
▁Times	-10.3923
▁Architektur	-10.3924
▁performance	-10.3927
▁Dan	-10.393
I	-10.3931
▁Einstein	-10.3955
▁increasing	-10.3956
▁rund	-10.3964
▁wave	-10.397
▁meant	-10.397
way	-10.3976
▁Worte	-10.3981
▁Linie	-10.3991
▁robots	-10.4003
▁eure	-10.4008
▁physics	-10.4026
▁surprising	-10.4026
▁military	-10.4026
▁stick	-10.4027
▁training	-10.4029
▁verbinden	-10.403
▁oh	-10.4033
▁Blut	-10.4033
▁Charles	-10.4035
sehen	-10.405
▁purpose	-10.4061
▁math	-10.4062
▁reduce	-10.4068
▁cap	-10.4068
▁Systeme	-10.4071
▁erklärt	-10.4073
▁killed	-10.4082
▁Bewusstsein	-10.4089
▁zeigte	-10.4093
ntweder	-10.4098
▁erzählte	-10.41
▁erfahren	-10.4107
iv	-10.4108
▁path	-10.4108
▁Israel	-10.411
▁pain	-10.4117
▁sing	-10.4119
▁heat	-10.4124
▁neun	-10.4124
▁beauty	-10.4133
▁charge	-10.4133
▁accept	-10.4133
▁geschehe	-10.4136
▁press	-10.4138
ish	-10.414
▁wirtschaftliche	-10.4142
▁Projekte	-10.415
ine	-10.4155
uch	-10.4156
▁board	-10.4156
nächst	-10.4164
▁career	-10.4165
▁floor	-10.4169
▁entdecken	-10.4169
▁address	-10.4169
▁verrückt	-10.417
▁excited	-10.4172
▁alive	-10.4172
▁anfange	-10.4173
▁urban	-10.4179
▁Ressourcen	-10.4184
▁Ma	-10.4186
▁entdeckt	-10.4192
▁cheap	-10.4205
▁range	-10.4206
▁sodas	-10.4206
▁smaller	-10.4211
▁policy	-10.4213
▁Fotos	-10.4226
▁9	-10.4237
▁Wörter	-10.4241
▁Sekunden	-10.4241
▁terribl	-10.4241
▁Aktivität	-10.4241
▁Anderson	-10.4242
▁perform	-10.4261
▁biolog	-10.4267
id	-10.4272
▁older	-10.428
bo	-10.4283
▁mobile	-10.4297
▁herausfinde	-10.4299
▁forms	-10.4303
▁particle	-10.4314
▁town	-10.4318
▁feed	-10.4323
ti	-10.4328
▁erfolgreich	-10.433
▁brains	-10.4336
▁explore	-10.4337
nehmen	-10.4348
▁expensive	-10.4351
▁rechts	-10.4357
▁mom	-10.436
▁Wachstum	-10.4361
▁handelt	-10.437
▁hört	-10.4374
▁persönliche	-10.4383
▁progress	-10.4385
▁Freiheit	-10.4388
▁Bühne	-10.4389
treten	-10.4396
▁Fisch	-10.4398
▁Die	-10.4398
▁erstaunlich	-10.44
▁Druck	-10.4401
▁decide	-10.4402
▁irgendwa	-10.4403
▁prevent	-10.4403
▁schwarze	-10.4407
▁gekommen	-10.4412
▁Baby	-10.4413
▁respond	-10.4424
▁unique	-10.4424
▁virtual	-10.4424
▁retten	-10.4425
▁dangerous	-10.4425
▁Bezug	-10.4425
tion	-10.4426
▁Büro	-10.4431
▁wunderbare	-10.4435
▁lernte	-10.4437
▁Regierungen	-10.4441
▁hält	-10.4445
▁läuf	-10.4446
▁gestellt	-10.4446
▁Bank	-10.4458
ac	-10.4459
▁vehicle	-10.4462
▁Himmel	-10.447
▁interview	-10.4473
▁wenige	-10.4477
▁skills	-10.4489
▁Museum	-10.449
▁teaching	-10.4494
▁Ordnung	-10.4499
▁amp	-10.4499
▁Robert	-10.4501
▁anywhere	-10.4506
▁achieve	-10.4507
und	-10.4514
▁Tagen	-10.4517
▁compare	-10.453
▁Formen	-10.4531
▁constant	-10.4536
▁freedom	-10.4536
▁slight	-10.4537
▁report	-10.4538
▁bank	-10.4543
▁arbeite	-10.4557
▁trotz	-10.456
▁nahe	-10.4567
▁instance	-10.4574
▁Prinzip	-10.4577
▁sch	-10.4579
▁decisions	-10.4587
welt	-10.4589
▁jungen	-10.4596
▁Kollegen	-10.4598
▁web	-10.4602
▁improve	-10.4602
▁keiner	-10.4605
▁runter	-10.4608
aid	-10.4608
▁Nummer	-10.4611
▁Nahrung	-10.4612
▁gefragt	-10.4613
▁Punkte	-10.4614
▁School	-10.4615
▁cold	-10.4618
▁untersuchen	-10.462
▁bodi	-10.4621
▁weight	-10.4629
▁fühlte	-10.4637
▁7	-10.4637
▁stars	-10.4647
▁daughter	-10.4649
▁Telefon	-10.4655
▁protein	-10.4655
ka	-10.4655
▁Interesse	-10.4656
▁Landes	-10.4658
▁Bienen	-10.4662
▁income	-10.4666
▁humanity	-10.4666
▁entschieden	-10.4677
▁German	-10.4687
▁saß	-10.4688
▁production	-10.469
▁Chance	-10.4695
▁sat	-10.4696
pe	-10.47
▁Wege	-10.4702
▁Methode	-10.4706
▁co	-10.4717
▁Michael	-10.4718
▁Netzwerk	-10.4721
▁verstanden	-10.4721
▁effort	-10.4724
▁babies	-10.4725
▁außerhalb	-10.4725
▁Artikel	-10.4727
▁Indian	-10.4739
▁sammeln	-10.4745
▁becom	-10.4753
▁convince	-10.4763
▁leisten	-10.4763
▁temperature	-10.4763
▁Park	-10.4766
▁Do	-10.4768
▁Nigeria	-10.477
▁legs	-10.4796
lassen	-10.4798
▁jemande	-10.4798
▁Gesundheits	-10.4802
ley	-10.4807
▁Finger	-10.481
▁Wand	-10.4816
▁text	-10.4816
▁Gen	-10.4822
▁ansehe	-10.4823
like	-10.4824
▁Arzt	-10.4844
▁leg	-10.4844
▁transport	-10.4856
▁Ganze	-10.4858
▁Los	-10.4858
▁warten	-10.4861
▁shark	-10.4878
▁Meer	-10.488
ft	-10.4881
▁Krankenhaus	-10.4882
▁Plan	-10.4883
▁organism	-10.4884
▁driving	-10.4886
▁drop	-10.4889
▁bone	-10.4897
▁Kampf	-10.4909
▁win	-10.4916
▁schützen	-10.4917
ak	-10.4931
▁park	-10.4938
▁Sh	-10.4947
ho	-10.4949
▁machines	-10.495
▁Recht	-10.495
▁female	-10.4956
▁enormous	-10.4956
▁Netz	-10.4957
▁familiar	-10.4964
▁starb	-10.497
leben	-10.4986
▁genes	-10.4991
▁respect	-10.4994
▁Schönheit	-10.4995
▁financial	-10.4995
▁scar	-10.5004
▁environmental	-10.5016
▁irgendeine	-10.5016
▁hundert	-10.5018
▁conflict	-10.5025
▁Gelegenheit	-10.5034
▁Religion	-10.5034
▁intelligence	-10.5034
▁Tisch	-10.5036
▁Wesen	-10.5038
▁bed	-10.5039
▁drink	-10.504
▁wohin	-10.5041
▁forget	-10.5042
▁45	-10.5051
kt	-10.5052
▁stopp	-10.5055
▁magic	-10.5065
▁geschaffen	-10.5067
durchschnittlich	-10.5074
▁Farbe	-10.5077
▁Herr	-10.5077
▁2008	-10.5082
▁active	-10.5086
▁Ton	-10.5092
▁Million	-10.5095
▁trade	-10.5102
▁solutions	-10.511
▁Darwin	-10.5113
▁Beginn	-10.5113
▁fallen	-10.5115
▁Geist	-10.5117
▁remarkable	-10.512
▁Bast	-10.513
▁See	-10.5138
▁separate	-10.5148
▁müsste	-10.5149
▁messen	-10.515
▁target	-10.5155
▁significant	-10.5165
▁Auge	-10.5168
ger	-10.5173
▁Haut	-10.5182
▁erzeugt	-10.5193
▁funny	-10.5194
▁bat	-10.5195
▁Sa	-10.5197
▁meeting	-10.5217
▁cook	-10.5223
▁getroffen	-10.5233
▁Fuß	-10.5233
▁fix	-10.5241
▁Version	-10.5246
▁photo	-10.5248
ualität	-10.5265
▁influence	-10.5268
▁September	-10.5273
pa	-10.5276
▁rule	-10.5287
ster	-10.5297
▁politic	-10.5299
▁Verständnis	-10.5303
▁taten	-10.5307
▁meter	-10.5314
▁Adam	-10.532
▁herstellen	-10.532
▁catch	-10.5326
punkt	-10.5331
▁st	-10.5341
▁bisher	-10.5342
▁aid	-10.5344
▁hart	-10.535
▁Freude	-10.535
▁pressure	-10.5354
▁Leidenschaft	-10.5354
▁gain	-10.5355
▁dance	-10.5361
schaft	-10.5363
▁Name	-10.537
ende	-10.5381
▁km	-10.5382
▁remind	-10.5384
▁Gesetz	-10.5393
▁Werkzeuge	-10.54
▁finger	-10.5407
▁brand	-10.5408
▁Botschaft	-10.5411
▁erwarten	-10.5414
▁trouble	-10.5435
▁cross	-10.5437
▁He	-10.5445
▁survive	-10.5445
▁Zeitpunkt	-10.545
▁sand	-10.5464
▁Feuer	-10.5474
▁Herzen	-10.5474
▁brauchte	-10.5475
▁Harvard	-10.5476
▁genome	-10.5476
▁insect	-10.5476
▁useful	-10.5481
▁Abend	-10.5482
▁Es	-10.5482
▁flying	-10.5484
▁walked	-10.5488
▁Kern	-10.5489
▁demand	-10.5494
▁Grad	-10.5495
po	-10.5497
▁laut	-10.5509
▁Produkte	-10.5516
▁creativity	-10.5517
▁interaction	-10.5519
▁passion	-10.552
▁hell	-10.5521
▁Fluss	-10.5523
▁saving	-10.553
▁Band	-10.5538
▁Schlüssel	-10.5543
noch	-10.5548
U	-10.5548
▁decade	-10.5552
▁Ka	-10.5557
mögen	-10.5557
▁email	-10.5559
▁various	-10.5559
▁Operation	-10.5559
▁Schul	-10.5572
▁nannte	-10.56
▁umzu	-10.5603
▁race	-10.5605
▁dritten	-10.561
▁slide	-10.5612
▁costs	-10.5621
all	-10.5622
▁lokale	-10.5623
skraft	-10.5625
▁tissue	-10.5642
▁fällt	-10.5643
▁Ben	-10.5655
▁dog	-10.5659
un	-10.5663
▁sky	-10.5665
zubringen	-10.5667
ities	-10.5672
▁erinnere	-10.5684
▁geschah	-10.5684
▁honest	-10.5684
▁wide	-10.5702
▁Stunde	-10.5704
▁speaking	-10.5711
▁television	-10.5726
legen	-10.5735
▁zufällig	-10.5735
▁fühlt	-10.5739
▁forth	-10.5746
▁unit	-10.575
▁circle	-10.5754
▁starke	-10.5755
▁wealth	-10.5764
▁hair	-10.5767
▁failure	-10.5768
▁popular	-10.577
▁unterstützen	-10.5776
▁virus	-10.5779
▁Steve	-10.5789
▁nochmal	-10.5797
▁central	-10.581
▁California	-10.581
▁heutigen	-10.5811
ug	-10.5813
di	-10.582
▁Geschäft	-10.5821
▁k	-10.5822
▁types	-10.5824
▁Bo	-10.5824
▁Industrie	-10.5827
▁intelligent	-10.583
▁apply	-10.5833
▁rock	-10.5835
▁engine	-10.5837
▁nachdenk	-10.5842
▁konzentriere	-10.5853
▁supply	-10.5853
▁NASA	-10.5853
▁erfunden	-10.5853
▁99	-10.5853
▁conference	-10.5855
▁verkaufen	-10.5858
eath	-10.5861
▁Jungen	-10.5863
▁Werte	-10.5872
▁Veränderungen	-10.5873
▁sequence	-10.5878
ical	-10.5885
bild	-10.5891
▁außergewöhnlich	-10.5895
▁iPhone	-10.5895
▁coral	-10.5896
na	-10.5897
▁Maschinen	-10.5897
hält	-10.5897
▁shared	-10.5897
▁summer	-10.5898
▁star	-10.5905
▁engineering	-10.5906
ierung	-10.5909
▁sub	-10.5911
▁document	-10.5912
▁edge	-10.5914
▁breath	-10.5915
▁schafft	-10.5924
▁paint	-10.593
dimensional	-10.5934
▁Co	-10.5936
▁Partner	-10.5938
▁Western	-10.5938
▁behandeln	-10.5938
▁Vergleich	-10.594
▁Tom	-10.5971
ci	-10.5975
▁sexual	-10.5982
liche	-10.5982
▁halbe	-10.5987
▁stress	-10.5987
▁Thom	-10.5999
▁fragt	-10.601
▁aktiv	-10.6015
▁seat	-10.6019
wissenschaft	-10.6024
▁beeinflusst	-10.6025
▁Karriere	-10.6025
▁Morton	-10.6025
▁197	-10.6025
▁Peter	-10.6029
▁consumer	-10.6039
▁cultural	-10.6041
▁rain	-10.6042
▁Sand	-10.6047
▁rot	-10.6049
▁Osten	-10.6049
▁miss	-10.6054
▁ran	-10.606
▁double	-10.6068
▁infrastructure	-10.6069
sharing	-10.607
▁Go	-10.6079
ierte	-10.6084
▁Test	-10.6084
ale	-10.6089
wise	-10.6092
▁factor	-10.6094
▁schicken	-10.6095
▁hinzu	-10.6096
▁Suche	-10.61
lo	-10.61
ouTube	-10.6112
▁alternative	-10.6112
▁Ahnung	-10.6112
▁gedacht	-10.6112
▁Anwendung	-10.6115
▁distance	-10.6117
▁brilliant	-10.6119
ke	-10.6122
▁sowie	-10.6124
▁values	-10.6129
▁triff	-10.6131
he	-10.6152
▁straight	-10.6156
▁speech	-10.6156
▁Francisco	-10.6156
▁grundlegende	-10.6156
▁angefangen	-10.6156
▁spot	-10.6158
▁balance	-10.6159
▁Risiko	-10.6159
▁beat	-10.616
tragen	-10.616
▁Traum	-10.6161
▁surgery	-10.6167
▁possibl	-10.6168
▁Verantwortung	-10.6171
▁tausende	-10.6183
▁gehe	-10.6185
▁Liste	-10.6187
▁endlich	-10.6187
stern	-10.6193
▁Westen	-10.6194
▁jump	-10.6199
▁Position	-10.62
▁Sommer	-10.62
▁radio	-10.62
ad	-10.6206
▁belief	-10.6207
▁communicate	-10.6209
▁detail	-10.621
▁station	-10.6211
▁sad	-10.6214
▁professional	-10.6223
▁sample	-10.6223
▁hervor	-10.6232
▁höher	-10.6235
▁Kreativität	-10.6244
▁feature	-10.6246
form	-10.6248
▁accident	-10.6249
▁decades	-10.6251
▁nachdenke	-10.6251
▁Jahrhunderts	-10.6261
▁existiert	-10.6262
▁blaue	-10.6263
▁komplexe	-10.6265
▁natürliche	-10.627
▁anti	-10.6273
▁aware	-10.628
schreibt	-10.6284
▁neighborhood	-10.6289
▁öffnen	-10.6289
▁Institution	-10.6289
▁Zustand	-10.6295
▁prison	-10.6299
▁instrument	-10.6299
▁recent	-10.6302
▁ship	-10.6307
▁layer	-10.6311
kommt	-10.6317
▁All	-10.6321
▁capital	-10.6327
▁define	-10.6329
ga	-10.633
▁dynamic	-10.6333
▁chair	-10.6333
▁196	-10.6333
▁societies	-10.6333
zunehmen	-10.6347
▁thanks	-10.6348
▁Pro	-10.6351
per	-10.6355
me	-10.636
▁worst	-10.6378
▁Materialien	-10.6379
▁2010	-10.6384
▁below	-10.6385
▁Gefängnis	-10.6398
▁Wald	-10.6399
ial	-10.6405
▁dunkle	-10.6407
▁event	-10.6415
▁release	-10.6419
▁sentence	-10.6423
▁Verfügung	-10.6423
▁Nähe	-10.6423
▁Biologie	-10.6423
▁verkauft	-10.6425
▁Kommunikation	-10.6431
▁afr	-10.6434
▁genutzt	-10.6438
ble	-10.644
▁wählen	-10.6447
▁Gold	-10.645
▁Na	-10.6451
▁Objekte	-10.6453
ap	-10.6453
▁identit	-10.6468
▁profound	-10.6468
▁careful	-10.647
▁lief	-10.6472
▁birth	-10.6474
▁agree	-10.6479
▁überleben	-10.6481
▁Ko	-10.6489
▁introduce	-10.6497
▁Spitze	-10.65
▁glass	-10.6503
rufen	-10.6503
▁komme	-10.651
▁responsibilit	-10.6514
▁technique	-10.6514
▁destroy	-10.6514
▁civilization	-10.6514
▁Lebensmittel	-10.6515
▁capacity	-10.6517
▁paid	-10.6526
▁Physik	-10.6529
▁scientist	-10.6533
▁Worten	-10.6538
▁roll	-10.6549
auf	-10.6554
▁Klima	-10.6555
▁oxygen	-10.6559
▁tremendous	-10.6559
▁kontrollieren	-10.6559
▁gelang	-10.6563
▁atmosphere	-10.6563
richten	-10.6566
▁ließ	-10.6567
▁advance	-10.6568
zusag	-10.6576
▁Islam	-10.6576
▁glaubt	-10.6581
▁aufgenommen	-10.6582
▁erlaub	-10.6589
▁normale	-10.6595
kommen	-10.6595
▁gewisse	-10.6595
▁underst	-10.6599
▁Opfer	-10.6605
▁Fenster	-10.6605
▁behandelt	-10.6605
isierung	-10.6609
▁wood	-10.6609
▁Professor	-10.6611
▁elektrische	-10.6615
▁sustainabl	-10.6629
line	-10.6632
▁method	-10.6632
▁serve	-10.6638
▁gebe	-10.6644
bi	-10.6644
▁sister	-10.6651
▁flight	-10.6651
▁researcher	-10.6652
▁Bedingung	-10.6654
▁dis	-10.666
bau	-10.667
▁bear	-10.6672
▁produziert	-10.6672
▁mountain	-10.6677
▁spreche	-10.6679
▁fold	-10.668
▁75	-10.6684
▁argue	-10.6686
▁Polizei	-10.6697
▁Street	-10.6698
▁bridge	-10.6698
▁allerding	-10.6698
▁Forscher	-10.6702
▁citizens	-10.6708
ize	-10.6708
do	-10.6713
▁Gehirns	-10.6718
▁chemical	-10.6721
▁capture	-10.6729
▁falsche	-10.6732
ein	-10.6736
▁veröffentlicht	-10.6741
▁Werkzeug	-10.6743
▁twice	-10.6744
▁muscle	-10.6744
▁consciousness	-10.6745
▁rapid	-10.6745
▁Geschwindigkeit	-10.6745
▁Wow	-10.6746
▁Tieren	-10.6751
▁boat	-10.6755
▁rote	-10.6759
▁Center	-10.6764
▁minds	-10.6768
ität	-10.6769
▁Unter	-10.6772
▁workers	-10.6776
▁kling	-10.678
▁willing	-10.6788
▁Tochter	-10.6791
▁ancient	-10.6791
▁entlang	-10.6791
▁begonne	-10.6792
▁How	-10.6792
▁sicherlich	-10.6796
▁Ansatz	-10.68
▁folgende	-10.6806
stehen	-10.6807
▁highly	-10.6811
▁Konferenz	-10.6813
▁bar	-10.6818
ible	-10.6826
▁perfekt	-10.6833
gebaut	-10.6835
▁smell	-10.6838
▁überzeugt	-10.6838
▁verursacht	-10.684
▁wahre	-10.6841
▁Hi	-10.6844
▁threat	-10.6845
▁Zelle	-10.6848
▁benötigt	-10.686
▁challenges	-10.686
▁grosse	-10.6864
▁gegangen	-10.687
▁Beine	-10.6878
▁flu	-10.6882
▁Sauerstoff	-10.6882
▁Ausdruck	-10.6884
▁Schutz	-10.6884
für	-10.6888
▁Jung	-10.689
▁10,000	-10.6892
▁Neuronen	-10.6898
▁ähnliche	-10.6909
ated	-10.6909
V	-10.6911
ging	-10.6914
▁Wikipedia	-10.6932
▁classroom	-10.6932
▁generate	-10.6937
▁Infrastruktur	-10.6937
▁Denken	-10.6943
▁ändert	-10.6951
▁noise	-10.6953
▁birds	-10.6954
▁Green	-10.6955
▁23	-10.6955
▁Gefühle	-10.6962
▁ball	-10.6962
▁einfacher	-10.6964
▁nutzt	-10.6967
▁Großbritannien	-10.698
▁letztendlich	-10.698
▁sector	-10.698
▁lack	-10.698
▁Ansicht	-10.698
▁dying	-10.6981
▁Wunder	-10.6982
erstellen	-10.6985
▁To	-10.6985
pite	-10.6988
laden	-10.6989
▁networks	-10.6998
lichkeit	-10.7003
sche	-10.7004
ivity	-10.701
▁effects	-10.702
▁täglich	-10.7023
▁geschaff	-10.7024
▁Chicago	-10.7028
▁article	-10.7028
▁Motor	-10.7028
▁collective	-10.7029
▁Wandel	-10.7029
▁weiss	-10.704
round	-10.7045
of	-10.7046
▁net	-10.7057
hi	-10.7058
▁rare	-10.7059
▁drawing	-10.7066
▁gil	-10.7066
▁Pakistan	-10.707
▁ideal	-10.7073
▁architect	-10.7076
▁ermöglichen	-10.7076
▁disappear	-10.7077
▁hopeful	-10.7078
eck	-10.7079
▁ausge	-10.7083
trägt	-10.7088
▁Geräte	-10.709
▁Antworten	-10.7092
▁inspired	-10.7096
▁broken	-10.7101
▁setzt	-10.7103
▁landscape	-10.711
▁King	-10.7111
▁apart	-10.7112
▁beeinflussen	-10.7124
▁campaign	-10.7124
▁Ausbildung	-10.7124
▁imagination	-10.7125
▁My	-10.7126
▁dagegen	-10.7127
▁complexity	-10.7129
▁relevant	-10.7129
berg	-10.7131
▁Bett	-10.7131
▁Strategie	-10.7133
om	-10.7141
lichen	-10.7148
▁Big	-10.715
▁spät	-10.7157
▁gutes	-10.7158
▁notion	-10.7158
▁switch	-10.7161
▁Unterschiede	-10.7163
▁erinnert	-10.7166
▁states	-10.7166
genommen	-10.7167
▁And	-10.7168
▁moralische	-10.7168
▁laws	-10.7171
▁Gesetze	-10.7172
▁dorthin	-10.7177
schaftliche	-10.7178
que	-10.7188
▁Medikamente	-10.7189
▁boys	-10.7197
▁legen	-10.7198
▁Zu	-10.7202
erleben	-10.7203
▁mach	-10.7204
▁cycle	-10.7205
▁Ecke	-10.7207
kl	-10.7209
▁bestehen	-10.7213
▁corner	-10.7215
▁eating	-10.7217
▁reagiere	-10.7222
▁handeln	-10.7223
bel	-10.723
▁Gegend	-10.7239
▁Rede	-10.7243
▁erstaunliche	-10.7243
▁Fortschritt	-10.7243
▁illegal	-10.7246
▁Farben	-10.7262
▁prove	-10.7264
▁Baum	-10.7267
▁Identität	-10.7271
▁Komplexität	-10.7271
▁Middle	-10.7271
▁investment	-10.7272
▁continent	-10.7274
▁darf	-10.7274
ken	-10.7275
▁praktisch	-10.7276
▁afrikanische	-10.7277
▁Ne	-10.7278
▁Berg	-10.7279
▁algorithm	-10.728
base	-10.7281
▁Spiele	-10.7296
▁farm	-10.7306
arbeit	-10.7308
▁Teilen	-10.7313
▁Klasse	-10.7315
▁express	-10.7318
▁satellite	-10.732
▁giant	-10.732
▁Su	-10.732
J	-10.7323
if	-10.7327
▁graph	-10.7331
▁kostet	-10.7341
▁mission	-10.7358
ina	-10.7362
▁Muslim	-10.7362
▁airplane	-10.7369
▁universal	-10.7369
▁monkey	-10.7369
▁yellow	-10.7369
▁GPS	-10.737
▁micro	-10.7371
▁1,000	-10.7371
▁College	-10.7372
ca	-10.7372
▁westliche	-10.7375
▁Vielfa	-10.738
▁Norden	-10.738
▁option	-10.7386
▁grade	-10.7386
▁contain	-10.7391
▁engage	-10.7404
▁Jobs	-10.7406
▁traditionelle	-10.7409
innen	-10.741
▁window	-10.7413
▁religion	-10.7417
▁nehme	-10.7418
▁reveal	-10.7419
▁ecosystem	-10.7419
▁Bildschirm	-10.7419
▁Plastik	-10.7421
▁sogenannte	-10.7421
▁sick	-10.7427
▁moderne	-10.744
▁Insekten	-10.7444
▁entsteh	-10.7444
▁trick	-10.7444
▁lebte	-10.745
diversity	-10.7451
▁relationships	-10.7453
▁gap	-10.7458
▁whale	-10.7464
▁Temperatur	-10.7469
▁coffee	-10.7469
▁Boston	-10.7469
▁reward	-10.7469
▁Loch	-10.7471
▁Zeichen	-10.7472
▁Wunsch	-10.7479
▁Vision	-10.7481
▁verbreitet	-10.7482
▁entschied	-10.7482
▁biological	-10.7487
▁weiterhi	-10.7501
▁engineer	-10.7504
industrie	-10.7508
▁grüne	-10.7518
▁vast	-10.7521
▁missing	-10.7524
▁definition	-10.753
▁chinesische	-10.7532
ub	-10.7535
▁Lernen	-10.7545
ach	-10.7553
▁inner	-10.7555
ffentlich	-10.7558
pi	-10.7568
▁Materie	-10.757
▁Mütter	-10.757
▁kämpfen	-10.757
▁Zusammenarbeit	-10.757
▁clever	-10.757
▁earth	-10.757
▁kenne	-10.7574
▁Zeitung	-10.7575
▁designers	-10.7577
▁lass	-10.7579
▁basis	-10.7584
▁avoid	-10.7586
▁Wir	-10.7591
▁Zeiten	-10.7594
▁Kontakt	-10.7596
▁ex	-10.7596
side	-10.7603
▁deutlich	-10.7604
▁Drogen	-10.7613
▁wert	-10.7614
▁wunderbar	-10.7617
▁rough	-10.7618
▁neighbor	-10.762
▁Intelligenz	-10.7621
▁component	-10.7621
▁application	-10.7621
▁Golf	-10.7621
gang	-10.7626
▁loss	-10.7632
▁multi	-10.7634
▁Thi	-10.7636
▁Präsident	-10.7638
▁22	-10.7642
▁erwartet	-10.7651
▁fühle	-10.7652
▁Feld	-10.7655
▁Junge	-10.7663
▁tough	-10.7664
▁enable	-10.7665
▁Higgs	-10.7672
▁crime	-10.7672
▁radical	-10.7672
▁Paris	-10.7672
▁Ah	-10.7673
▁Obama	-10.7674
▁investieren	-10.7676
▁davor	-10.7677
▁Flug	-10.7682
▁alter	-10.7685
▁Me	-10.7685
▁Zentrum	-10.7686
har	-10.7687
▁fuhr	-10.7698
▁Genom	-10.7702
term	-10.7704
▁random	-10.7706
▁benötige	-10.7723
▁president	-10.7723
▁leadership	-10.7723
▁Klimawandel	-10.7724
DP	-10.7728
▁European	-10.7731
▁fossil	-10.7733
▁evolve	-10.7733
▁Virus	-10.7737
▁zog	-10.7746
▁Gang	-10.7748
▁hearing	-10.7753
plan	-10.7762
▁Waffen	-10.7765
▁Asia	-10.7772
▁Gewicht	-10.7774
▁breast	-10.7774
▁interessiere	-10.7774
▁opportunities	-10.7774
▁vermutlich	-10.7774
▁technical	-10.7774
▁dramatic	-10.7775
▁Satz	-10.7775
▁Einsatz	-10.7775
wächst	-10.7776
▁unlike	-10.7778
▁surprise	-10.7793
▁devices	-10.7794
ssystem	-10.7797
▁labor	-10.7809
▁creatures	-10.7814
▁Pa	-10.7819
▁rid	-10.7821
▁hunderte	-10.7822
▁neuer	-10.7825
▁Zusammenhang	-10.7826
▁competition	-10.7826
▁Holz	-10.7827
▁background	-10.7829
pf	-10.7831
▁blieb	-10.7834
▁bees	-10.7836
▁commercial	-10.7844
ship	-10.7845
rin	-10.7849
▁Kunden	-10.7853
▁desert	-10.7856
ah	-10.7859
▁farmers	-10.7871
ip	-10.7871
▁Vertrauen	-10.7872
fall	-10.7872
▁Unterstützung	-10.7878
▁husband	-10.7878
▁Great	-10.7878
▁recover	-10.7878
▁British	-10.7878
▁1990	-10.7879
▁outcome	-10.7879
▁scene	-10.7879
▁Life	-10.7883
▁painting	-10.789
▁tumor	-10.7893
▁efficient	-10.7894
▁Brot	-10.7895
▁dreht	-10.7899
▁controll	-10.7906
▁lernt	-10.7913
▁Frieden	-10.7914
▁Was	-10.7914
▁vote	-10.7916
▁designer	-10.7917
▁1960	-10.7931
▁weird	-10.7931
▁Sekunde	-10.7939
▁operat	-10.7939
▁erforschen	-10.7942
▁Handy	-10.7943
▁musst	-10.7943
▁bubble	-10.7943
▁core	-10.7943
▁worry	-10.7944
▁Institute	-10.7946
▁Ed	-10.7948
▁schaute	-10.7948
im	-10.7957
▁Ca	-10.7957
▁bloß	-10.7963
▁gemeinsame	-10.797
▁Atmosphäre	-10.7984
▁gewonnen	-10.7987
ang	-10.7992
▁Sun	-10.7996
▁solch	-10.8003
▁museum	-10.8003
▁beschäftigt	-10.8004
▁metaphor	-10.801
▁rational	-10.8012
rie	-10.8012
recht	-10.8014
▁600	-10.8015
▁trip	-10.8028
enden	-10.8031
▁persönlich	-10.8033
▁Städten	-10.8035
▁Wahrscheinlich	-10.8036
▁Gewebe	-10.8036
▁Martin	-10.8036
▁steckt	-10.8037
▁damage	-10.8037
▁click	-10.8043
▁digitale	-10.8045
▁entstehen	-10.8049
▁fashion	-10.8052
▁la	-10.806
▁produc	-10.8061
▁reflect	-10.8063
▁Nach	-10.8068
▁Basis	-10.8072
▁fully	-10.8077
12	-10.808
▁plann	-10.8083
▁Fernsehen	-10.8086
▁industrial	-10.8087
▁Höhe	-10.8088
▁streets	-10.8089
▁Kilometer	-10.8089
▁Häuser	-10.8089
▁Ghana	-10.8089
▁halte	-10.8093
▁relativ	-10.8101
▁Lieblings	-10.8101
▁enorme	-10.8101
▁Aufgaben	-10.8106
▁quote	-10.8106
▁Universums	-10.8107
▁include	-10.8109
▁ernst	-10.8116
▁Vi	-10.8118
▁invite	-10.8119
▁Affen	-10.8123
▁werfen	-10.8126
fer	-10.8131
▁bread	-10.8142
▁contact	-10.8143
▁fascinating	-10.8143
▁durchgeführt	-10.8145
▁stem	-10.8145
off	-10.8145
▁2009	-10.8146
▁graduate	-10.8149
▁beschreiben	-10.8157
▁Gesellschaften	-10.8157
ack	-10.8166
▁kümmer	-10.818
▁em	-10.8189
▁High	-10.8196
▁Knochen	-10.8197
▁phenomeno	-10.8197
▁Hintergrund	-10.8197
▁Haiti	-10.8197
▁surviv	-10.82
▁übertragen	-10.821
▁Soldaten	-10.8214
▁Phänomen	-10.8217
▁Bio	-10.8221
▁alleine	-10.8221
band	-10.8227
▁lustig	-10.8238
▁promise	-10.824
▁signal	-10.8245
▁Einkommen	-10.825
▁Diskussion	-10.825
▁begeistert	-10.8251
▁opposite	-10.8251
▁Valley	-10.8251
▁Ph	-10.8254
▁bottle	-10.8262
▁verdienen	-10.8264
rausgefunden	-10.8277
▁Mond	-10.8284
spiel	-10.8287
▁geführt	-10.8294
▁Konflikt	-10.8305
▁Kräfte	-10.8305
▁Online	-10.8305
▁unbedingt	-10.8306
▁Neu	-10.8318
▁Modelle	-10.8322
▁entwickelte	-10.8326
▁dad	-10.8336
▁gene	-10.834
▁notwendig	-10.834
▁combine	-10.8341
▁Ameisen	-10.8341
ise	-10.8343
▁Karten	-10.8346
▁drehen	-10.8348
▁Gute	-10.8353
▁umgehen	-10.8353
▁buchstäblich	-10.836
▁kommunizieren	-10.836
▁Kontext	-10.836
steigt	-10.836
▁vollkommen	-10.836
▁Untersuchung	-10.8361
▁Depression	-10.8363
▁Müll	-10.8363
▁coast	-10.8365
▁lautet	-10.8366
lin	-10.8367
▁Sterne	-10.8369
▁behaupte	-10.837
▁versu	-10.8371
▁plus	-10.8371
▁answers	-10.8373
▁kreative	-10.8377
▁lucky	-10.838
▁Stein	-10.8386
▁Titel	-10.8409
▁kulturelle	-10.841
▁encourage	-10.8414
zeichen	-10.8415
▁hauptsächlich	-10.8415
▁magazine	-10.8415
▁French	-10.8415
▁chose	-10.8415
▁Drittel	-10.8415
▁moon	-10.8416
▁stolz	-10.8418
▁erhielt	-10.8419
▁Politiker	-10.8419
▁mouth	-10.8426
▁Rand	-10.8454
io	-10.846
▁Zivilisation	-10.847
▁advantage	-10.847
▁lebende	-10.8471
▁Apple	-10.8471
▁hinweg	-10.8471
▁religious	-10.8474
50	-10.8477
▁gefährlich	-10.8478
▁aspect	-10.8486
▁Glas	-10.8491
▁Masse	-10.8493
▁baute	-10.8497
▁receive	-10.8502
▁Iraq	-10.8518
▁Begriff	-10.8519
fi	-10.8522
▁fantastisch	-10.8522
▁motor	-10.8525
▁Science	-10.8525
▁Faktor	-10.8533
▁forever	-10.8534
▁älter	-10.8534
▁Code	-10.8541
▁Arbeits	-10.8543
fahren	-10.8553
▁Jahrzehnt	-10.8563
▁verbracht	-10.8567
tally	-10.8568
▁expand	-10.8575
▁responsibl	-10.8581
▁bright	-10.8582
▁involv	-10.8584
▁krank	-10.8585
▁27	-10.8587
▁dahin	-10.8599
▁spin	-10.8605
▁w	-10.8609
▁sold	-10.8609
▁stecken	-10.8609
▁members	-10.8622
▁suffering	-10.8625
▁date	-10.863
che	-10.8633
▁Sebastian	-10.8637
▁gestalten	-10.8638
▁Themen	-10.8639
rüber	-10.8645
▁adapt	-10.8652
▁besitzen	-10.8652
▁vollständig	-10.8655
▁Ent	-10.8657
▁untersucht	-10.8659
▁Island	-10.8671
▁soil	-10.8672
▁crowd	-10.8691
▁schließen	-10.8692
▁reaction	-10.8695
▁Angeles	-10.8696
▁Irak	-10.8696
▁Milliarde	-10.8702
▁wesentlich	-10.8705
▁drin	-10.8708
▁location	-10.8709
▁Beste	-10.8712
▁electric	-10.8724
▁Bar	-10.873
▁internationale	-10.8739
▁Hirn	-10.8741
bare	-10.8745
▁Erklärung	-10.8751
▁island	-10.8752
heben	-10.8754
▁20.	-10.8778
▁mess	-10.8779
▁häufig	-10.878
ck	-10.8784
▁photos	-10.8786
▁bird	-10.8787
test	-10.879
izing	-10.8794
▁biologische	-10.8795
▁Experimente	-10.8795
▁verbringe	-10.8797
▁Mexic	-10.8798
▁Mission	-10.8806
▁Microsoft	-10.8808
▁1980	-10.8808
▁scheinen	-10.8809
▁bomb	-10.881
▁according	-10.8812
▁Fabrik	-10.8813
▁ha	-10.8813
ard	-10.8814
▁creation	-10.8816
▁expression	-10.8819
gi	-10.8821
▁überrascht	-10.8827
▁leading	-10.8829
▁brother	-10.8844
▁gesund	-10.8854
buch	-10.8863
▁erkannte	-10.8865
▁Wahrnehmung	-10.8865
▁mathematics	-10.8865
▁töten	-10.8865
▁kürzlich	-10.8866
▁schien	-10.8866
▁cognitive	-10.8867
▁bezahle	-10.8867
▁held	-10.8868
▁dot	-10.8871
▁related	-10.8873
▁hängt	-10.8874
raum	-10.8875
▁laugh	-10.8876
ben	-10.8883
▁dollar	-10.8894
▁Le	-10.8898
▁Tumor	-10.8912
▁las	-10.8912
▁Tausende	-10.8922
▁attempt	-10.8923
▁Spielen	-10.8924
▁childhood	-10.8924
▁wuchs	-10.8933
▁Si	-10.8933
▁Laptop	-10.8934
▁extend	-10.8942
▁pack	-10.8943
▁rechten	-10.8948
▁typical	-10.8949
teil	-10.8951
▁insight	-10.8952
▁Tim	-10.8954
▁filter	-10.8957
zi	-10.8958
▁Fische	-10.8963
▁spezielle	-10.8965
▁interagieren	-10.8981
▁lunch	-10.8981
▁chain	-10.8982
▁fantastische	-10.8985
▁weapons	-10.8985
▁selten	-10.8995
▁poll	-10.9002
▁talks	-10.9006
▁Jim	-10.9007
▁bus	-10.9011
▁Radio	-10.9016
▁cloud	-10.9018
▁Bob	-10.9019
▁wider	-10.9029
▁Babys	-10.9035
▁verantwortlich	-10.9037
▁elements	-10.9038
▁fresh	-10.904
▁leaving	-10.904
▁exercise	-10.904
▁Lektion	-10.904
▁Rahmen	-10.9043
fährt	-10.9049
▁genauer	-10.9058
▁pop	-10.9061
ich	-10.9067
seits	-10.9067
▁Funktion	-10.9067
11	-10.9067
▁Neuro	-10.907
▁perfekte	-10.9074
▁emerg	-10.9085
▁Filme	-10.9086
▁Ch	-10.9088
▁mittler	-10.9089
▁correct	-10.9097
▁newspaper	-10.9099
▁dürfe	-10.9099
▁verhindern	-10.9099
▁depression	-10.91
▁fiel	-10.91
▁Gespräch	-10.9102
ud	-10.9103
▁conscious	-10.9105
night	-10.9108
▁kilometer	-10.9113
▁operation	-10.9119
▁score	-10.9127
▁pump	-10.9135
ists	-10.9138
▁tausend	-10.9143
▁studie	-10.9146
▁regular	-10.9158
▁interface	-10.9158
▁display	-10.9158
▁Großteil	-10.9158
▁stuck	-10.9158
▁lachen	-10.9159
▁proud	-10.9159
▁entwerfen	-10.9165
▁verfolgen	-10.917
▁Nicht	-10.9174
▁invisible	-10.9181
▁herunter	-10.9186
▁innovative	-10.9198
▁vergleichen	-10.9199
tro	-10.9206
▁überraschend	-10.9206
▁überzeugen	-10.9209
ze	-10.9216
▁civil	-10.9216
▁Fleisch	-10.9217
▁Kaffee	-10.9217
▁strategy	-10.9217
▁mouse	-10.9217
▁hidden	-10.9218
▁Landwirtschaft	-10.9218
▁öffentlich	-10.9221
▁bestimmen	-10.9224
ow	-10.9226
▁events	-10.9226
▁Hund	-10.9227
▁discovery	-10.9227
▁sorgen	-10.9229
▁independent	-10.923
▁Mar	-10.9231
▁genetische	-10.9233
▁Und	-10.9233
ization	-10.9234
▁aktuelle	-10.924
▁copy	-10.9241
▁Staat	-10.9241
▁Moleküle	-10.9244
▁harm	-10.9244
▁deeply	-10.9247
▁Gefahr	-10.9249
▁usw	-10.9258
▁traffic	-10.9263
▁Frank	-10.9268
ba	-10.9274
▁spirit	-10.9276
▁Sozial	-10.9277
▁succeed	-10.9277
▁platform	-10.9277
▁pair	-10.9277
▁election	-10.9278
▁Boot	-10.9279
▁Verstand	-10.9279
▁Beweis	-10.9286
v	-10.9288
▁odd	-10.9291
▁könnt	-10.9296
▁Joe	-10.9296
lange	-10.9298
▁Ziele	-10.9303
▁robotic	-10.9305
▁writer	-10.9307
▁occur	-10.9315
▁einsetzen	-10.9317
gt	-10.9317
▁debate	-10.9321
▁Laden	-10.9321
▁folgt	-10.9323
▁basiert	-10.9324
▁Sport	-10.9331
▁seriously	-10.9336
▁economist	-10.9337
▁hurt	-10.9337
▁Schluss	-10.9338
▁honor	-10.9338
▁mindesten	-10.9338
▁stammt	-10.9338
▁verwandeln	-10.9338
ffentlichkeit	-10.9338
▁That	-10.9338
▁Kindheit	-10.9342
▁party	-10.9345
▁river	-10.9347
▁Gas	-10.9351
▁suffer	-10.9351
▁schrecklich	-10.9354
▁holding	-10.9361
▁university	-10.9364
▁tie	-10.9364
▁mitten	-10.9366
▁abge	-10.9368
▁stream	-10.9371
▁Interaktion	-10.9375
▁sp	-10.9379
▁roof	-10.9398
▁Schwierigkeit	-10.9398
▁Zimmer	-10.9398
▁talent	-10.9399
▁Klang	-10.94
▁row	-10.9401
▁Strukturen	-10.9403
▁Unternehmer	-10.9404
▁ihres	-10.9404
▁Wirtschafts	-10.9404
▁curve	-10.9407
▁claim	-10.9412
▁struggle	-10.9413
▁Nutzen	-10.9417
hilfe	-10.9419
▁match	-10.942
▁setzte	-10.9425
▁Sprachen	-10.9433
▁250	-10.9434
▁Geburt	-10.9438
▁BG	-10.9442
desto	-10.9444
▁Car	-10.9449
▁app	-10.9449
▁Rätsel	-10.9459
▁empower	-10.9459
▁Bruder	-10.9459
▁Absicht	-10.946
▁irgendetw	-10.946
▁suit	-10.9477
▁Regen	-10.948
▁lie	-10.9492
▁baut	-10.9494
▁Entdeckung	-10.9494
▁arrive	-10.9511
▁mid	-10.9512
▁tue	-10.9517
▁topic	-10.9517
▁ordinar	-10.952
▁wisdom	-10.952
▁getötet	-10.952
▁General	-10.952
▁disaster	-10.9523
▁Bush	-10.9523
▁Inhalt	-10.9525
▁metal	-10.9527
▁Sp	-10.9527
▁Militär	-10.9529
▁bemerkt	-10.953
▁Mu	-10.9532
▁era	-10.9533
▁zurückzu	-10.9534
▁Kenya	-10.9536
▁foundation	-10.9537
▁multiple	-10.9537
▁Minute	-10.9538
zukommen	-10.9538
▁Maus	-10.9539
▁inter	-10.9542
▁meat	-10.9543
▁replace	-10.9547
▁foreign	-10.9548
▁Mikro	-10.9554
▁crash	-10.9558
▁practical	-10.9564
▁Super	-10.9578
▁Kalifornien	-10.9582
▁Augenblick	-10.9583
▁Tanz	-10.9585
▁truck	-10.9588
▁galaxie	-10.9589
▁motion	-10.959
sp	-10.9592
▁eingesetzt	-10.9595
▁Folgende	-10.9595
▁pure	-10.9602
teilen	-10.9612
▁closed	-10.9614
▁verfügbar	-10.9616
▁divide	-10.9617
▁unabhängig	-10.9618
▁desire	-10.9622
we	-10.9624
▁names	-10.9627
▁cry	-10.9635
▁Individu	-10.9639
▁dreams	-10.9641
▁schlimmer	-10.9641
▁evolv	-10.9642
▁Amazon	-10.9643
▁Uganda	-10.9644
▁beschäftige	-10.9644
▁Handlung	-10.9644
▁discussion	-10.9646
▁Nation	-10.9646
▁remove	-10.9647
▁transformation	-10.9648
▁engineers	-10.9651
▁morgen	-10.9652
▁Mit	-10.9654
▁budget	-10.9656
▁planets	-10.966
▁Schimpansen	-10.9661
▁Charakter	-10.9661
▁translate	-10.9663
schlag	-10.9667
ana	-10.9668
▁erzähle	-10.9672
▁hop	-10.9675
▁strength	-10.9681
nden	-10.9682
▁halb	-10.9684
▁leader	-10.9686
ib	-10.9696
▁wunderschöne	-10.9699
da	-10.97
▁Standard	-10.97
▁Texas	-10.9707
▁Zuschauer	-10.9707
▁clip	-10.9707
▁narrative	-10.9708
▁Mund	-10.9709
▁fac	-10.9712
▁pounds	-10.9714
▁voraus	-10.9718
ff	-10.9721
tag	-10.9722
▁mix	-10.9725
▁chemische	-10.9725
▁Ju	-10.9726
▁Gehirne	-10.9727
wa	-10.973
0,000	-10.973
▁journalist	-10.9733
▁angesehen	-10.9733
uelle	-10.9734
▁Landschaft	-10.9747
▁Per	-10.9748
mp	-10.9757
weisen	-10.9757
▁bio	-10.9759
▁faith	-10.9769
▁Investition	-10.977
▁Tradition	-10.977
▁variet	-10.977
▁profit	-10.9771
▁anfing	-10.9771
▁DH	-10.9773
▁Mark	-10.9777
▁precise	-10.978
▁hergestellt	-10.9781
▁dozen	-10.9791
▁round	-10.9792
ph	-10.9793
▁rief	-10.9797
schalten	-10.98
▁remote	-10.98
▁gold	-10.9808
▁Ra	-10.9811
▁visuelle	-10.9816
▁oceans	-10.9832
▁quiet	-10.9833
▁equivalent	-10.9833
▁mirror	-10.9833
▁1970	-10.9833
▁1950	-10.9833
▁smile	-10.9834
▁bieten	-10.9835
▁grandmother	-10.9835
▁garden	-10.9839
▁Air	-10.9842
▁2006	-10.9843
▁höhere	-10.9846
▁shock	-10.985
kraft	-10.9854
▁walls	-10.9856
▁factory	-10.9857
life	-10.9859
▁Bein	-10.9869
▁Experten	-10.987
▁Schmerz	-10.9873
▁seltsam	-10.9874
▁worrie	-10.9875
▁Hunde	-10.9877
▁driver	-10.9882
▁Umstände	-10.9897
▁verteilt	-10.9897
▁grand	-10.9897
▁Einstellung	-10.9897
▁artificial	-10.9899
▁Jack	-10.9901
▁consumption	-10.9903
▁bezahlt	-10.9903
▁Mitarbeiter	-10.9906
▁frame	-10.9908
▁offene	-10.9909
▁brief	-10.9912
▁einiger	-10.9914
▁spielte	-10.9914
▁Erkenntnis	-10.9915
▁knowing	-10.9916
▁Gedanke	-10.9919
▁nötig	-10.9926
seite	-10.9927
▁Volk	-10.9936
ew	-10.994
▁inspiriert	-10.9946
orker	-10.996
▁unles	-10.996
▁Januar	-10.9961
▁Stanford	-10.9961
▁entworfen	-10.9961
▁dinner	-10.9961
▁politician	-10.9961
▁erlebt	-10.9966
vi	-10.9971
▁Lo	-10.9971
arten	-10.9974
▁gift	-10.9975
▁Massen	-10.9976
▁Star	-10.9977
▁Lu	-10.998
▁Erd	-10.9987
▁Netzwerke	-10.9987
zahl	-10.9988
▁Perspektive	-10.9993
▁plane	-10.9994
▁proper	-10.9999
ki	-11.0003
gegangen	-11.0004
pp	-11.0009
▁Stimmen	-11.001
▁Di	-11.0016
▁lies	-11.002
▁dauert	-11.002
▁th	-11.0023
▁emotion	-11.0024
▁elephant	-11.0025
▁epidemic	-11.0025
▁opinion	-11.0025
▁Haufen	-11.0025
▁unterscheiden	-11.0026
▁realiz	-11.003
▁Metapher	-11.0031
▁distribution	-11.0031
▁stelle	-11.0032
▁Zeitalter	-11.0034
▁string	-11.0037
▁verbrachte	-11.0043
▁authorit	-11.0049
▁organic	-11.005
▁Folge	-11.0052
▁holen	-11.0056
▁master	-11.006
▁erster	-11.0063
▁Groß	-11.0065
▁surprised	-11.0067
▁Grenze	-11.0068
▁Videos	-11.0074
▁enorm	-11.0075
▁Sorgen	-11.0078
▁mögliche	-11.008
▁nützlich	-11.0086
▁identify	-11.009
▁laptop	-11.009
▁Dinosaurier	-11.009
▁Stress	-11.009
▁weather	-11.0091
▁error	-11.0091
▁lay	-11.0092
▁band	-11.0093
▁Grafik	-11.0097
▁sensor	-11.0102
▁65	-11.0109
▁Kreis	-11.0109
▁Jahrzehnte	-11.0111
▁brings	-11.0113
▁Nationen	-11.0116
▁occurr	-11.0117
▁load	-11.0122
▁taste	-11.0123
▁Der	-11.0133
▁nah	-11.0141
▁zukünftige	-11.0142
▁h	-11.0148
▁Laufe	-11.0151
▁26	-11.0152
▁collapse	-11.0154
▁dolphin	-11.0156
▁nervous	-11.0156
▁curious	-11.0156
▁beantworten	-11.0156
▁Elemente	-11.0156
▁Null	-11.0158
▁joy	-11.0167
▁due	-11.017
▁Galaxien	-11.0175
▁Bauern	-11.0182
▁Hans	-11.0187
▁equip	-11.0195
▁passt	-11.0197
▁unterstützt	-11.0202
▁dry	-11.0209
▁galax	-11.0219
stadt	-11.0221
▁Räume	-11.0221
▁Brown	-11.0221
▁Märkte	-11.0221
daten	-11.0221
▁peak	-11.0222
▁Mary	-11.0223
▁2,000	-11.0224
▁Glauben	-11.0224
▁Website	-11.023
▁bedeuten	-11.0231
vor	-11.0231
▁erhält	-11.0234
▁Lied	-11.0237
▁surround	-11.024
▁Vorteil	-11.0241
▁professor	-11.0244
board	-11.0244
▁zoom	-11.0246
▁spoke	-11.0248
feld	-11.025
▁statistics	-11.0258
▁gehalten	-11.0258
greifen	-11.0267
▁32	-11.0267
kosystem	-11.0268
eh	-11.0271
▁Um	-11.0277
▁Sea	-11.0283
▁emotions	-11.0284
▁abhängig	-11.0284
▁discuss	-11.0286
struktur	-11.0286
▁Brazil	-11.0287
▁channel	-11.0288
▁rural	-11.0288
▁awful	-11.0288
▁marriage	-11.0288
▁Unterhaltung	-11.0288
▁organize	-11.0297
uhause	-11.0297
▁Führung	-11.03
▁hoffen	-11.0301
▁Schwester	-11.0315
ändern	-11.0317
▁Ball	-11.0321
over	-11.0325
ru	-11.0326
▁II	-11.0326
acy	-11.0329
▁killing	-11.0331
ot	-11.0333
▁besondere	-11.0344
kennt	-11.0346
▁120	-11.0348
▁Aspekt	-11.0354
▁gäbe	-11.0354
▁intellectual	-11.0354
▁verbreiten	-11.0354
▁marri	-11.0356
▁dran	-11.0358
▁beobachtet	-11.0368
▁fourth	-11.037
▁versteh	-11.0372
isiert	-11.0377
Z	-11.0377
▁Weil	-11.0387
▁wundervolle	-11.0413
▁winzige	-11.0416
▁Wettbewerb	-11.0421
▁crack	-11.0421
▁fortunate	-11.0421
▁perception	-11.0422
▁justice	-11.0422
▁Kohle	-11.0424
▁zugänglich	-11.0427
▁frage	-11.0427
▁gesunde	-11.0428
▁Se	-11.0428
▁10.000	-11.0429
▁bag	-11.0432
▁theater	-11.0433
▁highest	-11.0433
▁Brust	-11.0437
▁indische	-11.0437
▁cure	-11.0439
▁actor	-11.0439
▁glaubte	-11.0443
▁21.	-11.0445
▁feels	-11.0447
▁erfinden	-11.0448
▁Insel	-11.045
▁bekamen	-11.0451
gekommen	-11.0452
▁Har	-11.0457
▁erstellt	-11.0464
▁govern	-11.0485
▁exchange	-11.0486
▁Viren	-11.0489
▁analog	-11.0492
▁tens	-11.0492
▁Produktion	-11.05
▁Kontinent	-11.051
▁existieren	-11.052
ney	-11.0524
▁geh	-11.0526
▁schwarz	-11.0528
▁mentioned	-11.0528
des	-11.0537
▁sugar	-11.0557
▁survey	-11.0557
▁Hollywood	-11.0557
▁feedback	-11.0557
▁fördern	-11.0561
▁Annahme	-11.057
▁gehören	-11.0571
▁Ehe	-11.0574
▁speziell	-11.0577
gezogen	-11.0577
gestellt	-11.0578
▁aufbauen	-11.0579
▁Eric	-11.0582
▁member	-11.0582
▁electrical	-11.0591
▁beinhaltet	-11.0596
ng	-11.0598
▁Wie	-11.06
▁limited	-11.0601
▁reichen	-11.0611
rat	-11.0614
▁blau	-11.0617
▁tail	-11.0618
▁Lebewesen	-11.0625
▁Oxford	-11.0625
▁Wesentliche	-11.0626
▁Derek	-11.0626
▁SMS	-11.0626
▁Japanese	-11.0626
▁employee	-11.0626
▁construction	-11.0628
▁fell	-11.0628
▁Gleiche	-11.0628
▁yester	-11.0629
wisst	-11.063
▁entstanden	-11.0632
▁100,000	-11.0633
▁wenigsten	-11.0635
▁stone	-11.065
▁Teilchen	-11.0652
▁parallel	-11.0654
▁erwähnt	-11.0655
▁Wal	-11.0658
▁brauche	-11.0659
▁Korea	-11.0663
▁seines	-11.0669
▁virtuelle	-11.0669
▁zerstört	-11.067
ors	-11.067
▁phones	-11.0671
▁speaker	-11.0672
▁soldiers	-11.0675
▁Krise	-11.0676
len	-11.0679
ese	-11.0681
▁agricultur	-11.0683
▁consequences	-11.0686
▁ließen	-11.0689
▁Beweise	-11.0689
▁Brasilien	-11.0694
▁Foundation	-11.0694
▁Project	-11.0694
▁Wirkung	-11.0694
▁Einrichtung	-11.0695
▁Eindruck	-11.0695
▁entspricht	-11.0696
▁Kohlenstoff	-11.0697
▁zerstören	-11.0701
▁Abschluss	-11.0704
ong	-11.071
▁Bedürfnisse	-11.0714
▁Reich	-11.0718
▁technische	-11.072
▁Meilen	-11.0724
▁ring	-11.0725
▁Werk	-11.0728
▁Träume	-11.0729
▁operate	-11.0729
▁Zwei	-11.0731
▁Organismen	-11.0732
▁frühe	-11.0732
▁Vogel	-11.0743
▁Malaria	-11.0764
▁transparent	-11.0764
▁tomorrow	-11.0764
▁evil	-11.0764
▁Mac	-11.0782
▁users	-11.0784
▁Top	-11.0787
▁Dach	-11.0788
▁detect	-11.079
▁wheel	-11.0792
▁unge	-11.0795
▁Stand	-11.0801
▁associate	-11.0805
ator	-11.0807
▁blow	-11.0813
wegs	-11.0813
▁harder	-11.0825
▁Methoden	-11.0826
▁Kapital	-11.0833
▁steigen	-11.0834
▁volunteer	-11.0834
▁property	-11.0834
▁kick	-11.0836
▁verbindet	-11.0837
▁lifetime	-11.0845
▁Text	-11.0846
▁setting	-11.0848
▁chicken	-11.0851
▁fäng	-11.0861
▁gather	-11.0874
lose	-11.0875
▁Li	-11.0876
selber	-11.0877
▁schlagen	-11.0882
▁Ernährung	-11.0884
▁95	-11.0886
▁climb	-11.0889
▁zer	-11.0892
▁Zug	-11.0893
▁vorhanden	-11.0895
▁Planet	-11.0899
▁drübe	-11.0899
du	-11.0902
▁erscheinen	-11.0904
▁ancestor	-11.0904
▁empty	-11.0904
▁entertain	-11.0904
▁fellow	-11.0904
▁Füße	-11.0905
ex	-11.0905
▁physische	-11.0909
▁toilet	-11.0911
▁reicht	-11.0911
▁behalten	-11.0913
▁collection	-11.0913
triff	-11.0914
▁mothers	-11.0914
▁extract	-11.0917
▁rede	-11.0918
▁demonstrate	-11.0923
▁ride	-11.0928
wo	-11.093
▁hide	-11.0935
▁shoot	-11.0936
getragen	-11.0936
▁künstliche	-11.0936
▁kannte	-11.0941
▁shapes	-11.0946
▁angenommen	-11.0953
▁dimensions	-11.0961
ray	-11.0969
▁burn	-11.0969
Mail	-11.0969
▁zahlen	-11.0973
▁shop	-11.0973
▁Elektrizität	-11.0975
▁Open	-11.0975
▁Zucker	-11.0975
▁malaria	-11.0975
▁applie	-11.0976
▁TEDTalk	-11.0976
▁initial	-11.0976
▁weiteren	-11.0977
▁musician	-11.0978
▁berührt	-11.0978
▁pleasure	-11.0979
▁economics	-11.0982
▁gelesen	-11.099
sie	-11.0992
ue	-11.0992
probieren	-11.0993
Gesundheitswesen	-11.0994
▁shoes	-11.0995
▁zählen	-11.0997
zen	-11.1
▁Generationen	-11.1003
ating	-11.1004
▁camp	-11.1006
▁losing	-11.1007
▁entdeckte	-11.1008
rate	-11.1011
▁Gates	-11.1015
▁fat	-11.102
▁Arab	-11.1025
▁grab	-11.103
▁übrig	-11.1031
▁patent	-11.1034
▁legt	-11.1039
ite	-11.1042
▁Smith	-11.1047
▁geändert	-11.1047
▁stupid	-11.1047
▁Hinsicht	-11.1047
▁reduzieren	-11.1047
▁Muskel	-11.1047
▁flies	-11.1048
tor	-11.1049
▁Wohlstand	-11.1049
▁2001	-11.1051
▁28	-11.1052
▁definieren	-11.1054
▁con	-11.1058
▁infect	-11.1058
fe	-11.106
▁Bewegungen	-11.1065
▁skill	-11.107
org	-11.1072
ide	-11.1074
platz	-11.1075
▁matters	-11.1077
▁spaces	-11.1077
rew	-11.1078
▁pig	-11.1081
weg	-11.1082
▁einge	-11.1083
▁komm	-11.1098
fa	-11.111
▁Arbeiter	-11.1117
▁Kombination	-11.1118
▁verbessert	-11.1123
▁möge	-11.1123
▁Union	-11.1126
▁Weltraum	-11.1126
▁teuer	-11.113
maßen	-11.1133
▁grid	-11.1133
▁ange	-11.114
▁geschickt	-11.114
con	-11.1142
▁verschieden	-11.1144
▁Uni	-11.1144
hal	-11.1147
▁biete	-11.1151
▁Fakten	-11.1152
▁mistake	-11.1155
▁Spieler	-11.1156
▁battle	-11.1158
▁Helden	-11.1161
▁continu	-11.1166
▁folks	-11.1167
wenden	-11.117
▁reform	-11.1171
▁note	-11.1174
▁meinte	-11.1176
▁meiste	-11.1176
▁verschwinden	-11.1178
cher	-11.1179
▁Post	-11.118
▁Wein	-11.1185
▁Act	-11.1189
▁brachten	-11.1189
▁Florida	-11.1191
▁Mexiko	-11.1191
▁chimpanzee	-11.1191
▁equation	-11.1191
▁gestorben	-11.1191
▁Schatten	-11.1191
▁Heimat	-11.1192
▁pen	-11.1192
▁Theater	-11.1194
▁kompliziert	-11.1197
▁flat	-11.1197
▁enem	-11.1198
▁Rücken	-11.1198
arm	-11.1199
▁wake	-11.1203
▁gang	-11.1204
▁clinical	-11.1204
▁grün	-11.1206
▁Hai	-11.1207
▁Schiff	-11.121
▁stoo	-11.121
▁generations	-11.1217
▁Nord	-11.1218
▁arme	-11.1225
▁Details	-11.1227
▁linke	-11.1234
▁comfortabl	-11.1242
▁auseinander	-11.1245
▁Jahres	-11.125
▁seek	-11.1251
▁print	-11.1256
▁Spiegel	-11.1259
▁TEDx	-11.1262
▁happi	-11.1263
bewegung	-11.1264
▁Definition	-11.1264
▁Manhattan	-11.1264
▁eindeutig	-11.1264
▁liberal	-11.1264
▁vergangen	-11.1264
▁joke	-11.1264
▁Korruption	-11.1264
▁corruption	-11.1265
▁Klein	-11.1271
▁Rob	-11.1271
▁whom	-11.1274
▁gegenseitig	-11.1278
▁studieren	-11.1279
▁viruses	-11.1282
▁meist	-11.1284
▁Zitat	-11.1285
▁klassische	-11.1286
▁management	-11.1286
▁verhalten	-11.1289
▁194	-11.1291
war	-11.1296
▁Kerl	-11.1298
▁gay	-11.1301
▁Australia	-11.1304
▁seltsame	-11.1306
▁prime	-11.1306
▁International	-11.131
▁ursprünglich	-11.1319
bility	-11.1319
igkeit	-11.1325
▁Cent	-11.1328
well	-11.1331
▁van	-11.1332
▁dealing	-11.1332
ran	-11.1334
▁Freundin	-11.1334
▁leid	-11.1334
▁Mut	-11.1337
▁fasziniert	-11.1337
▁official	-11.1337
▁permanent	-11.1337
egenteil	-11.1338
▁vessel	-11.1338
▁Homo	-11.1338
▁combination	-11.1338
▁Arbeiten	-11.1338
▁poem	-11.1338
▁review	-11.1339
ping	-11.1342
▁Werbung	-11.1343
▁Hotel	-11.1345
cken	-11.1351
od	-11.1351
▁zone	-11.1352
▁grain	-11.1355
▁hack	-11.1358
▁opening	-11.1358
gibt	-11.1361
▁weibliche	-11.1368
▁Ba	-11.137
▁players	-11.1373
▁Gore	-11.1377
▁suppose	-11.1378
▁broke	-11.138
▁Organ	-11.1381
ob	-11.1383
▁besuche	-11.139
▁Armen	-11.1398
▁Canad	-11.1398
▁anstelle	-11.1401
▁construct	-11.1409
▁spider	-11.1411
▁pocket	-11.1412
▁quasi	-11.1412
▁heavy	-11.1412
▁Darstellung	-11.1412
▁gender	-11.1412
▁illness	-11.1412
▁beispiels	-11.1413
▁Garten	-11.1415
▁battery	-11.1416
▁Aktion	-11.1418
▁Erste	-11.1421
▁Gebiete	-11.1423
▁beschlossen	-11.1424
▁credit	-11.1437
▁Lauf	-11.1444
▁spring	-11.1457
▁Gi	-11.1461
▁fields	-11.1464
▁assume	-11.1464
▁derselbe	-11.1466
▁Molekül	-11.1466
haus	-11.1467
▁Patient	-11.147
▁beschloss	-11.1477
▁leiden	-11.1486
▁Linien	-11.1486
▁Chemie	-11.1486
▁maintain	-11.1486
▁physicist	-11.1486
▁trillion	-11.1486
▁incentive	-11.1486
▁humor	-11.1487
▁poetry	-11.1487
▁transition	-11.1489
▁fähig	-11.1489
▁crop	-11.1492
▁morgens	-11.1494
▁steps	-11.15
▁erschein	-11.15
▁Ausmaß	-11.1501
weile	-11.1503
tech	-11.1505
▁Emotionen	-11.1505
▁Signal	-11.1509
graben	-11.1518
▁Zweck	-11.1518
▁grundsätzlich	-11.1519
isten	-11.1523
▁Ereignisse	-11.1523
mann	-11.1524
▁typically	-11.1528
▁rights	-11.1529
power	-11.1534
▁stärker	-11.1535
▁deeper	-11.154
▁signals	-11.154
▁Entwicklungsl	-11.1541
▁Süd	-11.1545
▁kreativ	-11.1548
▁tape	-11.1555
▁tall	-11.1558
▁Brita	-11.156
▁Gewinn	-11.156
▁partner	-11.1561
▁Alzheimer	-11.1561
▁Cambridge	-11.1561
▁explanation	-11.1561
▁sweet	-11.1561
▁teeth	-11.1561
▁Okay	-11.1561
▁Saturn	-11.1561
▁definite	-11.1561
▁Berechnung	-11.1562
▁Deutschland	-11.1562
wissenschaftler	-11.1562
▁accurate	-11.1565
▁appropriate	-11.1565
▁äußerst	-11.1567
▁gewählt	-11.1568
ville	-11.1568
▁Schrift	-11.157
▁bill	-11.1572
▁Anteil	-11.1574
▁tear	-11.1575
▁parent	-11.1576
▁versteckt	-11.1579
▁determine	-11.1583
▁nurse	-11.1585
▁momentan	-11.1591
iger	-11.16
▁ignore	-11.1605
▁conduct	-11.1611
▁Ro	-11.1616
▁scan	-11.1619
ure	-11.1621
kind	-11.1622
▁ten	-11.1623
▁Bereiche	-11.1625
▁Don	-11.1625
▁schlechter	-11.1625
▁Start	-11.1627
qui	-11.1635
▁Köpfe	-11.1637
▁Second	-11.1637
▁encounter	-11.1637
▁sculpture	-11.1637
▁Maßstab	-11.1637
▁Winter	-11.1638
▁Musiker	-11.1638
▁carrie	-11.1639
▁Geheimnis	-11.1641
fish	-11.1644
▁Kurs	-11.1644
▁winzig	-11.1648
▁status	-11.1648
▁plate	-11.1649
▁Gesichter	-11.1655
▁propose	-11.1658
▁director	-11.1659
▁Gras	-11.166
bauen	-11.1662
▁aufregend	-11.1665
▁voices	-11.1671
▁Wi	-11.1672
▁Steven	-11.1675
▁properti	-11.1676
▁judge	-11.1678
del	-11.1683
▁dr	-11.1685
▁Gesamt	-11.1689
▁invention	-11.169
▁ersetzen	-11.1692
▁bike	-11.1692
▁eng	-11.1695
▁Her	-11.1699
▁Ozeane	-11.1699
▁jung	-11.17
pan	-11.17
▁provid	-11.1701
▁UN	-11.1702
▁grown	-11.1705
▁annehmen	-11.1707
▁Potential	-11.1713
▁irgendjemand	-11.1713
▁convert	-11.1713
▁vermitteln	-11.1713
▁Auswahl	-11.1714
▁Swed	-11.1714
▁valuable	-11.1714
▁title	-11.1714
▁Umfeld	-11.1714
▁Rock	-11.1715
▁erforscht	-11.1716
▁Prozesse	-11.1717
▁mark	-11.1717
ierten	-11.1717
▁Forschungs	-11.1718
▁Daniel	-11.1718
▁presentation	-11.172
▁moves	-11.1721
▁aufzubauen	-11.1726
▁customer	-11.1726
▁broad	-11.1726
▁derzeit	-11.1729
▁vertraut	-11.1733
▁nett	-11.1733
weite	-11.1736
▁unbe	-11.1742
▁Instrument	-11.1743
▁mention	-11.1748
uck	-11.175
▁jedenfall	-11.1753
▁obere	-11.1755
▁mittel	-11.1756
▁Stufe	-11.1761
▁kalt	-11.1766
▁33	-11.1766
▁tea	-11.1774
ani	-11.1777
▁prototype	-11.179
▁regard	-11.179
▁existence	-11.179
▁gebraucht	-11.1791
▁unglücklich	-11.1791
▁hotel	-11.1793
▁Hallo	-11.1793
▁analysis	-11.1794
▁Batterie	-11.1796
▁Präsentation	-11.1797
▁cutting	-11.1798
▁Wetter	-11.1798
▁biologist	-11.18
▁inspiration	-11.1804
▁vorne	-11.1814
▁zentrale	-11.1825
▁Ruf	-11.1826
▁arms	-11.1832
mus	-11.1832
▁85	-11.1835
scale	-11.1839
▁Erwachsene	-11.184
geschichte	-11.184
▁Nachbarn	-11.1842
▁verwandelt	-11.1847
▁soviel	-11.1854
▁Sam	-11.186
▁effektiv	-11.1863
▁Löcher	-11.1868
▁silence	-11.1868
▁lawyer	-11.1868
▁passionate	-11.1869
▁Mai	-11.1869
schläg	-11.187
▁worldwide	-11.1871
▁Südafrika	-11.1873
▁Zufall	-11.1873
▁sozial	-11.1874
▁protection	-11.1874
j	-11.1875
▁erkennt	-11.1885
▁One	-11.1887
▁White	-11.1888
▁gelöst	-11.1893
▁solv	-11.1894
▁Satelliten	-11.1894
▁studio	-11.1894
port	-11.1898
ek	-11.1904
▁Ar	-11.1905
▁Jo	-11.1907
▁Effekt	-11.1916
▁Vögel	-11.1917
▁Architekten	-11.1921
▁konzentriert	-11.1921
▁sichtbar	-11.1922
▁Mi	-11.1925
▁celebrate	-11.1925
ör	-11.1926
▁Kulturen	-11.1926
▁hate	-11.1928
mehr	-11.1934
▁teilt	-11.1938
▁Steuer	-11.194
▁attract	-11.1944
▁Februar	-11.1946
▁Wurzel	-11.1946
▁liquid	-11.1946
▁Ni	-11.1946
▁implication	-11.1946
▁Dunkel	-11.1946
▁collaboration	-11.1946
▁silk	-11.1946
ort	-11.1953
▁tiefer	-11.1966
▁heads	-11.1968
▁tap	-11.1969
▁gespielt	-11.1974
▁addition	-11.1979
▁chemistr	-11.198
▁195	-11.198
▁sight	-11.1981
wert	-11.1982
▁gross	-11.1983
▁Lern	-11.1984
▁Lager	-11.1984
raten	-11.1986
verständlich	-11.1989
▁gewissen	-11.1992
▁player	-11.1994
▁contribute	-11.1997
▁button	-11.2006
▁Erfindung	-11.2016
leistung	-11.2019
▁Rück	-11.202
▁novel	-11.2021
▁facilit	-11.2021
les	-11.2023
▁attach	-11.2024
▁technological	-11.2025
▁conclusion	-11.2025
▁Großmutter	-11.2025
technik	-11.2025
▁LED	-11.2025
▁Howard	-11.2025
▁außen	-11.2025
2-	-11.2029
▁Entfernung	-11.203
▁mortality	-11.2042
▁emergenc	-11.2042
zug	-11.2046
ischer	-11.2047
▁soft	-11.205
▁tank	-11.2052
organisation	-11.2054
for	-11.2055
▁Rat	-11.2071
▁mathematical	-11.2071
▁symmetr	-11.2076
är	-11.2081
▁relate	-11.2082
▁zusammenarbeite	-11.2085
▁myth	-11.2089
▁Aufnahme	-11.209
▁Nor	-11.209
▁gebete	-11.2091
▁beweis	-11.2092
foot	-11.2095
▁restaurant	-11.2095
▁clinic	-11.2099
▁sites	-11.2103
stein	-11.2104
▁calculate	-11.2104
▁illusion	-11.2104
▁vulnerabl	-11.2104
▁Stuhl	-11.2104
▁CEO	-11.2104
▁Bedrohung	-11.2104
▁hydrogen	-11.2104
▁psychology	-11.2104
▁north	-11.2104
▁Brian	-11.2104
▁lady	-11.2104
▁Ausstellung	-11.2111
▁coal	-11.2111
▁Camp	-11.2112
▁iron	-11.2113
▁Geschäfts	-11.2123
▁comment	-11.2124
▁heran	-11.213
▁peer	-11.2133
▁habitat	-11.2133
▁Medikament	-11.2143
▁Show	-11.2144
▁entscheidend	-11.2144
▁Sprach	-11.2145
▁zusätzlich	-11.2146
▁emotionale	-11.2162
▁programm	-11.2163
▁horse	-11.2164
▁chart	-11.2167
▁root	-11.2169
gruppe	-11.2171
▁Stärke	-11.2171
▁Not	-11.2173
▁entstand	-11.2178
▁politisch	-11.2178
▁south	-11.2183
▁danger	-11.2184
▁Existenz	-11.2184
▁Teenager	-11.2184
▁unusual	-11.2184
▁Atem	-11.2184
▁Verhältnis	-11.2184
▁user	-11.219
stoff	-11.219
▁10-	-11.2191
▁seid	-11.2193
▁vermeiden	-11.2193
eah	-11.2194
▁Neues	-11.2198
val	-11.22
▁feststelle	-11.2201
▁sucht	-11.2201
gesehen	-11.2202
▁historical	-11.2206
▁individuelle	-11.2209
▁categor	-11.2222
▁embrace	-11.223
sichtlich	-11.223
▁cat	-11.2232
▁soul	-11.2237
eg	-11.224
▁manufactur	-11.2241
▁komplex	-11.2242
▁gun	-11.2246
▁Momente	-11.2248
▁antwortete	-11.2254
▁Verlust	-11.2258
▁zieht	-11.2261
▁Con	-11.2262
▁trug	-11.2264
▁Gemälde	-11.2265
▁Studio	-11.2265
▁fiber	-11.2265
▁Viertel	-11.2265
▁verglich	-11.2265
▁beinahe	-11.2265
bu	-11.2265
▁shame	-11.2268
▁Rio	-11.2268
▁Klinik	-11.2271
▁Buchstaben	-11.2277
▁Mc	-11.2278
folge	-11.2279
▁solcher	-11.228
▁volume	-11.2281
▁Geräusche	-11.2285
work	-11.2287
▁faszinierend	-11.2294
▁fern	-11.2296
▁Diagramm	-11.2297
▁überlegen	-11.23
▁schätzen	-11.2302
ative	-11.2305
▁weltweite	-11.2306
▁hierher	-11.2309
▁musical	-11.2313
▁Statistiken	-11.2314
alität	-11.2317
▁Or	-11.2317
arbeiten	-11.2321
▁Bereichen	-11.2321
▁Hu	-11.2326
▁Kenia	-11.2328
▁details	-11.2328
werk	-11.2334
▁maps	-11.2342
▁emerge	-11.2344
▁hang	-11.2345
▁Echtzeit	-11.2346
▁President	-11.2346
▁client	-11.2346
▁kreieren	-11.2346
▁britische	-11.2346
▁heisst	-11.2346
▁steel	-11.2346
▁loud	-11.2346
▁Koran	-11.2347
▁teilweise	-11.2347
▁Long	-11.2347
▁bor	-11.2348
holen	-11.2348
▁Aussage	-11.235
▁Kev	-11.235
▁teenager	-11.2352
▁definiert	-11.2353
▁anschaut	-11.2357
▁winter	-11.2359
▁industrielle	-11.2359
▁Mad	-11.2363
▁quant	-11.2364
▁hall	-11.2368
▁estimate	-11.2373
▁fle	-11.2379
▁steuern	-11.2379
▁Hoch	-11.2381
▁chemicals	-11.2386
▁sparen	-11.2388
bt	-11.2388
▁11.	-11.2388
source	-11.2388
▁adopt	-11.2391
versorgung	-11.2393
▁boom	-11.2394
▁passen	-11.24
led	-11.2403
▁willst	-11.2406
ground	-11.2411
▁eigen	-11.2412
▁solid	-11.2419
▁cultures	-11.2421
▁mathematische	-11.2422
fach	-11.2427
politik	-11.2428
▁Australien	-11.2428
▁Pacific	-11.2428
▁arabische	-11.2428
▁Anführer	-11.2428
▁healthcare	-11.2428
za	-11.2429
▁gefällt	-11.243
▁Look	-11.2431
▁König	-11.2431
▁prediction	-11.2433
▁infinite	-11.2433
▁überwinden	-11.2434
▁statement	-11.2434
▁entfern	-11.2434
▁aufhör	-11.2436
mittel	-11.244
▁tradition	-11.2442
▁Bi	-11.2442
▁nest	-11.2443
voll	-11.2457
▁author	-11.2458
▁veränderte	-11.2459
▁chip	-11.2461
▁Interessen	-11.2464
▁v	-11.247
▁victims	-11.2472
▁belong	-11.2476
▁dank	-11.2479
▁Amy	-11.2481
▁darstellen	-11.2481
▁liefer	-11.2486
▁former	-11.2487
▁menschlicher	-11.2488
▁schreckliche	-11.2488
▁Meeres	-11.2491
▁rat	-11.2498
▁Finanz	-11.2502
▁rocket	-11.2503
▁Pat	-11.251
▁Solar	-11.2511
berraschung	-11.2511
▁Congress	-11.2511
▁Verbesserung	-11.2511
▁gelebt	-11.2511
▁Hunger	-11.2511
▁ladies	-11.2511
▁court	-11.2511
▁reference	-11.2511
▁fake	-11.2511
▁dahinter	-11.2512
▁drone	-11.2512
▁nerve	-11.2513
▁efficienc	-11.2516
▁decline	-11.2517
ett	-11.252
▁Ausnahme	-11.252
▁automatisch	-11.2522
▁Bus	-11.2522
isieren	-11.2523
▁Handel	-11.2531
▁bezeichnet	-11.2531
▁Lab	-11.2532
▁Sal	-11.2536
▁formen	-11.2538
▁Folgen	-11.2547
hören	-11.2548
▁rück	-11.255
▁previous	-11.2562
▁Anti	-11.2562
▁heißen	-11.2564
▁sprachen	-11.2579
▁Geräusch	-11.2584
konom	-11.2591
▁Risik	-11.2591
▁NGO	-11.2594
▁symptom	-11.2594
▁Taliban	-11.2594
▁worauf	-11.2594
▁ledig	-11.2597
▁label	-11.2598
▁Schlaf	-11.2598
lage	-11.2598
▁height	-11.2599
▁telephone	-11.2601
▁icon	-11.2605
▁beach	-11.2607
▁Süden	-11.2607
▁ergibt	-11.2611
▁automatic	-11.2613
▁aging	-11.2615
▁quarter	-11.2617
▁obes	-11.2621
tun	-11.2626
▁Blumen	-11.2628
material	-11.2632
▁nimm	-11.2633
▁besorgt	-11.2635
▁weak	-11.2636
ile	-11.2639
bereich	-11.264
▁Sir	-11.264
▁linear	-11.2642
▁hinten	-11.2649
▁schwieriger	-11.2652
▁besagt	-11.2652
▁aufnehmen	-11.2653
▁measur	-11.2654
▁Belohnung	-11.2655
▁Grundlage	-11.2657
▁criminal	-11.2668
ank	-11.2673
▁bare	-11.2676
▁threaten	-11.2677
▁FBI	-11.2678
▁darstellt	-11.2678
▁gravity	-11.2678
▁kitchen	-11.2678
▁darunter	-11.2679
▁erkannt	-11.2679
▁evolutionary	-11.2679
▁Kongress	-11.2681
▁PM	-11.2682
▁schickte	-11.2682
bung	-11.2683
▁length	-11.2685
▁alien	-11.2686
▁Nein	-11.2686
▁script	-11.2687
▁shoulder	-11.269
holfen	-11.269
▁Schritte	-11.2692
heim	-11.2692
ear	-11.2693
▁stock	-11.2696
▁Wall	-11.2699
▁orange	-11.2706
ious	-11.2708
▁Lee	-11.271
▁hire	-11.2712
▁prepared	-11.2715
▁therap	-11.272
▁sheet	-11.2721
▁schwierige	-11.2723
▁react	-11.2726
schule	-11.2727
▁Galaxie	-11.2744
▁kosten	-11.2753
▁forgot	-11.2754
▁Fach	-11.2755
sicht	-11.2759
markt	-11.2759
cht	-11.2762
▁Ray	-11.2762
▁circumstance	-11.2763
▁lecture	-11.2763
▁Blatt	-11.2763
▁charit	-11.2763
▁Kabel	-11.2763
▁Andrew	-11.2763
▁prize	-11.2763
▁seht	-11.2764
▁observation	-11.2764
▁privilege	-11.2765
▁Willen	-11.2767
▁photographs	-11.2768
▁fiction	-11.277
▁doubt	-11.2771
▁nor	-11.2771
▁sphere	-11.2774
▁season	-11.2778
▁Körpers	-11.2783
▁Kampagne	-11.2784
▁lebendig	-11.2792
▁weiße	-11.2801
gel	-11.2805
fin	-11.2806
wand	-11.2818
▁dirt	-11.283
▁cave	-11.2835
▁organ	-11.284
▁kollektive	-11.2848
▁psychological	-11.2848
▁molecular	-11.2848
▁Zähne	-11.2848
▁sustainability	-11.2849
▁king	-11.285
▁5,000	-11.285
▁anwende	-11.2852
▁Erwachsenen	-11.2852
▁Unfall	-11.2853
nis	-11.2856
▁Jona	-11.2862
▁bemerkenswert	-11.2863
▁aufge	-11.2864
▁trend	-11.2865
▁element	-11.2866
ick	-11.2868
▁bemerken	-11.2869
▁verstehe	-11.2869
barkeit	-11.2872
▁cent	-11.2876
▁Damen	-11.2878
▁19.	-11.2878
ped	-11.2881
▁Red	-11.2891
gesellschaftlich	-11.2898
▁kriegen	-11.2899
▁Rechte	-11.2902
tin	-11.2909
▁Sicherheits	-11.2912
technologie	-11.2914
▁kontrolliert	-11.2914
▁Interview	-11.2917
▁dinosaurs	-11.2919
▁Tests	-11.2924
füllen	-11.2927
▁Schicksal	-11.2934
▁Persönlichkeit	-11.2934
▁hieß	-11.2934
▁scheinbar	-11.2934
▁Jesus	-11.2935
▁Jeff	-11.2935
▁reduziert	-11.2935
▁erhöh	-11.2935
▁primary	-11.2935
▁Christian	-11.2935
▁variation	-11.2935
▁Nutzung	-11.2936
▁3,000	-11.2938
▁Weltkrieg	-11.294
▁Tor	-11.2942
▁terrorism	-11.2944
▁nachhaltige	-11.2944
▁animation	-11.2945
▁800	-11.2947
▁gefangen	-11.2947
▁cup	-11.2951
▁Herren	-11.2954
▁Hall	-11.2958
▁atoms	-11.2963
▁betr	-11.2968
merken	-11.297
ison	-11.297
▁Wo	-11.2976
▁situations	-11.2977
fallen	-11.2977
schein	-11.2981
schw	-11.2981
visible	-11.2984
▁700	-11.2988
▁bi	-11.2998
▁wine	-11.2998
▁Brücke	-11.3002
▁injur	-11.3011
spüren	-11.3011
▁höre	-11.3012
▁Day	-11.3013
▁marketing	-11.3015
▁gründete	-11.3016
▁split	-11.3018
▁organs	-11.3019
▁kaufte	-11.302
funktion	-11.3021
▁Chemikalien	-11.3021
▁Nachhaltigkeit	-11.3021
▁Respekt	-11.3021
▁advice	-11.3021
▁spectrum	-11.3021
▁unexpected	-11.3021
▁gegründet	-11.3021
▁Debatte	-11.3022
▁drill	-11.3022
▁witness	-11.3022
▁Pfund	-11.3022
▁Verbrechen	-11.3022
▁sowas	-11.3023
▁allgemeine	-11.3027
▁Schulter	-11.3027
▁akzeptieren	-11.3028
▁Grand	-11.3029
▁Plattform	-11.3033
▁agent	-11.3033
▁angle	-11.3035
endlich	-11.3037
▁Ken	-11.3038
▁Erkrankung	-11.3039
▁inform	-11.3041
▁ernsthaft	-11.3048
▁Stellen	-11.3051
▁beschrieben	-11.3057
▁thin	-11.3059
▁emissions	-11.3059
▁di	-11.3061
15	-11.3069
▁Gar	-11.3072
▁handle	-11.3087
▁intelligente	-11.3089
house	-11.3089
verhalten	-11.309
▁Küste	-11.309
▁Signale	-11.3093
▁explor	-11.3093
▁Fahrrad	-11.3096
▁komplizierte	-11.3097
▁Phase	-11.3098
berleben	-11.3102
kreis	-11.3106
▁Gegenwart	-11.3109
▁Stephen	-11.3109
▁apparent	-11.3109
▁erweitern	-11.3109
▁inevitabl	-11.3109
▁insbesonder	-11.3109
▁sophisticated	-11.3109
▁staff	-11.3109
▁attitude	-11.3109
▁courage	-11.3109
▁radiation	-11.311
▁Schau	-11.3111
▁Lego	-11.3112
▁academic	-11.3112
▁Newton	-11.3115
▁marine	-11.3115
▁church	-11.3116
tung	-11.3122
▁gewaltige	-11.3123
▁Einheit	-11.313
▁vi	-11.3135
▁Armee	-11.3138
ball	-11.3145
▁recording	-11.3149
ker	-11.3149
▁Can	-11.3153
▁monitor	-11.3158
▁App	-11.316
▁license	-11.3163
▁Da	-11.3164
▁input	-11.3168
▁reverse	-11.317
▁englische	-11.3171
ete	-11.3175
▁Kirche	-11.3176
water	-11.3176
sprache	-11.3178
ied	-11.3185
▁contract	-11.3192
▁Rot	-11.3193
größe	-11.3197
▁Gerechtigkeit	-11.3198
▁Klassenzimmer	-11.3198
▁Kanada	-11.3198
▁fruit	-11.3198
▁Saudi	-11.3198
kultur	-11.3198
▁böse	-11.3198
▁pollution	-11.3198
▁Marketing	-11.3199
▁Rad	-11.3203
▁Law	-11.3204
▁homes	-11.3204
▁behaviors	-11.3205
▁medium	-11.3207
▁puzzle	-11.3208
cortex	-11.3211
▁wirkliche	-11.3216
▁unsichtbar	-11.3218
▁zunehmend	-11.3225
▁electronic	-11.3226
▁Po	-11.3228
▁abuse	-11.3229
▁earn	-11.323
▁Große	-11.3232
▁mistakes	-11.3242
▁Fortschritte	-11.3247
▁Unterricht	-11.325
▁orbit	-11.3255
▁mechanical	-11.326
▁challeng	-11.326
▁participate	-11.3265
tisch	-11.3267
sity	-11.3267
▁Folie	-11.3269
▁zeichnen	-11.3271
▁Durchschnitt	-11.3272
▁tour	-11.3272
▁Wüste	-11.3278
▁receiv	-11.3279
schutz	-11.3284
▁Titan	-11.3286
▁Wälder	-11.3287
▁Zeichnung	-11.3287
▁false	-11.3287
▁piano	-11.3287
▁Inspiration	-11.3287
▁drauf	-11.3287
shalb	-11.3288
▁meaningful	-11.3288
▁Johnson	-11.3289
▁Roman	-11.329
▁Therapie	-11.3292
▁Samen	-11.33
ari	-11.3301
▁Space	-11.3301
▁dropp	-11.3302
▁harte	-11.3304
station	-11.3309
▁investiert	-11.3311
▁unterrichten	-11.3314
▁phase	-11.3324
▁geteilt	-11.3324
▁Ingenieure	-11.3331
elle	-11.3336
▁beteiligt	-11.3345
▁hunt	-11.3347
▁goals	-11.3352
▁photographer	-11.3352
▁Frei	-11.3355
▁Russia	-11.3361
▁Gericht	-11.3363
▁Berge	-11.3363
Be	-11.3369
än	-11.3371
▁erhöht	-11.3374
▁Streit	-11.3374
▁grundlegend	-11.3375
▁select	-11.3375
▁Kapitel	-11.3377
▁chapter	-11.3377
destruction	-11.3377
▁Stammzellen	-11.3377
▁Teilnehmer	-11.3377
▁advertis	-11.3378
▁vertrauen	-11.3378
▁loop	-11.3378
▁severe	-11.3378
▁admit	-11.3378
▁verließ	-11.338
▁ritual	-11.3383
▁Hill	-11.3387
▁Mama	-11.3388
▁Wohnung	-11.3391
stellung	-11.3395
▁videos	-11.3397
▁Gleichung	-11.3398
▁bildet	-11.34
▁pilot	-11.3401
stock	-11.3404
▁Betti	-11.3407
▁organisiert	-11.3411
pro	-11.3416
▁innen	-11.342
▁funktionierte	-11.3421
sam	-11.3423
▁eggs	-11.3425
▁Ho	-11.3426
zellen	-11.3428
gesamt	-11.3429
▁melt	-11.343
▁clock	-11.3434
▁Moore	-11.3436
▁burning	-11.3437
▁lift	-11.3438
▁innere	-11.3439
über	-11.344
druck	-11.3441
ag	-11.3442
▁ältere	-11.3442
▁Vorteile	-11.3444
pt	-11.3455
▁Fliegen	-11.3457
▁Riesen	-11.3459
▁hyper	-11.3465
▁risks	-11.3467
▁assumption	-11.3468
▁iPod	-11.3468
▁telescope	-11.3468
▁predator	-11.3468
▁flexible	-11.3468
▁Henry	-11.3468
▁Terrorismus	-11.3468
▁Media	-11.3468
▁Wagen	-11.3468
▁Stock	-11.3469
▁messages	-11.3469
▁exploration	-11.347
▁Konflikte	-11.3471
▁umgeben	-11.3471
▁William	-11.3472
▁elektronische	-11.3472
▁pile	-11.3473
▁expectation	-11.3475
▁percentage	-11.3481
▁1000	-11.3481
▁dogs	-11.3482
▁mad	-11.3484
▁hunger	-11.3488
▁leichter	-11.3489
▁basierend	-11.3493
▁blog	-11.3496
▁comfort	-11.3496
▁finanzielle	-11.3496
▁Ford	-11.3498
car	-11.3498
▁Pflege	-11.3501
▁Ex	-11.3503
▁doppelt	-11.3504
▁teil	-11.3505
ebene	-11.3508
▁behave	-11.3515
▁Rose	-11.3515
▁kostenlos	-11.3517
berzeugung	-11.352
▁undern	-11.3526
▁Physiker	-11.3529
▁Gottes	-11.353
▁sag	-11.3541
gar	-11.3542
▁Wissens	-11.3544
half	-11.3545
▁stehe	-11.355
machen	-11.3552
▁29	-11.3553
unter	-11.3555
▁entgegen	-11.3556
▁Alexander	-11.356
▁ingredient	-11.356
▁psychologist	-11.356
▁afternoon	-11.356
▁perceive	-11.356
▁Literatur	-11.356
▁Benjamin	-11.356
▁Flügel	-11.356
▁Nachbarschaft	-11.3561
▁apartment	-11.3562
▁Komponente	-11.3562
▁Transport	-11.3564
▁Mike	-11.3566
▁engaged	-11.3567
▁vorbereitet	-11.3567
bildung	-11.3567
▁sink	-11.3568
▁empathy	-11.3569
vis	-11.3571
▁Schuld	-11.3571
▁Proteine	-11.358
▁Eier	-11.358
▁creature	-11.3582
▁bezeichnen	-11.3585
ility	-11.3588
RB	-11.3592
▁ansieh	-11.3592
▁appreciate	-11.3594
▁ought	-11.3594
stoßen	-11.3595
▁intuitive	-11.3601
▁mountains	-11.3601
literatur	-11.3601
▁allgemein	-11.3603
▁religiöse	-11.3621
▁Fin	-11.3622
▁interessanter	-11.3622
▁vermute	-11.3632
film	-11.3637
▁style	-11.3641
▁Protein	-11.3647
▁abstract	-11.365
▁Verwendung	-11.3652
▁snow	-11.3652
▁Gedächtnis	-11.3652
▁Nelson	-11.3652
▁cluster	-11.3652
▁conservation	-11.3652
▁stieg	-11.3652
▁Ursprung	-11.3652
▁froh	-11.3652
▁Stahl	-11.3652
▁department	-11.3652
▁Mehrheit	-11.3653
▁Russland	-11.3653
▁democratic	-11.3653
▁elder	-11.3653
▁instruction	-11.3653
▁underwater	-11.3654
problem	-11.3656
▁paradigm	-11.3657
▁Beruf	-11.3669
▁Geschenk	-11.3669
▁Moral	-11.367
▁Scott	-11.3674
▁counter	-11.3674
▁club	-11.3677
▁Tonnen	-11.3678
istische	-11.368
than	-11.3688
▁wechseln	-11.369
ill	-11.3692
▁Schuhe	-11.3692
▁behavioral	-11.3694
▁Penn	-11.3703
▁Wolken	-11.3704
gruppen	-11.3705
▁sexuelle	-11.3705
▁Fl	-11.3712
▁Erlebnis	-11.3713
▁55	-11.3717
eb	-11.372
▁flower	-11.3726
uellen	-11.373
ifft	-11.3731
▁Magie	-11.3733
▁dictionar	-11.374
▁Fernseh	-11.374
forschung	-11.3744
▁Element	-11.3746
▁Lincoln	-11.3746
▁Square	-11.3746
▁concrete	-11.3746
▁mathematician	-11.3746
▁repair	-11.3746
▁Symmetrie	-11.3746
▁intervention	-11.3746
▁Wände	-11.3746
▁sunlight	-11.3746
▁Humor	-11.3746
▁erneut	-11.3746
▁establish	-11.3748
▁wovo	-11.3749
▁host	-11.3749
▁Geburtstag	-11.3754
▁activist	-11.3754
▁awareness	-11.3758
▁berühmte	-11.3758
▁route	-11.3766
haft	-11.3767
▁section	-11.3774
▁hero	-11.3775
▁bemerkte	-11.3781
▁wachsende	-11.3784
▁compar	-11.3785
▁shake	-11.3788
unterschiedliche	-11.3796
▁wieviel	-11.3796
▁philosoph	-11.3797
▁dauerte	-11.3801
▁Wellen	-11.3802
▁Ur	-11.3808
▁Jane	-11.3813
ziel	-11.3822
oberfläche	-11.3825
▁Akt	-11.3831
▁Schnitt	-11.3832
▁2.	-11.3836
▁Webseite	-11.3839
bücher	-11.384
▁schwere	-11.384
▁Abraham	-11.384
▁Silicon	-11.384
▁physician	-11.384
▁balloon	-11.384
▁limb	-11.384
▁Mangel	-11.384
▁Angestellte	-11.3841
▁Rick	-11.3842
▁Lachen	-11.3842
▁Abfall	-11.3844
▁Jones	-11.3845
▁ausgebildet	-11.3854
▁männliche	-11.3854
▁eröffnet	-11.3855
ov	-11.3858
halb	-11.3862
▁vorzu	-11.3864
gleichen	-11.3864
▁Tee	-11.3866
▁Jun	-11.3868
▁swimm	-11.3868
▁42	-11.3869
▁Elefanten	-11.3869
▁drücken	-11.3872
geschaut	-11.3875
▁mo	-11.3877
ified	-11.3878
▁consume	-11.3878
▁liebte	-11.388
wärts	-11.3888
▁Resultat	-11.389
▁repeat	-11.389
▁mechanism	-11.3892
licht	-11.3892
rad	-11.3895
▁langsamer	-11.3895
let	-11.3898
▁freie	-11.3907
▁swim	-11.3909
wesen	-11.391
▁Cha	-11.3912
▁singen	-11.3914
▁reisen	-11.3915
▁Stern	-11.3917
▁Seele	-11.3919
▁üblich	-11.3921
▁desk	-11.3921
▁Sitz	-11.3922
▁Symbol	-11.3923
▁herein	-11.3923
▁Nase	-11.3925
▁Student	-11.3928
fisch	-11.3934
▁verrückte	-11.3934
▁Verhaltens	-11.3935
▁bekomme	-11.3935
▁contrast	-11.3935
▁wüsste	-11.3935
▁durfte	-11.3935
▁motivation	-11.3935
▁trigger	-11.3935
▁Chef	-11.3935
▁frank	-11.3935
▁framework	-11.3935
▁Mikroben	-11.3936
▁pour	-11.3936
▁meal	-11.3936
▁lifestyle	-11.3937
▁afterward	-11.3937
▁präsentiert	-11.3938
▁backward	-11.3938
▁Versuche	-11.3941
▁gekauft	-11.3941
▁Verbreitung	-11.3942
▁France	-11.3943
▁presence	-11.3944
▁einzigartige	-11.3945
▁Prize	-11.3945
table	-11.3946
▁productive	-11.3946
▁violent	-11.3948
▁cable	-11.3949
tude	-11.3952
▁verstand	-11.3952
▁overcom	-11.3953
▁upper	-11.3956
▁verdient	-11.3959
▁fan	-11.396
▁House	-11.3963
▁schlafen	-11.3976
▁border	-11.398
▁Ereignis	-11.3984
▁wora	-11.3984
▁anger	-11.3985
▁Restaurant	-11.3985
ory	-11.3992
▁Instrumente	-11.3994
macht	-11.3996
▁welcome	-11.3997
▁Ohren	-11.4003
▁entrepreneurs	-11.4007
q	-11.4008
▁Programme	-11.401
schneiden	-11.401
▁Matt	-11.4018
▁shut	-11.402
▁Decke	-11.402
▁begrenzt	-11.4024
▁Bay	-11.4025
▁sh	-11.4028
▁Führer	-11.4031
▁Health	-11.4031
▁computing	-11.4031
▁Asien	-11.4032
▁Bronx	-11.4032
▁Chaos	-11.4032
▁cheat	-11.4032
▁acid	-11.4032
▁Spielzeug	-11.4033
▁heilen	-11.4033
▁hinauf	-11.4034
▁Milch	-11.4035
▁Doktor	-11.4037
▁participat	-11.4037
▁hook	-11.4038
▁nationale	-11.4039
▁birthday	-11.4039
▁protected	-11.4039
▁urge	-11.4039
tritt	-11.4041
zone	-11.4042
▁Grippe	-11.4042
▁2002	-11.4046
ami	-11.4049
▁trink	-11.4052
▁gesammelt	-11.4052
▁refugee	-11.4053
hu	-11.4053
▁diverse	-11.4054
not	-11.4055
▁Am	-11.4061
ories	-11.4061
▁Konsequenzen	-11.4063
▁armen	-11.4071
0	-11.4072
▁circuit	-11.4072
▁logic	-11.4073
▁Bell	-11.4076
eln	-11.4076
▁poet	-11.408
▁zusätzliche	-11.4085
▁Kar	-11.4085
▁sustain	-11.409
▁sum	-11.409
▁Gedicht	-11.4096
▁Stücke	-11.4101
▁langweilig	-11.4111
▁pink	-11.4112
▁arts	-11.4114
Dollar	-11.4117
maschine	-11.4119
▁Mathematiker	-11.4121
▁Haar	-11.4126
▁gefallen	-11.4126
▁Bibliothek	-11.4128
▁Gandhi	-11.4129
▁Mandela	-11.4129
▁Shanghai	-11.4129
▁milk	-11.4129
▁gewann	-11.4129
▁genius	-11.4129
▁clue	-11.4129
ition	-11.4129
▁Schaden	-11.4129
▁Alex	-11.4129
▁Prinzipien	-11.4129
▁interactive	-11.413
▁exhibition	-11.413
top	-11.413
▁Störung	-11.4131
▁Afrikaner	-11.4131
▁36	-11.4132
▁Sichtweise	-11.4133
▁weigh	-11.4134
▁Blog	-11.4134
train	-11.4137
▁organisieren	-11.4137
▁clothes	-11.4138
▁verfolgt	-11.4138
▁infiziert	-11.4141
▁bizarre	-11.4142
lang	-11.4144
▁quit	-11.4149
▁fehlt	-11.4151
▁ausgesetzt	-11.4152
fassen	-11.4153
▁symbol	-11.4158
▁Aufnahmen	-11.4161
▁clouds	-11.4164
▁Trick	-11.4167
▁Mengen	-11.4167
▁Korallen	-11.4168
▁zählt	-11.4169
▁berichten	-11.4173
kon	-11.4176
▁kognitive	-11.4179
schlagen	-11.4183
ria	-11.4186
▁resistan	-11.419
▁Noten	-11.4191
▁fr	-11.4196
▁faszinierende	-11.4202
▁Zauber	-11.4203
▁Beobachtung	-11.4203
▁bemerkenswerte	-11.421
▁lebe	-11.4215
level	-11.4215
what	-11.4217
▁rescue	-11.422
▁Nadel	-11.4226
sis	-11.4226
▁phrase	-11.4227
▁Arthur	-11.4227
▁heaven	-11.4227
▁Aspekte	-11.4227
▁knapp	-11.4227
▁Ruhe	-11.4227
▁wireless	-11.4228
▁Aufbau	-11.4228
▁horrible	-11.4231
▁ruhig	-11.4231
▁escape	-11.4232
▁Budget	-11.4233
▁shadow	-11.4234
▁frequenc	-11.4236
▁städtische	-11.4236
▁exception	-11.424
▁Kongo	-11.424
▁intense	-11.4241
▁enthalten	-11.4241
▁teure	-11.4248
▁schlug	-11.4249
▁Geistes	-11.425
▁Mauer	-11.425
ification	-11.4251
▁minister	-11.4252
▁Billionen	-11.4253
▁Kan	-11.4263
▁robust	-11.4265
oo	-11.4266
▁vaccine	-11.4266
▁internal	-11.4272
▁lying	-11.4278
raising	-11.4282
▁finance	-11.4283
▁Bang	-11.429
▁Gesichts	-11.4298
▁Minister	-11.4301
▁besucht	-11.4307
▁Fokus	-11.4307
▁obsess	-11.4311
systeme	-11.4313
▁flog	-11.4318
▁Allgemein	-11.4318
genügend	-11.432
bezüglich	-11.4321
▁Eve	-11.4325
▁DNS	-11.4326
▁Feynman	-11.4326
▁centuries	-11.4326
▁depth	-11.4326
▁Christmas	-11.4326
▁Widerstand	-11.4326
▁frog	-11.4326
▁Leonardo	-11.4326
▁lehren	-11.4326
▁Herstellung	-11.4326
Central	-11.4326
▁Strand	-11.4326
▁unknown	-11.4327
▁improvement	-11.4328
▁Fund	-11.4329
▁stretch	-11.4331
sfähigkeit	-11.4331
▁jail	-11.4334
▁Status	-11.4336
▁reich	-11.4338
treffen	-11.4341
▁Fort	-11.4343
▁genießen	-11.4344
▁Paar	-11.4355
▁For	-11.4356
▁tiefe	-11.4356
▁Mode	-11.4357
▁typische	-11.4358
▁besuchte	-11.4358
passen	-11.4363
▁But	-11.4365
graph	-11.4366
quelle	-11.4368
unternehmen	-11.4375
▁Entwicklungs	-11.4377
▁Ru	-11.4378
▁betreiben	-11.438
▁betrieben	-11.4388
laufen	-11.4394
ches	-11.4398
arbeiter	-11.44
▁traurig	-11.4402
▁refer	-11.4407
▁mis	-11.4409
▁einzigartig	-11.4416
▁nose	-11.4418
▁Kriegs	-11.4421
ham	-11.4422
brechen	-11.4424
▁Konsum	-11.4425
▁Dörfer	-11.4426
▁Lebenserwartung	-11.4426
▁inzwischen	-11.4426
▁nachgedacht	-11.4426
▁nervös	-11.4426
▁wütend	-11.4426
▁autism	-11.4426
▁Schnee	-11.4426
▁verschwunden	-11.4426
▁regelmäßig	-11.4426
▁Kleidung	-11.4426
▁Schweden	-11.4426
▁Vorhersage	-11.4426
▁vertical	-11.4426
▁revenue	-11.4426
▁busy	-11.4427
▁hinunter	-11.4427
▁Psychologie	-11.4429
▁Heim	-11.443
▁Animation	-11.4433
ris	-11.4434
▁limit	-11.4436
▁Pr	-11.4437
▁Pollen	-11.444
bricht	-11.444
▁Fett	-11.4444
▁apple	-11.4444
▁durchführen	-11.4446
▁empfinde	-11.4451
führung	-11.4451
surance	-11.4451
▁Mitglieder	-11.4454
▁Epidemie	-11.4454
▁sensitive	-11.4456
▁Wa	-11.4458
▁processing	-11.4465
leg	-11.4468
light	-11.4468
geschwindigkeit	-11.4468
▁Entdeckungen	-11.4468
▁cartoon	-11.4469
▁beside	-11.4473
our	-11.4473
▁Einzelne	-11.4474
▁pitch	-11.4475
▁Knie	-11.4476
▁hängen	-11.4477
▁harvest	-11.4479
rand	-11.4489
row	-11.4492
▁roads	-11.4497
▁wirken	-11.4501
rus	-11.4504
▁Ki	-11.4505
▁Chancen	-11.4506
net	-11.4508
▁Jugend	-11.4511
bank	-11.4513
ließ	-11.4516
gegeben	-11.4518
box	-11.4521
▁Anruf	-11.4522
▁confront	-11.4525
▁Gemüse	-11.4526
grund	-11.4526
▁Kreatur	-11.4527
▁Mäuse	-11.4527
▁suspect	-11.4527
▁überlebt	-11.4527
▁grateful	-11.4527
▁polio	-11.4527
▁shall	-11.4527
▁microbes	-11.4527
▁besessen	-11.4527
▁Hong	-11.4528
▁wünschte	-11.4528
zentrum	-11.4528
▁getrennt	-11.453
▁beachten	-11.453
▁mode	-11.4531
▁beenden	-11.4535
▁europäische	-11.4535
▁gentlem	-11.4538
gemacht	-11.4539
▁Serie	-11.454
▁Kindes	-11.4542
down	-11.4546
▁conventional	-11.4552
▁danc	-11.4554
▁penguins	-11.4554
▁suchte	-11.4557
▁Ach	-11.4558
▁staatliche	-11.456
▁Bord	-11.4563
ult	-11.4566
Ver	-11.4566
▁partners	-11.4568
muster	-11.4572
upp	-11.4577
▁surgeon	-11.4577
▁Detail	-11.4578
▁organiz	-11.4578
▁Leiden	-11.4597
▁wahrnehme	-11.4598
▁Arme	-11.4598
stück	-11.4601
▁ko	-11.4603
drücken	-11.4604
▁Nano	-11.4606
▁Zusammen	-11.4616
▁Angriff	-11.4621
▁nachts	-11.4622
▁weiterer	-11.4622
▁37	-11.4626
▁mile	-11.4626
▁End	-11.4626
sätze	-11.4626
▁guide	-11.4627
▁Illusion	-11.4629
▁Verletzung	-11.4629
▁aufgeregt	-11.4629
▁irgendwelche	-11.4629
▁Weisheit	-11.4629
▁Potenzial	-11.4629
▁brutal	-11.4629
▁bekämpfen	-11.4629
▁plent	-11.4629
▁exakt	-11.4629
▁eingeladen	-11.4629
▁anscheinen	-11.4629
▁characteristic	-11.4629
▁commitment	-11.4629
▁Sarah	-11.4629
▁Kuh	-11.4631
▁reagiert	-11.4633
▁Population	-11.4634
▁bias	-11.4634
▁Neuigkeit	-11.4635
▁regime	-11.4636
wirtschaft	-11.4637
▁100.000	-11.4637
▁wunderschön	-11.4642
▁ears	-11.4642
▁bestand	-11.4646
back	-11.4646
▁Fe	-11.4647
▁laboratory	-11.4647
▁River	-11.4648
leite	-11.465
▁grass	-11.4654
▁electron	-11.4656
▁folgenden	-11.4659
▁Wild	-11.4661
▁Metall	-11.4663
▁freue	-11.4669
▁po	-11.4672
▁kleinere	-11.4674
▁Algorithmen	-11.4678
programm	-11.4682
▁classic	-11.4687
▁öffnet	-11.4687
rgestellt	-11.4689
truck	-11.4697
ür	-11.4702
▁command	-11.4702
▁Brit	-11.471
▁dumm	-11.4711
▁ländliche	-11.4714
handel	-11.4715
▁berühmt	-11.4719
▁trans	-11.4723
▁zufrieden	-11.473
▁Atom	-11.4731
▁betroffen	-11.4732
▁regret	-11.4732
▁versorgen	-11.4732
▁Tätigkeit	-11.4732
▁session	-11.4733
▁download	-11.4733
▁bedroht	-11.4733
schau	-11.4737
▁Kurve	-11.4738
▁Erzählung	-11.4738
▁gelangt	-11.4743
▁overall	-11.4744
▁Analyse	-11.4744
▁Schlag	-11.4746
▁typisch	-11.4746
▁Afrikas	-11.4747
▁einst	-11.4749
▁motivate	-11.475
▁Sonnen	-11.475
▁raw	-11.4751
▁passive	-11.4751
▁voran	-11.4751
▁Schicht	-11.4752
van	-11.4752
▁primitive	-11.4753
ßen	-11.4757
▁Fa	-11.4763
▁positiv	-11.4768
gesellschaft	-11.477
5.000	-11.477
▁import	-11.4772
▁mate	-11.4774
▁Grün	-11.4778
sta	-11.4779
▁SW	-11.4784
▁seal	-11.4786
▁install	-11.4787
▁rhythm	-11.4789
▁Witz	-11.4789
▁heutige	-11.479
last	-11.4791
lasst	-11.4791
▁educational	-11.4796
ufgewachsen	-11.4796
▁studiert	-11.4799
▁ma	-11.4799
▁gewisser	-11.4804
▁May	-11.4806
▁Boy	-11.4806
nderungen	-11.4807
▁erstmal	-11.481
ica	-11.4813
▁aim	-11.4814
▁Bericht	-11.4816
ogen	-11.4818
▁Videospiele	-11.4822
▁min	-11.4827
▁Zell	-11.4829
▁Fläche	-11.4834
▁Detroit	-11.4836
▁Erfinder	-11.4836
▁Gulf	-11.4836
▁Stewart	-11.4836
▁konfrontiert	-11.4836
▁neugierig	-11.4836
▁vorsichtig	-11.4836
▁kreiert	-11.4836
▁Geruch	-11.4836
▁Sonnenlicht	-11.4836
▁Larry	-11.4837
▁deserve	-11.4837
▁1.000	-11.4839
▁pill	-11.484
▁lion	-11.484
fressen	-11.484
schrift	-11.4841
▁dankbar	-11.4841
▁Business	-11.4845
▁verliert	-11.4846
▁Ad	-11.4847
▁Blue	-11.4851
▁Box	-11.4854
reichen	-11.4856
▁Nerven	-11.486
▁stoppen	-11.486
xi	-11.4865
clear	-11.4867
▁wirkt	-11.4871
▁worm	-11.4871
▁classes	-11.4872
▁implement	-11.4876
▁laser	-11.4876
▁boxes	-11.4878
▁cast	-11.4878
▁Nick	-11.4879
▁leer	-11.4879
▁August	-11.4879
▁Geschäfte	-11.4879
▁Tiefe	-11.488
▁wartet	-11.4888
▁pan	-11.4889
▁übernehme	-11.4892
▁cow	-11.4894
▁beibring	-11.4895
▁wash	-11.4896
▁bekannte	-11.49
▁transplant	-11.4902
▁legte	-11.4905
▁Par	-11.4905
hood	-11.4911
▁Dimensionen	-11.4911
▁starten	-11.4914
▁flowers	-11.4914
▁schluss	-11.4914
▁Durch	-11.4917
uadrat	-11.4919
▁manager	-11.4919
▁technologische	-11.4923
▁Haie	-11.4924
atur	-11.4927
▁voneinander	-11.4927
bot	-11.4933
▁Congo	-11.4937
▁edit	-11.494
▁Who	-11.4941
▁Motivation	-11.4941
▁corporate	-11.4941
▁curiosity	-11.4941
▁ernähre	-11.4941
▁fascinate	-11.4941
▁identical	-11.4941
▁kaputt	-11.4941
▁thumb	-11.4941
▁Zerstörung	-11.4941
▁gestaltet	-11.4941
▁strike	-11.4941
▁Joseph	-11.4941
▁Brustkrebs	-11.4941
▁Watson	-11.4941
▁Redwood	-11.4941
▁toxic	-11.4941
▁Nobel	-11.4942
▁Carolina	-11.4943
▁Sonnensystem	-11.4943
▁Br	-11.4945
▁x	-11.4946
▁flag	-11.4949
▁bewirken	-11.495
schicht	-11.4951
▁Dienstleistung	-11.4952
▁Philip	-11.4958
▁confidence	-11.4961
▁Todes	-11.4962
▁Schw	-11.4962
▁inequalit	-11.4965
steigen	-11.4966
▁wiederholen	-11.497
▁feeding	-11.4971
theorie	-11.4972
ane	-11.4972
▁tax	-11.4973
flogen	-11.4975
erei	-11.4979
▁pool	-11.4982
▁Brief	-11.4983
▁pit	-11.499
▁breathe	-11.4999
▁smoke	-11.5003
▁gezogen	-11.5006
▁tube	-11.5007
use	-11.5011
▁flip	-11.5011
▁Fahrzeug	-11.5017
swachstum	-11.5019
▁ski	-11.5021
▁trat	-11.5021
geschlagen	-11.5026
wagen	-11.503
call	-11.5031
▁Latin	-11.504
▁absorb	-11.5041
▁Außen	-11.5047
▁cloth	-11.5047
▁begegnen	-11.5048
▁diagram	-11.5048
▁agenda	-11.5048
▁column	-11.5048
▁Wärme	-11.5048
▁Zweifel	-11.5048
▁knock	-11.5048
▁Frankreich	-11.5048
▁minimal	-11.5048
▁painful	-11.5049
tz	-11.5049
▁Harry	-11.505
▁selection	-11.505
▁vital	-11.505
▁Song	-11.5051
▁durchzu	-11.5053
▁Sub	-11.5056
▁awesome	-11.5056
▁reserve	-11.5071
kan	-11.5075
▁Fahrer	-11.5076
▁Maß	-11.5079
▁philosopher	-11.5079
▁herauszu	-11.5081
▁rely	-11.5089
▁hinterlasse	-11.5104
▁Vorfahre	-11.5105
▁Last	-11.5106
▁verbring	-11.5108
▁lokal	-11.511
etz	-11.511
fälle	-11.5114
▁analyze	-11.5115
▁films	-11.5117
▁inspire	-11.5122
▁Diagnose	-11.5125
▁Marke	-11.5135
iz	-11.5139
▁narrat	-11.5148
ax	-11.5148
▁Stift	-11.5151
gypten	-11.5153
▁poster	-11.5154
▁ergeben	-11.5155
▁dicht	-11.5155
▁Erdbeben	-11.5155
▁Option	-11.5155
▁privacy	-11.5155
▁veröffentlichen	-11.5155
▁Neugier	-11.5155
▁Berlin	-11.5155
▁greenhouse	-11.5156
▁continuous	-11.5156
▁Krankenhäuser	-11.5156
▁Chile	-11.5156
▁Egypt	-11.5157
▁Blätter	-11.5158
▁gründen	-11.5158
▁eigentliche	-11.5162
▁Bibel	-11.5162
▁item	-11.5163
▁County	-11.5164
cut	-11.5169
▁Level	-11.5169
▁wound	-11.5169
▁Dame	-11.5172
▁AB	-11.5172
▁Russian	-11.5174
▁Viel	-11.5176
▁Presse	-11.5181
▁tag	-11.5185
akt	-11.5188
ji	-11.5188
▁Stiftung	-11.5191
▁bedeutete	-11.5192
▁Wieder	-11.5201
▁Argument	-11.5202
sinn	-11.5207
▁hous	-11.521
▁favor	-11.5219
▁fo	-11.5222
▁SS	-11.5224
▁technisch	-11.5229
▁importan	-11.523
▁prisoner	-11.5239
mber	-11.5241
▁laughing	-11.5243
kel	-11.525
▁Spa	-11.5257
▁Achse	-11.5257
▁plans	-11.5262
▁Futter	-11.5264
▁Rwanda	-11.5264
▁SETI	-11.5264
▁chocolate	-11.5264
▁library	-11.5264
▁musikalische	-11.5264
▁vegetable	-11.5264
▁arrest	-11.5264
▁mushroom	-11.5264
▁miracle	-11.5264
▁Sektor	-11.5264
▁cooperation	-11.5264
▁Denkweise	-11.5265
▁breed	-11.5265
rei	-11.5265
▁erfüllt	-11.5267
▁nieder	-11.527
▁till	-11.5271
linie	-11.5274
▁Vorträge	-11.5276
projekt	-11.5277
▁slides	-11.5281
▁anzusehen	-11.5284
▁traged	-11.5288
▁Stil	-11.5291
wood	-11.5296
▁shell	-11.53
▁antworte	-11.53
▁lo	-11.53
sprozess	-11.53
gh	-11.5302
▁elegant	-11.5309
▁kritische	-11.5309
▁attend	-11.531
▁implant	-11.5311
▁Tony	-11.5311
▁spreading	-11.5315
▁tu	-11.5319
▁Hunderte	-11.5322
▁dress	-11.5329
▁höchsten	-11.5329
▁intensive	-11.533
▁Autor	-11.533
▁suck	-11.5332
ock	-11.5333
▁mächtig	-11.534
▁umher	-11.5345
▁spiritual	-11.5355
▁Mach	-11.5357
▁secure	-11.5364
schauen	-11.5366
tries	-11.5369
lei	-11.5371
▁kleinste	-11.5373
▁astonishing	-11.5374
▁distant	-11.5374
▁letztlich	-11.5374
▁earthquake	-11.5374
▁angry	-11.5374
▁verursachen	-11.5374
▁barrier	-11.5374
▁Geographic	-11.5374
▁footprint	-11.5374
▁mystery	-11.5374
▁neural	-11.5374
▁reduction	-11.5374
▁stack	-11.5374
▁2030	-11.5375
▁Euro	-11.5375
▁Verfahren	-11.5375
▁Handys	-11.5377
▁salt	-11.5377
▁Sequenz	-11.5378
▁halt	-11.5378
▁Kategorie	-11.5379
▁Global	-11.5381
▁liefert	-11.5381
Ma	-11.5385
▁fixed	-11.5387
▁Party	-11.5388
▁CD	-11.5389
▁magnetic	-11.5394
▁klinische	-11.5395
ez	-11.5397
▁Erwartungen	-11.5399
hai	-11.5399
▁dauern	-11.5402
▁ursprüngliche	-11.5402
▁eingeführt	-11.5402
▁ba	-11.5408
▁recogni	-11.5412
▁letzter	-11.5413
▁Toten	-11.5414
▁Ingenieur	-11.5418
ehr	-11.5418
▁berichtet	-11.5418
▁bla	-11.5423
▁irgendein	-11.5424
oc	-11.5424
▁Louis	-11.5427
▁dense	-11.5429
▁Pi	-11.5435
▁Ve	-11.5436
fällt	-11.5443
▁army	-11.5448
sterblichkeit	-11.5451
▁lung	-11.5453
▁engag	-11.5454
basierte	-11.5454
▁erklärte	-11.5457
log	-11.5459
Fi	-11.546
▁Organe	-11.546
▁genetisch	-11.546
▁theme	-11.5461
▁She	-11.5464
▁firm	-11.5464
▁Dia	-11.5467
▁trace	-11.5472
▁immense	-11.5473
▁Pinguine	-11.5474
▁dig	-11.5475
▁Hinter	-11.5481
▁steal	-11.5484
▁DVD	-11.5485
▁November	-11.5485
▁Vagina	-11.5485
▁berühren	-11.5485
▁globe	-11.5485
▁bicycle	-11.5485
▁Angelegenheit	-11.5485
▁rush	-11.5485
▁flood	-11.5485
▁Clinton	-11.5485
▁isolat	-11.5485
zer	-11.5487
▁2020	-11.5487
▁Gleichgewicht	-11.5489
▁Gipfel	-11.549
▁Preise	-11.5492
▁Initiative	-11.5493
▁Sternen	-11.5494
▁colony	-11.5494
▁Delhi	-11.5495
schließen	-11.5495
▁rebuild	-11.5498
▁bedeckt	-11.5499
▁erfüllen	-11.5505
▁bedenken	-11.5505
▁parking	-11.5508
▁ugl	-11.5509
streben	-11.5509
▁Warum	-11.5509
mat	-11.5513
sprechen	-11.5515
▁Cel	-11.5518
▁dramatisch	-11.5528
▁springen	-11.553
lauf	-11.5534
▁tech	-11.5535
nderung	-11.555
▁printing	-11.5557
dra	-11.5557
tier	-11.5558
▁Feind	-11.556
denken	-11.5562
▁leere	-11.5563
▁Staats	-11.5565
▁exten	-11.5566
▁agreed	-11.5568
richtung	-11.5576
▁unteren	-11.5584
▁frustrat	-11.5595
▁extinct	-11.5595
▁hormone	-11.5596
▁Link	-11.5596
▁Aufstieg	-11.5597
▁Medium	-11.5597
▁Parkinson	-11.5597
▁economies	-11.5597
▁narrow	-11.5597
▁IBM	-11.5597
▁jegliche	-11.5597
▁causing	-11.5597
▁befand	-11.5597
▁simplicity	-11.5597
▁Rettung	-11.5597
▁Fellow	-11.5597
▁Männchen	-11.5597
▁pyramid	-11.5598
▁fluid	-11.5598
▁hinzufügen	-11.5598
▁Vietnam	-11.5599
zieht	-11.56
▁Gletscher	-11.5603
▁autonomous	-11.5604
▁Krieges	-11.5609
falten	-11.561
hour	-11.5611
kehren	-11.5613
▁Live	-11.5615
▁schlimm	-11.5615
▁Kon	-11.5622
▁Ideal	-11.5622
▁neutral	-11.5625
ants	-11.5626
▁Hinweise	-11.5632
pox	-11.5637
istic	-11.5639
artige	-11.5642
▁Bier	-11.5646
▁brothers	-11.5648
▁startete	-11.5652
üben	-11.5654
▁conclude	-11.5659
▁Blau	-11.5665
▁spoken	-11.5666
▁350	-11.5672
▁borders	-11.5672
▁Versorgung	-11.5673
▁sides	-11.5678
▁dreidimensional	-11.5681
▁wise	-11.5682
▁citizen	-11.5686
▁Schweine	-11.5686
▁accelerat	-11.569
▁schnelle	-11.5697
▁Inneren	-11.5697
▁figur	-11.5699
gewiesen	-11.5703
och	-11.5703
▁saubere	-11.5704
▁Polio	-11.5706
▁beeindruckend	-11.571
ose	-11.571
▁Gebrauch	-11.5711
▁Cartoon	-11.5711
▁Charlie	-11.5711
▁dazwischen	-11.5711
▁obstacle	-11.5711
▁participant	-11.5711
▁rainforest	-11.5711
▁Entwurf	-11.5711
▁Ungleichheit	-11.5711
▁shelter	-11.5711
▁concert	-11.5711
▁discipline	-11.5711
▁judgment	-11.5711
▁household	-11.5711
▁Verlauf	-11.5712
▁file	-11.5712
▁cash	-11.5712
▁schuf	-11.5713
▁thick	-11.5713
▁database	-11.5715
Projekt	-11.5716
▁stirb	-11.5716
▁Niveau	-11.5716
▁golf	-11.5717
▁defense	-11.5718
▁optimistisch	-11.5718
▁stor	-11.5718
▁Wichtigste	-11.572
▁Drei	-11.572
▁ignorieren	-11.572
▁dump	-11.5721
▁älteste	-11.5723
▁wundervoll	-11.5725
▁Terroristen	-11.5726
▁zurückgehen	-11.5726
▁neigen	-11.5727
▁Mathe	-11.5727
▁bond	-11.573
▁Human	-11.5739
▁Nutzer	-11.5739
nahmen	-11.574
▁microscope	-11.5742
0.000	-11.5745
▁pin	-11.5748
nsas	-11.5749
▁donor	-11.5751
ender	-11.5753
▁personalit	-11.5754
▁Richtige	-11.5759
▁brach	-11.5759
▁plot	-11.5762
▁ok	-11.5763
einhalb	-11.5769
▁romantic	-11.5775
par	-11.5777
schreiben	-11.5778
▁Bu	-11.5779
▁Ri	-11.578
▁physikalische	-11.5783
▁shooting	-11.5787
▁stepp	-11.5788
▁shipp	-11.5788
▁tip	-11.579
rlei	-11.579
zahlen	-11.5791
▁Summe	-11.5793
▁Trend	-11.5797
▁Teufel	-11.5798
▁bend	-11.5798
kopf	-11.5801
▁geo	-11.5805
▁Nu	-11.5813
gefallen	-11.5813
▁illustrate	-11.5816
▁paintings	-11.5816
▁lens	-11.5819
▁vierte	-11.5819
▁sa	-11.582
▁Hitze	-11.5821
▁Kopie	-11.5823
▁Albert	-11.5824
▁Angebot	-11.5826
▁Klavier	-11.5826
▁Shakespeare	-11.5826
▁asteroid	-11.5826
▁Joshua	-11.5826
▁pretend	-11.5826
▁Islamic	-11.583
▁Spannung	-11.5831
▁Pan	-11.5833
▁Haare	-11.5833
▁Fünf	-11.5838
▁hip	-11.5838
▁heroes	-11.5838
▁48	-11.5839
▁Au	-11.5839
▁PC	-11.5845
▁Leiter	-11.5845
▁sales	-11.5852
▁Informations	-11.5853
▁leiten	-11.5855
ology	-11.5856
gerät	-11.5857
▁niedrig	-11.5857
▁Pole	-11.5857
▁finanziert	-11.5862
▁Figur	-11.5865
▁anpassen	-11.5865
▁Schmerzen	-11.5869
▁Male	-11.587
▁gray	-11.587
▁committ	-11.5878
▁younger	-11.5884
▁domestic	-11.5885
▁historische	-11.5886
▁lock	-11.5888
rising	-11.589
sein	-11.5893
▁billig	-11.5899
Zeitraum	-11.5906
▁gefährliche	-11.591
▁liver	-11.5911
ase	-11.5913
▁sports	-11.5915
▁Spektrum	-11.5918
hafte	-11.5919
gleich	-11.5921
▁benutze	-11.5927
▁Kreuz	-11.5929
▁Dutzend	-11.5929
▁benutzte	-11.593
▁mosquito	-11.5932
▁functional	-11.5935
▁glücklicher	-11.5939
▁Einzel	-11.5939
pho	-11.5941
▁adjust	-11.5942
▁lächerlich	-11.5942
▁Einfachheit	-11.5942
▁ceiling	-11.5942
▁ersetzt	-11.5942
▁gerettet	-11.5942
▁orchestra	-11.5942
▁umgekehrt	-11.5942
▁erfand	-11.5942
▁excuse	-11.5942
▁fliegt	-11.5942
▁viral	-11.5942
▁silent	-11.5942
▁Italien	-11.5942
▁Virginia	-11.5942
▁Greek	-11.5943
▁Vorschlag	-11.5943
▁Computern	-11.5944
▁1900	-11.5945
▁defend	-11.5945
▁Miss	-11.5946
▁Mio	-11.5948
▁promote	-11.5948
gegen	-11.5948
lic	-11.5948
▁demographic	-11.5948
class	-11.5949
▁suicide	-11.595
▁demokratische	-11.5951
point	-11.5951
▁Infektion	-11.5952
▁Saal	-11.5952
▁jährlich	-11.5952
▁50,000	-11.5952
▁Ballon	-11.5952
▁windows	-11.5957
▁Jugendliche	-11.596
▁cord	-11.5961
made	-11.5964
▁Verb	-11.5965
▁portrait	-11.5966
▁floating	-11.597
▁argu	-11.5971
▁Stoff	-11.5975
▁nachhaltig	-11.5977
▁neuron	-11.5979
aging	-11.5982
▁Marken	-11.5982
gas	-11.5987
▁breaking	-11.5988
losen	-11.5991
jo	-11.5998
rag	-11.6005
▁limits	-11.6006
▁Gel	-11.6006
▁uncle	-11.6024
ember	-11.6025
▁höchste	-11.6028
▁hingeh	-11.6029
▁wiederholt	-11.603
▁30-	-11.603
▁killer	-11.6034
▁Bab	-11.6043
▁rechte	-11.6044
▁blame	-11.6044
▁Gespräche	-11.6047
state	-11.605
ade	-11.6052
▁worker	-11.6057
▁Flüssigkeit	-11.606
▁Hölle	-11.606
▁crucial	-11.606
▁external	-11.606
▁furniture	-11.606
▁gestartet	-11.606
▁procedure	-11.606
▁senior	-11.606
▁geschützt	-11.606
▁transparency	-11.606
▁Würde	-11.606
▁gesture	-11.606
▁flash	-11.606
▁Brooklyn	-11.606
▁befreien	-11.606
▁ausgewählt	-11.6061
▁skeleton	-11.6061
▁Philosophie	-11.6061
▁headline	-11.6062
▁minus	-11.6062
▁LG	-11.6062
▁dignit	-11.6063
▁Brand	-11.6063
▁Psychologe	-11.6064
▁optimistic	-11.6064
▁Werbe	-11.6064
▁horizontal	-11.6065
tig	-11.6066
▁sang	-11.6067
mut	-11.6067
▁erfuhr	-11.6068
▁Tri	-11.6069
▁Brüder	-11.6071
rice	-11.6072
tel	-11.6073
zero	-11.6073
▁disorders	-11.6073
▁inspirieren	-11.6073
gabe	-11.6074
▁ausmacht	-11.6075
▁ausmachen	-11.6075
▁entscheidende	-11.6076
▁Treffen	-11.6076
▁evening	-11.6079
▁Andere	-11.6081
▁chest	-11.6083
enz	-11.6094
mäßig	-11.6094
20	-11.6096
▁axis	-11.61
▁tick	-11.6101
▁prefer	-11.6101
▁immune	-11.611
▁überraschende	-11.6114
▁invit	-11.6114
System	-11.6115
uer	-11.6116
▁Ana	-11.6117
tail	-11.6118
▁drum	-11.6118
▁Ihres	-11.612
▁Child	-11.6122
▁Speicher	-11.6127
▁dienen	-11.6127
▁drehte	-11.6132
▁verletzt	-11.6135
▁ökonomische	-11.6139
▁eingebaut	-11.615
▁dominant	-11.6151
▁indicate	-11.6151
▁Regierungs	-11.6154
▁photography	-11.6162
ät	-11.6166
▁Van	-11.6166
▁abhäng	-11.617
▁Ross	-11.6171
▁Symptome	-11.6171
fern	-11.6173
▁Stamm	-11.6174
letzt	-11.6174
▁mere	-11.6175
reich	-11.6177
▁Einwohner	-11.6179
▁McDonald	-11.6179
▁Täuschung	-11.6179
▁bulb	-11.6179
▁desperate	-11.6179
▁exploit	-11.6179
▁origami	-11.6179
▁yield	-11.6179
▁Zwischen	-11.6179
▁spill	-11.6179
▁ear	-11.6179
▁fragment	-11.6179
▁Verteilung	-11.6179
gefühl	-11.6179
▁Vorgang	-11.618
▁Flächen	-11.618
▁Ethiopia	-11.6181
▁Papa	-11.6181
erlangen	-11.6182
▁Let	-11.6185
met	-11.6185
▁Hypothese	-11.6185
▁repräsentiert	-11.6185
▁tower	-11.6185
▁objective	-11.6186
▁representation	-11.6186
▁frighten	-11.6188
dollar	-11.6189
wi	-11.619
▁Kugel	-11.6191
▁coin	-11.6192
▁Fliege	-11.6193
▁Medica	-11.6194
dependent	-11.6195
▁20,000	-11.6196
▁corn	-11.6197
▁consistent	-11.6197
▁professionelle	-11.6198
▁Juli	-11.62
▁inspiring	-11.6207
▁Wut	-11.6207
▁Böse	-11.621
In	-11.621
▁interpret	-11.6219
▁inventor	-11.6228
punkte	-11.6233
▁psychische	-11.6235
leiter	-11.6238
▁Chen	-11.6239
▁Good	-11.6246
▁kn	-11.6247
▁pi	-11.6249
▁complain	-11.6249
▁educate	-11.6251
grade	-11.6255
zentr	-11.6269
▁schaue	-11.6269
▁wa	-11.627
▁ethical	-11.6271
▁Wohn	-11.6272
bul	-11.6273
▁Vergnügen	-11.6274
▁disorder	-11.6286
▁cute	-11.6286
▁Mont	-11.6289
▁Will	-11.6295
▁sexy	-11.6295
▁dive	-11.6295
icht	-11.6297
▁Autismus	-11.6299
▁Transparenz	-11.6299
▁gebildet	-11.6299
▁scenario	-11.6299
▁übersetzt	-11.6299
▁Dialog	-11.6299
▁versch	-11.6299
▁Logik	-11.6299
▁Verteidigung	-11.6299
▁Globalisierung	-11.6299
▁Olympic	-11.63
▁Lewi	-11.63
▁ticket	-11.63
▁Coca	-11.63
▁Farm	-11.6301
▁planen	-11.6301
▁queen	-11.6302
cker	-11.6302
▁sheep	-11.6305
▁April	-11.6305
▁Tal	-11.6306
▁kaufe	-11.6311
▁klug	-11.6313
▁tri	-11.6313
▁Küche	-11.6314
▁observ	-11.6314
▁könne	-11.6315
▁wertvoll	-11.6317
▁gewöhnt	-11.6321
▁mächtige	-11.6324
version	-11.6325
rine	-11.6326
▁pet	-11.6329
menge	-11.6335
▁Kameras	-11.6339
▁intend	-11.6341
▁Pferd	-11.6342
▁Fan	-11.6344
pri	-11.6345
▁rum	-11.6351
▁ungewöhnlich	-11.6354
▁1.	-11.6356
energie	-11.6357
▁adventure	-11.6362
▁Seh	-11.6366
▁Laufen	-11.638
alt	-11.6382
▁distribute	-11.6393
▁signed	-11.6394
being	-11.6395
▁strategi	-11.6397
fache	-11.6398
▁gelbe	-11.64
▁norm	-11.6401
tte	-11.6405
ain	-11.6411
dioxide	-11.6412
▁72	-11.6413
▁par	-11.6414
▁transfer	-11.6414
▁Schlacht	-11.6418
▁angepasst	-11.6421
▁description	-11.6421
▁korrekt	-11.6421
gedreht	-11.6421
▁Bruno	-11.6421
▁Einschränkung	-11.6421
▁Umgang	-11.6422
▁feiern	-11.6422
▁geschlossen	-11.6422
▁kochen	-11.6422
▁Nachfrage	-11.6422
▁verschiedener	-11.6423
▁restore	-11.6423
▁compell	-11.6424
▁li	-11.6424
▁imagin	-11.6424
▁Rover	-11.6424
▁Höhepunkt	-11.6425
▁Santa	-11.6425
▁landete	-11.6426
▁Bible	-11.6427
▁boss	-11.6427
▁Ausrüstung	-11.6427
▁Wenn	-11.6432
century	-11.6435
minute	-11.6435
▁opposed	-11.6435
▁Szene	-11.6437
can	-11.6438
▁aside	-11.644
▁verb	-11.6444
▁erwähnen	-11.6451
▁elect	-11.6453
oid	-11.646
▁Kr	-11.6462
▁Schreiben	-11.6478
räume	-11.6479
kosten	-11.6482
▁Eins	-11.6491
▁änderte	-11.6496
▁resist	-11.65
▁gesetzt	-11.6501
tu	-11.6501
ps	-11.6502
▁stimmen	-11.6508
▁Präsidenten	-11.6509
▁niedrige	-11.6511
▁rating	-11.6513
▁priorit	-11.6513
▁Meere	-11.6514
▁schlau	-11.6516
▁Schauspieler	-11.6516
▁Jay	-11.6517
▁pray	-11.6517
ual	-11.6523
▁l	-11.6528
▁Friedens	-11.6531
▁occasional	-11.6534
▁38	-11.6538
▁weapon	-11.6538
modell	-11.654
▁Dec	-11.6541
▁accomplish	-11.6544
▁Indus	-11.6544
▁Soviet	-11.6545
▁calculation	-11.6545
▁irrational	-11.6545
▁reputation	-11.6545
▁unbelievabl	-11.6545
▁embedded	-11.6545
▁blend	-11.6545
▁Effizienz	-11.6545
▁Nahrungsmittel	-11.6545
▁Wright	-11.6545
▁sensation	-11.6545
▁verbraucht	-11.6545
▁Weltbevölkerung	-11.6547
▁engagement	-11.6547
▁Carl	-11.6548
▁seed	-11.6548
▁mold	-11.6549
▁authentic	-11.6549
▁Standpunkt	-11.6549
▁Umfrage	-11.655
▁Atlantic	-11.6551
▁atmen	-11.6552
▁brechen	-11.6554
rung	-11.6554
▁Teams	-11.6555
strom	-11.6556
▁einzig	-11.6557
▁mat	-11.6559
▁Ehre	-11.6561
▁loan	-11.6563
soweit	-11.6563
▁gewinn	-11.6566
▁improv	-11.6569
▁aggressive	-11.6569
▁se	-11.657
▁Katastrophe	-11.657
▁Pe	-11.6571
▁Pre	-11.6572
Ge	-11.6577
fragen	-11.6578
▁gelb	-11.658
pot	-11.658
▁Fahrzeuge	-11.6581
▁Wahlen	-11.6584
▁dunkel	-11.6584
town	-11.6586
▁node	-11.6588
ola	-11.6594
abilities	-11.6595
ep	-11.6596
▁smok	-11.6597
▁tanzen	-11.6601
▁Resultate	-11.6604
▁conflicts	-11.6609
▁Verkehr	-11.6616
part	-11.6616
schi	-11.6621
▁senses	-11.6628
▁gelassen	-11.6628
▁höchst	-11.6633
▁Sahara	-11.6634
▁umso	-11.6638
▁TEDster	-11.6641
▁Proben	-11.6643
▁Dienst	-11.6647
gesichts	-11.6649
▁Training	-11.666
▁Nordamerika	-11.6662
long	-11.6662
möglichkeit	-11.6667
▁schwimmen	-11.6669
▁compound	-11.667
▁reparieren	-11.667
▁request	-11.667
▁ridiculous	-11.667
▁scratch	-11.667
▁terrifi	-11.667
▁definitiv	-11.667
▁drove	-11.667
▁sharp	-11.667
▁vermittelt	-11.667
▁Daumen	-11.667
▁poison	-11.667
▁systematic	-11.667
▁Größenordnung	-11.667
esearch	-11.667
▁Richter	-11.667
▁brown	-11.667
▁Entstehung	-11.667
breite	-11.667
▁aussah	-11.667
▁lake	-11.667
▁laughter	-11.6671
▁Pause	-11.6671
▁Simon	-11.6671
▁Gestaltung	-11.6672
▁Schätzung	-11.6674
▁treiben	-11.6676
▁berechnen	-11.6679
▁BIP	-11.6681
▁quer	-11.6682
▁mice	-11.6682
▁Milo	-11.6683
▁Seil	-11.6685
▁Pass	-11.6685
teils	-11.669
▁storm	-11.6692
▁Gut	-11.6696
lösen	-11.6703
▁Eastern	-11.6707
wasser	-11.6708
tät	-11.6708
iges	-11.6712
▁aufrecht	-11.6712
▁erfolgreiche	-11.6714
▁fürchte	-11.6718
▁meetings	-11.6725
▁Leid	-11.6729
▁Dichter	-11.673
bit	-11.6734
▁boundar	-11.6737
kam	-11.6742
▁uh	-11.6743
geschäft	-11.6749
▁struggl	-11.6764
▁spezifische	-11.6765
▁jeweil	-11.6775
▁Kal	-11.6776
▁graphic	-11.6776
▁Ang	-11.6776
▁observe	-11.6781
▁Fischer	-11.6786
▁löst	-11.679
▁Atlant	-11.6794
teile	-11.6794
▁reject	-11.6794
▁Betrieb	-11.6796
▁Anstieg	-11.6796
▁Anstrengung	-11.6796
▁Church	-11.6796
▁Fantasie	-11.6796
▁Monterey	-11.6796
▁Tragödie	-11.6796
▁circa	-11.6796
▁fulfill	-11.6796
▁öfter	-11.6796
▁mutation	-11.6796
▁domain	-11.6796
▁verschwand	-11.6796
▁aircraft	-11.6797
▁MRI	-11.6797
▁translation	-11.6797
▁capitalism	-11.6797
▁limitation	-11.6798
▁spell	-11.6798
▁zurückkehren	-11.6799
▁Vermögen	-11.6799
▁hindurch	-11.6804
▁Rezept	-11.6804
mar	-11.6809
▁airport	-11.6814
▁gear	-11.682
▁Konsumenten	-11.6822
cellular	-11.6822
▁granted	-11.6822
▁golden	-11.6823
▁bother	-11.6825
▁klick	-11.6832
▁130	-11.684
▁Ok	-11.6841
▁Funktionen	-11.6859
▁Leber	-11.6862
▁sc	-11.6866
schnitt	-11.6869
▁Tour	-11.6877
unwahrscheinlich	-11.6882
▁Stille	-11.6884
▁beliebt	-11.6886
sgeschichte	-11.6891
▁Bei	-11.6891
▁seeds	-11.6895
▁reduc	-11.6896
▁Inter	-11.6896
alter	-11.6899
▁reiste	-11.6902
ably	-11.6908
lon	-11.6908
nde	-11.6908
▁komplette	-11.691
▁Oberflächen	-11.6912
▁bow	-11.6915
▁Len	-11.6915
▁trends	-11.6923
▁Bedarf	-11.6924
▁Mumbai	-11.6924
▁Sätze	-11.6924
▁guarantee	-11.6924
▁guilt	-11.6924
▁Everest	-11.6924
▁Lächeln	-11.6924
▁appeal	-11.6924
▁Rosling	-11.6924
▁erfasst	-11.6924
▁Seattle	-11.6924
▁copyright	-11.6925
▁borrow	-11.6925
▁Edward	-11.6925
▁probabilit	-11.6925
▁Geoff	-11.6925
▁slice	-11.6925
▁gemessen	-11.6925
▁profile	-11.6926
▁resident	-11.6926
▁Auftrag	-11.6926
▁mentor	-11.6927
▁Marine	-11.6929
▁lane	-11.6932
person	-11.6933
▁Aber	-11.6935
öl	-11.6936
▁Hacker	-11.6941
▁Maßnahmen	-11.6943
▁Laser	-11.6943
▁Weltall	-11.6944
▁Patent	-11.6944
American	-11.6945
▁reicher	-11.6945
Technologie	-11.6945
▁asset	-11.6945
▁explosion	-11.6945
▁Durchschnitts	-11.6947
▁Ursache	-11.6947
▁Sorge	-11.6948
▁fifth	-11.6948
▁Waffe	-11.6948
strahl	-11.6949
▁Inhalte	-11.695
af	-11.6952
▁resolution	-11.6954
ita	-11.6959
ache	-11.696
▁Architekt	-11.6966
▁Kir	-11.697
▁tauchen	-11.6978
▁preserve	-11.6983
▁depress	-11.6984
▁ga	-11.6989
▁unterrichtet	-11.6989
▁Ron	-11.6991
▁magische	-11.6992
▁origin	-11.6993
▁schlimmsten	-11.6994
▁französische	-11.6995
▁Mess	-11.7002
▁pie	-11.7006
pel	-11.7007
▁wach	-11.7007
▁Dis	-11.7016
team	-11.7018
gestoßen	-11.7019
▁tribes	-11.7021
▁Taschen	-11.7023
▁enden	-11.7033
änge	-11.7035
▁günstig	-11.7036
▁knee	-11.7039
▁mammals	-11.7042
▁Sehen	-11.7042
▁190	-11.7045
▁tuna	-11.7049
störung	-11.705
▁komisch	-11.7051
inblick	-11.7052
▁Bur	-11.7054
▁intrigu	-11.7054
▁Buddha	-11.7054
▁gezwungen	-11.7054
▁Elizabeth	-11.7054
▁Erziehung	-11.7054
▁Käfer	-11.7054
▁candidate	-11.7054
▁diabetes	-11.7054
▁intuition	-11.7054
▁skull	-11.7054
▁Tränen	-11.7054
▁Kooperation	-11.7054
▁football	-11.7055
▁demonstration	-11.7055
▁Alice	-11.7055
▁Menschlichkeit	-11.7056
▁Block	-11.7056
▁Force	-11.7056
▁replicate	-11.7057
▁Arabic	-11.7057
▁globalization	-11.7058
▁erfordert	-11.7059
▁Frequenz	-11.7061
▁Anweisung	-11.7062
▁bold	-11.7063
▁Sammlung	-11.7064
▁activate	-11.7064
▁upset	-11.7064
▁Terror	-11.7065
▁verdammt	-11.7066
eit	-11.7068
▁intention	-11.7069
▁Löwen	-11.7069
▁fabric	-11.7069
▁Anzeige	-11.7072
▁unternehmen	-11.7076
▁industrie	-11.7076
▁These	-11.7077
▁31	-11.7078
▁mochte	-11.7078
▁wette	-11.7084
▁Katze	-11.7085
▁Pla	-11.7089
▁subtle	-11.7091
▁gebrochen	-11.7091
Me	-11.7091
▁audio	-11.7096
olds	-11.7099
▁Lieder	-11.7105
▁Partei	-11.7105
▁Port	-11.7106
wei	-11.7109
▁Eisen	-11.7121
▁Handeln	-11.7133
▁Lichter	-11.7134
▁redet	-11.7134
▁fehlende	-11.7139
icher	-11.7141
▁Ze	-11.7141
▁offenbar	-11.7144
▁Erkenntnisse	-11.7148
spitze	-11.7149
▁habit	-11.7151
typ	-11.7151
▁192	-11.7152
▁moralisch	-11.7154
▁schaffte	-11.7155
▁murder	-11.716
▁Time	-11.7165
▁Katastrophen	-11.7166
▁Felder	-11.7168
▁electronics	-11.7169
▁Ohr	-11.717
▁nahezu	-11.7172
king	-11.7174
▁angehen	-11.7178
uff	-11.7179
▁Apollo	-11.7186
▁Beijing	-11.7186
▁Mozart	-11.7186
▁Polizist	-11.7186
▁absurd	-11.7186
▁analysiere	-11.7186
▁diskutiere	-11.7186
▁geöffnet	-11.7186
▁identifie	-11.7186
▁inklusive	-11.7186
▁smooth	-11.7186
▁spectacular	-11.7186
▁twist	-11.7186
▁neuroscience	-11.7186
▁abandon	-11.7186
▁pioneer	-11.7186
▁wing	-11.7186
▁Blickwinkel	-11.7186
▁Mount	-11.7186
▁leap	-11.7186
▁Onkel	-11.7186
▁partnership	-11.7186
▁lamp	-11.7187
▁indigen	-11.7187
▁193	-11.7189
▁Schokolade	-11.719
▁Ausland	-11.719
nna	-11.7191
▁soap	-11.7192
▁darkness	-11.7193
▁Diabetes	-11.7194
▁geeignet	-11.7198
▁hello	-11.72
▁gemein	-11.7201
▁simulation	-11.7202
▁Sendung	-11.7203
▁Bauch	-11.7204
▁Service	-11.7206
▁20-	-11.7209
smal	-11.721
▁molekulare	-11.7215
▁Ski	-11.7216
▁Alternative	-11.7216
▁Sensoren	-11.722
▁Konzepte	-11.7226
design	-11.7233
auto	-11.7235
▁verlangt	-11.7241
dia	-11.7242
ncy	-11.7242
▁coat	-11.7244
▁protest	-11.7244
volle	-11.7245
▁Fotografie	-11.7248
▁Werke	-11.7255
krieg	-11.7256
ju	-11.7257
▁universit	-11.726
Spiel	-11.7264
▁Wichtige	-11.7266
▁Flugzeuge	-11.7269
▁körperliche	-11.7271
▁15-	-11.7271
▁örtliche	-11.7274
▁Up	-11.7276
▁integrate	-11.7276
▁Benutzer	-11.7277
▁Bildungs	-11.7283
▁Marc	-11.7286
▁Wachstums	-11.7287
erlei	-11.7288
▁unendlich	-11.7294
▁sweat	-11.7302
▁fed	-11.7305
▁decrease	-11.7309
▁physisch	-11.7311
▁wow	-11.7311
▁stet	-11.7316
▁excellen	-11.7318
▁Skelett	-11.7319
▁Anpassung	-11.7319
▁Weibchen	-11.7319
▁diskutiert	-11.7319
▁theoretisch	-11.7319
▁Ocean	-11.7319
▁Privatsphäre	-11.7319
▁herausfand	-11.7319
▁freak	-11.7319
▁japanische	-11.7319
ivität	-11.7319
▁Mountain	-11.7319
▁Lord	-11.7319
▁hungry	-11.7319
▁textbook	-11.7319
▁resolve	-11.7319
▁fortune	-11.732
▁passenger	-11.732
▁There	-11.732
▁hardware	-11.732
erkeley	-11.732
▁Juni	-11.7321
▁northern	-11.7321
urg	-11.7322
▁achievement	-11.7323
gan	-11.7323
▁geraten	-11.7324
▁Jami	-11.7324
▁Brother	-11.7325
▁Abenteuer	-11.7326
▁Dean	-11.7326
▁Scham	-11.7328
▁vorwärts	-11.7329
▁Explosion	-11.7332
▁Nations	-11.7333
▁tricks	-11.7333
▁Dick	-11.7334
▁pace	-11.7334
bilder	-11.7337
▁stammen	-11.7339
möglich	-11.734
▁verschwinde	-11.7343
▁polici	-11.7344
▁plain	-11.7344
fen	-11.7344
Bahn	-11.7344
erfassen	-11.7347
▁Lake	-11.735
▁ill	-11.7352
▁biologisch	-11.736
generation	-11.7361
▁anbieten	-11.7365
haltung	-11.7365
▁Probe	-11.7369
▁Spur	-11.7369
bett	-11.7371
▁Julian	-11.7371
▁Alle	-11.7372
▁Koch	-11.7373
▁treib	-11.7373
rich	-11.7386
vo	-11.7389
▁langfristige	-11.7391
▁nette	-11.7392
▁Ratten	-11.7394
▁pregnan	-11.7395
▁terrorists	-11.7395
▁Schwestern	-11.7399
eur	-11.7399
mitten	-11.7401
▁schöner	-11.7403
▁Dinger	-11.7403
▁experimental	-11.7404
low	-11.7405
▁copie	-11.7406
▁Fremden	-11.7407
▁43	-11.7411
▁span	-11.7417
▁Kreise	-11.7422
▁jüngste	-11.7423
▁Mitglied	-11.7431
essen	-11.7433
▁gewöhnlich	-11.7446
▁strip	-11.7449
▁Kilo	-11.745
▁Funk	-11.745
▁Wasserstoff	-11.7453
▁deploy	-11.7453
venue	-11.7453
▁Abhängigkeit	-11.7454
▁Dynamik	-11.7454
▁Intuition	-11.7454
▁Keith	-11.7454
▁Urknall	-11.7454
▁chief	-11.7454
▁pandemic	-11.7454
▁trajector	-11.7454
▁ärmste	-11.7454
▁sauce	-11.7454
▁stroke	-11.7454
▁Simulation	-11.7454
▁Entschuldigung	-11.7454
▁Enkel	-11.7454
▁getestet	-11.7454
▁gradual	-11.7454
▁Sierra	-11.7455
▁Lärm	-11.7455
▁isoliert	-11.7455
▁Hügel	-11.7455
▁ausreichend	-11.7455
▁Beton	-11.7455
▁erneuerbare	-11.7455
▁Länge	-11.7455
▁keyboard	-11.7455
▁kauft	-11.7458
▁Luther	-11.7458
▁editor	-11.7459
▁intellektuelle	-11.746
▁deck	-11.7461
▁pipe	-11.7461
▁Tiger	-11.7463
▁hilfreich	-11.7465
▁unterhalten	-11.7466
▁Schriftsteller	-11.7469
▁rent	-11.7471
▁consequence	-11.7472
▁präsentiere	-11.7473
▁zuhören	-11.7475
▁willkommen	-11.7478
force	-11.7482
▁schwerer	-11.7483
▁glad	-11.7488
bersetzung	-11.7493
▁pause	-11.7493
formen	-11.7494
▁Pflanze	-11.7496
isches	-11.7497
▁liebt	-11.75
▁verlor	-11.7504
▁ethic	-11.7505
▁package	-11.7509
▁geistige	-11.751
▁beschränkt	-11.7516
▁profession	-11.7521
▁officer	-11.7529
▁wirtschaftlich	-11.753
▁Dad	-11.753
▁stabil	-11.7542
▁kümmert	-11.7545
▁besonderen	-11.7548
▁fe	-11.755
▁Hinweis	-11.755
▁surrounding	-11.7551
bahn	-11.7554
▁Pri	-11.7556
identifizieren	-11.7557
ind	-11.7557
tern	-11.7561
rctic	-11.7563
▁sinnvoll	-11.7563
chte	-11.7567
tial	-11.7567
produktion	-11.7576
▁Pu	-11.7579
▁Chip	-11.7583
▁Besitz	-11.7583
▁utter	-11.7591
no	-11.7591
▁Fä	-11.7591
▁außerordentlich	-11.7591
▁Mittlere	-11.7591
▁Variation	-11.7591
▁Wohlbefinden	-11.7591
▁aesthetic	-11.7591
▁helicopter	-11.7591
▁paralyz	-11.7591
▁uncomfortabl	-11.7591
▁Reichtum	-11.7591
▁Ruanda	-11.7591
▁Aufzeichnung	-11.7591
▁Beschreibung	-11.7591
▁reinvent	-11.7591
▁freiwillig	-11.7592
▁verstecken	-11.7592
▁laid	-11.7593
▁festgestellt	-11.7593
▁variable	-11.7593
▁Schock	-11.7594
▁glacier	-11.7595
▁ehemalige	-11.7595
▁Lebensraum	-11.7596
▁Regenwald	-11.7598
▁essence	-11.7599
▁Geschlecht	-11.7599
▁KB	-11.7601
▁initiative	-11.7602
▁Filter	-11.7604
ius	-11.7604
▁Now	-11.7605
▁fu	-11.7606
▁Palm	-11.7609
▁verurteilt	-11.7611
▁Hindernisse	-11.7611
netz	-11.7612
are	-11.7613
▁bewahren	-11.7613
▁agricultural	-11.7614
▁Brad	-11.7616
lässt	-11.7618
cal	-11.7618
▁psychologische	-11.7619
▁flach	-11.762
▁Norm	-11.762
▁pr	-11.7621
treiben	-11.7622
▁diagnose	-11.7623
▁Toilette	-11.7623
pflanzen	-11.7624
▁discoveries	-11.7625
▁bath	-11.7626
▁Haushalt	-11.7627
erung	-11.7628
▁fließ	-11.7635
▁Blase	-11.7638
wirtschaftliche	-11.764
entwicklung	-11.7645
field	-11.7646
trieb	-11.7652
dichte	-11.7653
▁farmer	-11.7656
kurs	-11.7658
▁magical	-11.7658
dienst	-11.7661
▁pursue	-11.7661
▁sozialer	-11.7664
▁craft	-11.7669
▁approv	-11.767
▁Reis	-11.7671
▁Prototypen	-11.7672
▁Farb	-11.7675
▁Thu	-11.7676
▁fotografiert	-11.7677
▁Talent	-11.7682
scha	-11.7683
▁Mom	-11.7684
wachsen	-11.7685
▁proportion	-11.7685
▁Weiß	-11.7686
▁dish	-11.7687
reise	-11.7696
▁fisher	-11.7696
▁zurecht	-11.7699
room	-11.7703
▁reefs	-11.7706
▁abstrakte	-11.7708
▁pose	-11.7715
▁polar	-11.7717
spieler	-11.7723
▁wings	-11.7725
▁Alters	-11.7725
ech	-11.7726
unterricht	-11.7726
hus	-11.7729
▁Hawaii	-11.7729
xytocin	-11.773
geführt	-11.773
▁Tempo	-11.773
▁genocide	-11.773
▁recruit	-11.773
▁relax	-11.773
▁sorgfältig	-11.773
▁zwölf	-11.773
▁automobile	-11.773
▁gelehrt	-11.773
▁breakthrough	-11.773
merk	-11.773
▁erkunden	-11.773
▁bump	-11.773
▁Wilson	-11.773
▁Verhandlung	-11.773
▁Gegenstände	-11.773
▁Jewish	-11.773
▁trash	-11.773
▁Craig	-11.773
▁Frühling	-11.7731
▁Strecke	-11.7731
▁teilnehmen	-11.7731
▁vorhersagen	-11.7731
▁Oxytocin	-11.7731
▁boil	-11.7731
▁jelly	-11.7731
▁Zero	-11.7732
▁extinction	-11.7732
▁Danny	-11.7733
▁südlich	-11.7733
▁grandfather	-11.7736
▁Knopf	-11.7737
▁output	-11.7738
gainst	-11.7739
▁Pläne	-11.7744
▁Planung	-11.7745
▁burst	-11.7748
▁lud	-11.7751
▁reef	-11.7755
▁dinosaur	-11.7755
▁puts	-11.7756
▁führende	-11.7758
leidenschaftlich	-11.776
▁Trends	-11.7765
▁Unternehmens	-11.7767
▁Bert	-11.7767
redet	-11.7767
▁heiße	-11.7768
achtet	-11.7768
▁logisch	-11.7769
ruft	-11.7769
▁dringend	-11.7772
▁printer	-11.7772
▁generat	-11.7772
▁Tasche	-11.7775
zig	-11.7776
▁expos	-11.7776
▁Nervenzellen	-11.7779
ini	-11.7784
▁98	-11.7784
prozess	-11.7786
▁Age	-11.7787
▁bo	-11.7795
▁profitier	-11.7797
▁Metern	-11.7797
real	-11.7799
▁via	-11.7801
▁unabhängige	-11.7805
▁Steine	-11.7807
lit	-11.7807
fund	-11.7808
▁agenc	-11.7812
spielen	-11.7816
Mails	-11.7816
▁Mall	-11.7819
vin	-11.7821
▁ausschließlich	-11.7822
▁hid	-11.7834
▁Höhlen	-11.7836
trag	-11.7841
rger	-11.7841
nseits	-11.7844
pol	-11.7852
▁anfäng	-11.7856
▁Teleskop	-11.7859
▁Beach	-11.7861
▁branch	-11.7863
▁Schwarze	-11.7867
▁coole	-11.7867
▁Alpha	-11.7869
▁Front	-11.787
▁east	-11.787
▁Früh	-11.787
▁Privat	-11.7871
gewebe	-11.7871
▁Besondere	-11.7871
▁Department	-11.7871
▁fabulous	-11.7871
▁herstellt	-11.7871
▁surveill	-11.7871
▁Benzin	-11.7871
▁currenc	-11.7871
▁Tesla	-11.7871
▁Schwanz	-11.7871
▁clay	-11.7871
▁chaos	-11.7871
▁herzlich	-11.7871
▁comparison	-11.7871
▁synthetic	-11.7871
▁Treibstoff	-11.7871
▁Produktivität	-11.7871
▁biodiversity	-11.7871
▁Kuchen	-11.7872
▁Antrieb	-11.7872
▁Kong	-11.7872
▁Schädel	-11.7872
▁winner	-11.7872
▁portion	-11.7872
▁Schall	-11.7874
▁1995	-11.7875
▁neck	-11.7875
▁Studium	-11.7877
▁Vorder	-11.7877
▁verteilen	-11.7878
rang	-11.7878
▁trivial	-11.7878
flu	-11.7879
▁attractive	-11.7879
▁locate	-11.7881
▁Güter	-11.7882
▁vieler	-11.7883
▁Winkel	-11.7885
▁vorgestellt	-11.7886
▁cliff	-11.7889
▁ausgegeben	-11.789
▁fange	-11.7891
▁entsprechend	-11.7892
▁geringe	-11.7895
▁3.	-11.7896
effekt	-11.7896
▁Original	-11.7903
amerikanische	-11.7906
fliegen	-11.7907
▁ausgehen	-11.7907
▁Ku	-11.791
▁leverage	-11.7911
play	-11.7911
▁dient	-11.7912
▁schreibe	-11.7914
▁Lama	-11.7915
ush	-11.7915
▁proof	-11.7915
▁dimension	-11.7919
▁Sta	-11.7919
▁volle	-11.7919
▁tötet	-11.7921
▁Spar	-11.7923
▁ruin	-11.7925
▁locked	-11.7927
▁auto	-11.7929
▁beträgt	-11.7932
▁harmon	-11.7932
▁camel	-11.7942
▁Ausgaben	-11.7942
han	-11.7946
▁underly	-11.7947
▁begreife	-11.7947
ddy	-11.7948
kul	-11.7948
ago	-11.7952
▁gefahren	-11.7955
▁gesch	-11.7958
▁Spring	-11.7966
▁wage	-11.7967
▁sammelt	-11.7981
▁bedeutende	-11.7987
ino	-11.7988
▁Reisen	-11.7991
▁behauptet	-11.7991
▁terror	-11.7996
▁Feedback	-11.8012
▁quest	-11.8013
▁Antarctic	-11.8014
▁Jerusalem	-11.8014
▁Phoenix	-11.8014
▁begleitet	-11.8014
▁kombiniert	-11.8014
▁motiviert	-11.8014
▁shrimp	-11.8014
▁Canyon	-11.8014
▁Praxis	-11.8014
▁dialogue	-11.8014
▁convey	-11.8014
bedingung	-11.8014
▁federal	-11.8014
▁elite	-11.8014
▁bullet	-11.8014
▁Balance	-11.8014
▁stunt	-11.8014
▁1930	-11.8014
▁Bürgermeister	-11.8014
▁Ehemann	-11.8014
▁ooh	-11.8014
▁Ernst	-11.8014
▁tragic	-11.8015
▁Erforschung	-11.8015
▁neat	-11.8015
▁debt	-11.8015
▁verhindert	-11.8016
▁southern	-11.8016
▁leak	-11.8016
bergang	-11.8016
ically	-11.8016
▁Amazonas	-11.8017
▁tropic	-11.8017
▁Acht	-11.8017
▁Staub	-11.8018
▁kg	-11.8018
▁amaze	-11.8018
▁ensure	-11.8019
▁Susan	-11.8019
▁garage	-11.802
▁programmiere	-11.8021
▁komplizierter	-11.8022
▁nutrient	-11.8023
▁Jean	-11.8024
boden	-11.8026
▁Ober	-11.8026
▁Emil	-11.8026
▁müsst	-11.8028
▁widme	-11.8029
▁globally	-11.8029
▁tired	-11.8032
▁erinnerte	-11.8035
▁negativ	-11.8039
▁richtet	-11.8042
▁echtes	-11.8042
ähnliche	-11.8045
▁trenne	-11.8046
ali	-11.8048
▁tension	-11.8049
Cola	-11.8049
▁Höhle	-11.805
▁opera	-11.8052
▁geling	-11.8053
▁Asteroiden	-11.8054
▁formal	-11.8056
▁komplexer	-11.8056
▁Statistik	-11.8057
▁beetle	-11.8061
▁resilienc	-11.8062
▁Ber	-11.8067
▁geworfen	-11.8068
▁angetrieben	-11.8069
▁duck	-11.807
▁Fest	-11.8074
▁Einblick	-11.8075
▁programmer	-11.8081
▁Gefahren	-11.8082
▁schief	-11.8083
▁sport	-11.8084
lö	-11.8099
▁schließ	-11.81
▁Denk	-11.81
▁wollt	-11.8101
▁award	-11.8104
wellen	-11.8108
gerufen	-11.8113
▁realm	-11.8117
▁defin	-11.8118
▁ratio	-11.8125
bert	-11.813
▁Ital	-11.8131
▁beer	-11.8137
▁announc	-11.8145
cus	-11.8146
▁entdeckten	-11.8147
▁einschließlich	-11.8147
▁Gestalt	-11.8156
sea	-11.8156
▁inject	-11.8158
kunst	-11.8159
▁Alaska	-11.8159
▁Bewohner	-11.8159
▁Disziplin	-11.8159
▁Jupiter	-11.8159
▁islamische	-11.8159
▁mysterious	-11.8159
▁recipe	-11.8159
▁substance	-11.8159
▁verdoppelt	-11.8159
▁verringern	-11.8159
▁besaß	-11.8159
▁Sylvia	-11.8159
▁inherent	-11.8159
▁Kennedy	-11.8159
▁käme	-11.8159
▁Beitrag	-11.8159
▁naked	-11.8159
▁expectanc	-11.8159
▁entwarf	-11.8159
▁supermarket	-11.8159
▁collaborative	-11.8159
▁Elektronik	-11.8159
▁colonies	-11.816
▁Einsicht	-11.816
▁Wale	-11.816
schluss	-11.8161
zuwenden	-11.8162
▁impression	-11.8162
▁ecological	-11.8162
▁vulnerability	-11.8164
▁präzise	-11.8164
▁entrepreneur	-11.8165
▁zurückkommen	-11.8166
▁Orchester	-11.8166
▁Kontroll	-11.8167
▁glückliche	-11.8167
▁dear	-11.8167
▁Hyper	-11.8167
▁zwang	-11.8168
▁verzweifelt	-11.8168
▁el	-11.8172
▁Alan	-11.8172
▁installation	-11.8175
▁ausdrücken	-11.8176
▁Bruc	-11.8179
▁tunnel	-11.8181
▁militärische	-11.8185
▁roots	-11.8187
▁highway	-11.8192
▁sacrifice	-11.8194
▁Are	-11.8195
▁bezieh	-11.8196
third	-11.8196
▁investor	-11.8197
▁populations	-11.8198
▁Stämme	-11.8198
▁tribe	-11.82
▁überprüf	-11.8204
forscher	-11.8209
fahr	-11.8211
züge	-11.8212
▁Poster	-11.8212
▁schwach	-11.8214
▁tent	-11.8217
▁Pilot	-11.8217
chu	-11.8219
▁umfassende	-11.8219
▁Fo	-11.8224
oma	-11.8224
▁44	-11.8226
äre	-11.8228
Energieverbrauch	-11.8229
wort	-11.8231
▁fragile	-11.8233
▁walks	-11.8233
verbrauchen	-11.8234
baren	-11.8239
▁ungewöhnliche	-11.8239
▁hanging	-11.8244
▁symbols	-11.8249
▁Gra	-11.8251
▁fanc	-11.8252
▁statistical	-11.8257
▁Raketen	-11.8259
▁faci	-11.8261
▁Oel	-11.8261
▁gewöhnliche	-11.8261
▁Bitte	-11.8264
▁vagina	-11.8266
▁fordert	-11.8266
▁determined	-11.8267
▁Journal	-11.8268
kette	-11.8277
▁plug	-11.8281
▁gewaltig	-11.8282
▁34	-11.8288
▁computation	-11.8289
▁dust	-11.829
▁Wei	-11.829
▁paradox	-11.8291
▁Besuch	-11.8292
▁Dichte	-11.8293
▁experienc	-11.8294
erkennung	-11.8296
sort	-11.8297
▁nachzu	-11.8301
▁capita	-11.8303
▁cheese	-11.8305
▁Bangladesh	-11.8306
▁Empathie	-11.8306
▁Schöne	-11.8306
▁Strahlung	-11.8306
▁akzeptiert	-11.8306
▁district	-11.8306
▁medication	-11.8306
▁simultaneous	-11.8306
▁Mikroskop	-11.8306
▁Branche	-11.8306
▁verknüpft	-11.8306
▁Schreibtisch	-11.8306
▁ignorance	-11.8306
▁Pocken	-11.8306
▁verlangen	-11.8306
▁Anhänger	-11.8306
▁burie	-11.8306
▁devil	-11.8307
▁Nike	-11.8307
srate	-11.8307
▁Nun	-11.8307
▁Mechanismus	-11.8307
▁Erwärmung	-11.8307
▁Gegenstand	-11.8307
▁highlight	-11.8308
▁tendenc	-11.8309
▁4,000	-11.8309
▁Konstruktion	-11.8314
▁Cal	-11.8314
▁Behinderung	-11.8315
▁suggestion	-11.8316
▁march	-11.8318
▁Manager	-11.832
▁ermutigen	-11.8322
▁spray	-11.8327
▁Pen	-11.8329
▁verblüffend	-11.833
▁effizient	-11.8331
ette	-11.8331
▁Cu	-11.8332
▁erect	-11.8333
▁Station	-11.8338
▁riesig	-11.8339
▁Fernseher	-11.834
gua	-11.8342
▁gefüllt	-11.8343
▁Pop	-11.8345
▁personaliz	-11.8345
fläche	-11.8346
▁soldier	-11.8349
▁Pra	-11.835
▁relations	-11.8351
book	-11.8354
▁Emission	-11.8357
▁Betracht	-11.8359
▁Evan	-11.8362
▁balls	-11.8364
▁Chirurg	-11.8366
lock	-11.8366
▁marker	-11.8366
▁ökologische	-11.8367
▁acquire	-11.8369
emen	-11.8371
▁repeated	-11.8376
▁greifen	-11.8378
▁cop	-11.8378
meter	-11.8378
▁washing	-11.8381
▁mail	-11.8383
▁liebste	-11.8383
ington	-11.8383
ulation	-11.8388
▁strangers	-11.839
▁Meme	-11.8391
meister	-11.8398
▁organische	-11.8403
liste	-11.8404
▁Arabisch	-11.8405
▁trainiere	-11.8407
zustand	-11.8408
▁demo	-11.8412
▁Bedürfnis	-11.8412
▁Maße	-11.8415
pass	-11.8415
▁employ	-11.842
dom	-11.8422
▁hearts	-11.8422
tausend	-11.8423
right	-11.8424
fu	-11.8425
▁Eigen	-11.8428
▁heirate	-11.8428
▁Held	-11.8429
▁Watt	-11.843
▁Tra	-11.8432
▁Kid	-11.8437
▁Techniken	-11.8437
weit	-11.8441
▁sensory	-11.8441
▁rocks	-11.8444
see	-11.8447
ire	-11.8449
▁beobachtete	-11.845
lig	-11.8453
▁i	-11.8453
kräfte	-11.8454
▁Black	-11.8455
▁consist	-11.8455
▁Council	-11.8455
▁Väter	-11.8455
▁expansion	-11.8455
▁gesünder	-11.8455
▁kombiniere	-11.8455
▁schmerzhaft	-11.8455
▁Nährstoffe	-11.8455
▁Octo	-11.8455
▁contemporar	-11.8455
▁erledige	-11.8455
▁rope	-11.8455
▁Arbeitsplätze	-11.8455
▁condom	-11.8455
▁NSA	-11.8455
▁array	-11.8455
▁Arbeitsplatz	-11.8456
▁Zahn	-11.8456
▁Gleichheit	-11.8456
▁Right	-11.8456
▁Heilung	-11.8456
▁geliebt	-11.8456
▁leise	-11.8456
▁Glühbirne	-11.8458
▁Prüfung	-11.8458
▁Bescheid	-11.8458
▁viewer	-11.8459
▁addict	-11.846
▁verarbeiten	-11.846
▁EU	-11.8461
▁Kapazität	-11.8461
▁alltägliche	-11.8462
▁verwandt	-11.8466
▁Kim	-11.8466
▁weh	-11.8467
▁gra	-11.8468
▁Management	-11.8469
▁pot	-11.847
▁tägliche	-11.847
▁sir	-11.8471
▁20.000	-11.8474
▁arriv	-11.8475
▁Spenden	-11.8476
kin	-11.8477
▁crossing	-11.8477
sagen	-11.8482
▁manual	-11.8484
▁damn	-11.8485
▁Lungen	-11.8486
jury	-11.8488
▁verliebt	-11.8492
,	-11.8495
figur	-11.8497
interest	-11.8497
▁Leser	-11.8498
look	-11.85
liege	-11.8503
▁reported	-11.8503
▁sin	-11.8506
ath	-11.8509
▁dung	-11.8511
▁bang	-11.8511
▁consum	-11.8514
▁magnet	-11.8522
▁unbekannte	-11.8522
stan	-11.8523
▁shopp	-11.8524
▁sicherer	-11.8526
▁Far	-11.8527
gelegt	-11.8528
▁panels	-11.8528
insel	-11.853
▁assembl	-11.8533
ima	-11.8535
▁Free	-11.8536
▁confus	-11.8536
▁recycle	-11.8539
ierende	-11.8545
▁Tricks	-11.8547
nahm	-11.8548
iff	-11.8548
tta	-11.8552
hnen	-11.8552
▁Führungs	-11.8552
▁climbing	-11.8556
▁gathering	-11.8556
▁Te	-11.8556
▁correspond	-11.8559
▁psycho	-11.8561
▁gemeinnützige	-11.8563
▁verrate	-11.8569
getreten	-11.8572
▁beschleunigt	-11.858
temperatur	-11.8582
▁pole	-11.8584
▁gerecht	-11.8588
bekommen	-11.8596
lf	-11.8596
▁Katzen	-11.8596
▁96	-11.8597
▁lasse	-11.8598
▁rüber	-11.8599
kb	-11.86
▁aufregende	-11.8605
▁Afghan	-11.8607
▁Völker	-11.8607
matrix	-11.8607
▁Flughafen	-11.8607
▁Optimismus	-11.8607
▁combat	-11.8607
▁glamor	-11.8607
▁multinational	-11.8607
▁unterscheidet	-11.8607
▁Himalaya	-11.8607
▁valley	-11.8607
▁unfair	-11.8607
▁Baseball	-11.8607
▁Seife	-11.8607
▁generell	-11.8607
▁beschützen	-11.8607
▁architectural	-11.8607
▁Nahrungs	-11.8607
▁Ladung	-11.8607
gegriffen	-11.8607
▁Austausch	-11.8607
▁ultra	-11.8607
▁Abendessen	-11.8607
▁slavery	-11.8607
▁primari	-11.8607
▁Columbia	-11.8607
▁euer	-11.8608
▁mood	-11.8608
▁Apfel	-11.8609
▁mask	-11.8609
▁homework	-11.8609
▁1994	-11.861
▁weitermache	-11.8611
▁Haltung	-11.8611
▁heb	-11.8612
▁berechnet	-11.8612
▁interpretation	-11.8613
▁pathway	-11.8613
▁ignoriert	-11.8614
▁honey	-11.8616
▁routine	-11.8618
werten	-11.8619
▁Individuum	-11.8619
▁Personal	-11.862
omi	-11.8622
▁Bel	-11.8624
wan	-11.8625
▁palm	-11.8628
▁strand	-11.863
einheit	-11.8631
▁Mannes	-11.8639
zubauen	-11.8645
iness	-11.8645
ika	-11.865
Sahara	-11.8651
▁niedriger	-11.8651
space	-11.8651
die	-11.8653
oon	-11.8658
▁beliebige	-11.866
rö	-11.8662
▁rap	-11.8663
▁Magazin	-11.8664
▁bars	-11.8666
ward	-11.8668
▁erschien	-11.8672
zimmer	-11.8674
▁schießen	-11.8675
▁Anreize	-11.8675
wie	-11.8681
▁failing	-11.8687
isierte	-11.8691
▁reliabl	-11.8701
geräte	-11.8702
▁dancer	-11.8707
▁Gewinner	-11.8707
▁Spuren	-11.8708
▁grave	-11.8709
▁grob	-11.8712
▁klare	-11.8726
▁Mais	-11.8727
▁unmittelbar	-11.8731
▁needle	-11.8731
▁expanding	-11.8736
▁Oper	-11.8737
erin	-11.8737
▁Blind	-11.8739
▁concentrate	-11.8741
▁drift	-11.8746
▁merkte	-11.8747
▁Eigentum	-11.875
anda	-11.8751
▁Magnet	-11.8752
▁erziel	-11.8755
▁ego	-11.8756
▁suspend	-11.8757
sonst	-11.8758
▁radikal	-11.8759
shelf	-11.876
▁Francis	-11.876
▁Alkohol	-11.876
Jährige	-11.876
▁Analogie	-11.876
▁Kohlendioxid	-11.876
▁creator	-11.876
▁cricket	-11.876
▁expedition	-11.876
▁gegessen	-11.876
▁muslimische	-11.876
▁sacred	-11.876
▁scheitern	-11.876
▁vacuum	-11.876
▁Privileg	-11.876
▁alcohol	-11.876
▁Dutch	-11.876
▁geplant	-11.8761
▁bribe	-11.8761
▁umfasst	-11.8761
▁Autorität	-11.8761
▁neueste	-11.8761
▁Gift	-11.8761
▁abgeschlossen	-11.8761
▁Kapitalismus	-11.8761
▁assignment	-11.8761
▁Iranian	-11.8762
▁native	-11.8763
▁Faser	-11.8764
▁grasp	-11.8764
▁bewirkt	-11.8765
▁drivers	-11.8766
▁grandchildren	-11.8767
▁Geschäftsmodell	-11.8767
▁measurement	-11.8768
▁trage	-11.8768
▁Julia	-11.877
▁ethnische	-11.8771
▁50.000	-11.8772
▁warf	-11.8773
firma	-11.8773
▁spannend	-11.8774
▁Lehre	-11.8775
▁coordinat	-11.8777
anz	-11.8778
sländer	-11.8778
▁Veranstaltung	-11.878
▁Institut	-11.8782
▁deutsche	-11.8782
▁acknowledge	-11.8784
▁prepare	-11.8785
▁gewissermaß	-11.8786
▁Min	-11.8791
tik	-11.8793
ership	-11.8794
▁gering	-11.8796
sucht	-11.8796
▁blicken	-11.8799
▁Salz	-11.8803
▁aufeinander	-11.8805
ark	-11.8809
▁geleitet	-11.8811
thane	-11.8816
▁parasite	-11.8817
▁stands	-11.8818
▁comic	-11.8821
▁producer	-11.8828
ram	-11.8836
▁integrat	-11.8837
▁0	-11.8837
▁Unterwasser	-11.8839
▁Flasche	-11.884
▁Ger	-11.8844
chten	-11.8846
sel	-11.8847
▁capabilit	-11.8854
▁joint	-11.8861
▁Biologe	-11.8863
▁believ	-11.8864
uanten	-11.8867
▁mechanisms	-11.8869
▁beendet	-11.8869
▁Rollen	-11.887
▁Tele	-11.8873
lte	-11.8873
▁shocking	-11.8876
wir	-11.8878
▁Nichts	-11.8882
▁On	-11.8885
urkey	-11.8885
▁fate	-11.8886
▁Gleich	-11.8892
▁unver	-11.8892
schieben	-11.8895
▁stattfinden	-11.8896
▁Lehr	-11.8897
▁warning	-11.8899
▁Zentral	-11.8901
▁allzu	-11.8901
zelle	-11.8906
▁erweitert	-11.8908
▁Wechsel	-11.8914
▁recommend	-11.8915
▁Einheiten	-11.8916
stöß	-11.8917
▁Engagement	-11.8917
▁Jefferson	-11.8917
▁Mühe	-11.8917
▁Namibia	-11.8917
▁Portugal	-11.8917
▁Sputnik	-11.8917
▁TEDGlobal	-11.8917
▁choosing	-11.8917
▁hypothesis	-11.8917
▁iPad	-11.8917
▁territor	-11.8917
▁threshold	-11.8917
▁thrill	-11.8917
▁tweet	-11.8917
▁Tendenz	-11.8917
▁Treppe	-11.8917
▁Kelly	-11.8917
▁Bindung	-11.8917
▁extension	-11.8917
▁Bonobo	-11.8917
▁Sprung	-11.8917
▁Thailand	-11.8917
▁Where	-11.8917
▁grösser	-11.8917
▁versagt	-11.8917
▁Republican	-11.8918
▁blink	-11.8918
▁contribution	-11.8918
▁primate	-11.8919
stelle	-11.892
▁Wörterbuch	-11.8922
▁Weltbank	-11.8926
▁dumb	-11.8926
▁helpful	-11.8929
▁Programmierer	-11.8929
▁Dave	-11.8932
▁Verbraucher	-11.8933
▁Rechner	-11.8933
▁uncertaint	-11.8934
▁toys	-11.8934
▁involviert	-11.8934
lip	-11.8934
▁Erfindungen	-11.8934
rous	-11.8937
uten	-11.8937
▁Genie	-11.8939
▁Lang	-11.8939
▁dreimal	-11.8941
▁lenken	-11.8942
▁fliegende	-11.8942
▁billiger	-11.8943
▁Zone	-11.8944
▁dedicat	-11.8944
▁AK	-11.8945
▁geblieben	-11.8946
▁magni	-11.8949
press	-11.895
▁Säugetiere	-11.895
▁compromise	-11.895
qua	-11.8956
gründe	-11.8958
▁tackle	-11.8959
karte	-11.8961
▁wertvolle	-11.8964
▁mechanic	-11.8964
assembl	-11.8965
fähigkeit	-11.8966
▁Lücke	-11.8968
▁Nachbar	-11.8969
▁Schlange	-11.8969
▁studierte	-11.8973
▁introduc	-11.8975
▁Judi	-11.8975
▁dose	-11.8976
▁Kriege	-11.8978
produkt	-11.8979
artig	-11.898
▁Hilfs	-11.8981
▁Hals	-11.8984
▁agency	-11.8984
▁Welle	-11.8984
gebiet	-11.8986
▁Kiste	-11.8987
▁Stu	-11.8992
▁shirt	-11.8993
▁wieviele	-11.8996
kor	-11.8996
▁cartoons	-11.9002
haut	-11.9006
▁weiterentwickel	-11.9014
rück	-11.9014
▁Autoren	-11.9015
▁spiele	-11.902
stage	-11.903
▁Fahrt	-11.9032
▁Figuren	-11.9037
▁heilige	-11.9039
▁luck	-11.9044
▁sail	-11.9045
▁owner	-11.905
programme	-11.905
▁simp	-11.9054
▁Kommunikations	-11.9057
▁praktische	-11.9058
▁Nadi	-11.9058
▁eingehen	-11.9061
▁mimic	-11.9062
▁Stan	-11.9067
▁Hut	-11.9067
▁verkaufte	-11.9069
▁Wunde	-11.9069
▁compete	-11.9072
körper	-11.9072
▁anonym	-11.9075
▁instinct	-11.9075
▁Thank	-11.9075
▁Oktober	-11.9075
▁Pazifik	-11.9075
▁Schwerkraft	-11.9075
▁dopamine	-11.9075
▁erledigt	-11.9075
▁nördlich	-11.9075
▁unangenehm	-11.9075
▁Substanz	-11.9075
▁civic	-11.9075
▁Voraussetzung	-11.9075
▁fraction	-11.9075
▁optimism	-11.9075
▁Mentor	-11.9076
▁Venus	-11.9076
▁Sudan	-11.9076
▁Auffassung	-11.9076
▁Montana	-11.9076
▁nonprofit	-11.9076
▁chromosome	-11.9076
▁Egyptian	-11.9076
▁Versagen	-11.9076
▁concentration	-11.9077
▁permission	-11.9077
▁kidney	-11.9077
▁strategic	-11.9078
▁stake	-11.9078
▁appearance	-11.9078
▁Mutation	-11.9079
smöglichkeit	-11.9079
▁Rauch	-11.9079
ture	-11.9079
▁selfish	-11.908
▁coach	-11.908
▁Route	-11.9081
▁Chor	-11.9081
▁zweieinhalb	-11.9081
▁filmmaker	-11.9082
zeug	-11.9082
▁erheblich	-11.9085
▁Sunday	-11.9086
▁liest	-11.9086
park	-11.9086
▁Griff	-11.909
▁30,000	-11.909
▁stieß	-11.9091
deckt	-11.9092
▁anzuschauen	-11.9093
▁47	-11.9094
▁Cloud	-11.9094
verkehr	-11.9094
rid	-11.9095
▁whistle	-11.9098
▁soup	-11.9102
▁Jordan	-11.9103
air	-11.9103
▁Halb	-11.9106
▁Za	-11.9107
sia	-11.9107
▁upside	-11.9107
▁Designs	-11.9108
▁sendet	-11.911
▁Bewusstseins	-11.911
▁bound	-11.9113
▁projection	-11.9113
▁Kreislauf	-11.9116
▁autonom	-11.9123
ahn	-11.9124
▁folgender	-11.9125
▁abend	-11.9126
▁Ta	-11.9129
fällig	-11.9129
HC	-11.9129
▁Ameise	-11.913
▁Genome	-11.9132
▁tags	-11.914
▁describ	-11.9143
▁17.	-11.9143
▁imager	-11.9146
▁ausführen	-11.9148
▁Prototyp	-11.9149
▁manipulate	-11.915
▁trainiert	-11.9152
▁Journalisten	-11.9154
▁schw	-11.9155
uß	-11.9157
▁Carol	-11.9158
ellen	-11.9163
▁classical	-11.9165
▁weinen	-11.9167
lösung	-11.9168
▁Schild	-11.9169
ueen	-11.917
13	-11.917
▁Pferde	-11.918
▁Poe	-11.9181
▁Ob	-11.9182
▁ka	-11.9185
▁Han	-11.9187
▁mixed	-11.9191
set	-11.9192
orientierte	-11.9194
▁verbreitete	-11.9196
▁ungeheuer	-11.9197
▁achiev	-11.9197
▁unsichtbare	-11.9199
nahme	-11.9201
position	-11.9202
▁sanit	-11.9207
▁Nigerian	-11.9208
zeitig	-11.9209
▁instant	-11.9212
ode	-11.9214
▁spark	-11.922
▁prior	-11.9223
▁Mil	-11.9226
flug	-11.9226
La	-11.9228
▁horizon	-11.9229
Geheimnisse	-11.9229
▁Bergen	-11.9231
▁Lesen	-11.9231
▁Rechen	-11.9233
▁Kranken	-11.9234
▁brave	-11.9235
▁luxur	-11.9236
▁Deutsch	-11.9236
▁slave	-11.9236
▁Disney	-11.9236
▁Pyramide	-11.9237
▁Töchter	-11.9237
▁anxiety	-11.9237
▁aufmerksam	-11.9237
▁curriculum	-11.9237
▁wheelchair	-11.9237
▁unheimlich	-11.9237
▁snake	-11.9237
▁regulation	-11.9237
▁Stoffwechsel	-11.9237
▁broadcast	-11.9237
▁spontaneous	-11.9237
▁Italian	-11.9237
▁glow	-11.9237
bruch	-11.9238
▁Liberia	-11.9238
▁Tafel	-11.9238
▁bediene	-11.9239
▁tanzt	-11.9239
▁infant	-11.924
▁mindset	-11.924
▁verfügen	-11.924
▁electrode	-11.9241
▁Rachel	-11.9242
▁Mist	-11.9242
▁Johnny	-11.9242
▁aufwuchs	-11.9242
▁pos	-11.9244
▁endet	-11.9245
▁Ego	-11.9246
▁Horizont	-11.9248
▁shit	-11.925
▁hitting	-11.9251
▁züchte	-11.9254
▁Sprecher	-11.9256
▁stattfinde	-11.9259
▁tritt	-11.9259
▁Organism	-11.9262
liv	-11.9264
▁86	-11.9267
▁fusion	-11.9268
räumen	-11.9269
▁Besitzer	-11.9272
▁woke	-11.9273
strecken	-11.9273
▁mobil	-11.9275
▁zahlreiche	-11.9278
▁Elektronen	-11.9278
führt	-11.9279
▁incident	-11.9284
related	-11.9285
fühlen	-11.9286
▁durchgehen	-11.9288
▁tile	-11.929
▁memes	-11.929
▁klingen	-11.9292
▁Nächste	-11.9292
▁entschlossen	-11.9296
▁Extra	-11.9298
▁Juan	-11.9299
▁verständlich	-11.9301
▁terrorist	-11.9303
▁öffnete	-11.9307
▁insist	-11.9309
▁Neil	-11.9315
verse	-11.9316
arch	-11.932
gab	-11.9321
▁expose	-11.9322
mine	-11.9323
▁heal	-11.9324
▁mild	-11.933
▁god	-11.933
▁Fahr	-11.933
▁shine	-11.9343
▁Falt	-11.9348
▁Mel	-11.9351
▁450	-11.9353
▁lehrt	-11.9355
ook	-11.9358
▁Fundament	-11.9358
▁senk	-11.936
phy	-11.9361
▁Toiletten	-11.9362
▁Inseln	-11.9365
▁Cola	-11.9366
▁cosm	-11.9367
▁konstruiert	-11.9369
▁Magazine	-11.9369
▁stranger	-11.9372
▁dünne	-11.9375
▁Effekte	-11.9375
▁singer	-11.9379
▁echter	-11.938
▁eröffne	-11.9382
▁shin	-11.9382
▁finanzier	-11.9382
▁kluge	-11.9382
▁Güte	-11.9387
probleme	-11.939
lagen	-11.9391
ardino	-11.9392
▁Möbel	-11.9394
nia	-11.9399
▁disturb	-11.94
ologie	-11.94
▁Digital	-11.94
fabrik	-11.9401
▁Bangalore	-11.9401
▁Bedauern	-11.9401
▁Cameron	-11.9401
▁Direktor	-11.9401
▁FDA	-11.9401
▁Getreide	-11.9401
▁Konzentration	-11.9401
▁Phosphor	-11.9401
▁analysiert	-11.9401
▁antibiotic	-11.9401
▁endanger	-11.9401
▁motivieren	-11.9401
▁theoretical	-11.9401
▁tsunami	-11.9401
▁verheiratet	-11.9401
▁closing	-11.9401
▁Nepal	-11.9401
▁twin	-11.9401
▁Streben	-11.9401
▁Töne	-11.9401
▁Wolfram	-11.9401
▁Distanz	-11.9401
▁Flüsse	-11.9401
▁Tanzania	-11.9401
▁Hilfsmittel	-11.9401
▁erstaunt	-11.9401
▁fool	-11.9401
analyse	-11.9401
▁Ausschnitt	-11.9401
▁marketplace	-11.9401
▁Kluft	-11.9402
▁nerd	-11.9402
▁tongue	-11.9402
▁Garage	-11.9402
▁Coke	-11.9402
▁Jackson	-11.9402
▁kiss	-11.9402
▁dick	-11.9402
▁collaborator	-11.9402
▁Mischung	-11.9402
▁Lago	-11.9403
isela	-11.9404
▁capabilities	-11.9405
wind	-11.9405
ada	-11.9408
▁Stone	-11.9409
▁185	-11.9409
uk	-11.941
▁Demonstration	-11.9411
▁confident	-11.9411
▁anhalten	-11.9412
▁beantwortet	-11.9412
fügen	-11.9412
statt	-11.9414
▁homeless	-11.9414
▁Kunststoff	-11.9414
▁Automobil	-11.9416
▁Eu	-11.9421
▁Impfstoff	-11.9424
förmige	-11.9426
link	-11.9426
thiopien	-11.9429
krise	-11.9429
▁refuse	-11.9431
▁Messer	-11.9433
▁tar	-11.9433
free	-11.9434
▁sticks	-11.9434
cca	-11.9437
▁Formel	-11.9437
▁cats	-11.9439
▁Ei	-11.9445
ome	-11.9445
▁häufiger	-11.9446
▁Offenhe	-11.9446
▁Medikamenten	-11.9447
▁evolutionäre	-11.9448
▁mittlere	-11.9451
▁konzentrierte	-11.9454
▁interior	-11.9456
▁aktive	-11.9456
human	-11.9459
▁Interessante	-11.9459
behörde	-11.946
▁Kolonie	-11.946
rotten	-11.9462
▁Ga	-11.9464
▁herrscht	-11.9467
▁rotate	-11.9473
▁Geschmack	-11.9473
▁egg	-11.9478
▁victim	-11.9478
löschen	-11.9479
▁Bud	-11.9482
ui	-11.9483
▁specialize	-11.9486
▁wartete	-11.9487
Mo	-11.9492
▁betreten	-11.9494
▁nuts	-11.9495
▁pulse	-11.9496
code	-11.9496
▁Skulptur	-11.9497
▁rats	-11.9497
▁traditionell	-11.9503
▁regional	-11.9508
▁views	-11.9511
▁formt	-11.9512
▁appreciat	-11.9516
therapie	-11.9523
▁fl	-11.9527
▁künstlerische	-11.9529
▁Hol	-11.953
leitung	-11.9532
▁formula	-11.9542
▁Maya	-11.9548
▁Wohl	-11.9551
▁div	-11.9553
▁sandwich	-11.9554
ohn	-11.9554
▁bewegte	-11.9558
▁Vier	-11.9559
▁hasse	-11.9559
▁ne	-11.9561
▁exhibit	-11.9565
▁distinct	-11.9565
▁Technolog	-11.9566
▁Alltag	-11.9566
rechnung	-11.9567
cent	-11.9567
▁Verwaltung	-11.9567
▁Gewohnheit	-11.9567
▁Installation	-11.9567
▁Nicole	-11.9567
▁PowerPoint	-11.9567
▁Verzweiflung	-11.9567
▁eBay	-11.9567
▁hybrid	-11.9567
▁Widerspruch	-11.9567
▁troop	-11.9567
▁Mittagessen	-11.9567
▁chamber	-11.9567
▁leaf	-11.9567
▁Gehör	-11.9567
▁Tropf	-11.9567
▁grausam	-11.9567
▁vereint	-11.9568
▁Plätze	-11.9568
▁Gewässer	-11.9568
▁pride	-11.9568
▁Nathan	-11.9568
▁signature	-11.9568
▁barrel	-11.9568
▁Cyber	-11.9568
▁Unfälle	-11.9568
▁Dauer	-11.9568
▁draus	-11.9568
▁Rhythmus	-11.9568
▁versorgt	-11.9569
▁baseball	-11.9569
▁subway	-11.9569
▁crew	-11.9569
▁addiction	-11.9569
▁Tinte	-11.957
▁cake	-11.957
▁restliche	-11.9571
▁Jill	-11.9571
▁stamp	-11.9571
▁komische	-11.9571
▁Interpretation	-11.9572
▁Jenni	-11.9573
▁anzugeh	-11.9573
▁Deze	-11.9573
▁PR	-11.9574
▁March	-11.9574
▁lucki	-11.9575
▁detector	-11.9576
▁distinguish	-11.9576
▁innocent	-11.9579
▁bush	-11.958
▁uniform	-11.9581
▁auftauchen	-11.9583
▁factories	-11.9585
▁trap	-11.9589
▁constraint	-11.9591
▁Fotograf	-11.9593
▁sixth	-11.9593
▁Master	-11.9599
▁fastest	-11.9599
unk	-11.9606
▁Origami	-11.9608
mitglieder	-11.961
▁Hör	-11.9615
▁rape	-11.9619
▁Play	-11.9621
▁ending	-11.9625
▁ink	-11.9626
while	-11.9627
kontrolle	-11.9627
▁tin	-11.9634
▁suchten	-11.9638
räumt	-11.9639
▁interaktive	-11.9639
▁46	-11.964
ake	-11.9642
▁mm	-11.9643
▁radikale	-11.9646
▁Kauf	-11.9648
▁süß	-11.9649
▁Ham	-11.9653
For	-11.9658
▁Amt	-11.9658
acht	-11.9658
▁Anreiz	-11.9661
▁miserable	-11.9662
ai	-11.9664
issen	-11.9667
▁Chirurgen	-11.9667
▁logical	-11.967
▁Pink	-11.967
reicht	-11.9672
immer	-11.9676
turm	-11.9678
▁additional	-11.968
▁folgte	-11.9681
▁pad	-11.9687
▁einfachste	-11.9691
▁Vereinte	-11.9691
▁Demokrat	-11.9693
gehört	-11.9696
va	-11.9698
aday	-11.9699
▁wrap	-11.9703
▁bats	-11.9705
▁Bomben	-11.9708
▁Küchen	-11.9717
▁direkte	-11.9725
▁habits	-11.9725
spiegel	-11.9729
▁dial	-11.9731
gesetzt	-11.9733
ociety	-11.9734
▁Erscheinung	-11.9736
▁Bewertung	-11.9737
▁glamour	-11.9737
▁ultimative	-11.9737
risiko	-11.9737
▁Gerüst	-11.9737
▁Gravitation	-11.9737
▁Zuhörer	-11.9737
▁amateur	-11.9737
▁jahrelang	-11.9737
▁jazz	-11.9737
▁Großvater	-11.9737
▁Trinkwasser	-11.9737
▁Herkunft	-11.9737
▁garbage	-11.9737
▁intimate	-11.9737
▁Führungskräfte	-11.9737
▁cyber	-11.9737
▁reproduce	-11.9737
▁banana	-11.9737
▁MoMA	-11.9737
▁bestätigt	-11.9737
▁Unsicherheit	-11.9737
▁Supermarkt	-11.9737
▁terra	-11.9737
▁Methan	-11.9737
▁annual	-11.9737
▁träumen	-11.9737
▁repräsentiere	-11.9738
▁Fischerei	-11.9738
▁mapping	-11.9738
▁dawn	-11.9739
▁Abstand	-11.974
▁Doug	-11.974
▁commission	-11.9741
some	-11.9742
▁UV	-11.9742
▁beam	-11.9743
geber	-11.9745
▁Königin	-11.9745
▁Vo	-11.9746
▁Partnerschaft	-11.9748
▁verhält	-11.9748
▁lobe	-11.9749
Hu	-11.9749
▁Altern	-11.975
ros	-11.975
▁integriert	-11.9753
▁unsicher	-11.9753
▁register	-11.9753
▁Meister	-11.9758
▁12-	-11.976
▁Bildungssystem	-11.976
gram	-11.9761
geist	-11.9762
▁gigantische	-11.9765
▁ewig	-11.9765
take	-11.9766
▁attribute	-11.9769
lager	-11.9769
reißen	-11.9772
▁Verkauf	-11.9774
▁youth	-11.9779
hren	-11.9782
glasses	-11.9782
▁Werten	-11.9783
ives	-11.9785
▁format	-11.9785
▁Mother	-11.9786
▁vergleich	-11.9789
▁52	-11.979
▁Diplomat	-11.9792
▁furchtbar	-11.9796
▁Korean	-11.9798
Kopf	-11.9799
▁wünschen	-11.981
Tech	-11.9813
▁Profit	-11.9814
igung	-11.9815
lar	-11.9817
▁Grundstück	-11.9821
▁versicher	-11.9822
▁hill	-11.9822
text	-11.9822
uit	-11.9824
▁befasse	-11.9825
▁panel	-11.9827
▁benötigte	-11.9827
▁geheime	-11.9828
▁flowing	-11.9832
▁erwähnte	-11.9835
▁gefährdet	-11.9835
▁bored	-11.9835
▁effektiver	-11.9837
▁zusammenzu	-11.9844
▁kurzer	-11.9844
▁tone	-11.9844
▁Lis	-11.9845
▁preserv	-11.9849
kamen	-11.985
▁existierende	-11.9856
▁umsetzen	-11.986
▁herauskomm	-11.9863
lag	-11.9868
▁Blasen	-11.9871
alai	-11.9872
▁vot	-11.9874
▁exponential	-11.9877
▁mu	-11.9879
▁Such	-11.988
▁rivers	-11.9882
gle	-11.9896
▁geometr	-11.9898
▁export	-11.99
gelaufen	-11.9904
▁Dreh	-11.9907
▁included	-11.9907
bertragung	-11.9909
▁Kosov	-11.9909
▁1,5	-11.9909
▁Knoten	-11.9909
vergrößern	-11.9909
▁Academ	-11.9909
▁Flagge	-11.9909
▁Ignoranz	-11.9909
▁Michigan	-11.9909
▁Mögliche	-11.9909
▁Natasha	-11.9909
▁Ushahidi	-11.9909
▁Währung	-11.9909
▁chaotisch	-11.9909
▁chronic	-11.9909
▁contrar	-11.9909
▁diamond	-11.9909
▁überqueren	-11.9909
▁chimp	-11.9909
▁verboten	-11.9909
▁probiert	-11.9909
▁triangle	-11.9909
▁Unabhängigkeit	-11.9909
▁160	-11.9909
▁fence	-11.9909
▁Solarenergie	-11.9909
EDI	-11.991
▁Klick	-11.991
▁representative	-11.991
▁enforce	-11.991
▁Raumschiff	-11.9911
▁generous	-11.9911
▁Menschenrechte	-11.9911
▁Diego	-11.9911
▁compassionate	-11.9911
▁Barry	-11.9912
▁weekend	-11.9912
▁graphics	-11.9913
▁workplace	-11.9913
▁detection	-11.9914
law	-11.9914
▁schenke	-11.9914
▁ta	-11.9915
▁Northern	-11.9917
▁Regal	-11.9917
▁gelähmt	-11.9918
▁vergleichbar	-11.9919
▁enhance	-11.9919
bus	-11.992
▁Glaubens	-11.992
▁genetically	-11.992
▁lügen	-11.9921
▁reflection	-11.9921
▁vergewaltigt	-11.9924
▁zwingen	-11.9925
▁traditions	-11.9929
▁Norwegen	-11.993
av	-11.9932
▁misst	-11.9937
zeichnen	-11.9937
▁vorkommen	-11.9937
▁Bären	-11.9938
▁institutional	-11.994
▁Leone	-11.9941
▁Sag	-11.9942
losigkeit	-11.9948
▁Brücken	-11.9949
▁interessantes	-11.995
▁Handels	-11.9951
born	-11.9952
ordnung	-11.9958
▁Muslime	-11.9959
sha	-11.9961
sitz	-11.9963
▁Taten	-11.9968
▁combin	-11.9968
▁angel	-11.9969
▁53	-11.9969
region	-11.9972
▁Net	-11.9972
Modell	-11.9975
▁merkwürdig	-11.9975
▁Zweiten	-11.9976
▁Besten	-11.9978
clock	-11.9979
wal	-11.9979
anlagen	-11.998
▁Moon	-11.998
▁spinn	-11.9981
▁4.	-11.9983
staat	-11.9984
▁le	-11.9984
▁exponentiell	-11.999
leute	-11.9992
▁radi	-11.9994
▁derzeitige	-11.9994
▁landet	-11.9994
page	-11.9995
▁Fels	-11.9996
▁Felsen	-11.9996
▁Insekt	-11.9997
ay	-11.9998
▁purchase	-11.9999
▁lieb	-11.9999
▁eingestellt	-12
▁Maria	-12.0001
▁conservative	-12.0001
▁update	-12.0002
▁Kurze	-12.0003
▁Gr	-12.0005
labor	-12.0009
transportieren	-12.0011
squalität	-12.0012
▁überwach	-12.0016
▁Genen	-12.0021
▁Oma	-12.0026
▁qualit	-12.0026
▁Kam	-12.0027
▁Bart	-12.0029
▁Hal	-12.0029
▁ironic	-12.0039
▁Ali	-12.0042
läuf	-12.0047
▁Tode	-12.0055
▁Schichten	-12.0058
▁Ring	-12.006
cha	-12.0062
▁irgend	-12.0068
ibera	-12.0069
▁romantische	-12.0072
pfel	-12.0073
tischen	-12.0073
▁sketch	-12.0074
▁Williams	-12.0077
▁virtue	-12.008
▁exam	-12.0081
▁arrow	-12.0085
▁crystal	-12.0085
Herangehensweise	-12.0085
▁Bakterium	-12.0085
▁Margaret	-12.0085
▁Matrix	-12.0085
▁Michelangelo	-12.0085
▁Philadelphia	-12.0085
▁bräuchte	-12.0085
▁burden	-12.0085
▁crawl	-12.0085
▁dilemma	-12.0085
▁fröhlich	-12.0085
▁glimpse	-12.0085
▁remix	-12.0085
▁unemploy	-12.0085
▁verwirrt	-12.0085
▁Dopamin	-12.0085
▁Goliath	-12.0085
▁confirm	-12.0085
▁tattoo	-12.0085
▁versetzt	-12.0085
▁cotton	-12.0085
▁Court	-12.0085
▁twenty	-12.0085
▁externe	-12.0085
▁crush	-12.0085
▁rethink	-12.0085
▁impressive	-12.0085
▁akademische	-12.0085
▁phosphorus	-12.0085
▁fotografiere	-12.0085
▁Königreich	-12.0085
▁effizienter	-12.0085
▁canopy	-12.0085
▁Panik	-12.0085
krankheit	-12.0085
▁speichern	-12.0085
▁Autobahn	-12.0086
▁uralte	-12.0086
Krankenschwester	-12.0086
▁shout	-12.0086
▁streng	-12.0086
▁Sturm	-12.0087
▁fortgeschritten	-12.0087
▁Warren	-12.0087
▁ausgezeichnet	-12.0087
▁Sorte	-12.0087
Gordon	-12.0087
▁Ernte	-12.0088
landschaft	-12.0088
▁97	-12.0089
▁nano	-12.0089
▁Liter	-12.009
brachte	-12.0091
▁Hersteller	-12.0091
▁geek	-12.0091
▁Vega	-12.0091
▁Astronom	-12.0092
▁slime	-12.0092
▁jet	-12.0093
▁prevention	-12.0093
▁LKW	-12.0094
▁180	-12.0094
▁cod	-12.0096
▁rubber	-12.0096
▁eingeschlossen	-12.0096
▁1991	-12.0097
▁Hmm	-12.0098
▁Ost	-12.0099
▁programmiert	-12.0099
istisch	-12.01
Welt	-12.01
▁competitive	-12.0101
▁interrupt	-12.0101
aku	-12.0105
gging	-12.0106
▁serving	-12.0106
▁streiten	-12.011
▁static	-12.0115
▁Symbole	-12.0115
▁winning	-12.0115
▁Innen	-12.0116
▁Gran	-12.0116
reiche	-12.012
lvani	-12.012
▁instantly	-12.012
▁blogs	-12.012
▁Hell	-12.0125
▁Küsten	-12.0125
▁beginne	-12.0125
▁anticipate	-12.0126
▁nutzte	-12.0132
▁tagg	-12.0132
▁wedding	-12.0132
▁0.	-12.0136
▁verbrennen	-12.0142
▁6.	-12.0143
achtung	-12.0145
▁hunter	-12.0145
▁Montag	-12.0148
▁körperlich	-12.0148
bereiten	-12.0151
four	-12.0156
▁lauter	-12.0157
▁zuzu	-12.0157
▁aktivier	-12.0157
▁2,5	-12.0159
ular	-12.016
▁5.	-12.016
▁schau	-12.0163
Test	-12.0164
▁Listen	-12.0166
▁Grab	-12.0166
▁naive	-12.0167
▁Bach	-12.0169
▁Abu	-12.0172
▁rose	-12.0172
▁rennen	-12.0175
▁aktiviert	-12.0176
▁infection	-12.0189
▁aktuell	-12.0194
▁gleicher	-12.0198
▁irre	-12.0203
▁tra	-12.0206
spalt	-12.0208
▁corporations	-12.0209
▁ethnic	-12.021
▁reale	-12.0211
▁chas	-12.0213
▁basieren	-12.0214
▁ankommen	-12.0214
▁140	-12.0215
▁redete	-12.0215
▁reine	-12.0217
▁navigate	-12.0218
▁bewerte	-12.0218
uel	-12.0221
▁herab	-12.0221
▁explode	-12.0221
gun	-12.0226
fordern	-12.0228
▁vari	-12.0236
▁Roll	-12.0236
lehnen	-12.0236
▁Türke	-12.0237
put	-12.024
▁Fußball	-12.0241
▁makers	-12.0244
▁Ann	-12.0246
▁geb	-12.0249
▁jüngere	-12.0251
▁organisierte	-12.0252
▁tödliche	-12.0252
netzwerk	-12.0255
▁intensiv	-12.0257
rwärmung	-12.0262
▁Tibet	-12.0262
aktivität	-12.0262
eil	-12.0262
▁Phantom	-12.0263
▁Anwälte	-12.0263
▁CRISPR	-12.0263
▁Expedition	-12.0263
▁Palestinian	-12.0263
▁Teppich	-12.0263
▁Tsunami	-12.0263
▁Zentimeter	-12.0263
▁awkward	-12.0263
▁beeindruckt	-12.0263
▁beschleunigen	-12.0263
▁bewältigen	-12.0263
▁gefolg	-12.0263
▁gewohnt	-12.0263
▁pharmaceutical	-12.0263
▁pizza	-12.0263
▁prosthetic	-12.0263
▁shrink	-12.0263
▁steigern	-12.0263
▁terrifying	-12.0263
▁unprecedented	-12.0263
▁wörtlich	-12.0263
▁Spanish	-12.0263
▁glamourös	-12.0263
▁schwanger	-12.0263
▁Hawking	-12.0263
▁ubiquitous	-12.0263
▁enterprise	-12.0263
▁Immunsystem	-12.0263
▁straightforward	-12.0263
▁Kühe	-12.0263
▁Selektion	-12.0264
▁Auflösung	-12.0264
▁Luxus	-12.0264
▁cruel	-12.0264
▁Christ	-12.0264
frage	-12.0264
▁marry	-12.0264
▁Redner	-12.0264
▁betonen	-12.0264
haufen	-12.0264
▁watt	-12.0265
▁refine	-12.0265
▁sponsor	-12.0265
▁visualization	-12.0265
blatt	-12.0266
▁agreement	-12.0267
gereist	-12.0268
▁sill	-12.0269
▁archive	-12.0269
▁disconnect	-12.027
▁stärkste	-12.0272
▁Rollstuhl	-12.0272
▁Galerie	-12.0274
▁Asian	-12.0275
▁athlete	-12.0277
▁geprägt	-12.0278
▁settle	-12.0279
trick	-12.0279
▁Journalist	-12.0281
▁200,000	-12.0283
▁gods	-12.0283
▁brillante	-12.0285
▁endless	-12.0287
ori	-12.0287
▁scanner	-12.0289
▁gesucht	-12.0292
▁Ram	-12.0297
cost	-12.0297
ngste	-12.0299
▁transportiert	-12.0303
fiel	-12.0303
▁genaue	-12.0309
iest	-12.031
▁cri	-12.0313
▁Tu	-12.0314
▁Geburts	-12.0319
▁Wichtig	-12.0321
▁Welten	-12.0322
aged	-12.0324
▁funktionierende	-12.0325
nutzung	-12.033
▁Banken	-12.033
▁Falle	-12.033
▁Profil	-12.033
▁bot	-12.0332
▁Fehl	-12.0332
▁previously	-12.0333
world	-12.0336
▁Bombe	-12.0336
▁100-	-12.0341
klang	-12.0343
oh	-12.0343
▁qu	-12.0344
▁Glaube	-12.0348
haben	-12.0356
▁kon	-12.0362
ständig	-12.0368
▁educat	-12.0372
▁universelle	-12.0374
▁Briefe	-12.0374
▁Algorithm	-12.0374
▁Blogs	-12.0375
slosigkeit	-12.0376
▁Merkmale	-12.0376
▁Bürgerkrieg	-12.0381
▁auftreten	-12.0382
egel	-12.0387
loved	-12.039
▁wi	-12.0391
ford	-12.0394
fähig	-12.0395
▁gib	-12.0398
▁seas	-12.0402
▁Neanderthal	-12.0404
▁125	-12.0409
▁Parlament	-12.0409
▁spontan	-12.041
▁Vorbild	-12.041
▁dispos	-12.0413
▁Slums	-12.0414
ature	-12.0417
▁goat	-12.0417
▁wirksam	-12.0418
▁1.2	-12.0418
tiere	-12.0422
gelassen	-12.0423
ept	-12.0423
▁Nature	-12.0425
▁bra	-12.0428
▁supplie	-12.0432
▁meint	-12.0432
▁Mär	-12.0436
ille	-12.0438
▁Nest	-12.0438
▁Kurz	-12.0439
▁hierarch	-12.044
geschrieben	-12.0443
▁blank	-12.0444
krebs	-12.0445
▁Berührung	-12.0445
▁Babbage	-12.0445
▁Behauptung	-12.0445
▁Chinesisch	-12.0445
▁Edinburgh	-12.0445
▁Fettleibigkeit	-12.0445
▁Nichol	-12.0445
▁OECD	-12.0445
▁Peace	-12.0445
▁RNA	-12.0445
▁Sowjet	-12.0445
▁Venezuela	-12.0445
▁ausgestorben	-12.0445
▁benannt	-12.0445
▁ceremon	-12.0445
▁despair	-12.0445
▁ermutigt	-12.0445
▁neuroscientist	-12.0445
▁verstärkt	-12.0445
▁zutiefst	-12.0445
▁spiral	-12.0445
▁storytelling	-12.0445
▁Power	-12.0445
▁Stabilität	-12.0445
▁cousin	-12.0445
▁harness	-12.0445
▁zwanzig	-12.0445
▁daneben	-12.0445
▁flourish	-12.0445
▁geformt	-12.0445
▁dynamisch	-12.0445
entropy	-12.0445
▁prüfen	-12.0446
▁Roger	-12.0446
▁Freizeit	-12.0446
▁verfügt	-12.0446
▁Einführung	-12.0446
▁Tiefsee	-12.0446
▁Vertrag	-12.0446
▁stole	-12.0446
▁compress	-12.0446
▁Leban	-12.0446
▁Blitz	-12.0447
▁Somalia	-12.0447
▁lean	-12.0447
▁Audio	-12.0448
▁Zelt	-12.0448
▁Israeli	-12.0448
▁steer	-12.0448
aeda	-12.0448
▁Out	-12.0448
kä	-12.0449
▁punch	-12.0449
▁Barbar	-12.0449
▁Food	-12.045
▁Pfad	-12.0451
▁bislang	-12.0453
▁wahrhaftig	-12.0453
▁shore	-12.0453
▁zahlt	-12.0454
▁Regime	-12.0454
▁Sklaven	-12.0458
tick	-12.0458
▁announce	-12.0461
▁releas	-12.0461
▁occasion	-12.0461
▁Kino	-12.0462
ttel	-12.0463
fluss	-12.0466
ennig	-12.0467
▁Club	-12.0469
▁arise	-12.047
▁Wüsten	-12.047
▁fatal	-12.0471
▁ironisch	-12.0472
▁Interface	-12.0473
▁mutig	-12.0474
führer	-12.0475
▁Schlagzeilen	-12.0478
▁1,2	-12.0478
▁guns	-12.048
▁Flut	-12.0483
lium	-12.0484
▁overwhelming	-12.0484
▁teilte	-12.0488
mmer	-12.049
▁Reform	-12.0491
liegende	-12.0491
▁Elite	-12.0491
▁7.	-12.0491
▁fokussier	-12.0495
▁Grundlagen	-12.0495
▁cooperate	-12.0497
schiff	-12.0498
nfolge	-12.0498
▁18.	-12.05
▁mitzu	-12.05
▁Chi	-12.0501
▁SP	-12.0503
▁contribut	-12.0503
▁visuell	-12.0504
▁Gal	-12.0507
▁flipp	-12.0508
▁beteilig	-12.0516
▁wiegt	-12.0519
worth	-12.0524
▁Lehrerin	-12.0524
grow	-12.0524
▁Spitzen	-12.0525
▁Pet	-12.0526
▁Danke	-12.0527
szeit	-12.0528
▁Khan	-12.0528
▁strongly	-12.0529
▁1.5	-12.0531
▁langfristig	-12.0531
hielt	-12.0536
million	-12.0536
▁journal	-12.0536
▁59	-12.054
▁hervorruf	-12.0541
▁gewachsen	-12.0543
je	-12.0544
▁mechanische	-12.0545
ED	-12.0547
▁Walk	-12.0547
▁lese	-12.0549
▁Rechts	-12.0552
▁Mur	-12.0562
▁burned	-12.0562
▁Selbstmord	-12.0563
don	-12.0564
▁survived	-12.0566
▁rang	-12.0572
eben	-12.0576
▁Geschlechts	-12.0576
▁ag	-12.0577
▁alarm	-12.0582
▁breit	-12.0585
▁Mott	-12.0585
▁communicat	-12.0585
▁Schiffe	-12.0587
▁fließen	-12.0597
▁billige	-12.0597
▁Brut	-12.0609
face	-12.0609
▁compet	-12.061
▁auswähle	-12.0613
▁ernste	-12.0615
▁taucht	-12.0615
▁Mor	-12.0615
▁Gelände	-12.0617
▁Gründer	-12.0618
▁slums	-12.0618
hne	-12.062
zy	-12.062
▁hing	-12.062
▁Sue	-12.0622
▁blogg	-12.0623
win	-12.0624
▁einnehmen	-12.0625
▁Tempe	-12.0628
▁Glamour	-12.063
▁Götter	-12.063
▁Jäger	-12.063
▁Kalorien	-12.063
▁Notwendigkeit	-12.063
▁Portrait	-12.063
▁bzw	-12.063
▁encouraging	-12.063
▁gorgeous	-12.063
▁konsumieren	-12.063
▁kosmische	-12.063
▁materielle	-12.063
▁microphone	-12.063
▁precious	-12.063
▁Ethik	-12.063
▁Spanien	-12.063
▁Tokyo	-12.063
▁gelegentlich	-12.063
▁Cousin	-12.063
▁ähnelt	-12.063
▁delay	-12.063
▁Graham	-12.063
▁Murray	-12.063
▁Transformation	-12.0631
▁silver	-12.0631
▁Nachmittag	-12.0631
▁Vieh	-12.0631
▁ongoing	-12.0631
▁Feder	-12.0631
▁transformative	-12.0631
▁Nervensystem	-12.0631
▁proposition	-12.0632
▁redesign	-12.0632
▁schuldig	-12.0632
▁tiger	-12.0632
▁Friday	-12.0633
▁unfold	-12.0633
▁gentleman	-12.0634
▁1975	-12.0634
▁zusammenfassen	-12.0634
unt	-12.0634
▁aufgezeichnet	-12.0635
▁jedermann	-12.0636
▁frontier	-12.0636
▁campus	-12.0637
▁upload	-12.0638
▁loose	-12.064
▁interconnected	-12.064
▁Investoren	-12.0641
▁Inder	-12.0642
▁fassen	-12.0645
▁bewiesen	-12.0648
▁Tänzer	-12.0651
▁Peru	-12.0657
▁aspiration	-12.0657
▁markiert	-12.0659
▁hardest	-12.066
▁identifiziert	-12.066
▁Spin	-12.0661
▁bowl	-12.0661
▁Klassen	-12.0662
ahr	-12.0663
▁Love	-12.0663
▁bell	-12.0663
▁drüber	-12.0669
▁distribut	-12.0671
▁administration	-12.0671
▁Fakt	-12.0673
denkst	-12.0675
gli	-12.0675
ways	-12.0676
vity	-12.0677
cke	-12.0677
fertig	-12.068
▁900	-12.068
▁internet	-12.0681
▁jagen	-12.0681
▁Einkommens	-12.0681
▁Pilz	-12.0682
▁server	-12.0684
bal	-12.0685
kosysteme	-12.0689
lehrer	-12.0692
▁IT	-12.0694
▁simulate	-12.0695
ippe	-12.0699
▁Schwein	-12.07
▁Drohnen	-12.0702
place	-12.0704
▁Home	-12.0706
filter	-12.0709
Zahl	-12.0709
▁entscheide	-12.071
▁grad	-12.0711
aw	-12.0712
kologi	-12.0715
▁Weiße	-12.0715
▁Kommentare	-12.0718
▁kostenlose	-12.072
inner	-12.0721
▁chef	-12.0722
▁jaw	-12.0724
drive	-12.0727
fahrt	-12.0731
known	-12.0733
▁mayor	-12.0733
▁offering	-12.0736
▁Dimension	-12.0738
block	-12.0742
chan	-12.0743
eten	-12.0744
▁bedeutend	-12.0747
▁Energien	-12.0748
▁schwache	-12.0749
▁Schafe	-12.075
sky	-12.0752
▁Leg	-12.0758
▁Eine	-12.0759
allererst	-12.076
▁wandern	-12.0761
liches	-12.0765
freund	-12.0766
▁tooth	-12.0767
▁Atome	-12.077
▁disgust	-12.0771
▁Archiv	-12.0773
▁geringer	-12.0777
▁sorgt	-12.0781
▁bless	-12.0782
▁Por	-12.0783
▁tight	-12.0787
▁ac	-12.0789
▁freundlich	-12.0793
▁Here	-12.0794
▁drag	-12.0797
itter	-12.08
▁Hof	-12.08
▁Tauch	-12.08
▁headed	-12.0803
▁Mari	-12.0803
▁sw	-12.0804
▁temporar	-12.0804
▁teenage	-12.0806
▁mineral	-12.0806
▁Schreib	-12.0808
▁Model	-12.081
▁beizu	-12.0812
▁erlaubte	-12.0814
stream	-12.0814
▁begu	-12.0815
▁phenomena	-12.0815
▁Hang	-12.0817
▁ecolog	-12.0818
hantom	-12.0818
motive	-12.0819
kapital	-12.0819
▁leather	-12.0819
▁Urlaub	-12.0819
▁vergrößert	-12.0819
▁Anliegen	-12.0819
▁Armstrong	-12.0819
▁Entropie	-12.0819
▁Gegner	-12.0819
▁Jazz	-12.0819
▁Pittsburgh	-12.0819
▁Republikaner	-12.0819
▁Richtlinie	-12.0819
▁Swiss	-12.0819
▁Verletzlichkeit	-12.0819
▁Verpflichtung	-12.0819
▁angewandt	-12.0819
▁ausgestattet	-12.0819
▁befragt	-12.0819
▁intrinsic	-12.0819
▁protocell	-12.0819
▁substantial	-12.0819
▁synthetische	-12.0819
▁multiply	-12.0819
▁proposal	-12.0819
▁flavor	-12.0819
▁Renaissance	-12.0819
▁Wohnzimmer	-12.0819
▁BMW	-12.0819
▁altitude	-12.0819
▁friedlich	-12.0819
▁spike	-12.0819
▁Zehen	-12.0819
▁defeat	-12.082
▁unconscious	-12.082
▁Verlangen	-12.082
▁texture	-12.082
▁witzig	-12.082
▁Lester	-12.082
▁punishment	-12.082
uad	-12.082
▁Brazilian	-12.082
▁tätig	-12.082
▁Klar	-12.082
▁align	-12.082
▁jewel	-12.082
▁Vinci	-12.082
▁Data	-12.0821
▁Oliver	-12.0822
▁Tempel	-12.0822
▁pond	-12.0823
▁Kommun	-12.0824
▁Völkermord	-12.0824
banish	-12.0825
▁sank	-12.0825
▁drought	-12.0827
▁thus	-12.0827
sse	-12.0827
▁Graph	-12.0828
▁Rechnung	-12.0828
▁erschafft	-12.0829
pla	-12.083
▁Rente	-12.083
▁upward	-12.0831
▁mesh	-12.0831
▁lowest	-12.0832
▁veröffentlichte	-12.0832
▁nützliche	-12.0832
▁JA	-12.0832
▁Hindu	-12.0834
▁Stammes	-12.0837
▁Golden	-12.0838
▁Primaten	-12.0838
▁Diät	-12.0839
menschen	-12.084
▁Tipp	-12.0841
▁menschlich	-12.0842
▁zehntausende	-12.0843
nce	-12.0846
▁Cape	-12.0846
▁Kritiker	-12.0848
▁Seide	-12.0849
etts	-12.085
▁fault	-12.0855
chi	-12.0859
▁unendliche	-12.0861
▁restaurants	-12.0862
union	-12.087
▁giftige	-12.087
▁founder	-12.0871
▁häufigste	-12.0872
▁Wochenende	-12.0873
dis	-12.0873
▁8.	-12.0873
lot	-12.0883
▁wrapp	-12.0883
urchmesser	-12.0884
▁beating	-12.0887
bble	-12.0887
kampf	-12.0888
gue	-12.0888
▁pursui	-12.0891
▁Real	-12.0896
▁Chr	-12.0897
▁Feinde	-12.0897
fold	-12.0898
▁grati	-12.0903
▁Erbe	-12.0904
▁64	-12.0907
az	-12.0908
▁ambition	-12.0909
▁Lebensform	-12.0909
▁Sc	-12.0911
▁Pub	-12.0911
▁Gebäudes	-12.0915
▁cl	-12.0915
▁destiny	-12.0919
▁maxim	-12.092
oung	-12.0921
▁holte	-12.0922
▁ausser	-12.0922
wide	-12.0922
frei	-12.0926
▁Wolke	-12.0929
▁heim	-12.0934
▁bucks	-12.0935
ev	-12.094
▁Texte	-12.0941
▁spirituelle	-12.0942
▁Kochen	-12.0946
dad	-12.0947
▁Restaurants	-12.0948
▁tale	-12.0948
▁ankam	-12.095
▁Les	-12.0951
luft	-12.0952
▁pal	-12.0952
▁Beck	-12.0953
lash	-12.0958
▁kit	-12.0961
▁assist	-12.0962
▁cue	-12.0962
▁float	-12.0964
▁Rome	-12.0968
▁traits	-12.0968
ili	-12.0971
▁wesentliche	-12.0972
iti	-12.0973
▁schneide	-12.0976
▁cube	-12.0979
▁Innere	-12.0981
bye	-12.0982
▁log	-12.0983
pur	-12.0984
regen	-12.0986
▁gemeint	-12.0989
erfolg	-12.099
uan	-12.0994
▁lit	-12.1001
utzung	-12.1001
gefunden	-12.1004
▁Tai	-12.1006
▁Anlage	-12.1009
▁reconstruct	-12.1009
männer	-12.1011
gehoben	-12.1011
▁Vernunft	-12.1011
▁Käse	-12.1011
▁censor	-12.1011
▁Dschihad	-12.1011
▁Fledermäuse	-12.1011
▁Intervention	-12.1011
▁Nairobi	-12.1011
▁Pizza	-12.1011
▁Schöpfung	-12.1011
▁Securit	-12.1011
▁Vorlesung	-12.1011
▁Wünsche	-12.1011
▁beherrschen	-12.1011
▁beschädigt	-12.1011
▁cigarette	-12.1011
▁executive	-12.1011
▁pencil	-12.1011
▁potato	-12.1011
▁smartphone	-12.1011
▁wahnsinnig	-12.1011
▁woanders	-12.1011
▁Sklaverei	-12.1011
▁Social	-12.1011
▁garantiert	-12.1011
▁insulin	-12.1011
▁peinlich	-12.1011
▁verarbeitet	-12.1011
▁russische	-12.1011
▁temple	-12.1011
▁beängstigend	-12.1011
▁calorie	-12.1011
▁Zimbabwe	-12.1011
▁Durchbruch	-12.1011
▁hungrig	-12.1011
▁breakfast	-12.1011
▁Atomenergie	-12.1011
▁torture	-12.1011
▁Princeton	-12.1011
▁Einladung	-12.1012
▁excitement	-12.1012
▁elementary	-12.1012
▁Partikel	-12.1012
▁calm	-12.1012
▁microbi	-12.1012
▁relief	-12.1013
▁ethische	-12.1013
▁Züge	-12.1013
▁recall	-12.1013
▁peaceful	-12.1013
▁Arian	-12.1014
▁glue	-12.1014
▁jumped	-12.1015
▁Milk	-12.1015
▁ausländische	-12.1015
▁danken	-12.1015
▁DJ	-12.1016
▁Dokument	-12.1016
▁Massac	-12.1016
▁Tit	-12.1016
▁wheat	-12.1019
▁grandparents	-12.1019
▁determin	-12.102
kte	-12.1021
▁durchlaufen	-12.1022
aba	-12.1023
lapse	-12.1024
▁Trade	-12.1025
ante	-12.1027
▁comedy	-12.1028
▁branches	-12.1028
reaktion	-12.1031
anne	-12.1031
▁folg	-12.1034
▁Enc	-12.1038
▁Flüchtlinge	-12.1041
▁recogniz	-12.1041
▁bescheiden	-12.1044
logging	-12.1044
▁Bro	-12.1049
▁Wach	-12.1049
▁Lin	-12.1051
▁klappt	-12.1051
Women	-12.1052
▁Biolog	-12.1053
▁Mul	-12.1054
▁prayer	-12.1055
▁Messung	-12.1057
▁allererste	-12.1057
▁vierten	-12.1057
▁metric	-12.1057
▁Hass	-12.1058
▁brush	-12.1058
uh	-12.106
▁Zunge	-12.1063
▁Bahn	-12.1067
▁50-	-12.1073
▁Gedichte	-12.1076
▁fett	-12.1079
▁tödlich	-12.1079
▁verpflichtet	-12.1079
▁lap	-12.1081
▁riech	-12.1085
▁sauber	-12.1086
▁Peer	-12.1086
▁bombs	-12.1088
-2	-12.1091
ffnung	-12.1091
▁Mem	-12.1091
▁Verkehrs	-12.1095
craft	-12.1096
▁Rakete	-12.1096
▁formation	-12.1096
gaben	-12.1096
karten	-12.1098
▁Brennstoffe	-12.11
▁Kollege	-12.1101
▁natürlicher	-12.1101
zusehen	-12.1101
▁manufacturer	-12.1102
▁loszu	-12.1103
▁abschließen	-12.1103
▁Tiefen	-12.1104
▁historisch	-12.1104
▁Rituale	-12.1109
lagert	-12.111
scanning	-12.111
aker	-12.1113
▁Pin	-12.1114
▁Skulpturen	-12.1114
träge	-12.1115
▁Philosoph	-12.1116
▁Islands	-12.1117
▁Skal	-12.1118
▁container	-12.1121
star	-12.1123
▁surf	-12.1124
▁camps	-12.1128
▁umwandel	-12.1128
werfen	-12.1131
▁sichere	-12.1133
▁Pol	-12.1133
▁bestehende	-12.1134
frozen	-12.1137
▁Datenbank	-12.1137
▁relation	-12.1138
▁angemessen	-12.1147
▁ernsthafte	-12.1148
▁unerwartete	-12.1149
▁fundamentale	-12.1156
versuch	-12.1156
▁Point	-12.1157
▁versteckte	-12.1162
▁atom	-12.1162
▁hob	-12.1166
▁delivery	-12.1166
itis	-12.1168
tete	-12.1169
▁rasch	-12.1173
▁Bestandteil	-12.1175
bringt	-12.1176
▁Bausteine	-12.1176
▁gest	-12.1177
▁manag	-12.1183
▁puzzles	-12.1184
zumachen	-12.1186
▁Minen	-12.1187
▁socially	-12.1189
▁Kram	-12.1193
▁compose	-12.1194
▁unhapp	-12.1196
▁zugrunde	-12.1202
▁origins	-12.1202
▁Klimawandels	-12.1205
▁probe	-12.1206
▁disagree	-12.1206
▁retire	-12.1206
witz	-12.1207
faktor	-12.1207
▁Höhen	-12.1207
▁Industrial	-12.1207
▁Bezirk	-12.1207
▁Erlaub	-12.1207
▁Melodie	-12.1207
▁Smartphone	-12.1207
▁crab	-12.1207
▁divorce	-12.1207
▁eingeschränkt	-12.1207
▁stomach	-12.1207
▁swallow	-12.1207
▁unschuldig	-12.1207
▁verletzen	-12.1207
▁absence	-12.1207
▁beruht	-12.1207
▁minimum	-12.1207
▁Dankeschön	-12.1207
▁Coast	-12.1207
▁Einzige	-12.1207
▁carpet	-12.1207
▁collision	-12.1207
▁transmission	-12.1207
▁wohnt	-12.1207
▁division	-12.1207
▁descend	-12.1207
▁Morgan	-12.1207
▁Schweigen	-12.1207
uadratmeter	-12.1207
verbindung	-12.1207
▁nackt	-12.1208
▁Neigung	-12.1208
▁angeboten	-12.1208
▁kingdom	-12.1208
▁Protest	-12.1208
▁membrane	-12.1208
▁steuert	-12.1208
chaffung	-12.1208
▁Barack	-12.1208
▁Klänge	-12.1208
▁Lead	-12.1208
▁antenna	-12.1208
aktiv	-12.1209
▁Matz	-12.1209
▁zuhause	-12.121
▁Christopher	-12.121
▁Leder	-12.121
▁Royal	-12.121
bai	-12.121
▁Logo	-12.1211
coli	-12.1212
▁einig	-12.1213
▁58	-12.1213
▁insane	-12.1213
▁hinterher	-12.1214
pack	-12.1215
▁3.000	-12.1215
▁drunk	-12.1215
▁Cuba	-12.1215
▁fertilizer	-12.1216
becken	-12.1216
▁Antarktis	-12.1216
▁Word	-12.1218
▁Filmemacher	-12.1219
▁Gross	-12.1219
fried	-12.122
▁dependenc	-12.1221
▁controversial	-12.1222
▁Freundschaft	-12.1222
▁Pandemie	-12.1224
▁Dritte	-12.1224
zuarbeiten	-12.1225
▁Versprechen	-12.1226
▁prop	-12.1227
▁tutor	-12.123
▁meme	-12.1231
schwer	-12.1235
▁anschließend	-12.124
Programm	-12.1242
▁specialist	-12.1242
▁Pier	-12.1242
▁Ufer	-12.1246
▁referr	-12.1247
▁steam	-12.1248
▁transmit	-12.1248
sprogramm	-12.125
▁Straf	-12.125
ruf	-12.1252
von	-12.1252
▁gebunden	-12.1253
produkte	-12.1254
stechnologie	-12.1254
▁celebrat	-12.1258
▁Vorfahr	-12.1259
▁wipe	-12.1259
jenige	-12.1261
▁eradicat	-12.1262
matic	-12.1264
Kortex	-12.1267
▁Farmer	-12.1267
▁landscapes	-12.1268
▁derjenige	-12.1271
▁liberat	-12.1271
▁tiefste	-12.1273
▁Tan	-12.1278
▁dating	-12.128
▁analyz	-12.1282
makers	-12.1282
▁Fil	-12.1285
▁prepar	-12.1286
▁Landschaften	-12.1288
▁tubes	-12.1289
▁doors	-12.1289
▁Jet	-12.1291
▁Best	-12.1291
▁Fried	-12.1294
▁Impuls	-12.1294
▁cows	-12.1295
▁Studierenden	-12.1296
rhythm	-12.1297
friend	-12.1297
▁Mag	-12.1298
fische	-12.13
hang	-12.13
Up	-12.1303
▁Mein	-12.1307
▁kommerzielle	-12.1308
avi	-12.1313
▁Fri	-12.1313
▁Kommentar	-12.1313
decken	-12.1313
▁commit	-12.1314
▁replac	-12.1318
▁Agn	-12.1322
▁überlegt	-12.1322
▁schlimmste	-12.1324
▁kritisch	-12.1325
post	-12.1331
▁bug	-12.1331
▁gegenwärtige	-12.1332
▁Hin	-12.1333
▁trad	-12.1333
▁merkt	-12.1333
▁Interessantes	-12.1336
sani	-12.1345
▁vollständige	-12.1347
ware	-12.1348
istan	-12.135
eryl	-12.135
▁penguin	-12.1352
NG	-12.1353
smethode	-12.1354
AC	-12.1364
etic	-12.1365
▁Syria	-12.1366
▁Rod	-12.1367
fehler	-12.1368
▁zentral	-12.1369
two	-12.1369
geordnet	-12.1372
▁Marco	-12.1373
ano	-12.1382
▁remarkabl	-12.1382
träger	-12.1386
▁worrying	-12.1387
▁schlechtes	-12.1392
information	-12.1394
▁psychopath	-12.1397
▁visualize	-12.1397
▁Kurse	-12.1399
▁Jon	-12.14
▁farming	-12.1401
▁reiche	-12.1404
▁trauma	-12.1405
▁punish	-12.1406
▁leuchten	-12.1407
eopard	-12.1407
▁Virgin	-12.1407
▁ueber	-12.1407
▁Anwalt	-12.1407
▁Bhutan	-12.1407
▁Buddhist	-12.1407
▁Carnegie	-12.1407
▁Geometrie	-12.1407
▁Hospital	-12.1407
▁Konkurrenz	-12.1407
▁Kyoto	-12.1407
▁angeblich	-12.1407
▁approximate	-12.1407
▁cocaine	-12.1407
▁gestohlen	-12.1407
▁stattfand	-12.1407
▁verdoppeln	-12.1407
▁Schizophren	-12.1407
▁deliberate	-12.1407
▁genuine	-12.1407
▁mutual	-12.1407
▁Applau	-12.1407
▁Vorgehensweise	-12.1407
▁Windows	-12.1407
▁Zipcar	-12.1407
▁gallon	-12.1407
▁Tunnel	-12.1407
▁strict	-12.1407
▁Großeltern	-12.1407
▁Taiwan	-12.1407
▁backyard	-12.1407
▁Biosphäre	-12.1407
▁Iceland	-12.1407
▁Monster	-12.1407
▁venture	-12.1407
▁andauernd	-12.1408
▁Linux	-12.1408
▁Mytho	-12.1408
erfahrung	-12.1408
▁Standort	-12.1408
▁anfangs	-12.1408
▁fördert	-12.1408
▁mainstream	-12.1408
▁foster	-12.1408
▁Antibiotika	-12.1408
▁Weizen	-12.1408
▁Franklin	-12.1408
▁unklar	-12.1408
▁brick	-12.1408
▁Snowden	-12.1408
▁caves	-12.1408
▁retirement	-12.1408
▁Aristotel	-12.1408
▁Rauschen	-12.1409
▁negotiation	-12.1409
▁translator	-12.1409
▁distinction	-12.1409
▁Aussehen	-12.141
▁Four	-12.141
▁Zoo	-12.141
▁Stimmung	-12.1411
▁Jew	-12.1411
▁phenomenal	-12.1412
▁Fer	-12.1413
▁Affe	-12.1413
▁Bogen	-12.1413
▁heavi	-12.1415
nerkennung	-12.142
▁jünger	-12.1421
freie	-12.1424
▁rannte	-12.1426
▁überdenken	-12.1427
▁patch	-12.1428
▁regulate	-12.143
▁Hausaufgaben	-12.143
▁intent	-12.1432
▁schickt	-12.1434
▁Ratte	-12.1436
▁Schalter	-12.1438
▁astronomer	-12.1441
▁anonymous	-12.1442
▁convenient	-12.1442
pont	-12.1444
▁legislati	-12.1445
▁Leon	-12.1446
read	-12.1446
▁realistic	-12.1447
▁recycling	-12.1448
▁Denker	-12.145
▁verleihen	-12.1451
▁Cooper	-12.1451
gramm	-12.1452
▁zeichnete	-12.1452
▁Andy	-12.1454
dacht	-12.1454
▁negotiate	-12.1455
▁Rate	-12.1458
14	-12.1461
▁Win	-12.1463
▁Vortrags	-12.1463
leihen	-12.1464
▁bli	-12.1467
▁beeindruckende	-12.1467
▁bon	-12.1468
▁healing	-12.1469
▁Rande	-12.1473
gefahren	-12.1474
▁gate	-12.1477
▁Fremde	-12.148
drew	-12.1481
▁Rennen	-12.1484
▁innovativ	-12.1484
▁manner	-12.1485
▁Swa	-12.1489
aida	-12.1491
▁embrac	-12.1494
bre	-12.1494
▁badly	-12.1494
▁Mehr	-12.1495
▁infections	-12.1496
▁Volks	-12.1496
▁gek	-12.1499
▁Gewinne	-12.15
risch	-12.1501
▁Freiwilligen	-12.1509
amer	-12.1509
änder	-12.151
▁rechtliche	-12.151
▁surgeons	-12.1512
rot	-12.1514
länge	-12.1518
▁systematisch	-12.1519
▁interpretiere	-12.1519
▁Cor	-12.1523
pflege	-12.1528
swert	-12.1528
▁ham	-12.1528
felder	-12.1529
ppel	-12.1534
cast	-12.1534
▁untersuchte	-12.1535
▁circuits	-12.1539
▁packen	-12.154
stücke	-12.154
▁Platten	-12.1544
uft	-12.1547
lesen	-12.1549
solv	-12.1551
ngesicht	-12.1553
▁gelegt	-12.1554
▁historic	-12.1555
Boot	-12.1558
rock	-12.1558
bungen	-12.1561
▁teurer	-12.1568
▁pflanzen	-12.1569
▁Meeting	-12.1569
▁rettet	-12.157
hole	-12.157
▁Künstlerin	-12.1571
egeister	-12.1572
▁por	-12.1572
▁psychiatr	-12.1573
▁Trans	-12.1576
▁dedicate	-12.1576
▁nukleare	-12.1584
▁neuro	-12.1585
finden	-12.1586
▁vorherige	-12.1592
merkt	-12.1593
▁54	-12.1596
klären	-12.1596
medizin	-12.1598
gänge	-12.1599
▁masse	-12.1599
ridge	-12.1599
▁remov	-12.1602
▁Roh	-12.1607
▁optische	-12.1607
ets	-12.161
gebäude	-12.1611
▁acoustic	-12.1611
▁assign	-12.1611
Veröffentlichung	-12.1611
händler	-12.1611
▁DARPA	-12.1611
▁Dallas	-12.1611
▁Konversation	-12.1611
▁Orleans	-12.1611
▁Pepsi	-12.1611
▁Premierminister	-12.1611
▁Stolz	-12.1611
▁Teszler	-12.1611
▁Tweet	-12.1611
▁artifact	-12.1611
▁demonstriert	-12.1611
▁empfangen	-12.1611
▁jihad	-12.1611
▁kopieren	-12.1611
▁nirgendwo	-12.1611
▁retreat	-12.1611
▁satisfy	-12.1611
▁structural	-12.1611
▁composition	-12.1611
▁storyteller	-12.1611
▁album	-12.1611
▁warrior	-12.1611
▁Tower	-12.1611
▁schlicht	-12.1612
▁exposure	-12.1612
▁Skype	-12.1612
▁diagnostic	-12.1612
▁loving	-12.1612
▁Würfel	-12.1612
▁Lebensstil	-12.1612
▁Hafen	-12.1612
▁Finanzierung	-12.1612
▁Rückenmark	-12.1612
▁canvas	-12.1612
▁Nebel	-12.1612
▁Story	-12.1613
mutter	-12.1613
▁Nah	-12.1613
▁prostate	-12.1614
▁6,000	-12.1615
▁Verstehen	-12.1615
▁umgewandelt	-12.1615
▁Norman	-12.1616
▁Delfine	-12.1617
▁Polar	-12.1617
▁strain	-12.1617
▁logo	-12.1618
▁planetary	-12.1619
▁Teller	-12.1621
▁breite	-12.1622
▁40,000	-12.1623
bou	-12.1623
PL	-12.1624
▁Reaktor	-12.1624
baum	-12.1624
away	-12.1626
▁AO	-12.1627
cer	-12.1627
▁eliminate	-12.1627
-1	-12.1628
▁Wang	-12.1628
▁outer	-12.1628
flo	-12.1629
▁Rom	-12.163
ronto	-12.1631
▁schwamm	-12.1633
aub	-12.1633
▁Histor	-12.1633
▁Produktions	-12.1634
▁aufhört	-12.1637
▁millimeter	-12.1638
▁empfindlich	-12.1638
▁Betrachter	-12.1642
atom	-12.1642
▁frisch	-12.1643
▁Standards	-12.1645
▁Algen	-12.1645
▁disability	-12.1646
▁Anders	-12.1649
▁Verhaltensweise	-12.165
▁useless	-12.165
▁Wissenschafts	-12.1654
▁accelerate	-12.1655
▁potentielle	-12.1655
wick	-12.1656
▁zustimmen	-12.1656
▁zuzuhören	-12.1657
blasen	-12.1657
▁Wolf	-12.1663
▁Betrachtung	-12.1664
▁CC	-12.1667
▁Glücks	-12.1669
▁gerichtet	-12.167
▁Trag	-12.1675
bone	-12.1676
▁simpler	-12.1678
▁dünn	-12.1678
▁planes	-12.1678
▁guck	-12.1679
▁identisch	-12.1679
▁betreffen	-12.1682
▁sinn	-12.1683
lampe	-12.1684
ffer	-12.1685
▁Kunstwerk	-12.1688
ER	-12.169
sammeln	-12.169
still	-12.1691
▁frontal	-12.1691
▁Elektro	-12.1692
▁getrieben	-12.1692
▁kalte	-12.1698
▁Spinnen	-12.1699
▁mitgebracht	-12.1699
▁einfallen	-12.17
drehen	-12.1701
▁hingeg	-12.1703
▁Krebszelle	-12.1703
▁hi	-12.1709
▁starv	-12.171
▁24-	-12.1711
▁Las	-12.1713
▁kämpft	-12.1714
▁raped	-12.1716
gewachsen	-12.1716
anischen	-12.1726
jahr	-12.1726
▁Brennstoff	-12.1731
▁Trainings	-12.1733
büro	-12.1736
▁Mord	-12.1739
▁semi	-12.1739
▁Luc	-12.174
▁Kolonien	-12.1745
▁comics	-12.1746
▁kommende	-12.1746
▁port	-12.1747
▁Schrei	-12.1749
▁rechnen	-12.1749
▁existierte	-12.175
▁lebendige	-12.175
▁zweiter	-12.1751
nick	-12.1754
▁Comics	-12.176
▁greif	-12.1763
RL	-12.1768
▁Scot	-12.1771
▁Army	-12.1772
▁hervorbring	-12.1773
foto	-12.1775
▁reporter	-12.1783
▁diploma	-12.1786
▁Robotern	-12.1788
▁sale	-12.1789
▁def	-12.1789
liefert	-12.1794
sex	-12.1795
▁Stop	-12.1797
▁Wortes	-12.1799
masse	-12.1801
chle	-12.1802
▁banker	-12.1803
stab	-12.1805
▁hum	-12.1805
front	-12.1806
verbrauch	-12.1809
▁donation	-12.1809
▁Befehl	-12.1813
esis	-12.1814
branche	-12.1814
generieren	-12.1819
▁Beethoven	-12.182
▁Beleuchtung	-12.182
▁Everglades	-12.182
▁Galapagos	-12.182
▁Grösse	-12.182
▁Medicine	-12.182
▁Robotik	-12.182
▁Zealand	-12.182
▁allgegenwärtig	-12.182
▁ausprobiert	-12.182
▁cylinder	-12.182
▁occupy	-12.182
▁philanthropy	-12.182
▁prescription	-12.182
▁Behälter	-12.182
▁chunk	-12.182
▁Hardware	-12.182
▁verbrannt	-12.182
▁suppress	-12.182
▁syndrome	-12.182
▁Gehalt	-12.182
▁verpasst	-12.182
▁tomato	-12.182
▁Meeresspiegel	-12.182
▁Zustände	-12.182
▁Office	-12.182
▁ansteckend	-12.182
▁Brett	-12.182
▁bedroom	-12.182
▁Mitleid	-12.182
▁Artenvielf	-12.1821
▁Intel	-12.1821
▁gefühlt	-12.1822
▁blickt	-12.1822
▁stabilit	-12.1823
▁frustration	-12.1823
▁candle	-12.1823
▁ansah	-12.1823
▁sake	-12.1824
▁Titanic	-12.1824
▁boost	-12.1825
NN	-12.1826
▁übernommen	-12.1826
▁57	-12.1827
leau	-12.1827
zogen	-12.1827
▁philosophical	-12.1829
▁atomic	-12.1829
▁Water	-12.1829
▁tourist	-12.1829
▁Erfolgs	-12.1829
▁grabb	-12.183
▁Cricket	-12.1833
RA	-12.1834
▁vertreten	-12.1836
▁Indonesia	-12.1836
▁Kleider	-12.1838
▁Treibhausgase	-12.1841
▁summarize	-12.1841
▁agieren	-12.1841
▁frische	-12.1843
verteilung	-12.1843
selves	-12.1845
▁cooler	-12.1846
▁betrachte	-12.1851
▁estimates	-12.1851
▁Netze	-12.1851
▁religions	-12.1851
mond	-12.1856
zufügen	-12.1857
▁diagnostiziert	-12.1857
▁Mexican	-12.1858
▁persönlicher	-12.186
▁optimal	-12.1861
▁187	-12.1862
▁Erfolge	-12.1863
▁anfällig	-12.1864
geholt	-12.1864
▁Nieren	-12.1865
▁versa	-12.1865
namen	-12.1866
▁Type	-12.1872
▁Sonntag	-12.1872
▁Jud	-12.1873
▁erwischt	-12.1874
qualität	-12.1879
▁Dienste	-12.188
▁Balk	-12.1883
ngelika	-12.1884
▁bedeutsam	-12.1885
hundert	-12.1885
tanz	-12.1886
berfluss	-12.1889
▁Schwimmen	-12.1892
wechsel	-12.1892
▁Korallenriffe	-12.1894
bergen	-12.1898
▁Med	-12.1899
estate	-12.1902
▁Julie	-12.1915
ange	-12.1917
▁dressed	-12.1921
Source	-12.1921
Feld	-12.1923
view	-12.1923
dding	-12.1923
Regierung	-12.1923
mail	-12.1924
▁illegale	-12.1925
▁Freiwillige	-12.1925
▁sexuell	-12.1926
▁Ausgabe	-12.1926
▁Rasse	-12.1928
-3	-12.1928
▁Doppel	-12.1931
▁Fahren	-12.1933
licher	-12.1933
ulate	-12.1934
▁ermöglichte	-12.1934
▁Cy	-12.1937
kamera	-12.1937
▁divid	-12.1937
▁Pf	-12.1941
▁Blume	-12.1946
grad	-12.1947
▁documentar	-12.1948
,500	-12.1951
▁bite	-12.1954
izen	-12.1957
kanal	-12.1958
gebiete	-12.1959
▁custom	-12.1964
▁finanziell	-12.1966
▁clar	-12.1968
▁zueinander	-12.1969
uell	-12.1971
▁dauerhaft	-12.1973
name	-12.1976
▁erreichte	-12.1977
aufnahmen	-12.1979
gemeinschaft	-12.1979
▁austausch	-12.1979
▁pu	-12.198
▁automat	-12.1982
▁Geo	-12.1984
▁Whit	-12.1984
schaften	-12.1985
▁Berufs	-12.1988
▁ray	-12.1989
sprochen	-12.1989
▁renewable	-12.199
▁Bra	-12.1991
▁geograph	-12.1992
▁mische	-12.1996
▁shoe	-12.1996
ilität	-12.1998
▁shak	-12.2003
▁Kredit	-12.2009
▁reactor	-12.201
▁äußere	-12.2012
hängen	-12.2014
▁erlebte	-12.2015
awa	-12.2015
pu	-12.2018
teilung	-12.2021
▁skelet	-12.2031
▁distort	-12.2031
▁corrupt	-12.2031
▁Integr	-12.2031
ibati	-12.2032
pläne	-12.2032
verlust	-12.2032
▁AIMS	-12.2032
▁Bemühung	-12.2032
▁Beschäftigung	-12.2032
▁Hektar	-12.2032
▁Herbst	-12.2032
▁Hühner	-12.2032
▁Jersey	-12.2032
▁Katrina	-12.2032
▁Leinwand	-12.2032
▁Stickstoff	-12.2032
▁Sydney	-12.2032
▁delicious	-12.2032
▁devastating	-12.2032
▁drastisch	-12.2032
▁encrypt	-12.2032
▁erschwinglich	-12.2032
▁execute	-12.2032
▁explicit	-12.2032
▁gesunken	-12.2032
▁guitar	-12.2032
▁harbor	-12.2032
▁herkömmliche	-12.2032
▁receptor	-12.2032
▁smiling	-12.2032
▁Pharma	-12.2032
▁Söhne	-12.2032
▁schütteln	-12.2032
▁Lakota	-12.2033
▁gespeichert	-12.2033
▁pigeon	-12.2033
▁Jetzt	-12.2033
▁magnificent	-12.2033
▁Librar	-12.2033
▁stereotype	-12.2033
▁bathroom	-12.2033
▁Zusammenbruch	-12.2033
▁proceed	-12.2033
▁drown	-12.2033
▁priest	-12.2033
▁beseitigen	-12.2033
▁Orbit	-12.2033
▁Jerry	-12.2033
▁deception	-12.2033
▁lifespan	-12.2033
▁Kandidaten	-12.2033
▁pipeline	-12.2033
▁pirate	-12.2033
▁Behörden	-12.2033
▁integrieren	-12.2033
▁salar	-12.2033
▁examine	-12.2034
▁Lady	-12.2034
▁civilian	-12.2034
▁Brook	-12.2034
▁Notfall	-12.2034
▁ausgedrückt	-12.2036
▁coverage	-12.2038
manda	-12.2039
▁steigende	-12.204
▁bust	-12.2042
itz	-12.2043
▁hub	-12.2043
▁vent	-12.2044
▁Brille	-12.2048
▁gras	-12.2049
anlage	-12.2051
trogen	-12.2051
streifen	-12.2057
rennen	-12.2057
▁sensible	-12.2057
▁erzähl	-12.2058
▁Brenn	-12.2058
▁Riff	-12.206
▁leitet	-12.206
lzt	-12.2063
▁Kanal	-12.2064
▁rank	-12.2064
▁hervorragend	-12.2066
▁Zweig	-12.2067
▁spezialisiert	-12.2069
▁Pinguin	-12.207
▁moralit	-12.2072
▁proven	-12.2072
mate	-12.2072
▁zusammenbring	-12.2076
▁weise	-12.2079
zeigen	-12.208
▁vorschlage	-12.2086
ston	-12.2091
▁Verwandten	-12.2092
▁optical	-12.2094
▁Joel	-12.2099
dauert	-12.2099
▁Gesetzen	-12.2106
▁processor	-12.2107
▁aufgestellt	-12.2108
▁critic	-12.211
▁Isa	-12.2112
kill	-12.2113
trinken	-12.2113
stoß	-12.2114
phil	-12.2115
▁Stufen	-12.2116
▁2.0	-12.2124
opfer	-12.2125
▁mall	-12.2128
verläuf	-12.2128
greif	-12.2129
elli	-12.213
▁acre	-12.2131
wald	-12.2131
zing	-12.2132
▁regel	-12.2139
▁monitoring	-12.2148
virus	-12.2156
▁shy	-12.2159
feuer	-12.2161
▁Naturschutz	-12.2163
▁abschließend	-12.2164
▁printed	-12.2166
▁Hä	-12.2166
▁Glass	-12.2167
▁effektive	-12.2168
▁fordern	-12.2174
▁beschrieb	-12.2176
▁Johann	-12.2176
▁Parteien	-12.2178
▁Des	-12.2178
▁weite	-12.2181
maß	-12.2182
amma	-12.2185
▁Runde	-12.2188
▁BL	-12.2188
rollen	-12.2191
▁Pilze	-12.2197
▁schlimme	-12.2198
▁Mau	-12.2198
will	-12.2199
▁1,3	-12.2204
▁advanc	-12.2205
▁grant	-12.2206
▁Darm	-12.2208
▁Strafe	-12.2215
▁Kämpfe	-12.2224
ehlen	-12.2229
ühr	-12.2231
fest	-12.2233
zel	-12.2235
▁Rohstoffe	-12.224
▁astronom	-12.224
▁trocken	-12.2242
racing	-12.2243
▁glu	-12.2244
▁Sterben	-12.2246
▁Kamel	-12.2248
▁anziehen	-12.2248
ströme	-12.2249
ona	-12.2249
▁dynamische	-12.225
▁Schnell	-12.225
papier	-12.225
▁Darfur	-12.225
▁Dilemma	-12.225
▁Dylan	-12.225
▁Georgia	-12.225
▁Guatemala	-12.225
▁Matthew	-12.225
▁Singapore	-12.225
▁Tamiflu	-12.225
▁Wahnsinn	-12.225
▁demonstrieren	-12.225
▁diarrhea	-12.225
▁elevator	-12.225
▁entsetzlich	-12.225
▁knife	-12.225
▁purple	-12.225
▁verdeutlich	-12.225
kugel	-12.225
▁Probanden	-12.225
▁anerkannt	-12.225
▁lächeln	-12.225
▁verwirklichen	-12.225
▁Atheist	-12.225
▁algae	-12.225
▁obtain	-12.225
▁Empire	-12.225
▁Gramm	-12.225
▁Künste	-12.225
▁RIS	-12.225
▁juice	-12.225
▁litt	-12.225
▁Gaza	-12.225
▁Ryan	-12.225
▁Panzer	-12.225
▁Nordpol	-12.225
▁emphasize	-12.225
▁screw	-12.225
▁Bono	-12.225
▁legitimate	-12.225
▁confine	-12.225
▁hallucination	-12.225
▁Anwesenheit	-12.225
▁trennt	-12.225
▁Zuhören	-12.225
▁towel	-12.225
▁girlfriend	-12.225
▁Compan	-12.2251
▁prosperity	-12.2251
▁Atlantik	-12.2251
▁Aussicht	-12.2251
▁Abwasser	-12.2251
▁Diana	-12.2251
▁fur	-12.2251
▁volcano	-12.2251
▁schützt	-12.2251
▁eventuell	-12.2252
▁drucken	-12.2252
aking	-12.2252
▁shower	-12.2253
▁investigation	-12.2253
▁scheme	-12.2253
▁wahrgenommen	-12.2253
▁progressive	-12.2254
▁workshop	-12.2254
▁unlock	-12.2254
▁angewendet	-12.2255
pul	-12.2255
▁festhalten	-12.2255
▁kürzer	-12.2256
▁jungle	-12.2256
▁Ground	-12.2257
▁Action	-12.2257
▁ausgelöst	-12.2258
▁Wähler	-12.2258
▁atheist	-12.2258
▁Amsterdam	-12.2258
▁disable	-12.2259
▁pe	-12.2262
▁Erzähler	-12.2263
▁Deine	-12.2265
▁playful	-12.2266
▁Festival	-12.2266
▁monster	-12.2266
▁30.000	-12.2267
uver	-12.2268
▁Amerikanische	-12.2269
▁Ash	-12.2269
▁umgesetzt	-12.227
▁beg	-12.2271
▁zeichnet	-12.2272
▁realization	-12.2273
▁Elektroden	-12.2279
aki	-12.228
▁enge	-12.2281
▁jüdische	-12.2285
▁depressiv	-12.2287
▁jar	-12.2287
▁embarrassing	-12.2294
▁Make	-12.23
▁Videospiel	-12.2303
▁lustige	-12.2303
▁ergreifen	-12.2304
▁manipulier	-12.2305
schäd	-12.2312
gerechnet	-12.2314
▁poly	-12.2317
▁FO	-12.2317
decke	-12.2318
▁indoor	-12.232
▁Mose	-12.2322
▁informal	-12.2323
▁Map	-12.2324
▁drahtlose	-12.2324
▁Schach	-12.2325
FG	-12.2326
▁germ	-12.2333
verfahren	-12.2336
sitzen	-12.2338
▁Den	-12.2338
stände	-12.2339
▁wählt	-12.2341
▁Sein	-12.2346
fuhr	-12.2348
▁Magen	-12.235
▁quantit	-12.2352
▁contaminat	-12.2353
▁Gay	-12.2356
▁handelte	-12.2358
organiz	-12.236
computer	-12.2362
glaubt	-12.2362
Industrie	-12.2362
Team	-12.2362
gearbeitet	-12.2362
Seite	-12.2363
▁Beute	-12.2363
▁vermischt	-12.2368
step	-12.2369
▁kindness	-12.2371
▁Argumente	-12.2372
▁unbekannt	-12.2373
holz	-12.2373
▁Pik	-12.2383
▁Ak	-12.2384
▁dramatische	-12.2386
▁riechen	-12.2388
▁Paare	-12.2394
chef	-12.2397
▁beschäftigte	-12.2397
▁individuell	-12.2403
▁ideolog	-12.2404
▁zusammenge	-12.2405
▁Schl	-12.2406
ügel	-12.2408
▁interessierte	-12.241
▁Bali	-12.241
Ch	-12.2413
▁Roy	-12.2414
hnlichkeit	-12.2414
erkrankung	-12.2422
▁overwhelm	-12.2425
▁BP	-12.243
rman	-12.244
▁fremde	-12.244
▁kreativer	-12.2441
Karte	-12.2447
schlüsse	-12.2451
loch	-12.2451
▁fee	-12.2452
▁attraktiv	-12.2456
▁Anfänge	-12.2459
nerzähler	-12.2461
▁110	-12.2463
kunde	-12.2463
▁Dokumente	-12.2465
trauen	-12.2469
▁hör	-12.247
▁champion	-12.2472
▁scholar	-12.2472
▁Feuerwehr	-12.2472
▁Gummi	-12.2472
frequenz	-12.2472
gelöscht	-12.2472
▁Agenda	-12.2472
▁Arizona	-12.2472
▁Dächer	-12.2472
▁Dürre	-12.2472
▁Hierarchie	-12.2472
▁bestätigen	-12.2472
▁diameter	-12.2472
▁errichtet	-12.2472
▁frustriert	-12.2472
▁gewalttätig	-12.2472
▁humanitarian	-12.2472
▁parachute	-12.2472
▁verringert	-12.2472
vascular	-12.2472
▁enlighten	-12.2472
▁Guardian	-12.2472
▁Ersatz	-12.2472
▁Schachtel	-12.2472
▁libert	-12.2472
▁Republik	-12.2472
▁nonverbal	-12.2472
▁Zufriedenheit	-12.2472
▁criteri	-12.2472
▁platziert	-12.2472
▁Zugriff	-12.2472
▁sprang	-12.2472
▁horror	-12.2472
▁Rückseite	-12.2473
▁contest	-12.2473
▁sperm	-12.2473
▁Feier	-12.2473
▁seeming	-12.2473
▁Ruder	-12.2474
▁Carter	-12.2474
▁magician	-12.2474
▁Eingang	-12.2475
▁fasst	-12.2475
▁Szenario	-12.2475
▁Saul	-12.2475
▁bonus	-12.2475
▁impulse	-12.2475
▁83	-12.2477
pflanzt	-12.2478
▁advocate	-12.2478
▁outdoor	-12.2478
▁Keller	-12.2479
ssig	-12.248
▁squeeze	-12.248
▁Visualisierung	-12.2481
▁Aufruf	-12.2481
▁Bond	-12.2482
▁eigenartig	-12.2482
▁greifbar	-12.2482
ura	-12.2482
▁Back	-12.2484
ierer	-12.2485
fuß	-12.2487
▁stunning	-12.2488
▁frequently	-12.2488
▁Verschm	-12.2488
▁Swee	-12.2491
▁hinab	-12.2491
▁banal	-12.2491
▁Zehn	-12.2492
▁Größen	-12.2496
tsch	-12.2498
▁übermittel	-12.2503
▁Nahe	-12.2504
ups	-12.2506
▁übliche	-12.2507
▁bringe	-12.2507
▁gestiegen	-12.2509
▁overhead	-12.2511
▁assemble	-12.2512
[...]
