▁treibende~~11811
▁metabol~~18146
Modernismus~~19770
▁bedeutende~~5914
▁Kanäle~~12944
indschutzscheibe~~3344
▁suchten~~8411
▁Felswände~~24928
▁schreit~~17337
üge~~3538
▁zurückblicken~~11683
▁dicke~~9061
▁beweis~~1321
▁Größen~~331
▁Lebensspanne~~19622
▁fünften~~7973
▁Missou~~14969
▁Loui~~19850
▁Pot~~10460
▁unbekannt~~6077
▁pixel~~24848
▁Pop~~4538
▁Por~~14660
▁Mitternacht~~7054
▁laut~~3031
▁Poe~~13268
▁Pol~~9991
▁Pon~~15878
▁verhindern~~7820
▁verhindert~~7822
▁archaeolog~~16356
▁Depression~~1467
▁Treibhauseffekt~~16992
▁versink~~4892
▁kolumbianische~~22104
▁schlummer~~21460
▁Laden~~6836
▁Möglichkeit~~1629
▁schnitt~~1764
▁blonde~~20939
jäger~~4762
▁Radio~~4459
▁dabei~~1811
▁erträum~~17612
▁übermittel~~4256
▁head~~24201
▁Geschenk~~6986
stern~~3034
▁Hitchcock~~12758
▁Schnitt~~9516
▁Bild~~488
▁Hälfte~~3328
▁Bill~~61
Gemeinschaft~~8952
▁person~~19201
musik~~3193
züglich~~6913
▁Schluss~~932
▁Häuptling~~12462
tröpfchen~~20192
▁Nachthimmel~~12426
gruppier~~18221
▁abgebildet~~13336
▁Pink~~19427
locken~~317
höhle~~19462
▁Stockwerke~~786
▁Superstar~~13370
▁Identität~~2647
▁googel~~13197
▁respektlos~~12558
wana~~22251
wand~~7620
La~~5412
▁humanitäre~~10186
▁Liter~~16029
sterben~~9907
zieht~~4989
Biafra~~21848
LC~~12623
▁Wasserkraft~~20155
LA~~5898
▁Gigabyte~~22713
▁Potential~~1884
LL~~20892
▁TEDMED~~9605
▁Schaltkreis~~15663
▁world~~23000
▁Rumi~~20635
▁ermöglichen~~4221
▁Cind~~10407
▁Ebene~~1774
▁erachte~~21630
▁wichtig~~731
▁Rollen~~13148
▁Zuckerbrot~~19118
▁steinige~~23876
▁besten~~1577
▁Haben~~13954
▁Dallas~~17825
▁Hellseher~~24063
fin~~10314
▁John~~6638
▁erstarr~~5609
▁Remix~~11239
rezept~~1695
▁astronom~~17608
▁spirituell~~12053
▁Lehre~~8555
▁stehen~~131
klingel~~18281
▁Erstellen~~4712
▁Neutrino~~18875
▁Risse~~6109
▁Häkel~~23382
▁Unterkunft~~12460
▁br~~523
▁by~~21333
▁geschleudert~~20011
▁be~~1123
ajestät~~21103
▁ba~~6358
▁bo~~5479
▁schwanger~~9713
▁bi~~3489
▁metastasi~~24601
▁metastase~~23907
gleichung~~18102
▁Hepburn~~24534
▁Schweine~~5247
▁angefertigt~~14371
eranschaulichung~~9245
▁tiefgreifende~~4097
▁Myco~~22058
▁Beatrice~~22864
▁Fischfang~~22123
▁Peace~~23294
zubringen~~3814
▁initial~~23351
▁Regierungen~~5819
▁relativ~~1067
▁unüblich~~13031
▁Mann~~2998
▁Cait~~24585
endlich~~8925
olds~~19268
▁Fischen~~5924
xploration~~23056
service~~15249
▁umfasst~~10097
master~~22769
▁weiterführende~~19580
▁Dichter~~7131
genesis~~20730
▁Fischer~~5823
▁resistent~~8038
versage~~18750
▁öffentlich~~8794
ahmen~~19152
▁Wasserrechte~~19079
▁Ordnung~~3005
▁Schaufenster~~15936
▁komplizierte~~8336
▁Monat~~6070
▁misst~~4299
dozen~~6939
▁Kapitel~~2475
▁Umriss~~10877
▁Junior~~22022
▁Afroamerikaner~~20416
▁Aborigin~~20712
▁Logistik~~18827
▁wendet~~10109
▁schweizer~~19495
weint~~15471
mouth~~7102
▁Wrack~~20784
▁Endergebnis~~9492
Sein~~6391
tech~~6732
▁schonungslos~~15827
▁Radikal~~14881
▁nonlinear~~23870
Marke~~16781
▁indische~~7179
bewußt~~5639
▁Beweis~~8021
Markt~~13573
▁hello~~24537
▁helle~~10180
schaften~~7799
▁Rückzug~~18715
▁Betrüger~~3615
nehmer~~4867
▁Scheiben~~9521
rich~~10754
rice~~20177
gewendet~~19272
▁evident~~22052
▁Haushaltsgeräte~~19739
▁Durchhalte~~21661
▁Weintraube~~18616
platz~~6500
▁Bitmap~~19529
▁Füße~~687
▁Pfeffer~~16170
▁micro~~23284
▁Buchhalter~~20376
▁fundamentale~~5298
▁Vorgänger~~8549
▁meiner~~244
▁Klick~~8960
▁absolviert~~6540
zahlen~~10467
▁Zugänglich~~18258
▁angerufen~~3225
▁Garnele~~744
▁Oregon~~12352
▁meinen~~2609
▁Leute~~1800
nkung~~16586
echanical~~21043
▁Drang~~11412
▁unschuldig~~14049
▁solcher~~12099
ire~~4229
▁geheimnisvoll~~20156
▁entwarf~~5509
▁Bananen~~13707
▁vorhergesagt~~17396
cus~~21812
eihung~~21279
▁Potter~~18594
▁braune~~5643
▁MRT~~11938
▁irgendwelche~~3876
▁Blogger~~13475
▁MRI~~2491
▁Baumaterial~~11647
▁grade~~13865
▁gehandelt~~7352
union~~9551
▁fair~~7216
kasten~~5547
.~~1057
▁Hölle~~903
▁wiederzu~~1007
▁Reservate~~23979
▁täte~~6831
▁Anfang~~1676
▁Erleben~~8515
▁Aufbau~~13511
▁Hallo~~2498
spil~~15191
overty~~18671
▁Desaster~~952
▁Eitel~~11419
fälsch~~5659
▁Bahnhof~~17301
vorschrift~~4902
▁Umar~~6252
Eisschelf~~20893
▁tatsächlich~~372
▁Fraser~~24357
desto~~1364
zzar~~22277
llows~~24654
▁besorgt~~2071
▁4000~~21229
▁stor~~21482
▁stop~~19832
▁Aff~~17392
▁Kettensäge~~23996
▁position~~14202
pocalyp~~23819
junge~~19336
elefant~~21950
viertel~~12960
▁anhaltende~~2246
▁Hüfte~~18753
▁verge~~12430
▁Skateboard~~5524
▁Millarde~~16496
▁beschuldigen~~15839
lasst~~8681
▁Maul~~12983
▁surreal~~18042
▁Chinese~~4688
▁überwältigt~~11490
▁Gaga~~22502
▁Maus~~7984
▁Repräsentant~~14384
gleichberechtigt~~21663
▁Gleichheit~~1872
hai~~12270
hak~~5959
hal~~4890
ham~~12002
han~~1107
har~~6320
schlüsse~~4896
hat~~6708
hau~~11455
hav~~20949
▁Lauf~~4314
▁diagnostiziert~~10790
▁Laub~~17431
▁Miete~~10442
▁Laut~~4354
▁Nachwuchs~~9911
▁Laur~~19887
▁Kiesel~~16263
shadow~~24607
▁Second~~16562
▁priest~~12720
gado~~20235
▁schlimme~~11007
▁gefasst~~14880
▁trügerisch~~9191
▁Mannschaft~~19019
▁Aquarium~~4965
gefängnis~~18613
▁verheimlich~~21112
äfte~~2458
▁Heife~~19130
bottom~~23131
▁Head~~4331
▁Besten~~3162
▁übereinstimmt~~5454
binden~~6804
▁Dutzende~~2407
bindet~~18645
batsch~~19298
▁Welten~~5718
▁plankton~~24494
▁Swami~~8459
▁riskiert~~8664
cular~~24163
▁gelinde~~13506
▁Klang~~3998
▁besuchte~~8760
▁umso~~5076
▁kunstvoll~~4870
▁verblüffend~~10782
mba~~9787
▁finanziell~~10933
▁Pu~~6945
anbieter~~15801
▁beängstigend~~5764
▁Wikileak~~23329
▁legitim~~7856
▁Haftstrafe~~15634
fabrik~~11586
▁höchst~~9777
▁Mustererkennung~~22966
Mutawa~~22411
wände~~14947
▁Weltklasse~~6910
▁Pestizid~~23198
▁FILMCLUB~~2642
▁moralische~~2673
▁String~~12121
azi~~15498
▁Paare~~7625
▁wall~~22286
▁Fotografie~~15553
▁Magritte~~22481
<unk>~~1
▁fossile~~13926
▁Defizit~~7260
▁Athen~~18052
▁Ungleichgewicht~~9853
▁dauerhafte~~5148
▁drückt~~16051
stürzen~~3854
▁Meeresbiolog~~21935
▁drücke~~17594
E~~685
▁robust~~7983
palme~~22000
▁massive~~2003
ßen~~3212
▁Papiermensch~~24754
▁kontrollierte~~8143
▁elementare~~8920
▁lancier~~14118
▁Bewertung~~1702
▁PS~~18554
volle~~3191
osi~~10908
osh~~20776
beltäter~~15482
▁typisch~~7933
osa~~9402
ose~~15918
macht~~7354
gnung~~16903
▁fotografiere~~5744
schweige~~20411
▁Diskette~~19967
▁fotografiert~~5814
▁Manag~~22592
▁funk~~9694
Weltraumteleskop~~20277
▁Los~~4848
▁Lou~~17352
▁Low~~14553
▁Anlage~~11565
▁beziehungs~~9140
▁Lob~~2912
▁jüngere~~6451
▁Log~~13126
▁Kyl~~23450
Barrel~~15147
▁Kyi~~13549
minute~~21078
▁Finanzkrise~~11552
▁Absolute~~22077
Tag~~12003
▁deflation~~23783
▁SOLE~~23893
▁ausgegeben~~1960
▁kreuz~~14714
▁brillant~~13206
▁vortäusch~~4608
▁explodierte~~3544
▁Pandora~~12802
▁Atmosphäre~~2377
Me~~11518
Ma~~6663
▁Benjam~~16914
▁Komfort~~10966
Mo~~6952
▁Leinwand~~2722
O~~4322
▁wussten~~548
Daten~~14250
▁diver~~19117
MA~~9640
MM~~24738
ML~~15182
MI~~17526
kreislauf~~2523
MJ~~24329
MT~~20547
▁Züge~~8150
▁suggest~~24891
▁mütterliche~~13971
gesicht~~14647
bestimmt~~19419
▁symbolisch~~22046
▁Karibik~~451
▁schleif~~16287
▁los~~715
▁lot~~14706
working~~23061
▁low~~16524
▁verheerend~~12372
▁erneuer~~6727
▁dürftig~~7779
▁log~~20922
▁Röhre~~18585
Zentrum~~10288
▁wiederherstell~~5358
▁Castle~~20050
▁Lastwagen~~14591
▁Aufstand~~1673
▁Streit~~15124
ffnung~~12530
▁Kissen~~20302
▁schloss~~10454
▁einzelne~~278
▁baut~~7035
▁Merkmal~~8876
▁meisten~~163
▁Marketing~~7765
▁abbilde~~11889
uszubilden~~12807
▁kreieren~~7378
▁Buschfleisch~~20512
▁Blood~~16813
▁Indonesi~~16268
▁Bloom~~8979
▁Ministerium~~11227
▁zubereitet~~11159
▁auszuwei~~18659
stapel~~14917
Muschel~~16363
▁Lance~~19143
▁Soundtrack~~17985
atar~~20674
▁Eizelle~~10640
▁Getränke~~12504
rgon~~3665
transportieren~~5171
surfing~~15757
▁zurückbring~~4062
▁elektrisch~~8612
▁terror~~19937
▁integriert~~7387
▁Grauzone~~15276
▁angenehme~~14408
▁Autofahrer~~17657
▁zeigte~~4978
▁Brände~~24372
getäuscht~~15448
▁Autofahren~~14918
▁Scheitern~~6538
▁türkische~~10112
▁Gedicht~~6783
▁heranzoome~~18186
Gordon~~13509
▁stellvertretend~~19481
▁Angehörige~~13503
▁gluten~~24751
\~~23014
▁also~~545
▁Cent~~4955
▁Nachteile~~7859
▁feucht~~14014
▁Beschäftigte~~20394
▁Howard~~3082
▁Schabe~~8644
▁Vorzeige~~12603
▁wahrhaft~~8483
▁tough~~23809
▁minimieren~~7166
gefühl~~7111
▁Verdunstung~~22895
▁Hawke~~18546
▁Distanz~~10763
wegen~~3519
▁härter~~6141
▁faszinierendste~~8747
▁Platzzelle~~11907
▁NAS~~18563
maschinen~~6904
▁Superorganism~~22812
▁Hintertür~~8357
▁Lyndon~~19008
▁hineinpass~~4414
▁Gegenzug~~12771
▁spazieren~~8339
weisungen~~19255
▁wahllos~~16193
▁Seite~~295
oni~~6148
ona~~19796
ong~~10982
▁Paol~~19760
one~~5048
▁Funktion~~248
▁Schläger~~16960
▁Augenbinde~~23324
▁Weckruf~~7499
▁packte~~8156
▁scheitern~~6698
▁Arian~~22313
liegt~~11342
▁Herzog~~22468
▁scheitert~~22326
▁Ahmad~~14098
▁Ninja~~18969
▁Gius~~11233
▁Stop~~11025
▁Christen~~12286
▁Galaxien~~9281
▁Trek~~23124
▁Interval~~16941
▁Kopfschmerz~~21903
▁Kinect~~20994
▁serviert~~5055
▁Island~~6420
▁vernetz~~8408
sministerium~~17354
▁zivilisierte~~7848
emen~~639
▁Schlangen~~8223
Infrastruktur~~10838
▁besiedelt~~8171
▁Elekt~~17906
▁gewöhn~~11207
borough~~23362
▁Double~~15793
zog~~5624
jahr~~10938
▁Suga~~23423
iscipline~~24918
antwortet~~17855
plattform~~8597
▁Herrscher~~9982
▁Himba~~24177
▁Steigerung~~16215
phil~~4043
▁realisierbar~~20499
▁vorzule~~7509
▁schief~~5431
▁unsinnig~~20599
reihen~~4157
Schilling~~21953
▁praktizieren~~4545
stimulator~~15720
▁währen~~15441
▁fehlgeschlagene~~21006
▁region~~23407
▁Touristen~~15123
zahl~~2347
▁extrasolar~~20838
▁drei~~546
presse~~7712
▁erfolgreiche~~1711
▁probiert~~14309
antrieb~~14781
▁einzellige~~17581
platte~~8248
stolpert~~11347
▁landesweite~~14580
stolpern~~19774
▁Pfleger~~3529
vision~~12077
▁sieben~~3567
▁Dampf~~5350
▁Eingriff~~2530
▁gestohlen~~11452
▁Chefredakteur~~24140
atlantische~~15593
▁funktionell~~19782
▁Verfechter~~10945
kilometer~~9626
wasch~~4816
▁Rawl~~23864
marks~~24110
▁homogene~~13909
▁weiser~~13944
▁Erzählung~~2672
▁Adler~~17495
▁signifikant~~13414
▁Statistic~~21003
▁Statistik~~9818
▁Zusammen~~10523
s~~128
▁hättest~~6999
Patienten~~18205
rüttelt~~19654
▁Kollektiv~~13490
▁ink~~18516
badet~~15677
grundlage~~5164
▁Missbrauch~~6379
▁längste~~161
rütteln~~16905
▁Leberzelle~~19826
▁Franz~~4771
isierende~~4477
▁Todes~~3874
▁Frank~~2815
▁Franc~~20969
▁Erkennung~~13661
formen~~8884
▁stopp~~24115
▁alle~~94
▁Parker~~22433
gger~~4970
▁Schwarzmarkt~~22100
Bopp~~24147
▁Jacque~~18477
▁freut~~8851
iven~~14240
▁Registr~~8767
ives~~15969
▁Lüg~~17848
▁freue~~3868
situation~~10018
▁fanden~~2412
▁bestäuben~~11153
▁hervorzu~~5477
▁Pinsel~~9352
▁the~~2639
unterschied~~18358
Admiral~~16145
▁Prothese~~15719
▁Fremde~~12037
Forschungsarbeit~~6811
▁entscheidende~~5656
▁suchen~~756
otto~~16174
otta~~23911
▁Tonhöhe~~18899
▁witness~~24465
▁aktive~~9011
▁Schäde~~5832
▁Stygi~~22146
indikator~~21633
▁verfasst~~12683
stäbchen~~11174
▁schreiben~~2479
▁scannen~~12159
▁geschlafen~~10291
▁Osteuropa~~12728
▁tanzt~~11024
dimension~~13793
▁hingeg~~11395
▁Vorschläge~~15055
beine~~10360
▁leider~~5904
ogramm~~13298
Hub~~23327
▁Nacken~~21529
▁Rückblick~~14787
▁leiden~~11764
▁Sousa~~22660
▁Blutung~~22019
fotograf~~19572
itanium~~16415
▁Fledermaus~~18116
▁mittelgroße~~21972
eingenommenheit~~19795
rabbeln~~12984
▁gelangweilt~~12912
▁Kritiker~~2093
▁Weltkrieg~~4801
▁Zusammenhang~~1361
▁Joint~~18504
▁Creat~~24681
Student~~3730
rompe~~23736
▁Ideologie~~19185
▁scharfsinnig~~20467
world~~24712
▁optional~~8897
▁Jahrhundert~~5166
maßen~~4339
COB~~23267
▁lachte~~12873
▁Schlafzimmer~~7610
▁gleitet~~5486
▁lebhafte~~13600
▁Salva~~13496
▁außerhalb~~5879
▁betrachte~~6436
präsentation~~23100
▁gleiten~~15853
än~~9527
ät~~5468
▁beteiligt~~8588
är~~1771
▁Emirate~~18065
▁Mystiker~~20634
▁Matrix~~2608
▁Titelseite~~11794
gelistet~~1581
▁Ohio~~19001
Revolution~~6805
▁Schwieger~~17221
▁setze~~17955
▁Gluten~~24447
▁setzt~~3915
▁Fahrrad~~3187
▁Enc~~17890
▁abhäng~~2156
▁End~~8498
No~~23934
▁Herald~~19785
▁Eno~~23070
▁Enr~~3541
▁Ent~~908
▁Geben~~8540
NH~~24508
▁Sole~~22751
NK~~20424
▁Gebiet~~509
NN~~7466
würfe~~16296
▁Solo~~3292
NG~~11597
▁Lebensumstände~~20582
▁Primat~~19892
misst~~19154
NT~~19978
schutzgebiet~~20318
witz~~12233
Erkrankung~~22654
▁Logo~~4690
assi~~10823
ragg~~6542
asse~~13132
▁Unwissen~~17367
ntwicklungshilfe~~6198
▁Taube~~15418
▁Hülle~~5435
▁Atome~~3360
Nobelpreis~~23898
▁anstrengen~~6683
▁unvollendet~~14322
▁Sag~~8665
▁Kambodscha~~9321
▁Sam~~10459
▁Sal~~8227
▁dank~~680
▁San~~2343
▁dann~~917
▁gehalten~~2960
▁hack~~10102
▁Sar~~20198
▁symbol~~23998
▁großzügige~~19634
▁welche~~1073
▁Whewell~~17073
▁Spielzeug~~4188
▁uniform~~21519
▁neuen~~236
sch~~2455
▁Einzelheit~~10821
▁zukünftig~~8815
▁Aimee~~22813
▁Klappe~~11033
eszenz~~17585
neigung~~12831
▁invest~~18520
▁neuer~~3781
▁neues~~3696
▁Korruption~~11751
▁Mose~~17827
▁wundervoll~~11158
▁Seegras~~22793
▁Herausgeber~~16322
▁Dill~~21751
▁Sperrholz~~19057
▁übt~~14608
▁Gezeiten~~152
pple~~18879
▁Libellen~~22890
▁übe~~13780
▁Größe~~1928
▁Minorit~~19076
alismus~~12244
Hörsaal~~6685
▁anwende~~1810
▁Interessantes~~12406
▁regional~~5341
▁Teddy~~11278
sani~~11234
▁sad~~21002
▁sag~~4374
▁Waldes~~18422
▁sai~~24613
▁sah~~2788
▁sat~~17654
pass~~5545
▁say~~23610
▁Kreditkarten~~8524
▁evolutionär~~4580
▁Moskitonetz~~19628
nterferenzmuster~~19846
lein~~3363
▁Wissen~~1157
leib~~9930
▁Mississippi~~14834
▁Blackmore~~24034
▁unverständlich~~11607
▁Region~~2465
▁Schritte~~1590
▁Gas~~11454
▁Gar~~12733
▁Gau~~10636
heben~~2500
▁Gay~~12315
▁sort~~4961
▁Gab~~7159
▁Babylon~~12677
▁Gal~~11099
▁Wasserhahn~~9981
▁Brüder~~6254
▁Finger~~673
▁rev~~16210
▁Staub~~12978
▁red~~12138
▁unsterblich~~7105
▁Single~~16884
zykl~~10543
▁Ev~~16366
mord~~17359
more~~17350
▁Aussage~~7891
▁gleich~~287
door~~14275
Brennstoffzellen~~11396
▁Ente~~22152
gewogen~~12149
▁baute~~5466
müll~~11704
▁Honig~~17554
▁Manhattan~~9275
▁erschreckende~~19567
▁brauchte~~3897
▁Bordstein~~23887
▁düster~~17331
▁klüger~~19461
▁Pizza~~12012
▁Medikamente~~7782
▁Währung~~14974
mehr~~3735
▁Aktivisten~~16012
▁Versuche~~6301
▁hypnotisier~~22874
▁köstlich~~11235
▁gewandt~~11065
▁Vint~~9594
▁kompatib~~18626
▁erläuter~~4621
brett~~6796
▁Drei~~8238
▁Dreh~~8209
▁Vinc~~24377
▁Schuhe~~3127
▁gering~~3471
▁aktuelle~~9849
▁Westaustralien~~24224
Moleküle~~20071
▁schnapp~~3892
▁korrelier~~10901
▁finanzier~~13222
▁Kohlenstoffatom~~21996
▁Philosophen~~17068
▁Mormon~~24689
▁corp~~24397
isshandlung~~6378
▁Felsb~~16305
▁Proteine~~5664
▁GP~~22722
fülle~~16950
leistung~~1880
▁GM~~21966
▁Höchst~~7420
▁House~~13057
▁GB~~21537
▁Fußballspiel~~18045
füllt~~8523
▁zersetzt~~15398
▁Erdgas~~20199
▁Gr~~3143
▁Karriere~~2193
▁Gi~~13154
▁Beschränkungen~~8955
▁Go~~4699
▁Ga~~9565
▁Ge~~3150
▁Orgasmus~~7608
▁arrogant~~12559
▁Hacker~~12754
▁Kon~~7132
▁Kapitalismus~~12578
▁Pinguine~~21136
operation~~6562
▁SAT~~23510
▁gehackt~~15807
▁entschlossen~~6924
▁Unterhosen~~14487
▁reise~~12459
▁Rhein~~13377
▁Psychopathen~~21577
rmel~~5622
▁entweich~~23651
▁Flugbahn~~9272
zelluläre~~17783
▁aufweis~~9841
▁Belange~~4602
testament~~24077
▁Control~~19535
▁aufgelöst~~15140
▁gefährdet~~14501
▁mexikanische~~9169
▁Ruanda~~2855
gsweise~~18567
▁Bausteine~~15130
▁sauberer~~4833
▁lernte~~5594
▁ältere~~6750
▁ausreicht~~19253
theater~~10368
▁abzu~~760
▁Production~~20913
▁Riley~~24030
▁involviert~~6278
▁Einschätzung~~16548
▁Antarktik~~20429
▁bilden~~2186
▁zwingend~~15034
▁bildet~~826
▁Buchstabe~~14693
▁Lebensräume~~46
▁wandern~~5940
▁wandert~~14007
geschichte~~939
▁Hawaii~~4984
▁Impf~~6133
schmeiße~~1529
virus~~6052
▁aktuell~~9292
▁Java~~20736
▁erscheinen~~4705
▁punct~~11141
Capitol~~23117
▁monolith~~22096
▁Stonehenge~~8212
▁Kennedy~~15580
▁additive~~21469
▁TNC~~21764
seligkeit~~8529
arten~~4430
▁Erfahrung~~2612
uga~~6802
▁sonnenähnliche~~18881
affin~~19204
▁machbar~~6333
▁100,000~~21739
▁taten~~3640
▁Fowler~~23492
▁Lüftung~~17295
▁Mysteri~~7032
▁Shell~~23939
▁Aufschwung~~18829
▁Schwert~~14072
▁abgelehnt~~9902
▁komische~~8374
▁gefrier~~8109
▁Ergebnisse~~1552
▁setzte~~6867
▁Sunni~~3838
▁brilliant~~12085
▁voreingenommen~~20954
▁car~~24375
▁ernüchternd~~21965
▁heitere~~9418
▁Sudan~~13592
▁fühlt~~1490
▁embryonale~~20538
▁reguläre~~8987
▁erledige~~5776
▁Brücken~~14750
▁Fotokopie~~18299
▁erledigt~~11851
▁motiviert~~4198
▁demografische~~16482
▁Endprodukt~~14421
last~~5046
▁abseit~~2375
▁Vorrang~~10326
lash~~21341
partheid~~23641
▁verschickt~~15355
bell~~15610
ometer~~6662
▁Nachricht~~1465
▁Traurigkeit~~13586
provok~~7813
▁Battle~~24831
▁mama~~24217
▁Alternative~~5319
▁mono~~17394
▁Dana~~21716
gänglich~~4765
▁Dank~~985
▁Sinclair~~11516
▁Hack~~17436
▁jo~~22887
▁Bauern~~7165
▁je~~82
budget~~16525
▁ja~~927
geholt~~3623
▁ju~~14953
Drucker~~18678
▁Wagen~~6424
von~~12137
übergreifend~~5963
▁Boulevard~~18467
vor~~2199
nitha~~19466
▁zwanghaft~~23354
▁Romo~~22631
▁abschließen~~8784
▁computer~~15429
▁anschließen~~3847
▁Rome~~21797
▁Parkinson~~4066
▁Selbstmord~~13814
städte~~8445
▁Vorbeugung~~16644
▁entdecken~~591
▁Sunday~~23671
▁nachgewiesen~~13916
kno~~11088
▁Gleich~~9761
▁2,0~~21583
Namen~~20333
kompetenz~~10317
▁Neuron~~15695
läufer~~12396
▁herzlich~~3296
▁versuchen~~502
▁prägen~~12731
▁Absolvent~~15214
▁Basenpaar~~18138
geschoss~~16056
▁Vati~~20860
▁strahlende~~15982
▁Aufmerksamkeit~~4791
▁Mott~~1501
OL~~18545
OD~~23036
OC~~17338
▁Streich~~14037
OT~~23113
technologie~~682
OR~~19987
▁Phasenübergang~~24386
Capture~~23389
▁Glori~~11011
▁Persönlichkeit~~4061
methode~~11422
tisch~~4499
▁gewünscht~~13772
▁Wende~~13988
▁Glücks~~12110
▁Wünsche~~7080
▁Goldilock~~24633
▁Cholera~~12040
▁Vorrichtung~~8657
▁Diplomat~~16164
▁spärlich~~23106
▁Hyp~~15774
▁repräsentiere~~3763
▁Hyo~~24432
▁schütte~~9950
▁repräsentiert~~12264
▁Zeitrahmen~~7938
▁Meer~~71
▁Ride~~23719
jacke~~9630
▁4,000~~11428
▁Tageslicht~~9667
▁angrenzende~~5666
leicht~~4748
faden~~8432
▁Ann~~14522
wuchs~~770
▁Konsumverhalten~~15137
▁Theorie~~9498
▁And~~9863
chai~~24195
chan~~1259
▁jene~~5394
▁Ana~~14640
▁Vietnamkrieg~~13519
bewusstsein~~8093
▁Ghetto~~9317
▁Namen~~2754
▁Behinderten~~22424
▁geknüpft~~10093
▁schläf~~5564
▁beobachte~~12238
mächtig~~12173
▁hyp~~24867
▁mach~~3250
▁müsste~~1938
▁Architekten~~8335
lang~~6146
▁genug~~738
land~~2637
algorithm~~15797
produkt~~4812
terior~~9769
graben~~4411
▁Kruste~~20369
▁dogma~~24223
▁Wochenende~~12625
leichgültig~~18746
▁revolutionäre~~7704
letzt~~10052
▁Papua~~21594
▁Polaroid~~15625
▁bestechen~~17870
▁flach~~8148
▁Kreatur~~400
▁Lago~~22207
▁Nintendo~~14739
Alphabetisierung~~12235
▁Parkplatz~~11891
▁schlagen~~5636
▁hüpfen~~12809
▁veröffentlichen~~8303
▁Bare~~24483
▁aufgebraucht~~18721
▁Elektrode~~19735
▁Loren~~23675
▁Glauben~~6645
▁Bart~~11360
▁Proportion~~12604
▁Climate~~18402
▁Ital~~21765
willig~~5522
Werbung~~22101
gerüstet~~23724
video~~16877
▁Academ~~16945
Bereich~~9772
▁Whit~~9148
▁Kunstwerk~~9084
▁Paradigma~~6005
gefahren~~3234
▁trockene~~3299
berschwemmung~~16916
▁aufzu~~2378
▁Wille~~7450
▁verabschiedet~~9897
▁Briefe~~7674
▁hominid~~16264
▁Willi~~11310
maker~~18828
▁Bilbao~~24413
▁Ranger~~6742
▁zehntausende~~477
▁vereinheitlich~~2091
▁Photoshop~~10580
▁Umfrage~~1586
▁Hirnareal~~23601
▁Stakeholder~~1546
▁äthiopische~~7287
▁Klassifizierung~~7245
verschiebung~~16752
▁ausmacht~~1712
▁geschlechts~~13294
▁Einzelteile~~8333
uallen~~8632
▁Mikrometer~~17549
▁jede~~1781
▁Gewinnspanne~~21236
etti~~5377
▁Verfügung~~6920
plate~~24929
lock~~2687
loch~~13748
ette~~10732
stoffe~~9805
etts~~10511
▁Schulen~~1014
▁Gummi~~10251
▁Sicht~~901
▁unermessliche~~17990
amerika~~453
Färbung~~10181
▁Rüstung~~9582
▁Mop~~22798
▁Mor~~9439
ociety~~17106
▁Moi~~23694
▁Moh~~22129
▁Mom~~8446
▁Zaun~~15025
▁Fortune~~20365
▁Mob~~13285
kolonisier~~15511
▁Frau~~1194
▁Müll~~4795
▁freigegeben~~21263
▁Anzahl~~5290
▁starrte~~16802
ländische~~5913
▁Handys~~1642
▁holländische~~15855
▁Niederlande~~11194
▁Reuters~~21642
▁film~~15755
morgen~~13373
▁wachte~~4641
Sender~~21639
staat~~10935
▁Bekannte~~21084
▁Enkelkinder~~8178
schärfe~~10301
▁Einwohner~~1070
▁Florida~~10704
▁Ingenieurwissen~~9076
▁Hyun~~24488
▁Edinburgh~~21831
▁Sonnenlicht~~16219
▁file~~23451
▁athletisch~~21259
▁Minuten~~2290
▁erstmal~~3884
▁eifrig~~6987
▁Gefängnis~~9333
▁Bankkonto~~19979
matrix~~13423
▁überlegt~~3644
▁Jun~~15768
▁überwacht~~15242
▁Jud~~3248
▁überlege~~6502
▁Falcon~~20440
▁uralte~~9918
Teil~~4866
▁kenne~~3816
▁Parlament~~7417
▁Sonnenein~~10249
Teleskop~~18034
▁verklagt~~10812
▁Graffiti~~18298
▁Fleischfresser~~5107
achtung~~11829
▁Chee~~14588
▁Chef~~11135
küste~~5895
▁Chen~~11747
▁Unglaubliche~~13907
▁anbieten~~2739
▁Kommentar~~2762
▁Jungtier~~9927
▁Kost~~2738
▁erforscht~~357
▁Patriot~~23340
▁erforsche~~17575
▁Badezimmer~~8252
▁seelische~~10057
▁Orchester~~3979
▁Außen~~4109
▁unverzichtbar~~21796
psycholog~~15105
▁Anklage~~8482
gendorfer~~12634
▁voller~~2876
▁vollen~~10477
▁jug~~22354
▁Kapuze~~24199
händler~~5019
atik~~15447
▁thing~~22672
▁boreal~~23647
▁Basketball~~4502
kenntnisse~~16076
Modu~~8966
▁Tarahumara~~22343
▁tippt~~8287
▁Gesellschaft~~1006
▁tippe~~4704
▁maßgeblich~~23071
▁Marokko~~19187
brei~~14617
▁Konto~~16746
▁Basis~~6519
▁Privatsphäre~~14454
▁Basil~~9066
▁respektvoll~~13753
▁Brigade~~6632
stehen~~3707
▁Abfluss~~9975
▁zurückschaue~~12615
▁Hudson~~8382
▁Sprachen~~2681
▁prä~~2860
taph~~14901
tude~~23760
▁Format~~8872
▁Bieber~~18701
▁extrahiert~~13290
▁Adam~~4193
▁betont~~8598
▁Kontrast~~10883
Anhalter~~23276
trauen~~12263
frame~~22825
geführt~~9175
▁retten~~5812
▁bedrohlich~~13820
PC~~18172
PA~~22906
▁Serie~~3988
▁rettet~~12174
▁Test~~9016
PO~~10138
PL~~18229
▁Ebola~~22063
▁einsetzen~~3391
▁Philharmoni~~19592
▁Slipper~~20783
▁erzielt~~2072
▁lebendig~~25
▁Operation~~5579
▁giga~~23538
▁Cliff~~22137
gleichen~~9328
▁schockiert~~6833
▁Lautstärke~~4536
▁Page~~8810
gespräch~~14081
▁Jenn~~8845
▁verwirrend~~9689
handlung~~13688
▁paw~~22762
▁vordringen~~11274
genetik~~13912
▁entfliehen~~10488
▁Programmier~~8911
▁Wege~~2566
▁Cortisol~~22331
▁unterwerfe~~18381
banish~~24509
▁unwei~~21954
▁Phantom~~15624
▁Links~~16329
▁Telescope~~23470
▁spannendste~~14685
▁Amazonas~~13436
▁vorgefertigte~~16007
▁Asian~~23333
▁Ergänzung~~18347
▁Steigung~~2445
▁entsorg~~5071
▁beam~~23891
greifen~~1030
▁kleiner~~369
▁Oktopus~~370
▁herum~~269
füllung~~15604
▁absolut~~5707
▁herumzu~~10773
▁entspannt~~15196
off~~3157
▁Inseln~~17892
Colombo~~22401
▁visuelle~~11940
ssels~~19591
vorteil~~21454
▁Moskitonetze~~18484
▁erzählte~~2977
▁schmeiß~~19032
geschossen~~18087
web~~12344
weg~~6423
wei~~6213
weh~~9658
uantität~~7258
▁natürlicher~~11070
▁Schulköchin~~24671
▁meta~~7688
▁Gemeinsamkeit~~10020
tica~~14900
▁ersetzen~~8083
tick~~18417
▁Kilometern~~733
▁greif~~8005
liebe~~6918
▁Bäcker~~16141
▁Milben~~18375
▁Tyrann~~11617
läd~~1981
▁energies~~11563
▁Reparatur~~7894
liebt~~4691
▁Toilettenpapier~~11696
fluss~~9757
▁hörbar~~14258
▁Ausdruck~~2825
▁Armbanduhr~~17164
▁Verlierer~~20041
▁hatte~~1544
▁entmutigend~~12005
▁Karma~~16192
▁futurist~~5439
▁Verlieren~~21409
▁Molekular~~10873
▁Favorit~~13027
▁Mathe~~1078
▁NGO~~14063
biologe~~15489
gelesen~~10899
▁unkontrolliert~~15710
▁Vijay~~24288
▁änderte~~5241
▁Geiger~~21405
▁chill~~23468
▁Lieder~~1440
▁mobilisier~~12533
▁kürzlich~~2409
▁Vulkane~~20889
▁Ozon~~18185
▁Preise~~7204
▁imitiert~~12360
▁Admin~~21885
uperstring~~24039
▁Downtown~~17238
▁unternahm~~13497
Energiegewinnung~~16236
▁andauernd~~7264
▁BlackBerr~~21883
▁komisch~~8835
▁Weltkarte~~8946
▁Fisher~~7475
▁selbst~~108
▁durchführen~~8131
problem~~11720
treten~~779
▁winzige~~5015
▁bedeutsam~~10243
▁Five~~19711
▁Ungeduld~~16083
▁Verstand~~2514
▁Crowd~~8363
▁Schläge~~6258
▁Nachahmer~~12990
▁muß~~3681
polizei~~13175
▁Close~~21546
▁Doktorarbeit~~21013
U~~1058
▁filter~~4986
▁part~~18641
▁Tabelle~~1050
▁para~~21569
berblick~~7566
▁tendieren~~11425
▁überwältigende~~7155
▁Ziffer~~14705
entropy~~24456
▁impos~~19728
elekommunikation~~7241
▁plural~~21504
▁Elektrofahrzeug~~20831
Sekunde~~15110
beschreib~~19441
▁knallhart~~19506
▁Berechnung~~12583
worth~~16480
▁Zehn~~3626
▁profitabel~~20270
▁Dotcom~~10631
▁Ressourcen~~2237
▁Smart~~13392
▁hint~~23880
▁geschmeidig~~20225
▁öffnen~~3695
▁öffnet~~6601
▁hing~~2416
Menschenverstand~~15476
▁Gans~~23626
▁archivier~~10054
▁Empfang~~7346
▁Eden~~20857
▁Program~~21027
▁Ode~~13857
ür~~7203
▁RFID~~22543
Nullsummenspiel~~20039
▁Vor~~2170
▁McMurdo~~16168
▁Koralle~~10593
üb~~6787
▁Fortschritte~~5834
▁Wolf~~10829
▁angeklagt~~15467
▁Megawatt~~19678
▁fertig~~3496
egulation~~20314
steckt~~7470
▁Schell~~19612
▁Canal~~17801
▁Hungersnot~~7182
▁studieren~~2362
▁enden~~5961
▁Canad~~14772
▁Energie~~626
▁endet~~4291
Spruch~~7107
Nachrichten~~20548
▁Carlo~~9043
bre~~7817
▁Eva~~13975
bra~~19879
▁Eve~~3079
▁Tibetan~~23693
▁Look~~5422
mitglied~~2653
▁gewonnen~~1575
⁄~~7702
quo~~22275
besuch~~16520
▁Einheiten~~6741
▁paraphras~~19444
▁Entfernung~~809
▁Levin~~17984
ers~~8190
▁biblische~~20449
▁Harry~~12007
oyle~~10518
Initiative~~12521
ern~~551
▁Zwiebel~~17731
▁legen~~1153
▁Verlegenheit~~19043
▁Sonnensystem~~9295
▁betrieb~~10506
sprech~~12220
▁aufgeführt~~4497
▁flexible~~10302
▁Sit~~13808
▁Sir~~6745
▁Sim~~13897
▁Sil~~7531
▁laufende~~11667
▁Sin~~955
▁lizensier~~11344
▁Sie~~191
▁Sid~~18515
▁schlimmsten~~7067
▁wählen~~2184
▁tödliche~~15621
millimeter~~23742
▁Iron~~18694
baren~~7114
arch~~9005
▁Schwartz~~22238
▁alt~~1238
schneiden~~5546
▁kontrahier~~21728
▁lerne~~2157
▁lernt~~6537
▁Fleck~~2537
tragen~~1706
▁Anthropo~~23137
▁Andromeda~~13344
▁kilometer~~8768
▁Behinderung~~4083
▁auszu~~4005
schleife~~18161
▁Finanzsystem~~19899
safe~~11543
▁gebogen~~5482
forscht~~11929
ahua~~16912
▁Raumsonde~~17884
▁Schrei~~10358
▁trotzde~~2394
l~~2283
▁bedecken~~3381
▁astrolog~~20989
▁DARPA~~10661
▁geographische~~8415
▁siz~~23513
▁sit~~5323
▁sir~~24664
▁sil~~3385
▁sin~~23574
▁sie~~93
▁Akronym~~19531
▁Teekanne~~17346
Gesundheit~~21988
▁Sinne~~2588
▁Gefühle~~4586
orchester~~18919
▁ferment~~18340
▁Reich~~5848
▁Produktdesign~~22095
Parade~~15425
▁hinweg~~2248
▁Inti~~11440
▁Höhe~~469
vorbereitet~~22641
professionell~~1305
ouTube~~9171
▁Infinit~~18978
▁Shopping~~5179
▁derart~~19888
▁erwart~~10140
▁Bruno~~11230
▁Zebra~~10598
▁Kosov~~19464
▁ausradier~~14222
▁Schaffen~~10281
▁Steuerzahler~~14970
▁Plattform~~7441
▁pissed~~24037
▁befallen~~11398
▁neugierig~~2905
▁Triumph~~3018
▁Meyer~~16066
▁Jacques~~15135
▁hervorragend~~1909
▁import~~20094
▁irre~~4111
▁markieren~~5996
▁verlässlich~~12408
bruch~~594
▁Lern~~1879
Button~~19717
ierer~~15405
▁trocknet~~13875
▁dazugehörige~~20109
aunt~~23114
▁editor~~24780
ieren~~330
▁Elternschaft~~19257
reserve~~19084
▁Zip~~22223
▁Zir~~18028
▁beträchtlich~~21245
▁Verschmelz~~15428
▁Zig~~14826
▁Kiran~~21659
▁Vorort~~12799
▁rettete~~17897
▁distanzieren~~19180
▁Or~~4344
▁Weltmeere~~17014
▁bullet~~23822
▁Ox~~15001
▁Oz~~3051
▁eiserne~~6048
risiko~~7277
▁Ob~~12318
▁Of~~24852
▁Oh~~668
▁Ok~~8022
kapazität~~4803
▁OP~~8345
▁Unterdrück~~12327
▁87~~1835
rung~~624
▁kommen~~389
▁OK~~3431
▁beruhigend~~19762
▁rede~~6414
▁strukturiert~~2190
away~~21216
▁nachdachte~~13393
▁Carolin~~15003
▁Newton~~11420
erei~~2840
▁belief~~20708
▁entwerfe~~20004
ffekt~~13803
▁indigen~~14023
▁Strasse~~6194
▁dominant~~19557
▁Engpässe~~23050
▁Grove~~18672
▁Berge~~470
▁beklagen~~22565
▁Aurora~~20289
▁Gott~~1173
▁Schnabel~~9898
▁Herausforderung~~1627
▁Schmugg~~24018
▁Thank~~23445
▁Nächste~~9666
gesenkt~~9964
▁teilzunehmen~~3698
▁Hind~~12214
▁wirken~~7221
▁Trickster~~24474
▁einnehmen~~7447
▁Weltfrieden~~9232
Kerry~~17373
▁limbische~~21184
▁angehalten~~14892
▁Wiederhe~~16658
▁Colt~~17259
▁instinktiv~~4592
▁Konzept~~976
▁verliess~~14095
▁erbaut~~15883
▁Cold~~21706
▁Cole~~15434
▁Cola~~740
▁Coli~~22421
▁steckt~~1923
▁Ranch~~19033
▁stecke~~13251
▁Skizzen~~14759
▁Orthopädie~~20540
vogel~~15400
istan~~14032
▁aussuche~~10204
▁Swiss~~23565
▁geschrumpft~~10036
▁konzeptionell~~5326
▁Werkzeuge~~5535
▁Zipcar~~19701
▁Jane~~3059
kunst~~7130
▁buchstäblich~~2533
▁Schwestern~~2980
beamte~~16181
hang~~7373
hand~~1757
Herangehensweise~~10222
felder~~11774
▁vorsätzliche~~10554
röt~~14980
▁eindrucksvoll~~19953
▁Tierärzte~~15534
▁psychologische~~7611
▁Kurse~~8748
▁modular~~8867
▁Innovation~~1049
ourne~~4010
räucher~~20514
▁Auslöse~~20076
▁überrascht~~3124
▁naiv~~4757
ol~~1486
▁asiatische~~16160
▁Bleistift~~11015
gewinnen~~15275
▁Menschenmenge~~15983
▁Militär~~2448
▁Viele~~13324
▁Route~~5828
▁span~~19122
Restaurant~~22514
▁Friedman~~8785
▁Vergeb~~23180
▁Abbild~~2573
rankenhaus~~4081
▁beachten~~4885
▁Porträt~~20134
smodell~~4573
▁Bernoulli~~21388
▁Kahn~~17308
▁Kahl~~8527
night~~20619
▁erstellte~~11989
fähigkeit~~12075
▁Präsentation~~8365
▁Geek~~21147
▁Westerner~~24401
▁Einstein~~9028
▁Gallo~~5
born~~21235
▁falsche~~6249
schossen~~19579
▁empor~~14838
▁Geliebte~~11447
▁Feel~~24360
peer~~22533
Grad~~9701
▁hergestellt~~4898
▁Rechteck~~14238
▁Natalie~~23035
▁Differenz~~17101
▁Kralle~~15415
▁Rassen~~1375
▁Astro~~20847
▁Pfeile~~20202
▁Freestyle~~23155
berwachungs~~1285
ürf~~13166
▁zunehmend~~2660
▁Klischee~~18989
Blase~~18684
▁Beifahrer~~21565
▁befand~~2005
▁Earle~~6022
▁Minute~~3818
▁wundersame~~5871
▁Re~~5370
▁Change~~23633
▁Ra~~2047
▁Ro~~4880
▁Kriegsgefangene~~14059
▁Ri~~16173
▁Ru~~3197
rauch~~15643
▁Entsetz~~17223
▁RG~~8822
gewalt~~16503
▁Kammer~~2388
▁RM~~14768
▁Parallel~~12658
gemacht~~5542
▁RP~~24080
▁große~~808
▁unwohl~~13795
▁ruht~~9156
▁schlicht~~13791
▁Gleichgewicht~~11635
test~~2243
▁spezifische~~11625
▁Motorrad~~6823
▁süß~~16127
▁Taiwan~~11741
▁Insel~~4875
▁Beschäftigung~~16317
▁bugs~~21176
▁italienische~~7683
▁ballet~~24467
▁Spieldynamik~~23371
Verhältnis~~18397
▁begeistert~~2887
▁vernachlässigt~~2847
▁begeistern~~11604
▁Anruf~~8255
▁Zombie~~21729
▁platziere~~4282
▁ereignet~~20774
▁seriös~~1188
▁Parfüm~~22752
▁Alge~~15687
larven~~18391
▁Tschecho~~20630
▁Ablenkung~~7691
▁Geduld~~7507
ennett~~6973
▁Pick~~2882
▁qualifiziert~~10807
▁Moll~~18529
▁Type~~23714
▁Mola~~24936
gua~~10256
gue~~21553
gun~~1908
▁bewirkt~~4336
gus~~18238
gur~~5978
gut~~4851
▁qualifie~~23372
▁ignorieren~~9987
▁250~~8796
▁Blasen~~12063
säure~~855
▁MBI~~10876
▁Forschung~~3417
▁Märkte~~5340
▁befreien~~4817
▁MBA~~6932
▁Welle~~4746
▁konstant~~10758
▁Haw~~22185
▁Har~~3080
▁korrigieren~~8916
medizin~~7100
▁mathematische~~8906
spinne~~13250
▁Had~~16112
▁Moslem~~12737
▁Hab~~14381
mechanische~~20288
▁Han~~3069
▁Kerzen~~20433
▁Hal~~8391
▁Ham~~10483
▁Hai~~2941
▁hinkriege~~14403
▁GSM~~24255
▁Ermittlung~~14435
versuch~~2752
▁cha~~23598
möglich~~16495
bildung~~1713
lastic~~14370
▁abschalte~~22494
▁tabu~~22758
▁Deckel~~8448
▁akustische~~4141
▁Goodwi~~19007
▁ROV~~23704
▁grati~~17212
flüge~~14010
regel~~15107
regen~~7886
Feld~~5080
▁denkbar~~11630
▁Atala~~19822
zipation~~20242
▁konservativ~~17054
▁fasziniert~~8273
▁erkannt~~5877
geräusch~~13705
decken~~9143
abyte~~22642
▁Guinea~~20999
▁Lösch~~22566
zeugen~~11942
▁Skydiv~~15747
▁Werten~~8292
ibu~~2838
▁Ikone~~11321
chip~~10712
zuschätzen~~10808
▁Materialien~~3371
chim~~21682
▁Methoden~~2192
▁hat~~84
▁hau~~8649
▁has~~11601
▁hap~~13958
▁Sitzplätze~~18062
▁make~~22168
▁Neptun~~17925
▁hab~~1040
▁ham~~21415
▁Staunen~~18038
▁ikonische~~2634
sklav~~21778
▁Einkaufszentr~~2137
Radio~~10920
▁puzzle~~24036
Ship~~20256
kurs~~6003
endes~~8740
ender~~7063
▁schickt~~10410
▁Seva~~24035
▁konsistent~~17631
▁Einzelperson~~1144
▁kombiniert~~4426
enden~~2745
▁Chile~~1856
▁Child~~12485
RW~~11002
verschwenderisch~~16270
▁Blickfeld~~8720
▁schauen~~142
RA~~17033
RB~~18234
▁infiziert~~1001
RL~~20330
▁zweitgrößte~~7375
▁buddhistische~~13799
▁erotische~~21906
nox~~22646
not~~9001
▁us~~16952
spielen~~6463
▁esoterische~~17909
▁Rauschen~~9469
magazin~~22810
▁Pedr~~4966
▁un~~1304
▁um~~204
spieler~~5517
▁Angel~~9717
▁uh~~20502
▁vari~~23353
Museum~~17751
ächte~~2835
▁interplanetar~~18439
▁ausschlaggebend~~14105
▁erleide~~9928
▁terra~~24285
year~~24711
ft~~1263
▁2009~~1832
▁klatscht~~22928
▁Convention~~24146
▁Styropor~~14627
▁Barbecue~~21133
▁Exoskelett~~24321
▁Sechsjährige~~18095
zählt~~720
glück~~7062
▁befreit~~5254
▁replizieren~~19641
▁deutlicher~~10892
▁Laptop~~1300
▁Klassenzimmer~~3186
liefert~~4266
▁Grashalm~~20506
▁zuvor~~2541
blind~~9722
gegenstände~~11394
bling~~23779
▁risk~~23517
▁riss~~10349
bibliothek~~16157
rine~~11500
▁Planeten~~118
▁mittel~~438
▁bewegliche~~9340
▁Gerüche~~5263
▁festzu~~8562
▁stoppen~~5044
▁zwang~~5364
▁Gerücht~~20412
▁Comics~~15251
▁flip~~24757
schlecht~~22237
▁Luxemb~~1941
▁Craigslist~~19214
▁schließ~~10536
▁behutsam~~19320
▁Drogen~~6476
▁Fettleibigkeit~~9823
▁Protozellen~~23943
▁Scherz~~5313
▁What~~17378
▁Fotograf~~19005
▁Teenager~~2776
▁Curriculum~~22497
oleum~~17768
▁Gangesgavial~~24183
▁intellektuell~~15024
▁Museums~~9135
▁Indiana~~15640
▁Streichholz~~17969
▁Express~~14605
▁Spar~~15155
▁Spas~~15977
▁Spam~~18168
▁gekrümmt~~18004
▁Kelvin~~20840
▁Special~~22530
▁verwendete~~8600
fremd~~12579
▁lustig~~1450
keit~~2794
▁stabilisiert~~16780
▁steuern~~2511
▁philosophische~~7588
▁homophob~~24833
▁steuert~~18059
▁Ausschreitung~~17899
Sharing~~16583
stair~~23234
▁intelligenter~~6332
schläge~~7425
▁potenziell~~8714
▁verbreiten~~4563
agentur~~17191
schreibung~~9103
▁Kontinent~~5883
▁mittler~~4519
Kommunikation~~15357
▁verbreitet~~3533
▁rechnen~~17627
förmig~~7928
▁Ash~~19924
▁Ask~~20951
▁Espe~~14811
burst~~9170
▁Asa~~11739
▁meldete~~9714
▁Besprechung~~12365
▁Ass~~13234
▁wert~~1136
▁AlloSphere~~14224
wechsel~~4263
▁Mashelkar~~21908
▁Town~~18248
Wert~~3963
▁sponser~~10429
▁Intellektuelle~~12116
▁übersetzt~~13319
männer~~7807
Team~~8128
parteien~~20808
▁Northwest~~4926
▁Stock~~5863
▁Argentinien~~19769
▁religiöser~~3630
struktion~~16931
▁angespannt~~12294
Sache~~16098
▁Kalzium~~15395
▁security~~24133
▁Straftat~~15619
▁Rechtsstreit~~23228
▁Verschiebung~~12691
▁Front~~15045
▁Straßenecke~~16791
▁passt~~4260
▁Geleebohnen~~24673
▁offenbart~~13117
▁inkonsistent~~24012
▁passe~~7729
bereiten~~5981
▁Leichen~~15586
▁vielversprechen~~7909
▁effizient~~7212
▁vertieft~~22378
metric~~17901
▁raste~~23632
▁Korrektur~~13965
▁Puzzle~~12420
▁Accenture~~20929
falke~~22786
▁schlechtesten~~2085
Israel~~4692
▁Impfung~~8829
narrt~~20828
▁Erweiterung~~5175
▁triff~~565
▁betäubt~~17976
▁lesbisch~~12253
▁Bibliothekare~~19111
genoss~~15042
gefordert~~11324
▁umdreh~~14457
gerechte~~14556
▁Eisbär~~14293
▁gekleidet~~13610
knete~~19278
Service~~21675
▁gesagt~~217
▁erschwinglich~~8241
▁Dokument~~9548
▁pre~~9401
dipus~~23952
▁pro~~615
▁Bengal~~23921
▁griff~~16725
euros~~23135
▁überfüllt~~7671
verse~~13652
▁Ehefrau~~6860
▁Spaghetti~~18451
ami~~15245
▁wage~~16954
▁Supermarkt~~4626
amo~~18996
ame~~11564
allererst~~8948
▁vorgesehen~~13843
▁Reuther~~22211
amp~~3840
geschickt~~15960
blutet~~23997
▁Synchroni~~13842
▁auto~~1270
▁Urteil~~12161
▁Röhren~~631
▁miterlebt~~7096
▁something~~18790
haram~~22639
▁Bestäuber~~12985
▁Therapeuti~~21721
verbal~~22584
▁langwierige~~9470
▁unbegrenzte~~7875
▁fettleibig~~5131
▁Seide~~16443
▁außerirdische~~8198
▁spürt~~12644
▁Wartezeit~~20862
▁Wachs~~14419
▁Ecke~~6361
▁spüre~~19054
▁1947~~14045
▁bewohnt~~792
▁Brahm~~23971
▁versorgt~~2992
Computerprogramm~~17675
▁Accra~~22208
▁Jeff~~14961
▁TEDxB~~993
▁TEDxC~~14136
▁Bogota~~17362
▁Aufwärm~~18413
▁überzeugende~~14137
▁Zweig~~9347
▁ehrenamtlich~~10289
▁Expedition~~8573
▁TEDxS~~11965
▁Gier~~19159
▁beschaffen~~6366
▁Minen~~13709
▁anstellt~~16214
hertz~~10365
start~~16235
▁ökonomisch~~20818
▁Kni~~14380
▁Befolg~~22932
▁Okay~~4679
▁Hütte~~14489
▁anschaulich~~8912
▁Olso~~23447
▁IBM~~11451
▁Formulare~~21276
▁Scharf~~22621
zentr~~5158
600~~12636
▁Solarzelle~~15692
▁verleugne~~17264
▁Vivien~~23901
▁taucht~~12569
▁Grand~~11463
oulder~~21544
▁meiste~~183
▁amateur~~13108
▁Mitgefühl~~4723
▁Gartenstühle~~21571
▁Griffi~~19665
▁Kehl~~11868
▁Katastrophen~~7966
sekunde~~10040
▁Holzfäller~~21217
▁Verlauf~~5430
▁Kehr~~17115
pool~~8756
▁beautiful~~23609
▁Anla~~15958
▁voraussagen~~16678
▁örtliche~~9461
▁Höhlenmalerei~~2655
▁drum~~20878
▁Rohstoff~~7249
▁Ballon~~15766
leite~~3559
▁Schraub~~3485
▁Infanterie~~22190
putzt~~14975
▁begreife~~3438
▁Turin~~22391
anav~~24527
▁arbeiten~~1201
▁leistet~~11827
▁Artenvielf~~10559
▁Wesen~~250
▁Grammatik~~8309
▁vereinfachen~~9445
▁arbeitet~~4222
▁leisten~~1780
▁Hausaufgaben~~7646
▁abzuwenden~~5804
▁Capital~~20226
▁kühne~~14944
Robi~~22434
atory~~23801
▁cochlear~~23594
▁vortragen~~7138
Korea~~22492
Patient~~18232
infiziert~~16638
▁Karen~~15129
▁technology~~21306
▁neutrino~~24682
▁verboten~~6839
▁ehren~~16860
▁ADHS~~15072
▁griechische~~4147
▁liebevoll~~20395
▁pin~~22850
▁Atomkraftwerk~~20749
▁Tierarzt~~19584
▁Sonne~~794
zunutze~~14889
▁fund~~18884
chlupf~~22131
gebiete~~5989
▁Appeti~~5186
▁Pur~~3042
▁Schnauze~~17947
▁männlich~~9851
▁Dan~~3423
▁kleinere~~834
SS~~9270
Fünf~~21096
SP~~15143
SW~~24104
ST~~21223
SB~~21612
bevölkerung~~7865
SE~~21360
▁Sikh~~23975
▁Niels~~21527
▁Intervention~~15046
▁betrachtet~~4231
▁betrachten~~1901
▁binaural~~23791
▁Betracht~~12409
▁Schätz~~5974
▁rekursiv~~23608
▁Winky~~24274
▁Fat~~14109
zuleiten~~21657
tscheidungen~~7422
▁Atomkraft~~14521
▁Schreiben~~10311
▁Stanford~~5571
▁schlecht~~1037
▁wahnsinnig~~7282
▁Pun~~22367
▁beabsichtigte~~17722
verarbeitung~~14683
kalien~~18808
sabläufe~~18465
▁feindlich~~12539
Marathon~~12395
▁wildest~~17087
▁erschöpf~~9685
systeme~~13218
Universität~~7673
▁Evaluation~~14158
▁Wert~~1154
▁einzig~~14748
muskel~~6793
cer~~12309
▁Werk~~9118
▁Werf~~15198
▁Wunde~~9207
▁glaubwürdig~~6755
▁Superheld~~22183
▁konkurrieren~~12866
▁kongolesische~~21773
zugrundeliegende~~7436
▁Zukunft~~1101
▁räumliche~~11900
Theke~~10367
▁Surf~~20360
▁Testpilot~~2449
▁irrsinnig~~11371
▁Textur~~12997
▁Stalin~~15090
▁farbenfrohe~~12202
7~~4399
▁Großzügig~~18528
▁erweisen~~18687
▁Dakota~~12357
▁Arme~~2579
▁Pate~~19489
▁Filmemacher~~3047
▁Positiv~~18411
▁Army~~6546
▁hervorragende~~1902
▁ausging~~17031
▁Pulver~~18364
▁wander~~19316
▁Seelsorger~~24652
▁vereinen~~14082
▁salt~~20178
▁Wasserfall~~9641
station~~3444
▁Gesichter~~2790
▁herunter~~6079
▁Trug~~20002
▁Plateau~~19065
▁Lager~~7394
aufwand~~15888
▁bell~~14803
▁provoziert~~2858
▁Old~~13937
▁interessante~~3788
▁Ola~~23373
▁Asia~~10653
▁Olu~~24118
▁Rede~~9193
▁erwartet~~6484
▁Bedenk~~17154
organe~~16799
▁nachzu~~5907
▁erwarten~~2151
▁reagiert~~2022
▁fortzu~~6037
▁reagiere~~3716
▁japanische~~2158
sektor~~7435
Erscheinungsbild~~21368
▁Interviewer~~20628
▁Tulle~~14746
▁Krümmung~~9474
▁Massaker~~20125
▁Fülle~~5854
▁Abenteurer~~21059
▁Weltall~~9556
▁feststellte~~12790
▁Lebenszeit~~15673
▁Stimme~~3986
▁Flüchtling~~19658
▁gespielt~~1348
Erfolg~~23685
▁Neurobiologe~~22692
▁angewandt~~2116
▁7,5~~22823
▁Interface~~4018
▁symptom~~5683
▁Kubikmeter~~15393
einkommen~~5951
abend~~13654
▁erschreckt~~7523
▁Meiste~~21619
▁Bösewicht~~10462
▁entschloss~~9350
▁Illustration~~8013
▁Blinden~~13256
▁fiel~~5597
konzert~~18898
▁Feindseligkeit~~12859
▁kompakt~~5151
▁DDT~~9936
▁feindliche~~13173
konzern~~6929
▁aura~~23740
▁Kernfusion~~21679
culture~~18986
▁Juan~~12506
portrait~~15654
Lösung~~22840
▁Relativitäts~~18001
kunft~~11050
opper~~10983
erfolg~~7657
▁verblassen~~17643
▁Ackerbau~~13400
▁Schwellenländer~~7363
▁Sonnenunterg~~15450
rbleib~~21927
gebaut~~5342
▁Vorsicht~~6006
spray~~24024
spiration~~19141
▁Vasco~~9564
▁Bodenschätze~~19460
glied~~11925
▁Drogendealer~~18318
▁Geschäftsleute~~16000
▁implantier~~18619
▁Congress~~15597
▁dutzende~~13439
▁Anästhesie~~17198
▁Drohnen~~22765
▁antiqu~~21085
N~~5740
▁kämpft~~996
▁erstaunliche~~8414
▁Cartoon~~10853
richten~~3141
▁schuldig~~1456
▁Verkehrsstau~~21981
▁zurückkehren~~6626
▁aufbewahrt~~10096
richter~~6377
guide~~23219
pack~~3661
▁Krebsforschung~~21335
▁Ausblick~~14300
▁Enthusias~~6343
▁Löwin~~24242
▁Drug~~10605
▁Usbek~~24060
▁Terra~~20339
▁vergnüg~~21975
▁religions~~24051
▁Ausbeut~~12556
▁ebne~~18521
▁rum~~6453
▁run~~19901
▁Falle~~5658
▁irgendeine~~4177
täuschung~~19311
▁ACE~~23143
▁Lanting~~24280
▁saure~~20703
Sequenzierung~~6087
▁bürgerliche~~16704
▁Krebs~~7017
▁Regierung~~2805
▁wohlhabend~~14470
▁zöger~~7872
▁jahrelang~~10995
ight~~23001
▁Byron~~16473
rufe~~7677
▁Drähte~~8454
▁segel~~17261
▁gesprochen~~862
ruft~~1003
▁Aufsehe~~21854
▁träumen~~9541
▁Original~~11407
▁statement~~20972
▁7.~~9702
▁Big~~8364
▁79~~22866
▁78~~9588
▁Nino~~20888
▁Arena~~4324
▁71~~22943
▁70~~552
▁Folie~~5328
▁Schwärme~~11435
▁75~~116
▁74~~1834
▁77~~21332
▁76~~7776
älen~~3498
▁hundert~~340
economic~~24763
▁Krücke~~6260
ulosi~~22939
▁Hirnregion~~14232
▁auslösen~~9025
▁Thron~~19286
schön~~11005
ishman~~19909
▁Baseball~~7034
furchteinflößend~~18494
straße~~5443
Bild~~8350
▁gelernt~~1357
▁Pamel~~19873
▁Kanten~~9471
▁Magie~~14869
▁Collect~~15877
▁Zai~~21768
führer~~1605
▁Anreize~~3603
▁Eco~~11651
▁Nun~~8043
▁Zambia~~24415
▁Gold~~10622
▁Golf~~10906
führen~~1869
▁Rahmen~~3163
▁gesammelt~~2472
▁Code~~2674
▁ausgetrocknet~~16045
pionage~~11590
▁blinde~~13674
▁Pretor~~22909
▁Jahres~~4616
▁Denkens~~18459
▁streich~~4139
erlangen~~2209
▁Material~~3309
▁Jahren~~879
richtungsweisend~~15013
gerät~~9670
▁Himmels~~6444
▁zurückdenke~~19040
politik~~3783
▁Afrika~~4370
▁kritisiert~~10802
▁intentional~~23053
▁genügt~~19234
▁kritisiere~~13124
TV~~17833
TH~~10753
haft~~2824
▁Mönch~~13548
▁Knall~~4292
▁sickert~~9888
TA~~14369
▁vermutlich~~861
▁wiederverwertet~~18794
▁kostenlos~~7761
rlei~~3535
wohl~~92
▁nun~~1796
▁nur~~234
▁nut~~20157
▁eigen~~2903
e~~123
▁stabile~~16888
▁Aero~~18543
▁Bateson~~22091
▁spin~~24559
▁Gitterzelle~~11927
▁Volkswagen~~21911
▁spit~~15493
▁Facebook~~3935
▁Zigarette~~8734
▁Universum~~8517
▁Lifesaver~~23969
▁Idioten~~12419
lichkeit~~2666
▁bereits~~549
Regierung~~15463
▁damit~~556
▁Phrase~~12896
wave~~24927
▁vorzügliche~~16372
▁schwierige~~3798
▁übernahm~~10384
▁armselig~~11733
▁Kanarienv~~14821
▁Hewlett~~23726
▁Erkenntnisse~~15771
▁viel~~1182
▁Tausch~~19563
▁tiefgreifend~~2743
▁Rasmus~~22301
▁herausgegeben~~20140
▁trivial~~22763
▁Vater~~2771
yntax~~14004
▁Radiologe~~10786
einigt~~20218
gemeißelt~~9034
▁wachsende~~4037
▁Salz~~16169
▁applaud~~12883
▁Speer~~10113
▁electric~~24776
▁offene~~10535
▁Fermi~~23122
rausch~~18078
teppich~~5779
▁Leon~~17120
▁mm~~8708
genz~~16429
▁eigene~~394
Inhaber~~11331
▁puls~~14266
▁Dori~~19006
▁schaut~~4245
▁schaue~~8254
▁wendig~~22557
▁student~~8821
▁zentral~~5156
▁instabil~~10756
▁Zu~~4406
▁gross~~4544
▁Zo~~4979
▁Ze~~8194
▁Za~~12240
▁aufgeladen~~14465
▁gewöhnlich~~9490
▁feststelle~~9419
lapse~~24526
▁Verlängerung~~7968
▁Atkins~~21897
▁Appalachian~~24431
▁naheleg~~15185
eimer~~15957
▁bahnbrechend~~10923
Vortrag~~16199
▁Handlung~~4149
▁Böse~~12022
einrich~~20717
▁Anato~~22151
svorsorge~~14180
fare~~11790
farm~~14568
▁nutze~~17270
▁bike~~23747
▁tief~~336
▁konvertiert~~17663
▁fassbar~~19727
▁nutzt~~7547
▁Laufen~~1431
▁stattfand~~8574
▁gerecht~~10232
▁shopp~~17838
▁Erkennen~~20082
fälle~~4064
▁Mikrokredite~~22594
▁Mechanismus~~10710
▁hydrothermal~~527
fällt~~8413
vorrät~~22034
▁selbe~~2315
▁that~~22673
▁Mode~~14850
▁bewusst~~570
uartal~~15168
frontal~~23770
▁Atelier~~19843
projekte~~4115
▁seit~~876
▁lung~~17071
▁nomad~~13396
mörder~~19395
▁seid~~9229
ärme~~15509
▁sein~~890
▁großartigste~~7350
ngerung~~10948
warten~~15772
▁Spektroskopi~~20834
▁optimale~~12098
▁TED~~14
wartet~~10375
▁Hin~~4532
▁Elend~~7850
▁stabil~~880
▁Arro~~20508
gepackt~~4162
▁Steine~~12026
▁drama~~24239
▁Hip~~4489
▁Grim~~11318
▁Fungi~~23775
▁Gris~~23262
▁stünde~~15560
▁erkenne~~13672
stiftung~~14027
▁Hugh~~23795
▁erkennt~~5950
▁Kondome~~7755
praxis~~18749
▁Flüssigmetall~~22841
getriebene~~15278
folge~~7031
▁theoretisch~~5748
▁Zusammensetzung~~2107
▁exklusive~~19212
chirurgie~~21500
▁Parasit~~19630
liste~~7734
▁manche~~1589
▁schwächer~~2704
▁Kaufhaus~~16289
▁hin~~388
▁him~~13520
lastizität~~5679
Interview~~21398
▁hit~~10936
▁hir~~1240
▁his~~18663
▁hip~~23067
▁mehrere~~335
▁Letzte~~4050
▁Türme~~17544
▁angestiegen~~1756
ure~~6653
urf~~10123
urg~~1942
ura~~2729
uro~~8604
▁bald~~2509
umweltfreundlich~~14519
inda~~14132
futter~~5092
ury~~4078
▁Lamm~~21437
▁Protagonist~~9133
▁Großmütter~~1178
▁faltet~~9513
schein~~3674
▁Lama~~10573
▁eingehen~~11537
▁flash~~22719
▁Emotion~~14812
▁hüte~~20610
▁Trieb~~11411
▁Kanal~~8388
▁hereinkomm~~16534
▁Schilder~~10363
▁Baby~~1197
▁Website~~7649
▁Brauerei~~21438
▁Bereitschaft~~20587
▁reinsteck~~20579
▁Gericht~~8514
kopf~~11869
▁einfache~~651
▁kein~~620
▁Umdenken~~18119
▁einhundert~~8184
▁Blätter~~3552
▁Fahrt~~9773
▁evolution~~24762
▁beleuchtet~~17332
slosigkeit~~15212
▁Scheiß~~12006
▁besitzen~~4887
▁Hafer~~14616
▁ansah~~7027
▁Messer~~2563
▁Hafen~~5205
▁Fäkalien~~15538
▁Bürste~~18717
▁stattfinden~~1677
▁metric~~24194
gespräche~~1644
▁Antennen~~15761
▁prototyping~~22512
ken~~2502
kel~~4976
kei~~20335
▁Movember~~21320
▁Mama~~13063
ket~~17281
▁beep~~22011
ker~~11535
▁Paper~~22108
▁North~~3237
▁Tschetschenien~~23932
▁Pranitha~~21618
gesprochen~~3504
▁Richter~~10443
▁pubert~~20945
cent~~24350
▁Stiefel~~16556
rwin~~6671
▁Mitwirkung~~15459
cene~~23279
▁immer~~485
▁Kirche~~11268
▁Paradi~~20196
▁Nicole~~10687
▁TR~~20970
medikament~~19239
▁verübt~~19150
▁Urzeit~~8205
▁einzigartig~~5544
wöchige~~22527
▁gesetzt~~2277
reaktion~~15109
zusehen~~3787
▁Nachkriegs~~12243
▁spannend~~6230
hütte~~5447
▁Virtual~~21502
fügung~~7077
geschwindigkeit~~7954
▁Hurricane~~23298
kosysteme~~15897
▁Spin~~14231
▁Rechte~~11316
▁sick~~21129
▁sich~~146
squalität~~3801
▁Lautsprecher~~19779
▁Rechts~~5719
party~~12762
▁integrierte~~3006
▁ruinier~~14311
▁Guatemala~~23599
▁Jaguar~~15860
▁Teleskop~~16355
▁Siemens~~19996
anpassung~~19917
destruction~~24672
rift~~22707
▁Amateure~~17078
▁cue~~24119
▁TM~~22007
riff~~22709
rausgefunden~~600
▁Kolonien~~610
▁triple~~24866
▁Hommage~~17265
▁Times~~8787
▁Skeptic~~19595
möglichkeit~~2175
▁Missionar~~22863
▁Skeptik~~10881
▁Grösse~~1362
▁bedeckt~~3313
▁umsichtige~~15138
▁Kreislauf~~5240
▁Gecko~~22267
▁Affair~~18636
▁Ausland~~6526
▁Röntgen~~10837
▁Gibra~~21608
tles~~17
▁Ambassador~~23994
▁Städt~~7326
lose~~1241
mildern~~14938
▁auftrat~~6082
▁verheiratet~~9210
▁Balkon~~17321
▁Israel~~2981
▁modern~~5281
home~~17556
homa~~17042
▁kostengünstig~~19197
▁Unberührbar~~24283
wende~~17621
sunterschiede~~2233
▁zahlt~~3588
▁Spaß~~1310
▁Geschenke~~16819
Up~~10419
▁Tasmanien~~19570
▁Buchstaben~~14692
▁Verbindung~~2570
▁separate~~16092
US~~21220
UG~~15770
ubb~~14658
▁fragwürdig~~17666
▁Koch~~14609
▁Kartier~~22706
pistole~~17149
▁Tweet~~8418
▁Seil~~10098
▁Sein~~16831
imini~~7829
gruppe~~1560
▁Lieblingslied~~21209
architektonische~~9479
▁Glaubens~~2826
astro~~8206
echten~~8499
uadratmeile~~16256
▁Nebenprodukt~~15210
▁stroma~~19369
▁Weather~~9687
▁Lieferung~~20389
itis~~11052
▁homosexuell~~12241
▁dieser~~362
▁drauf~~3853
▁trink~~1206
▁Kopenhagen~~13568
atya~~23322
▁einge~~3487
▁Kälte~~14298
▁diesen~~421
▁Eisenbahn~~5243
▁Judentum~~12690
▁Konzepte~~11301
rmste~~14908
▁Gaza~~14031
star~~6204
▁begangen~~3715
▁frontal~~17320
stab~~13016
▁Maps~~18583
stan~~7133
▁Brazilian~~24367
▁Dopamin~~15704
hne~~8744
▁schüttelt~~4731
hnu~~23504
runken~~3215
▁schütteln~~8504
▁Speise~~10610
▁zusammengesetzt~~522
▁Glanz~~20778
▁Rodrig~~15453
▁Ausmaß~~2308
schmuck~~20500
▁morph~~19839
▁prim~~24475
aub~~8356
▁Mauriti~~14340
auf~~888
▁Sonde~~21794
aus~~593
▁Cover~~7606
Grenze~~17918
▁Privatschule~~7659
▁Sicher~~15822
kündige~~18132
▁Matthew~~15411
▁Laute~~18113
▁Hefe~~18337
▁Obdach~~14443
▁studie~~19841
▁Affen~~10594
▁studio~~23537
▁Heft~~3449
▁Gardner~~14695
▁Kühlschrank~~3669
▁gemeinnützig~~19103
Figur~~21799
▁nein~~929
▁Tech~~12853
virulen~~23658
▁städtische~~6176
▁Charter~~19643
▁Biolumineszenz~~313
Wasser~~16218
▁hoffnungslos~~9384
läut~~13107
▁spanische~~14807
▁Prostatakrebs~~21321
▁mühelos~~11189
▁Enzym~~9855
met~~9621
▁Prognose~~14630
romegal~~22194
grenze~~3614
▁kurzsichtig~~16498
▁Akte~~10471
▁verglich~~10294
▁antwortete~~4669
▁Disease~~24598
▁gestartet~~5975
▁entwickelte~~5484
▁Disneyland~~12017
▁Knete~~19276
▁sche~~10546
▁Worte~~4100
berdosi~~6457
▁Alam~~23025
▁Düsen~~8611
▁schw~~8569
▁Metrik~~13286
▁gesichert~~15555
▁Metric~~22911
▁flies~~14264
▁Lion~~16684
▁herausgefordert~~2065
aufbau~~7615
▁extrazelluläre~~23877
▁interpret~~24888
▁Augenblick~~813
room~~17859
▁eingeführt~~5991
trotz~~922
▁hinaus~~992
▁hyperbolische~~8824
▁Schwarm~~14245
▁Maske~~7467
▁11.~~6629
▁Hunderttausende~~17028
schneide~~9519
befehl~~6679
mitglieder~~10501
▁Schwarz~~10599
▁ADH~~24238
▁Kaulquappe~~20558
▁Strukturen~~4268
▁Himalaya~~7169
▁warten~~3852
▁wartet~~889
▁Andy~~9785
▁reproduzieren~~11406
▁beleidigt~~16803
▁fuss~~16291
▁beleidige~~14000
▁Kulturen~~2646
▁Kindersitze~~23085
▁grausam~~5627
▁Konservative~~11249
▁worden~~1181
▁irreführend~~21392
▁Vorschul~~23427
▁Ejakulat~~23016
ontinuität~~15316
▁trainiert~~7033
personal~~9405
▁trainiere~~4093
▁versehentlich~~1146
▁verbracht~~5818
▁hervorruf~~8539
▁Beschneidung~~14207
ania~~11286
▁Börse~~3690
▁Schlüsse~~9372
▁zieht~~6264
▁Beijerinck~~23894
▁ziehe~~7835
▁These~~867
aida~~21385
ymptome~~16634
riegel~~13227
▁Mischung~~8337
▁Gründung~~12703
▁Lehrpläne~~11569
gelder~~17112
▁Abendessen~~3204
manda~~6972
▁Bund~~12112
▁egg~~24661
komprimier~~21358
geteilt~~3560
körper~~2528
foto~~14351
▁unverschämt~~21047
city~~16428
Dodi~~21685
▁problematisch~~16343
▁Transition~~16531
▁passen~~3940
▁Filmstar~~19303
▁Friedens~~4806
hundertprozentig~~21270
▁Genuss~~7711
zapf~~14150
▁pay~~22904
▁kriege~~6863
▁pat~~20608
▁par~~18305
▁adjust~~19941
▁pan~~7442
▁DM~~24097
▁pal~~11819
▁Ziegel~~9062
▁Ziegen~~17218
▁pac~~24659
▁Modern~~5452
ärzte~~6172
redner~~17974
▁Wölfe~~21311
▁Robotik~~19965
▁Sich~~11749
▁Robotic~~14673
nhänger~~23618
▁auch~~238
▁Rosa~~19491
requisite~~14394
bezogene~~14582
schirm~~3316
▁Brasilien~~5082
rstellung~~9524
▁bisexuell~~24425
▁wüsste~~6829
beginn~~13267
Bombe~~17017
▁Milton~~22213
▁nerd~~12449
Animation~~17792
▁spirituelle~~7613
▁arch~~14342
▁Drohne~~21976
▁bringe~~13779
▁Verarbeitung~~9478
▁definition~~20806
▁bringt~~3810
▁over~~19126
▁Große~~4181
▁brings~~9214
▁Paralympic~~22423
▁Nerven~~1403
▁unglaublichste~~78
reaktor~~18781
marin~~24345
▁Seiden~~16280
uffalo~~23087
▁hohe~~1397
▁NASA~~8678
▁Scud~~23848
knochen~~14364
▁abwesend~~19182
▁perfektioniert~~10742
▁Engineering~~18679
▁zerstörte~~18010
▁weggehen~~12302
Gewaltlosigkeit~~14057
▁Babble~~23264
▁Fachgebiet~~17673
reduzier~~21456
probe~~14215
▁exponentiell~~11185
▁expressive~~4253
gemalt~~15989
▁Rolle~~3706
▁Ambulance~~18507
▁seltsamer~~14837
▁Katalysator~~1324
▁Turbine~~19672
▁absurd~~967
▁dial~~22477
▁Jesse~~21535
sammeln~~5032
ürde~~18927
▁bleibe~~14825
▁Hubble~~18033
▁bleibt~~3389
▁Linda~~20864
▁soccer~~23544
▁Banken~~13203
▁faszinierender~~11842
▁Sprecher~~5035
▁Sprechen~~1432
▁Banker~~6623
▁Hochgeschwindig~~18859
▁beträgt~~612
hypnoti~~21207
▁Marktanteil~~22944
▁Technik~~202
▁fortgeschritten~~4051
▁markante~~17287
Tool~~20388
▁WorldWide~~24420
▁Nieder~~4877
▁Verrückte~~3941
oma~~14377
artikel~~15194
▁Universums~~9242
ome~~8060
trommel~~19527
omi~~10965
▁Abstände~~11915
omo~~18578
bgetrennt~~16936
▁Faden~~13997
▁Klassen~~1973
verzerren~~12421
▁Arcade~~22833
▁Palo~~5572
▁juri~~15337
▁Pala~~9049
▁überschreite~~16547
sperre~~17200
kugel~~13984
▁exquisite~~23847
ysmorphophobi~~24410
▁umsetzen~~16065
▁lege~~18110
▁Radfahr~~15089
▁Urknall~~9284
basis~~18334
tiny~~22279
ting~~15570
cheln~~7669
▁Pepper~~22601
interest~~20953
▁Erzeugung~~14509
▁Fried~~16122
▁bezeichne~~10211
verlagern~~9348
▁stomatopod~~24310
▁betr~~3568
▁Steinzeit~~18584
▁Junge~~4933
▁rare~~16722
▁Dichte~~178
▁Spezialeffekt~~19696
symmetrisch~~10225
▁Pianist~~4047
seven~~19087
▁Bert~~17520
▁Ehemänner~~9235
▁Berg~~5446
▁Vereinbarung~~15352
▁rock~~18173
▁roch~~20058
▁Berk~~21215
▁Bush~~8814
behälter~~16030
▁Fakten~~5558
▁vorsichtig~~11147
elli~~17303
▁schlug~~8617
▁evakuier~~11763
ella~~17580
▁geringfügig~~17811
▁Arhuaco~~22628
▁ungünstige~~9505
▁NRK~~24784
▁NRO~~14147
▁Rotterdam~~3257
Vo~~12514
programm~~12872
▁figure~~14702
▁paralysi~~21767
▁area~~24818
▁sinnvolle~~2270
▁generative~~14244
▁Nein~~7662
▁Neil~~10292
▁Geschäftsleben~~19310
borgen~~18064
▁sonderlich~~930
▁Neid~~7641
▁Ethanol~~16211
▁Feminist~~17726
▁Rahm~~10216
▁Moog~~24021
Art~~10646
▁Schul~~1233
▁chemische~~519
▁gedacht~~4571
▁kümmerte~~9711
▁Square~~15848
▁redundan~~23440
Ark~~20197
Arm~~10694
▁Zugriff~~12415
▁Abenteuer~~8684
maxim~~21997
verändernde~~5684
▁gepostet~~4618
gegriffen~~2527
konomie~~11280
▁Scha~~10567
▁Schl~~1692
▁Scho~~18193
▁Schi~~10566
ierende~~13537
▁degrad~~19670
istische~~10549
▁Schw~~3206
bewohner~~2783
▁rauchen~~8733
zuwerfen~~16335
▁Ironie~~2701
orex~~22148
rechtsverletzung~~21617
bezüglich~~1095
▁sozio~~20944
▁entdeckten~~2748
▁Orchidee~~12982
down~~17081
▁Symphonie~~4416
ception~~14665
bersetzung~~7153
▁Kontakte~~14481
▁zelebrier~~11273
▁vereinigen~~18647
▁probe~~23949
drängen~~19300
analyse~~13297
▁enthüllt~~8216
▁ergreifen~~4665
▁top~~20393
▁Namaste~~19453
▁enthülle~~9116
▁Trump~~22443
▁Pharmazeutik~~15674
positiv~~13725
▁Gilli~~18098
▁drückte~~16973
▁eklig~~6819
▁Betreuung~~8988
▁gesteigert~~13745
▁District~~16575
▁schwul~~12162
▁Argumente~~11132
dienst~~10461
▁Stamm~~9346
▁Reinigung~~17228
▁seltsame~~758
▁Babys~~10950
▁Islam~~20045
▁lange~~595
räder~~15930
▁Inuit~~22173
abdruck~~11650
▁Debatte~~1896
▁Bauernhof~~16785
▁Journalisten~~2481
▁morgendliche~~15966
▁Altersgruppe~~11078
▁fabrizier~~19647
▁üblich~~2548
▁Gemisch~~18253
▁add~~6764
beschwerde~~19920
vergrößern~~3658
bearbeitet~~17893
▁Schmiergeld~~22205
▁eskaliert~~21379
▁Lineal~~14366
▁kinetische~~19939
meister~~3930
▁ungarische~~20052
▁Nathaniel~~23840
▁sterben~~4741
▁Objekt~~4129
▁Nummer~~5506
▁seltsam~~4102
▁enthielt~~3029
▁Hussein~~18734
▁Zauber~~11952
round~~14226
▁Borane~~22756
▁Bären~~1354
lichtempfindlich~~797
▁Todesursache~~17193
ssig~~11238
▁anerkenn~~18487
▁stell~~11000
kurbel~~16661
▁Flüge~~20255
▁Landschaften~~4561
▁Kätzchen~~1351
▁Guinness~~9054
▁Malco~~10848
▁promis~~22792
wusst~~18284
▁320~~12595
geweckt~~13617
geblendet~~15737
▁bulldoze~~24781
bot~~3747
bou~~12341
▁Vorfahr~~13932
▁Placebo~~19241
▁Höhlen~~14946
ermafrost~~17032
▁belohnen~~18537
schaftliche~~414
▁Bubble~~23751
▁verfolgen~~5993
▁Nerd~~10201
▁Eigentumsrechte~~16167
▁ausge~~5614
▁EEG~~20769
▁Nerv~~5641
▁Africa~~22994
fällig~~2268
▁Sackgasse~~6903
▁Hausfriedens~~22665
▁geschieden~~4480
▁Beach~~4856
▁Supraleiter~~24268
klammer~~780
▁verwerfe~~22659
kombination~~17175
▁Hohe~~5716
▁übersehen~~6352
▁Intuition~~3770
▁zuständig~~5903
Behörde~~9400
▁tele~~19431
▁Jura~~8830
▁tell~~22684
apster~~18158
▁Franklin~~7549
▁zusammenschließ~~282
▁Kommandant~~14114
über~~7298
▁allerletzte~~15267
üben~~3277
▁Spermien~~9960
▁amüsant~~7493
▁erschlossen~~12518
block~~11840
▁Goldrausch~~21937
▁Bruch~~5262
▁erforschen~~6985
▁bewegen~~267
▁Tschü~~6968
group~~24434
monitor~~10697
▁kontinuierliche~~10420
▁mul~~22702
gebracht~~3174
▁Tunesien~~22236
▁Sauerstoff~~643
Weihnachten~~12877
landschaft~~5806
▁Gehäuse~~5490
▁vielschichtig~~18460
▁Aufgaben~~1350
▁physikalisch~~23047
▁Infektion~~5577
▁für~~107
▁Cholesterin~~21902
▁Filament~~18872
▁Sata~~24120
▁Wichtige~~7418
▁Gute~~2821
▁sprachen~~4628
▁Container~~16767
Suche~~15735
▁Lä~~10007
▁Brian~~5047
eltern~~17222
▁Lego~~13119
▁Stimmung~~4515
▁Lega~~19915
▁nukleare~~9585
▁transport~~23274
G~~994
▁liebte~~7128
zuspielen~~4021
▁anfühlt~~3751
auch~~5603
erwerb~~20112
▁geschehe~~1085
teufel~~18130
▁herausziehe~~13874
frequenz~~18270
▁Weiter~~2207
frequent~~4551
▁Davi~~4547
▁Punk~~23002
▁zerquetsch~~742
▁Bagel~~17769
▁Soldat~~16510
▁Dave~~65
▁BG~~6365
▁BB~~22297
▁BC~~23550
▁BA~~2426
▁BL~~582
▁benötigt~~5122
▁binär~~3112
▁bescher~~7616
▁Bu~~6639
▁spräche~~12862
▁geografische~~5251
▁Be~~3083
chaffung~~3780
▁Ba~~6654
▁Bo~~5397
▁Bi~~6319
urowi~~13457
▁idiot~~24705
gypter~~18572
▁Verfolg~~20557
▁Pleo~~24931
▁sensitive~~24578
▁wünschte~~12509
▁literarische~~17080
ttle~~21098
gypten~~5173
Leute~~10253
▁Polymer~~19544
espür~~9282
skolben~~18550
lich~~2104
lick~~17174
▁Partikel~~13278
▁Email~~8286
▁Bastler~~19975
▁wahrhaftig~~17919
▁Perspektive~~5425
▁time~~23780
▁schwärm~~12861
skulptur~~15301
▁Angriffe~~19149
201~~8691
200~~18555
bett~~5761
▁Zuschuss~~20536
▁plastisch~~10618
▁Französisch~~19560
▁äusser~~21123
▁Bäckerei~~10012
▁Kontakt~~8957
▁widersprüchlich~~19290
angst~~21867
▁River~~15636
▁Wunderbare~~15218
▁grosse~~1367
monatige~~14326
▁Ertrag~~11200
▁Londoner~~20465
▁Benjamin~~7548
fassen~~11413
Bube~~21091
▁konstruier~~17680
▁Zitter~~19856
▁grundsätzlich~~8082
▁Umweltprobleme~~11690
▁this~~24611
▁Schleim~~11606
helix~~14731
▁Tijuana~~24880
ger~~498
ären~~7596
▁synthetische~~9886
▁bedeutsame~~12792
wasser~~696
▁Computermodell~~18026
▁Schizophren~~4069
bittert~~13424
gel~~4389
▁Kenntnisse~~8846
▁gefunden~~3110
▁dämmert~~12594
brechende~~16367
▁Propheten~~12660
▁gedruckt~~10854
titution~~1161
▁meditat~~24174
▁Algebra~~16072
▁soll~~1113
▁Suchmaschine~~14956
▁solo~~22004
▁Strafverfolgung~~22695
▁fehl~~10065
▁Lyrik~~17934
▁Grad~~458
▁verwirrt~~13289
▁Grab~~2062
▁Gewinner~~12457
▁Gran~~16304
▁Grau~~10628
▁Gras~~4555
Fernseh~~20093
▁Whiskey~~18852
▁TMS~~23136
▁Instabilität~~8120
▁gesampelt~~24835
gebissen~~24185
▁zurückgelegt~~18282
osphere~~14229
▁inklusive~~13486
▁kostengünstige~~6942
▁Fragebogen~~22857
▁fraktale~~18082
▁stand~~2019
tour~~10558
▁Hippokrat~~13728
▁Joel~~18382
▁Smiley~~21457
▁Maßnahme~~6825
▁Atomwaffen~~12104
▁illegale~~14976
▁reizend~~10652
▁Derek~~19587
▁Unfälle~~13827
gearbeitet~~232
▁Thom~~4598
▁Verzweigung~~17103
▁Erfindungen~~5144
▁bemerkten~~12835
ordne~~11792
igkeit~~2868
wake~~19685
▁beschlossen~~7173
▁gebe~~3355
gelenk~~11083
▁Thor~~17474
^~~19838
sound~~24653
▁weiterer~~7692
▁diagonal~~15292
▁Seltsame~~22260
▁biotechnolog~~10542
▁Galapagos~~5943
▁weiteren~~2330
cock~~19668
▁bekannter~~13675
▁abgelegen~~6182
heitlich~~4340
protein~~19818
▁ereignete~~17996
▁menschlicher~~900
▁kreisförmig~~11920
▁relevant~~7905
▁menschlichen~~2513
▁Republican~~11253
▁Megafauna~~16339
▁traumatisiert~~21340
▁parallel~~8464
Carlton~~13950
▁Tulu~~22336
▁katapultier~~20616
▁Mittelklasse~~12630
▁fällen~~11718
▁Ungerechtigkeit~~12553
▁Dienst~~1608
▁prüfen~~5276
quelle~~5174
▁Hintergründe~~6200
▁em~~11363
▁el~~3093
▁eh~~20519
▁et~~13727
▁es~~147
▁er~~377
▁ex~~16645
▁Zeitschriften~~11795
▁pakistanische~~19971
geschlossen~~10708
Arretier~~24269
▁Ameisen~~1343
▁Warten~~18844
▁verängstigt~~16507
▁Grenzen~~2255
pflanzt~~10656
▁Violine~~20294
zahlung~~13220
▁Klassenräume~~17242
▁kreative~~1633
▁Krankenhaus~~3441
▁Zeremonie~~13838
outh~~10514
▁Kette~~10447
▁passende~~8780
▁transformieren~~1325
▁Call~~12880
▁Cala~~21824
▁Hypothek~~3760
kä~~11737
▁reichste~~13588
▁folgt~~7739
yrone~~9791
▁vertreiben~~13004
erallgemeinerung~~17089
▁prägt~~12046
▁schaff~~7505
kü~~7011
▁Hirnforschung~~9608
▁Auslöser~~9578
▁düstere~~5135
▁Inc~~19707
▁Monde~~5730
unterricht~~7654
▁komfortable~~7316
▁Santa~~9067
▁dunkle~~5346
▁Isolier~~18648
▁gleicher~~7976
▁flüssige~~15186
▁Santo~~11761
▁verschob~~13271
bür~~12925
laine~~23167
▁Investor~~19224
▁verschieben~~15104
▁Biomaterial~~16376
▁bereu~~19307
ltar~~18201
▁Bogen~~10023
▁kürzer~~3493
▁erschaffen~~2969
▁brechen~~9664
▁ärmste~~6136
chuppenhalstaube~~20733
▁Thu~~10427
Sarko~~16015
▁Sprünge~~10521
▁The~~3013
▁vollzog~~22402
▁Thi~~12435
▁unbeschwerte~~18009
ähne~~7336
sequenz~~8718
▁erschreckend~~58
▁stumm~~11354
▁algorithm~~9480
▁versucht~~1531
▁Ansammlung~~4915
u~~1724
▁rich~~18345
▁verleihen~~12322
▁versuche~~3196
geboren~~10081
lappen~~13641
▁Durchbrüche~~7923
▁Keene~~23963
gged~~19112
▁Christ~~6534
▁genetisch~~9850
wunden~~10076
▁Netzhaut~~15727
iuk~~19914
▁bat~~3651
▁bay~~23890
▁konstruktive~~1622
▁gebrauche~~1158
▁bad~~12013
ius~~544
▁ban~~19418
kontaminier~~9951
tadore~~22344
▁Future~~23323
▁Drake~~20850
▁benenn~~5336
▁Daten~~415
▁galt~~1804
▁Zentralafrika~~13438
▁Datei~~15798
▁immense~~12628
▁Spielplatz~~3107
▁bowl~~24020
▁Bäume~~9337
▁Automobil~~11388
▁Rang~~20399
zero~~10746
▁Pinguin~~10495
▁erreichbar~~6183
waffe~~18071
▁Blitz~~19052
▁Kapelle~~17299
▁Diebstahl~~19292
trinken~~13800
▁brand~~18145
▁Wirkung~~2241
▁fusion~~22845
vertreter~~17098
▁nachdenke~~3325
▁LOL~~20550
▁Feigling~~19537
▁Energiequelle~~18069
▁historische~~8578
▁Fahr~~11389
W~~309
▁Lars~~15413
▁Luft~~2312
▁Bezug~~1729
▁Koko~~18622
▁Gänse~~17758
organisierende~~19436
▁wundervolle~~3512
▁entspricht~~2380
▁sonderbar~~16937
▁riesige~~139
kohären~~2249
▁Programm~~5697
▁konstante~~10762
▁Bestrafung~~13456
▁still~~4533
0.000~~7778
landet~~6740
▁Zeitung~~2311
▁Fifth~~20016
▁Umarmung~~8289
American~~22003
▁Aufbereitung~~11847
komm~~4829
▁chinesische~~6994
▁Princeton~~8945
▁Act~~10993
▁Ach~~13141
▁verliebte~~20948
ptive~~23190
▁Fähigkeit~~1255
▁Millionstel~~10041
britannien~~6347
▁Basqu~~23659
▁Magazin~~1060
▁Magellan~~23472
▁Wieder~~1805
▁unkonventionell~~21413
teils~~6164
▁Geständnis~~23060
▁Garden~~16576
▁Gabe~~13102
teile~~249
▁European~~23403
kaufen~~1515
▁Vent~~8605
▁Kante~~9644
▁Vene~~16990
▁Schutzgebiete~~20901
▁Smith~~2807
▁Sear~~21441
▁Szenari~~19613
▁Manufactur~~18502
▁Hochleistungs~~19925
▁Unerwartete~~17124
through~~23391
▁Zeitschrift~~20051
▁Höhle~~15548
▁Irrational~~3440
▁Abraham~~15319
messen~~2139
▁reaktiv~~19945
▁Vorreiter~~1737
▁immaterielle~~23635
▁Leonard~~21411
▁Source~~13462
▁check~~8741
▁unerträglich~~12246
▁vage~~19884
säußerung~~23480
Laptop~~10111
▁Prinzessin~~13695
▁geehrt~~16815
▁bessere~~1420
Lektür~~21200
▁nutzbar~~11125
▁Beliebtheit~~21865
▁wachsen~~897
▁Two~~23268
äufe~~7250
▁Herzerkrankung~~14558
lsand~~16226
Muster~~20667
▁sinkende~~1751
▁undenkbar~~15455
ribbe~~21349
blieb~~23630
▁festgestellt~~4363
▁pe~~24621
▁Hazle~~21199
▁Eisen~~14289
mannschaft~~22983
▁perfektionieren~~11016
▁Kindergarten~~2050
▁Kondom~~6840
rennung~~13030
fiction~~19875
▁Reu~~19306
produzier~~8930
▁Rep~~12746
tüte~~12139
forschung~~1222
Screen~~4297
▁repräsentativ~~23072
minent~~20118
▁Red~~3199
▁Ree~~17491
▁Reg~~5111
nglischsprachige~~19326
natürliche~~17788
▁Rem~~17735
▁Rei~~10087
▁gelegen~~9733
▁zertrümmert~~18027
XX~~24226
XY~~9112
▁multinational~~5133
▁pu~~10275
▁Schurken~~23566
▁enger~~15062
▁Schulleiter~~19059
▁Tit~~21821
▁Aqua~~9323
▁Waisen~~16748
ichtung~~10827
▁zitiert~~10851
▁199~~6211
▁198~~721
▁guck~~375
▁erweckt~~13518
▁192~~14162
▁190~~7926
▁197~~7211
▁196~~8199
▁195~~2755
▁194~~2978
▁zitiere~~8030
▁Masse~~12606
▁19.~~12709
▁Livermore~~19775
▁massiv~~10869
▁Giraffe~~21157
gestehen~~11424
ation~~353
Zackenbarsch~~20181
▁Bälle~~11170
▁vergleichen~~9279
▁erhöh~~8078
▁Essen~~2991
▁flog~~11760
▁Never~~24027
▁Rechenmaschine~~12940
chard~~23394
▁Strömung~~4907
▁englische~~2832
▁Tim~~7747
▁Freiheitsgrade~~19951
tätigkeit~~10383
öhr~~17704
▁Paradigmen~~21647
öhl~~20089
▁Verbreitung~~7816
▁optisch~~18623
▁Frost~~18471
▁Schmetterling~~21054
konto~~23977
-47~~22564
grüßt~~22744
yllis~~15452
Agnostiker~~20613
▁kind~~11361
▁gewinn~~3848
pegel~~22329
Bevölkerungszahl~~14923
▁Terrasse~~10089
▁modisch~~7311
▁Simulator~~22790
▁ALS~~18195
sprozesse~~10261
▁Größenordnung~~9298
▁Niederschlag~~13993
Houdin~~15443
▁Sphäre~~18908
siedeln~~10552
▁reflectiv~~24538
▁Health~~19556
▁existierte~~5201
urheberrechtlich~~11340
▁anzusehen~~11525
▁Betrieb~~914
▁verbinde~~19280
▁Walmart~~16560
schlauch~~8386
▁Nukak~~24790
▁Vermögen~~12512
▁Cro~~22893
▁weinen~~4652
oreign~~21082
generator~~21744
restaurant~~8210
▁Kohlenstoff~~5766
▁Pandemie~~18924
point~~4232
▁dignit~~24642
▁Andeutung~~17429
flüssigkeit~~3304
Umweltgesundheit~~23378
▁Beseitigung~~19632
▁zwischen~~342
▁Schwarzen~~4969
glocke~~19264
arbeit~~1579
▁ungeborene~~3962
sprache~~7812
▁Hersteller~~10161
▁lehnte~~17484
Spieler~~6440
▁present~~22013
▁Beutelwölfe~~24548
Gepäck~~16959
▁zwa~~3453
▁Karotte~~14535
▁quelloffene~~23689
▁integrative~~24138
▁Widersprüche~~11423
▁Natasha~~24490
▁Wasserkocher~~24876
▁rollt~~12987
▁Plankton~~4985
▁persönlicher~~8465
▁Luftwaffe~~14903
gescannt~~14365
▁Wäsche~~14988
reibt~~4939
▁Kolibri~~12975
▁regnet~~19549
▁schützen~~5728
▁lecker~~14982
▁Vibrio~~20064
▁xeno~~23806
▁veranstaltet~~9268
▁Extremität~~16265
ifft~~20458
▁körperlich~~3910
steller~~13118
stellen~~7345
▁Anthropologi~~13948
▁leidet~~15468
▁Anthropologe~~11797
Massenproduktion~~14674
Pinguine~~24166
▁native~~23827
▁Maschinelle~~8790
▁Webb~~15652
rbeitsgedächtnis~~23497
cut~~12066
rgt~~11529
▁zunehmende~~5084
gefüge~~21285
source~~11629
▁morpholog~~13951
▁Projekte~~5357
▁flirt~~18155
▁darleg~~1779
gefügt~~9647
▁Anbau~~5116
apest~~17946
▁brumm~~18357
▁kostbar~~16477
▁Stürme~~14332
▁Unternehmens~~11971
▁Sommer~~5889
▁Proteomik~~19543
▁Implant~~18215
szuwachs~~18111
▁Millenium~~7437
Management~~20392
▁zuhöre~~21493
▁fünfte~~16475
tasche~~12547
▁rasend~~6310
▁zuhört~~6536
▁forderte~~22803
▁Tricks~~12953
▁Palmöl~~24111
erzeugende~~20278
▁Angebot~~8798
Box~~4483
▁gekennzeichnet~~10551
▁sinnvoll~~7960
Bot~~4151
▁Sojabohnen~~6996
▁mitgebracht~~16286
▁Fälle~~476
mbra~~23275
uark~~18874
▁Gips~~11659
▁Ursprünge~~14021
▁ankam~~7338
▁Landwirte~~13435
gehalten~~10880
ollock~~24028
Experiment~~3748
▁Scheibe~~16792
liege~~12492
▁Tree~~15472
▁verständig~~14460
▁Treo~~23568
▁Turbo~~19225
▁Leone~~13578
▁mischt~~18245
▁gelungen~~6065
▁verbunden~~2601
jagd~~7836
Filter~~13036
▁mische~~17691
♪~~16204
♫~~13756
▁oft~~3114
▁gänzlich~~7268
jagt~~12379
▁Gutachte~~2332
erkenntnis~~18077
planet~~9294
▁Mahab~~22862
▁Mahal~~6956
▁sterbende~~16654
▁Weise~~1156
titel~~3624
▁universell~~14452
▁Diana~~13696
▁Glühbirne~~5632
▁Ausschnitt~~9567
▁Diane~~20573
▁vision~~19067
▁Kernkraft~~16238
gewählt~~12541
▁koordinier~~6717
elda~~24742
▁erwies~~4207
▁Saudi~~20207
ellen~~14055
▁Konstellation~~13346
▁Weblog~~19140
▁Stämmen~~12826
▁Feedback~~5670
▁endete~~1748
▁Titan~~9311
▁Opium~~13813
Sahara~~23149
▁Philanthropie~~19620
▁Kernspaltung~~21314
aufzeichnung~~17882
matisieren~~13443
▁uninform~~23611
streu~~18012
▁Rosali~~13606
▁reicher~~2881
▁Adria~~18840
▁Schifffahrt~~22968
▁Heaven~~24575
▁reichen~~3893
▁Scheidung~~6888
nderung~~1473
träglich~~3454
raußen~~480
▁Teach~~14194
▁Kernkraftwerke~~22032
▁bestäub~~13013
▁Entführung~~15632
▁basieren~~7154
einahe~~24618
▁Mittwoch~~16445
▁SAN~~23290
Konferenz~~8590
▁Kleinigkeit~~18208
▁Vorarbeiter~~24292
▁Millionen~~877
Contra~~23102
▁Regelwerk~~3938
▁Neugeborene~~9893
▁electro~~24775
IUC~~5739
Video~~8667
▁organ~~10739
Schlussfolgerung~~7965
▁daher~~4948
bälle~~20295
kabine~~20498
▁video~~23469
▁diente~~6657
▁harmlos~~5626
talent~~14151
▁Portfolio~~13466
nstoffnanoröhre~~23815
▁Stickstoff~~18470
erkranken~~10946
▁begehrt~~22337
▁first~~19434
▁Szenen~~5332
cha~~16016
che~~3384
chi~~4345
chk~~17444
cho~~16461
cht~~3909
chu~~10450
ochai~~13458
angestellte~~17079
Astor~~22317
▁gesünder~~7571
▁Zwillinge~~18458
▁Flamme~~21370
bakterien~~22463
▁Intel~~19930
▁Inter~~3973
▁Fish~~9397
▁Fisk~~23616
▁Corne~~14632
▁eingebaut~~3981
▁geschaff~~1597
rätsel~~14694
▁notwendige~~10346
▁Nieren~~7025
▁voranschreiten~~9989
YY~~21510
tropfen~~3334
▁Schein~~15437
strömung~~5853
▁Polit~~22355
▁Kasten~~20070
▁verletzt~~6225
▁Depp~~23348
berschneidung~~17385
▁amüsier~~17446
lieferung~~19202
▁Schande~~9021
▁Pocken~~6072
▁Panama~~22056
▁Tanz~~1441
▁Charlotte~~19284
▁Tank~~16046
▁juristische~~5745
▁Obsession~~14335
schleuder~~12970
▁Carder~~22393
▁Zeug~~846
Meter~~9674
▁bezweif~~7598
▁Skalierung~~23007
▁Sklaven~~13533
▁Conservati~~5946
terneuron~~24908
ature~~23669
maß~~7982
▁zwei~~395
▁Jäger~~13342
▁Pygmäe~~20516
▁biochemisch~~3921
▁Verhütung~~17624
▁Bern~~22868
▁rage~~15665
▁Gebet~~9788
▁Lexiko~~17761
▁Transform~~10401
▁Geheimnis~~5551
▁council~~20881
▁relational~~23397
eur~~6694
€~~22266
▁hervorgeh~~12867
nswers~~24373
▁beat~~20654
▁Referenz~~7356
zustand~~9085
▁primitiv~~11547
▁Einverständnis~~18925
astronom~~19199
wühlen~~12742
▁erdacht~~8941
▁einschließ~~16778
▁haften~~22270
▁Variation~~9453
▁Gattung~~15532
▁Apparate~~10772
▁Gibbon~~13923
▁Erdboden~~21873
▁wohltätige~~16846
▁Denker~~10856
▁romantisch~~18575
▁Economic~~19164
▁MOOC~~24086
▁Denken~~1032
▁Carol~~5051
▁Net~~17787
▁Neu~~3008
▁New~~4420
▁standard~~16175
qua~~843
que~~3490
qui~~8751
▁durchtrennt~~23676
molekül~~2307
stöß~~10280
▁Neo~~1380
▁all~~257
▁sage~~1273
▁als~~181
▁Hitler~~20137
▁sagt~~1195
NC~~22097
zusammengestellt~~19488
▁traurig~~1038
detektor~~20492
▁Club~~4403
bündel~~9748
▁IPC~~2320
▁exoti~~7049
▁Collusion~~24438
▁Learning~~24562
▁Dance~~21515
▁Getreide~~5090
smöglichkeit~~16734
▁CEO~~14968
▁Vergewaltigung~~12535
▁Monarchie~~21694
▁plann~~23564
▁Sagan~~17926
▁Transgender~~16651
▁BIP~~1068
biege~~16314
▁verbannt~~7655
▁neu~~723
▁new~~22474
▁wohne~~14432
▁Dimensionen~~5478
▁Vorliebe~~9431
▁reinigen~~8319
▁wohnt~~6253
▁neo~~13429
▁solche~~399
▁Stephan~~8263
▁mindesten~~3919
▁schwächt~~21428
nsas~~16222
▁dünne~~8394
▁tag~~13249
Geschäftspartner~~20588
▁Zuwendung~~13200
▁giganti~~8567
▁erect~~13940
konfiguration~~23980
▁Universen~~17504
▁umgesiedelt~~18517
▁schwierig~~3642
▁verwunderlich~~15501
▁Might~~21315
töne~~18023
▁skalierbar~~18203
▁geführt~~2084
▁Vision~~2774
aker~~21777
▁reform~~22616
▁übermäßige~~14530
zeichnung~~8220
▁partizipative~~13379
▁tra~~18342
▁Drehung~~6616
▁tri~~14840
▁Märchen~~1105
zeigen~~9609
Krankenhaus~~12401
▁beruflich~~14277
▁simpl~~23944
▁Reiche~~5176
▁erschuf~~16006
▁anfing~~1535
▁mikrobielle~~15504
▁Schere~~884
▁voranzu~~5986
▁Wüste~~11824
▁tolle~~3528
▁Galvao~~24381
reform~~3778
blatt~~3561
▁Gärtner~~18354
▁Lawrence~~11265
▁saugen~~12441
▁Klatsch~~13270
▁original~~11288
euten~~16489
▁Study~~19521
▁Verhinder~~16733
schau~~4172
transplantation~~18213
▁anomal~~24007
▁Sandstein~~11838
▁Paris~~11706
▁Jo~~4440
▁Jh~~14216
▁Ji~~12566
esschutzgebiete~~22117
▁Vorhersage~~7925
▁Je~~11621
▁Ja~~492
▁ebenso~~7434
▁Ju~~4482
▁Jr~~11041
▁anstelle~~9875
iges~~4187
iger~~3170
▁JA~~7715
▁sterile~~17528
▁cast~~19616
rump~~22689
igen~~1288
▁JR~~18286
▁Niss~~21466
witsch~~11496
nominier~~18656
▁hervorgehoben~~21762
▁poop~~24638
▁Gulf~~24895
produkte~~4824
▁erforderlich~~19931
▁ständige~~14279
Pricing~~23146
stöber~~11901
▁östlich~~4951
▁Ferien~~11637
▁real~~3078
▁verflochten~~14503
Wissenschaftler~~12106
▁Poet~~15432
▁zerbrach~~12203
partner~~315
▁perfekte~~6262
▁gutheiß~~20938
)~~4333
▁erlitten~~16260
gesteuert~~18542
gezogen~~6566
▁abgeschnitten~~2086
▁Süßigkeit~~15017
▁Senator~~21272
▁Sreb~~20126
▁Spiegelneuronen~~21579
▁eigenständige~~13171
puppe~~17854
▁Hektar~~5110
▁Kletter~~21541
▁350~~11345
▁Maßstab~~1769
▁Eisbären~~22699
▁Marcel~~213
▁Cost~~5925
▁Gehen~~7123
freudig~~13091
ernstein~~15379
▁inspirierend~~10306
▁Hügel~~8160
gleich~~1703
▁Marth~~13151
spucken~~16054
▁Barrieren~~19472
▁Shaff~~21952
▁bevölkert~~8207
▁Taxi~~7743
▁Schenkel~~18720
▁Georgia~~20852
▁Georgie~~16266
▁Engel~~18134
lika~~12269
like~~15535
▁positiver~~7986
▁visualisiert~~4865
pfiff~~3177
▁Volumen~~9455
▁Ocul~~23773
▁Gerichtshof~~22086
▁Leber~~16797
▁Desert~~22884
▁Kurve~~8995
▁pfeifen~~3271
▁Malawi~~16251
▁maschinelle~~8793
▁motor~~23748
▁Netto~~13589
▁Stich~~6650
▁Prostata~~9925
plätze~~6716
▁bewirtschafte~~5750
▁verwirklicht~~10218
▁Elephant~~20934
▁Thanksgiving~~15083
bewegt~~11933
▁Periodensystem~~16380
▁Science~~8881
▁Kleinkinder~~2043
▁myth~~13417
▁klassisch~~19169
▁vollendet~~14324
▁innerlich~~11507
▁Hierarchie~~11385
▁pause~~20614
Bühne~~12528
▁empfangen~~14451
kraft~~9990
▁addiere~~22328
Brüder~~10954
abläuf~~7412
▁Penicillin~~17929
▁Australia~~21327
▁Gegenstände~~10119
▁Freiwillige~~3830
sein~~1477
periode~~7275
▁software~~6964
▁zusammenfinde~~11482
▁menschengemacht~~15664
▁Export~~13590
▁Mohamed~~19492
▁Ware~~6295
▁Heilig~~16921
▁heraushol~~15383
▁Syndrom~~13676
▁attraktiv~~1963
▁Oppenheim~~19524
▁Lebzeiten~~17107
schaftskandidat~~11260
▁Beiträge~~13321
fische~~5967
▁Gorilla~~13915
▁Erschaffung~~4804
▁Kartografie~~18820
▁motivation~~6123
▁grübel~~9194
▁Albert~~9027
▁bipolar~~18225
▁missionar~~24407
▁vergangen~~9243
▁Grünfläche~~7586
▁beeindruckende~~8124
▁sinken~~8104
▁Klug~~19469
▁Balance~~10757
▁Weihnachtsmann~~24266
▁my~~12051
bänke~~16010
▁mu~~5237
▁hinauf~~8125
▁mo~~3169
▁demokratisch~~19188
▁Unter~~30
▁mi~~20459
▁me~~1258
▁zeitgenössische~~5414
▁ma~~2733
@~~14910
▁Vorbilder~~17271
▁unzählige~~9540
urchdring~~18915
▁Bühnen~~13128
▁abnehmen~~8077
▁Wahrscheinlich~~3573
▁forms~~24572
▁Integration~~2405
Kampagne~~6195
school~~22023
▁fatal~~19520
üdkorea~~10635
▁systematische~~3802
▁talentierte~~6023
▁Leviathan~~21005
▁popp~~22315
▁BumpTop~~20222
▁Brillian~~20968
▁Hydra~~8089
olpert~~24371
▁englisch~~21846
▁verrichtet~~16537
▁Weihnachts~~3192
▁Einzigartige~~7386
▁Netzwerken~~7252
▁statistisch~~16864
▁Arabien~~21019
▁Archäologe~~19287
▁verdampf~~17566
▁Verkaufs~~10466
chleifen~~5555
kus~~4498
kur~~3152
▁Archäologi~~5455
blut~~6874
kum~~18579
kul~~6055
▁Unschuld~~15616
ZE~~24289
▁Magazine~~4808
▁Forum~~14417
▁Maschinenbau~~22551
▁Hahn~~19848
▁Reform~~11374
▁Nobel~~19501
▁inferior~~13665
▁religios~~24660
▁Schild~~3307
▁Holland~~3173
▁Moor~~15912
▁immun~~10721
▁1870~~20312
▁wirkliche~~8949
▁Moon~~23918
▁Erlebnis~~3970
▁offizielle~~3928
▁Marke~~3126
▁Todesfälle~~19626
▁extreme~~4428
▁Markt~~5248
▁Nachbarn~~4649
▁niedrig~~15178
▁gespaltene~~22269
berprüfung~~5795
▁lust~~24098
▁empfehle~~18652
staatliche~~18317
ufriedenheit~~16490
tänzer~~21348
▁Occupy~~22992
Afrikanischen~~8422
▁präzise~~4341
▁kognitiv~~21377
kamera~~1286
▁Simpson~~19503
▁Möhre~~24062
▁funktionelle~~20767
▁Folter~~13880
▁59~~22347
▁sterbe~~18060
keep~~24124
▁obere~~339
▁Abhandlung~~13460
▁GPS~~16248
▁insulin~~21355
▁Arduino~~20764
▁Etwa~~13754
▁ausnutzen~~9226
▁löst~~11877
▁Petition~~14121
▁Subvention~~14598
▁liquid~~20474
▁expandiert~~8110
▁200~~688
▁20.~~2677
▁20-~~14514
▁verwies~~20602
▁ignor~~13679
auschen~~17791
ima~~10409
ime~~18605
▁Schauspiel~~3703
▁bin~~64
▁bio~~8673
imi~~11173
imo~~9058
400~~9635
▁bis~~253
▁bit~~24854
▁Gesamt~~8348
zeremonie~~14382
▁anger~~18987
Mobile~~24924
▁Thre~~11372
▁Leugn~~16900
▁angel~~17962
zentimeter~~617
▁Verbrenn~~18847
▁wandeln~~4182
▁Stacheldraht~~20452
▁wandelt~~9862
▁Kathr~~12346
▁Spiegel~~3609
mplified~~24001
▁litt~~8849
Percent~~23527
▁portable~~23130
arijuana~~15588
Corpus~~24580
quality~~23781
▁element~~6227
gläubig~~12190
stück~~513
▁voranbring~~17364
▁Niemand~~21432
▁English~~16323
▁tags~~10299
▁Kondition~~12805
▁grass~~22544
▁tagg~~19108
Gesetz~~19135
gekühlt~~18063
▁Aufruf~~11290
▁Aufspür~~13739
▁Plätze~~5232
toleranz~~20186
▁importiere~~16149
▁derzeitige~~5771
tolerant~~23442
filter~~4302
▁fashion~~20971
▁pH~~21702
▁Begriff~~1379
▁Verabredung~~17867
▁überflüssig~~21145
▁Virginia~~15495
▁pl~~21021
▁po~~18774
eladu~~17891
▁pi~~22598
▁redesign~~24550
▁Einheimische~~14574
▁Silver~~16494
▁schüchtern~~4208
▁Vorbild~~12697
▁Führungs~~18513
kante~~9531
▁pr~~20659
▁Akt~~7879
derson~~15846
Rumbaugh~~24506
▁absonder~~17597
▁verehre~~16047
flugzeug~~16060
▁Jenni~~16116
abstrahiert~~15296
▁zurückkommen~~12813
ible~~11134
▁Method~~23682
▁Lachs~~10608
wirbel~~4920
prinzipien~~16234
▁ausflipp~~12397
▁Gewürz~~14621
▁entschuldig~~6433
▁Egypt~~24921
▁Wärme~~801
▁anwandte~~14176
▁agiert~~12723
▁erfahren~~1707
▁Entdeckung~~222
▁off~~22525
▁Smithsonian~~18588
gefasst~~6842
▁Heldentum~~10465
bereinstimmung~~13824
▁Präzision~~4225
▁schicken~~4663
▁Zeige~~17334
▁Register~~19519
getreu~~16932
studium~~10752
▁Right~~18249
▁9,000~~22107
▁lässt~~1965
▁etc~~6691
▁Katze~~10576
▁Polic~~16427
ben~~2048
▁Polio~~6030
▁musste~~2444
▁Teleskope~~17992
farbe~~1024
sphase~~9310
▁Konversation~~12142
▁Beleg~~11449
▁sanfte~~7593
▁hyper~~13634
▁Naja~~7838
▁Distrikt~~13231
mut~~1471
mus~~6054
▁Spaziergänge~~20859
mud~~6883
finger~~8108
heißen~~22993
▁demütig~~8137
▁Postkarten~~11460
▁beste~~3916
▁moderne~~5061
▁HTTP~~20329
tzen~~5219
▁Redwood~~23342
▁200,000~~22563
bildschirm~~5677
▁Vorhaben~~16468
▁bleibende~~10939
▁Nationen~~5817
▁Welpen~~22048
▁Fastfood~~14599
glichkeit~~16961
▁preis~~15831
▁Lichtquelle~~710
▁mitochondrial~~13976
▁Leave~~19877
▁entspräche~~16344
▁Domäne~~19216
▁Akademiker~~5563
▁pigment~~15729
▁Detroit~~14794
n~~40
batterie~~8619
ität~~1893
▁Firma~~1532
▁Shrimp~~23638
▁Toxo~~24859
wenig~~20436
▁Spracherkennung~~23121
▁angreifen~~9573
▁eröffne~~9075
▁zusammensetz~~14478
▁Entscheidungen~~1513
▁Stone~~11049
unter~~2474
▁Anti~~10633
▁Anto~~19689
▁geworfen~~2951
▁Schulgebäude~~23235
peake~~20165
▁statistische~~13291
▁fuck~~24095
▁Isolation~~15049
▁Temple~~20740
▁jagen~~1353
▁folgender~~7863
Manager~~22300
▁folgenden~~1322
ckenber~~19844
▁übliche~~8064
▁1500~~3865
▁erhoffe~~16360
▁Sorte~~15286
flaschen~~4864
▁erhält~~4283
wissen~~8869
Flüchtlingslager~~11716
▁styl~~24553
▁sitzen~~431
erhalb~~6193
▁Myhrvold~~18835
▁Atm~~18197
▁digitalisier~~10210
ennig~~18922
▁Anhäufung~~15230
würmer~~632
zeal~~23589
▁Johnson~~8609
▁Patienten~~3467
▁McNugget~~14622
zoom~~9483
feier~~9780
▁Phänomen~~2350
▁akkurat~~11616
Punkt~~18651
▁Workshop~~5983
▁Sprit~~14156
▁Ursache~~10043
▁Meteorit~~23408
▁Warteschlange~~16109
bö~~7424
▁Größere~~12884
▁gründlich~~7535
▁Austern~~5183
ASDF~~24574
▁schon~~199
hund~~13715
▁Negro~~10237
▁Wikipedia~~11261
▁jeden~~2189
▁schob~~17284
▁Lust~~1125
hrgeiz~~3108
▁jedes~~911
▁jeder~~1569
▁value~~23075
knüpfen~~11439
▁Suppe~~11168
attacke~~21161
▁schuld~~10103
ahn~~404
ppm~~17018
fern~~4017
ahr~~980
▁Francisco~~2344
batt~~15239
bodie~~24551
pläne~~11587
allgemeingültige~~22142
▁Ziege~~10568
evelopment~~21635
▁sensor~~19699
▁echo~~18127
schauen~~8694
▁ermordet~~12039
▁echt~~3275
▁Vergleich~~1907
▁Lebensstandard~~1761
▁Stewart~~2851
▁Spitz~~11816
▁Kilo~~14297
▁Kill~~16479
schwankung~~1939
▁Grundlage~~6520
▁quo~~8891
▁Demographie~~18759
▁drittgrößte~~19869
▁zog~~4997
marsch~~12442
▁Zentr~~10507
▁elektro~~21198
▁dränge~~16543
▁Ostro~~5786
▁drängt~~9988
▁namens~~3836
▁schlauer~~14688
regime~~13806
▁gibt~~148
▁Brustkorb~~6565
▁Abnahme~~2607
▁Begabung~~2155
zubauen~~7577
▁grässlich~~11580
▁überdacht~~19754
▁Bildschirm~~4164
isieren~~12186
▁Lungene~~19623
▁intervention~~24322
rob~~13900
▁enge~~4218
▁verursacht~~2593
▁Tröpfchen~~18491
ros~~2984
rot~~10726
row~~15794
▁durchlief~~19366
▁Skifahre~~10122
▁Litt~~22265
▁wenig~~364
▁Grundsätze~~12083
▁chronologisch~~19114
▁Trennung~~5433
▁erregt~~19635
▁erlernt~~13882
ehlen~~1541
thiopien~~7162
▁Public~~15976
level~~18207
▁Text~~4655
▁Alabama~~13368
▁vermessen~~14358
▁Sarah~~16810
lever~~23639
▁Kummer~~9424
▁bezweifel~~16896
▁Bohnen~~15893
trend~~20230
▁Sisyphus~~23646
▁Braille~~23489
▁Trans~~5997
▁Keks~~16784
▁Nobelpreis~~7180
▁Team~~2299
port~~12593
▁Priorität~~17609
▁genoss~~1593
▁scan~~24630
▁Geruch~~13700
▁Wireless~~22991
▁erkläre~~3839
▁Einschlag~~17494
▁Mira~~15002
sgrad~~15160
▁Koffe~~17622
▁erklärt~~2843
unerschütterlich~~19022
▁Lektion~~1906
▁Nacht~~4640
schmiede~~11508
▁Lyd~~21028
▁Brikett~~24696
ntelligence~~22291
▁fäng~~5663
▁glamourös~~18025
▁Treibhausgas~~21435
▁AOL~~22844
▁Versagen~~7122
▁bestimmt~~3390
▁Forest~~16581
▁Versager~~6699
▁Warnung~~7501
uadratkilometer~~5836
diagramm~~20430
▁Popular~~11674
▁entschuldige~~6696
▁Schulter~~4250
anda~~8460
▁ergründe~~19422
▁russische~~9562
▁Reflexion~~14412
osphäre~~16988
▁Gramm~~11164
bility~~24213
▁römische~~16924
▁w~~3468
▁v~~553
▁p~~1106
▁z~~2372
▁x~~8932
▁g~~4471
▁f~~4465
▁d~~479
▁c~~5013
▁b~~2717
▁a~~1826
▁loslasse~~9986
▁l~~12610
▁k~~319
▁schwach~~1352
Packard~~5569
▁depressiv~~17619
▁V~~7366
▁U~~390
▁T~~19
▁S~~1653
▁R~~4780
▁weniger~~1887
▁P~~2214
▁Strom~~5492
▁Z~~999
▁Stroh~~16532
▁G~~1453
▁F~~2897
▁E~~1056
▁D~~4112
▁C~~1411
▁B~~1098
▁A~~1216
▁O~~2596
▁N~~10144
▁M~~3879
▁L~~6820
▁K~~750
▁J~~8262
▁I~~1160
▁H~~572
▁7~~1861
▁6~~2324
▁5~~618
▁4~~2289
▁3~~125
▁2~~2459
▁1~~6217
▁0~~14771
▁?~~260
▁Ewigkeit~~12034
schämt~~9202
▁;~~1424
▁:~~21
▁9~~2067
▁8~~8704
▁cancer~~13863
▁&~~218
▁.~~60
▁-~~90
▁,~~28
▁Verständnisse~~2322
▁mess~~21844
▁Brustkrebs~~9806
ändern~~10264
▁White~~13516
▁sensorische~~17639
▁Vermutung~~11922
denken~~2671
▁Chi~~8250
▁Bazooka~~24693
schwärme~~12976
▁Schlüssel~~2306
▁Cha~~9796
▁Partnerschaft~~6076
▁anbelangt~~18959
▁ernsthafte~~21060
▁Chu~~12565
▁Chr~~6700
▁1920~~16148
▁verschieb~~5934
▁Vietnam~~6644
▁Sacch~~23359
▁staatliche~~10885
▁marble~~20689
▁Produkte~~4821
▁rosa~~10737
▁please~~4469
▁rose~~13852
▁Hollywood~~2685
▁loud~~23466
ahl~~3024
▁vervierfach~~18670
▁geringere~~7963
▁Wiederaufbau~~11734
kodiert~~16371
▁Assistenzsystem~~24730
▁schilder~~13719
▁ausgeklügelte~~13213
▁leuchtende~~13280
▁Kakerlake~~10654
▁Sprung~~6560
▁Arbeitnehmer~~1585
▁Videospiele~~10486
▁click~~21655
▁ich~~63
▁psychosoziale~~21343
▁Samarit~~16843
▁behandelt~~3354
▁Affe~~10699
▁rechtliche~~10813
▁Gruppen~~2056
▁Entwicklungen~~9534
▁zusammenbring~~8353
▁Urheber~~11328
▁gezielt~~2187
▁abzielen~~12490
▁institution~~23888
▁Sophi~~17005
▁Homer~~11893
uadrate~~13612
turn~~24388
turm~~2414
▁echtes~~4090
▁echter~~4605
ture~~17133
▁Millionär~~21034
▁Belastung~~9953
▁fokussier~~9770
▁heranzieh~~19171
▁Zusatz~~8870
▁rannte~~6468
ndigung~~8526
▁Intelligenz~~12455
fordert~~15058
grund~~7831
▁Intelligent~~17636
fordern~~1626
fordere~~10985
wärts~~1466
Publikum~~19821
izilli~~14932
▁regelmäßig~~4212
▁Staubsauge~~20149
▁kommunistische~~19299
▁durchlaufen~~1185
▁zehntausend~~22550
▁Deine~~4526
▁abgeholzt~~21065
▁befolgt~~14753
rdamerikanische~~5861
animation~~22184
▁befolge~~19066
mination~~12843
▁Wandertaube~~20722
▁loszu~~1631
▁Felsen~~935
▁Antikörper~~14886
▁Breitengrad~~21596
PP~~21948
mber~~11665
▁Brooklyn~~10297
▁Press~~16467
monade~~22242
▁gelöst~~3553
▁Sonnen~~13035
bereitung~~16750
trop~~6778
▁wieviele~~18812
▁beim~~1977
▁zerfallen~~10706
▁Malaria~~6222
▁5,5~~22206
▁Neuronen~~8084
▁herausragende~~11483
▁verschwommen~~8915
brauchst~~6784
▁emergent~~19417
▁Universe~~9247
schatz~~12664
▁gigantische~~4130
▁etabliert~~7333
lbtraum~~11582
▁drüber~~7480
▁metaphor~~14333
▁Erforsch~~17921
▁Violet~~14719
▁Teppich~~6693
▁Sixth~~23953
brid~~19944
▁Vierjährige~~16377
▁pulmona~~22975
▁Rabbi~~16829
▁Luftverschmutzu~~14515
▁moment~~24528
▁Waffenruhe~~14056
▁trennt~~10872
▁Milliardstel~~3366
▁trenne~~8369
▁Chat~~1647
▁Lohn~~6121
▁verstorben~~8268
▁spezialisiert~~10862
▁davon~~86
▁frech~~21046
▁unvollkommen~~21708
arium~~9263
▁flick~~22020
▁zurückkam~~19064
▁Kurs~~7426
▁Schönheit~~186
▁Participa~~21020
▁Angestellte~~1090
▁geparkt~~11888
▁Nahaufnahme~~11844
▁Danke~~3166
▁recherchierte~~7681
▁formulier~~15422
▁Grundbesitz~~16044
pilot~~20021
erregend~~12376
▁hunderttausend~~2418
▁wörtlich~~12145
cast~~8377
▁gefaltet~~9460
▁Tunnel~~12417
▁Unabhängigkeit~~2819
▁alleine~~2196
▁Nationalpark~~12355
▁personalisierte~~8976
▁jungle~~24793
author~~15953
XXX~~24651
zugleich~~7407
▁Steppe~~14016
gehängt~~16423
▁prüft~~6563
▁kompromisslos~~1714
ufgewachsen~~4518
status~~3936
▁Antibiotik~~17920
▁breitet~~6035
▁sushi~~24156
▁breiter~~4035
▁Göttliche~~21171
▁Eiffelturm~~15764
▁breiten~~10783
▁spezialisier~~20710
▁Inhaftierung~~18669
▁Kult~~7556
▁Blutzucker~~21452
▁met~~21597
▁men~~20752
▁Entwicklung~~1413
▁hochrechne~~8075
▁konzipier~~19090
druck~~2232
Zentr~~20381
▁verändert~~1215
▁verändern~~4027
▁Verstehen~~12632
▁verändere~~3984
▁Trommel~~4319
▁niedrigste~~1080
▁Sieben~~9590
▁stärkste~~1846
▁Mesquit~~18846
skalen~~22110
Mann~~8354
▁Laufe~~3524
▁Reife~~1419
▁Gebühren~~1092
PJ~~9878
simulator~~10711
▁Krone~~18352
▁einige~~69
▁Fremdsprache~~18154
schä~~7557
▁Lewi~~8091
Master~~23762
▁Friede~~12281
▁Würfel~~4158
▁Grippe~~6219
▁Tokyo~~3255
berlebende~~3035
klatsch~~6399
moor~~23604
▁PRISM~~15781
▁schneide~~1944
▁Jagger~~15256
▁Reproduktion~~11155
▁externe~~10434
▁verlangsam~~18870
▁Brust~~6594
▁Parag~~15749
Versorgungskette~~18423
▁Käse~~14625
▁entnehmen~~15399
▁mürrisch~~18157
▁blutig~~18778
tribu~~20820
▁Blöcke~~10388
▁Plus~~23266
▁Anzug~~11399
ehr~~14181
▁Mittagspause~~21363
gesagt~~6865
▁Nike~~12618
ehe~~1571
▁13-~~11613
kehr~~8036
▁comic~~15333
▁schmutzige~~14981
▁LOLcat~~24130
▁Cesar~~20747
▁Monate~~1595
▁Experiment~~3549
▁miserable~~21365
gezeichnet~~20053
▁althergebrachte~~18414
▁bist~~1280
▁Urahn~~11880
taste~~2545
biopsie~~23804
▁Pomp~~11705
Mitglied~~19385
Entwicklung~~10555
▁Brenda~~21344
▁0,0~~17453
▁0,2~~17045
▁könne~~6830
▁Mercedes~~19992
▁2.~~4800
▁erfasst~~1833
▁26~~6129
▁27~~6545
▁24~~5617
▁25~~2725
▁22~~6711
▁23~~6925
▁20~~1665
▁21~~12061
▁abwerfe~~18982
▁28~~8123
▁29~~6660
▁Eben~~9473
▁symbolisiert~~16800
▁Ablass~~6611
▁Grenz~~6362
▁nahezu~~5893
▁ihre~~671
platten~~15786
▁Ungeziefer~~13076
▁Konsument~~8470
▁verpflichte~~13383
▁Court~~20020
▁Kern~~3967
▁bestimmen~~9086
▁Einstieg~~12582
▁Pionier~~18756
▁Provision~~14466
▁traditional~~21011
▁heutige~~1863
▁Pre~~7772
▁Abdul~~23461
▁Pra~~10364
▁Pro~~214
▁Pri~~12316
▁Ankunft~~18789
▁Renaissance~~9142
▁Boeing~~17814
▁Unterschied~~2148
▁kontrovers~~14397
▁superstar~~23712
▁absolvier~~6547
▁Prototyp~~4134
sächlich~~18730
list~~10150
▁Richtlinie~~8811
▁merkt~~10019
▁reif~~12047
gesündeste~~14928
▁rein~~2109
▁landete~~6619
▁Highschool~~15961
▁lehrte~~8321
▁Mandant~~24579
▁bestärkt~~18564
East~~22397
brille~~6980
▁unerforscht~~184
▁bedeutet~~1483
▁Saturday~~20664
brief~~21083
version~~7796
▁David~~4
▁bedeuten~~7922
▁Zähl~~17717
▁berechnen~~9528
geschlachtet~~5250
▁Gilbert~~19246
▁berechnet~~7292
▁Käsebrot~~24356
▁Coke~~14141
gelaufen~~3659
▁Erfinder~~2489
▁surf~~1301
▁Maslow~~14445
▁selbstsicher~~11885
▁orangefarbene~~17688
▁Bienenstöcke~~18646
▁Suaheli~~21839
▁germ~~19330
▁gern~~1489
▁bedacht~~12297
▁Vernichtung~~5810
Stamm~~20132
▁Erkältung~~16904
▁Value~~19559
▁Manifest~~989
▁zugänglich~~4180
▁Krähen~~12753
Militär~~23370
▁iPod~~1995
▁nuklear~~22258
israel~~18306
definition~~21313
▁piss~~19018
samkeit~~20666
▁klick~~13252
▁Architect~~20410
▁Morris~~21158
▁team~~19922
▁Jake~~17048
▁darin~~157
▁Unterschrift~~19024
▁Palast~~13100
▁Urteilsvermögen~~21475
blüte~~18728
▁intakt~~5894
▁Längs~~539
▁infant~~13070
▁Länge~~3517
▁Madam~~21239
▁Pentagon~~19404
▁Protein~~8027
▁behaupte~~2094
▁abspielt~~11358
▁kränk~~16920
▁abspiele~~9248
▁Ur~~5155
▁Up~~10529
ausstellung~~16436
länge~~7825
▁Un~~2092
▁Um~~9262
▁UV~~9088
▁Gigant~~6946
▁US~~7364
▁ineffizient~~12967
▁invent~~23310
▁miete~~2770
▁UC~~15531
▁dürfte~~19093
ntarktische~~5919
▁UN~~11717
▁wollte~~1538
▁UK~~23584
Prinzip~~11366
▁Meggendorfer~~14943
▁potenzielle~~10866
▁verlangte~~2874
wählen~~12540
▁gefangen~~8312
▁atmospher~~23238
▁verabschiede~~13287
▁Euler~~21816
▁Doug~~9684
▁Hawking~~16457
▁übertragbare~~16633
▁lähmt~~6437
ographisch~~18570
▁Muffin~~21359
▁euer~~11581
▁Hawkins~~17796
▁zeitaufwendig~~16246
▁entstehen~~4990
▁elend~~6884
Fabrik~~19681
▁Abbruch~~19638
▁Herzanfall~~21892
▁Information~~5637
▁hinterließ~~8117
▁laughing~~23465
hili~~12311
▁ausländische~~7308
hill~~11121
▁Jerry~~17459
▁pink~~10818
▁Invasion~~12651
▁sequenzier~~16463
▁analog~~12084
▁moan~~24294
▁Dach~~5475
kuchen~~12314
▁ansprechend~~14198
▁Mücken~~13026
verzögerte~~3318
Sinai~~21206
▁gelegentlich~~3036
▁o~~5931
sprogramm~~6115
▁Pic~~22626
▁Pin~~14159
▁Einige~~16159
▁Marco~~14863
▁Baustein~~17713
▁March~~19790
abreißen~~3451
▁Engländer~~8403
▁Münze~~8836
werten~~6719
kind~~6456
▁erhoben~~8693
▁vorne~~283
▁Adjektiv~~23485
▁Abbildung~~8344
▁Grundidee~~11573
wertet~~1221
▁Teufel~~13135
▁Brüche~~7506
▁Lueckert~~17119
▁Institut~~8047
▁antwortet~~13067
▁losgeh~~3867
▁farbige~~20918
steht~~9740
▁750~~6367
▁unbe~~2667
▁Wil~~9543
▁Win~~2505
▁Wie~~1574
▁Wid~~8557
▁Lebensende~~7126
verbindung~~14349
generieren~~1159
▁Beobachter~~13788
▁Wir~~3534
gill~~24038
▁280~~23384
▁Anderson~~3411
▁geistige~~4082
amas~~17596
▁Förderung~~1564
▁glimmer~~24721
▁Zentralasien~~14015
▁Sünde~~13504
▁Ahnung~~155
▁Bulgari~~991
▁h~~7390
▁schwerfällig~~15344
elling~~23520
arrer~~13809
▁Airbag~~20017
▁benutze~~1297
Profil~~17840
▁Umstand~~4516
▁betrunken~~16648
▁Ohren~~378
▁Neuigkeit~~3927
▁Barrikade~~20477
ier~~243
traut~~11740
iev~~21522
▁Bibliothek~~10416
iel~~13412
ien~~2411
hielt~~4352
▁schaffte~~13469
ied~~15892
▁beibring~~2206
ief~~19269
▁ländlich~~17388
cott~~22319
▁Idri~~24405
▁Zufälle~~13825
▁grau~~7735
▁Mitarbeit~~20283
▁zustimmen~~10187
▁polygam~~17646
▁win~~2501
▁einmalige~~10177
▁wie~~134
▁wid~~24257
▁Relation~~18379
▁wip~~21575
▁wir~~66
▁wit~~12437
▁entschied~~5428
sbereich~~2103
ups~~19957
▁mühsam~~16870
sänderung~~14005
▁auskenne~~17524
opplung~~19219
tro~~12936
▁rennen~~2974
uuu~~3943
▁Emba~~20038
▁Guitar~~4015
▁Amnes~~17957
▁Sexual~~16635
▁Verwirklich~~14148
solv~~8781
solu~~19868
▁hochhebe~~14423
▁Cluster~~19651
▁Risik~~6119
▁Gefängnisse~~9338
▁ver~~852
▁vet~~23546
▁unbewusst~~17784
▁Peak~~23691
▁Verwandte~~12201
chle~~4981
▁aussagt~~13165
▁ausgebeutet~~20605
abschnitt~~15073
▁Kommando~~6574
▁Kyros~~12637
▁Pünkt~~17866
▁Wichtig~~8596
▁Pension~~11996
▁Erde~~47
▁Entsorgung~~19344
ommunication~~8399
▁Delhi~~10051
▁Valley~~10132
▁Datum~~14088
▁lila~~5605
Boote~~775
▁Antarktis~~13992
▁Mahl~~4434
▁Erdöl~~16540
▁rassistische~~13563
Arbeit~~18021
▁Napoleon~~19029
▁abrufe~~3906
▁Exil~~10063
▁betrug~~8172
shirt~~3718
▁Gegenüber~~17775
▁verdammt~~6953
▁verrückt~~4290
▁Scratch~~24231
▁Versprechen~~1683
shire~~16589
▁Altar~~12688
9~~2811
nnähernd~~7087
▁angeregt~~12905
beteiligung~~22590
▁Connectome~~18444
▁alltägliche~~5694
▁one~~22680
▁fahrerlose~~22704
▁ausgelassen~~23255
ession~~8039
atchi~~18522
▁implantiert~~15679
▁Monarch~~17040
▁Moussa~~14079
▁Heart~~22937
▁Haus~~3176
▁Bagh~~20812
kalkulier~~18401
▁bumm~~1394
finden~~13103
▁Polar~~12175
▁Nordamerika~~1852
▁sodas~~6880
▁aufnahm~~8655
alysis~~19381
▁Indikator~~9912
▁Papagei~~10448
▁signal~~17533
▁Klimawandel~~2298
weite~~6012
▁Arizona~~15642
▁wahrnehme~~5489
teig~~8683
teil~~4247
▁vierzig~~10801
▁schwerer~~10094
▁unheimlich~~13815
▁Derart~~22335
agadd~~12919
▁helfe~~9164
▁sink~~10819
▁sinn~~3120
▁zerstreu~~3045
▁Verschlüsselung~~15796
▁sind~~276
▁angenehmer~~18054
▁sing~~4474
▁cri~~24805
rief~~6046
▁unternehmerisch~~14963
▁rutsch~~3382
riet~~9699
▁kooperative~~13409
echlich~~23211
▁Invent~~17123
▁Biospher~~24635
House~~23236
▁Befürworter~~17829
▁Umfeld~~1875
erweise~~663
▁überraschte~~16779
▁langfristig~~20754
range~~12773
osemite~~15902
▁Woman~~19034
▁Chevy~~11404
▁dokumentierte~~8894
▁revers~~24532
▁Südost~~3240
▁Unglück~~9604
▁bevorzuge~~13314
shea~~24749
▁rebound~~24668
long~~19363
artnäckig~~20928
▁bevorzugt~~8221
▁Angabe~~1775
▁verursachte~~1189
▁sorgfältig~~6555
▁Interaktion~~9012
helfen~~14102
▁Symptom~~5575
helfer~~18615
aisal~~16037
▁Kamera~~681
▁berichtet~~1063
Veröffentlichung~~1916
▁Narr~~8371
▁Indian~~15920
▁berichten~~11977
▁Zurück~~16293
▁Wörter~~10227
▁teilte~~4105
▁Topf~~16557
▁Arbeitgeber~~1789
▁schematische~~17525
▁Visuelle~~15298
▁Brad~~19615
▁Senior~~7317
peace~~21861
nick~~9447
▁voneinander~~944
▁Stoff~~766
▁Ghemawat~~21073
nice~~17232
dale~~4168
gesandt~~17804
▁schrie~~11493
smittel~~9804
▁verringern~~7272
▁verringert~~15031
▁Cradle~~11670
▁Schlimmste~~5616
▁weibliche~~6862
▁allgemeiner~~17522
▁Sabbat~~21000
▁verhält~~15691
▁kurzlebig~~8026
▁Kiefer~~6897
▁World~~13323
▁Wände~~4159
ganz~~20509
▁Koreanisch~~23715
gang~~7511
ardino~~23865
▁erheben~~14042
▁Betonung~~15209
▁Sanghamitr~~22524
▁hinten~~9759
▁Abgrenzung~~11918
▁Buddha~~18711
▁Safari~~19354
▁notwendig~~5798
manöver~~15751
▁runter~~3232
▁Anstieg~~7224
P~~1746
▁Vitamin~~6221
▁TEEB~~23636
▁immersive~~15329
zeit~~1777
▁Apfel~~16131
▁Kriegs~~10676
▁Kashmir~~16063
beschleunigte~~22808
▁Schwachstelle~~22515
eller~~10163
Personalisierung~~8977
▁Widerspruch~~7565
milliarden~~18032
Beschimpfung~~22870
▁wahrscheinlich~~601
▁Self~~21695
▁Sela~~11786
▁locker~~6609
▁Option~~11299
▁Gebrauch~~6834
▁diatom~~24591
▁ablief~~19866
mauer~~15114
apparat~~19812
▁unwichtig~~5654
▁strömen~~7626
▁5000~~8389
▁saß~~6977
▁Luke~~10139
voll~~6714
volk~~19160
volt~~22425
apo~~22555
▁Zulassung~~11117
▁abgeschlossen~~8062
▁every~~22675
töpfe~~11029
▁Katie~~23744
▁Werbespot~~17129
▁crisis~~24128
▁menschliche~~1260
Sicherheitsrat~~20797
lödsinn~~11978
▁Kitt~~17764
▁Todesurteil~~7040
▁Trainer~~6441
▁Fledermäuse~~18117
▁Einrichtung~~5536
▁wusch~~15970
▁Rennen~~7553
▁gefiel~~10121
▁Pygm~~11445
▁Port~~6373
▁erwachsen~~8486
zähler~~21540
▁NBA~~21640
▁anregend~~14499
▁Sternen~~13339
hindert~~13621
▁Attacke~~19980
▁Braut~~14204
▁verführerisch~~6248
▁Buch~~1600
▁source~~15842
lbatross~~4921
▁Rutan~~20247
▁i~~15819
▁Flussufer~~15997
▁Analytik~~19926
▁Braun~~14925
▁W~~1970
reisende~~5246
kneif~~14730
▁verwandelte~~9351
▁bekommt~~3688
züge~~51
▁Schwelle~~4677
▁gefüttert~~11209
gestrebt~~15369
▁wichtige~~1867
▁Bernard~~22430
▁verknüpft~~1738
▁ansprechen~~4053
▁gha~~12527
▁1930~~14038
1~~2756
hildren~~13543
▁gewährt~~8642
▁Entschuldigung~~10997
▁deutlich~~1759
▁Redaktion~~13210
▁Erhaltung~~19396
gesteckt~~6364
▁Betrug~~3536
versorgung~~7184
▁beschissen~~12855
rilobite~~21980
▁neuronale~~18457
▁Zaca~~15458
Krankenschwester~~3446
▁Zach~~15462
▁gerät~~10047
▁Extremisten~~21774
▁Kampagne~~4738
▁mangelnde~~16866
▁Wichtigste~~1658
▁Ukraine~~20144
▁Entstehung~~10730
▁Lebensunterhalt~~5561
ous~~15835
▁hauptsächlich~~1914
out~~7503
hemical~~17161
Sequenz~~16390
▁spektakuläre~~15985
adapte~~24445
▁Empire~~15861
▁Alaska~~20299
▁Nigeria~~6237
▁Gesicht~~410
▁einflussreiche~~7313
zündet~~20010
kauf~~14762
▁Bildungs~~2025
zeihung~~13836
g~~350
▁120~~2432
▁125~~15866
▁12.~~6398
▁geleitet~~9771
▁beunruhigt~~7858
▁Dragon~~18598
▁Studentin~~6894
▁Lesbo~~12239
▁temporäre~~11693
▁logische~~16077
▁Dennis~~17404
kräftig~~6978
▁erschieß~~18310
▁Bohr~~16221
▁quälende~~20745
▁unscheinbar~~22891
▁Sprungfeder~~24309
▁irritiert~~3183
treff~~17880
▁hochwertige~~8763
▁herumge~~8599
▁Skep~~17482
▁kleine~~289
▁Tinker~~14747
▁aussterben~~11216
ringen~~3809
▁Stütz~~17307
▁Schinken~~16332
▁Frankenstein~~10731
▁Verantwortlich~~13834
schweiß~~18660
▁gefragt~~596
genannte~~24071
▁eindeutig~~7081
▁Unmenge~~16216
▁veranstalte~~3799
ernährung~~7225
▁Entwicklungs~~7301
▁cent~~3589
▁altersbedingte~~7964
▁Trainings~~6543
enotyp~~19539
▁Verdienst~~16105
werke~~12946
▁Fächer~~19332
▁löste~~2884
▁Popkultur~~11297
▁angeheuert~~20095
Jungfräulichkeit~~15573
▁geben~~800
öwe~~19357
▁Nachhaltigkeit~~10190
▁rechte~~6255
▁grüne~~2113
▁rechts~~468
Werkzeug~~22092
▁ungeheuer~~3370
▁Problemlösung~~9010
▁Sinn~~1686
Schnittstelle~~22084
▁einsam~~13309
▁nächsten~~1978
▁Student~~2468
▁Realität~~1877
▁verleih~~18953
rger~~3732
▁ungewöhnlich~~5930
ltigkeit~~12150
▁nich~~17652
▁Pendler~~20626
▁Briefmarke~~19830
▁nice~~20180
▁Ankündigung~~17670
▁Erkundung~~15873
dimensionale~~9454
▁atoms~~24920
▁Reklame~~10376
▁Stromnetz~~22838
▁unersättliche~~12563
ächter~~11329
▁lieferte~~13190
▁Filmproduzent~~2694
▁vernetzt~~8455
▁Soziologie~~8820
▁Bambus~~16288
▁random~~19270
▁Beschaffen~~4334
ability~~22416
▁McLuhan~~15314
job~~3265
agwa~~16731
▁behalten~~3734
▁Analyse~~2550
▁schieß~~16298
▁Tongu~~16926
▁total~~6517
▁Meme~~998
▁Bollywood~~22377
▁Murmel~~13284
▁Sputnik~~9545
▁diff~~15537
▁quantifizier~~9361
raktion~~19275
▁herkomme~~20090
▁genauer~~6393
▁Meerjungfrau~~19105
dünn~~5781
▁Minotaur~~23318
▁Huygens~~21793
▁einmal~~216
cientific~~14696
▁zerschmetter~~10073
▁sigmoidal~~23493
▁schlafe~~21755
▁Styro~~20359
▁Kreation~~11509
▁virus~~16407
▁Manöv~~20755
▁Serge~~8685
▁arbeitende~~10307
▁Weisen~~8676
▁Kollaboration~~13378
▁verbessert~~1468
▁lenken~~5487
▁Wahlen~~12532
▁Four~~18850
▁sähe~~12851
▁Gläser~~18843
▁Alzheimer~~4052
▁temporal~~15299
▁ernannt~~14561
▁handeln~~4636
räte~~12837
▁hedoni~~21653
bersicht~~16850
▁Regal~~10436
▁Gegenwind~~21252
▁Erneuerung~~11073
▁professional~~22664
▁Brüste~~10832
▁Luftballon~~22872
▁bewältigen~~7383
▁Verhältnisse~~9817
▁Rebellion~~12256
▁Vögeln~~4610
▁Pullover~~15956
▁Geister~~10524
▁einfallen~~10345
tüftel~~17879
▁Mittlere~~12445
▁aussortier~~1915
▁Neanderthaler~~21312
▁origin~~23028
▁grauen~~3190
▁hör~~10979
▁bewirken~~6240
▁Eastern~~4911
▁lästig~~12787
▁Divide~~22882
iebhaber~~7621
▁nähert~~11919
press~~12004
▁leichter~~3887
▁aufsässig~~22815
▁Genie~~10850
▁metropolitan~~16711
▁Aktivität~~815
ielstrebig~~18963
▁Sheikh~~16528
▁Hindernis~~11097
▁hydrogen~~534
schale~~3600
nce~~20983
▁britische~~2631
church~~11776
tammzellen~~22364
▁Immobilien~~11517
eiterentwicklung~~1971
▁Auszeit~~13871
▁Schwankung~~8073
▁Gefäll~~16028
▁strategisch~~7428
werte~~4386
▁regier~~18296
▁Doppler~~20481
▁fortbesteh~~9330
▁Libeskind~~21491
▁privilegiert~~11710
▁dome~~18363
ashi~~23579
▁Modul~~16573
▁Tierversuche~~20985
▁Cub~~24477
▁Taktik~~6292
▁Heroin~~6458
▁Cup~~14189
▁Rama~~15979
transfer~~16410
▁gehorch~~10720
▁offensive~~20375
Monologe~~23972
ündig~~9070
volume~~21652
karte~~6893
rücken~~9652
arni~~9335
▁vorhersagbar~~3436
▁Temperament~~11444
uffard~~23789
▁fundierte~~23989
▁Byr~~4308
▁Arbeitsstelle~~1659
▁Stimulation~~13670
▁fließende~~14145
▁planetarische~~19165
▁Gräuel~~21406
▁abbekomm~~22567
▁Schumann~~24459
▁daneben~~7236
▁unterstützende~~16938
▁Maß~~15809
▁filmte~~14101
▁wegkomm~~8682
▁Physiologie~~17420
incredibly~~23283
▁träg~~18348
▁worauf~~1152
pumpe~~16024
pumpt~~22284
elektion~~13451
cliff~~22340
▁imaginäre~~17447
▁fing~~2931
▁find~~23816
sprochen~~12838
▁tugendhaft~~21115
schwamm~~20637
▁Allgemein~~7985
▁behandeln~~1265
dienste~~10798
▁gestreifte~~13636
▁Nairobi~~13374
▁tätowier~~12144
▁Tansania~~13580
▁Fide~~15238
▁Glenn~~16929
▁gutaussehend~~13628
▁Schwarzafrika~~12917
▁Beteiligung~~9014
▁Laune~~8535
▁Anteil~~1730
▁verweis~~18285
▁Gandhi~~3076
delt~~16313
▁prächtig~~13887
▁Dyson~~19508
▁mutig~~6647
▁orient~~13608
▁Zunge~~11047
▁Heizung~~21582
oooo~~19956
haben~~12995
▁Symbol~~9100
▁ernstzunehmende~~20352
acula~~13014
▁Hyäne~~19482
▁blau~~13611
▁Freunde~~1118
▁Deep~~11381
▁blam~~21566
blasen~~2384
▁Reibung~~20019
▁Beleidigung~~16919
▁Stimmen~~3061
▁Metapher~~9250
▁Schnapper~~23978
dorf~~12586
▁24-~~19721
▁Großeltern~~2813
▁Kalkulation~~14269
▁Frosch~~13642
verhältnis~~9459
▁Metropole~~22158
▁Liquid~~15187
▁Automat~~10273
▁verschwinde~~4123
▁Versteck~~3001
witzer~~24590
▁Nick~~6979
▁Nice~~19648
reichen~~5404
bänder~~16969
▁Straftäter~~20448
▁Bergwerk~~24013
<s>~~2
einiger~~9830
▁Taxifahr~~13147
▁Erlebnisse~~9848
▁Custom~~20386
▁Nagel~~14984
▁örtlich~~22537
▁Hinsicht~~4350
gleichheit~~17466
▁Happy~~8852
▁Götter~~5161
▁unser~~327
lves~~23557
▁hoffen~~4154
geber~~1580
Reality~~20543
geben~~1806
▁durchbrechen~~15016
▁Layma~~12271
▁vorherige~~6131
machine~~23530
gebieten~~2360
Atom~~14256
enmark~~23799
▁Kreis~~1926
▁gesponsert~~20734
▁Mindest~~15346
▁Somerset~~16590
▁Beschleunig~~20785
▁suborbital~~20257
▁Schauspieler~~3714
▁Situation~~1728
PNV~~24606
wink~~19274
getragen~~6872
wind~~13894
▁protest~~18952
▁Lügen~~13064
vara~~13867
﻿~~23874
impft~~2893
tägige~~14756
▁Musta~~22130
▁Vortrags~~1323
▁heimische~~7445
▁kanadische~~11119
▁Hour~~14712
▁Hous~~20248
überwachung~~11910
▁heimlich~~9555
▁merci~~23416
▁symbio~~5366
▁Alternativen~~18139
▁repräsentative~~16773
▁Brook~~10457
▁gebrochene~~10024
▁hineingeh~~4279
▁Mittagessen~~1648
▁Info~~7401
cooter~~13371
▁friedlich~~8153
▁Höhepunkt~~6168
▁Mitte~~2415
knit~~23203
▁Gemeinwohl~~17839
▁trete~~11045
▁Trümmer~~18000
▁unterdrücken~~12554
▁abge~~6608
släufig~~5365
▁Coca~~14134
▁Prozedur~~11106
▁patient~~20967
▁Allianz~~21179
wash~~17518
gebrannt~~19768
erklärung~~12895
ufblitzen~~17582
▁level~~24569
Website~~21039
▁pure~~15289
▁scroll~~18211
▁Prototypen~~8730
▁lehnt~~13428
listen~~13236
▁teil~~3244
cted~~23832
▁spekuliert~~15584
▁darau~~959
▁frustriert~~12510
▁Architekt~~5056
▁mögliche~~4599
▁daran~~1208
▁spekuliere~~7977
▁Parikrma~~22635
▁fehlte~~16724
▁darstellt~~5308
▁veränderbar~~19259
▁Doktorand~~15387
▁HIV~~7757
▁kompensieren~~20559
▁Behörden~~11540
▁verstörend~~20108
▁Kindersoldat~~12276
▁saubere~~11652
▁anzu~~316
▁Geschirr~~5676
▁Schichten~~9038
▁Ontario~~21795
Bank~~14475
▁großer~~3514
▁rechtfertige~~13079
▁abzielt~~19611
▁Rouge~~21234
letter~~21547
▁großen~~291
▁bewahre~~1174
▁atemberaubende~~15748
▁Kopernik~~21818
▁Wohnzimmer~~4651
▁Steuergelder~~10840
professor~~6938
▁verwandt~~11197
▁bewahrt~~12933
kratzt~~13698
▁auftreten~~12124
bomb~~21688
▁Slick~~24836
▁Stempel~~16088
▁Navigator~~22620
▁Drink~~22460
▁manifestiert~~17414
ment~~4057
▁Lakota~~23786
gesaugt~~12631
▁chirurgische~~10893
thema~~11979
▁Arrangement~~17997
▁Najmuddin~~23631
▁Körner~~17553
▁Koran~~12225
▁Algen~~5855
▁Walfang~~21862
▁gewöhnt~~4237
berwachung~~10673
ugoslawi~~12257
Netz~~14453
▁Dome~~5927
▁bezahlbar~~16612
▁Immigrant~~16140
▁essentiell~~11281
▁angeboten~~3128
▁Easy~~16559
klären~~5756
▁Ländern~~1837
▁East~~15900
score~~4030
▁Oberfläche~~619
▁einbeziehen~~3862
▁Fernbedienung~~13123
▁Ideal~~5315
carbon~~9884
ränken~~7583
▁bewegt~~145
▁Dokumentarfilm~~2908
▁Vorurteile~~9432
schuhe~~12550
▁gelähmt~~5610
▁üble~~19294
gesammelt~~5160
▁passierte~~4697
zuschauen~~14302
▁Pav~~20897
▁Pat~~4786
▁Bionicle~~24520
▁Par~~8825
▁ausser~~2408
▁Pan~~11036
▁Pal~~7099
▁Pam~~19060
▁Pac~~20799
life~~9399
▁außer~~711
▁gleichzeitig~~754
lift~~16091
▁außen~~10148
child~~17658
▁rebel~~24913
erst~~1591
▁kosten~~7228
▁verletzlich~~5942
▁kostet~~1972
▁Grossvater~~10082
▁Treib~~4850
▁Wal~~15549
▁falsch~~3772
▁Was~~4648
▁War~~6508
▁Wat~~17172
Grafik~~21874
klinik~~12402
wenden~~5988
▁Tide~~23739
oldaten~~20130
brücke~~6239
▁Biolog~~20574
▁flauschige~~16312
▁rührt~~16828
hrfurcht~~2791
topf~~10981
▁motion~~24203
▁Instrumente~~3980
▁Olymp~~1388
▁übergeordnete~~13789
wahl~~1333
▁Trillion~~21053
▁dominieren~~14737
▁Einsicht~~8531
Fahrgemeinschaft~~19123
▁aufschlussreich~~12373
▁auszusehen~~13084
▁Flagge~~4620
grafie~~16431
grafik~~14793
▁veranlass~~15714
▁ausgefeilte~~15676
▁ertrink~~23153
▁Geologie~~12711
firmen~~16421
hängig~~14260
▁Nylon~~8431
▁Zeugenaussage~~15627
▁Filmmaterial~~9547
Bimetall~~24359
▁Rush~~14711
▁Montana~~15367
▁Strand~~130
▁Strang~~13805
▁Aufreg~~3824
▁spezielle~~201
bereit~~16333
bedingte~~15022
▁Gitter~~9377
▁Giacometti~~19497
▁Organismen~~7911
▁ließ~~6914
for~~4879
▁assoziiert~~11870
▁Tatort~~15587
▁bisherige~~10433
▁überzogen~~18968
arbeiten~~5543
arbeiter~~2058
heikh~~23254
▁Swap~~23059
Think~~24135
▁ausbilde~~11861
bewerb~~10897
▁Alarm~~17063
▁Aktivierung~~15705
chte~~12774
▁Gedanken~~2493
halle~~11756
therapiefelder~~21743
lebenswichtig~~12736
schrift~~8288
▁Botschafter~~4768
▁Abschnitt~~13388
kriteri~~22079
▁nervig~~11643
gebohrt~~1247
▁überspringe~~18226
type~~24318
▁Fire~~4228
▁was~~156
▁war~~517
▁way~~23765
▁Präsidenten~~7438
▁Riffe~~20169
▁upper~~22396
exist~~11275
stündige~~19047
▁älter~~2812
ommen~~13562
▁Anschläge~~15460
▁Pavillon~~11698
▁Tribu~~18591
▁Supermärkte~~14614
▁listen~~18653
▁kürz~~6832
▁geologische~~15890
▁angenehm~~1982
▁hilfreich~~2571
▁Soziologe~~13416
▁Büch~~20699
▁Jurist~~18966
Ausrottung~~6101
▁lebende~~7946
▁akademische~~3103
▁Gabriel~~3977
▁vorgegeben~~7201
ver~~496
weile~~4520
öpft~~12163
▁sachlich~~15563
▁Wheel~~23259
▁Zustände~~12033
▁optical~~22771
▁gründete~~2706
plikat~~10627
▁präsentiere~~7463
▁Rampenlicht~~23062
▁Spiele~~12011
▁präsentiert~~3301
mahl~~12669
▁Besorgnis~~14052
▁brennende~~5625
team~~6309
▁Richard~~10990
▁Humphrey~~17930
▁Individuum~~10520
▁anregen~~8878
▁klinisch~~15700
▁Urgroß~~19323
▁entfachen~~1678
▁Struktur~~4351
▁Scham~~12094
▁deponier~~18801
▁Schaf~~10643
▁bleib~~17653
▁innere~~6406
▁Auftrag~~5496
▁Schau~~4967
▁Schar~~7874
▁Werte~~3129
▁Schwefel~~854
▁bieten~~2665
▁Wildhüter~~22885
▁Sektor~~14149
wunde~~17965
studien~~16874
▁Medikamenten~~5685
▁Truppe~~6703
▁BOMB~~22010
▁durcheinander~~4378
▁Grafik~~3869
▁strahlt~~10400
▁Kosten~~1966
▁Gefangene~~13449
▁beizu~~2138
Rechner~~18068
positive~~13724
▁Draht~~12783
▁Acheul~~17435
▁rekrutiert~~3697
▁Ratschlag~~18250
▁Peer~~8752
▁Nazi~~3026
ankees~~19053
visual~~22250
▁selektier~~20078
▁Schnecken~~23278
▁PowerPoint~~15815
▁Tom~~3068
▁Ton~~3278
▁Tob~~20821
▁analysiere~~6394
▁Tod~~3944
▁Mexican~~21350
▁Industriezweig~~20380
▁Moeglichkeit~~23216
▁Top~~7289
▁analysiert~~4293
▁to~~902
▁Motion~~22918
▁viereinhalb~~10175
▁442~~24810
▁pflanzen~~12184
▁Gefrier~~22701
flogen~~2438
▁vergess~~8256
schrecken~~16517
winter~~15547
▁Bris~~13301
▁Brit~~2892
▁bare~~21530
▁Brin~~8686
▁talk~~24243
nseits~~5037
Bildgebung~~10787
▁Stringtheorie~~13792
▁Pressekonferenz~~14092
▁bestand~~6733
▁Reputation~~19720
data~~24192
▁gefährliche~~10992
▁herausragend~~10805
▁vornehm~~6487
▁Sebastian~~18443
▁WikiLeaks~~22322
▁Ausflug~~10403
▁lausche~~20049
▁gelten~~7186
kong~~16418
verantwortung~~21037
▁Jasmin~~24560
▁schlimm~~3577
hohe~~21913
▁kennenlern~~17516
▁Ada~~15280
▁treffen~~1514
▁erfreu~~9435
strecke~~16033
strom~~17602
▁iranische~~2938
▁eigenständig~~13499
▁Rennfahrer~~23938
ltesten~~14106
viation~~20253
▁vermassel~~10989
▁Carl~~5711
▁Carm~~16493
▁Meinungsumfrage~~9589
▁zahlreich~~13752
▁Führer~~1635
▁Amphibie~~9829
▁direct~~18493
▁Sowjet~~9550
Emission~~16231
▁Reduzier~~16755
▁unerbittlich~~15026
▁Faul~~21122
million~~2923
gerüst~~20900
▁löscht~~17159
▁Kong~~14853
▁Luca~~4910
▁Universi~~21367
▁beschreibe~~18120
▁Frühjahr~~7294
▁versammel~~12906
rzeit~~16998
wirken~~4008
▁erste~~816
▁wirtschaftlich~~6122
▁Süßwasser~~22122
▁Leonardo~~9036
▁ein~~76
▁Umsatz~~10441
▁Chromosom~~13761
2~~7703
▁Katar~~11524
geschäft~~3776
▁Reformen~~7237
▁Raja~~18524
▁Treppe~~7744
▁Minderheit~~8762
▁Persönliche~~12334
▁Football~~1443
▁TEDster~~16470
▁wider~~2144
▁überschritt~~16546
ffenba~~20480
▁Wiki~~20233
hält~~1526
▁dreimal~~5093
▁Stoffe~~5623
▁gegessen~~4402
▁Mangel~~7430
▁Radfahrer~~20853
▁dicht~~532
▁Krosoczka~~24208
fertig~~11887
taka~~22526
▁Kakao~~7358
take~~4410
▁Städte~~5053
▁Massenver~~12443
▁schiefgeh~~15529
▁bezaubernde~~19571
▁Pixar~~22506
▁Technologie~~2716
▁Psychologi~~19232
▁extrinsi~~21188
▁Psychologe~~9408
axe~~20601
▁Kiste~~6477
▁Diplomati~~20615
▁fortwährend~~4243
▁regne~~13302
▁Techniken~~6705
▁kontrolliert~~1409
▁Techniker~~3283
▁ärgert~~12769
▁Muh~~17743
▁Mul~~18957
▁Veränderungen~~1821
▁Durch~~4382
▁Laborator~~14666
▁Frankie~~16606
▁Mur~~6801
▁Mut~~5698
bombe~~9572
▁schrittweise~~7924
▁Urlaub~~1649
▁inhärente~~20662
▁frag~~20697
▁Aufnahmen~~79
verything~~18239
up~~11035
▁Frontall~~9747
▁Ratten~~1347
▁650~~5372
▁Hendri~~20564
Bewegung~~6962
▁Produktion~~2787
▁Lehrerin~~10305
▁Jess~~16927
▁Liz~~21016
▁vergeblich~~6267
▁Lis~~8423
▁Isabel~~10425
▁Liu~~24698
▁unbezahlbar~~8777
▁Picture~~22919
▁Lin~~8583
▁Lil~~12979
▁Lib~~13372
▁verschwimm~~12176
▁Kollegen~~1457
▁handelsübliche~~20832
▁unaufhörlich~~20618
expression~~24460
▁AAA~~21346
▁ungezwungen~~16854
ants~~21866
▁Parameter~~4257
anti~~6852
▁Norden~~6235
ante~~2861
▁Mecha~~19942
▁analytische~~19916
sicht~~1287
▁Südamerika~~9966
▁vermiete~~19705
▁verflucht~~12301
▁Ang~~9037
▁dafür~~1488
▁schlichtweg~~18804
▁erheblich~~9969
▁Geige~~18873
▁Protokoll~~8359
▁Innere~~823
leiter~~3679
moglobin~~15391
▁Stöcke~~14752
▁Probiotik~~15530
▁Milch~~5102
▁Geschlechts~~314
▁Schließ~~19829
▁vorantreib~~16568
brot~~14537
brow~~22026
▁unbehaglich~~18051
▁grossartig~~6041
▁reibungslos~~23064
▁Electronic~~22072
▁1600~~18909
▁Chor~~4148
ophonie~~18037
▁Chop~~16133
▁eingeladen~~8587
▁monochrom~~23919
antwortungsvoll~~16761
▁lit~~21356
▁format~~24316
▁lin~~16527
▁lim~~24267
▁lie~~20698
erence~~7004
▁erinnern~~1129
▁Lebensmittel~~5127
▁erinnere~~4681
▁demo~~10379
▁Freundlichkeit~~17659
ärgern~~14830
▁erinnert~~2633
odium~~22103
Gewächshaus~~5354
▁Ambition~~21222
▁wunderbarer~~13065
▁arrangiere~~18219
▁liefer~~5768
▁Staatsanwalt~~15646
▁Bjor~~13042
▁arrangiert~~6857
▁Oktober~~5499
▁entstand~~6718
▁küssen~~1393
▁calculus~~24724
▁berühmte~~5303
▁Identifizierung~~15622
▁häufigste~~5005
▁Alphabet~~13405
▁Sammler~~8191
▁heart~~24766
▁visualisieren~~19695
▁Allende~~10426
skies~~24436
▁riesig~~6124
▁Mütter~~9236
▁äußerst~~7029
▁Kampf~~6557
▁alles~~277
▁vervielfach~~12923
▁Slide~~16714
▁greifbar~~16842
clav~~21604
kristalle~~17563
▁virtuell~~14280
idney~~2899
▁davor~~6515
▁fantastische~~3987
▁NATO~~14108
▁haette~~23212
▁Hühnchen~~16132
▁WiFi~~10248
▁Frühstück~~8833
sprung~~6541
▁forever~~23349
▁Meet~~19129
▁Feind~~1639
▁rotieren~~18076
▁Zufluchtsort~~22602
ack~~6559
▁Mister~~21856
ach~~3339
▁Häf~~17094
▁siebte~~6928
acy~~23129
▁Lebenszyklus~~19348
▁unfassbar~~11818
▁Resultat~~8066
▁automatisier~~18448
händig~~13082
▁tourist~~13818
▁morgen~~965
▁Steff~~19338
▁Erschwinglich~~16671
▁complex~~23571
▁erfinde~~11644
▁McInt~~24669
▁schlank~~16869
▁home~~24132
▁homo~~22071
▁Elementar~~18083
▁Verteilung~~8971
▁Osten~~4678
▁page~~24926
gone~~22368
ohn~~4881
ab~~1785
ad~~8001
ag~~8616
af~~9944
ai~~13582
ah~~3017
ak~~6957
am~~3147
al~~360
ao~~16147
an~~1604
ap~~5191
as~~4588
ar~~465
au~~4186
at~~3737
▁Nervenzellen~~11897
av~~4466
ay~~2410
ax~~8392
az~~12657
▁Paar~~3351
▁ankle~~17127
mathematik~~16070
▁Winnipeg~~17847
Spiel~~9161
▁Menschenaffen~~10595
störung~~15023
▁befriedigend~~14422
▁Stil~~9356
▁witzig~~12619
▁Dezibel~~22600
▁schmale~~9063
Wander~~16486
▁labyrinth~~22076
▁unfair~~1816
▁berühmter~~13109
▁Tochter~~2650
etz~~6630
beschaffung~~5060
▁Tages~~1306
▁Bewusstheit~~14126
▁Tagen~~4623
▁Reisende~~15122
▁zurueck~~23221
case~~23430
▁Alkohol~~13143
kümmert~~15091
▁Kooperation~~13389
pression~~16295
▁Kindes~~5586
▁Kinder~~1133
▁temperament~~24374
▁gewöhnliche~~2172
▁Zigaretten~~19467
▁verteilen~~5163
▁psychedeli~~21366
▁Jazeera~~13369
▁Whirlwind~~24273
▁verzwickt~~18070
▁lebendige~~9107
▁Einhorn~~9092
▁kletterte~~20933
▁regime~~24832
▁Eingriffe~~22030
▁Ernährung~~5136
▁Blackberr~~18768
▁Uhr~~1563
▁Kasse~~22571
Designer~~19277
gebung~~3797
▁Cocktail~~12761
▁Lächeln~~12870
▁Säule~~784
razz~~19358
gewachsen~~9931
hitze~~11692
offizielle~~4171
monate~~14213
durch~~1989
razo~~18566
pick~~19577
action~~24053
sbegrenzung~~22038
▁Janin~~23628
▁Früchte~~7205
▁rohe~~16224
▁dass~~89
▁unvorhersehbar~~5040
▁Raum~~348
▁altruist~~13455
▁Hutchi~~22061
▁Raub~~5966
▁Jenseits~~12044
▁Kyoto~~16136
▁tierische~~5094
▁beachtliche~~18278
▁Weite~~141
▁Cambri~~23796
eute~~14221
▁Orbit~~13361
logging~~19137
▁Display~~8719
▁Kohlenhydrate~~14548
▁Beton~~3326
▁12.5~~21483
▁CRISPR~~24716
science~~15732
▁mochten~~4446
▁gefroren~~8101
▁ermächtigen~~1617
▁obsessive~~24094
▁tiefer~~486
▁Europäer~~13945
effiziente~~11654
▁Twa~~9000
▁Scot~~15254
▁ill~~22170
sense~~14775
▁zehn~~872
information~~7244
werfen~~16318
▁Gemüse~~5018
zeugnis~~6261
upta~~22365
▁Begriffe~~8907
▁Loch~~5347
▁Primzahlen~~21822
▁Orange~~14590
▁Stelle~~796
▁Strecke~~7305
▁strikt~~16662
▁Guten~~5378
▁Film~~2623
▁versage~~6336
skript~~22167
▁sport~~12481
▁Knie~~6401
▁Erzeuger~~14511
▁verpackt~~7804
▁trotz~~3111
▁versagt~~8520
▁Chang~~12543
▁Musizieren~~4036
wirkt~~5880
zhen~~23414
▁Bar~~4165
▁Bas~~17708
gestaltung~~5722
▁Kaiser~~18164
forderung~~19329
▁populär~~4371
▁Superman~~18597
▁Bab~~1130
▁Bad~~11473
▁Bag~~21117
▁Bah~~17595
▁fehlende~~10075
▁Bak~~11609
▁Bal~~4508
▁Bam~~21155
▁Ban~~11685
week~~24605
▁Nutzen~~5458
▁ruhig~~5689
▁Guang~~21636
▁Predigt~~11503
▁Nutzer~~9314
▁Stahl~~9536
▁Guant~~18995
▁Gebiete~~4038
▁Nahrungskette~~5007
▁platonische~~11418
highway~~23984
▁anstrebt~~11990
▁Musikstück~~3996
zukommen~~2437
▁virtue~~24568
▁virtuo~~24525
▁Nahverkehr~~23063
▁Krill~~5891
w~~979
▁Vermeer~~20642
▁verpflanz~~21588
▁generell~~3768
▁derselbe~~1979
▁Grundwasser~~9831
▁Fernseher~~7705
▁Spanier~~16433
letzlich~~14123
▁diplomatische~~20786
▁Flickr~~19107
▁iron~~24806
▁Spanien~~2389
▁Zehen~~19789
▁interessanteste~~3479
▁unsichtbar~~8622
▁Partei~~11246
▁stolperte~~14373
▁Papierschnitt~~23518
▁Erholung~~7663
ilität~~10960
▁einzige~~1628
▁Demo~~3300
▁Demu~~8166
▁Develop~~16682
rische~~7903
freut~~13515
▁Eli~~5785
▁abscheulich~~19603
▁verdorben~~11579
▁Schwarze~~15726
▁erklären~~894
▁Sonn~~11313
▁Sono~~18499
▁erkennbar~~15591
Club~~12126
▁Song~~4276
taatsoberhäupter~~14062
▁Sony~~211
play~~23185
▁Morgen~~5574
▁bloße~~12339
▁Chaucer~~20658
plan~~8874
meilen~~16554
▁vietnamesische~~11728
▁Sechstel~~23834
zusag~~5842
▁technologische~~4270
▁starke~~3509
ifiziert~~14344
▁Home~~13492
▁Homo~~2101
▁Splitter~~17531
▁falls~~1127
▁cooler~~8736
alität~~10156
▁Schätzung~~11146
▁pflanzliche~~14534
▁Sch~~2872
▁abstoßend~~18869
▁Kev~~5356
ernte~~761
▁atmosphärische~~2292
▁fließen~~10079
ffentlich~~5844
▁Wochen~~1062
▁fragil~~22165
▁Hippie~~14076
▁Nadel~~16308
▁Rutsche~~17136
wischen~~17967
▁verdrahtet~~19733
▁Irak~~6766
▁Iran~~4612
▁sonnen~~13196
▁Zäune~~22889
▁Couchsurfing~~23460
set~~13018
▁Muslim~~12191
For~~8754
▁optimal~~15689
▁erheb~~6569
sex~~16584
see~~31
migration~~14008
sea~~22073
▁wohin~~969
sel~~14744
sek~~12105
kenntnis~~11376
▁Brown~~13510
ponieren~~14467
gewandelt~~18558
▁Eröffnung~~4726
geräusche~~10198
▁translator~~4463
ahoo~~13315
▁nachbilde~~20729
▁Unkraut~~18362
▁PBS~~18428
▁Mozart~~3960
Ausstoß~~11679
▁Zuschauer~~2888
▁argentinische~~22318
elbsthilfegruppe~~18935
▁sch~~143
▁Tiefen~~384
▁verhilf~~21933
▁Erste~~592
▁Neutralität~~21495
▁verabreicht~~14516
schenkt~~13551
▁Regime~~12654
▁Eile~~2997
fund~~12132
▁zerstörerische~~18991
▁Kanzi~~24507
outube~~16966
▁erobern~~17932
▁erobert~~9557
▁manipulier~~10733
▁Warum~~6941
▁Jubiläum~~18607
rogat~~22782
▁erholt~~5581
▁Obdachlose~~17820
▁krebserregend~~20301
▁unentdeckt~~13747
Tüte~~21399
▁Zusammenbruch~~12932
▁Noten~~4385
▁Resnick~~23088
focal~~24542
▁bemannte~~20249
sammle~~8300
▁entstellt~~12575
▁herrschte~~9697
▁Attenborough~~4548
▁Angiogenese~~23558
▁Ekel~~17215
▁Craig~~10728
▁Hausmeister~~22239
gedrückt~~6879
▁Musikvideo~~16963
▁Geschichts~~13980
▁Klassiker~~2818
▁noble~~12888
pulsion~~21825
▁Metronom~~22789
▁Atmosph~~22082
▁Elendsviertel~~6177
▁vierte~~2564
ommittee~~6288
▁explosive~~6099
▁Imker~~19382
▁Kroat~~12193
mässig~~6306
prall~~3317
▁Treasur~~20347
Mentalität~~1588
pirale~~15321
▁langweil~~12816
▁zugegeben~~12095
▁Lebensjahr~~7918
▁Keulen~~11048
igmentierung~~24595
be~~978
▁Ed~~4750
ba~~2618
bb~~13541
▁Offizielle~~22394
bo~~4773
bi~~3880
▁Ei~~5272
bt~~6435
bu~~5601
▁Eu~~17749
▁Es~~6348
▁Er~~1237
▁Ep~~17564
wörter~~12069
▁damals~~1998
by~~12647
▁Ex~~7372
▁EG~~14689
ruhe~~8162
▁EC~~7322
▁EB~~15740
▁superhydrophobi~~3331
▁EV~~21531
▁EU~~2385
ttar~~6316
▁hockey~~24444
▁Pyl~~23107
Bosch~~23502
▁Helium~~17907
▁Kämpfe~~2870
▁gründen~~7163
▁gründet~~15456
▁verbal~~16342
▁Rockstar~~20879
▁Tote~~19607
▁zusammenge~~6665
link~~6580
▁Miniatur~~12938
lini~~9334
ling~~9417
line~~2281
▁FACS~~24198
▁England~~3007
▁parasitäre~~23196
▁Magnetresonanz~~23400
▁Atom~~12056
▁Milliarden~~878
▁zusammenzufass~~18456
▁PDA~~22456
▁manifest~~15287
▁Runde~~17152
▁Gesten~~4160
Ernährungssystem~~5282
▁zählt~~6405
gestanden~~9738
▁Hospiz~~7116
▁Stift~~3684
▁9.~~6299
▁Fürsorge~~16847
▁Augen~~229
▁1-800-~~23642
▁Auge~~3894
▁Bridge~~18832
▁kahl~~9407
▁flatter~~13303
▁erwärmt~~13019
▁entspannen~~7515
rechnung~~7411
▁fragte~~1231
▁Biosphäre~~17538
▁Wettbewerb~~3216
code~~13331
▁Blutgefässe~~24240
▁weiterhi~~2926
▁zufällige~~10547
▁Effektivität~~19256
▁feed~~22999
▁feel~~24361
▁idealis~~17865
▁feet~~21730
▁Dritte~~8119
▁größten~~589
▁verunreinigt~~20842
▁kling~~1566
▁süchtig~~10485
▁sehnen~~8317
▁Hünd~~9097
▁Vorstadt~~16665
▁Hilfs~~7306
verteidigung~~17572
▁Hilfe~~23
▁Mensch~~1518
uel~~8807
hinweis~~6575
▁Transport~~14444
uer~~2718
ämmer~~14295
index~~22486
▁Alters~~2645
▁Promi~~15100
▁peripher~~17987
firma~~5503
▁Lebensstil~~7497
▁fast~~954
Verhaltensökonom~~3426
▁Schmidt~~18691
ämmen~~20122
bird~~22766
▁Altern~~7855
lec~~11769
led~~12781
Wunsch~~6007
leg~~1619
lei~~4718
len~~1572
▁Chirurgen~~7023
les~~7752
let~~8140
ley~~3075
ausgabe~~2026
▁you~~19368
▁Nächte~~12571
▁geek~~23458
technolog~~5440
▁vital~~21521
▁Rituale~~13835
disziplin~~4306
▁Sehen~~1433
▁cloud~~20907
▁Sandkörner~~17542
▁gesättigt~~21901
▁Graphik~~4296
▁National~~4929
brems~~19786
▁gewaltige~~5105
umfang~~18327
▁lieben~~3923
▁ungeduldig~~16084
▁Acumen~~18506
▁Bestände~~5916
▁3,000~~20322
▁kosmetisch~~16795
▁Helikopter~~14294
▁Fulbright~~6982
▁Ambig~~14704
▁Wohnung~~11467
▁voraussetz~~6354
beobachtung~~16350
▁passive~~13313
senheit~~12433
▁zentrale~~6000
▁mola~~24937
▁Theatr~~14090
▁Produkt~~2097
▁Schrecken~~2698
▁Dringlichkeit~~17011
isse~~1997
▁Skinner~~12804
▁series~~24727
▁damalige~~18539
▁verschlossen~~12794
Community~~10284
▁Miller~~10173
berfluss~~15188
▁he~~599
▁Glasgow~~23393
▁ha~~302
▁Volkswirtschaft~~12931
▁typische~~3856
▁ho~~5843
▁hi~~12345
▁erfolgreicher~~2253
▁systematisch~~12854
▁Zitat~~10151
▁Room~~22083
▁Mexiko~~12410
räuber~~8559
▁Root~~10537
▁lebhaft~~19291
▁ultraleichte~~23753
politische~~20617
▁Vögel~~4549
▁einschließlich~~6887
▁Biologie~~8028
▁Abgrund~~16274
▁zusammenbrechen~~18123
▁leblos~~7892
▁springen~~4059
▁1800~~13743
▁geschädigte~~8025
eben~~6113
▁Dolby~~5392
▁30.000~~16269
wandel~~15184
▁Filter~~13038
ähen~~18367
▁Befreiung~~17357
▁community~~24412
▁Almo~~18485
▁bilateral~~19415
▁Leopard~~9842
bag~~23910
▁Explosion~~2390
▁statt~~709
schöpfen~~15226
▁Schuljahr~~1858
▁Auslese~~17419
▁Mord~~15635
▁More~~5287
▁schummel~~3612
stände~~2401
▁Liebling~~245
bal~~11976
▁thermische~~18046
▁Menschsein~~3090
▁kämpfen~~703
mbstone~~23648
säule~~15302
▁existiert~~235
▁Begleit~~11478
zierung~~10147
uscht~~4091
▁militant~~24463
▁Zeichnung~~9108
▁Selbstvertrauen~~3102
▁zurückgreife~~12413
vertrag~~12304
▁riskier~~8850
▁Sechs~~3660
vertreib~~13092
▁Belast~~15829
Levit~~24043
OMA~~23013
▁geradlinig~~17233
▁Naturschutz~~982
▁erlaubte~~9360
▁nahtlos~~19743
▁gripp~~24023
▁beruhigen~~13647
▁Phasen~~17505
▁Barriere~~10337
▁grand~~4512
robot~~14672
▁einheitliche~~17509
element~~17319
etikett~~20585
▁Emil~~16891
mechanism~~7895
▁vorderste~~11365
▁Schleife~~5671
▁abbaubar~~4823
▁Wurma~~11001
▁Shakespeare~~3091
▁Vorschlag~~7451
nachricht~~15353
▁Küsse~~20874
▁tauchte~~4689
▁produktiv~~5363
berschall~~20269
▁Zellulose~~6896
▁Ali~~10217
▁star~~9374
▁All~~5618
▁entlegene~~9029
▁Mikrowellen~~9286
▁Alb~~15980
▁nachzudenken~~240
▁Alp~~475
▁Charles~~4774
▁aufgeteilt~~1948
▁neige~~22523
▁weep~~24293
ensoren~~15725
▁neigt~~7987
▁schlief~~12468
▁längst~~5799
▁Funktionsweise~~12943
▁Publikum~~2480
kreis~~10575
▁ablenken~~9313
▁kaputt~~1093
Struktur~~16399
▁griffbereit~~7078
▁bildete~~15984
klappen~~853
▁Handwerker~~10479
▁Kompost~~18981
▁Motivation~~9019
▁direkt~~1801
mption~~23838
▁Singapur~~1848
▁Batman~~12014
▁fehlerfrei~~22060
▁abgelegene~~4874
gemeinschaftlich~~9276
▁Kalorien~~5121
▁Falsche~~12096
▁Investition~~6127
emissionen~~17055
▁se~~1318
▁Berichte~~16816
▁hungrig~~5106
▁sa~~7716
▁sc~~18776
▁so~~261
▁Barry~~10962
▁sh~~22775
▁Marshmallow~~22570
▁st~~3432
erkrankung~~9926
▁sp~~11010
stufen~~10473
▁Elektroden~~2543
ck~~893
ci~~9065
ch~~1841
co~~4175
▁physische~~2340
ca~~7397
ce~~3088
▁Christi~~14389
cy~~11653
▁Sophia~~18864
▁einzu~~2614
▁Teersand~~17058
▁Nektar~~12974
▁Stereotyp~~16071
▁Baxter~~17329
▁Partitur~~4277
▁bewarb~~20789
▁emitt~~13246
Gen~~10617
▁verbringe~~1660
▁Mission~~3709
▁Bharat~~23320
▁widme~~10219
▁Burger~~16121
▁Mesozoi~~21150
▁erlebt~~2946
▁effiziente~~16788
▁2010~~8580
▁erdähnliche~~20846
▁sorge~~12236
▁festgelegt~~8855
▁Game~~3843
ktronenmikroskop~~12964
oung~~12499
▁sorgt~~1874
▁würdig~~7145
▁predict~~24802
▁Kuwait~~19324
▁aufrecht~~5285
▁gesund~~6050
▁veröffentlichte~~2323
▁führe~~14912
▁Andrew~~8325
▁0,1~~9834
▁Entbindung~~15521
▁automatische~~17230
sorgniserregend~~10919
▁führt~~35
▁Andrea~~1691
▁Israeli~~4753
▁gesucht~~7526
▁Furby~~24932
▁studiere~~2359
▁Gegend~~580
stöckige~~8670
▁Rhythm~~941
▁studiert~~3727
▁günstiger~~9533
kabel~~5493
ball~~5856
pho~~9440
bald~~666
phy~~7689
▁wohlwollende~~14686
▁Humanmedizin~~24789
▁Monro~~18320
▁Orangensaft~~20292
▁Phase~~9708
Julia~~24074
▁Clinton~~12842
▁warm~~10179
▁Demokratie~~2804
▁warf~~8145
▁Karten~~462
▁abend~~7530
▁endgültig~~6031
▁statische~~9371
▁könnt~~8176
▁Gewerbe~~10343
▁durfte~~3587
▁Joshua~~12752
▁Cassini~~9306
▁Massai~~19479
bindung~~16691
▁klatschen~~16955
▁Stille~~9165
▁Armen~~10703
▁Armee~~4760
▁Helligkeit~~10183
▁Staate~~9386
▁parabol~~16464
▁Tra~~4425
▁antiretroviral~~16642
▁Staats~~15150
▁Tri~~8653
onnen~~11180
▁Tro~~12267
▁strömt~~9078
abweichung~~17044
▁Patric~~24518
▁angestreng~~23325
▁Frog~~20261
▁Check~~21646
thieu~~19794
▁Las~~11461
▁Breite~~460
feder~~17592
▁Paulo~~19787
▁Elektron~~14263
▁Bangladesh~~8121
▁Lab~~3948
▁Eritrea~~24423
▁alltäglich~~17846
▁Lak~~8264
▁Trade~~15457
zeiten~~6167
▁gestellt~~5062
▁Hilton~~23291
▁Mittelschicht~~19870
▁Elegan~~14472
stage~~22128
mittags~~18049
▁vier~~547
▁meinte~~6472
▁update~~23852
▁sogenannte~~3971
Grund~~14406
▁Großteil~~120
▁Kokain~~21601
▁Beschreibung~~3113
▁Pathfinder~~21970
▁TEDGlobal~~10749
▁fürchterliche~~13786
▁ellipti~~20259
mulus~~24182
sentscheidung~~22536
▁Empfinden~~13811
▁dekodier~~16089
▁Ernst~~1675
Welt~~5957
▁patrioti~~20943
Telescope~~24421
▁Blut~~2522
▁Münz~~12814
▁Blue~~8582
▁las~~4654
▁lap~~24263
▁Cricket~~22376
▁lab~~24644
▁lag~~3601
▁Gebirgs~~162
▁veränderte~~6302
▁Genozid~~12103
▁umzingelt~~8315
▁Kohlehydrate~~14525
PETA~~21224
▁Schrank~~16512
▁berühren~~9502
Gericht~~19134
genau~~7084
▁Zufriedenheit~~3827
▁Illinois~~7327
▁Bambi~~5531
▁Lupe~~13758
niveau~~18639
ories~~21978
▁hinterher~~6818
buoy~~24797
▁produziert~~767
all~~4503
▁Kolumbien~~9318
▁Alisa~~23263
▁Epidemiologe~~19586
▁Epidemiologi~~16604
▁unteren~~2006
Charakter~~11294
▁parasit~~24233
äfen~~20402
▁empfäng~~20293
Ghraib~~18994
▁Nukle~~11611
▁Belieb~~4156
▁Disziplin~~9144
▁erziel~~1947
bürger~~17881
▁iTunes~~19229
▁Brand~~150
komponente~~14184
▁spaziert~~9726
▁anderthalb~~10268
▁impression~~21058
▁okay~~3067
pflicht~~11530
▁Banane~~20566
▁Steuerung~~16414
▁Säugling~~9889
▁Tiefkühl~~14572
▁aufgestellt~~7552
▁freundlich~~11771
▁zivile~~13862
▁Gliedmaß~~21914
▁Netflix~~18693
▁Europe~~23811
übergreifende~~13502
aku~~9622
Faktor~~3621
▁Tiefe~~11
bunker~~19411
aka~~20462
▁Cultur~~19825
▁Schwimmen~~8094
▁heutigen~~1762
gossen~~14396
▁komplexe~~676
▁kreiert~~10522
is~~3094
▁Konzentration~~5003
▁Nonprofit~~13238
▁paleontolog~~22774
▁Bestätigung~~8532
▁Westafrika~~12300
▁eingesetzt~~4429
▁reichhaltig~~20072
▁Limit~~15348
▁Geschäftssinn~~21029
berlegung~~8877
vollzieh~~15592
mechanik~~20576
Stereoanlage~~4521
indien~~6273
ynonym~~8217
▁Denisova~~21595
▁derjenige~~3849
▁erhob~~20772
▁Star~~3877
▁Nackt~~10117
▁Stau~~7701
▁Kha~~15962
▁Aufzüge~~19999
ische~~2169
▁Stab~~18544
▁dreidimensional~~347
▁Stan~~6529
▁sensible~~17718
▁skelet~~24764
▁Week~~18754
▁Heilmethode~~7039
Winkel~~13332
▁gut~~669
▁Linie~~4574
▁gun~~24472
green~~16124
Inneneinrichtung~~5419
▁wertschätzt~~2895
Innen~~19889
zen~~5726
zel~~6291
zer~~5304
▁Zentrifuge~~21297
▁Kloster~~20446
starken~~15208
Antwort~~8065
▁Gesund~~18761
▁gemäß~~10825
▁Kometen~~16354
▁Irland~~8393
▁herrscht~~2201
▁vergessen~~333
▁Kompromisse~~15322
ther~~10145
becken~~5760
▁Scott~~4439
▁Arzt~~6510
▁Schachtel~~7806
▁Lücke~~1859
▁unerwartet~~9668
▁Ballast~~20757
▁Ballet~~13093
Lampe~~10171
Artikel~~21131
nutzung~~11724
▁Julian~~11282
saufgaben~~8899
▁Streichhölzer~~17966
▁Aussicht~~5349
▁verminder~~15485
▁Kompliz~~15358
▁zertifizierte~~5016
zudenken~~13071
tial~~20987
▁Cousteau~~22114
aindrop~~23831
▁Nagetier~~13684
ange~~9676
Sketch~~13083
▁Wohlfahrt~~21322
▁Anspielung~~19148
▁entsteh~~814
ufblasbare~~20237
▁love~~19367
▁langfristige~~15166
▁France~~14848
Bürokraten~~17479
▁water~~24073
▁aufeinander~~6773
Einkommen~~19797
ißt~~10056
▁Dreißiger~~13299
▁zeitgemäße~~22485
▁Keyboard~~13847
▁Wasserflasche~~9631
▁Feuerwerk~~17577
▁Turkana~~16245
▁Spitze~~2439
laufen~~5474
▁Heimatplanet~~17010
B~~2686
▁ESP~~22178
▁entwirr~~8463
▁ESG~~24871
▁learn~~21741
▁entwirf~~5471
mweltverschmutz~~11393
▁musst~~1294
▁abgelaufen~~11681
See~~5850
▁rasiere~~22703
▁Anatomi~~2532
▁tanzen~~1392
▁implementier~~22730
bäume~~16281
▁konsequent~~2250
▁Veränderung~~1567
▁Teufels~~12961
▁Wächter~~15988
▁Ihres~~5585
▁Krisen~~10017
▁Parlamentswahl~~17454
▁Syri~~4686
▁Rasen~~16594
▁Kindererziehung~~18939
Kreislauf~~21232
▁Töpfer~~20056
alandar~~23188
▁ausgehö~~21503
▁musikalische~~3950
▁Raumfahrzeug~~9302
Lebensgeschichte~~23164
▁Cel~~543
plünder~~12667
▁Model~~7766
left~~22454
▁Blumen~~4758
▁gespannt~~5976
▁Hick~~20669
▁Schachspiel~~3932
▁ungewöhnliche~~4048
▁omni~~21834
elixi~~24890
▁Vander~~21258
▁had~~24826
▁Cloud~~8443
▁arme~~1951
▁Bin~~7890
di~~5384
oplankton~~4980
de~~1480
▁beisammen~~16745
da~~12169
ziert~~2120
▁Kreativität~~1147
du~~9779
▁Bit~~8409
▁Faszinierende~~11595
▁Terabyte~~20487
▁Wales~~5210
▁erinnerte~~6416
▁fürchtete~~10003
schreiber~~19504
▁pup~~23856
▁slime~~24710
schreiben~~8265
▁Uneinigkeit~~17836
▁Bolivi~~22971
▁trug~~6822
▁true~~23222
▁Mineral~~15268
▁kritische~~2928
▁gerichtet~~15585
▁Michelle~~12337
▁Bereichen~~719
▁feminist~~19194
▁Russisch~~17763
symmetrie~~20590
▁Fischerei~~5905
▁Minimum~~17023
▁regionale~~5899
▁KT~~24148
▁einschüchternd~~20624
▁Einkommens~~14919
cop~~23868
▁design~~8245
▁überlasse~~2615
com~~10371
con~~11753
▁Match~~8500
eigentümer~~20414
▁Tänzer~~4445
▁Off~~8828
▁spaghetti~~18818
▁bewiesen~~9017
▁Selasi~~24720
▁Figuren~~9131
cholester~~23078
▁herankomm~~20771
▁French~~14133
▁ABC~~22595
familien~~13583
▁akzeptab~~1667
▁demütigend~~22127
▁Take~~16976
▁Zukunftsform~~19553
▁bunte~~1925
▁bewies~~14218
▁Takt~~16939
▁Moment~~1236
▁schönste~~45
voice~~24692
▁lauert~~13522
▁Sofa~~2560
▁Carro~~15851
▁leid~~3288
Geheimdienste~~15778
▁Zykl~~940
plin~~4441
gerechnet~~8862
evic~~13187
verkehr~~11403
rail~~16690
nährt~~5892
Y~~3975
▁Internationale~~18435
kept~~17020
▁Herbst~~12747
▁oder~~132
the~~630
▁Sko~~16261
▁Ski~~1487
▁Debora~~10775
▁Holly~~19890
▁Sky~~15756
▁nachts~~4643
▁Dating~~8360
▁Verwundbarkeit~~16542
▁unvermeidbar~~7881
plasma~~20739
▁Cairo~~23629
▁Arabisch~~14080
▁Rezension~~2911
▁zeitgleich~~15293
▁urban~~12793
▁Martin~~5395
▁kämpfte~~21071
personenbezogene~~19913
▁Gegenstück~~16370
security~~20123
kosten~~6134
▁umgestalten~~4025
kostet~~10841
▁subatomare~~18871
▁informelle~~22715
Lee~~20326
lagern~~5027
▁verfassen~~17876
▁happiness~~24499
lagert~~3077
▁restliche~~9396
▁Kohlendioxid~~16991
▁Dinner~~21420
▁Breton~~23703
▁bestreite~~7066
▁Tieren~~275
▁schnellsten~~18795
▁Präsenz~~7156
▁königliche~~2504
▁Pflanzen~~6922
▁Feuchtigkeit~~6885
▁suchte~~1224
▁Faustkeil~~20705
ynthetic~~24418
nderungen~~6634
▁Leder~~12589
▁Dekade~~6100
▁Rotor~~23204
▁lügen~~6649
▁Norwegen~~7636
▁Tausend~~10562
▁mochte~~2013
▁Data~~20334
artige~~9954
▁Handhabung~~7265
▁verifi~~22395
beziehen~~17243
▁weitermachte~~21256
▁Chair~~21733
▁gebildet~~6966
▁after~~23374
▁Insasse~~9391
▁Somali~~14192
▁Arbeitskraft~~1245
ventive~~23607
mole~~21932
▁antagonist~~22504
▁zäh~~6243
▁teurer~~2001
▁Apartheid~~8761
▁Kosmo~~17070
▁gezüchtet~~10561
▁früher~~2220
▁lachen~~1458
▁Echtzeit~~2486
▁eingefroren~~8112
itude~~24290
▁Güte~~9947
▁obsess~~23352
Mission~~10241
▁ski~~19688
▁Photonen~~17588
▁sky~~17852
▁Krise~~5449
global~~21074
gänger~~1786
▁feste~~12384
▁Gegen~~2896
zone~~5938
jahre~~5373
graph~~8560
▁beschloss~~2775
▁injizieren~~2524
▁Susskind~~21412
▁jetzt~~449
rella~~23038
orthogonal~~21654
blase~~17779
▁vernünftig~~7809
▁vorbereitet~~1864
▁Sammel~~728
▁vorbereiten~~16203
▁gold~~21063
▁golf~~23684
Vorträge~~15927
▁spike~~24909
▁nochmal~~2578
p~~3343
buttermil~~23039
▁Unbehagen~~13821
revolution~~1611
▁Ebbe~~19050
berleben~~9614
verwaltung~~2264
▁entfern~~943
▁Zoo~~18118
Reilly~~23709
▁endlos~~4448
▁Love~~3071
▁arm~~7213
▁arc~~24555
▁arg~~19493
▁are~~19878
▁art~~2944
explosion~~7841
▁My~~4274
▁Mu~~10715
▁Mr~~2806
▁Mo~~3837
▁Mi~~6447
▁Me~~8044
▁Mc~~6533
▁Ma~~3976
▁MW~~24370
▁verdächtig~~17625
▁MS~~18204
▁MR~~22960
▁MP~~4529
▁ME~~14828
▁business~~24134
▁MA~~19530
▁orientiert~~11429
▁harm~~23499
▁Mountain~~15494
▁hart~~1463
mobil~~18389
▁beschrieb~~13625
▁Teller~~3670
▁Langlebigkeit~~7953
▁Gehege~~19894
▁aero~~23745
▁inspirierende~~10970
▁Diffusion~~22962
▁beschützt~~7808
▁Zusammenhänge~~11272
▁stressig~~11442
▁aufgepasst~~8896
▁kartier~~14227
noch~~2081
▁Prinzip~~2845
▁Strohhalm~~22372
▁gespendet~~15513
gegliedert~~17179
▁Unterstützer~~14086
▁ankommen~~456
▁Tür~~5675
▁herausstellte~~10913
▁Prothesen~~10693
▁rück~~945
▁Arterien~~2526
▁festleg~~15397
▁Konzert~~11758
▁Kapillar~~22560
▁giftig~~42
▁Griechen~~13345
▁Konzern~~20346
▁rauszu~~20522
▁Deb~~13347
▁Dec~~21555
▁Den~~7555
▁Del~~19109
▁überraschend~~1096
▁Der~~2939
▁Des~~11770
lichste~~6226
▁SPCA~~22873
▁versende~~10071
▁Interview~~7462
ities~~22312
▁Konvention~~14952
coli~~21354
ular~~2661
cola~~11224
schmeichel~~4387
▁bestehende~~2034
▁gekommen~~604
fline~~8330
▁Wesentliche~~7828
sproblem~~10380
halb~~4836
▁Grenze~~194
half~~6826
▁verbindlich~~22484
▁lateinische~~11895
▁Obama~~12848
▁simuliere~~9125
▁13,7~~18891
▁Opfer~~6850
rüstung~~12198
▁Kompetenz~~2842
▁simuliert~~14657
▁Wirtschaft~~1004
em~~533
el~~1668
▁sorgte~~12275
en~~26
ei~~1664
eh~~4259
ek~~4409
ed~~3201
eg~~6721
Swee~~10331
eb~~7405
ex~~4196
▁gegeben~~3526
ez~~12661
ew~~13229
ev~~21731
ep~~4889
es~~798
er~~189
▁bauen~~5284
Sammler~~17417
▁dominierende~~13385
space~~8277
▁Ausgabe~~15139
▁def~~17296
▁bieg~~466
▁den~~38
gehoben~~2087
▁dem~~237
▁radikale~~8035
▁Wilderer~~22605
▁der~~10
▁des~~12
lma~~8631
szweig~~22658
▁Bestrebung~~12321
▁Nahrungsmittel~~5268
▁Synästhesi~~21800
▁Beutelwolf~~20725
▁abgeschirmt~~13433
▁ausbalancier~~11346
▁Kanu~~21162
▁Küchen~~8242
▁gefühlt~~9627
lichtdurchlässig~~23455
▁Alkoholiker~~22638
▁Higgs~~22656
▁algorithmic~~24804
▁Anleitung~~10412
▁Vaters~~2768
size~~24105
▁beträchtliche~~17826
▁demos~~23116
▁Guzm~~22435
▁verstehe~~6998
▁schießen~~649
friend~~24212
▁Leid~~12028
▁Leib~~18380
zucht~~14510
▁Leit~~15081
▁Jag~~9795
▁Geländer~~16692
▁Offenbarung~~9122
gucke~~14670
gehe~~17728
▁Gläubige~~12227
guckt~~5228
geht~~2871
▁abkühl~~17160
▁ausspuck~~18722
▁Flughafen~~4734
faktor~~1192
▁mode~~18947
▁Floren~~9042
▁Huaorani~~23695
fahr~~7010
▁Hamp~~15954
▁Prediger~~16817
▁atheist~~24006
▁beleuchte~~12153
form~~73
▁versicher~~14395
▁beliebt~~4415
Knievel~~24741
▁präsent~~19485
▁Hama~~15546
▁groß~~737
▁Windel~~18276
▁überzeugen~~6723
▁1.000~~13245
▁Po~~2900
▁Ph~~5890
▁Pi~~6486
▁Veranlagung~~6014
▁Pe~~11219
▁Pf~~4860
▁Pa~~837
▁befürworte~~13718
Erhöhung~~16669
▁skydiv~~22538
▁Pr~~6317
eidung~~14960
▁PM~~19377
▁16-~~16040
▁PH~~16395
▁Aktien~~3757
▁PG~~24752
▁PC~~7728
▁Bürgerkriege~~12273
▁tweet~~8183
▁neueste~~9864
▁PR~~5725
▁Sweat~~3717
▁versieh~~12299
▁rund~~3335
▁versieg~~21999
▁Verdrängung~~7086
▁cover~~24838
▁Blatt~~3550
ground~~20593
▁grin~~17696
▁grim~~20858
himmel~~16872
▁bedauernswerte~~12045
▁esoteri~~17908
▁Budweiser~~12840
Interaktion~~15284
▁weitergebe~~4128
▁Post~~8246
▁mysteriöse~~11349
▁geographic~~23842
▁ankurbel~~19609
▁Körn~~22697
▁Segel~~17262
▁ideologisch~~19183
▁unterernährt~~21649
▁irrational~~3437
▁Nordirland~~20405
▁Landes~~1957
▁arabische~~14933
▁unge~~6965
▁Alex~~4418
▁charmante~~14865
▁nachdenklich~~2902
▁Werde~~17537
▁Chemotherapie~~13879
ambo~~23698
▁Building~~15862
speicher~~5767
▁Orion~~13341
▁Verpflichtung~~5831
▁sprach~~4683
schlacht~~17150
▁ausreichend~~4031
▁Ich~~1196
▁älteste~~11779
auftrag~~12472
▁Pier~~3087
▁Piet~~18950
abgeordnete~~6126
▁frühzeitig~~5825
送你葱~~24347
▁Everest~~6871
schnell~~2968
▁überragend~~19908
▁behandelbar~~19236
▁fixiert~~9997
ynagog~~21177
▁verzweifelt~~6265
▁entsetzt~~10804
▁Muti~~24113
▁elegant~~3025
▁aggressive~~7030
▁stereo~~17547
▁geknackt~~12796
▁Textnachricht~~19546
achse~~540
stema~~22726
▁Imam~~12231
▁Kriteri~~17339
▁frische~~6584
▁Architectur~~17251
▁alchemist~~20668
▁Engpass~~16794
▁baby~~12708
ströme~~10077
▁Bergsteiger~~5526
endlichkeitspilz~~18984
▁folgende~~3652
strömt~~829
bias~~23171
media~~22070
Charm~~2484
▁null~~12865
▁kleb~~9412
▁transzendier~~14447
▁setzen~~2272
▁Branson~~20265
Lorenz~~5376
▁reist~~5513
tradition~~16836
▁wunderbar~~10341
▁hineinsteck~~19279
▁ausblende~~13893
▁Klump~~17567
▁blu~~24352
▁Essenz~~13074
▁bli~~9735
▁Essens~~14565
▁bla~~23101
▁jetzige~~14527
darstellung~~13265
puren~~13272
▁Twitter~~3934
touch~~24523
speed~~23011
▁Allgemeinwohl~~17093
▁typischer~~19835
▁Felder~~7290
real~~21165
read~~5196
▁zusammenbau~~10226
▁Sibirien~~14017
ladi~~7518
giebig~~2735
▁Laboratorie~~20478
▁chinesisch~~16118
Show~~19684
▁grave~~22828
▁Wüsten~~13333
▁Bühne~~3260
▁furchtbare~~11284
fäng~~9394
Hotspot~~24566
gerissen~~3460
▁Seth~~19859
▁Hara~~20485
freiheit~~13170
▁Hard~~13441
▁Zeitpunkt~~5182
▁Zeugnis~~15617
beruf~~19095
ärge~~7731
▁Hart~~17765
Interface~~20223
▁Lage~~1036
aussicht~~18863
▁entwickelnde~~15040
▁verloren~~1211
▁dream~~24620
esichtsausdrücke~~14654
▁Rendite~~12820
▁Labor~~510
▁Islamische~~19181
▁induzierte~~20737
▁Diaman~~6853
▁Ingenieur~~9035
▁innovativ~~1257
▁Hauptsache~~12823
▁eye~~24667
rque~~13326
▁taxonom~~23386
Hotel~~22157
▁propriet~~24252
omfort~~18056
älteste~~12296
▁soziale~~1045
▁wirtschaftliche~~2098
▁Trinkwasser~~9832
▁Tasmanische~~19564
▁Director~~17130
Wirtschaftslehre~~13430
hirn~~9751
▁Ehepartner~~13139
▁finster~~14528
phänomen~~17912
nerv~~15479
▁Kapitän~~4777
▁Coole~~15419
sorge~~7910
sorgt~~11392
▁Schädigung~~7995
▁produzierte~~6846
polar~~18654
▁Sonnenblumen~~18523
▁Stonewall~~24745
▁Doodle~~23922
▁Glukose~~21293
▁Bosnien~~12248
zettel~~7679
▁OLPC~~10240
▁Lüge~~15618
▁winter~~22625
▁maximier~~12082
▁Linkshänder~~19857
▁Genetik~~10583
▁wunderte~~5266
▁Virtuos~~3951
▁Westeuropa~~7769
▁Meeresgrund~~590
▁Men~~12675
▁Mem~~17519
▁Mel~~14131
▁Med~~9059
▁versteckt~~3428
very~~22445
▁schrieb~~2328
verb~~8552
vorrat~~15396
▁evolv~~19746
Reise~~21336
oberfläche~~4001
▁Service~~5568
▁befasse~~727
▁once~~24817
▁Geste~~17326
▁Kate~~7510
Rezept~~21895
▁Protestant~~20406
▁Irakkrieg~~11150
▁unterteile~~16074
▁unterteilt~~13316
▁sprechen~~1512
▁Flug~~2304
widert~~13233
▁radio~~10809
▁Flur~~12879
▁Flut~~2955
▁Schwamm~~4841
▁wiedererkenn~~10246
▁besetzt~~18590
hren~~6231
▁User~~18831
▁remix~~11306
▁erwähnte~~7991
▁maps~~22836
▁nenne~~5167
hurra~~15613
▁Tour~~5516
larmanlage~~15799
▁Geisel~~6438
▁dialog~~14651
▁Melodie~~4002
▁Mikro~~349
richtlinie~~17290
▁Spielern~~1674
▁unterstützt~~4310
▁unterstütze~~9261
kalibri~~19593
hhh~~14745
▁gereinigt~~20501
▁Elektro~~18387
▁billigste~~17681
mühle~~20296
▁Respons~~21668
▁happy~~24317
▁2008~~3253
fu~~3908
▁misshandeln~~24466
▁2006~~2707
▁2000~~1993
▁2001~~3779
▁2002~~5405
fa~~9789
▁Freitag~~5231
fe~~5218
ff~~2863
fi~~536
▁misshandelt~~20694
▁Umgebung~~425
fallen~~4356
▁Wunder~~2622
▁belästigen~~747
Film~~11305
▁einig~~9908
örung~~18993
▁mystische~~18725
▁singen~~1022
Schrift~~17292
▁Futter~~10611
▁afrikanische~~7193
food~~14532
▁Kavita~~12167
foot~~24442
Symbiose~~10394
tausend~~2918
▁Beerdigung~~6419
▁interessierte~~3482
▁Satire~~20663
icker~~7546
▁anfertige~~18813
▁lohnt~~3581
▁Gesetze~~5715
▁Terminal~~15974
▁Bike~~20453
erbrennungsmotor~~22175
▁überein~~13807
Engine~~14669
abweisend~~3305
▁Umstände~~4326
▁zusammengefasst~~13561
▁Fragment~~13666
pul~~5519
▁Poupon~~24597
▁ausgestellt~~7410
story~~18666
▁Zunahme~~7574
▁strukturelle~~12385
base~~23356
ase~~9857
put~~16491
▁streckt~~8505
pur~~4843
nähe~~4894
▁Circle~~21008
▁Vietnamese~~11732
▁Anspruch~~8797
▁erhasch~~20544
▁transplantier~~11086
▁favor~~22432
▁Rückseite~~5278
▁Ezra~~21580
▁Pik~~2285
▁Steve~~987
▁Grizzlybär~~23226
▁dazugehör~~20263
▁gesamte~~2179
▁pointillis~~20555
▁Truman~~23004
▁Pfeil~~10046
▁Knopf~~16628
▁Pfeif~~3181
▁trump~~20681
ücken~~13262
▁vermittelt~~2291
läst~~16233
▁skizziert~~11966
▁Null~~4096
▁1960~~13442
▁Blutvergie~~12279
▁vermitteln~~4144
▁Institute~~11283
▁Personen~~2434
hlenwasserstoffe~~16208
▁finanziert~~8712
lementine~~22981
▁entwickle~~14649
▁fürsorglich~~16845
▁Benutz~~23595
▁Hilfsmittel~~13258
kara~~17224
▁vorhersagen~~17535
▁Leitung~~8385
▁beschweren~~17072
▁äußert~~10806
▁unterstützen~~609
▁Friedhof~~2266
▁Pillen~~5009
dichte~~7136
▁Suchanfrage~~19421
▁sparen~~6137
siedlung~~16713
▁äußere~~5434
▁Häuser~~10134
▁Beitrag~~7465
haltung~~1383
▁Brunel~~24136
rempel~~4153
▁Hirnhälfte~~24515
▁Merchant~~23578
führ~~13602
▁näht~~12403
▁Klei~~24117
▁Ituri~~22606
▁Enkel~~9932
▁Durchfall~~17189
▁geliebt~~4202
▁Segelboot~~19038
▁Wirbelsäule~~11839
▁Wehr~~20120
▁Hormon~~3913
▁Journal~~10926
▁175~~13624
▁erwacht~~11417
▁fig~~22078
▁170~~10435
▁fin~~22187
▁178~~17488
▁fit~~12001
▁Graph~~8994
▁verstärkt~~1469
▁17.~~5189
▁fix~~17694
genutzt~~11067
king~~7483
streifen~~11110
▁Mechanik~~17922
▁Rohstoffe~~7444
▁Tony~~6372
▁Nuklear~~10859
▁ultra~~15718
Freak~~16179
oxy~~11562
▁Anne~~3012
▁stellte~~3673
▁Anna~~13360
▁Lehrling~~18383
scanning~~23388
▁Lux~~23419
▁menu~~24889
▁verführt~~8746
▁ausgehen~~5236
Park~~15903
▁trösten~~19891
betriebene~~8620
aktivität~~15312
▁Tätigkeit~~2539
▁allein~~1688
wefelwasserstoff~~22712
▁wertvollste~~10234
▁rechteckig~~22153
▁demoralisier~~14317
▁leichteste~~5621
▁Malaysia~~22039
hbab~~22409
▁zeichnet~~4285
▁illustrier~~15968
▁zeichnen~~7047
▁Kreide~~21998
▁Cromwell~~24167
▁neutral~~16488
atops~~22149
▁Amortisation~~23162
▁Bakterien~~584
▁Origami~~17707
▁Kamel~~10572
▁Kamen~~15273
▁elterliche~~15088
gebühr~~20035
▁Weide~~13444
▁beach~~10404
▁eingeborene~~21142
▁Hawaiian~~4927
bewegen~~11924
agte~~12844
▁Silicon~~10131
Gleichung~~14262
▁Stunden~~3466
veranstaltung~~4453
▁Solomon~~24061
▁Internet~~1302
▁norm~~3736
shaw~~17333
▁offensichtliche~~12070
▁Imperi~~13402
▁Feier~~12672
Maschinen~~19528
▁militari~~21878
▁Empfehlung~~20553
▁Wii~~21347
▁Ferrari~~21599
▁werfen~~7341
▁Beobachten~~8594
luminescence~~24544
▁Stromversorgung~~18489
▁pandemische~~6218
▁Abreu~~22728
▁Sache~~2583
▁Stein~~3065
iert~~2959
▁Babysitter~~18962
▁seriöse~~997
▁Peinlichkeit~~22382
▁Treat~~22649
▁Investoren~~9598
▁Scientolog~~20692
$~~14973
▁Weibchen~~698
▁Dennett~~17772
▁lief~~6304
▁Periodentafel~~16394
▁Teszler~~24658
▁liegt~~2260
▁widerleg~~18999
▁Lovin~~22946
▁Velcro~~22559
▁Jerem~~14046
Scanner~~9114
signal~~19283
▁Adoptiv~~15057
▁flori~~16042
▁engagier~~3100
▁Onkel~~12197
▁Safeway~~23206
▁Nachtwey~~21023
▁schockierend~~9808
▁Authorit~~24056
▁verlieren~~6353
Plattform~~19222
▁Michel~~13085
▁molekular~~17720
▁leitete~~11304
▁Schluß~~7847
schrieb~~11359
nstatt~~2963
▁umarmt~~15951
run~~9872
rum~~1311
ruf~~16894
rus~~6984
▁Klempner~~21192
Scan~~9774
▁landesweit~~16190
▁handelte~~5453
▁Zahlung~~15351
rolle~~12650
ör~~6578
öl~~8011
öf~~9411
ensus~~5968
rollt~~17142
▁manag~~15074
▁Fassade~~15952
▁Ver~~321
waffen~~14352
▁bekleidet~~9679
▁stigmatisiert~~16728
▁Vel~~15401
▁Luc~~11793
▁beinhaltet~~6388
▁benötige~~8169
▁Ford~~13356
▁Form~~2648
▁Kaffeetasse~~22632
▁Palette~~20101
▁Fort~~3871
ailway~~24137
▁Minist~~22791
▁spürbar~~2880
▁größte~~2240
▁verärgert~~18901
▁Kopieren~~18264
▁tödlich~~11196
▁indirekt~~3753
▁done~~24295
sharing~~22759
▁ausgestorben~~11821
▁augenblicklich~~17483
▁Arbeitsleben~~11975
▁aufbauen~~2699
▁pragmatische~~12627
▁Bord~~2463
▁Borg~~22804
▁reduziert~~2553
▁menschlich~~11866
▁gestalten~~2174
▁schlechteste~~17886
evar~~15282
Flug~~13230
▁Anmut~~21202
eval~~21068
▁Jahrestag~~19713
▁Guardian~~16603
▁verlässt~~15445
▁gestaltet~~3993
▁Dutzend~~2470
▁garantiere~~11600
▁One~~17355
▁realisieren~~12382
▁Chinesisch~~7008
▁garantiert~~12055
▁inakzeptab~~16805
gu~~10493
gt~~3579
▁seiner~~749
▁seines~~2376
assava~~23928
Zähler~~17714
rauben~~16832
ge~~1959
ga~~4575
go~~838
▁Gelder~~2263
▁Rand~~8151
gi~~1654
gh~~13767
▁cingul~~9768
▁Vulkan~~167
▁Geschäft~~1088
▁Forbes~~16812
▁subtil~~16448
▁Studierende~~8783
▁moralisch~~13812
Energieverbrauch~~10191
verleih~~19223
▁Männer~~5333
ädagogik~~2215
▁Wissenschafts~~3881
gekündigt~~12609
ulu~~15205
▁berufstätig~~18961
▁suboptimal~~13481
schwanz~~17730
rotten~~6078
experiment~~11118
▁Modedesigner~~18336
;~~220
▁verbleib~~18137
▁Cra~~16882
▁Sozial~~1071
▁durchführte~~2466
▁Phillip~~20629
▁Cru~~20742
▁vermischt~~10262
▁Worldchanging~~22450
▁Vash~~23974
▁Vase~~14701
▁Halleluja~~7525
▁erwiderte~~15111
▁Ethnizität~~16162
▁Bible~~17523
▁verworfen~~16957
ies~~1131
▁PRI~~16899
▁Nordmänner~~22171
▁Sterblichkeit~~19301
▁widerlich~~18723
▁Krater~~21792
▁Tennessee~~16182
▁umständlich~~18096
icular~~23772
▁Benki~~22519
▁Waren~~7409
▁schäme~~14844
kunde~~13177
▁verzweig~~18452
▁Zorn~~11401
tennis~~24539
▁Speisekarte~~11226
▁Prosper~~24588
▁zuhause~~5972
▁zufällig~~2358
▁bemerkte~~2875
▁Erfri~~9719
▁Jahrtausende~~2515
▁Platten~~5514
▁union~~19989
▁Hannah~~23490
▁Solar~~11958
▁sogar~~385
▁institutionelle~~19101
▁ferngesteuerte~~8601
▁Wohlbefinden~~1054
korrektur~~19124
▁feminine~~4973
▁überall~~1340
▁Außerirdische~~17536
paar~~20741
▁plane~~8299
▁tax~~23681
▁Zitronen~~23178
▁tar~~23790
▁tap~~7020
▁ohne~~495
▁tat~~6621
▁tau~~3383
▁plant~~14292
▁Gehweg~~10377
▁tan~~7623
▁plans~~15148
▁buck~~24150
▁Verbündete~~12323
▁historisch~~11711
▁Keramik~~20048
▁gezeigt~~4183
nommen~~10298
▁Gourmet~~21364
▁billige~~15260
nonymous~~20691
▁anspruchsvoll~~18896
▁Erforschung~~12755
▁kulturelle~~3134
nützen~~3576
auto~~16282
▁zerdrück~~13706
▁Bestreb~~17910
▁Indianer~~15880
modu~~16878
▁Innen~~5527
kühlen~~17693
▁Inner~~11414
▁Flüchtlinge~~11715
▁aufzubauen~~6206
Stiel~~21593
ergebnisse~~1937
▁dreckige~~7695
▁dominante~~19163
designer~~11384
▁Oberschenkel~~6614
▁Einwanderer~~20113
▁Green~~11671
▁ökologisch~~7840
▁mehrfach~~6368
▁Kolkata~~24353
▁Urheberrecht~~11343
wich~~7141
wick~~20441
▁formt~~2473
eck~~4150
ech~~3572
ect~~17438
▁empört~~19045
▁Aktiv~~1264
▁57~~11148
▁56~~14802
▁55~~7919
▁54~~14085
▁53~~8129
▁52~~10417
▁51~~17667
▁50~~254
buchstaben~~21391
route~~19373
etera~~16351
▁58~~9177
▁5.~~9634
▁5-~~18267
▁architecture~~23521
▁Isabelle~~24019
▁Emergenc~~19402
▁ausmachen~~1836
▁generations~~21517
▁Standard~~1219
▁Gesichts~~12359
▁Zwilling~~11032
▁Bedürfnis~~13264
uerverbindung~~22953
▁Fragestellung~~10189
▁ansteigen~~3494
▁Umfang~~7446
▁Norm~~5762
DUM~~24702
▁Nord~~4918
R~~2387
länder~~12687
bei~~6595
▁Zucker~~652
bel~~6067
▁3,3~~11788
▁3,6~~22290
▁3,4~~22321
▁3,5~~1857
ber~~2082
▁Eat~~24843
▁Widerha~~18036
arriere~~21183
▁LGBT~~24427
▁obsolet~~8999
▁allgegenwärtig~~10845
anteil~~10833
▁Vielfa~~176
▁Hampton~~17328
▁verlinkt~~18162
▁Barack~~13367
▁verlinke~~18688
▁summ~~4557
fliegen~~12810
▁Rechenschaft~~13237
▁Australopithec~~11789
Fettsäure~~21900
schulter~~10398
▁Trance~~7851
▁Rauchen~~17963
▁Gedächtnis~~4092
▁frank~~24655
elecommunication~~21448
▁durchdring~~16492
▁franc~~21814
▁City~~6384
▁Eich~~8327
▁Manifestation~~8538
▁Citi~~24179
▁Gho~~15937
▁besteht~~224
fuel~~24340
▁Bemerkung~~17773
▁Reha~~20950
▁alumin~~23159
kiefer~~16244
▁Strafe~~3578
leben~~1008
iöse~~20904
evolution~~18365
▁symbolic~~24905
▁hustet~~23679
▁Vivian~~24262
▁schränkt~~21169
sha~~13883
shi~~18099
Maschine~~16965
▁Romantik~~16639
▁weigerte~~14951
▁Wurm~~699
▁Gefilde~~18865
▁Bewegungen~~4065
lpreis~~16227
▁authentische~~19091
▁Katzen~~13609
lux~~22440
urgeon~~24301
▁gegenwärtige~~3539
▁Regel~~1344
▁exportiert~~20313
▁Hinterzimmer~~15964
▁posterior~~23572
▁Kurd~~20940
▁Kurz~~15075
sparen~~4559
▁Kurt~~23109
mplitude~~20491
▁ausgeglichen~~11997
▁reinigt~~19145
▁för~~407
▁perform~~14999
suchen~~20537
▁Adress~~14450
Haupt~~15836
▁ununterbrochen~~2728
gänge~~718
▁Vorhänge~~11767
▁gerontolog~~7901
▁Tschernobyl~~18331
▁Dong~~12568
▁Sarg~~13362
▁Sara~~8461
▁Wohlfahrtsstaat~~13555
Fussball~~14125
▁Sari~~10099
ierte~~2090
▁unzufrieden~~1545
▁Lear~~13149
▁billiger~~11151
▁Lean~~24794
▁Leah~~12254
verhältnisse~~734
▁Lead~~21465
▁punk~~18893
stellige~~18958
▁eingehend~~13616
▁ange~~6791
▁leise~~4423
▁hölzerne~~16980
ühl~~17644
ühr~~5607
Neurotransmitter~~5645
orbital~~21578
▁Genauigkeit~~6701
▁Liefer~~15849
▁Bauchgefühl~~20229
impfen~~6159
▁Atheist~~3636
▁eröffnet~~8640
absorb~~10900
▁ethische~~10743
▁blühende~~23303
isco~~22809
isch~~555
▁gegensätzliche~~21548
▁saisonale~~21351
i~~3021
▁Killer~~5917
bohr~~15380
▁Geräuschkulisse~~22333
▁einverstande~~8368
▁Physi~~10725
ified~~19982
▁Containerschiff~~22969
▁spaßig~~10771
▁grad~~11812
▁grab~~23174
▁Pakistan~~6363
▁gram~~17739
▁Winkel~~3341
▁benutzt~~288
▁gras~~18388
linie~~7554
▁Abweichung~~8895
milch~~9890
▁Zertifikat~~8859
▁Unsichtbarkeit~~12560
nati~~10513
▁sauber~~5036
ualifikation~~8782
▁blickt~~13394
▁vergewaltigt~~6496
▁revolutionier~~3407
▁Modelle~~2396
ässe~~4523
▁unglaubliche~~936
▁Grabstein~~18903
▁Leucht~~10164
▁fliehen~~22535
wächst~~1860
▁Schmutz~~21421
ROM~~15313
▁Kriege~~5172
▁korrupt~~21991
▁Pimp~~24783
▁jungfräuliche~~15572
brüche~~19636
▁veg~~23540
▁verliebt~~11446
▁ewig~~4121
▁portrait~~19193
▁Katastrophe~~12423
Batterie~~22448
▁alarm~~14902
▁Kongress~~6125
▁late~~13943
▁Pla~~1662
▁scheinen~~7628
▁rotation~~23896
▁Außergewöhnlich~~10130
▁Bewusstseins~~13553
▁rüber~~4759
▁determin~~15020
▁Designs~~8213
▁Mikrowel~~14620
▁Rechen~~16102
▁Rule~~23233
innen~~6890
▁Vorstädte~~14592
▁abschneide~~1709
inner~~603
▁Idol~~18251
▁wiederher~~4067
▁durchlebt~~15170
▁climate~~24624
▁Treff~~16686
▁Langzeit~~4080
hu~~14763
hi~~7160
ho~~4504
▁Rumpf~~10353
ha~~9992
he~~7106
okratie~~1551
▁nötig~~2182
▁wirkte~~6322
haushalt~~10133
gitter~~11931
▁tötete~~2949
▁mächtige~~5325
▁Zufall~~4380
▁Verursach~~15840
isier~~19244
▁Erlern~~1807
▁asthma~~24346
▁FAA~~2429
▁wind~~11038
▁wählt~~18906
▁Kurbel~~22375
▁verprügelt~~23258
folie~~17163
▁essen~~1652
folia~~20185
▁Eingabe~~9477
▁404~~20993
▁Resonanz~~15010
▁wähle~~18983
▁etablier~~7323
▁Vertrag~~16453
▁zusammenarbeite~~3063
▁gespeichert~~4842
▁gehe~~4646
▁Schweigen~~3010
▁geringer~~3525
ssicherung~~19599
ese~~608
▁geht~~713
▁richtiger~~3590
ürtel~~13340
▁Teilnahme~~8577
▁Staatsoberh~~12306
▁Bildungsniveau~~1950
zögert~~7994
▁Festnahme~~15637
▁untere~~11914
▁koordiniert~~5947
dynamik~~21191
▁share~~19716
▁müsst~~10344
▁Fransisco~~12903
▁Unite~~16946
▁offiziell~~7587
▁anstrengend~~13088
▁Sergio~~23507
gezapft~~12458
▁jeweil~~2205
▁läge~~13087
▁geübt~~10083
▁liegen~~579
▁quietscht~~24522
▁geodätische~~21444
▁offenkundig~~14093
▁Abschluss~~1778
▁reisen~~4724
▁Tatsachen~~1104
▁Lebensdauer~~5994
▁vielleicht~~871
▁selbstbewusst~~12154
upp~~7749
▁Miene~~8508
städtische~~19704
▁With~~8192
schlug~~20332
▁Kilogramm~~11198
▁Zeichnen~~13097
▁FreeSpeech~~24865
Forscher~~14430
▁abheb~~19429
nel~~17740
▁aufgegeben~~3268
▁Heirat~~6786
▁beweglich~~22997
ney~~10332
net~~9359
neu~~6402
Zeug~~17345
▁Netzwerk~~3886
▁Hamburg~~20057
▁ca~~3276
▁co~~21805
oshi~~6277
dred~~3086
▁Comedy~~15942
▁Erin~~16299
▁Erik~~17710
▁Präsident~~4996
▁Eric~~3846
▁getrocknet~~12648
▁Penn~~6845
▁Pittsburgh~~3722
▁Bomben~~17358
Rakete~~17135
▁verband~~10092
▁Fantasie~~5510
▁Stufen~~12806
▁Treppenhaus~~22222
▁nutzte~~5311
▁irgendwo~~818
▁Output~~17677
gestimmt~~14399
▁erster~~1734
ili~~11109
▁ersten~~420
▁Fabrik~~4897
schwenk~~20552
krieg~~840
▁Schwindel~~21264
▁Korallenriff~~20161
▁Clint~~19413
▁enliven~~24450
▁Force~~6571
▁Felix~~18549
▁Gefahren~~10998
▁light~~20496
▁Grundgedanke~~20084
▁wirksam~~7060
▁Astronomie~~17113
▁Umweltschutz~~9985
▁Spider~~21852
verträg~~9389
Anleihe~~12261
▁Leiden~~12035
polis~~2936
Fieber~~21031
ologist~~20937
▁Drogenhandel~~23422
▁wäre~~1933
▁Smoot~~23265
▁funktionieren~~1521
vermögen~~9253
abfälle~~16764
▁wollt~~9230
ueen~~21687
Frage~~13979
▁Phoenix~~16687
▁Neurochirurg~~23024
▁deutsch~~21995
▁Armut~~2764
▁Spende~~19098
▁Innenräume~~21221
▁Aufsicht~~14476
▁Geleh~~21201
▁gehören~~5146
Wolke~~9162
▁abweich~~15019
▁hotel~~24771
▁digital~~9136
▁Praktik~~9266
▁errechnet~~9515
▁Unterbrechung~~14761
▁Vorher~~13463
▁folgte~~4248
▁Digital~~9246
▁Dictionar~~14560
luck~~18072
balone~~21417
▁Kreisverkehr~~17662
▁beeinflussen~~2559
medien~~13395
▁Tabak~~19663
▁Verstorbene~~17604
stunden~~12551
▁Fossilien~~11808
▁Hoden~~9838
▁Heath~~22849
▁Beijing~~20133
Planet~~19172
▁Tutor~~8901
▁berücksichtigt~~12128
nutzer~~21672
Geheimnisse~~13358
▁Drama~~3048
ist~~6531
ish~~16018
▁berücksichtige~~9141
ism~~14836
▁wirksame~~14895
ise~~7917
▁beiseite~~7534
zeln~~9736
zell~~10655
▁einschränkt~~14543
▁Mugw~~23798
▁herrschende~~12328
▁irische~~20932
▁kopernikanische~~24225
▁Blei~~12475
▁effektiv~~5688
smaßnahme~~8883
▁hinschau~~12992
▁plausib~~20914
▁Bündnis~~17464
▁Schreibtisch~~13631
▁gelehrt~~1165
▁vend~~23730
uction~~21625
▁finite~~22546
▁Leban~~24623
▁vergiftet~~14061
▁Komm~~10378
▁Zeilen~~7137
▁opa~~23835
▁Bypass~~18777
▁Koma~~22241
knoten~~21560
▁Beharr~~16079
▁Lexikografi~~16302
▁gesteuert~~16365
▁Stress~~4736
▁Hirshhorn~~24603
▁Verknüpfung~~16401
▁Schäfer~~20603
▁stirb~~7058
ilanz~~6117
▁resultierende~~22455
▁Angelin~~22503
▁Bronze~~14420
Mitarbeiter~~14178
koko~~24069
▁Kommun~~1140
▁Diego~~9074
▁herumschwimm~~17697
▁Toaster~~16862
▁aufnehmen~~8722
▁Produktivität~~1685
▁Morton~~23941
▁Ayl~~6028
▁erschien~~3002
▁Aye~~20596
▁Grundbegriffe~~21710
▁Lernumgebung~~22025
▁biolumineszente~~8627
▁Toten~~8136
▁Nephite~~24687
▁Testperson~~3583
▁Dienste~~18685
gewinnung~~16544
Achse~~8931
▁Klimakrise~~19673
▁Barnett~~20213
▁funktioniert~~881
▁Behar~~10108
▁Friedensprozess~~20790
▁betrachtete~~13334
▁übertrumpf~~17375
▁Mark~~3297
▁Mari~~18845
▁Marc~~7139
▁sezier~~5010
▁Skelett~~11780
ston~~5611
▁Marx~~12319
▁Mary~~14073
▁Marv~~14860
▁Mars~~9629
▁entscheiden~~3501
▁subjektive~~9105
▁vollständig~~2460
▁latent~~17001
▁Schnappschüsse~~17993
▁Apple~~12622
▁Spektrums~~2070
▁Business~~12827
▁Appli~~21669
▁Dokumente~~16003
üssel~~12986
▁Pestizide~~9827
erschütterung~~21260
rufen~~1510
menschen~~8048
▁personal~~18689
▁Alice~~15925
▁Gerüst~~10723
schlüssel~~13292
▁Bundes~~10934
▁Dienstag~~6583
▁industrielle~~1252
▁vorzubeugen~~5833
DL~~23079
▁vordere~~6961
▁gäbe~~3217
▁erwecken~~14124
▁Nutz~~16593
drüsenkrebs~~14306
▁inter~~5187
vielfa~~9450
erlass~~19867
▁Wind~~6589
▁marschier~~6181
Zelle~~19452
tank~~16100
▁Friseur~~14977
▁stereotype~~21769
▁County~~20060
tanz~~11636
iz~~14589
▁senkt~~1974
▁Scottish~~22418
iq~~23141
ip~~6983
stoppt~~6038
ir~~271
isierung~~1220
it~~1716
iv~~1485
ik~~2945
ij~~23376
im~~6935
il~~4381
io~~4513
in~~2231
ia~~4044
ic~~8226
ib~~9859
ie~~1203
id~~2118
ig~~805
if~~2119
▁gel~~6809
▁geo~~15887
▁Ellbogen~~17798
▁geh~~1559
▁gek~~10616
▁gef~~8222
▁schließe~~6498
▁geb~~3285
▁desolate~~23331
▁Koffer~~17729
▁verkleiner~~3622
▁get~~3214
▁Poker~~21089
Truck~~14163
▁operational~~23248
▁leiten~~3771
▁Berater~~20391
▁interessantere~~9488
▁Calder~~22710
▁belastbar~~15914
▁leitet~~9083
▁verwirren~~14084
▁Nichts~~5065
▁Toiletten~~5673
zusammenhang~~22847
Aid~~24798
ußere~~17336
▁fax~~22645
▁aufwache~~1666
▁Demenz~~20356
▁besiegt~~7143
▁far~~9308
▁fan~~21847
▁fad~~21052
▁aufwacht~~21380
▁selbstsüchtig~~18713
▁vorhanden~~5539
▁Tofu~~23205
▁tiefgehende~~13263
▁Stopp~~6407
▁schwitzte~~16259
intensit~~24473
www~~23282
▁wenige~~1911
▁Evolution~~1328
▁leichte~~16082
▁Australian~~24258
track~~4278
▁bildhaft~~22197
▁Narben~~6797
körner~~16229
inisterpräsident~~11752
▁Village~~15871
burn~~21815
efer~~17059
▁zusammenkomm~~11457
errichten~~6689
bury~~20648
▁Pläne~~13184
▁Gedanke~~3958
▁pharmazeutische~~13467
zug~~446
▁hypoxi~~24616
▁Botschaft~~2954
skrise~~4799
▁beschleunigt~~4088
▁Kombination~~6330
▁Bull~~13343
▁Abkürzung~~12576
▁Resilienz~~16571
uten~~5752
ampaign~~22357
ford~~6640
▁Beleuchtung~~8621
▁profane~~20621
dampf~~4443
▁subventionier~~20189
▁Mount~~6870
▁Schauspielerin~~16856
▁nigerianische~~8710
▁transformative~~21673
▁Anonym~~20645
▁Birne~~18415
▁Anekdote~~11826
geatmet~~18182
ship~~6103
▁Mehr~~10188
▁wertlos~~7852
▁Mehl~~21775
▁Modell~~2425
▁Regierungs~~10601
▁mechanische~~17086
erichterstattung~~22801
felt~~13785
▁heilen~~7120
feld~~3406
▁Schrott~~22839
▁definiere~~21486
▁drink~~24422
▁definiert~~7082
▁suburban~~16705
▁Klassifikation~~13949
bären~~15907
fährt~~7893
invent~~24480
▁basiert~~8033
▁asphalt~~21246
▁Steak~~9219
marke~~20139
▁Lunge~~6049
▁Buchhandlung~~14862
markt~~5193
▁padd~~22521
arboffen~~24841
▁Negative~~14398
▁Umnutzung~~16656
▁problem~~21766
▁verlassen~~6799
▁Shiritori~~24750
▁Subjekt~~8519
▁Neunjährige~~12473
▁steigen~~821
führung~~13411
▁beeinfluß~~16953
▁treu~~6648
▁lebenslange~~6481
▁Give~~17365
verhalten~~8749
▁Skype~~9181
▁Saatgut~~7285
▁ähnliche~~2435
▁Breitband~~13415
▁Cameron~~6346
nimmt~~294
zusammengepresst~~16093
▁dick~~9529
▁dich~~1277
▁Adventist~~23863
Datenbank~~19981
▁verlockend~~12557
▁Diktator~~12447
▁Charakteristik~~15364
▁gefallen~~4716
▁Hinrichtung~~22436
▁schnell~~2046
▁entgegenwirke~~18114
▁eingestellt~~3922
▁erlaubt~~2554
lesen~~2577
▁Multiple~~8904
zyklus~~10544
▁fehlt~~4271
▁Schwester~~6425
▁Prostituierte~~7789
▁Körperteile~~11068
▁Abschied~~7127
▁Neues~~7324
ood~~7568
▁dicker~~11126
▁überdenken~~7579
oon~~14780
ook~~10609
appen~~6821
▁Dollar~~2419
▁Philadelphia~~14882
▁enttäuschen~~2012
gläser~~17268
▁Vorgabe~~2245
▁zufrieden~~1536
▁gewaltig~~6120
▁gefärbt~~11177
▁amerikanische~~5407
aurus~~15366
▁Bezahl~~3701
▁Kommunikations~~3179
▁optim~~23043
ping~~11112
basteln~~14355
▁gefälschte~~17845
▁Simon~~4146
▁gutes~~3676
▁kontinuierlich~~8000
▁ausdrucksstark~~21141
▁Bluetooth~~20015
▁Lhasa~~9326
▁Vermittlung~~19198
▁Klassenkamerad~~16765
▁Gruppierung~~12849
▁guten~~2115
▁Nelson~~13558
▁Danny~~21309
▁Cathe~~11499
▁Benutzer~~10178
▁gehen~~946
▁Unstimmigkeit~~16599
immer~~144
immel~~11402
▁sicherzu~~14994
gesondert~~17316
▁geschützt~~5717
flügel~~5212
She~~8576
▁Tornado~~21393
▁NPR~~24393
▁Anwältin~~22491
▁DNA~~7157
▁natuerlich~~24047
▁DNS~~5662
▁fist~~23858
▁quantitativ~~19898
▁zensiert~~20700
▁Täler~~48
▁ozeanische~~20887
▁Entscheidung~~1421
sprachige~~10067
ließ~~5537
▁fish~~20179
▁Führungsetage~~21677
uerschnitt~~18838
monster~~23591
▁Hände~~3920
▁basis~~21830
▁Walker~~9600
vinyl~~22186
▁dazwischen~~4525
App~~18269
oscope~~21443
▁erwäg~~11072
▁verwundert~~8343
▁Seidendrüse~~24067
▁Blackawton~~24364
timation~~22135
punkte~~2558
▁wär~~9224
afel~~19439
ISA~~9077
▁Novocure~~21747
Pose~~22272
▁Habitat~~16710
schlagen~~6605
Post~~8419
▁Tiefsee~~708
droht~~23227
▁bildgebende~~9607
wert~~3667
▁Bruttoinlands~~7176
▁dänische~~15944
werk~~4858
mitte~~397
▁Nordost~~5215
▁Rockett~~23965
▁faktisch~~7768
▁Pharma~~18937
wanderung~~20372
▁profitable~~14979
▁Einnahmen~~14169
▁Mitmach~~14078
▁Kapsel~~13327
▁Magnet~~16388
▁Ruder~~11985
▁Warnsignal~~23615
paid~~22718
▁tie~~12815
▁Gleis~~20055
▁tin~~18886
▁interview~~12436
▁wuerde~~13928
gyro~~22764
▁Vektor~~15693
▁spendet~~21326
lässlich~~16405
▁Lizenz~~11325
bringen~~712
▁jünger~~7961
▁billion~~1331
▁Progress~~18100
▁versehen~~13567
▁Vorsitzende~~11333
▁Portrait~~14680
schichten~~9090
▁bedeutungsvoll~~8533
▁Loft~~17830
berraschende~~16535
ütze~~15496
▁bisher~~512
▁learning~~22510
ju~~6066
▁jogg~~18190
▁Indiens~~6236
▁Sequenz~~14725
jo~~12869
ji~~11157
tun~~5979
je~~7955
Kamera~~4230
ja~~3664
▁Dschungel~~20657
▁Ost~~5213
▁Kindheit~~7643
▁Osa~~22264
▁Telefon~~6710
datei~~19986
▁größere~~743
daten~~2354
▁Dead~~10531
▁Pazifische~~21128
▁wortwörtlich~~17856
▁versprach~~12283
▁begrenzen~~19756
▁Käufer~~7247
▁Brokkoli~~14596
8.000~~16730
▁Antike~~22162
▁ziemlich~~2503
identifizieren~~3742
▁Ein~~2221
▁Eis~~695
▁Transparenz~~1547
▁Lotterie~~16183
▁million~~1330
▁Some~~23916
▁Abfall~~14983
▁Device~~23156
▁terribl~~23044
▁routinemäßig~~10914
fenster~~4284
▁Anordnung~~6553
▁sued~~23224
▁Figur~~11322
▁prachtvoll~~20643
▁Weltraum~~5992
▁Gesetzgeber~~21376
▁vierzehn~~20252
▁sehbehindert~~13599
llerwichtigste~~7439
▁statisch~~14491
▁erfinderisch~~2224
gliederung~~11926
▁Patagonia~~15236
▁schwindl~~21281
▁Tumbl~~23307
▁Dur~~15492
▁gerissen~~15574
▁ertappt~~6411
▁Tauch~~717
▁schwinde~~3639
▁gebaut~~4013
▁brauchbar~~4255
▁Dun~~8818
prozentige~~2606
▁profitier~~3616
▁Susan~~10895
▁PAT~~24462
▁Music~~4042
▁habe~~1126
▁Musik~~958
▁Hong~~16417
▁Regina~~23243
▁Handschuhe~~3352
▁gewünschte~~15578
▁sagenhafte~~20407
▁tend~~20037
▁Inder~~11532
▁Index~~15557
▁Königskobra~~24184
▁überlappen~~14728
▁hält~~1587
4~~3242
▁Total~~19262
ehrend~~23217
▁routine~~22422
▁Copyright~~11247
treuung~~16749
▁Denis~~19457
▁Kutsche~~18202
▁Venedig~~17258
▁Kokosnuss~~19486
▁einschätzen~~15086
▁investiert~~1961
▁Dick~~3368
▁Dich~~8161
getreten~~3254
▁nachahmen~~2506
▁vorfinde~~12620
▁60,000~~22963
Neu~~10707
▁potentielle~~12027
▁alive~~22501
ieder~~6263
▁herstellen~~5367
▁herausbekomm~~18106
▁dug~~24647
▁Portal~~19397
▁Anwalt~~2129
ände~~2162
▁jährlich~~5089
Kortex~~11857
broken~~24767
adura~~23627
▁ausnahms~~16618
otho~~22940
▁willst~~4199
Zeitraum~~3793
othy~~15648
▁eingerichtet~~6927
Unwahrscheinlich~~21494
▁Unterstützung~~5982
▁beispiellose~~8959
▁psych~~24093
▁Rückenmark~~5638
▁Sediment~~934
▁bestrafe~~13453
▁hebräische~~12710
▁Fest~~5826
▁Autist~~18468
▁split~~24649
achtet~~8236
zustellen~~973
▁verallgemeiner~~15706
achter~~19131
tiefe~~5746
aradigmenwechsel~~20639
▁Khal~~10482
▁Khan~~18500
▁Ruf~~4357
▁früheste~~11841
▁Bowery~~24614
einander~~3274
▁Solarenergie~~20205
▁amerikanisch~~16142
▁Vokal~~11044
▁beschäftigte~~3505
▁behauptet~~7821
Adoleszenz~~22498
rotection~~10603
▁erreichen~~4764
richtung~~8803
field~~5211
produktiv~~5362
▁entstammt~~20067
▁Nachahmung~~14485
meka~~23752
schwitz~~8501
▁Willkommen~~16022
▁neugeborene~~23337
▁Mikrofon~~4455
▁verfeiner~~14003
▁poet~~20623
▁unauffällig~~8593
affektive~~17640
▁Ergebnis~~1416
begriff~~2235
Wayne~~20008
▁Jordan~~4868
▁gedanklich~~4818
▁tropft~~14407
▁Rückkopplung~~17030
▁Dutch~~24536
kanal~~14954
▁polic~~24803
▁erleuchtete~~20670
▁CAPTCHA~~22767
▁polio~~6107
rror~~22541
▁Noor~~22412
▁verwüstet~~9995
▁orange~~10592
arbage~~4785
▁Sofortnachricht~~18115
▁rücksichtslos~~19755
▁leugne~~18525
fall~~6326
▁Council~~21919
▁Fünftel~~10915
▁vielfältige~~10213
▁Finanzen~~14104
zentrum~~7399
▁verstopft~~21889
schüler~~3704
▁Charit~~22974
▁intend~~18686
▁leere~~739
▁beschränk~~17860
phage~~11610
stool~~24552
▁Isa~~16474
▁Coul~~23895
ordnung~~14626
ckung~~16649
▁SuperRabbit~~21481
K~~2457
▁smartest~~23672
ggy~~16272
▁vermutet~~6891
▁Chromosomen~~8019
▁Slum~~2782
▁Redakteur~~10322
▁koennen~~23215
▁Wolkenkratzer~~11526
▁jüngste~~8786
▁zeigt~~776
▁Gruppe~~3136
historiker~~19883
▁Enigma~~23991
besitzer~~15990
▁jeweilige~~1932
stelle~~1609
▁zeige~~3408
▁erhältlich~~11218
▁Mistkäfer~~24485
▁Finanzmärkte~~18479
▁test~~3618
▁malaria~~23151
▁Instanz~~11377
▁Ingenieurwesen~~9592
▁Instant~~16718
▁Abertausende~~11983
▁antworte~~2154
▁Wechsel~~9375
▁Munition~~21384
▁Trend~~7599
anzüge~~16823
▁Diamanten~~2999
dex~~3649
der~~265
des~~1186
▁stalk~~16868
del~~3388
dem~~1798
den~~568
illennium~~23970
▁wegwerfe~~1267
▁Nachkommen~~8072
▁Weihnachtsfeier~~3203
▁Leakey~~13939
gießen~~12343
bedeutend~~7696
spalt~~9064
▁progressive~~22869
ehlt~~11584
ombin~~8690
▁Recherche~~10347
bekämpfung~~10456
▁reich~~571
different~~24586
▁bloss~~13870
blood~~15641
▁fabelhaft~~13006
▁Macher~~14282
▁stigma~~16744
▁Verstärk~~4379
alph~~16115
▁trage~~7727
pfeife~~3144
▁Wahl~~1336
▁Nature~~15915
▁Havanna~~21554
▁Selbst~~1149
▁Allah~~22009
▁Gäste~~15551
▁Feld~~2316
▁spät~~4635
▁Fell~~10736
late~~17377
▁Fels~~781
pend~~12515
▁Sterbe~~7070
▁Alfred~~12757
▁selbständig~~10713
▁Brasilianer~~23643
▁bekämpft~~8055
▁blicken~~5137
uhr~~6408
▁Gelenk~~11051
▁building~~24176
▁Deponie~~9254
▁Arche~~14041
▁Veranstaltung~~4317
▁klug~~6646
▁Archi~~20991
▁aufstrebende~~21680
aufgehängt~~19946
▁Hirsch~~15304
▁Dame~~9091
▁verschmutzte~~5011
▁Voda~~22905
▁Bahn~~9299
▁Habi~~22012
▁eliminier~~1641
streckte~~12989
ides~~13959
▁km~~5973
▁ko~~6165
▁kn~~4185
▁Studienanfänger~~7675
▁kg~~614
▁zurückkehrt~~19398
▁niedrige~~1952
▁Turtle~~23720
achtens~~7693
▁Bucky~~23561
▁Gesetzen~~10886
▁Urheberrechts~~11295
gdal~~1406
bbing~~15059
▁Restaurant~~5063
▁Alptraum~~11988
▁Gene~~8071
▁Genf~~14075
▁bewertet~~1309
Empfänger~~7167
wagen~~15444
nach~~3655
▁derartige~~19895
▁Thursday~~24837
▁feministische~~20952
kon~~1162
▁allmählich~~15854
▁helfen~~4769
▁Antrieb~~284
kor~~6988
▁dimensions~~23311
▁Diät~~2690
stätte~~5949
▁Kuh~~10641
▁fotografisch~~13363
▁Bundesstaaten~~6926
lächelt~~20958
▁Schirm~~10016
b~~1996
▁institutional~~14091
▁schade~~21703
▁zart~~21845
predigt~~12284
5.000~~15998
▁Gurken~~23195
▁Büros~~11707
▁Faser~~8441
▁Neigung~~2469
▁mentale~~17633
▁millimeter~~23686
gehörigkeit~~16830
palästinensische~~16505
▁Kurator~~18313
▁Final~~15446
isela~~22379
▁Hono~~21994
▁honor~~3054
▁verschmi~~20463
stafrika~~13989
▁jemand~~1128
▁melanchol~~21850
kb~~22855
ka~~2476
ke~~4355
ki~~6971
kh~~20445
ko~~3648
kl~~2453
▁Roll~~12255
▁Entdecken~~18462
kt~~4262
▁Rangliste~~19327
▁besonderen~~5757
▁programmiere~~2508
▁Rebellen~~18321
▁programmiert~~1327
▁Woche~~898
▁Cambridge~~2349
▁Joystick~~430
▁Bhutan~~7172
▁ansteckend~~16301
▁Tomaten~~11165
▁heut~~4539
▁fluid~~24311
nerzählens~~14941
▁Phtalate~~24670
▁desir~~24819
▁vernünftige~~5990
▁Tomatensau~~19852
▁2.0~~9176
▁2.3~~21040
▁2.5~~14177
▁Räume~~4179
▁Meldung~~1012
▁Webseite~~4728
Fotograf~~22111
▁blend~~10197
▁effizienter~~5096
hersteller~~20366
controlle~~23937
▁vertrauen~~1614
▁extrem~~3883
▁Nachweis~~11801
▁anthropolog~~23927
▁gekannt~~12206
▁Stärk~~13384
▁Pfeifen~~3149
▁Player~~4530
ika~~7797
▁umfassende~~5758
ike~~11373
▁freiwillig~~12092
werbung~~14205
▁Jonglier~~10977
▁genomische~~19542
▁Shirk~~19100
▁Unterdrückung~~12178
▁Shiri~~12338
▁Zwanziger~~12251
▁chatt~~18159
▁viele~~824
▁ausgedacht~~7952
▁Wohlergehen~~18936
▁veröffentlicht~~1359
▁genehmigt~~17289
▁Giant~~15202
▁Pakistani~~11533
pharmak~~23023
▁verzichte~~15484
bild~~1968
▁reichhaltige~~7726
Dink~~24275
fug~~18599
ful~~20781
ächtige~~20357
▁Baum~~9364
▁pigmentierte~~24593
wollen~~22941
▁Mitteln~~13386
▁Abkommen~~11370
▁Tower~~14824
▁Krieges~~7770
▁verwundet~~19836
▁Fang~~19955
ymnosoph~~23316
oxica~~24684
▁eingefärbt~~22820
▁Terroristen~~15823
▁Zahnfee~~24305
▁only~~22671
▁Langstrecken~~19594
▁sprachliche~~13259
berflutung~~17003
itch~~15285
▁niemand~~1890
▁Sutherland~~15078
moment~~16424
irstream~~5403
sanga~~18709
▁Islamist~~22351
▁Anwendung~~3394
▁skeptic~~24576
▁Aufkleber~~7746
y~~573
▁Oberste~~21253
▁Söhne~~9238
▁irgendwa~~3210
▁Lieblingsthem~~11571
▁illegal~~13741
▁Auftreten~~9812
▁frühe~~4488
▁erhalten~~5028
▁geleistet~~16099
▁eignet~~3393
▁abrupt~~17530
wärtsbewegung~~15201
▁Anwesende~~12439
sprojekt~~13508
▁Dynamic~~22274
▁Wegweiser~~12887
▁Dynamik~~1345
▁beurteilen~~11013
▁photograph~~22952
▁Vanco~~11961
▁erfolgt~~2060
▁wovo~~3895
ymposium~~23058
ncyclopedia~~22299
orientiert~~16569
▁Wirkstoff~~18629
back~~6815
monoxid~~22067
pex~~22302
▁Bruchstücke~~11356
pez~~9415
▁qualvoll~~19304
integration~~18627
per~~4323
pel~~10830
pei~~10116
energie~~4558
ped~~12411
▁einsammelt~~21776
▁Erwerb~~19471
▁PISA~~1699
flüchte~~15552
▁Animal~~23541
nden~~6989
▁näher~~831
▁era~~18466
▁Minister~~11848
▁Kuiper~~23244
▁Hinweise~~5229
Sauce~~23093
Regierungsbeamte~~23475
▁Wiederholung~~9456
▁demonstrieren~~10958
▁Sharp~~22488
▁Daniel~~10971
▁herbeizu~~8181
QQ~~24341
▁Transfer~~16716
▁entgegengesetzt~~18783
▁preisgebe~~9221
Perspektive~~14459
▁Meadow~~21542
direktor~~20955
▁Minus~~20894
▁Fuß~~694
▁glänzende~~12998
▁politische~~2482
▁Jorge~~21944
engineering~~24306
zunehmen~~3756
dringen~~206
▁beide~~471
ative~~3759
▁Ereignis~~5269
▁600~~6949
besser~~4494
▁press~~18857
▁Insulin~~15499
▁Sensor~~10759
▁ersticken~~4792
variabel~~21126
▁gay~~24424
▁Taniyama~~24206
▁spontan~~12785
treue~~12801
▁Fashion~~22818
▁Anstoß~~19871
Business~~19863
▁Lösen~~11486
▁unterhalten~~7732
▁crowdsource~~21827
iegel~~5203
▁Shannon~~8853
▁Territorium~~5878
phobi~~14612
▁Mädchen~~4650
gerlich~~23503
Aufnahme~~10922
▁Historiker~~9575
▁kulturell~~12386
▁Mörder~~14414
▁sense~~24882
▁dieselbe~~4742
▁economy~~24898
▁Bewerbung~~8860
▁Kopf~~374
▁scheu~~8558
geschrieben~~8759
croc~~23055
wechselt~~3448
▁schreien~~8732
-20~~15153
▁Neandertaler~~13998
impuls~~15703
European~~24016
wechseln~~12570
▁kilo~~18338
▁kill~~6116
▁Retina~~20976
▁astronomische~~18571
▁verrückte~~9956
▁breakfast~~24769
▁synchron~~15935
Ver~~2256
namen~~5194
private~~16043
▁Bakterium~~759
Status~~16756
Ebene~~16187
▁human~~2987
▁Sher~~8167
▁beruhigt~~9764
▁ausprobiere~~11662
▁ausprobiert~~819
tämme~~12935
zählen~~3625
▁rollen~~13881
▁unseren~~503
▁unseres~~489
▁unserer~~367
▁Schulgeld~~21362
▁korrigiert~~2335
▁Rette~~13796
▁Review~~4468
▁spielen~~1132
▁Revier~~21940
▁Eduardo~~23624
spruch~~14462
fett~~16873
afi~~15454
▁Gando~~22569
,000~~16450
aft~~15378
▁Eimer~~9976
▁sensib~~9913
falte~~15306
▁Grafikdesign~~4756
▁funny~~23281
▁jahrzehntelang~~12272
frau~~6906
▁zum~~931
▁Beamte~~11539
nsporn~~9955
▁Niveau~~1752
▁zur~~320
▁elitäre~~13406
▁Moderne~~12177
▁drehen~~1249
meter~~5000
▁kodieren~~17716
▁bereitwillig~~6760
▁Hundert~~10110
▁einschränken~~1296
lf~~9231
ld~~11213
le~~3375
Gedenkstätte~~21505
▁ambition~~3858
la~~751
lo~~4210
ll~~3072
lm~~844
li~~5214
lt~~177
▁On~~10528
ly~~5387
▁gebraucht~~9283
▁Brock~~23889
▁Night~~5049
▁OS~~15818
▁Hoffnungsfleck~~5985
▁ungesehene~~15850
terminolog~~22662
▁vermehren~~12962
▁unverheiratet~~18664
hindern~~1124
▁Anwohner~~7590
rztin~~10789
▁tolerant~~12740
Unterricht~~13094
▁Spielberg~~15376
▁Doktoranden~~2361
▁weiterentwickel~~9920
rew~~15331
rei~~10013
▁verbiete~~9899
▁reaktivier~~11946
▁Hochschule~~9022
▁phone~~24636
▁neuron~~13667
▁Baldwin~~20627
▁Vorrat~~19252
runk~~17422
gegrenzt~~22199
▁Terr~~18786
▁Landwirtschaft~~5145
gaben~~2200
▁Ereignisse~~5580
▁Fundament~~11736
rudeln~~20995
▁verleg~~12298
▁Keat~~11311
▁Android~~14656
▁leistungsstarke~~16402
oline~~20012
verantwortliche~~17469
▁Fairness~~6339
einnahmen~~15246
▁schwer~~1717
swerte~~10300
ogi~~5375
spiegel~~16023
theorie~~13421
oga~~7489
▁Oval~~17439
▁lawyer~~22232
▁großartige~~1494
▁transformiert~~2052
izon~~7981
▁gewollt~~13546
Cluster~~20275
▁Herzkrankheit~~16670
▁verlorene~~5390
▁übertön~~4358
▁Autor~~4597
▁Autos~~5260
▁leitfähig~~17157
racht~~10478
▁Oliver~~4040
▁startete~~4737
▁Bienen~~11161
▁Richtung~~2080
▁Kopftuch~~12181
▁Drogenabhängig~~9425
▁hiess~~19433
▁Sonnenschein~~20891
eight~~15870
▁Hypothetische~~21371
▁Jim~~2850
antast~~21244
äußert~~13279
▁ELA~~24497
▁rhythm~~4432
▁Faktor~~1710
iquette~~8503
▁Jeder~~4685
▁anordne~~5998
gestellt~~3511
▁wahrgenommen~~3745
nachrichten~~10070
▁Wolfram~~19538
▁passte~~12784
▁Misstrauen~~19002
▁robotische~~4133
▁Dhara~~21627
▁Bewerber~~16949
▁chemisch~~19950
▁Landkarte~~12050
stimmen~~9491
▁fügte~~17285
gefallen~~3233
▁Stachel~~17561
▁lokalisieren~~13702
▁DVD~~2721
▁sagen~~933
▁Beobachtung~~7458
▁Krebse~~11211
▁Abwasser~~15928
ington~~3081
▁type~~23929
▁Vermiete~~10339
▁gleiche~~966
▁Senegal~~18833
buster~~2688
▁Kategorie~~8016
▁Therapie~~5693
▁blink~~8375
▁blind~~7267
lebensverändernd~~20562
▁breite~~14653
▁dünn~~9509
▁Zerbrechlich~~15011
gründung~~13913
▁Konver~~22517
▁Magier~~14872
Center~~14165
▁metal~~17126
▁angebracht~~8688
▁nihilis~~24205
▁Punkt~~773
▁friend~~24778
▁gehasst~~3465
▁tiefgründig~~18912
ggle~~23892
▁Abneigung~~16080
rleichter~~3819
▁Hautfarbe~~23588
▁Abteilung~~11766
▁Niederla~~19042
▁wiederholen~~4449
▁Nummernschild~~19994
▁Neffe~~10265
▁Stipendi~~14030
▁vielseitig~~17397
▁Erniedrigung~~6688
▁verschafft~~15859
effekt~~3961
▁Substantiv~~21925
▁einfallsreich~~7971
center~~12881
▁Mächtige~~22591
▁Hochschul~~8778
▁Schläfe~~11594
▁Unternehmen~~1079
▁Unternehmer~~1082
▁Aktivismus~~12471
▁Taschenrechner~~17097
▁Elektrolyt~~21450
▁Pants~~21858
▁meint~~9339
▁meine~~1171
Gamble~~22349
▁Grundpfeiler~~23066
▁betreib~~7786
▁Vogelart~~19391
▁willkürlich~~12038
Diät~~14555
▁VM~~24792
▁Anmerkung~~4819
▁vertikal~~5649
▁Anzeige~~2575
▁vorstellen~~193
▁bedrohen~~13178
▁Wohnort~~12892
▁Toast~~21357
▁beschleunigen~~3931
▁Brennstoff~~17210
▁klopft~~20503
▁verschenke~~11269
▁Blend~~19237
▁Säure~~11103
▁Mamma~~21551
est~~4239
▁Multitasking~~17660
▁Legastheni~~14050
Schalter~~15739
▁Entertainment~~23586
▁autonome~~19675
Robot~~1242
klappt~~8923
▁Taucher~~22113
▁begu~~24081
▁zersetzen~~18398
▁Spekulation~~7978
▁kopieren~~2117
▁konkret~~15666
einig~~3404
▁Komposition~~3158
▁Hopkins~~16530
▁Membran~~9914
▁warte~~9695
▁orangene~~21742
▁Vermittler~~14494
▁Fruchtfliege~~24025
meldung~~8842
ausgesetzt~~13736
▁incentivize~~24825
ifizierung~~11506
▁Prüfung~~1818
bus~~8656
▁Equ~~22995
▁Drohung~~13174
insky~~15060
▁Meerwasser~~121
bul~~11127
▁bereichern~~13478
sprozess~~4272
bug~~9973
Wald~~22607
▁rasant~~7496
hüpf~~12817
hop~~22428
▁Long~~4855
menschliche~~17105
▁aufwendig~~4390
▁maßgeschneidert~~20031
gesellschaft~~5025
▁ausgezeichnet~~7899
▁Moskito~~15384
▁Aspekte~~4294
▁Limo~~19655
our~~4467
▁Next~~14676
▁Fingerspitzen~~5612
ehrt~~11162
▁Saturn~~10091
▁Donner~~9168
▁Nötige~~24215
ögen~~3569
▁Verleu~~16902
▁Syria~~21035
Phase~~21163
prozent~~16369
‹~~19207
›~~19205
▁transit~~21924
▁Schlauch~~6877
▁erfolgreich~~2140
‒~~24554
schäd~~8225
klettert~~9677
‟~~23559
▁Sho~~3016
iddle~~16958
klettern~~11862
▁She~~11040
▁Teekessel~~22106
▁Rück~~5701
▁Feynman~~17721
▁früh~~2141
▁topograph~~23405
▁befürchten~~7864
▁Bonobo~~16243
▁sozial~~1138
▁Grönland~~17035
▁mysteriös~~18090
Uhr~~11471
▁unpraktisch~~18744
▁Meilen~~6091
▁Hypertext~~15317
▁unterschätzt~~13192
▁Grimasse~~18308
▁berichtete~~9732
▁Thorium~~20848
▁pump~~15527
▁Mulli~~14875
▁Kürbis~~15894
▁slash~~23467
▁Erzähler~~2654
▁Bildungssystem~~1772
▁Nevada~~15857
Festival~~22426
Rast~~12361
▁Schrimp~~22124
▁Geschmacks~~15478
sterreich~~3835
▁information~~23945
beater~~21958
▁Kuba~~16123
▁maximale~~18272
▁Bevölkerung~~1731
▁Fertig~~14602
reinigung~~3834
gne~~6882
▁sho~~24729
studio~~10011
pati~~20217
path~~18614
▁Vorgänge~~11948
komplex~~17275
studie~~13127
▁gezeichnet~~14354
▁Termiten~~11725
▁verschlungen~~8305
▁stärken~~9198
▁Bildhauer~~11405
▁stärker~~3744
▁Sandkorn~~10029
▁Friend~~18151
bwärts~~12629
visible~~24608
▁Feministin~~12213
graue~~6674
▁Conno~~17006
▁Fraktale~~21093
▁eben~~859
▁Conne~~10861
▁Requisite~~14356
▁Konsequenz~~10741
▁Dosen~~6156
▁unterirdisch~~20432
empfunden~~14223
▁sauer~~11498
▁Nahrungsquelle~~5147
ophag~~15533
▁führte~~4014
shoot~~20009
onie~~957
onig~~3805
▁hässlich~~11619
onic~~23826
▁besucht~~4859
▁verschwinden~~8105
mp~~6921
▁spritz~~16609
▁plus~~15247
▁Parkplätze~~16655
▁besuche~~8338
▁Hu~~11092
▁He~~5398
▁international~~1773
▁Ha~~1235
▁Hm~~17828
▁Ho~~3156
▁Hi~~8274
▁Werkzeug~~3483
transplantat~~11082
▁Vorfahre~~5075
füß~~15189
▁dramatische~~15169
bergang~~16570
▁HC~~21294
enz~~7773
▁überschreiten~~14448
charging~~22179
▁12-~~3049
artigkeit~~18736
▁Elektrotechnik~~15683
▁Schwänze~~15365
Observatorium~~20444
▁stärkt~~19271
skrankheiten~~14523
▁Knoten~~3857
▁verbesserte~~7942
▁winzig~~783
▁Schuss~~11913
▁vorkommen~~5006
▁hübsche~~11502
▁investigative~~14723
▁versteinerte~~15377
▁Fahrräder~~14166
▁polar~~18635
▁regt~~17114
aufenthalt~~23179
thesis~~5560
teilen~~1516
▁Hirnzelle~~23144
▁Freundschaft~~9197
blätter~~17169
▁Kontraktion~~23961
▁keiner~~481
▁potentiell~~12117
▁Pinatubo~~23237
▁säuber~~4952
gefäß~~12671
wheel~~23749
▁Planung~~16053
▁zerbrechlich~~928
▁Kameras~~210
▁Comp~~17683
▁Fight~~10515
▁Anliegen~~7416
▁bedroht~~7279
▁Come~~21323
▁schrumpft~~13391
▁Industrienation~~16008
▁installiert~~9559
mäßigkeit~~1899
▁installiere~~1283
icero~~13012
▁Clooney~~20927
▁Ampulle~~6150
spezifische~~13295
investition~~21080
▁Vorräte~~9659
kandidat~~17372
▁lade~~18067
berraschung~~3821
prozess~~5530
▁ungleich~~1882
▁multipliziert~~9365
▁trostlos~~1446
▁vermeide~~10760
▁rechnerische~~8837
É~~23319
▁Guy~~18431
▁Gut~~12021
▁energetisch~~19339
Å~~17550
Ä~~1472
▁Gun~~21175
▁Gui~~13830
Ü~~1284
▁Gua~~21931
Ö~~874
ë~~22902
ê~~3159
é~~7398
è~~23884
ï~~22410
î~~23986
í~~16915
ã~~23516
â~~20589
á~~10318
à~~15121
ç~~16013
ä~~1262
ú~~23650
ø~~21876
ý~~21166
ü~~286
▁Davos~~19597
ñ~~951
ö~~264
▁Zwänge~~16566
▁Sechziger~~20172
▁oberflächlich~~13908
▁demonstrat~~24685
▁Innenseite~~22221
gegenwart~~23511
kräfte~~1791
▁Bedien~~17309
▁Hirte~~13437
zeitliche~~14945
flüsse~~10252
▁Klecks~~13307
flasche~~6875
Entwicklungsziel~~12489
▁Speichel~~10738
löcher~~12786
▁Wasser~~538
▁Emotionen~~1408
▁Mücke~~23699
-~~308
▁Verstädterung~~7538
▁Windturbinen~~16696
▁Beschwerde~~8009
▁Taj~~23818
▁Verbrennung~~2392
miculit~~24691
▁einatmet~~23484
▁besessen~~7471
▁97~~13219
menschlich~~20873
▁Kernpunkt~~19619
▁harte~~8244
▁Impfstoffe~~6112
flow~~19127
▁Kafka~~13077
ulli~~17949
▁Hebräisch~~3475
setzen~~3918
güter~~13448
Guru~~15099
mäßig~~1844
▁Anforderung~~6729
▁schlucken~~18073
▁konkrete~~15061
▁Schweinegrippe~~21610
omuncul~~24337
▁aufgewühlt~~20779
▁verabscheu~~7733
▁Dilemma~~5538
spezialist~~18141
▁Psychotherap~~19731
▁Wahnvorstellung~~13768
▁hemmen~~15667
▁Offshore~~22447
▁nahm~~2073
▁Profi~~19912
▁Sitzung~~15076
▁nahe~~4852
▁Se~~4772
▁Sa~~4137
▁Sc~~1533
▁Oberhaupt~~18540
▁So~~464
▁Si~~5320
▁Sh~~6851
▁Su~~11172
▁St~~7622
▁Sp~~2282
▁Bewegung~~4254
▁SM~~20679
▁SL~~18349
▁SI~~9296
▁SK~~24632
▁ST~~20323
▁SW~~22732
▁SP~~8887
▁SS~~19820
▁SR~~20267
▁Begehren~~12484
▁kognitive~~8086
▁Crash~~19974
▁wünschen~~8509
▁hinfahre~~3228
▁Liberia~~12194
▁informative~~20625
▁interagieren~~5667
kwa~~22627
▁manövrier~~9710
▁richtet~~5402
epidemie~~19573
erleben~~3028
▁synchronisieren~~22783
▁Standpunkt~~4585
würdig~~3064
▁Funktionen~~11950
▁qualitativ~~11206
▁Regelung~~5822
▁gezahlt~~3556
▁Kirchen~~10385
▁Sucht~~9204
wälder~~20723
▁Suche~~3044
▁zurückziehen~~7219
▁Prostat~~21324
▁stimmte~~17074
▁Horror~~11578
▁Voll~~8069
▁Volt~~23160
Tri~~7074
▁abschließend~~13041
▁unverändert~~14552
▁1850~~16994
▁braun~~16137
▁Rote~~11960
▁Larami~~23229
▁Roth~~17517
▁TaskRabbit~~19208
▁steckte~~11312
▁anrichtet~~12765
▁Blume~~12971
▁hervorbring~~4295
▁Passagiere~~15581
▁Bö~~2454
▁Mauer~~9413
▁Päckchen~~5644
▁Schla~~5258
▁Hund~~10000
▁Hunt~~22984
▁verdau~~655
gift~~847
▁naive~~20805
▁Supernova~~17497
trockne~~16049
▁Pädagoge~~1870
zustände~~17647
hälfte~~14795
ick~~7609
ich~~298
▁bot~~4954
ica~~2760
▁boy~~17650
▁Elternteil~~2276
▁boo~~20919
core~~18918
corn~~23602
spielzeug~~19667
▁auswählt~~10898
corp~~19083
▁Hören~~15721
rateful~~24106
tücher~~13627
flossen~~5523
▁zuversichtlich~~10792
▁ausgelöst~~4662
Länder~~19550
▁Kartoffel~~16763
▁viral~~11287
Geschichte~~14942
▁Blind~~13620
▁live~~2555
▁Fotojournalist~~23360
▁polygon~~24846
lage~~3165
▁Skulptur~~11409
medium~~22407
▁beteilig~~10296
▁beherrschen~~18314
▁graue~~17241
▁unermüdlich~~16552
▁Gruben~~16232
▁Zylinder~~6692
▁vererbt~~10649
Bonnet~~13598
schule~~293
▁verdichtet~~17318
stünde~~3702
▁Erwägung~~17387
▁hochmoderne~~18148
▁logisch~~5472
nna~~17983
Zehn~~21095
wisst~~10352
Führungsqualität~~22314
Verbrauch~~15224
▁wichtiges~~1954
▁wichtiger~~2535
▁Meisterschaft~~11028
▁vi~~13851
▁Teresa~~22725
no~~13168
▁psycho~~23683
na~~4169
▁va~~24186
ne~~3386
ng~~2867
▁aussehen~~1445
▁grüner~~16276
▁Air~~6570
▁adopt~~18941
▁häusliche~~17964
▁Aid~~7805
▁Prime~~24349
▁Jugendliche~~2989
▁geprägt~~2017
▁gemeinnützige~~10452
▁Palästinenser~~16501
▁unbeschriebene~~5507
▁unterschreib~~3650
▁endgültige~~5261
▁Apartment~~17323
schritt~~1741
▁Akzent~~20216
▁station~~15993
▁Wiese~~15858
▁Patente~~10788
▁Autoren~~8301
▁vermarkte~~7460
▁Wellenlänge~~10591
▁Erhalt~~9923
town~~18183
chulden~~15151
▁Sehfähigkei~~13619
hebung~~19245
▁Risikofaktor~~10835
sehbare~~11375
▁Samstag~~9322
krise~~6886
▁fantasie~~18683
▁Lady~~17980
▁Pharao~~18574
fahrt~~8703
▁Kriegsverbreche~~20819
▁entschieden~~5420
▁danken~~9218
Rex~~15386
▁Snowboard~~23721
▁gesellig~~4514
Rev~~16811
würdigkeit~~4607
Champion~~21752
▁Tasten~~8750
ecker~~11137
▁Molekül~~2368
gesucht~~21871
retroviral~~16647
▁umfangreiche~~9581
▁humanoid~~11781
gräb~~18003
▁Gehirnhälfte~~10682
▁Roosevelt~~11279
▁Rollenspiele~~22513
schadet~~17369
▁sechseinhalb~~13579
▁Typ~~3172
▁Raubkopie~~22688
▁Nahe~~4054
imbabwe~~13544
flecht~~2684
▁Mikroprozessor~~19282
▁zurückkehrte~~10074
▁Industrial~~21242
▁bewerkstelligen~~8902
rios~~21278
eigenschaft~~18632
arcelo~~17291
▁Klimaanlage~~11538
▁dreieinhalb~~4206
Time~~22220
▁thermonu~~18263
▁zwanzig~~6064
▁angezogen~~13022
▁Schwerkraft~~16459
▁Buffet~~15063
geworfen~~11723
▁Technolog~~20239
▁Welt~~197
▁Pollen~~12957
schieben~~6606
▁Shoot~~20520
▁bra~~20349
▁Reykjav~~20234
▁Fruchtbarkeit~~9963
▁Sprech~~15308
▁Aussprache~~23873
▁aggressiv~~7043
▁angezeigt~~6151
lohn~~13683
▁Führungskräfte~~6704
▁Ekstase~~12165
▁Maßband~~20279
Gesellschaft~~18943
▁kippt~~20865
▁letzen~~4219
▁Ersatzteile~~11077
uent~~22334
▁verkörper~~9343
▁Großartige~~11276
faser~~15656
ortex~~1412
▁Gegebenheit~~9462
▁Kasach~~20809
▁nachschlage~~18156
▁umfassen~~15294
▁kluge~~5721
▁Survey~~17390
▁USDA~~14546
Mikro~~13001
▁Sekretär~~10903
▁vereinbar~~3643
▁dokumentiere~~10530
strittig~~8063
▁verdoppelt~~7448
▁gefährlich~~2442
▁stürm~~22341
▁sprachgewandt~~24666
▁Fluctus~~21810
▁dokumentiert~~4872
▁gesundheitliche~~19802
Erfassung~~18257
▁widmet~~3949
▁Konflikte~~18315
▁Festland~~5821
▁Pfad~~11071
▁verdoppeln~~14631
▁Umkehr~~6752
berlebenschance~~10868
▁Janeiro~~15760
tausch~~3682
▁Nirgendwo~~9723
profit~~14152
profil~~9517
krankheit~~9811
▁Arm~~2499
▁Arg~~23317
▁Are~~14710
▁explodieren~~7315
▁Arr~~20457
▁Art~~401
▁Händewaschen~~17186
▁Zivilisation~~4893
▁Ernte~~5159
▁west~~13936
synchron~~16178
▁äh~~13069
▁täuschen~~3530
▁Arbeiten~~8031
▁Elektronen~~13000
mechanismus~~13966
▁bestanden~~19288
▁Konsumenten~~7255
▁riskant~~2303
▁Arbeiter~~2126
Behandlung~~21749
füttern~~23625
Adresse~~21719
▁Gase~~16995
stimulation~~23133
utum~~19876
seite~~266
▁Monolog~~19455
▁Gast~~6937
▁fahre~~3223
▁6,000~~24145
huh~~15426
▁Löwe~~10577
lacht~~3903
hus~~8045
Situation~~20040
▁Synthese~~17507
▁Ausnahme~~6209
▁schmi~~13281
▁Ingenieurs~~8002
▁Book~~19110
▁radikaler~~1029
r~~351
▁Ingenieure~~8435
▁Können~~8986
▁klitzekleine~~20103
and~~4861
▁existentielle~~15824
▁Hunter~~19056
ang~~4565
ana~~4338
pro~~4899
▁optimiere~~5427
pri~~1670
ani~~12205
prostitution~~12491
quartier~~15583
ant~~4194
▁Fotografen~~5801
▁optimiert~~19928
▁suggerier~~21711
▁Bazill~~21605
fleisch~~11178
▁Gegner~~6682
▁zack~~753
▁Zusammenarbeit~~1549
falls~~860
▁Hemd~~8507
▁wartete~~4624
▁Darlehen~~21803
▁Boltzmann~~23734
cortex~~24320
▁trieb~~8645
▁Bicycle~~21092
▁Kirk~~20297
▁vielfältig~~59
▁linguistische~~19554
▁vereint~~16509
▁Evangeli~~10499
▁umwandel~~1689
▁Tropf~~6171
▁Käfig~~13708
▁Volta~~22212
▁protestier~~11549
▁Psyche~~12054
▁Straße~~8728
▁Psycho~~15098
▁Misha~~22383
▁RD~~23444
▁entscheide~~3580
▁suspend~~17927
▁Antenne~~16409
schwer~~9004
▁Graduierten~~22431
chemie~~19918
▁Witwe~~12200
▁Sandel~~17817
▁Alligator~~16195
▁gro~~21977
▁disk~~14993
▁gra~~18230
▁provozieren~~18990
▁Wahr~~10059
▁Schaumstoff~~8543
▁Mandela~~13559
▁guckte~~8342
▁1953~~14782
▁1950~~6068
▁betreffend~~17381
gainst~~24903
▁erwarte~~11504
▁gewählt~~4161
▁Live~~4461
▁widerspiegelt~~20097
▁Korrelation~~21430
▁erblinde~~18649
▁Fabian~~20996
▁Screenshot~~14410
region~~7429
ochdruck~~21629
▁Klient~~15577
▁verbünde~~22449
▁green~~24779
▁verwirklichen~~13531
ündung~~19780
▁Keim~~9836
▁Keil~~988
▁Kein~~16970
▁schöpferische~~4034
▁fly~~23390
color~~23920
▁flu~~7280
▁Klein~~746
▁Thing~~23758
▁bekannt~~1155
▁Kleid~~16857
▁fla~~9663
▁Think~~13483
▁Insekt~~11179
▁Silikon~~14427
▁wirklich~~337
▁ländliche~~6919
▁Mutation~~10548
▁Studium~~9152
▁25,000~~22964
▁Jean~~11620
▁überwiegend~~7359
bewegung~~3997
▁unterschrieben~~18606
▁Gift~~9826
ership~~23778
▁Ausbrüche~~6086
▁bemerkt~~4055
▁entziffer~~19962
▁eigenartig~~15261
▁lots~~24855
▁Pfote~~21564
▁Rapper~~19450
▁auszulös~~19463
▁gesunken~~14116
▁Troy~~15651
▁zwing~~8313
▁dekoriert~~10415
schmiss~~5129
▁Haustür~~7742
▁Glühwürmchen~~18577
▁beliebig~~13714
▁Mumbai~~8447
nsulinresisten~~23576
▁sanft~~20649
▁besondere~~4190
Signal~~23688
changing~~22457
▁Zinta~~23666
▁Jay~~6397
▁Impfstoff~~6059
Shreddies~~23917
▁sollte~~3052
▁Jar~~16529
▁paranoid~~17755
▁Jaw~~10193
▁Jan~~9542
model~~20311
▁Stichprobe~~19392
▁Blickwinkel~~1802
▁epidemiolog~~23805
gerufen~~4401
frosch~~9843
▁kleide~~12288
▁betreffen~~12059
▁konzipiert~~5441
▁Chemikalien~~9798
ügel~~9476
▁meme~~23657
▁Ihnen~~68
quatic~~24704
Talk~~21041
▁Manya~~24809
▁hasse~~4674
Something~~20551
▁solidari~~22650
▁Baumwoll~~19073
▁Kalku~~23582
▁Tausende~~2921
Terror~~23031
▁Abstimmung~~17384
▁Zweifel~~6390
▁unangemessen~~20373
▁angestellt~~1615
▁Sitz~~3900
▁Bewegungs~~9420
▁Klettverschluss~~22271
▁ausgedehnt~~11923
▁lose~~15438
▁erneuert~~7542
▁loss~~21724
▁lost~~20154
wesen~~5042
oo~~8650
on~~3154
om~~10424
▁Umbruch~~12019
ok~~3249
oh~~8651
of~~8608
od~~5619
oc~~9946
ob~~6810
iskriminierung~~23232
ow~~6970
ov~~10166
ou~~3151
ot~~4343
os~~3200
or~~3155
op~~2366
▁geregelt~~10887
▁Buba~~24403
▁recogni~~22773
▁Blu~~8326
▁Blo~~8373
▁Robbi~~19254
▁Bla~~14682
sminister~~11225
▁liebt~~12941
▁beruht~~8334
▁Stromausfall~~10002
strich~~13325
▁gekauft~~5068
▁Pringle~~14587
house~~13560
▁cocktail~~20867
iaoping~~19805
▁Doppel~~2866
▁frittierte~~16171
▁geschlossen~~3863
▁Vogelgrippe~~15603
▁gewann~~3252
▁Nahrung~~757
▁entlang~~560
▁iPhone~~8251
▁Cyberkriminelle~~22392
feuer~~6104
▁Ausgangs~~15716
▁Antilope~~21055
▁Widerstand~~12182
▁Kernspintomogra~~22961
▁West~~3294
▁wegnehme~~14442
▁intuitiv~~4593
▁hier~~136
Sakkaf~~24279
▁norwegische~~14316
▁grün~~1845
▁aktivier~~5669
▁fragile~~5805
ICE~~14100
▁Termin~~7344
▁universelle~~5956
▁beschädigen~~17155
▁erschienen~~4045
▁Winde~~9624
▁Pazifik~~455
▁four~~24325
▁Großmutter~~1191
▁Crohn~~15514
▁ka~~9734
▁Deze~~11664
▁inclusive~~24236
Satellit~~16987
▁versunken~~14043
▁Past~~11093
▁Pass~~13493
▁smart~~12398
▁Sklaverei~~13554
Zustand~~17642
woman~~24139
▁Progerie~~22867
▁regelrecht~~3361
▁wackelt~~376
▁Fantastisch~~22470
▁Ausgleich~~16273
▁selten~~2693
▁Fiore~~15702
ical~~19533
▁Phil~~7767
▁render~~22834
▁Beifa~~15924
▁knifflig~~19217
▁gemeint~~3231
EM~~18283
tel~~7941
▁Letzt~~14285
ten~~1381
▁Komponente~~10613
rate~~7774
EN~~19088
design~~5418
▁ramp~~21261
ter~~2958
rati~~13208
Gebäude~~8196
▁Grausamkeit~~15474
▁Umhang~~10472
tischen~~646
▁Metall~~4835
▁Genom~~8040
▁untersucht~~5977
▁recherchiere~~5429
▁Roboterarm~~2544
▁Interpretation~~3983
▁untersuche~~15620
▁Thailand~~20584
▁recherchiert~~14386
▁unterrichte~~4755
▁heran~~392
▁herab~~8087
▁kommende~~8269
▁Konservierung~~9803
▁verankert~~17405
▁weiger~~14206
▁sicherste~~14140
▁Spule~~12470
▁Inhalt~~9008
▁angepasst~~4566
▁unklar~~11043
▁verzeih~~1250
▁Nächsten~~3766
▁Erlös~~19313
▁scrap~~23746
▁Eye~~15006
▁Safdie~~23841
▁transparent~~6759
▁fundamental~~7934
▁Krebsbehandlung~~19487
Inseln~~4925
▁same~~21119
▁ernten~~7291
▁lassen~~500
▁Genick~~20770
▁spiral~~19660
▁Spottdrossel~~24122
▁Bowl~~12833
ō~~23567
▁biograph~~24916
▁reichte~~12679
chwach~~16659
▁freak~~21819
œ~~23737
▁Grube~~14339
▁Autopsie~~19490
š~~23312
Firmen~~11271
▁DEP~~22979
▁gehört~~1430
▁Reportage~~22596
▁Tigris~~23851
▁Race~~21584
entwickler~~15068
▁gehöre~~8758
▁durchquer~~17991
▁Spa~~8237
▁Spi~~18304
ardi~~19267
deutung~~5314
Evil~~24564
weiß~~2891
▁poetische~~13044
▁flexibel~~12803
▁elektronische~~6724
mission~~23026
▁möglich~~247
▁dienen~~5086
▁begünstig~~17398
produktivität~~22942
▁neuro~~21257
▁zahlen~~7498
alter~~2777
wegs~~6259
▁Multi~~12643
▁unabdingbar~~12897
▁handelt~~4127
▁Windrad~~23738
wege~~5169
▁Psychologie~~12048
xchange~~21516
▁Käfer~~10665
▁algebra~~23387
▁Faiza~~24885
▁treib~~971
▁administrative~~2210
▁circa~~12584
▁bombardiert~~17565
▁Calvin~~15638
▁schlüpf~~10672
▁bringen~~2617
vater~~21581
▁Ansage~~16021
▁ableite~~13872
▁Kritik~~1623
▁Zivilisten~~21772
▁spa~~14955
▁Motorräder~~11094
▁beschämend~~14835
▁Singh~~21628
▁Gliedmaßen~~18764
▁heilige~~8699
▁verkörpert~~14493
▁vorschlug~~15325
▁griechisch~~21389
▁Kerle~~6452
altech~~16368
▁Domain~~22916
▁heranzu~~19640
▁verspotte~~13650
▁verpflichtet~~15219
▁Reihe~~866
People~~19230
▁Heilige~~18109
▁Indus~~22741
▁erstklassige~~2228
▁Resolut~~19664
▁integr~~23080
▁Studie~~1722
▁Studio~~7461
blanc~~19192
▁spinn~~16615
▁Unterwelt~~13839
▁letztendlich~~7844
▁identische~~10626
▁Abfolge~~7929
▁mitten~~3969
▁motorisierte~~21556
▁repress~~21251
▁Prozess~~1291
▁kraftvoll~~6785
uditorium~~19627
kategorie~~15290
▁PlayStation~~23706
▁fassen~~659
▁Rebe~~17231
▁raffiniert~~20208
▁variable~~15204
▁PalmPilot~~23209
▁effektiver~~8929
▁Temperatur~~684
▁Eifer~~13122
▁schweigen~~7980
▁konzentriere~~1924
▁notice~~24830
▁Homosexuelle~~24282
▁Klinik~~5570
▁konzentriert~~2079
▁diejenige~~3633
mineral~~23756
▁Dreieck~~11932
▁Brunnen~~16025
gramm~~18210
▁Gewand~~20397
▁0.1~~21403
▁0.5~~19426
▁Eure~~8177
▁multitasking~~22721
▁Euro~~11182
▁0,~~16996
verstümmel~~19468
▁0.~~18273
▁verhungern~~19389
▁Sequoia~~1212
▁Scarlet~~24694
▁Abbau~~11701
▁archetyp~~13335
▁anhört~~14684
▁irdische~~19014
▁beenden~~6135
▁lächl~~12237
▁Talent~~1745
▁beendet~~2753
▁beginn~~4281
▁Wahnsinn~~7073
losigkeit~~5699
▁Gastgeber~~11798
egeister~~10286
▁Anlagen~~4485
▁Bewässerung~~16213
▁Geistes~~8922
▁Wärter~~24549
treiben~~5987
▁Gründer~~10239
treiber~~16466
▁Patent~~6911
creme~~13039
▁Einfluß~~14160
▁Pollock~~21134
▁tyrann~~22419
▁challenge~~23392
▁Hose~~12340
▁Fossil~~11845
▁Heiß~~14539
▁zusammenzu~~8307
▁blöd~~10996
▁Auftritt~~19712
▁Regenwälder~~182
▁Geschäftsmodell~~6812
▁einiger~~1812
▁heirate~~7003
ufen~~24121
▁Clark~~19302
▁Freiwilligen~~6173
omorrow~~19614
bezogen~~3790
zwingen~~13564
pp~~4155
duk~~12714
▁lösbar~~14729
pt~~10980
pu~~13771
▁Hier~~5733
pa~~4919
pf~~1540
pe~~4261
ph~~3198
pi~~2597
po~~5324
Comicheft~~17235
▁gratuliere~~16094
▁Dimension~~1868
▁produktiver~~7725
▁Primzahl~~24476
aumeln~~23170
▁erhöhte~~2024
▁Netze~~15913
▁gelesen~~1064
sgegenstand~~12926
▁Strahlen~~20284
▁erläutert~~5984
▁Oil~~24014
▁verfügbare~~17443
▁Aura~~4003
▁Semester~~16107
▁äußerlich~~18445
Schwerelosigkeit~~16458
▁Thought~~21922
▁Hybrid~~9537
akti~~18940
▁Singularit~~24319
▁miniatur~~23562
▁schmolz~~20609
wirtschaftliche~~2061
▁block~~21875
▁gegenüber~~1813
▁angelang~~14567
▁ermöglicht~~4456
▁liberal~~7218
▁thro~~24500
▁tech~~22542
▁Ignoranz~~12129
fahrzeuge~~5995
brecher~~8628
▁Gewitter~~20286
▁fände~~10794
Dienst~~21676
▁Lenk~~13111
▁Flint~~16703
▁monoton~~15008
stimul~~15009
▁Sitznachbar~~19235
probieren~~4006
▁Prügel~~21024
▁Boston~~4075
▁Fil~~2837
▁Versöhnung~~12520
▁Fin~~706
▁Rauch~~10814
uza~~23613
attentat~~19297
▁Fix~~9654
▁willkürliche~~18565
▁Prozent~~1086
▁wechselt~~7254
▁Rechtsstaat~~23230
▁Außenministeri~~20814
3.0~~21081
▁Integr~~7381
▁Oscar~~14069
▁Galois~~23833
▁Teich~~13283
▁Zahlen~~2925
▁Parteien~~12846
▁Sami~~24734
▁Dose~~14155
▁Dosi~~6145
▁überwältigend~~12955
▁Samu~~15433
▁Säuger~~18124
▁bunt~~10259
orstwirtschaft~~18421
▁anzugeh~~7699
▁Twenty~~23664
▁Nationalität~~1374
▁Jupiter~~10090
▁mächtiger~~8138
fass~~12717
fast~~23717
▁tropische~~13033
▁Außenseite~~9512
▁freier~~15843
▁immens~~5359
▁Staphylokokk~~14878
▁passier~~1200
▁Methodi~~17092
▁Viking~~23404
▁Methode~~2512
▁Schüler~~1808
▁teuer~~10843
▁sorgsam~~2185
▁Puer~~18904
▁Betäubung~~20535
fried~~11886
▁Entdecker~~9563
▁Wachstum~~7365
ökonomische~~19604
Kunstausstellung~~14774
▁patriarch~~22493
Establishment~~23139
▁sprang~~10100
▁Nebenwirkung~~7888
▁besaß~~3693
▁Legosteine~~22737
▁gestärkt~~13890
gro~~17757
▁Vorgehensweise~~6163
▁Siebziger~~14578
▁rust~~22087
▁betäuben~~21194
behörden~~11169
▁Kristall~~8224
ffentlichkeit~~7845
▁Himmelskörper~~17989
▁enorm~~1953
wünscht~~16834
dley~~19228
▁Mittel~~452
gestrickt~~17725
tete~~4660
▁Berlin~~17341
spürt~~15661
sammengebrochen~~9688
▁Eintritt~~22112
▁umwerfend~~21049
▁cou~~20232
▁Verurteilung~~15464
▁con~~22698
▁become~~24247
▁logistische~~6279
▁Fokussier~~21918
▁cod~~4251
ging~~3786
▁gezwungen~~6758
▁stage~~13864
▁öko~~21992
▁unmittelbare~~11556
▁gewalttätig~~9406
▁Produzent~~16793
▁Makro~~16186
▁schließen~~1436
zugebe~~21072
▁Ruß~~22886
sprungen~~15763
▁ekelhaft~~16611
rctic~~23649
▁süd~~5958
▁weiterzu~~1570
erstellen~~461
▁Marrow~~20524
▁Muslime~~20043
▁Stirling~~23158
Webseite~~4708
▁Generation~~2517
▁aufregende~~3323
▁Schlagzeilen~~2297
▁Ruin~~12707
▁46664~~22648
▁Rechne~~20903
▁Beginn~~4124
▁Musk~~20264
▁Muse~~4576
▁häufig~~7815
▁Spiegelbild~~8285
qualle~~10588
selbe~~6497
▁natur~~8909
▁einzeln~~9522
use~~10154
fee~~22209
▁Patient~~3473
fen~~3023
fel~~11815
Kandidat~~17455
ush~~303
▁Doppelgänger~~21684
▁katholische~~11729
sort~~4318
▁südafrikanische~~17095
▁glänzen~~21943
heit~~4335
▁heikel~~6720
heil~~13816
heim~~9174
äppchen~~7391
▁FDA~~10607
ural~~23543
worfen~~12072
▁Momentaufnahme~~16487
▁Stoffwechsel~~7889
▁Konnekt~~16698
▁betrüg~~3739
▁Dokumentation~~9596
▁ordentliche~~20129
nde~~6847
something~~23759
kost~~14536
▁Jahreszeit~~5933
▁Stadtviertel~~20421
▁Antworten~~7869
▁Auskunft~~9416
▁Schriftstück~~15343
▁Douglas~~9355
Spray~~3314
▁Pech~~19813
tension~~11315
▁müssen~~198
▁geboren~~1396
völker~~14496
▁Vorkommnis~~18948
maske~~9669
▁Herzklappe~~14884
▁Frisur~~14986
▁Wach~~2413
▁beruhen~~15523
▁link~~8993
▁Hinweis~~558
fford~~9393
▁Landebahn~~12958
▁Produkten~~4805
▁Donnerstag~~17255
▁bush~~23177
gehirn~~10692
▁busy~~21811
▁Lotus~~18727
Shelf~~22115
▁Sicherheitsgurt~~21559
▁teilnahm~~5296
,5~~18785
▁Anarchi~~15996
▁durchsucht~~13274
▁eyes~~22683
▁Spül~~17196
▁Fehlfunktion~~17473
▁Gemüt~~10031
▁Schimpanse~~18586
▁entfessel~~9612
▁Läufer~~22338
investor~~16706
▁Serotonin~~19819
dessen~~1151
▁Betroffene~~5753
prozessor~~15741
▁gekürzt~~15567
Pro~~6951
▁genaue~~14388
Gehirn~~10717
▁Hygiene~~6321
▁verkaufte~~13687
bogen~~10026
▁berate~~20802
▁25.000~~14028
▁glatt~~3377
▁Kickstarter~~20760
▁Rotation~~17807
▁feine~~13183
▁Espresso~~21496
▁Münch~~4725
▁Furcht~~12511
▁auftauchen~~4895
squelle~~5920
▁verdreifacht~~7975
▁Punktzahl~~8938
▁beharren~~21205
▁strebt~~5595
▁Meditierende~~24541
▁Generationen~~1760
▁Zustand~~7202
▁Tar~~15544
▁Tap~~13106
▁Transformation~~8968
ilfsorganisation~~7760
▁Tat~~1904
▁Stellung~~19086
▁Tai~~13817
▁Tan~~4564
▁Tal~~473
▁brin~~23882
▁Tab~~20636
▁Tag~~3694
▁Sporen~~17552
▁Mooresche~~20732
▁Friday~~5230
▁Aspekt~~4249
▁Vernunft~~7091
▁schnelle~~7521
▁Direct~~20726
▁McLean~~23973
▁Mitglied~~11255
szeit~~3668
▁konfrontieren~~19473
▁separat~~22655
▁verstümmelt~~12183
▁glorreich~~7068
▁dunkel~~5729
▁Autonomi~~10684
▁Signal~~5554
▁Menschenrechte~~11559
▁transnational~~21763
▁Toyota~~13470
eter~~11220
ungsweise~~5099
▁Adipositas~~23577
eten~~6967
▁begrüßt~~7710
=~~21048
▁Nepal~~9325
▁spend~~11095
▁Gemeinde~~2652
▁schwerwiegend~~14843
▁sweet~~18853
▁vermieden~~16885
▁Darfur~~20997
▁legislati~~18657
▁Arzneimittel~~21067
▁leicht~~334
▁Mund~~636
.000~~445
▁Gleichung~~7551
heruntergekommen~~17753
▁animieren~~17938
▁Roger~~17805
stufige~~18815
rries~~22738
zuordne~~2801
orientierte~~7658
nzüberschreitend~~21075
▁200-~~7951
Innovation~~20385
▁Flüssigkeit~~647
▁faul~~7697
▁überzeugt~~2134
▁Biopsie~~10842
▁kombiniere~~10574
▁Kostüme~~14353
▁faux~~14765
▁Rachel~~2284
einsatz~~6625
uantenmechani~~13781
▁starren~~6592
▁Becher~~18625
▁deprimiert~~19094
▁Transplantat~~15507
streben~~6139
▁verdreht~~6392
▁Gewichtszunahme~~22489
▁verdrehe~~16101
▁Gehalt~~2188
▁JFK~~14846
▁übertragen~~12993
▁Konstrukt~~15043
▁neurophysiolog~~13454
▁schicke~~13188
▁hypothetische~~8965
▁barbarisch~~12537
RT~~20396
RU~~19991
▁Einzigartigkeit~~22746
▁spezifisch~~16161
▁Wetter~~2351
▁Adoption~~18603
raduate~~23395
▁care~~22687
▁abkommen~~23692
▁Puppe~~12469
angiogen~~24561
▁Adapt~~16271
▁Stadium~~10670
▁mächtigste~~4107
Protokoll~~20328
RD~~21036
shima~~20751
▁nachgedacht~~10321
▁orbit~~23769
▁Skript~~18103
▁Araber~~18787
▁schul~~15220
isten~~3043
▁Visual~~22471
RC~~17356
▁schuf~~9737
▁out~~12252
▁künstliche~~9948
▁Amitabha~~18492
▁Fast~~13755
RI~~14235
▁mental~~11489
atter~~15881
▁Metalle~~18797
vorhergesehen~~21518
avi~~352
▁Versicherungs~~7158
ava~~7135
▁errichtet~~11474
ichen~~2898
▁nachvollzieh~~4903
▁Hürde~~10308
cross~~15070
▁Upper~~15899
schild~~14368
▁Reagan~~11259
icher~~1693
itting~~19706
▁Spezies~~8208
▁isolation~~24246
▁ego~~21722
▁naheliegend~~12739
schließlich~~487
▁reparieren~~8008
▁vorspielen~~16933
▁Diskurs~~13507
▁ruiniert~~11626
Moral~~23191
Forschung~~10664
▁vernachlässig~~9225
Moralpsychologie~~18643
▁elegan~~18447
▁selektiv~~15606
▁durchforste~~19541
▁Bayes~~21725
▁Hypothese~~6598
▁höflich~~17075
T~~311
basierte~~3308
▁Hasan~~23701
▁Ausdehnung~~14006
▁up~~16198
▁schickte~~2051
losen~~10889
▁forschen~~9137
▁angenommen~~2069
▁Linu~~21698
▁quetsch~~1145
fügt~~18628
▁Line~~15233
ürze~~19322
▁Link~~9267
handschuh~~22362
▁unbeschreiblich~~20583
rohr~~11721
Algorithm~~20766
▁gelangt~~4454
▁nehm~~11640
▁reinkomm~~18319
▁Fluss~~5199
▁Ceausescu~~23933
▁Independen~~20801
▁beschützen~~17049
▁Jefferson~~12704
own~~11120
▁Einflüsse~~13645
owa~~12915
automat~~12760
▁gewiss~~11433
▁erhellt~~15922
▁Onkologe~~7097
konstruktion~~15571
▁hochkomm~~3832
Gewinn~~18297
appy~~24646
appt~~22359
berfisch~~20170
▁gegenüberstell~~21431
▁Zwerg~~13770
▁plötzlich~~3543
▁Rindfleisch~~11199
▁kaufe~~14464
▁10.~~13427
▁interpretiert~~14959
▁visuell~~12954
▁Ken~~9601
▁105~~19305
▁Milk~~17170
▁Mill~~8819
▁Essstörung~~19144
Gebühr~~17053
▁103~~21262
▁Key~~19976
heulen~~6403
▁interpretiere~~10924
sprengt~~12166
▁Penelope~~9794
▁decken~~18325
Tex~~15222
Mensch~~11054
sprenge~~17723
▁Carrillo~~24358
anja~~22634
▁erkunden~~11785
▁übersät~~23173
▁Gerhard~~15686
▁psychopath~~24629
▁erkundet~~13376
▁Skulpturen~~17272
▁Kareem~~23443
▁Bestseller~~17857
▁Griechenland~~13595
▁Biochemi~~18377
▁ONE~~21828
ruchteil~~8677
other~~16727
schüttet~~5665
▁Elfenbein~~8425
ismus~~562
▁paranormal~~24064
▁Geburt~~4495
▁Stacey~~22126
lö~~3372
impfung~~6144
▁gute~~2066
▁Miliz~~22612
▁jedermann~~3968
▁Blockade~~20044
▁Bestand~~977
▁Damasio~~22234
▁erzählen~~74
four~~12725
▁weiterlebe~~12770
▁Chim~~12187
▁Mouse~~11308
▁Ureinwohner~~20998
▁Chip~~10668
▁Gärt~~14607
▁April~~9216
▁Träumen~~12325
▁Treffer~~17871
Stiftung~~17225
▁Jehova~~12719
▁Acht~~8159
▁Treffen~~2337
▁Patrick~~21240
▁Mittelmeer~~12678
einanderfolgende~~13328
▁Million~~2797
▁Victoria~~16319
bill~~22446
sturz~~13180
▁Silv~~22255
▁Galactic~~18013
▁Gehälter~~21401
▁beißen~~19582
ated~~22669
▁Verwesung~~18975
▁vorher~~3924
▁attraktiver~~16875
▁Garantie~~18075
▁Block~~5497
,500~~19477
▁schwebende~~13626
▁kreativ~~1256
k~~96
▁Spiel~~1601
▁Lange~~62
▁Vernetzung~~11945
▁Schreck~~20439
▁schädigen~~20607
▁ursprüngliche~~7997
teten~~13399
▁Mental~~21926
▁500,000~~19458
▁verdeutlich~~4301
isierte~~1244
▁Entwicklungsl~~10263
▁Stellenwert~~14645
▁unerreichbar~~13585
ausendstel~~17698
bewusst~~14438
▁nachvollziehbar~~20306
▁erzogen~~1184
▁Landesteil~~7189
▁Whistleblower~~24315
▁Erwärmung~~14506
▁Knöchel~~18758
▁Verwendung~~7230
▁Schafe~~3546
▁Stränge~~15916
wirklich~~1684
Energie~~20210
bergewicht~~16774
▁Poster~~4617
schmuggel~~11589
▁Digitalkamera~~20975
▁Chief~~16825
augen~~8240
Kläranlage~~17195
▁neun~~457
▁Lehrer~~1958
typen~~6297
▁randomisierte~~19240
▁Kelle~~22116
▁neue~~225
▁Seren~~16923
▁Stell~~21909
▁Kelly~~13419
kriegt~~661
▁Datenbanken~~18965
▁modifiziert~~10612
▁Lehren~~19036
aving~~14190
▁verwende~~6828
terdisziplinäre~~18964
▁schien~~3123
▁kannte~~7079
▁schieb~~16982
▁paar~~77
▁Elemente~~9682
▁stabilisieren~~9698
schließen~~1862
▁hunger~~5132
▁profit~~18497
▁Beine~~3522
▁Ahmed~~14077
hängt~~14896
spersönlichkeit~~1603
▁ideale~~13068
▁Ariel~~3424
setzung~~14721
▁Sterben~~7117
abhängigkeit~~20324
▁Touchscreen~~23208
▁nation~~24368
ifikation~~20080
▁beginnend~~4914
▁raus~~1528
▁emotions~~23621
▁Staaten~~1520
▁rauf~~5650
abwehren~~14738
unwahrscheinlich~~5108
mität~~11441
ru~~6800
ry~~4751
▁Knorpel~~23861
re~~272
ra~~2817
▁Fruchtfliegen~~23554
ro~~2620
ri~~3401
▁Knöpfe~~18960
öffne~~6505
▁Church~~14829
▁Dunkle~~16348
▁allgemein~~3392
▁bezeichnen~~7564
▁bezeichnet~~4828
▁Knotenpunkte~~18552
vitro~~21745
▁Schulung~~15215
basketball~~22925
▁NSA~~15775
▁enttäuscht~~6695
▁krümmen~~9255
technik~~10978
▁peinlich~~7085
▁verbesser~~2254
tree~~10539
project~~10155
▁masse~~20844
▁Powell~~18608
▁belanglos~~6782
tion~~3758
▁Südkalifornien~~20219
▁Belästigung~~19179
▁Kühlschränke~~3662
▁Fußball~~1442
runner~~24879
▁Fellow~~12922
runnen~~18142
mpfindlichkeit~~17620
▁Schöpfer~~9437
▁hierzu~~13420
▁Glücksspiel~~19218
▁Wäge~~23960
▁ärztliche~~18928
▁basierend~~8985
▁resilien~~24801
▁ließen~~11063
krempeln~~11973
▁Rational~~20984
▁Burn~~7502
▁Burm~~13547
▁Burk~~12147
▁Gründe~~1524
▁Burt~~18242
▁schiere~~16679
straßen~~12354
Verbindung~~14436
▁Eingang~~17312
▁Untersuchung~~1358
▁Erwartungen~~7232
▁Vergangenheit~~937
▁Angela~~16017
motivat~~23872
Magazin~~7607
▁Aussehen~~10350
▁freie~~4320
Epidemie~~19578
▁Rasse~~7972
▁Senate~~22062
tomie~~15291
▁Behind~~12487
▁Jahrzehnt~~2077
fangen~~426
▁grösste~~1370
▁spott~~12000
▁vorgeschlagen~~5955
figur~~3875
▁place~~24446
sgefahr~~18634
▁Panik~~6044
▁musizier~~4094
▁Mondfisch~~19424
▁ausgewählt~~1329
▁Wechselwirkung~~13179
▁supermassive~~22545
country~~24812
▁center~~20974
▁Passagier~~17593
▁Stand~~6214
▁genital~~19476
▁Seele~~8318
▁Passage~~4487
lehnen~~13431
▁schrecklich~~2525
stadium~~15724
▁Deutsch~~14822
farbig~~19744
sfreiheit~~16519
betracht~~17875
▁Tourist~~19732
Schule~~16859
▁wegweisende~~22136
tlantik~~23299
▁Zensur~~7664
▁Rätsel~~8978
▁überquert~~14296
▁Rückgrat~~13159
Waschmittel~~11104
▁Lebenserwartung~~7876
▁lebenswert~~19162
türme~~16983
Verhalten~~21164
▁Bewohner~~2008
▁Northern~~19811
tzt~~5464
grenzen~~2680
▁Locke~~23037
▁verbliebene~~12293
wettbewerbsfähig~~7639
Python~~22930
▁aktualisiert~~9304
▁Filme~~2624
förmige~~795
▁aktualisiere~~3937
▁Cyberattacke~~22897
▁konfrontiert~~3419
entbehrlich~~14638
▁symbols~~14897
▁solch~~8114
▁Fallschirm~~4761
▁kosmische~~17492
▁Wörterbücher~~16303
▁Broadway~~15876
▁Pfeilspitze~~21592
sprechen~~6021
▁ursprünglich~~5436
▁8.~~9615
▁Oxytocin~~3914
▁geschwollen~~20581
▁mitteilt~~15828
▁84~~5014
▁85~~13987
▁86~~13730
▁verstehen~~678
▁80~~1740
▁82~~7325
▁83~~4709
▁88~~15305
▁89~~13729
▁erzeugt~~3899
▁zahlreiche~~7771
▁Frühling~~5888
▁Ausstellung~~4727
▁französische~~10068
▁experimentiere~~4095
▁beschrieben~~7384
▁experimentiert~~10685
▁Anders~~3610
▁aufregend~~4362
▁Konsens~~6737
▁gemäßigte~~19625
▁Designer~~5406
▁schmackhaft~~18851
▁beseitigen~~8484
▁Andere~~5793
▁vibrierende~~18536
ationalität~~22225
▁Geburtstag~~2767
nterrichtsstunde~~12228
▁Gegenwart~~6432
▁platziert~~4287
▁Snack~~12759
▁Diabetiker~~18769
▁umstritten~~1829
▁Projekt~~3503
▁servier~~16172
▁Profit~~7214
▁Profil~~7476
gefunden~~8096
▁Verfahren~~1830
▁SING~~22647
▁dunkler~~13113
▁stress~~24583
MPA~~19943
▁Gelatine~~18861
efährdung~~23596
▁Wasseraffen~~23168
▁Arbeitsplatz~~1449
▁Säle~~4359
▁zusehen~~6772
son~~493
▁operative~~21634
efangenendilemma~~13418
▁Antibiotika~~7937
▁BBC~~21690
▁Haut~~5485
▁entführt~~12113
▁Voyage~~9300
▁Mitra~~23424
▁verkehrt~~21696
▁Stammbaum~~11852
otter~~3146
▁sahen~~650
▁Neue~~13532
▁navigieren~~15688
▁verteilt~~1883
▁Nachmittag~~10267
▁Amunds~~14315
kohle~~11561
▁begann~~2930
▁entfernte~~13999
▁Birmingham~~23008
▁Mäuse~~7969
▁Ansatz~~3456
bedarf~~5876
▁philanthropi~~21626
Abteilung~~20377
▁Tentakel~~268
▁Gel~~13312
▁Geo~~18179
▁Gen~~1187
▁Ausweg~~15350
▁Geh~~17145
umgeformt~~15728
▁Auswei~~1743
▁CERN~~17887
▁bewerte~~8900
modell~~9508
trafen~~21001
▁Get~~17366
▁Louis~~3235
▁Ger~~8157
▁Trends~~12172
reicht~~7044
▁McKe~~16300
Person~~17815
▁McKi~~22404
reiche~~537
▁geheime~~8331
▁Selektion~~8067
▁osmanische~~20631
▁ran~~6895
▁rap~~23750
▁rat~~11576
▁rau~~13983
90~~17038
▁verschärf~~21086
hold~~24511
▁burglar~~24782
qualität~~2313
▁verkünde~~16688
▁Kilotonne~~22263
▁beliebige~~5225
▁Annäherung~~8652
▁Fokus~~2020
Bahn~~15938
▁Fax~~11453
▁Rwanda~~23182
▁taste~~24376
▁Platz~~1043
▁sprich~~10196
▁Far~~17733
▁Fal~~9081
▁Fan~~2909
▁radioaktive~~20748
▁Glaube~~12332
▁Plato~~19730
▁Fab~~2657
▁ekel~~21689
änge~~3866
▁Petrischale~~15707
▁Hauptursache~~17021
▁Crack~~14308
▁Belüftung~~21780
fehler~~8893
▁verzerrt~~3755
▁Jaipur~~16032
▁Garage~~17240
▁Verbundenheit~~19055
▁Konkurrenz~~10064
▁Luxus~~14966
▁Saul~~17780
▁Jack~~15360
▁Rückmeldung~~18743
lange~~2836
▁Konkurrent~~13425
▁atom~~22262
magnetism~~23410
▁Innenstadt~~6448
▁beginnen~~679
▁nördlich~~459
▁geometr~~24302
▁Doku~~8570
▁foundation~~24214
▁Left~~12486
▁Fett~~10816
▁Kanalisation~~17183
▁Koolhaas~~23668
DOS~~21585
▁verändernde~~13351
▁nutzlos~~13080
▁Punkte~~4645
▁Wertvolle~~23612
stimmung~~11548
▁resultiert~~16677
▁sinnlos~~11618
▁Mash~~11323
▁CT~~11860
▁CP~~20696
▁Tesla~~20719
▁Himmel~~2785
▁Würst~~21898
▁CE~~19448
▁CD~~4215
▁CA~~5897
▁CC~~19386
▁CB~~4311
▁CL~~19935
▁CO~~11648
ück~~6369
▁Cu~~18836
▁Speed~~7482
▁royal~~24109
▁Cy~~14732
▁quasi~~8625
▁Ca~~4909
▁Co~~6934
▁Ch~~4472
▁Kandidaten~~12534
▁versteh~~3130
▁gearbeitet~~4220
offizie~~6561
▁Politiker~~5980
▁schleppte~~10005
▁bestimmte~~3741
fühlst~~2497
wickelt~~14112
▁Native~~22320
▁Sperma~~22121
▁Ethiopi~~14171
▁Zettel~~3656
wickeln~~6838
▁kümmer~~1562
▁ledig~~7780
▁schätzen~~1135
▁Michelangelo~~11387
rman~~18704
▁Swimming~~21395
▁Mordrate~~20554
▁Atem~~6053
natural~~24592
sp~~7262
st~~892
so~~3429
▁Assoziation~~13673
▁geschrieben~~2327
kommt~~2181
▁Aristotel~~16481
▁befürchte~~13677
▁Wendepunkt~~7190
▁Advanc~~17067
▁Portion~~5724
▁magnet~~16386
▁absorbieren~~13040
ographic~~13905
▁Herzschmerz~~23808
▁Bedrohung~~15825
ographie~~6229
▁armen~~745
▁super~~3362
▁Charta~~12745
uadrocopter~~24796
Sitcom~~8362
▁abschaff~~13530
▁Nützliche~~9828
▁Crimin~~24259
▁Schmerz~~2494
▁Hintergrund~~771
▁Nährstoffe~~14634
Statistik~~20211
kram~~6591
square~~21461
sländer~~13692
▁Benkler~~13459
▁Baker~~4473
▁gegründet~~12218
▁hysteri~~24334
▁zügig~~6097
▁Analogie~~9496
▁Ertrinken~~8152
verfahren~~4241
▁Süden~~4908
▁ausgebildet~~12155
▁Ratte~~9642
▁gestorben~~6459
▁Jazz~~4438
▁Durchschnitt~~3557
▁bislang~~9941
Familienmitglied~~20143
▁Hüte~~20243
codier~~9309
Satellitenbilder~~6275
▁rechten~~8015
▁Metro~~16689
▁Bursche~~6460
oper~~6166
▁choice~~23766
▁intelligente~~10556
▁korrupte~~15832
▁moderate~~4509
▁Temporallappen~~9749
▁Mushroom~~18979
▁Schnell~~5442
▁Pablo~~13110
▁Carrie~~7474
▁tausende~~2300
▁tausend~~2329
▁heißen~~790
▁unpassend~~6495
▁Prioritäten~~2123
▁Adolf~~20138
▁therap~~20085
▁Energiespar~~18416
▁Baumwolle~~6844
▁existential~~24383
Köche~~18307
spora~~21738
▁spur~~22898
änze~~17416
▁Homosexu~~12262
▁prosod~~24079
chmal~~3492
▁Duft~~16061
rgestellt~~2131
▁wollen~~963
▁fr~~1484
▁verdanke~~8579
▁langsam~~1568
argument~~15792
▁underst~~22295
▁fu~~21445
▁Oslo~~21110
▁fo~~17799
▁fl~~6573
▁fe~~7147
▁gewöhnlichen~~12564
▁cubicle~~23673
▁Irish~~24435
masse~~5259
▁Vergnügen~~5401
▁Erne~~12516
▁Konzerthalle~~11757
▁Frischwasser~~15879
▁Vergü~~16887
▁life~~19751
▁territor~~5884
▁Turing~~19517
strahl~~8636
▁sun~~23175
drive~~15820
▁Kästchen~~17632
▁Verwirrung~~21692
▁Wertschöpfung~~23663
▁färbe~~11184
Systeme~~15845
utzung~~4917
▁Camp~~11175
▁eintauchen~~6178
▁related~~23532
▁überflutet~~16055
läufig~~14633
ergebnis~~15579
liberation~~24519
▁koreanische~~13052
▁hineinzu~~9482
geschlechtliche~~12102
▁veranlasst~~12715
boxetin~~24328
▁eingesch~~3712
▁brandneue~~6757
▁nachhaltig~~13699
▁irgend~~8168
▁gegenteilige~~15466
▁Impulse~~11898
▁Takaha~~24743
führt~~2710
▁Britische~~12580
▁Kapital~~6342
▁Road~~12349
▁material~~21658
▁treiben~~4905
screen~~24901
▁tiefe~~4372
▁Abgeordnete~~17456
▁bekannteste~~5200
▁Trompete~~22293
▁Zahnpasta~~14971
▁Fuller~~9183
mann~~8568
▁quer~~10658
runterfallen~~22323
▁versch~~8566
▁emit~~14268
luft~~17208
Tetris~~24085
reflex~~14411
ischen~~2195
▁Oper~~3953
▁Open~~13461
▁entsprach~~8933
▁isolieren~~13357
▁grenzenlos~~9251
▁blutige~~20773
▁Money~~23097
lektronik~~18620
▁Tyle~~11567
ive~~14242
▁Schieß~~16292
iva~~17617
▁20,000~~20321
▁scratch~~24232
kette~~14573
▁nuschel~~24584
▁Zerstörung~~14048
nachmittag~~15973
▁Grippevir~~21607
▁quiet~~24736
mont~~13338
Prozess~~18246
ntweder~~515
eopard~~22217
▁kollektive~~2894
▁Paket~~16738
▁Webcam~~17600
▁bestellt~~11656
▁gelang~~2238
steuern~~15841
▁Huh~~23857
zellen~~5653
▁Hul~~16851
▁Hum~~5351
▁Huf~~10637
▁wenigsten~~9414
know~~24189
▁Tib~~8603
▁Hux~~14425
▁Hut~~4974
▁Schädelknochen~~8723
▁besiegen~~1638
schreiten~~12208
▁Spenden~~7783
▁fame~~23570
▁Kunstprojekt~~16447
▁Brot~~9213
▁Spender~~7321
▁Bequemlichkeit~~14203
▁Hancock~~16930
▁natürlich~~424
▁tang~~24677
▁tank~~20305
▁Empfänger~~15510
▁involv~~16441
▁sammelt~~13204
▁sammeln~~5515
▁vernichtet~~6681
▁Kongo~~7756
Shari~~24899
atellitentelefon~~21941
▁global~~1767
leute~~11541
▁Macht~~2625
▁emotionale~~1418
▁powder~~24648
▁Viecher~~12766
▁Schlagzeile~~10944
▁Tinte~~16442
sucht~~11397
gereist~~3239
gewonnen~~17487
▁Abu~~18066
▁Aufgabe~~1434
suche~~16328
▁Erst~~12424
▁Rustic~~24131
▁Philosoph~~17065
issen~~2164
▁game~~22807
▁pedal~~23433
▁schlafen~~16558
▁wegzu~~8149
▁erfunden~~1825
▁kostete~~4960
huret~~17226
▁Cape~~17736
▁Vorspiel~~21168
▁zitterte~~19025
▁Tempo~~4510
[...]
