▁convenience~~6846
erium~~14389
▁component~~2329
▁Damasio~~14536
Uni~~14243
▁Pal~~9288
▁current~~3453
▁Fleisch~~14235
four~~8504
▁Machiavelli~~14075
▁Gould~~14842
ruct~~13546
▁Entrepreneur~~13727
▁boxes~~1774
▁currenc~~8406
centimeter~~7365
communica~~10238
▁Stonewall~~16482
educ~~8812
▁counteract~~7271
ndustry~~14327
ryptophan~~16086
▁Talk~~13
▁Mouse~~5500
▁recreat~~12272
▁laptop~~997
gab~~12950
▁Fide~~10062
▁proof~~2876
xte~~15423
▁contract~~9452
▁Glenn~~11137
lord~~6991
▁meet~~1253
▁spell~~6965
▁construction~~7744
digit~~12361
▁Hominid~~10720
▁cells~~1853
▁carry~~3611
▁Gandhi~~2281
▁cell~~5477
▁inscription~~14792
delt~~12769
▁megabyte~~15862
ltar~~8474
▁cello~~2856
▁ruling~~8256
▁theater~~1111
▁improvis~~12321
▁ultraviolet~~8644
▁broc~~9632
▁Navy~~10089
▁solicit~~13119
akash~~12056
▁Patrick~~13882
▁Dyson~~12732
▁orient~~8613
▁affluen~~11681
onie~~15275
oooo~~14372
▁Rodrig~~10212
▁radiologist~~7282
▁thought~~1225
▁cherry~~12560
▁background~~1415
▁Million~~2067
▁Victoria~~10760
acula~~8677
▁cryptic~~12719
▁agency~~7513
▁consider~~645
▁Missou~~9886
▁sympath~~8980
▁settl~~7144
▁Madoff~~15503
pulse~~14925
▁Fusion~~12055
second~~6828
▁Silv~~16127
49~~15254
▁maximal~~14302
▁stereo~~7321
▁detector~~7334
▁humpback~~14275
Dog~~14018
▁controvers~~9530
▁blam~~10469
▁Pot~~7076
▁Galactic~~10317
▁grabb~~5583
▁Pop~~9625
▁tape~~7341
▁retool~~14396
▁fleet~~5768
▁fake~~3249
▁Pol~~11619
▁Pon~~10497
▁Brei~~16336
▁Extra~~14937
ronze~~9546
ated~~934
▁There~~4416
▁dem~~8107
daho~~9948
▁Fransisco~~7601
▁possible~~1340
▁Darwin~~8661
reported~~7740
laden~~15955
▁Nairobi~~8889
▁designer~~3268
▁Rep~~14395
▁enact~~14270
▁archaeolog~~6196
▁Depression~~3363
,500~~6558
▁artifact~~1553
▁starch~~8684
▁optimist~~9865
k~~907
▁exponentially~~7521
▁Georgie~~16204
▁Ring~~13974
▁240~~11672
▁Automat~~13521
▁Lange~~61
▁Chim~~8164
▁Laden~~13027
▁influen~~1964
▁Galvao~~16181
▁MA~~13591
▁hear~~312
▁heat~~4074
▁pounds~~510
▁Nick~~6032
▁blonde~~15097
▁pric~~10040
▁Radio~~7380
▁Brent~~11347
▁manner~~2171
uniz~~10836
▁ubiquitous~~7320
▁occurrence~~8811
▁head~~330
stern~~11925
▁Hitchcock~~8525
▁heal~~4881
▁regular~~7205
unit~~9258
▁Airline~~11761
▁500,000~~4396
▁Cowboy~~16556
▁Tipp~~12730
▁Kaiser~~15973
▁swam~~5573
<s>~~2
einiger~~16366
▁Bill~~60
▁intelligent~~1617
▁Wikileak~~15358
▁person~~1895
▁Custom~~10284
▁neurological~~9143
▁Chip~~9550
▁Testament~~8497
▁corners~~4430
zema~~10001
▁ambition~~2309
▁Happy~~12494
▁confident~~5491
▁miniaturiz~~8629
▁modest~~3051
98~~7761
holm~~4134
▁Pac~~13574
91~~2364
▁wonder~~501
hole~~3772
hold~~3541
95~~13659
▁stack~~1296
▁prevent~~4111
▁conceive~~3843
▁Pink~~12683
▁helpless~~5796
▁Regen~~15715
EDI~~10559
lves~~7189
▁existence~~8029
▁indicat~~8534
▁measurabl~~1669
▁dude~~3281
impose~~2280
▁year~~718
wand~~10872
▁claim~~4155
▁Philharmoni~~12796
▁Mash~~7631
▁Regina~~15279
▁Schafe~~13274
▁beating~~4357
▁darling~~10970
▁copulat~~13413
▁producer~~5069
▁Mast~~15834
▁Ideo~~15819
Biafra~~14266
▁caterpillar~~7497
▁disable~~9922
▁undesir~~11013
motion~~8775
▁advoca~~7814
▁systems~~1297
▁blurr~~6094
LC~~8422
LA~~5617
▁Haiti~~7908
LL~~7607
▁Advanc~~9671
machine~~13227
how~~1001
hou~~9169
augen~~16475
hop~~3179
place~~4147
▁paleontologist~~10146
A~~3402
▁own~~1210
▁tough~~762
▁owl~~4795
▁Kobe~~7883
▁owe~~5862
▁nanoscale~~9441
▁TEDMED~~10228
▁Seren~~15129
▁Steven~~6258
▁MacArthur~~7411
▁Lem~~10671
▁Kelly~~8915
▁neutron~~14390
▁world~~174
▁woman~~919
▁FACS~~16023
▁mentor~~3012
▁Somerset~~10940
aving~~5707
▁thermodynamic~~15245
▁suborbital~~16087
▁guards~~6424
▁Situation~~16375
▁Cind~~7040
▁Ebene~~3745
▁Ricard~~9790
kiloton~~14560
▁Mendel~~14960
▁gun~~10025
▁strap~~4538
wind~~7148
▁surface~~514
blind~~11101
▁polite~~11232
▁protest~~7763
▁Acht~~16439
▁want~~167
▁Poor~~8178
▁limitless~~5837
▁wann~~13926
▁matters~~1425
vara~~9198
▁movie~~1914
▁Kor~~15897
▁slipp~~7786
▁Higgs~~14831
▁stimulation~~9083
▁Musta~~14458
▁hunger~~4958
▁profit~~1152
▁episode~~8285
▁instantly~~5659
▁bake~~8443
▁emphasi~~5074
▁Hour~~9711
▁Hous~~13198
▁crucial~~8069
fin~~13251
▁participate~~2410
▁antibod~~9842
▁computer~~378
▁valu~~883
▁Comic~~16438
▁proceed~~5763
▁validat~~14325
▁John~~4594
▁Rhode~~7276
similar~~13599
▁hesitation~~4853
▁Ley~~8232
▁Ahmed~~9336
▁symbio~~8654
tenance~~6645
▁deluge~~12861
▁Lev~~15388
▁objection~~12807
▁astronom~~11253
interrupt~~2009
▁consequent~~8067
▁Ariel~~2533
▁stretch~~3035
▁eel~~4128
▁Securit~~9367
▁Junior~~15636
▁fires~~6377
▁property~~4515
▁Wurzel~~15736
▁Kentucky~~10320
▁nation~~5213
▁celebration~~7621
▁properti~~10108
▁Kon~~15808
▁Lob~~14753
kl~~14915
▁regnet~~12774
▁lesson~~1439
▁Dor~~8679
▁Bolin~~14691
▁Brook~~9850
▁plumb~~716
▁br~~4589
▁democratic~~11392
▁final~~1046
onica~~11309
▁by~~27
▁emotions~~1087
▁proactive~~13246
▁downtown~~7072
▁be~~222
▁Regel~~16168
▁ba~~4208
▁joystick~~376
▁bo~~8125
▁harvest~~610
▁Mongol~~6950
▁bi~~1891
ru~~3396
▁cross~~6126
▁metastasi~~15527
OL~~12103
▁explode~~2597
▁weeks~~823
tadore~~16497
▁10.~~15219
ry~~3255
▁invest~~1472
cooter~~8886
re~~66
Python~~15035
ra~~307
▁funnel~~8566
▁Economi~~825
ro~~1911
ri~~966
▁Church~~8224
▁curious~~2153
▁transcend~~5823
▁decade~~1539
▁exhibition~~3827
▁Hugh~~15695
wesome~~15440
▁Myco~~16229
▁unchang~~9606
knit~~9962
▁crucifi~~12381
crony~~12753
ate~~1370
ata~~11645
▁Peace~~8328
▁Russell~~11487
ath~~3502
▁aphorism~~12111
▁vocaliz~~14927
upp~~7073
▁wealthie~~7523
▁Coca~~9380
▁initial~~2630
▁subtle~~10835
▁sucked~~5699
▁patient~~1893
▁lever~~978
▁creed~~4679
▁institutionaliz~~9345
▁choreograph~~9189
vitro~~14193
▁relativ~~11482
wash~~4008
▁description~~2315
▁Mann~~10473
▁level~~1232
▁photovoltaic~~11843
▁traits~~1021
▁creep~~8755
▁Cait~~16348
▁stomach~~3478
olds~~1305
basketball~~3182
xploration~~941
service~~15139
▁scroll~~6237
▁plantation~~11056
▁NSA~~10426
▁activist~~6773
master~~4542
▁primate~~7236
▁vine~~6396
flection~~14380
▁satisfy~~8384
▁1930~~9312
genesis~~504
▁Fischer~~6662
▁trends~~8154
▁ecologist~~10522
▁abbreviat~~8390
▁Hoover~~15256
▁Schwarz~~14743
▁keys~~3117
▁frame~~1616
▁mosque~~8198
▁Robin~~9741
▁move~~719
▁prevail~~5352
▁Jack~~10143
▁repulsive~~12307
▁condense~~11608
Code~~12857
▁free~~2780
▁milieu~~14799
▁contempt~~13828
tree~~9575
project~~6904
▁masse~~2864
▁Powell~~12153
▁determine~~6760
friend~~7499
▁librarian~~12475
▁HIV~~5302
tion~~1062
▁truth~~86
▁biomedic~~7346
▁distill~~10596
▁hardware~~2574
▁cobra~~16017
runner~~5105
▁miserabl~~15502
▁constituenc~~9357
▁Fellow~~8627
▁democrac~~8908
▁Deep~~7663
▁wreck~~11907
▁Lolli~~16205
▁constituent~~11514
▁ingenious~~6361
dozen~~7711
▁Mind~~14804
▁Mine~~9109
▁strategy~~5400
▁Mini~~6906
phase~~15691
uark~~15788
▁dough~~12562
▁celebrit~~14151
▁SAMS~~16547
▁distinct~~6448
▁6,000~~8405
▁strategi~~5496
▁details~~2894
Bank~~15703
▁threaten~~5660
▁charming~~9829
▁glider~~14349
▁Getty~~4597
▁north~~400
▁resilien~~54
▁Majest~~15285
▁eradicate~~1243
▁pixel~~6035
mouth~~4871
▁Intelligent~~12999
letter~~13973
▁robb~~10613
▁away~~602
▁decorat~~6174
▁sketch~~6924
zel~~13660
▁Samantha~~15497
▁supermarket~~7155
▁Por~~10919
▁Burn~~11342
▁Burm~~8998
▁Burk~~15493
▁colon~~11303
▁empirical~~11045
tech~~3846
▁inventions~~3637
▁legitimate~~4665
▁nonlinear~~15676
came~~2096
▁wipe~~723
Marke~~14642
bomb~~10010
reactor~~12244
▁Nintendo~~9726
▁garage~~11311
▁cyborg~~13715
liest~~14676
▁methodolog~~12226
▁enslav~~15707
▁hello~~3001
lethal~~15554
▁Academ~~10235
▁Drink~~16456
▁giant~~313
▁wristwatch~~14057
▁contraction~~13418
▁testosterone~~6716
ment~~1280
▁Vampir~~16119
▁coverage~~7294
▁Lakota~~15687
than~~6609
▁inflict~~8705
▁103~~13894
▁bully~~9942
▁Angela~~10782
rich~~455
rice~~8250
▁chromosome~~5479
▁pharmac~~5323
▁undern~~5555
plate~~10130
Account~~14658
motivat~~6652
wide~~4068
▁evident~~5398
▁communicat~~281
▁Piano~~16327
▁Propaganda~~13122
▁Brem~~12888
▁gathering~~1723
▁Album~~11933
▁warrior~~8031
▁innocent~~3972
X~~274
▁Every~~2261
▁criminal~~986
Prize~~15904
▁film~~1913
▁fill~~2495
▁batter~~16146
▁spaces~~2500
▁wrap~~3950
▁Scan~~14476
▁direction~~1542
asis~~6387
▁prick~~13907
▁micro~~305
▁sunbath~~13270
▁Senate~~6736
▁Dome~~4179
▁drugs~~4015
tomie~~10022
▁incident~~5677
▁success~~1275
blew~~6588
▁schmi~~15932
▁adaptive~~3230
▁mysterious~~4832
cles~~242
▁Behind~~2704
Mart~~13881
etic~~10365
▁Easy~~10920
▁coincident~~12723
centric~~8598
▁Oregon~~6418
▁prevalence~~5312
▁archaic~~5633
▁older~~2081
▁organism~~5403
▁relate~~5838
▁Tyrannosaur~~10160
▁spott~~6419
▁handshak~~4649
▁autonomous~~12836
▁biotech~~5507
▁pigmentation~~16354
figur~~2769
▁eventually~~415
▁place~~654
▁Hamburg~~13083
Tri~~12990
▁barbaria~~12409
ire~~3022
▁African~~3196
▁apprentice~~12009
▁worse~~905
▁earning~~12533
▁Bolivia~~15066
cut~~4859
▁Ideal~~15228
▁Madonna~~6201
carbon~~6729
▁worst~~822
affe~~12518
mmonia~~7535
▁Potter~~12139
ë~~15007
ekhar~~11739
▁supermassive~~14741
▁Bernard~~15336
▁tempt~~2605
▁Villa~~14810
▁volatil~~4992
▁Ville~~15036
▁dein~~14415
dorf~~14364
▁MRI~~1857
▁ca~~5153
pite~~726
esis~~12943
▁Ferris~~13738
▁anniversar~~11100
▁subtract~~11466
▁Stand~~13818
▁SUV~~7664
▁pajama~~8058
▁practic~~11157
▁SUN~~7226
▁genital~~6695
▁lawn~~10942
▁clone~~6978
▁grade~~4661
▁Pav~~11365
▁Block~~3887
▁Pat~~3354
▁external~~8300
▁fair~~3136
▁choir~~6254
.~~496
▁Pan~~12322
▁jazz~~3150
▁fail~~4623
▁Pam~~12436
▁shove~~7944
romegal~~14510
è~~15777
▁finish~~1213
▁welcome~~5266
life~~2653
▁tooth~~4167
pri~~1267
▁Kick~~16000
▁merg~~9883
▁Mellon~~2680
lift~~6409
child~~11031
rgis~~12281
▁rebel~~11307
▁abrupt~~10482
spil~~15784
▁tinker~~9733
▁magnify~~13781
overty~~12190
▁enshrin~~12530
▁defecat~~9415
ada~~11133
▁Erik~~11596
▁depth~~50
inch~~13023
▁bubbl~~10812
▁President~~7843
▁lavish~~12291
▁semantic~~14815
▁marginal~~1177
▁poacher~~14789
▁viewer~~9728
▁Northern~~4129
▁Wer~~12586
▁PBS~~12031
▁relegate~~12835
▁Fraser~~16134
▁contemplat~~9461
desto~~15878
▁agitat~~5383
▁heck~~9140
▁Was~~7037
▁War~~2770
▁Wat~~11286
Mail~~16188
▁paddle~~2509
▁Turkmenistan~~15363
hwaite~~15310
▁flour~~14215
llows~~15313
eligi~~12971
▁parochial~~14618
credit~~9108
▁horrific~~4342
▁4000~~13876
pulsion~~5884
▁stor~~4073
▁stop~~1079
oleum~~11639
▁Aff~~14162
▁narrative~~1916
▁Tide~~16394
anz~~15181
▁Explosion~~15863
▁Paralympic~~14666
▁physical~~2790
hospita~~12312
▁position~~4566
electrifie~~13022
pocalyp~~14166
▁offering~~4508
▁closing~~6379
▁unprepared~~4883
▁transistor~~11735
▁Biolog~~14218
▁shipyard~~15401
▁knuckle~~4645
▁Penn~~7581
▁Islamic~~7898
geist~~8872
▁always~~1239
tung~~13922
▁Kelle~~14712
▁motion~~3031
▁school~~260
▁stripe~~15130
▁difficult~~586
▁advert~~12523
▁cave~~1942
▁waitress~~15779
▁chase~~3884
▁Disease~~10307
▁fundrais~~7889
▁Olymp~~8863
▁Baobab~~15732
▁landmass~~9233
▁8.~~11580
▁surreal~~11821
▁advanc~~13493
▁hyp~~6624
quarium~~13159
▁Chinese~~3299
▁85~~9276
▁86~~9126
▁87~~1390
▁80~~2422
▁82~~5015
▁83~~7364
▁Maus~~16013
▁88~~10114
ctic~~7391
witzer~~6890
▁las~~15669
trong~~4320
▁Transport~~13252
hak~~12406
▁Power~~2932
ham~~3668
han~~6042
kon~~15793
▁heavi~~9597
▁visi~~6471
▁libert~~10289
▁phase~~6360
▁mappe~~412
▁Nice~~12816
har~~4401
hat~~7024
hau~~15876
hav~~13930
▁foolish~~15478
istan~~9304
▁cardiologist~~15281
▁Julia~~9622
▁Julie~~14227
▁guideline~~4459
▁age~~1077
▁prehistor~~10745
birth~~6710
▁ago~~824
▁campus~~8538
▁nest~~3464
▁atheism~~16411
▁SING~~14828
▁research~~1650
▁Second~~10922
▁priest~~7727
▁Mop~~14929
gado~~13190
▁yogurt~~9646
▁Russ~~13332
▁adjective~~15477
▁Anders~~15188
▁recall~~2631
▁traumatiz~~13938
▁crochet~~3515
▁pace~~5162
▁Designer~~3886
▁shuffl~~15319
ardino~~15760
ction~~6407
▁recursive~~15558
▁household~~6305
▁pack~~450
▁preferabl~~12118
ola~~3859
right~~1103
old~~899
▁boss~~983
▁Mental~~15364
▁jurisdiction~~4144
olo~~15398
▁eating~~3142
▁Joa~~13821
▁Giacometti~~12717
▁Aquarium~~3508
▁dying~~3480
animate~~5392
▁meritocra~~15338
▁German~~1497
▁prince~~5961
ä~~16108
▁Rouge~~13879
▁Snack~~15896
for~~5618
bottom~~11779
▁just~~551
▁board~~1814
▁sociologist~~8914
▁Confuci~~11701
▁bait~~5919
▁quantit~~4980
▁Antoni~~14428
▁Head~~3077
▁opinion~~2152
▁chance~~1417
mpact~~14351
▁suffer~~7914
▁mystic~~12222
energy~~10700
ommissar~~16595
▁Borg~~14934
▁Profit~~14734
ymposium~~15135
▁anesthesi~~11296
▁fixed~~6578
▁practical~~3218
▁vault~~7080
▁Profil~~9532
heikh~~15286
batsch~~15389
▁fingerprint~~8844
▁Swap~~15137
▁Verfahren~~16159
Think~~16045
▁disease~~2909
▁peripheral~~8933
▁plankton~~3522
▁Swami~~14299
▁lifetime~~4776
MPA~~12998
▁unbearabl~~8209
▁response~~4012
▁possibilit~~1845
▁coincidence~~6778
o~~767
mässig~~16169
▁biolog~~5451
▁Cosmi~~15309
▁learner~~7815
▁creator~~7630
▁possibl~~5930
▁Wein~~12677
ncyclopedia~~13742
▁offshor~~13286
▁consum~~6713
▁aircraft~~1793
▁Gedanken~~15372
mba~~6665
son~~419
▁exaggerat~~11945
▁Pu~~8853
parna~~14515
▁jealous~~4724
▁doorstep~~12910
▁legitim~~14462
▁apparent~~3720
▁mesmeriz~~11291
support~~9469
▁Neptun~~11742
▁Marc~~10468
tzen~~15274
▁Moi~~15616
Ashbur~~14966
▁BBC~~14152
spring~~12076
▁revise~~12741
▁palette~~12917
▁function~~1863
▁correspondence~~6057
▁handout~~8781
cumen~~13468
▁Voyage~~6352
▁deadlie~~6541
▁publication~~10305
▁romanticize~~12350
▁sequence~~5420
shoot~~12017
▁mobiliz~~8245
▁Kelvin~~13607
▁FILMCLUB~~1929
▁Mitra~~15432
▁Genen~~15474
▁Special~~13570
▁Zinta~~15596
▁String~~8124
▁abnormal~~9076
▁Harris~~6664
▁subject~~1818
▁swap~~10224
▁sector~~5062
▁Metric~~8822
▁wall~~2271
▁Espe~~9784
uer~~12614
▁walk~~1104
▁sympathetic~~5349
krieg~~15006
▁was~~463
▁war~~2743
ewage~~13437
▁Magritte~~14702
▁wav~~11016
▁ceiling~~3869
▁wax~~2473
▁Amunds~~9479
rserk~~4394
<unk>~~1
ugoslav~~8217
▁technological~~3041
▁Grill~~9541
▁ancestor~~3593
▁glamour~~15041
▁safari~~12626
▁inconvenience~~12710
▁Athen~~11833
feld~~11511
▁upper~~1427
▁roommate~~13633
▁Sculpey~~9502
▁embass~~14190
▁Birmingham~~15092
▁PC~~9561
▁crumbl~~11306
▁prett~~1051
▁Glas~~14697
▁Jong~~12883
▁octave~~4548
ommen~~14634
dipus~~15828
▁socket~~14323
▁Summi~~13761
monoxid~~14418
▁philanthropy~~4749
cortex~~1090
▁Gel~~11262
▁Geo~~11198
▁Gen~~4626
E~~1762
▁Geh~~15246
▁meaningless~~6345
▁belonging~~3779
▁listen~~747
▁CERN~~11720
▁robust~~5411
▁tweet~~5596
▁massive~~1687
▁Par~~6033
▁crystal~~5636
▁Get~~4556
▁Louis~~2399
▁sufficient~~4222
▁penguin~~7102
▁murderer~~10434
▁Ger~~8877
▁coward~~4903
99~~11866
▁McKe~~10753
▁divers~~10068
▁leopard~~12123
▁sentien~~9673
▁elementary~~8286
▁wetland~~6420
time~~2105
▁tacti~~13002
lium~~11733
▁squint~~9718
▁Clay~~12467
▁Lex~~10081
▁proposition~~5071
▁Clar~~9617
▁Gabriel~~2851
people~~12024
▁Clau~~15831
▁ran~~1994
▁gallon~~6804
▁rap~~7438
osh~~12296
▁approache~~4384
▁rat~~6569
▁rau~~14910
▁raw~~3766
osa~~10388
▁ray~~7338
ose~~11876
midst~~11768
▁Thre~~6577
▁candidate~~8563
▁Cleve~~11341
92~~8773
ver~~2439
▁history~~734
▁burglar~~5901
▁interpret~~7300
▁Christopher~~1829
▁avert~~4231
▁license~~4814
▁majest~~11740
▁notebook~~5675
▁fund~~2582
▁dawn~~4613
▁cigarette~~3483
▁funk~~11009
▁Australia~~4841
▁Wheel~~14881
pei~~16099
▁Best~~10552
▁comedy~~10539
▁Los~~5609
▁Rwanda~~2112
▁taste~~7159
▁Low~~6332
▁Fat~~9360
▁bound~~3639
▁unusual~~2896
▁delivery~~9403
erala~~9399
▁Fal~~6199
▁Fan~~7262
▁roll~~4392
▁Log~~12752
▁sapien~~7950
▁Kyl~~15457
▁role~~3995
▁Kyi~~9002
▁Plato~~7684
minute~~2454
▁monsoon~~10593
▁jettison~~15122
mahl~~13935
▁conjecture~~14388
▁cortic~~13550
▁homophob~~11452
▁slug~~13783
▁Absolute~~10848
▁Lamanite~~16426
▁contain~~3528
team~~7616
▁lag~~11204
▁Richard~~7415
▁enlighten~~6984
▁relay~~10386
▁relax~~5118
▁increase~~1131
▁modeling~~7030
▁peril~~12401
constru~~8070
▁dexter~~10198
▁breadth~~14022
▁Treasur~~13272
▁relat~~11156
ermaid~~12471
▁Ed~~3254
▁Lynch~~15486
▁handwrit~~5674
educate~~1466
▁Pandora~~8544
▁Jaipur~~10594
▁Valdez~~13248
▁matche~~8005
▁recurren~~14196
▁glorifi~~14980
▁Garage~~16211
▁ride~~4469
extraterrestrial~~5614
▁protected~~3693
▁excerpt~~7413
▁gateway~~7069
▁dragon~~9507
Me~~12989
▁point~~1871
▁substrate~~14587
▁El~~740
jury~~5180
▁Benjam~~11125
▁bone~~5965
Mo~~7025
▁compensat~~13397
lange~~2990
▁Revolution~~970
▁monarch~~11210
▁catalog~~5606
▁twentie~~8834
magnetism~~11417
▁dreadful~~8279
▁smoke~~5110
▁cheat~~2539
▁Solomon~~15914
▁Protest~~14669
militar~~8264
▁barbed~~13331
▁infinit~~11520
▁photographer~~4097
MA~~6564
▁mismatch~~10958
▁kiosk~~9562
▁know~~804
MM~~16472
ML~~4161
▁geometr~~3881
▁inadvertent~~886
MI~~14838
ourself~~9656
▁none~~3626
MT~~13294
▁fire~~1227
▁barber~~9891
▁ourselves~~868
▁Left~~2703
▁firm~~4900
▁Performance~~8579
▁ACE~~3951
▁leave~~1192
▁suggest~~1932
▁cooperate~~8512
▁activation~~1872
▁Knee~~15697
▁Ep~~14155
▁Global~~8151
▁wheat~~8903
▁Spider~~14272
▁differ~~5415
▁purpose~~367
▁Koolhaas~~15602
DOS~~14084
▁Baseball~~16403
▁los~~16523
▁lot~~658
working~~6975
▁low~~2627
positive~~9122
La~~10039
by~~5905
▁loa~~11043
freude~~15679
▁obscur~~14033
▁inevitabl~~3339
▁Domin~~7910
▁log~~8752
▁quick~~1146
▁mean~~794
▁potter~~9323
▁meal~~3572
▁CT~~7962
▁catapult~~13883
▁Peer~~12853
▁Nazi~~2238
ankees~~12431
▁Nah~~16388
▁Himmel~~14423
enhanc~~13766
▁CE~~12688
▁CD~~3011
visual~~12847
▁CA~~5521
▁CC~~4160
▁CB~~3067
▁CL~~12988
▁Laura~~6284
▁meetings~~6426
▁diverge~~3172
▁EB~~10395
▁Cu~~11174
▁approach~~2552
▁Savage~~9490
▁sift~~8848
▁Tom~~2273
▁royal~~1838
▁embryo~~5524
orthogonal~~14130
▁Tod~~2824
▁Mass~~12919
▁discard~~8552
▁quasi~~13748
▁improvisation~~12330
▁Mexican~~6263
▁Ca~~390
skrit~~9187
▁Top~~12856
▁pronunciation~~13183
▁Co~~4759
▁Ch~~3168
▁Motion~~15025
▁ivory~~13529
Monkey~~13694
▁442~~16535
▁instabil~~5552
▁Faiza~~16564
▁basement~~4105
▁discretion~~13563
▁Emmanuel~~14271
▁cascade~~15539
▁bark~~9777
winter~~14480
▁shopp~~1579
▁graft~~7465
▁Serbia~~8211
▁sequenc~~4269
▁Brit~~2143
▁bare~~2193
▁computation~~10138
▁signature~~643
▁tale~~859
▁exchang~~10923
▁worthless~~8407
▁Brin~~5936
▁bars~~3177
▁barr~~7878
▁devise~~3875
▁tall~~657
▁talk~~684
▁social~~809
▁overheat~~13153
▁Zander~~15031
▁Prussia~~11797
▁bracelet~~12491
hog~~10766
▁drama~~2256
▁gibbon~~9236
▁Texas~~8358
nik~~14175
▁Michelangelo~~7668
▁deliberate~~3751
atar~~11828
▁resembl~~10107
data~~11900
rgon~~7824
hoc~~12516
▁Swimming~~15224
stress~~11172
▁till~~597
▁style~~7045
conscious~~14719
▁tile~~5654
sp~~5429
▁neutrino~~12311
▁Sebastian~~11136
st~~607
▁remorse~~4513
▁WikiLeaks~~14598
so~~1395
▁interrogate~~8140
▁Laureate~~11752
▁tilt~~2058
▁generate~~652
▁sleeve~~3967
▁terror~~10460
▁paradi~~13163
tification~~5050
▁hoop~~11193
▁Aristotel~~15413
▁razor~~7429
▁FEMA~~14558
course~~8128
▁hook~~4200
▁viewing~~2038
tta~~10474
▁Hase~~16587
▁comedian~~5598
▁Ort~~14946
▁Jasmin~~16389
▁load~~4549
ographic~~9227
▁stir~~11077
▁conform~~14921
▁tribal~~8555
▁masterpiece~~6169
▁Meetings~~16330
▁forget~~293
▁attack~~1851
▁Ada~~10095
▁attach~~5645
▁boil~~561
eolith~~9289
▁Argentin~~12877
▁prejudice~~8206
▁screening~~1995
▁antenna~~6188
▁super~~2279
▁inertia~~13776
iuk~~12973
▁impostor~~15643
▁Report~~13644
▁suspend~~9431
▁marsh~~8026
▁artwork~~11419
uadrocopter~~16515
▁Adichie~~8165
▁criticize~~1373
Gordon~~8969
▁knees~~11767
▁Crimin~~15581
\~~15871
▁submarine~~28
▁Cent~~8685
▁cats~~9044
▁abdomen~~12986
▁crave~~13228
▁Pants~~10540
▁inoculat~~11389
▁Howard~~2285
▁tiger~~5945
▁distance~~647
▁Bein~~16379
▁glacier~~739
▁Nar~~11955
▁scaffold~~7246
viation~~9465
▁indulgence~~12430
quarter~~9549
▁solar~~6349
▁Stage~~8574
kram~~15525
square~~11164
▁Religion~~16414
▁Carl~~4037
▁Carm~~13212
▁Benkler~~8938
▁Baker~~3169
▁shatter~~6849
▁template~~7479
▁bucks~~3505
organic~~10810
▁confine~~5698
▁devotion~~7091
▁urine~~6780
▁Monopol~~13943
▁Orthodox~~13118
▁direct~~1359
▁trade~~3627
▁vigil~~11497
▁thrust~~252
▁Vivian~~16069
▁seduce~~9069
▁instinct~~5800
▁emergent~~11852
▁critique~~11921
ble~~3704
bla~~5807
▁invit~~3812
▁hedoni~~14128
▁Gardner~~9696
▁some~~33
▁shepherd~~8494
▁Morgan~~14356
▁container~~7920
▁Faul~~15056
▁collapse~~1867
▁summar~~1269
quite~~2198
▁Kong~~9816
▁Ituri~~14790
▁Luca~~3456
▁foam~~5842
▁Lyndon~~12393
▁medium~~3184
▁Universi~~12607
hamed~~9803
▁Stell~~16034
Z~~6225
▁phosphorus~~13138
▁remain~~5430
▁Proton~~11814
▁Amsterdam~~14398
▁forth~~4003
▁Jewish~~8465
▁injur~~5999
▁Metro~~11004
oper~~3337
▁internet~~5710
▁twinkl~~11460
saving~~5123
▁staple~~5293
▁lightning~~12758
▁choice~~1576
ona~~13639
ong~~2531
▁Paol~~12871
one~~1316
▁moderate~~5427
▁Mushroom~~12373
▁Schnell~~16585
▁faint~~7358
▁persuasion~~14006
city~~10475
▁Carrie~~5092
▁Authenti~~15667
▁outward~~1639
▁boat~~2183
▁330~~7861
▁destination~~9859
▁Asa~~7891
▁PNA~~11918
2~~6273
typing~~3308
▁stifle~~14118
▁distress~~8237
▁behavior~~1590
▁therap~~4021
▁Prince~~2852
▁Ahmad~~9350
▁Ninja~~15635
▁confront~~4076
▁equi~~7819
▁Gius~~7555
▁existential~~10461
proving~~13629
▁Raja~~12086
▁Stop~~751
▁Treo~~15536
▁trouble~~1349
forward~~5089
▁Rumi~~13449
spora~~12066
▁tendenc~~8412
▁psychology~~8082
▁service~~1151
▁spur~~9147
▁relief~~2728
▁antibiotic~~5426
▁facult~~6100
▁appearance~~5911
▁interrupt~~9081
▁yield~~7608
▁Solly~~12630
▁correlation~~1047
▁Football~~15836
▁TEDster~~6537
sagen~~14360
▁congress~~4287
▁wider~~5879
▁Island~~4465
▁halt~~6177
▁OPEC~~13167
wandering~~10869
▁Bern~~14978
▁decompos~~10297
sai~~8499
emen~~14620
▁unimaginabl~~6438
sam~~3405
▁fr~~3123
▁semiconductor~~7340
▁mitigate~~13951
▁fu~~10182
▁Transfer~~16406
▁fo~~3585
▁fl~~10408
▁evaluat~~12968
vig~~11492
borough~~7090
saw~~5783
▁wrinkle~~15257
▁complicated~~3983
▁fe~~6720
▁biomimic~~14592
▁makers~~1828
▁voyage~~196
▁cubicle~~12882
▁Irish~~13671
▁Suga~~14806
iscipline~~14703
note~~5463
taka~~14727
▁demonstrate~~1833
take~~6554
rechtlich~~16161
▁crater~~14223
▁Erne~~12399
▁spectrogra~~13604
▁dragline~~15916
▁printed~~6993
▁reimagin~~10058
▁Violet~~14216
▁Jesse~~14060
▁life~~7
▁evacuat~~7912
▁dispute~~12348
▁dentist~~10021
▁territor~~4153
▁cavit~~15974
▁Turing~~12738
▁hills~~10154
▁lift~~4476
▁Count~~9521
▁Pixar~~14714
▁Technologie~~13291
▁conventional~~5152
▁entire~~1609
montage~~8827
▁extrinsi~~13843
phil~~2888
drive~~6121
▁flesh~~10236
▁blogs~~8769
jacke~~9975
▁straw~~10907
▁complian~~1634
♪~~10699
▁walls~~2968
▁airline~~13206
▁becom~~4782
stimulator~~9913
▁syndrome~~9036
▁robber~~2197
▁Kiki~~14229
▁tun~~4212
▁Wright~~12834
▁Camp~~6560
▁related~~6168
▁tut~~2149
▁embed~~11284
▁twin~~7440
▁Edinburgh~~14259
▁1950~~4259
▁seatbelt~~13984
▁region~~432
otic~~11561
legation~~7573
▁mortality~~7387
▁more~~1033
otid~~9261
▁contribut~~3493
▁owner~~3265
▁extrasolar~~13605
▁crossing~~5370
▁printer~~12197
liberation~~11951
▁EEG~~13551
▁checklist~~9967
▁Hass~~14371
▁formula~~6732
▁dogs~~7140
▁Bulgaria~~768
▁Garret~~8927
▁ferocious~~6590
touch~~11941
▁Mul~~14004
▁Just~~4461
▁Sleep~~6275
▁cornerstone~~12501
▁evidence~~1931
▁beaver~~10520
▁teme~~16037
▁specialist~~4837
▁sister~~2201
▁Mur~~4686
▁Dinosaur~~14468
platte~~15264
▁Niagara~~7706
▁wavelength~~7171
prime~~9012
▁Sherw~~15926
boxetin~~16105
▁gorilla~~9232
▁onto~~2004
▁Live~~6250
▁envelop~~14222
▁addition~~5963
▁incremental~~5414
▁frag~~15549
▁conserve~~9934
▁transport~~3587
▁nuclear~~6526
▁fram~~12468
where~~461
vision~~8098
▁costs~~1476
▁minimal~~6466
verything~~10840
▁stimul~~4013
▁Japanese~~1594
▁government~~1510
▁wetsuit~~16469
▁timeline~~8888
▁collective~~2145
▁rupture~~6853
▁650~~3790
อร~~5955
อย~~5957
▁Impulse~~16186
▁Google~~2391
▁collaborate~~2868
▁Takaha~~16477
▁regenerative~~12240
▁Atom~~9444
ff~~7115
decke~~9213
▁seventh~~4755
▁metabolism~~5388
▁Road~~11072
▁gloom~~4096
▁material~~490
▁Rawl~~15759
▁adequate~~11294
▁full~~1767
▁Jess~~14145
▁Liz~~13716
fight~~4673
▁homogene~~1554
▁Geld~~15084
▁supplie~~4691
▁Lis~~2126
▁Isabel~~7052
▁significan~~7936
▁mantis~~14283
▁Liu~~16431
▁cliche~~12380
▁reintegrat~~12162
▁Lin~~5867
▁Lil~~8941
▁arise~~5373
▁Lib~~8887
▁contaminant~~3391
▁Jorge~~14339
▁alpha~~9841
▁mush~~15151
▁Honor~~2645
▁Lockheed~~13200
▁ruthless~~12236
▁donor~~5011
▁frown~~9677
millionaire~~12554
personal~~11605
s~~24
paleoanthropolog~~7924
▁NFL~~13896
▁recession~~10028
▁Fuller~~6280
▁Geographic~~6550
expression~~889
▁circus~~14089
▁videotape~~10544
hormon~~15484
▁quer~~5968
▁AAA~~13941
▁Ray~~10083
▁citizen~~10269
▁masculin~~13856
effective~~10687
Team~~16031
▁ink~~10830
ants~~9062
,~~5561
▁reasonably~~12498
▁Tradition~~15225
anti~~4715
isse~~10009
▁Norden~~15737
▁technologies~~1379
▁crude~~2253
▁necessar~~4974
▁emit~~11732
▁Geleh~~15661
▁dancer~~3157
▁Franz~~8714
iges~~14693
▁anthr~~9837
▁Meta~~8716
▁prosecution~~14846
▁Frank~~2084
Tetris~~15929
▁Cir~~14889
▁And~~5469
▁Dallas~~11683
▁miracle~~3576
▁stopp~~2637
▁alle~~3799
▁voice~~2857
▁peacekeep~~9028
thousand~~11594
▁rapper~~12691
▁socio~~1530
gger~~3512
▁circulation~~8784
▁Open~~9406
Bopp~~15984
▁horses~~3552
▁industrie~~13289
▁stunn~~1501
▁Ana~~11351
▁Pharao~~12127
▁Ferr~~11610
▁sites~~583
leiter~~16398
ived~~4739
▁overdose~~4489
▁guns~~7976
wana~~14551
▁Registr~~14857
ives~~9018
▁thus~~4142
▁Micro~~9445
▁brand~~4666
▁burie~~6545
▁Tyle~~7772
▁Fern~~13524
▁responsibilit~~1522
▁intractable~~9937
ive~~525
▁pervasive~~5658
▁flirt~~11887
iva~~10376
brot~~14185
brow~~12235
blau~~14424
▁20,000~~6527
▁scratch~~2805
▁complement~~5175
▁Ehrlich~~15050
▁worrying~~9992
▁explanation~~2626
▁Electronic~~12059
▁1600~~12331
▁edge~~168
▁Chor~~15242
▁Citizen~~2265
▁centimeter~~7339
▁quiet~~3141
▁cope~~7964
▁internalize~~14718
▁manager~~6897
mont~~5915
▁lit~~5283
▁graceful~~335
▁lik~~11412
▁beacon~~9317
▁retail~~6994
otto~~1150
▁retain~~3486
otta~~15959
▁reason~~1167
▁illitera~~9566
▁unles~~2262
▁lie~~2257
eopard~~14525
erence~~4811
▁perfection~~8288
▁AV~~14352
▁AT~~11322
▁witness~~2312
▁sunset~~10205
▁excitement~~2731
ck~~11165
▁demo~~2436
▁AB~~3062
▁AK~~11865
▁Stygi~~14070
▁nanotube~~10808
▁AO~~12795
▁agreed~~9171
▁Mommy~~13946
▁Ar~~6930
▁Huh~~2420
▁Ap~~14613
▁throwaway~~3371
▁Au~~5331
▁Hum~~11545
▁decisive~~12020
▁Huf~~16310
▁developer~~7769
▁competitor~~8919
▁Tib~~5880
▁Ab~~5049
▁Hux~~9547
▁Ag~~9953
▁Ad~~8947
▁Ak~~6050
▁Bjor~~8695
▁comparative~~6338
▁scanner~~1866
▁An~~3690
▁friends~~869
▁Al~~180
▁Agu~~13844
▁orphanage~~13133
▁action~~2961
▁proposal~~5503
▁fame~~4693
being~~819
▁Pek~~4792
▁Environmental~~11218
▁Pen~~7099
Hub~~15355
▁Per~~2173
▁Pet~~6608
▁creating~~959
▁Sousa~~14833
▁short~~692
▁calculus~~13991
ronto~~3776
itanium~~6594
▁antiviral~~15475
▁euphori~~14576
▁heard~~1750
▁Kumar~~13285
pox~~4263
▁last~~574
▁tumbl~~6571
▁Hancock~~11141
▁artist~~1967
▁political~~2093
▁Alphabet~~13928
▁couple~~337
instrument~~2849
▁youth~~8105
▁heart~~2263
exercis~~9725
▁shelve~~7086
▁tank~~6593
▁skeleton~~7925
▁Allende~~7053
pot~~8446
▁involv~~9683
▁Joint~~15003
▁Creat~~12576
around~~245
▁objective~~6217
▁chimney~~483
▁Torosaurus~~14475
▁Sopran~~13792
▁ambulance~~12079
▁include~~1407
▁clutch~~6868
▁decentraliz~~12672
▁forecast~~10430
▁Kampf~~15369
world~~9176
▁optional~~6087
▁Integr~~12755
▁Kongo~~15289
Shari~~15544
▁Klein~~8520
▁lettuce~~9630
▁hing~~15692
pol~~1369
▁global~~1292
▁salien~~13646
clav~~13640
weight~~10680
ollock~~5581
▁whisper~~2244
▁ist~~9872
▁overfish~~13152
▁commentar~~12505
idney~~2147
▁plent~~2586
▁stainless~~10274
▁performer~~1343
▁wrestle~~2744
▁Geoff~~14465
▁interference~~5405
▁powder~~11515
▁Salva~~8961
▁laughter~~1116
▁confidence~~2300
ddy~~4457
▁which~~482
▁report~~832
▁Oper~~15460
▁NATO~~9359
▁1-800-~~15580
▁Alte~~15915
▁Republic~~5309
▁Abu~~11846
▁carbonate~~10785
evolv~~8663
▁WiFi~~13426
▁stamp~~5998
▁milligram~~11913
▁Rustic~~15967
▁Emirate~~11845
▁receptacle~~15584
▁Philosoph~~11222
▁Merchant~~15541
power~~5897
▁hum~~3775
▁hub~~9629
▁Matrix~~1905
▁game~~1223
▁valley~~46
▁disappointment~~6817
▁forever~~2935
▁beekeep~~12649
▁adhesive~~14318
▁hormone~~2799
▁app~~6831
▁religious~~2636
▁Meet~~12484
▁Meer~~10470
▁hut~~12134
▁Ohio~~12388
▁Irr~~15148
stone~~12328
▁upload~~7645
▁pedal~~15104
ack~~4541
▁Mister~~14276
ach~~5232
▁rewire~~3883
▁Sinha~~15144
▁Pitt~~7116
tumor~~15531
▁Set~~15966
▁planner~~10605
▁millennia~~11714
act~~4969
▁backdrop~~13641
acy~~2940
luck~~7585
ffer~~6673
huret~~11304
▁Enc~~11723
▁Party~~10887
▁End~~10262
No~~2382
▁inhabitant~~7509
▁passage~~3198
▁Herald~~12890
▁gear~~5270
▁Eno~~15454
legged~~8017
▁Enr~~2596
▁hypothesis~~4568
▁cycl~~5139
▁Forrest~~15479
▁Tempe~~9825
▁generalization~~11242
essen~~10477
▁Kara~~13556
▁Maya~~13476
NH~~14348
▁McCain~~8620
NK~~13317
▁visceral~~12775
NN~~5088
▁tourist~~9991
▁Steff~~12612
NC~~4543
▁crease~~13181
NG~~9291
▁complex~~2254
▁Shackleton~~15074
▁salut~~5100
▁Primat~~15560
hem~~8690
▁Boot~~10647
Bird~~8526
▁savanna~~3220
▁fabricate~~10362
Stick~~14569
lang~~8671
▁McInt~~16404
complete~~5475
▁term~~1059
▁act~~2445
witz~~11641
▁soon~~546
▁adult~~878
▁resonate~~7606
▁MoMA~~12872
▁Portal~~14659
▁Logo~~16123
▁Titan~~6363
▁ecological~~5351
▁whom~~3944
assi~~11811
ragg~~2497
▁assume~~3246
▁home~~773
asse~~6573
▁coast~~3427
▁homo~~13070
▁textile~~11995
▁sewer~~10532
▁window~~341
▁waterfall~~6568
▁Elementar~~16029
▁muffin~~14330
▁Addi~~5048
▁nervous~~2927
▁page~~1715
gone~~3549
ac~~6038
▁option~~2615
ad~~3187
▁club~~2006
af~~8247
ai~~10599
▁potential~~806
ak~~4780
am~~3814
al~~286
ao~~10659
an~~392
ap~~3670
as~~2408
ar~~403
au~~5894
at~~4439
aw~~11848
▁avatar~~7672
ay~~7923
ax~~5754
az~~11819
▁excellence~~1438
▁distinguish~~7312
▁bottleneck~~15125
▁danc~~1113
▁Titanic~~77
atorium~~15037
▁charismati~~10770
▁Sam~~7075
▁350~~7643
▁dank~~16223
▁San~~1727
▁nach~~8562
▁incessant~~6841
▁pure~~7208
▁principal~~1636
▁purg~~13085
inancial~~14203
▁hack~~5782
phenol~~6727
▁Sar~~15133
▁void~~8742
2006~~15626
▁mund~~9745
▁Kosovar~~13576
▁northwest~~3682
▁Chester~~12789
▁volatile~~8682
org~~10867
▁operation~~3936
▁dispers~~4629
▁Stil~~13080
▁Heu~~16559
▁island~~3425
▁model~~1560
rman~~12211
aday~~9482
▁welche~~16163
▁complexity~~8071
▁fuzz~~10758
▁Whewell~~11231
▁outrage~~7295
▁often~~1620
▁swing~~8055
▁stead~~5418
▁anywhere~~3203
apien~~16460
▁steal~~2540
▁steam~~3774
▁grandchildren~~5592
▁steak~~6300
▁resolution~~6483
▁unfair~~1376
▁surveill~~7223
▁refra~~13077
▁statistician~~12495
sch~~9737
▁monitoring~~4092
▁Freelan~~15332
▁UNESCO~~14794
▁nomad~~8898
▁Gift~~16391
▁Aimee~~14943
▁plugg~~5770
▁muscle~~1841
▁juvenile~~1063
etz~~7868
▁bombs~~6518
▁anyone~~2900
tz~~4952
▁nothing~~1168
▁Hepburn~~16316
▁Investigat~~13598
▁Venezuela~~14368
tu~~10909
▁despair~~4029
▁Water~~6276
▁quote~~6902
▁teach~~1478
to~~3467
tail~~12124
▁Dill~~14197
▁Barrier~~15405
th~~1334
ti~~2499
▁genealog~~9256
te~~1947
ta~~1753
▁juxtapose~~14949
▁Mosh~~14939
▁nuclei~~11469
pple~~8468
▁congesti~~7671
▁produc~~1886
▁decay~~12376
▁Bund~~8117
▁Choir~~6249
▁coarse~~9292
▁liquid~~2441
▁synapse~~12044
▁Papua~~14092
▁optimiz~~1515
labor~~10204
cted~~10216
▁round~~2470
▁extrem~~15105
strand~~11589
▁mayor~~7907
▁temperament~~7696
▁Jacob~~12670
▁skeptical~~13297
▁Meeting~~16249
▁Alabama~~8882
▁neurolog~~13381
▁sandwich~~7013
▁Brut~~13869
large~~10013
▁psychedeli~~13960
▁Jazeera~~8883
ifying~~4014
▁Whirlwind~~16075
▁Architectur~~11316
▁Teddy~~7591
sani~~7556
▁sad~~801
▁sag~~14746
▁3.~~10020
▁scrot~~15518
▁banjo~~14856
▁lotter~~10683
▁trains~~3716
▁sai~~192
ngest~~7572
▁two~~112
▁correlate~~6104
▁sat~~4793
▁saw~~535
▁decreas~~2647
pass~~11225
▁vaccinate~~4296
▁say~~750
▁regime~~4108
▁Das~~15573
▁does~~566
▁Origin~~11255
clock~~1196
▁camouflage~~11433
section~~1819
uiz~~14762
▁horn~~12301
▁Blackberr~~12252
▁Network~~10450
lein~~13586
▁2.5~~10704
▁EKG~~15421
▁swelling~~13858
▁Mississippi~~9802
▁Blackmore~~15895
ID~~12776
▁technologist~~9955
▁Region~~14012
▁Dale~~14404
▁Gar~~9180
▁Gau~~13862
▁Woohoo~~922
▁Gay~~14775
▁strata~~12768
▁wingsuit~~10400
urnier~~8721
▁sort~~93
▁Babbage~~10094
▁Himalaya~~4920
▁Gab~~4912
▁invisib~~8381
▁Babylon~~8460
▁rhinovirus~~15702
▁metabol~~14767
▁Gal~~7483
▁Far~~12445
▁Ei~~16151
▁da~~3574
razz~~10838
▁de~~879
▁acoustician~~11152
▁Koko~~16346
▁Russian~~6509
▁di~~4742
eiler~~9939
▁idealiz~~11707
▁do~~426
ollie~~15294
▁dr~~3375
▁perpetrator~~10328
▁serial~~13107
▁sculpt~~6456
razo~~12115
social~~12657
▁frog~~6257
▁acryl~~10315
ein~~14848
itoris~~12703
▁Finger~~13925
▁epiphan~~6231
▁Libya~~14463
▁whole~~554
via~~10308
▁Free~~7015
▁Fred~~9538
▁Frei~~13262
▁windmill~~10533
▁reaction~~5128
vin~~181
▁heads~~5136
▁satisfie~~12234
▁red~~617
vis~~6855
▁uneas~~13823
▁Transition~~10906
▁renewables~~13174
▁communi~~882
ating~~3705
▁executive~~7022
▁Predator~~4204
▁altruism~~8944
▁nineteen~~3612
▁compliment~~12063
▁rubb~~3481
▁neighborhood~~4501
▁geyser~~15524
▁inhabit~~631
▁bristlecone~~16596
atalog~~13405
▁Beatrice~~14974
6~~1797
▁altruist~~14129
▁Rock~~7675
▁coordinat~~4191
▁hydrant~~6957
▁Tumbl~~15335
▁surfing~~11386
mord~~15403
more~~2466
aunt~~14755
door~~7911
▁canoe~~13809
▁Tarter~~13801
▁Kyoto~~10656
relevant~~15674
▁remove~~2668
▁186~~6400
▁187~~8444
▁180~~494
▁Cambri~~10795
▁183~~11228
▁18-~~9138
▁18.~~14254
▁Original~~15884
AIS~~14989
▁Reservat~~13945
▁chalk~~10788
situ~~15396
▁Bewa~~12198
▁Levitt~~11980
▁Loren~~15605
▁Troy~~10344
▁violinist~~13924
unders~~9456
▁12.5~~15776
▁CRISPR~~16449
▁regress~~13199
science~~2480
▁grateful~~8495
▁detriment~~14862
▁Life~~4206
wksb~~2913
▁obsessive~~9492
▁propose~~2430
▁scan~~6637
▁Manhattan~~6334
▁rebuild~~4641
learn~~9208
▁Twa~~6139
razine~~6677
▁Scot~~3683
lude~~2353
▁write~~1817
▁ill~~4504
▁Harvard~~4771
▁hobby~~7551
▁Program~~13958
▁Para~~11770
▁capita~~829
▁Pizza~~15081
▁Schwarzschild~~11794
sense~~9074
▁deforest~~7876
station~~12161
▁multicultural~~6118
axis~~6103
information~~12460
▁Accenture~~13670
▁storm~~4395
▁store~~2575
iving~~5891
▁agenc~~5304
▁story~~98
▁Picasso~~6393
▁Tanzania~~9019
▁assessment~~1386
phobi~~9645
▁agent~~5191
▁Vint~~6534
▁Dogg~~14906
upta~~14628
entrepreneurship~~4949
▁Vinc~~16179
▁provoke~~2115
▁studies~~1729
▁playground~~2307
▁Placebo~~16363
▁Bare~~16281
omi~~8020
▁central~~2919
▁Maker~~12280
▁nitrogen~~12015
holera~~8077
▁3000~~16442
▁Teach~~9413
▁match~~2061
▁Blood~~8053
▁thank~~763
▁pancrea~~9477
▁strike~~4362
▁thunder~~6261
▁palace~~8735
▁Move~~5156
▁language~~1969
▁five~~721
▁fresh~~2472
▁Film~~9762
ith~~8483
iti~~2148
▁porch~~13310
▁similar~~1463
ite~~3675
▁angle~~1361
ita~~8355
▁critter~~8894
▁sport~~8045
paper~~8740
itz~~11893
ity~~1055
▁accus~~9068
▁Turkish~~6883
▁consist~~7524
▁wheel~~6303
register~~6704
▁pulmona~~15067
▁corn~~6679
▁Chat~~2337
▁Boom~~9724
▁Chav~~14983
▁Chap~~13106
▁desalinat~~15042
▁cord~~3981
▁core~~3725
▁Landes~~16470
oubted~~11524
▁Mormon~~16423
▁inclin~~1806
▁eternal~~4582
▁Logan~~8554
▁corp~~7035
▁volcan~~47
▁spawn~~4127
ally~~361
▁understate~~7350
▁steril~~10242
▁pragmatis~~15086
▁GP~~14861
▁fearful~~13820
▁classic~~2086
zhen~~12591
▁Eight~~9956
▁GM~~14350
▁pianist~~2892
▁House~~2100
▁GB~~14195
▁dozen~~1780
▁average~~111
▁incidental~~5148
▁Bar~~8709
▁Bas~~13609
▁Bat~~7126
▁Street~~3673
▁bats~~11863
▁apes~~7175
▁excruciating~~3969
ector~~13698
▁Gr~~10504
▁presence~~4909
▁Gi~~8766
▁Bab~~8492
▁Insider~~13575
▁Bad~~12250
▁Go~~2077
▁Bag~~15431
▁massage~~5187
found~~11943
▁Bak~~16227
▁Ge~~1164
▁Bam~~13811
▁Ban~~7857
▁arrogant~~14086
status~~16257
▁Hacker~~14638
▁Theremin~~12956
detect~~8004
▁face~~358
▁Guang~~14121
▁reject~~5374
▁silent~~5457
▁fact~~294
▁societ~~9925
▁constitute~~8066
scribe~~3915
▁erst~~16601
▁Side~~6333
▁Action~~9110
▁loser~~13074
▁doodl~~14503
▁Emma~~6311
▁rehab~~6290
▁prevention~~5401
▁lecture~~4763
▁commander~~4606
▁lock~~4565
▁synthesi~~11471
▁subordinat~~12404
▁athlete~~1138
▁prison~~6384
highway~~9286
Saa~~16488
▁production~~3365
belief~~10190
▁known~~1032
▁drain~~5144
ness~~915
▁violence~~2179
emplar~~14546
▁virtue~~6129
▁switch~~3975
▁crew~~2209
▁Rift~~10717
▁virtuo~~8294
▁Civil~~6528
definition~~2308
▁Pik~~1679
▁Borne~~14911
▁Transit~~10833
▁Polo~~12451
▁Krill~~16586
▁customer~~1155
▁persuad~~9011
▁leisure~~10556
▁spatial~~7985
castle~~8751
▁realistic~~8048
fu~~7449
▁stem~~6644
major~~14617
▁intellect~~12042
▁hostilit~~8580
▁Vermeer~~13454
▁early~~1526
▁cowboy~~13630
▁swin~~4817
▁swim~~5537
▁proteomics~~12765
netary~~14623
▁right~~339
▁rules~~2809
▁ruler~~8447
kippe~~16546
mobil~~15919
trick~~13592
▁step~~918
▁jobs~~1358
▁Jerry~~11435
▁weak~~2820
▁commitment~~4383
jet~~2996
▁Flickr~~12473
▁radiation~~641
▁tribes~~7872
jec~~12464
▁rains~~5004
▁confer~~5409
▁censor~~9141
▁economy~~776
▁iron~~1987
▁stake~~4239
jeh~~10893
▁wear~~2678
▁reinterpret~~14188
▁height~~406
haft~~15316
▁detergent~~7478
harata~~15349
▁thickness~~5751
vantage~~11800
▁Mega~~12760
▁headset~~422
▁glimmer~~11521
elling~~9396
▁dissertation~~13411
▁Sesam~~9060
▁attribute~~9218
estro~~6757
▁cradle~~13860
ī~~16459
▁Bosnia~~8210
▁Production~~13722
▁precise~~3059
cott~~10066
Shreddies~~15804
▁dissident~~13885
▁Gange~~6378
▁dwarf~~6561
▁vein~~12166
▁veil~~8104
▁Demo~~9032
▁strive~~12199
▁Stratford~~16430
▁municipal~~10568
▁Amazon~~7059
▁Develop~~9856
buttermil~~15120
▁vegetation~~11496
▁assess~~5458
listen~~15304
▁reflection~~9537
▁destabiliz~~15639
▁conductor~~14660
▁higher~~155
▁Royal~~11148
▁Iranian~~2175
▁occur~~11199
▁permission~~7639
▁nah~~14896
▁blu~~11418
▁spiritual~~3648
eureka~~12120
▁decide~~2616
▁Sono~~12072
▁village~~5748
▁mason~~14117
▁Song~~3047
▁command~~4553
▁book~~1222
▁preschool~~14717
▁Sony~~188
▁inequit~~12907
▁frequently~~11033
Leopold~~12004
▁valid~~10557
▁Hawaii~~3521
▁magician~~9708
play~~2720
▁opposite~~1120
▁Last~~13733
▁summer~~4156
▁Morgen~~12743
▁trauma~~9149
M~~1000
▁Chaucer~~13464
virus~~13048
plan~~8162
▁Promi~~12502
▁adage~~12101
▁Sel~~11079
▁displace~~13758
▁whil~~11053
▁surrender~~5802
▁monolith~~6067
▁discoveries~~4050
▁Stonehenge~~5626
▁Kennedy~~10287
▁additive~~14014
▁Prome~~7183
▁impatient~~10623
▁vend~~8527
▁TNC~~14206
amme~~12568
▁carcass~~13728
▁whip~~4453
▁famous~~3651
▁DJ~~3897
Cloud~~10073
▁favela~~2069
▁Home~~10518
▁failing~~4410
uga~~4687
▁comparison~~1307
▁Homo~~7949
▁bomb~~3134
▁Whoa~~5131
▁economic~~1318
▁libertarian~~7595
▁disengage~~15112
▁left~~1621
▁Lip~~14528
▁cooler~~4148
▁explor~~5869
▁Pack~~7598
▁curator~~11973
▁admitted~~11395
▁futil~~760
▁100,000~~5159
▁Sch~~2123
▁electrode~~1864
Muslim~~8508
▁Fowler~~15482
▁measurement~~1293
▁Avatar~~11532
▁Formen~~16172
▁zu~~16175
▁Shell~~15821
▁husband~~2212
▁stethoscope~~16038
▁comfortabl~~5009
dependent~~3592
▁firms~~7587
▁strengthen~~11366
axe~~12174
▁into~~178
▁Puritan~~15489
▁doodle~~9740
▁fragil~~9916
▁cortiso~~13997
▁girls~~4482
▁scour~~6580
▁everything~~570
▁Twitter~~2815
▁accelerate~~2811
▁Faust~~13808
▁Iraq~~4671
▁Babel~~14085
violent~~8163
▁monogam~~11103
▁conception~~8111
adapte~~8530
▁Christin~~5322
▁Altern~~16489
▁Sunni~~2741
▁daylight~~6586
▁planets~~10319
▁compartmentaliz~~11369
▁Aglo~~16461
▁nickel~~14102
▁selfish~~7729
▁Gret~~14191
▁fluke~~13994
set~~8680
▁lexicograph~~10754
▁Muslim~~4377
For~~15320
▁optimal~~8106
▁Reform~~8907
▁brilliant~~5514
sex~~10937
▁brin~~11114
▁pro~~2164
see~~11500
migration~~13110
sea~~351
▁hopeless~~11453
▁govern~~4066
sel~~11531
▁brainstorm~~11271
▁Brown~~8970
trey~~9903
#~~2363
▁Fische~~15202
ritz~~14405
mbivalen~~5461
▁close~~662
▁upset~~8357
▁passport~~7757
▁Gravitation~~15646
▁Sudan~~8979
▁System~~2967
▁Such~~13965
chester~~12021
▁translator~~11449
available~~2455
ahoo~~8842
▁crashe~~11576
▁Pixel~~15250
▁scaveng~~3473
▁exhum~~13114
▁survivor~~7284
▁order~~720
▁possession~~9845
▁Mozart~~2842
▁indiscriminate~~8075
▁identical~~6447
ikal~~13322
▁upside~~6933
▁sigmoidal~~15093
▁guide~~4372
▁virus~~930
▁fiction~~1098
▁Butler~~11702
▁rewrit~~11557
▁microbes~~10227
▁internal~~5285
▁wave~~133
lash~~5076
▁plunge~~11292
▁execute~~11583
approve~~7482
load~~6563
partheid~~5988
sambi~~16549
▁origin~~6444
bell~~6643
▁harass~~599
Truck~~16036
▁motivator~~12096
▁metropolitan~~3749
bject~~11093
phthalm~~13692
▁biopsy~~12977
church~~7921
▁convulsion~~15935
▁insane~~7026
surance~~4910
▁Battle~~6159
▁advice~~6614
▁nationalis~~5821
gatherer~~11409
▁newspaper~~4704
▁drag~~4363
▁mama~~11073
▁register~~6012
▁Alternative~~16230
▁Und~~13430
▁Uni~~6207
▁draw~~1319
▁Tell~~4868
▁Conservanc~~6411
▁impossibl~~2330
▁Stimulation~~16131
▁opa~~14000
▁Miz~~15115
fire~~4310
infect~~4313
ainforest~~13706
▁Mit~~9268
▁Mir~~9020
mine~~7578
fund~~6976
▁Mil~~2287
▁awesome~~2797
▁Hack~~12651
▁Seventy~~10380
▁Seva~~15898
▁Mig~~7230
talent~~12545
▁Mid~~3466
▁Taniyama~~16025
▁finger~~2579
outube~~15969
▁jo~~9781
▁plight~~10891
▁rumor~~14158
ingdom~~4415
▁je~~287
budget~~10898
▁ja~~5240
▁plaster~~9542
▁empiricis~~15562
▁ju~~2407
▁celebrate~~2045
rogat~~13369
Cola~~9381
ami~~7560
pound~~6458
▁night~~3270
▁gravitational~~11470
▁Wagen~~7553
von~~16140
▁enterprise~~9297
▁print~~2039
▁Boulevard~~13619
vor~~6481
▁ligament~~7457
nitha~~12698
▁contour~~13378
▁Len~~2232
zzar~~8450
▁imaginative~~5448
▁photocopie~~11970
cene~~11408
▁Koran~~8192
▁Lei~~10938
▁Leg~~13480
▁Lee~~4593
▁Leb~~14564
▁paralyz~~3958
▁killing~~7698
read~~3672
▁superorganism~~14940
▁Romo~~14813
▁condemn~~5366
▁dollar~~2604
▁elder~~5738
▁chore~~6299
▁Rome~~3652
▁Let~~4809
▁Parkinson~~2908
▁Les~~13990
▁geriatric~~5396
▁meadow~~10480
▁crusade~~13675
▁holiday~~7724
ladi~~11321
▁Social~~8982
different~~14359
▁2,3~~13736
▁deviation~~6085
▁amaze~~591
▁ensu~~1414
▁Hirshhorn~~16367
▁Sunday~~3702
focal~~14034
▁AIDS~~8630
kno~~13473
▁Hispanic~~12187
▁Slim~~15782
▁Buzz~~12852
▁black~~572
▁Laboratorie~~13230
▁legislature~~12396
▁penetrate~~4243
maker~~8287
person~~2740
de~~454
▁daydream~~8800
▁sacrific~~13491
▁uns~~3771
▁country~~1295
▁unw~~9197
▁Attenborough~~3204
▁Bilbao~~16225
▁Chapel~~15409
▁mistakes~~2592
▁StoryCorps~~16483
▁strangl~~8785
▁Parasit~~16091
▁Scal~~3126
▁unf~~12324
▁und~~6474
▁Moleeds~~14236
▁Craig~~7251
</s>~~3
▁fischer~~13090
▁Atlas~~6320
▁yadda~~15175
▁Portuguese~~14725
▁anonymous~~1207
▁mastery~~1133
location~~11870
▁Sandel~~11676
▁Vati~~16098
▁noble~~4884
▁Bris~~10928
▁blueprint~~7787
▁node~~2753
▁expectation~~4962
▁Ukrainian~~13132
lvani~~7582
▁diplomat~~10672
▁foreign~~4316
▁transmit~~3219
▁Atmosph~~14422
▁Ontario~~14226
▁alliance~~14590
▁DUM~~16009
▁Total~~15223
▁except~~573
ommittee~~4385
▁crossroad~~4417
▁restless~~1998
d~~26
▁entrepreneuri~~9387
▁Machine~~6008
▁sponsor~~5042
OC~~11367
▁Media~~2830
▁capital~~4284
▁explosive~~4276
▁sensation~~1979
▁continuous~~1078
scape~~2227
▁Hmm~~5946
technologie~~11478
OR~~13039
Capture~~16376
icious~~11403
▁Know~~9389
▁leg~~2939
▁led~~2873
▁Investment~~14930
▁Glori~~7428
▁headache~~14309
▁alphabet~~8875
limb~~12608
▁Fire~~3020
▁accompany~~10276
sight~~9390
uinea~~12982
▁let~~830
▁Truth~~8599
▁respectful~~7657
▁cultivat~~5165
▁Training~~4611
▁audio~~7650
▁eBay~~8952
▁cold~~1100
religion~~13831
▁department~~2548
▁incompatib~~8037
▁pitch~~571
▁PlayStation~~15623
▁reconsider~~7379
be~~1028
▁TEEB~~15574
▁Cross~~4386
ba~~1909
bb~~6878
▁tuna~~14336
▁Gaga~~14709
bo~~3455
▁Justi~~13888
bi~~2773
quivalent~~14436
bt~~8172
bu~~5569
▁Eu~~12390
▁falcon~~9522
▁Es~~8995
▁Er~~5620
▁climbing~~6576
▁Goldilock~~13457
▁irrelevant~~9324
▁sandwiche~~11030
▁rebreather~~6592
▁boost~~4555
▁enjoy~~1218
▁Ex~~5272
▁EG~~9692
marin~~14895
▁Cholera~~16265
▁EC~~5014
▁permanent~~2870
▁superhydrophobi~~2462
▁declare~~2742
▁replacement~~5625
▁laser~~619
▁Diplomat~~13578
▁Hyp~~10425
▁remark~~2129
▁EV~~14059
▁EU~~1759
uffalo~~15160
osion~~2517
▁feather~~3939
ttar~~4397
▁gradient~~13993
▁hockey~~3183
fern~~14835
▁slice~~6484
▁hike~~10416
▁knot~~11528
▁Israelis~~3288
▁Chop~~12798
▁Peak~~15217
▁loan~~8513
▁slick~~12634
▁suggestion~~2562
▁Pyl~~15182
Bosch~~15491
▁Space~~7104
▁Helium~~15986
story~~5928
zig~~15659
▁surprised~~2323
▁copepod~~14696
▁Becket~~13654
▁sang~~5199
▁Zeta~~11118
▁months~~1219
▁reproductive~~10521
▁expense~~7540
▁OECD~~833
▁Jakarta~~10960
▁misunderst~~8276
▁verbal~~11756
▁introduction~~3370
chu~~11649
▁institute~~5504
▁Symphon~~7103
▁DL~~15532
ator~~4300
▁Horse~~12671
tally~~2796
▁Ride~~10541
▁registr~~5995
▁jacket~~6556
▁synthesizer~~7253
▁innate~~8922
link~~6859
▁month~~4261
lini~~6382
atom~~7371
ling~~1160
▁unit~~6069
line~~3568
▁4,000~~509
▁refine~~2491
▁Fauna~~14788
▁mindset~~5149
▁England~~2221
▁carcinogen~~13239
▁blessing~~3813
uz~~13204
ut~~5126
dom~~10338
up~~2591
us~~191
ur~~3235
um~~3769
ul~~452
uo~~3890
un~~5860
ui~~5627
uh~~15271
uk~~11999
▁92~~12905
ue~~8511
ud~~3376
ug~~8199
ua~~3526
▁bless~~8175
ub~~1820
▁memorial~~6661
▁spear~~6885
▁attain~~5794
▁Oxf~~14461
▁formal~~356
▁loneli~~14303
raging~~5701
▁behind~~1449
▁miss~~5330
chai~~9580
chan~~7692
▁mist~~4438
▁cartoons~~9058
▁sides~~4266
▁Strang~~14079
▁Aye~~13431
▁Kurs~~12954
▁location~~4637
▁sounds~~1197
▁forgot~~875
sche~~15794
▁format~~6066
▁armor~~4282
yntax~~15077
▁stair~~5292
ulation~~3996
tari~~7747
ception~~9674
▁fixate~~6799
▁stranger~~10550
▁jelly~~215
▁doing~~368
▁Burt~~11932
▁Seth~~12941
▁limits~~1649
▁stain~~11622
▁Kinect~~13703
ev~~8791
▁intimacy~~7695
▁mechanism~~7240
▁proportion~~1313
▁Lass~~11070
▁Auge~~15100
▁prox~~11047
▁Center~~4612
▁exhibit~~6337
▁shall~~9466
▁gain~~2613
▁flatter~~3115
▁dune~~15124
▁mach~~15654
▁dung~~7504
▁unicorn~~6211
ago~~668
▁genug~~9873
land~~1401
▁pluripotent~~13528
▁election~~7654
age~~365
▁processing~~4741
terior~~3842
▁improv~~1179
▁Hono~~14363
▁Mead~~15934
▁epilep~~7989
▁dogma~~14208
▁experimentation~~2716
▁Alpha~~13611
code~~11704
▁provocati~~5329
▁count~~577
sistence~~15013
▁misdirection~~13470
▁Gra~~14954
▁beekeeper~~12648
▁reviv~~6627
▁formulation~~10627
▁speak~~651
▁platt~~15849
▁Polaroid~~10330
▁joint~~7450
istic~~3839
▁feed~~3581
▁causal~~10874
▁demolish~~5818
▁Familie~~9944
▁feel~~1121
▁idealis~~13566
▁cable~~4815
▁transplant~~7247
▁feet~~226
▁kelp~~14507
▁passenger~~3708
▁longitud~~7999
▁diarrhea~~9414
▁quad~~12727
▁aspire~~3946
▁ballast~~13544
▁overlapp~~12270
▁Anthr~~15198
▁diligent~~8731
▁Lock~~5300
▁dismay~~9219
▁arts~~1112
▁Lou~~11379
▁Bart~~7652
▁Climate~~1705
▁expanse~~127
tro~~3336
tra~~3166
▁Trauma~~16447
▁differential~~10712
racy~~1188
▁raft~~12652
▁illness~~4878
▁Gallup~~6531
uel~~6020
▁boot~~10255
hydr~~5893
▁Hock~~15726
▁opponent~~7655
▁questionnaire~~15488
▁Navigator~~16253
▁cosmo~~11230
▁redefin~~4447
▁Level~~15019
▁boom~~4454
▁Whit~~6247
ode~~5075
▁focus~~1434
index~~13393
▁Sek~~11281
▁Hopkins~~10903
▁reference~~3849
▁peripher~~3726
▁photos~~3311
▁Sea~~4124
▁awful~~4260
▁See~~11591
▁Seg~~16187
▁Sey~~13836
▁Sex~~5205
▁process~~992
▁Where~~4656
▁CDC~~10988
▁expression~~2091
▁Step~~14730
▁regenerate~~12241
▁Jobs~~6153
▁staircase~~6238
lec~~15957
led~~3817
leg~~13001
lei~~11150
▁shooting~~474
▁steel~~4644
▁steer~~4574
ler~~2125
les~~4334
let~~2001
▁ceramic~~13079
ley~~2278
▁geologist~~13006
fifteen~~10880
▁Oprah~~12643
▁you~~69
ctu~~5186
great~~14080
▁mutant~~13094
▁geek~~2775
▁user~~1628
▁toxic~~43
▁hominid~~9240
technolog~~7248
▁Willi~~7617
fetch~~13259
▁used~~1217
▁helicopter~~6658
▁attribut~~6216
rdo~~13515
▁gyr~~3520
▁vital~~3994
▁amputee~~15774
▁use~~179
▁Review~~9960
▁generator~~13408
artig~~16231
▁hostage~~4477
apping~~10141
▁Banker~~16002
▁because~~219
▁Ranger~~4651
▁invention~~4743
alencia~~6966
▁Garten~~12859
route~~15844
▁Strategie~~16440
▁cloud~~448
confidence~~9995
▁Vinci~~6158
▁recording~~7986
▁Classic~~15444
▁fever~~7530
process~~10396
▁breakthrough~~5413
doubt~~12793
▁juggl~~7396
▁Linguist~~16494
▁amputation~~12254
▁shutter~~10570
▁PDA~~14690
▁National~~3471
▁counsel~~5454
thema~~15119
▁marine~~4165
▁dangl~~243
▁vaccine~~4250
▁sample~~2635
▁criticiz~~11197
▁purse~~8400
▁abyss~~14031
▁Shap~~13518
Bath~~12669
▁seize~~10288
▁monumental~~7701
▁Austria~~2736
potential~~16522
▁pursu~~6923
▁indicate~~6632
▁thrive~~493
▁bunch~~4604
ludge~~10710
▁enrich~~6072
▁fur~~7260
▁thumb~~2721
▁glow~~2785
▁Bla~~9689
▁Acumen~~12077
▁fun~~1005
▁speculate~~6635
▁3,000~~6562
▁writer~~3242
▁British~~1919
etti~~3794
▁marathon~~8096
▁sea~~72
lock~~11944
loch~~14472
▁see~~119
ette~~9498
▁sex~~4492
▁latrine~~11297
etts~~7119
▁biologically~~5438
▁troop~~4905
▁set~~1624
▁sew~~2214
▁chuck~~8648
▁biological~~5482
▁pick~~791
▁toddler~~12269
▁developmental~~9921
▁molt~~14855
▁Najmuddin~~15572
▁illustration~~5164
▁Kenne~~15900
▁passive~~6076
▁toys~~9694
▁letter~~5243
▁Fulbright~~4797
▁BOMB~~15870
▁mold~~3911
intelligent~~10719
▁mola~~10024
▁boundar~~1968
▁manufactur~~6952
▁Salat~~12008
▁Leopard~~6708
▁Theatr~~13817
▁parking~~5628
▁Mor~~12143
▁matched~~7647
Q~~2845
▁Moh~~14456
fett~~16351
▁remarkabl~~3075
tier~~5747
▁Fortune~~13284
▁Mob~~8821
▁agricultur~~3638
▁teacher~~1471
▁coral~~4102
▁Skinner~~8545
▁pluck~~12577
▁Sloan~~13627
▁series~~576
▁sculptor~~9434
▁McCu~~13098
▁corrosi~~2518
▁spouse~~8757
▁quant~~7686
▁Miller~~6914
▁he~~331
▁McCl~~13354
▁ha~~2427
▁ho~~5641
▁hi~~3000
▁Frau~~16297
▁Cuba~~10646
▁popular~~3106
▁retriev~~6078
▁rip~~2553
▁Room~~7044
▁needs~~3252
▁moist~~13782
▁origami~~11592
▁Root~~7137
▁fascinating~~2351
latform~~13000
▁grocer~~3264
▁anti~~2512
▁shoes~~2326
▁rid~~6858
▁losing~~3614
▁rig~~12542
▁hijack~~12492
▁sculpture~~7676
▁channel~~1880
▁pair~~2478
▁meaningful~~1667
▁Francis~~7602
▁rote~~937
▁unlike~~2146
▁gender~~5824
▁Reuters~~14125
▁Gobi~~15576
2010~~9308
▁reservation~~6833
▁Bowden~~14497
▁Main~~11006
▁comprehensive~~11036
▁specific~~3104
▁Tusca~~15706
▁replenish~~12422
▁foreigner~~8966
aft~~14624
doch~~10781
▁featur~~9182
▁Milton~~14523
▁Initiative~~8360
▁initiative~~4141
▁sanction~~9624
▁pessimist~~8361
▁blame~~5806
▁oncologist~~4867
▁1800~~10660
▁quadriplegi~~13558
eben~~15720
▁Dolby~~3807
▁Hyun~~16287
▁familiar~~166
▁file~~10442
truth~~12159
▁Rasse~~16214
▁Blo~~15534
glasses~~4796
▁reporter~~4311
▁kiss~~1071
▁sacrifice~~7400
mbstone~~14435
▁estimate~~3602
▁overlay~~11835
▁acute~~13162
static~~13414
▁rehabilitati~~15550
▁reported~~8478
▁overlap~~9716
▁flute~~7939
▁community~~664
▁Almo~~16072
▁Implant~~15205
▁state~~884
matrix~~8801
▁Schule~~16276
Rumbaugh~~16302
▁botanical~~14365
▁Jun~~4389
▁senator~~14526
▁never~~441
▁Kazak~~13583
▁pond~~8818
▁bleak~~1117
▁Schulz~~8268
▁chaotic~~11815
▁therapist~~1874
▁kri~~4158
▁Falcon~~9517
▁Mord~~15390
▁More~~3734
▁shapes~~291
▁fisher~~4107
▁Drac~~14473
▁Board~~5020
tempo~~3188
▁yard~~5725
▁kenne~~16207
▁Abend~~15735
▁dust~~4752
ociety~~10261
rofluid~~13962
▁Smiley~~16332
▁Cat~~5114
▁wiggl~~13417
▁remind~~2690
▁Cap~~2085
▁Car~~3656
gestalt~~14183
▁bypass~~12068
▁lumber~~4550
▁Manifest~~9972
▁exterminat~~8553
Jump~~10548
bird~~14177
length~~6502
▁Caf~~13339
▁astronomical~~11550
▁doctrine~~12219
▁litter~~3458
▁Mom~~5787
▁problems~~581
▁Can~~7518
▁preach~~1937
▁Caj~~10690
▁Zul~~15673
▁spectator~~9460
▁Uzbek~~15913
▁double~~1537
▁Chee~~9627
▁Chef~~10696
blown~~4658
▁Joseph~~5321
▁Monument~~3472
▁cousin~~7106
▁knack~~12876
uous~~8099
hertz~~12761
▁spong~~13415
▁meister~~15868
▁refugee~~7737
▁intensive~~4024
▁230~~12839
▁laborator~~8635
▁militant~~15741
▁aphid~~15252
system~~15090
percussion~~6793
▁pitche~~9439
▁retreat~~9990
▁idylli~~6255
▁opening~~4569
▁sprint~~10050
▁Ethan~~12423
▁Letter~~14511
▁conc~~1556
▁riskier~~9894
▁Bee~~1908
▁Ko~~7362
▁Beg~~16531
▁Ki~~12944
▁Kh~~5568
ambiguous~~9157
▁Bel~~8448
▁Ben~~2276
▁Ka~~3525
▁Bei~~15582
▁Indonesia~~10734
▁Wow~~7425
Levit~~13631
▁Patriot~~15366
▁desk~~9587
▁Ber~~7904
ruise~~13489
▁Ku~~3465
▁demand~~2127
▁idol~~11936
▁innovation~~812
▁Bez~~13211
▁Kr~~10695
▁embodie~~13582
▁advance~~2763
▁KI~~16441
▁KK~~13678
▁suspicious~~8176
omfort~~11837
sourcing~~8940
▁cultures~~1933
▁Harlem~~4441
▁Zipcar~~12851
psycholog~~16384
▁pronounce~~13522
▁necessit~~8079
▁charter~~11088
▁grand~~2983
▁disagreement~~11693
▁look~~122
▁Jacques~~13658
▁both~~1699
▁industrial~~3696
▁Improv~~10538
▁psychologist~~9980
▁jug~~13267
▁loop~~3180
▁Sil~~10901
eryl~~13681
heft~~16451
▁nude~~4503
▁bumblebee~~11998
▁nudg~~15675
▁Emil~~11115
▁Business~~9959
uuu~~15951
▁rabbi~~13826
▁East~~3223
▁boreal~~15586
▁unemploy~~1352
▁Wurma~~7422
▁beard~~12442
▁Shakespeare~~2292
▁operative~~16007
▁crap~~943
▁froze~~13035
▁northeast~~3692
▁Tarahumara~~14610
fidel~~5326
▁DARw~~12987
▁crab~~539
▁brew~~5077
▁wasteful~~10737
▁tippe~~16506
segment~~14163
cke~~9655
▁edit~~7009
▁treatment~~2920
▁hours~~1489
▁hill~~5587
▁customiz~~12855
echanical~~13015
raten~~15989
ventive~~1637
▁Philipp~~5638
▁mega~~7742
▁Basil~~13806
▁Israelite~~14509
▁awareness~~2689
▁simplifie~~9267
Tool~~16139
▁Computer~~6091
▁Ali~~6928
▁star~~3625
▁All~~7019
▁stay~~2986
▁Alb~~13587
▁Hudson~~5746
▁Crime~~12195
bring~~9982
▁Alp~~409
▁Charles~~3344
rough~~10531
▁accura~~9512
▁calculate~~5000
ioneer~~6354
▁FEED~~15982
▁church~~6185
▁Charle~~14540
▁weep~~5214
▁Current~~14947
▁hitchhik~~15459
score~~2882
▁week~~711
▁eyebrow~~12297
taph~~9836
tude~~6351
▁Edge~~5040
▁Bieber~~12209
▁bedroom~~5195
▁Igbo~~12780
handle~~14991
▁Fiji~~14447
familiar~~173
▁chair~~2903
sbro~~16014
first~~12282
▁chain~~3536
▁lobe~~6639
▁iPhone~~5653
▁Tempo~~16129
▁processor~~11248
▁championship~~2403
izzy~~12318
▁variet~~1731
▁painter~~8762
▁Idiot~~15365
tod~~10137
▁alt~~16202
▁Snowden~~10428
h~~2346
▁puzzles~~9691
▁Curitiba~~15911
▁lifted~~4622
▁solid~~6557
rtigr~~16500
rapped~~3564
withstand~~10966
▁prompt~~4964
▁inspiring~~6974
▁sustain~~1643
mption~~12827
oma~~9194
▁fuss~~10075
atz~~11609
▁seeds~~4997
▁recipient~~4918
▁cylinder~~6469
▁bucket~~6128
▁dilut~~4087
▁rib~~10732
▁endur~~2071
▁shore~~4080
wire~~10811
▁mustache~~12233
▁undergo~~5483
▁twist~~4445
▁shield~~2447
partisan~~12175
▁Die~~14400
▁safe~~5593
nantha~~4688
PC~~9809
PA~~15282
▁prepar~~4466
▁summit~~5556
▁Serie~~12432
PJ~~6725
▁Test~~14500
PO~~6898
PL~~11923
▁skylight~~11364
▁rage~~7386
omo~~14171
▁truck~~9395
▁text~~2390
▁literal~~3056
▁mosquitoes~~15553
▁literar~~11235
▁Fibonacci~~14251
ende~~15292
▁Slipper~~15677
▁chemotherap~~9205
▁access~~1990
▁000~~15128
▁casual~~9722
▁se~~4058
ets~~9946
▁goat~~7156
▁sa~~3616
▁sc~~898
▁radi~~6464
▁title~~2406
▁so~~198
▁Barry~~7403
▁Operation~~7844
▁sh~~128
▁giga~~11467
▁limited~~5059
▁st~~699
▁sw~~3501
parallele~~12403
▁amount~~1453
▁sp~~3662
ete~~15387
lager~~16261
heart~~8321
▁ghetto~~6368
▁shirt~~5817
▁hail~~4258
▁intangible~~14754
ci~~2117
ch~~2136
co~~2516
▁functional~~7237
▁recreate~~8009
ca~~7153
▁birds~~3205
Hex~~14749
▁execution~~12504
ce~~1635
▁Living~~13105
▁filling~~6143
▁Christi~~9524
cy~~4028
▁Sophia~~12304
uca~~13514
▁Kram~~14453
▁behaviors~~2324
winning~~9838
uck~~4540
▁hair~~615
uch~~4864
▁specify~~6455
▁investigat~~10868
▁Jenn~~5661
▁Baxter~~11359
▁suitcase~~11606
ANDE~~16074
bru~~16241
▁texture~~8666
▁specifi~~12528
▁emitt~~639
▁Proct~~15939
▁respect~~3316
▁jeopard~~4497
gue~~7550
▁Mission~~5865
▁Bharat~~15348
▁Environment~~13653
▁pat~~7154
▁cartoon~~7328
▁cha~~12225
▁Ngram~~16290
▁Algeria~~13479
▁Mesozoi~~13802
gun~~9470
▁Bitcoin~~16392
▁Show~~13057
▁plutonium~~12578
▁interpla~~12930
banish~~8746
▁atmosphere~~1755
▁Kath~~6659
uisance~~14335
▁snowboard~~15637
▁animation~~9904
▁Phantom~~13961
emost~~11250
▁Game~~9961
▁wiki~~14601
▁Kate~~12653
▁Katz~~16498
oung~~7570
▁blogg~~9000
▁Protestant~~8906
▁Canadian~~6689
country~~10406
▁Amazonas~~15575
eur~~9404
▁predict~~5416
▁Asian~~7200
va~~7003
▁Keene~~15832
▁Maz~~12108
ve~~74
▁Held~~16487
vi~~908
▁fallen~~1335
▁Andrew~~5708
▁ATM~~9569
▁Tiger~~11330
vo~~3973
sity~~154
archiv~~285
vu~~9229
▁complain~~1552
▁wip~~10956
vy~~5242
▁mutation~~5478
▁Andrea~~1284
▁Sixth~~15829
▁crook~~14852
▁Israeli~~3262
▁pose~~3608
▁parenting~~5226
▁complet~~9742
▁princess~~9098
▁clear~~863
▁Hyper~~2881
▁infect~~772
▁post~~3259
▁Blogger~~15076
▁Pythagor~~11858
▁discovery~~197
▁truthful~~12156
▁cosmolog~~6339
▁hearing~~3061
terrorism~~14419
▁slate~~2223
▁Weibo~~16192
disc~~14514
odd~~13364
ball~~8591
balk~~8225
▁juri~~15866
iker~~15312
▁CFO~~8290
▁Seven~~7446
▁Prestige~~13240
▁Circle~~8021
phy~~4157
▁introduce~~1409
▁seahorse~~7980
▁impairment~~12889
▁tickle~~2950
▁absolut~~12948
▁delicious~~5953
▁moves~~1860
▁Geiger~~14565
lliance~~13834
off~~2347
▁Lauren~~11860
▁Marine~~3349
▁millisecond~~1868
▁waltz~~14765
▁Optimist~~15995
▁permit~~675
▁Clinton~~8564
Colombo~~14643
▁warm~~6626
▁control~~1086
É~~15347
▁cockroach~~7209
▁inflate~~11658
▁justice~~4411
▁organization~~1632
less~~961
▁gentl~~11535
▁instant~~1249
▁Jersey~~7085
▁Echo~~7107
▁compell~~8269
osmos~~13839
▁84~~3544
▁Uniform~~13709
▁Bank~~5010
▁healthie~~9862
▁presentation~~5737
▁pregnan~~6620
▁town~~3492
▁retirement~~12351
ologist~~7372
▁robotic~~962
wei~~15214
weh~~13850
▁Buddhist~~9155
▁Gowanus~~15158
▁synchronize~~10536
▁Massac~~7117
▁competition~~6844
▁Buddhism~~12238
▁Oxford~~4772
5~~2409
▁meta~~5253
▁abundance~~10534
▁specimen~~7971
government~~1703
haut~~12223
haus~~7263
▁accelerator~~13217
tica~~12874
spiring~~8767
five~~3381
▁residual~~14315
▁Petra~~16085
tick~~5826
▁Valenti~~6954
▁Neurologi~~15218
▁Eames~~12895
▁rehearse~~2423
▁infection~~3935
rghum~~13147
Creek~~3400
▁Tru~~10832
▁Cochrane~~16024
▁concentrat~~10706
entia~~12790
▁rationale~~8089
▁submission~~6120
▁knowing~~1648
▁na~~8756
▁antiretroviral~~10971
▁humor~~5670
▁energies~~11842
▁ne~~3538
▁Tri~~5917
▁impenetrab~~12339
▁Tro~~13814
▁no~~138
▁Barber~~14110
▁Neumann~~12735
▁Griffi~~12828
▁weakness~~12549
▁revisit~~15233
▁Patric~~16309
▁Fuku~~13540
▁watch~~565
▁Idol~~13913
▁Donald~~14684
ronic~~8305
▁indication~~5485
▁Frog~~6709
ronin~~12196
▁Check~~7039
▁shred~~2606
thieu~~12897
▁statistic~~6688
▁Las~~7703
▁Budget~~12172
▁Law~~8578
▁Paulo~~12892
▁Paula~~14607
▁hypothesize~~12049
▁Bangladesh~~5553
▁viel~~15169
▁Lab~~2831
▁lurk~~11771
▁Eritrea~~16238
▁futurist~~3845
▁imag~~1865
▁Lak~~5663
▁screaming~~5971
▁Kunst~~15778
▁lure~~237
▁connected~~2759
blowing~~11822
▁wheelchair~~10857
▁Trade~~5021
▁certificate~~6064
▁rev~~8281
▁energy~~517
▁score~~3048
▁Favorit~~11782
▁Mathe~~14859
cumben~~10142
▁1860~~12686
▁Gender~~8336
▁NGO~~8957
▁dry~~2435
▁cohort~~5375
▁Croatia~~8170
stage~~2735
kry~~16530
▁Kauf~~14986
▁Vijay~~16088
▁Software~~16313
▁update~~2814
union~~13382
▁hump~~15116
▁preserve~~7969
▁bath~~6789
▁ideolog~~12509
▁conquer~~4894
▁buck~~4369
▁Ecuador~~11055
▁child~~1570
▁Bionicle~~16312
▁proven~~6738
▁Chicago~~5019
▁subsidize~~10705
activate~~10148
▁Klan~~16299
▁enroll~~6007
▁TEDGlobal~~7739
▁volumetri~~12925
▁Dickinson~~11757
▁Pascal~~11784
▁stare~~3764
▁klug~~15450
▁poly~~3437
▁ellipti~~13207
▁radical~~1299
▁stark~~4408
▁heavy~~4539
▁Admin~~16110
uperstring~~15690
▁starv~~4935
▁Downtown~~14955
▁start~~500
▁stars~~8772
▁starr~~11111
▁grazing~~8929
▁pole~~7665
▁stuff~~234
onald~~7576
▁sprawl~~10994
function~~4505
▁custod~~15652
~~13385
▁circumcis~~9418
▁brigade~~5268
▁Spielberg~~6259
~~13386
▁BlackBerr~~14296
▁mountains~~407
▁Opium~~12901
▁patrioti~~13676
▁burqa~~8135
▁equipp~~6598
▁brave~~4601
▁rob~~7224
▁pollution~~4086
▁gripp~~11775
▁ecsta~~8147
▁organs~~7527
▁Fisher~~5093
▁nature~~1025
▁Loui~~12935
▁chirp~~11808
▁adhere~~4520
▁luck~~4432
▁contradiction~~12574
▁announc~~3369
▁disrespect~~4437
▁Mysteri~~16552
▁row~~8273
▁rot~~5002
▁university~~2567
▁Variation~~16247
▁Blue~~5866
▁mines~~9093
▁goose~~3479
▁bioluminescence~~277
▁Wind~~2332
▁favorite~~218
▁microphone~~3162
▁law~~4040
▁laz~~5259
▁lay~~4138
condition~~11824
▁fisherm~~5922
▁Sweat~~16393
▁lab~~1843
▁Raffael~~16575
ino~~4799
ini~~2206
ind~~2124
ine~~3811
▁diplomatic~~13565
ing~~130
ina~~3165
▁Five~~8575
▁valve~~8638
PETA~~15725
CM~~15773
▁contagio~~11113
▁scheme~~5827
▁Crowd~~5734
▁cyclist~~15842
▁emotionally~~8278
▁deplet~~13309
▁panels~~3879
▁mosaic~~14440
▁venom~~14126
skies~~11360
▁technical~~1989
▁experimental~~2568
▁stove~~12869
▁Rube~~11160
▁mechanic~~9150
▁Ig~~13472
▁Rubi~~6336
▁inefficient~~4956
▁Illinois~~5016
chance~~16228
▁mechanistic~~13429
U~~821
▁Bambi~~3908
▁circular~~7993
▁childhood~~1527
▁pulse~~7982
▁Ruby~~15357
▁circulat~~11278
▁strand~~7745
▁hero~~4888
▁caption~~10116
▁lim~~4470
▁filter~~8691
osni~~8317
▁here~~73
▁investment~~1512
▁recreation~~12099
▁part~~114
▁park~~900
▁arbitrar~~10769
▁requirement~~4643
▁para~~3335
▁Herbi~~11140
▁gunshot~~12722
▁IV~~9788
▁IT~~5733
▁outcome~~1374
▁Gang~~13031
▁vegetative~~15517
▁Black~~9540
▁Milgram~~16275
▁subjective~~6218
▁fierce~~6596
▁establish~~3681
▁graph~~6061
entropy~~10299
controversial~~5515
▁impos~~11736
▁Uran~~11741
▁Alisa~~15300
▁convincing~~5407
▁gelatin~~8838
▁Economic~~12497
▁browser~~6095
ali~~8612
▁unacceptabl~~1265
▁dragg~~8240
spen~~10499
mate~~9889
▁driving~~1482
▁am~~1084
▁parasit~~8532
▁carpet~~6884
▁Octo~~3889
Claud~~14202
▁grandmaster~~2810
▁vaccines~~4283
▁tolerate~~5355
▁disgusting~~11302
eira~~15273
▁applie~~2461
▁fungus~~12678
▁crow~~8537
▁crop~~1740
Ghraib~~12384
▁accumulate~~5394
▁scoop~~14157
replication~~7800
▁demographic~~10864
tank~~12128
▁0.5~~12682
▁Smart~~8897
▁conclusion~~5354
▁hint~~467
▁relationships~~4674
▁Gore~~10049
▁hurt~~2241
▁behavioral~~2535
▁devastating~~4275
▁dwindl~~4132
▁representation~~8880
▁Februar~~4135
math~~11475
▁obvious~~985
▁hurd~~15166
▁marriage~~4681
▁preview~~2978
▁giraffe~~13815
▁explain~~708
ches~~338
▁extremist~~14214
▁Hill~~3804
▁Florida~~7238
▁Eden~~13621
▁innovator~~7327
▁peek~~342
chef~~13798
▁iTunes~~12536
▁Ode~~12057
▁Brand~~10030
▁peer~~5983
▁former~~6165
chen~~13948
spect~~8657
▁teapot~~11376
▁those~~228
alt~~12829
▁extremism~~13835
▁emanat~~11805
▁census~~13093
▁engine~~847
▁impression~~2628
▁compass~~8014
▁okay~~2272
▁Mitch~~14146
▁microprocessor~~12567
▁RFID~~14740
▁concentration~~6640
▁utilitarian~~12149
▁south~~3669
▁Raspyni~~7394
▁McMurdo~~10674
amun~~11934
politik~~13579
▁emulat~~7603
▁Lazarus~~10972
▁latent~~11191
tanz~~15495
urture~~13344
▁gate~~5996
▁chaos~~2724
▁dorsal~~13745
▁atom~~9433
▁imitate~~9509
▁Wolf~~8725
▁sustainability~~6408
▁Netflix~~12203
▁technician~~2426
egulation~~8687
▁bloodline~~13103
▁Corp~~14074
▁shortage~~7298
▁fertil~~3636
▁Schell~~12805
gli~~3691
▁administration~~1661
balance~~13402
▁Europe~~811
▁Canal~~11661
▁Shivdutt~~13104
gle~~8839
▁Canad~~1402
aki~~3892
▁Arithmeti~~12751
bunker~~9963
aka~~13336
▁sexy~~5250
▁creative~~973
ake~~10334
▁chemicals~~6674
▁rever~~3121
secure~~6302
▁TEDxB~~15192
▁Carlo~~6164
▁stomatopod~~15688
echten~~16294
iz~~7977
▁tasting~~9475
▁trajector~~4100
bre~~5332
▁Eva~~13078
▁satellite~~1738
▁badge~~9220
▁Eve~~2282
▁uncann~~7398
▁Tibetan~~6666
Star~~16001
▁Look~~1310
▁Face~~6584
▁Past~~15800
▁dazzling~~8642
iq~~16490
▁Abdul~~15464
▁babies~~876
▁Parker~~14672
▁fear~~1244
▁Carson~~6784
▁Neo~~15415
▁Chihu~~11122
is~~3735
▁feat~~10401
▁Artemisi~~16033
▁commandment~~9139
▁players~~1052
▁homework~~5216
▁Pra~~13555
▁paleontolog~~7945
▁restrict~~994
▁paraphras~~7810
aware~~3701
▁plac~~1580
▁contaminat~~6772
▁scripture~~8456
▁localize~~9408
▁disorient~~10298
▁historical~~7869
word~~5258
▁Voice~~8849
▁rebellio~~8216
ers~~253
▁peripet~~15827
▁militia~~13581
work~~3882
ueens~~10554
▁Harry~~8054
▁foresee~~2299
▁shipp~~4078
▁Limit~~16032
▁qu~~5117
▁tolerance~~8438
▁play~~556
ern~~4150
▁association~~9085
▁suffic~~13185
illiard~~12137
▁clogg~~14300
cited~~5237
uar~~7199
▁Atacama~~13319
▁autobiograph~~8007
▁Way~~5719
▁Literatur~~5601
ual~~3789
uan~~7901
▁numb~~9590
▁pillow~~14778
▁Luft~~6041
uad~~8799
▁furious~~1954
▁progress~~4114
▁McCall~~9748
▁Star~~2767
▁imagination~~5422
▁flexible~~6971
▁Fri~~10038
▁Kamen~~10091
▁percent~~108
▁prioritize~~6837
▁Sir~~2138
▁Sim~~9223
very~~171
▁Sin~~15131
▁imprison~~11474
▁question~~942
▁instrument~~1069
▁Sie~~16374
▁Sid~~12082
▁Stan~~4521
▁prostitute~~8346
▁inspire~~2297
lah~~5499
▁recommend~~7293
nach~~4685
▁sensible~~5160
▁hierarchical~~9669
▁Chris~~2522
millimeter~~13144
▁collid~~10110
▁skelet~~13412
▁Kymaerica~~14187
▁widow~~8179
▁Week~~5872
▁anyway~~3078
▁Iron~~12204
custome~~12699
▁microbi~~10087
law~~2377
arch~~5054
▁compound~~3870
lar~~2638
▁administrator~~8904
▁guy~~354
▁protagonist~~6241
▁outlet~~6812
▁gut~~3247
▁Hiroshima~~11201
▁frighten~~5539
▁gum~~8345
▁Diamond~~12347
ical~~1603
▁dive~~575
▁ideological~~12507
▁fluent~~12357
order~~11864
▁Phil~~13395
▁tenth~~11502
▁crust~~9473
sceni~~11374
▁Highway~~10484
▁breathtaking~~5926
zen~~11904
▁professors~~6981
zer~~3746
▁slap~~5825
▁privilege~~4229
▁among~~1458
▁horrifie~~10658
▁dictate~~7732
▁tweak~~10363
incin~~7121
▁tournament~~8920
▁crush~~594
▁joking~~6680
▁Tonya~~16521
▁Turin~~14637
▁stoo~~2674
▁survived~~6544
▁analyz~~11832
▁balls~~7514
▁Beijerinck~~15786
▁Anthropo~~10295
▁Andromeda~~8860
▁kilometer~~4209
▁sledge~~9459
▁Watt~~12299
▁consol~~10750
▁kid~~945
▁dance~~1070
OMA~~15095
safe~~7759
▁Safe~~9368
▁assembl~~8372
▁grownup~~14178
bane~~14011
▁kit~~6623
▁guys~~268
▁Chen~~7899
▁arena~~3074
ahua~~11123
▁altitude~~5559
ther~~585
▁rehabilitat~~5274
▁simplistic~~8063
l~~2304
▁Scott~~3151
▁hostile~~7943
▁Bah~~11541
▁astrolog~~13696
▁skull~~5637
▁marketing~~4983
▁elite~~5236
▁drastic~~795
▁Mechanism~~13012
▁six~~484
▁McK~~10636
▁siz~~11684
▁sit~~377
▁McG~~2717
▁beehive~~11508
logy~~7288
ucci~~8771
▁arrowhead~~14090
▁sin~~4675
▁Ballet~~14045
▁where~~51
▁sie~~11880
▁install~~987
▁throw~~979
▁minute~~1777
▁tour~~2869
▁credi~~13469
▁Julian~~7593
▁drop~~2469
▁magic~~4957
riplet~~16557
▁disappoint~~1500
medicine~~11901
-1~~13568
▁uncertaint~~9151
▁Monitor~~16040
▁savor~~5245
▁intend~~5190
▁dealer~~12457
▁composer~~2839
▁loyalt~~12433
-2~~14742
standard~~14591
▁Service~~7291
tial~~1965
▁blogger~~8946
▁encouragement~~8028
▁intens~~2555
▁Reich~~13125
aindrop~~15719
▁Zer~~7922
ange~~14600
▁hacker~~8522
▁Nothing~~9136
▁endless~~3355
▁Discover~~9693
▁progressive~~7968
▁vehicle~~5878
▁Inti~~14578
CU~~15068
▁lo~~906
▁la~~2349
▁barbari~~8365
▁irresponsibl~~5456
▁le~~6145
▁playwright~~12140
ouTube~~6268
▁love~~232
▁captive~~13531
▁France~~3322
▁reserve~~3659
▁water~~110
▁qualit~~980
▁Amitabha~~12067
topf~~15874
▁papercutting~~15506
▁Arg~~15345
▁arrangement~~8078
▁patien~~5111
▁Kur~~3891
▁glamor~~11806
▁adolescence~~11781
▁conflicts~~12801
▁defensive~~11337
▁Kosov~~12697
▁tadpole~~13396
▁Turkana~~10721
▁vulnerability~~10300
▁reproduction~~7506
▁Buick~~8415
▁minorit~~5989
▁spectacle~~13830
▁rope~~6575
B~~9118
▁ESP~~14498
▁restaurant~~3584
▁scope~~6459
▁elaborate~~6465
▁NRK~~16499
▁clay~~7681
▁ESG~~16561
▁verge~~3289
▁families~~4364
▁pissed~~12707
▁learn~~755
▁nitr~~13863
▁interdependenc~~8895
▁cone~~12931
last~~10072
▁virtual~~431
▁Kurzweil~~14052
doption~~7382
▁crest~~13403
▁charm~~8701
▁rotate~~11663
materiali~~14133
▁mature~~11946
▁consumer~~1955
▁900~~1752
▁haunt~~10265
▁convince~~1574
▁10,000~~3266
Robi~~14673
▁Kost~~15296
▁bleed~~10280
▁Triumph~~2230
▁solution~~3019
▁chronological~~8824
▁TEDWomen~~4435
▁reinvent~~784
▁Afghanistan~~1342
osphere~~11179
▁bleep~~13351
▁Sutherland~~9954
East~~13168
gier~~15297
▁import~~3653
convenient~~14992
▁study~~948
▁interviewer~~11886
▁irre~~4336
▁turbulent~~11727
▁logical~~3868
rati~~8783
▁theatric~~10197
▁cadaver~~3956
neurobiolog~~15751
▁penis~~11896
▁Mein~~12661
▁Mont~~11135
▁Court~~10530
▁nozzle~~11305
▁burst~~4472
▁Talg~~15944
▁engulf~~11503
▁Roman~~3233
▁Eskimo~~13537
Button~~14583
▁sensual~~7682
recht~~16157
▁Mond~~13937
▁divid~~10839
▁decibel~~14784
▁Mona~~2980
programm~~11556
▁burning~~3970
▁decompi~~12377
▁lucki~~5577
▁divin~~14812
▁excellen~~2783
QQ~~16116
▁decoration~~9743
▁strict~~9703
▁Duolingo~~14900
▁pride~~2729
▁miser~~9207
▁landing~~5607
▁Orwell~~10431
▁seriously~~1271
▁contextual~~2011
ative~~2157
▁Model~~13878
▁editor~~6979
▁meditate~~8047
▁triangle~~8000
reserve~~16049
▁pendulum~~12927
▁galleries~~8737
▁Zir~~15216
▁broad~~4234
▁wonderful~~2192
▁Blumen~~12288
▁younger~~4485
▁Hick~~13471
▁plural~~14035
▁rescue~~6610
▁Zig~~13944
▁reinforce~~9103
ffective~~11564
European~~14879
▁omni~~9667
▁urbanization~~5137
elixi~~16368
▁Variabilit~~16400
▁electronics~~8413
hru~~10260
▁steward~~12571
▁Vander~~13893
▁Kiran~~14135
atchi~~13478
version~~4663
hri~~6016
▁books~~2632
autor~~16126
▁diverse~~2836
adequate~~7764
itter~~12315
▁Cloud~~6266
do~~2066
▁minutes~~1683
▁Or~~3088
▁kitten~~1037
▁Bin~~13026
di~~3801
▁bullet~~4306
oplankton~~3518
▁weapons~~4648
▁Oz~~2260
▁Dance~~14046
▁forge~~7733
da~~669
▁Luri~~13964
▁Bomba~~2993
▁Ob~~13657
▁Bombe~~16550
▁arms~~788
▁Oh~~548
▁Ok~~11212
du~~6660
▁Bit~~8958
▁drown~~3145
▁installation~~4753
▁On~~2303
▁Night~~3567
▁OS~~9086
▁help~~187
▁mild~~11827
▁strapp~~5970
▁conductiv~~13552
▁expansion~~1325
▁supervisor~~12444
▁held~~2172
rung~~9559
▁Wales~~3684
▁Industrie~~15906
▁OK~~2538
▁hell~~674
▁several~~627
90~~11208
iraj~~13682
agnesium~~11916
▁rejection~~7377
▁thick~~2485
▁1,500~~2758
▁lying~~7439
▁slime~~7796
▁heaven~~901
▁hysterical~~14237
▁allegiance~~13916
▁Portugal~~1548
▁injection~~6618
▁Bess~~12338
▁KB~~14968
▁marginaliz~~13635
▁Lovin~~15053
▁Herr~~15873
▁piano~~2946
▁slash~~8924
▁true~~195
▁Mineral~~13236
atur~~5664
▁feminism~~8255
Auto~~16076
away~~10915
▁Michelle~~8260
▁Emer~~14233
▁89~~9125
▁splash~~10563
▁feminist~~8185
▁Tahrir~~13772
▁Carolin~~9908
▁Newton~~7685
▁charcoal~~12294
▁constellation~~8864
parate~~12265
▁altruistic~~8935
we~~8234
wa~~5792
hai~~2361
▁repetiti~~9053
▁belief~~1517
▁optimism~~5490
wi~~3373
▁infections~~9121
wu~~15466
▁robots~~2955
▁infinite~~2322
▁KT~~16419
hal~~3442
▁believ~~3878
▁length~~1757
cop~~9437
▁design~~1074
ile~~8461
▁Would~~6301
▁Grove~~12191
▁propell~~10421
ilo~~14809
ill~~5174
▁RIS~~9706
▁Gavi~~7051
ili~~2098
▁Aurora~~8869
▁Strud~~16142
▁Gott~~16268
▁Sultan~~15429
▁myceli~~12378
▁conviction~~10326
▁Gilbert~~12546
com~~5228
▁Evan~~3809
ily~~3575
▁undergraduate~~5244
▁Match~~13005
▁Thank~~6295
▁delete~~10377
▁serve~~2255
▁pollutant~~3533
▁Hind~~8187
▁ARPA~~6535
▁middle~~1786
▁caregiver~~9917
▁Off~~6037
▁banana~~9105
▁adversari~~15383
▁brach~~15039
▁Aha~~12757
▁spaghetti~~12045
▁main~~1444
▁corporate~~1147
▁scientific~~362
Kerry~~11391
che~~7594
▁field~~1301
▁white~~489
▁maid~~2248
▁fan~~1272
ietzsch~~16057
difference~~14738
▁Constitu~~10462
▁mania~~6501
▁epitom~~6386
▁shaft~~11744
cholester~~14308
▁guid~~8605
▁Colt~~11320
▁Neil~~6968
▁Delan~~12731
▁crazi~~9543
▁Cristin~~14181
▁French~~7436
▁Cole~~10192
coherent~~6630
▁spectacular~~8796
▁Cola~~14561
▁sentinel~~15791
▁educate~~4787
▁wisdom~~1627
▁crazy~~2821
▁Coli~~14663
▁Compassion~~12229
▁upheaval~~8061
▁transgender~~10976
oreign~~13121
▁Bruc~~4246
▁grant~~7360
▁GCSE~~14467
▁globale~~16603
▁entrepreneur~~7532
▁Ramon~~12913
air~~2068
▁ending~~5289
▁information~~1889
▁colonialis~~12656
▁cookie~~5007
▁urchin~~11510
▁decision~~1096
aid~~2494
ssociation~~4807
voice~~15325
inspired~~12928
▁Serious~~7830
▁Vega~~7704
▁Carro~~10476
▁frontier~~8987
▁flake~~12277
▁diese~~3409
▁Swiss~~10825
▁indirect~~6813
▁cubic~~10164
▁tone~~2424
▁beneficia~~8374
▁reception~~5736
▁morning~~1191
perform~~1298
▁air~~1697
▁simulation~~9440
▁China~~4791
▁Nevada~~10479
▁viewpoint~~8013
preserv~~10147
▁Jane~~2268
▁soap~~6869
▁aim~~6235
▁need~~633
▁sensitivit~~4628
plin~~3153
▁aid~~4317
wheel~~4700
evic~~8777
▁Kiliman~~12942
▁Governor~~13474
nia~~3964
rail~~5358
hand~~4866
▁mutate~~6723
▁Wide~~8039
▁what~~140
▁stick~~706
Y~~2684
▁prepared~~1378
▁Thal~~15803
felder~~14201
▁Internationale~~14244
▁wi~~4723
▁Laut~~16155
▁13.7~~12319
kept~~2566
▁privacy~~7913
▁wo~~2822
▁district~~7884
ept~~8531
▁we~~65
▁HTML~~13255
▁initiat~~7801
▁Rebe~~15032
▁concession~~12443
▁deception~~10189
▁urge~~4198
▁1980~~1324
the~~2587
▁modular~~6068
▁Kafka~~8715
▁mouth~~527
▁flower~~8643
ourne~~9290
kala~~11518
▁Laur~~12961
ough~~12341
▁Sko~~13720
▁nail~~9736
▁bipartisan~~11443
▁Ski~~9599
▁pillar~~626
▁photographs~~438
▁Debora~~7275
▁alternative~~1879
▁touche~~547
▁photography~~10264
▁Holly~~12963
▁cooling~~11831
▁fractal~~11854
▁Sky~~10439
ourage~~15928
aub~~15004
▁alleged~~12552
▁Liberia~~8171
▁Miss~~12452
▁Mist~~16315
▁plow~~9298
▁recover~~3383
▁Galvani~~15890
outheast~~2402
▁stupid~~1009
▁spac~~12421
▁IKEA~~9853
▁spam~~11897
▁span~~2733
▁balcon~~11357
plasma~~7255
▁Prada~~15600
▁national~~1054
▁leaving~~3548
▁Tolsto~~9997
▁intersect~~6457
▁Friedman~~6004
▁relocate~~13311
▁swipe~~15011
izing~~4412
▁urban~~4302
▁inner~~4483
▁shifts~~4183
▁Martin~~3808
▁legendar~~2818
▁quality~~1456
▁Tso~~10642
▁blubb~~14694
▁beverage~~3417
▁satisfact~~8394
▁atomic~~9443
▁subconscious~~9553
▁brute~~7735
embl~~10195
▁bloodstream~~1850
▁Kahl~~15330
▁Grandma~~11892
▁Pleo~~16598
night~~2097
▁Mach~~2825
security~~13111
▁on~~145
▁Gaia~~15988
himi~~9374
del~~9539
▁imperial~~8133
moglobin~~10162
▁Geek~~16279
▁negotiate~~4991
▁Westerner~~9172
▁Einstein~~6152
▁gla~~13690
▁immortal~~4872
▁Gallo~~5
born~~4567
▁serif~~15909
auf~~15465
prüf~~16156
▁API~~8870
omics~~7404
▁Morning~~8803
▁straight~~3452
▁ferment~~11987
▁Laborator~~7266
Lee~~13254
▁disability~~3017
▁replie~~4695
▁grappl~~7087
/~~3327
▁1-2~~15231
▁happiness~~4923
▁concert~~7906
▁corporation~~8041
▁traumatic~~13936
School~~15381
▁for~~102
▁Millennium~~8342
▁Motor~~8583
▁puncture~~13379
▁fox~~5348
▁literally~~1859
▁fog~~8826
hould~~8665
▁future~~856
pla~~4652
peer~~5984
post~~8810
▁discourag~~7020
▁incorporat~~15648
▁google~~16508
trophy~~8291
▁SL~~11996
Ark~~15408
▁Liste~~15820
▁assimilat~~1737
▁obtain~~9514
▁glory~~9192
obb~~12366
literatur~~2295
▁Montana~~10152
▁permea~~7612
▁defeat~~4897
▁jump~~2902
▁McLean~~15843
▁understanding~~1709
▁1970~~1321
▁microscope~~7782
eight~~10486
▁documentar~~2156
▁Cedars~~15422
▁Natalie~~7853
▁performance~~1392
▁supreme~~5081
▁deform~~9063
▁conscience~~8976
▁Crick~~13873
▁colleague~~1123
bound~~6318
▁Astro~~12116
▁Alberto~~12716
ynthetic~~533
▁squeez~~2985
▁Freestyle~~15592
▁Glob~~9344
▁perceive~~3312
▁rescu~~14115
▁Commerc~~14384
wan~~10902
▁abandon~~4350
▁Mat~~9329
▁Mar~~7109
▁Map~~9306
▁squish~~11261
▁Eye~~11539
▁May~~7332
▁Max~~2431
▁Mag~~6222
▁Manag~~15328
▁Mad~~2974
▁Mac~~7539
way~~3287
▁Mao~~12902
▁Man~~6503
▁Earle~~4242
▁Mal~~7710
▁Mak~~12832
war~~6866
▁Mai~~11599
▁Minute~~9640
▁slee~~13980
▁Re~~2331
▁Change~~1706
▁utterance~~11713
▁Ra~~6210
▁Gas~~14841
▁Ro~~3431
▁links~~9174
▁Episode~~9506
▁Ri~~11818
▁forehead~~7960
▁Ru~~2378
▁Engineering~~13058
▁effective~~3647
▁McEw~~14037
▁Position~~15611
trug~~15367
▁RG~~6030
▁RD~~15456
▁build~~1287
▁greet~~9965
▁leverage~~4117
emia~~6687
▁seductive~~4352
▁Sherm~~16307
▁RM~~9751
▁Chair~~6202
ornitholog~~10778
▁nostalgi~~6823
▁0,0~~15855
▁volcano~~148
▁greed~~10775
▁enthusias~~4413
▁RP~~15377
nsas~~10708
▁again~~616
▁aspect~~1906
ochai~~8937
▁schools~~786
▁after~~498
▁simple~~537
▁jumped~~6346
hotter~~12316
▁exaggeration~~9799
▁Somali~~9412
▁Jim~~2107
▁shock~~1894
▁lots~~3285
▁convict~~10215
▁schematic~~11488
▁abusi~~12089
▁phosphor~~13140
face~~7489
mole~~11587
▁Maybe~~11546
▁antagonist~~12588
▁seven~~1406
▁Apartheid~~16369
test~~8896
▁headed~~4189
▁Kwa~~15451
▁thankful~~5130
▁habit~~5974
▁Imagination~~16059
▁stumbl~~6628
▁Galaxy~~11801
▁Taiwan~~7892
▁imitation~~8274
▁Insel~~15856
▁assist~~8197
quator~~14448
▁Billy~~11750
▁Buba~~16218
ership~~7635
aus~~12227
itude~~12830
▁Heife~~12486
▁Camill~~14150
▁obsess~~5090
▁bugs~~2537
▁ski~~1139
▁observation~~5080
▁Apollo~~5721
▁ballet~~8729
▁intrigu~~5980
▁Thula~~11569
▁export~~9026
▁sky~~1672
▁bugg~~2534
▁Frederic~~8622
▁fluorescent~~6995
▁Brigade~~10545
▁laparoscopic~~12258
consum~~10722
▁worked~~1276
▁giganti~~2942
▁quark~~12310
▁award~~4925
▁aware~~477
▁apolog~~4474
▁obligation~~7680
▁vaccination~~4289
▁slavery~~9003
▁Aus~~14667
▁ich~~15798
▁Astroturf~~11018
▁Migration~~13307
▁Gegen~~10398
zone~~4585
▁heartbeat~~6646
graph~~5681
ibati~~13634
▁pseudo~~15892
▁follower~~8030
▁advocate~~7389
▁stole~~7699
▁underdog~~13335
rhythm~~15857
▁restorati~~15665
▁Susskind~~13987
ggie~~13202
▁Botox~~11612
▁biograph~~8441
▁Myo~~15204
ennett~~4790
▁Pick~~13166
▁MacCready~~13406
▁Britanni~~12114
▁rejoice~~9876
▁Commission~~13115
▁Shoot~~13371
▁commemorat~~9027
▁Korean~~1345
▁recogniz~~3781
▁Liebe~~15783
▁gold~~7186
▁provider~~4783
▁golf~~7367
▁Mola~~12681
▁error~~6127
gua~~6949
▁lens~~7566
▁administrative~~1630
▁forgiveness~~10213
▁spike~~6062
gus~~5269
p~~2442
▁multipli~~6398
▁Doc~~7463
▁segregat~~1582
gut~~16089
▁qualifie~~7299
▁commute~~8050
eclaration~~5172
rselves~~10225
▁Elli~~3918
▁multiple~~4297
▁catch~~374
revolution~~14770
▁Ebbe~~12428
▁discount~~6082
▁code~~1957
▁iteration~~6452
▁Professional~~15521
▁Gaines~~15607
▁elusive~~5851
cost~~4765
▁250~~6013
▁Zoo~~13532
▁offset~~10914
▁filth~~9660
ST~~15028
Ladenism~~15114
▁Love~~2139
▁pamphlet~~10667
▁arm~~1842
▁arc~~6814
▁form~~685
▁arg~~15918
sprung~~14131
▁are~~106
▁Welle~~15923
▁Volk~~15301
▁art~~1966
▁Bor~~12329
▁Haw~~9520
▁discomfort~~8205
▁Scho~~11581
▁Har~~2283
▁My~~3045
▁pave~~5310
▁carving~~10411
▁Mu~~3318
▁Boy~~1926
▁Manager~~15171
▁Mr~~2075
▁Schi~~15545
▁Mo~~2738
▁Had~~10637
▁sunlight~~6944
▁Mi~~9902
▁Enric~~15851
▁Han~~2274
▁Hal~~4199
▁Ham~~7094
▁Mc~~6987
▁excessive~~10250
▁Ma~~2850
▁Hai~~12152
▁Venter~~7252
▁heartbreak~~6816
buch~~8457
▁prize~~4927
▁tube~~522
▁GSM~~15108
▁MW~~16407
▁MS~~11687
▁MR~~14100
▁MP~~3193
▁hinge~~15353
▁suspicio~~5885
▁declin~~6404
▁enclosure~~12965
▁ME~~9798
▁Institution~~15445
▁business~~836
lastic~~9513
▁telephon~~13509
▁Ev~~14647
ecession~~16409
▁intergala~~13741
▁hard~~1101
▁Flint~~11014
▁tabu~~13656
▁complete~~1314
▁harm~~4113
▁unsafe~~11012
▁Mountain~~2195
▁brochure~~9774
▁stimulate~~1081
▁ROV~~5892
▁secondar~~4407
▁shadow~~9905
▁Helm~~14394
▁born~~1426
▁packet~~3731
▁regulate~~6721
▁grati~~10601
▁photoreceptor~~10384
▁copyright~~7565
▁horrible~~7785
▁danger~~6650
▁dimension~~1410
▁accidental~~9159
▁queue~~10574
▁supersonic~~13215
▁messages~~2794
▁Cousin~~16028
▁guru~~9977
▁calibrate~~13799
▁pathway~~1618
▁priorit~~1567
▁integration~~1779
▁Atala~~12918
▁purple~~11603
F~~7409
club~~7447
▁aero~~10407
▁bite~~5085
mplitude~~13359
▁instrumental~~9362
▁controller~~3025
▁Brenn~~12463
▁bitte~~15620
▁Aspen~~7468
▁outside~~2931
▁FedEx~~1148
▁expect~~1587
▁impediment~~15557
car~~4057
▁broadcast~~8778
cap~~10272
abyte~~14823
▁diameter~~7862
▁embedded~~6820
can~~5067
cam~~10032
cal~~8734
▁hurricane~~11839
▁binaural~~15693
▁instruction~~6134
▁Instant~~15258
ibu~~3952
▁hospice~~4882
▁Ost~~15221
▁prayer~~6667
▁Edit~~5848
▁peak~~4298
noch~~2739
cular~~9041
chip~~5188
▁chainsaw~~15864
▁grandfather~~2217
▁usage~~6060
heard~~8795
topia~~3759
▁Lear~~8760
▁hallucinat~~9045
chim~~12117
▁novel~~1371
▁Mello~~15499
▁optimistic~~855
▁shaman~~15618
▁hav~~204
▁hat~~2559
▁pediatrician~~3926
▁yellow~~1394
▁has~~184
▁hap~~9259
▁unveil~~9839
▁McChr~~4522
▁make~~164
▁views~~3241
species~~9249
write~~9770
▁cities~~3571
▁had~~466
▁Middle~~3290
▁hab~~9243
▁invertebrate~~13420
▁ham~~2000
▁feminine~~9217
,8~~3310
▁Major~~12058
▁Trickster~~16278
▁urina~~8744
▁hypoxi~~15704
▁able~~644
▁aura~~2866
▁cafe~~5045
sklav~~16246
▁Copp~~11265
▁Deb~~12557
▁Dec~~7840
▁Den~~9806
▁tectonic~~6551
▁Del~~12474
▁premi~~5058
▁insufficient~~13135
▁selective~~7149
▁inspired~~5683
▁Des~~8600
▁th~~6741
▁puzzle~~8166
Ship~~13205
▁SPCA~~14979
▁setback~~4826
serving~~10997
▁Psalm~~12573
ender~~9901
▁convention~~7574
▁prosthetic~~7232
ities~~727
▁essential~~2328
▁traffick~~11119
▁vice~~2578
▁dominance~~5033
▁Carpe~~13865
▁grind~~1262
▁taboo~~5256
▁Helen~~11979
enden~~9212
▁vici~~13241
ular~~6583
cola~~9958
▁Chile~~1404
▁Child~~2702
▁dilemma~~3913
RW~~7423
selves~~6870
▁veteran~~10135
▁Nicaragua~~14241
▁magnetic~~11267
▁toll~~5107
▁foot~~364
RD~~13729
▁migrant~~7743
▁neck~~11421
▁Bots~~14016
▁First~~8158
▁fool~~3876
RC~~5311
RL~~13257
ttendee~~7130
▁broken~~851
▁summon~~6548
▁food~~606
▁legal~~4060
▁mourn~~12818
▁perimeter~~14071
fline~~5712
▁morally~~9156
nox~~14331
▁temptation~~13751
half~~3543
not~~4456
▁Bra~~7597
down~~8035
▁us~~31
▁Obama~~8568
▁up~~224
▁configuration~~2764
▁Rauschen~~11325
▁generative~~9442
▁Nollywood~~15765
▁rank~~831
▁Pedr~~3509
▁automatic~~1356
▁suffering~~7886
▁un~~172
▁um~~7778
▁Angel~~14596
▁storyteller~~1941
▁uh~~9833
em~~1268
el~~2109
en~~637
ei~~8433
eh~~5043
▁vari~~1547
▁object~~2692
▁Radi~~14486
ed~~186
eg~~7001
▁Kapur~~15543
Swee~~6988
wrestl~~2722
▁interplanetar~~16064
eb~~8854
ex~~2995
▁vary~~7541
year~~749
ft~~7222
ew~~2565
▁unknown~~4238
ep~~3440
es~~149
er~~353
▁forbid~~902
▁paranormal~~14616
hhhh~~14907
▁pregnanc~~6749
▁swirl~~244
space~~5673
▁accurate~~7373
▁Convention~~4195
estone~~11358
▁temper~~13838
▁Electro~~14679
▁Kle~~6023
▁Hippocamp~~16433
▁eyeball~~7434
ummel~~16347
▁Barbecue~~15672
▁SW~~14872
▁Fitzgerald~~9786
▁instinctive~~3238
▁negative~~8137
▁def~~2103
▁innovat~~12090
▁street~~4382
▁Dirt~~15824
▁den~~3225
▁Osa~~14563
▁collision~~4233
▁Laptop~~6935
▁Race~~14082
▁Wilkins~~13992
▁dirt~~903
▁Person~~13116
▁der~~3753
▁des~~725
▁deposit~~3414
lma~~6192
▁rival~~12400
lright~~5443
▁unnecessar~~5367
care~~8044
▁Work~~9767
fa~~4051
▁hallmark~~7959
▁ignore~~9088
▁Status~~13577
▁pledge~~11239
▁times~~897
▁rod~~8091
▁Statue~~14101
global~~13755
▁embark~~9468
xi~~4821
▁Okeechobee~~16454
▁rise~~1336
▁algorithmic~~6468
▁risk~~1692
ition~~6001
▁computational~~6046
▁explore~~311
▁infant~~6734
▁Achilles~~7474
▁waste~~1424
▁simplicity~~10136
▁megacit~~8369
rine~~7726
▁brittle~~11534
▁diffusion~~11959
size~~5086
▁pour~~3237
▁intermediar~~2956
▁demos~~2437
▁orphan~~9021
▁Station~~10675
traction~~9932
▁agenda~~7716
▁Anand~~13177
▁yeast~~11985
▁forensic~~8647
gging~~7807
▁mumble~~14975
frame~~6818
▁powerful~~1654
▁squash~~885
nutrition~~4960
▁neurologist~~9034
▁exceed~~1612
▁Leib~~12737
▁flip~~4032
quat~~3386
public~~14969
▁Saint~~12216
▁Luxemb~~1459
ographie~~16048
▁seizure~~9146
▁aesthetic~~7666
▁Craigslist~~12525
▁Neuro~~10390
▁Jag~~6671
▁milestone~~5446
▁handwash~~16518
tangible~~12564
almon~~7178
▁program~~1840
▁defect~~6696
▁What~~2787
▁movement~~2907
▁glass~~3389
▁ordinar~~1605
▁Genev~~9333
▁destroy~~4101
▁merc~~4989
▁foster~~5801
▁mere~~5336
▁mode~~5278
▁Relation~~13759
▁Floren~~6163
▁Berg~~15729
▁judge~~7067
▁Huaorani~~15617
▁simulator~~7241
▁symmetric~~6932
▁probe~~8918
▁Hamp~~11397
▁cunning~~11363
▁smelt~~8673
▁atheist~~2639
uten~~14562
▁Museums~~16434
▁frivolous~~1137
▁Indiana~~10336
Knievel~~16474
orruption~~14136
▁glance~~13460
▁Hama~~10266
▁Smol~~15412
▁silence~~2224
▁Express~~11459
▁smell~~3679
▁Kenyan~~12611
▁Nachtwey~~13724
▁interrogati~~15235
SS~~6329
▁Po~~1545
▁Ph~~2991
▁electronic~~4639
▁Spar~~14487
▁Cape~~11037
▁Pe~~3497
▁Bro~~13933
▁planetary~~9637
▁Pa~~6265
▁critical~~589
▁Bru~~12777
▁document~~3421
▁lifestyle~~9593
▁Pr~~4398
▁animate~~9221
▁Koh~~11344
▁PH~~10804
▁Chaos~~15941
▁hope~~2049
▁headline~~1681
▁amp~~7838
ance~~1810
▁Luc~~7933
▁sei~~14768
script~~15057
mbient~~8681
pattern~~15418
▁intuitive~~3239
professional~~1002
▁Kol~~16062
tenberg~~15337
blatt~~11485
▁PR~~4043
▁PS~~15123
▁disclose~~11034
▁Umar~~4355
▁dependenc~~7965
▁influenc~~10892
▁Principle~~11624
▁runn~~916
▁skate~~15295
▁farm~~3644
▁responsibl~~7302
▁ozone~~11906
▁cover~~1389
ectar~~8653
▁Rasmus~~14585
▁systematic~~2715
fifth~~7370
ground~~5551
▁grin~~8223
▁grim~~3630
▁retrospective~~13061
stair~~4493
▁profane~~16052
▁grid~~1773
▁Therapeut~~14173
▁vessel~~3236
,4~~12477
▁esoteri~~11734
▁chemokine~~15530
▁operator~~4816
▁Budweiser~~8561
▁canvas~~3694
▁grip~~4346
▁investigator~~7363
azi~~14464
▁Ethiopi~~15290
routine~~13899
▁telescope~~10780
▁Post~~7296
negotia~~10466
▁Label~~12184
▁geographic~~5767
▁alien~~628
▁bracket~~12638
▁minister~~7905
▁Tric~~6285
▁wag~~4619
held~~14493
▁prove~~1010
▁symphon~~745
leuk~~6686
▁serendipit~~7331
▁kindergarten~~1524
▁borrow~~4873
▁NAS~~12112
urdy~~15167
▁bloop~~15644
▁Ash~~12980
▁Ask~~12687
▁biofuel~~1742
▁stone~~6156
▁Camarasaurus~~16600
▁helmet~~10409
▁Voodoo~~15283
▁disconnect~~3841
▁prosod~~15924
hell~~6745
▁Ass~~14599
reiter~~15374
▁Um~~15284
▁Alex~~3137
oque~~10609
▁accumulation~~3398
▁remov~~2705
▁Spence~~9225
▁jig~~5921
▁Shirk~~12466
▁AlloSphere~~9428
▁192~~9394
3~~1721
ambo~~15449
▁Mashelkar~~14314
▁Building~~5612
▁Teresa~~14864
▁annoying~~2385
▁fortune~~6514
▁resort~~5904
▁Orion~~8857
▁Ebola~~14413
▁Town~~11935
▁sibling~~8339
▁correction~~10878
▁computers~~5423
▁withdraw~~5005
▁Ich~~11643
garde~~11966
▁way~~299
▁prosecute~~13445
▁curtain~~7008
▁Pier~~2289
▁Piet~~15195
▁Hungar~~1551
▁Northwest~~3468
mond~~8601
▁adapt~~971
rippe~~15979
▁specula~~5452
▁jumble~~5726
▁junkie~~10948
▁Stock~~4133
送你葱~~16120
▁package~~3565
▁large~~1430
▁Autist~~12051
▁surprising~~2788
▁Everest~~4729
▁Portland~~8271
▁gland~~12163
▁Professor~~6198
presse~~16402
▁Seminar~~15030
▁acquisition~~2327
▁trawl~~3519
characterization~~14854
▁Course~~5981
▁50-~~4388
▁quiz~~5982
▁500~~3733
COB~~15308
▁oxygen~~531
SHA~~14340
▁gadget~~8379
▁nonviolen~~10882
cycling~~4731
▁Muti~~15945
▁Everglades~~16453
▁elegant~~2237
▁aggressive~~4829
▁security~~4998
▁bullie~~13442
▁fossil~~3619
▁prototype~~2945
▁globaliz~~1308
▁feedback~~3922
▁redefine~~4875
▁Donnell~~13717
▁reliabl~~4976
▁inventor~~1832
▁Front~~10888
systems~~12659
▁mysteries~~10670
▁slums~~2030
▁force~~1812
▁Starbucks~~10694
▁animal~~247
stema~~14867
▁informant~~16464
▁Medina~~15362
▁simultaneous~~6854
▁Besser~~11020
▁Sake~~8191
▁punchline~~13467
▁intellectual~~6108
▁healthcare~~4855
▁passe~~929
▁animat~~15199
ett~~10117
▁3-~~6287
▁regional~~4162
▁alchemist~~8221
▁horr~~11411
▁composite~~10329
▁living~~805
▁35~~1493
▁34~~2369
▁37~~5215
▁36~~4075
▁31~~12519
▁30~~2048
▁33~~10777
▁32~~10019
▁drip~~9534
exist~~10728
▁39~~12595
taking~~1691
ization~~939
▁nurse~~2418
▁elevation~~6475
▁baby~~920
▁city~~2414
bowski~~15964
▁debunk~~15016
metric~~11729
▁Blair~~12729
▁hate~~7424
▁legend~~4046
▁polariz~~11446
▁Park~~6972
bias~~13760
▁hardwir~~1015
▁thigh~~4577
▁stagger~~9386
▁disagree~~8303
▁mathematics~~1591
▁Wiki~~13264
▁cite~~5489
Israel~~3304
develop~~10983
▁brows~~12121
▁inch~~513
litz~~12487
media~~1953
▁when~~104
food~~9658
▁return~~774
▁implicat~~10333
Charm~~1830
▁null~~14971
▁collage~~7475
▁expansive~~5750
▁serving~~5084
Č~~16545
▁Poly~~12010
▁hide~~1126
▁secur~~2698
foam~~9662
▁Branson~~13210
ā~~15293
Splashy~~14277
▁Poll~~6532
Lorenz~~3793
▁edition~~10303
▁bird~~3433
▁Pole~~5538
▁backpack~~2608
▁snapshot~~11512
▁devou~~8167
▁Godzilla~~15657
theater~~11826
▁PAT~~15610
▁punch~~11249
▁presum~~3194
▁Shir~~9783
▁Dean~~10090
rama~~8707
▁bli~~8088
▁Firewall~~16117
▁Paris~~6848
▁attractive~~1578
wege~~12696
▁bla~~9250
▁punct~~8850
cca~~6998
▁Mehr~~16043
▁comfort~~7405
▁coloniz~~5621
▁tipping~~11220
▁rifle~~12886
▁spade~~5357
▁philanthropi~~5505
▁Byron~~10853
▁lobby~~5643
▁statistical~~8829
▁lense~~10877
▁support~~506
▁entrance~~6809
▁pre~~965
▁motorbike~~5523
▁rectangle~~9438
outique~~10034
▁account~~1631
▁immunization~~9401
▁improvise~~3159
speed~~3185
▁Bengal~~15598
▁answer~~1479
▁immune~~5509
▁offer~~1951
euros~~7520
▁Ji~~8385
▁acceptable~~10558
verse~~6070
▁Lucifer~~15448
▁offen~~9281
▁exuberan~~9097
▁electro~~10779
disproportionate~~11022
real~~5795
▁illustrate~~3966
▁wage~~3655
▁craft~~2356
amo~~12386
▁soundscape~~13277
▁colonies~~507
▁dataset~~8837
ame~~10445
▁pray~~5847
▁party~~2376
▁strange~~609
▁clump~~5724
▁Reuther~~14521
▁dialog~~7714
amp~~7837
threaten~~11094
▁Synchroni~~10821
▁auto~~1186
▁hands~~270
▁Metall~~16321
▁grave~~1662
▁Summe~~14466
▁situations~~1372
▁comprehend~~6827
▁spite~~3413
▁Bandura~~15152
benefit~~2611
▁something~~183
▁Phase~~15867
t~~21
haram~~14821
▁Nazis~~14845
▁distortion~~3997
▁striving~~10153
▁Tribu~~12891
▁Asteroid~~12188
▁handl~~4986
▁brief~~5769
▁Maeda~~9707
▁liver~~11057
▁sand~~5399
▁sane~~9040
verbal~~13367
▁tattoo~~2247
▁sank~~12420
▁screen~~2074
▁dorm~~6271
▁uncover~~5629
▁near~~2167
▁neat~~670
▁enliven~~12804
▁hamburger~~10220
▁reache~~4971
▁mul~~10746
▁Gro~~15813
▁Hard~~8928
▁circa~~12946
▁lower~~1499
▁engagement~~2311
▁roost~~352
iff~~14050
emeral~~12069
platin~~13625
▁Lago~~14502
koko~~15949
▁Hart~~11634
ethos~~11650
▁Page~~6022
▁tutor~~5217
▁teache~~4575
▁once~~1383
▁dream~~2419
▁auditor~~12028
▁section~~3052
ilhouette~~15215
▁herein~~15318
▁predominant~~8362
▁dread~~5286
▁assignment~~5985
habi~~10981
uddle~~12517
▁psychic~~12414
argassum~~4125
▁theorist~~8122
▁bend~~3872
▁Mess~~14677
▁circl~~12178
▁1947~~9318
▁1940~~9796
▁Biblical~~13705
▁Brahm~~15841
▁sports~~1065
▁Diaman~~10841
▁bent~~11285
▁Accra~~14519
▁Infinit~~12372
idden~~9029
▁Avelile~~14830
▁Jeff~~9879
thanol~~10702
▁TEDxC~~14295
▁Bogota~~11388
▁Christmas~~2375
▁name~~3002
▁messag~~11716
▁Athlet~~13704
▁eye~~3877
▁supposed~~1260
▁Expedition~~14407
▁TEDxS~~11825
▁amorph~~5739
Store~~14814
rque~~8851
fast~~11224
▁hotspot~~4223
log~~7355
▁spring~~630
▁assault~~11749
▁taxonom~~9858
loh~~14886
lon~~5775
▁penalt~~10217
▁Flo~~9307
start~~6506
lop~~6973
lov~~8212
low~~6342
▁spen~~1455
▁propriet~~2088
▁digit~~9702
▁Kni~~9519
▁tornado~~13975
▁Gates~~4422
▁intentionally~~7146
▁yet~~160
▁yes~~729
▁commerc~~8909
▁summarize~~6149
▁Okay~~3291
J~~9882
▁curriculum~~6075
ulu~~10043
▁manufacturer~~6908
▁Ernst~~13655
▁janitor~~14434
▁yea~~3063
▁Olso~~15442
▁gest~~7203
▁Director~~8440
▁these~~235
▁Exo~~10306
▁sword~~7388
▁bored~~4747
▁manufacture~~11903
▁pharmaceutical~~8942
▁barrier~~7472
▁common~~1981
▁cyberattack~~15002
▁Scharf~~16579
▁startup~~9952
▁sculptural~~11340
▁7.5~~15263
▁replicator~~14586
▁Cliff~~10005
▁qualitative~~12967
▁Hutchi~~14412
▁cruise~~9483
▁novelist~~6797
▁actress~~11091
nerv~~15411
▁McKi~~14649
▁Vivien~~15790
▁extra~~1368
▁Grand~~6181
▁comics~~10074
oulder~~9897
udience~~12336
▁snapp~~13557
▁Union~~6505
▁amateur~~2835
▁Velcro~~14568
▁parliament~~5056
▁DMCA~~7648
▁reiterate~~10347
▁detaine~~11975
▁detach~~10986
▁worldview~~1918
polar~~12183
▁injustice~~8377
▁proud~~6293
▁Doodle~~15806
Fernando~~12893
▁syringe~~6615
▁skat~~14922
▁shut~~7220
▁consciousness~~2128
▁Rosa~~12713
▁Niss~~14008
▁formulate~~10628
pool~~5706
building~~11254
▁acid~~679
▁beautiful~~44
▁await~~6498
▁custom~~9130
▁OLPC~~6942
▁Kasparo~~15382
▁verse~~5691
▁riches~~2015
▁mentioned~~2210
▁winter~~4181
▁melt~~3387
▁obey~~14882
▁fratern~~14334
▁Nu~~9311
▁Fab~~14928
▁thriv~~681
▁squeak~~12320
month~~3477
▁drug~~4847
erkeley~~3836
▁drum~~3072
▁Mosche~~7412
religious~~16132
▁Terminator~~13062
otassium~~13614
▁evangelical~~7105
▁swapp~~10624
▁inappropriate~~4506
▁Liquid~~16015
▁effic~~12167
▁equation~~4516
elle~~14996
▁Men~~10622
▁Mem~~13737
▁Mel~~9378
health~~10945
▁petrol~~13283
▁Med~~6184
▁snippet~~6516
▁Vi~~2024
▁slam~~11264
▁newborn~~6733
▁Chamb~~1764
▁Va~~6175
▁insignifican~~12046
▁poor~~600
▁grown~~3768
▁Ve~~6171
▁appropriate~~2688
verb~~5845
minded~~4954
▁frostbit~~6625
▁great~~124
▁epic~~6657
▁Champ~~11971
▁Cyr~~8436
Patient~~16242
▁narco~~16145
▁aisle~~11910
anav~~16314
▁evolv~~683
▁oblige~~11166
▁VM~~16511
issue~~10313
▁digitiz~~13794
▁beyond~~769
▁Jones~~8016
▁Murray~~10505
percepti~~14731
-3~~14306
▁PSA~~14311
▁advertis~~6903
▁billionaire~~13208
rench~~7347
▁Birke~~13875
pul~~13628
▁shoot~~3279
solu~~13146
▁rule~~2751
▁problematic~~10951
▁crime~~958
▁inhibit~~5468
▁Capital~~13182
▁embarrassing~~8280
ococcus~~9847
ieber~~16254
▁breakdown~~8830
atory~~6071
▁cochlear~~15548
▁1910~~13966
▁Telescope~~13219
▁predictabl~~2542
Korea~~16338
▁quantitative~~11957
▁CSI~~12302
▁asphalt~~10992
▁Sustainab~~15029
▁Jarrett~~16026
▁ulcer~~12253
▁visibl~~12642
onne~~15118
▁positiv~~15680
▁Karen~~9996
▁technology~~176
▁grow~~614
▁confluen~~12947
▁spacecraft~~6355
▁analyze~~3054
▁dishonest~~11696
ntercept~~16466
▁align~~1641
▁rally~~12398
▁Breivik~~15441
▁Hummer~~7322
▁Rain~~14386
▁45,000~~9284
▁nine~~398
weile~~15501
▁cycle~~735
ommission~~13787
▁attitude~~2140
ureau~~8556
▁vector~~10361
▁radio~~3164
▁midst~~7462
▁boomer~~10045
amount~~4059
▁why~~709
▁blunt~~9554
▁tea~~5910
▁ten~~1822
▁premier~~2979
▁Hyo~~16244
altech~~10805
▁pig~~3709
▁conference~~6546
▁pie~~10652
▁classmates~~14758
▁pin~~2747
▁benefit~~841
▁facade~~10316
halle~~16178
put~~8959
▁pit~~3135
▁stripped~~3857
▁Schwa~~16092
hren~~12065
▁lud~~11719
conventional~~10751
▁allocate~~9102
▁gaze~~2333
▁employment~~4777
▁realiz~~8200
▁bonus~~7534
▁remix~~7561
orporation~~9382
▁Cairo~~13779
▁spectroscop~~13600
▁disappointed~~7813
▁maps~~401
▁dubio~~12170
▁normal~~544
▁convuls~~9082
▁loyal~~14284
▁Mandelbrot~~13764
hurra~~8490
▁Tour~~9812
▁prosthes~~13014
▁simultan~~15261
▁frequent~~8831
marks~~14170
▁Reader~~3802
▁tight~~4546
▁implement~~1647
▁people~~206
▁Dai~~11287
▁matur~~1095
uarter~~6990
▁747~~12840
▁plague~~12364
mounted~~5938
▁them~~262
▁penetrat~~13145
▁then~~357
▁afflict~~12810
▁Asperger~~9950
▁Melodie~~11758
▁semi~~3738
▁character~~2938
SP~~11620
▁publish~~5082
▁survey~~1209
▁apply~~891
▁apple~~2599
▁Vietnamese~~7885
SB~~13538
SA~~5034
▁describe~~2316
▁Congo~~5301
SE~~10413
▁Freud~~13434
▁above~~1200
ockpit~~9497
▁transcendent~~5728
▁Niels~~14053
▁proliferation~~8110
▁modification~~7351
▁Schlau~~16269
▁funeral~~5688
▁spread~~3286
acco~~12825
▁decline~~4171
▁isolat~~5964
▁optical~~5874
▁bounce~~2453
▁Conference~~12680
▁Rick~~11313
PGA~~15520
▁family~~870
▁Winky~~16077
▁revelation~~10427
utilize~~9369
▁Lord~~2101
▁redesign~~7835
▁temperature~~558
▁Respons~~14140
▁happy~~1157
▁Hex~~13038
▁Hey~~1228
▁2008~~2411
▁2009~~1387
rude~~5328
▁Her~~2875
▁bounc~~13060
▁2006~~1993
olecular~~7342
▁2000~~1491
▁2001~~4584
▁2002~~3818
▁Microsoft~~10048
▁Stanford~~3931
tries~~5467
▁Hei~~11625
▁reservoir~~4345
fe~~3374
▁Hel~~4768
▁Neanderthal~~9280
fi~~453
▁Hea~~10131
Sensing~~11289
a~~241
▁timber~~10527
▁favor~~2161
▁nutritional~~9666
▁Who~~3294
▁deceptive~~6286
pulver~~13278
▁Graham~~8765
ï~~14652
▁1.~~9117
▁Daw~~6796
▁13~~1333
▁12~~2661
▁11~~1720
▁10~~696
▁17~~3119
▁16~~3917
▁15~~1725
▁14~~3258
▁19~~8340
▁18~~2008
▁lifespan~~5450
▁Lithium~~13602
▁mockingbird~~15958
keit~~16170
▁wildest~~11241
▁centrifug~~12937
▁packag~~3556
help~~9976
▁seal~~11298
▁universit~~2682
▁Prius~~9591
▁pyramid~~9603
▁have~~137
▁Horn~~10144
erox~~9817
helm~~13186
▁consult~~3904
kinetic~~11915
▁predicat~~14044
▁tasty~~10655
▁Gramm~~11173
▁clean~~2222
olocaust~~9586
▁rent~~6986
▁logistic~~4378
ranscript~~18
▁contraption~~11162
▁Sabia~~9869
▁clown~~12850
▁singer~~2937
▁eloquent~~5198
▁Natur~~9247
▁applau~~10423
sensor~~10392
▁under~~350
▁approv~~5183
▁innocen~~13458
▁storytelling~~6888
▁therapie~~5181
▁composition~~1557
▁Kavita~~8148
cer~~10093
cep~~1892
foot~~2194
▁persuade~~5350
▁Trends~~15020
▁plutocra~~15333
▁diabetes~~6697
▁Tier~~13502
▁terrorists~~10459
▁coincide~~12632
▁proper~~3623
▁discuss~~3514
▁simpler~~11331
▁Tora~~13827
▁Dominican~~15556
▁martyr~~12510
▁wander~~7995
▁clapp~~11155
ifi~~7731
▁someone~~2748
▁Surf~~16328
▁paragraph~~5116
▁Heli~~14898
▁hob~~13632
▁Terminal~~14963
▁IBM~~6519
▁television~~5603
▁eager~~4802
pho~~8487
▁Tori~~16471
Engine~~9676
▁curse~~8243
▁paraplegi~~15865
▁gifted~~7029
▁suspect~~4736
▁1880~~11730
▁her~~1689
▁salv~~12826
▁versa~~4635
▁Stalin~~9970
sustain~~10984
7~~3127
▁versu~~6122
▁Fragment~~15961
▁overreact~~9983
▁Aust~~2269
▁list~~1483
▁expedition~~5859
▁unbelievabl~~677
▁modulate~~13357
▁who~~783
▁Dakota~~8272
▁Poupon~~16357
BC~~8619
▁sell~~3546
▁whe~~1364
▁marshmallow~~14761
reason~~13433
base~~2448
▁möglich~~16177
ase~~5512
▁Gladwell~~7325
▁Chech~~15812
pur~~12144
▁Pic~~14805
▁Pur~~2250
▁shrimp~~598
▁propeller~~2949
▁smash~~9104
▁Dan~~2532
▁Pate~~16095
▁Dam~~5317
▁fourth~~1878
▁lack~~3040
▁Minsky~~11662
▁Daf~~10697
▁Dad~~5296
▁Pub~~14293
▁Pin~~13590
▁Day~~3496
▁brick~~2270
reedom~~13016
▁Dar~~4870
▁ovari~~6707
▁Dap~~5977
▁soldiers~~4586
▁unconditional~~13334
▁Army~~4534
▁electromagnet~~11269
▁Humphrey~~11747
▁Wilson~~3821
▁vertebra~~9508
▁SOLE~~15785
▁Ezra~~8477
▁outrageous~~6441
▁twig~~6389
▁sale~~2890
endai~~8542
▁Serb~~8230
Gru~~5870
membran~~3313
▁Steve~~764
▁concrete~~2488
▁bottle~~3418
▁salt~~7007
▁SLA~~15072
▁Chips~~16602
▁mammal~~7170
▁admission~~5994
▁coach~~4479
▁utilit~~3856
▁utiliz~~9373
▁Oval~~15088
▁shortest~~10738
▁react~~9974
▁reach~~2501
▁Award~~12610
räumt~~16167
▁prospect~~6081
▁pointillis~~11654
▁Truman~~15089
▁mycorrhiza~~13143
▁Knopf~~16318
▁Colombia~~11381
ironment~~12271
▁trump~~4737
▁Trug~~13049
▁intervene~~5397
▁subsidi~~9635
▁villager~~10895
pecial~~3342
▁Kuh~~15237
▁Plateau~~15070
▁mount~~12887
▁graffiti~~11969
▁1963~~14793
▁1960~~1312
▁dislike~~12182
▁Monro~~11977
▁Cold~~10301
▁pandemic~~4330
▁mound~~8836
nce~~9582
center~~10047
▁bell~~9183
▁Institute~~7197
▁intuition~~2663
sta~~7190
▁understand~~1781
▁jewel~~5784
passen~~12095
▁Old~~8496
▁interconnection~~8011
▁cricket~~6256
▁Ola~~15392
▁female~~563
▁Larry~~7563
▁Asia~~1399
▁Emba~~14189
▁belt~~5764
▁ya~~9747
▁Olu~~15950
▁education~~777
▁nast~~4697
▁acquir~~13383
▁member~~7068
▁Karajan~~15947
▁Starck~~5639
ncy~~6283
▁canyon~~10404
▁equal~~1416
kara~~8747
▁Bacch~~16222
▁sixth~~4660
▁stream~~3384
▁Terror~~13985
▁phrase~~4874
lib~~5238
lic~~5895
lin~~3617
▁ideas~~1256
▁spreads~~4703
▁collar~~10037
lit~~9678
liv~~693
▁projector~~13137
▁ideal~~3754
▁Pepper~~14786
▁Leo~~9998
▁feeling~~1144
▁Kabi~~12342
▁Brunel~~15971
▁coil~~13597
▁daf~~16054
venge~~9771
kam~~921
▁day~~950
▁Tulle~~9732
kau~~14941
▁wool~~9536
▁dar~~10402
▁das~~5103
▁UCLA~~12033
▁Mais~~15425
▁pilot~~1808
▁supplier~~6947
▁beauty~~4746
▁chute~~13067
▁phthalate~~16405
ternis~~7344
mobile~~6427
clear~~5382
▁hummingbird~~8655
▁debate~~1432
▁mitten~~16306
clean~~2520
▁patent~~4744
▁recombin~~12274
▁utopia~~14801
▁riot~~11080
▁digitize~~10508
apalm~~8974
ssels~~12778
▁humiliat~~9070
▁Journal~~8587
▁manifestation~~5839
▁cloak~~7790
▁fragment~~1550
▁moderat~~10908
▁175~~2476
▁pollinator~~8660
▁fig~~9078
▁tales~~1099
▁170~~7060
▁collaborative~~6335
▁fin~~6892
▁symptom~~3921
▁178~~11455
▁fit~~3036
▁Graph~~12748
▁snare~~11139
abend~~15952
▁annual~~1722
circle~~6433
▁17.~~16094
▁fix~~3551
▁addict~~7063
accessib~~15752
▁kar~~10688
▁kam~~16371
famous~~10432
▁acoustic~~2951
▁radar~~10926
▁insecticide~~11877
▁Tony~~4433
▁ultra~~8292
▁Schau~~11402
Freak~~16350
oxy~~11738
▁Allianz~~14706
▁conduc~~13073
▁Ranch~~15622
▁Anne~~2225
▁construct~~5987
▁explicit~~6065
geld~~7187
x~~2057
tromatolite~~16084
▁small~~846
scanning~~5121
▁Airbnb~~12520
▁decrypt~~10443
▁Lux~~15428
▁navigation~~10802
▁menu~~7548
▁Case~~13662
▁films~~1930
plausible~~12052
culture~~3786
▁chip~~7219
▁Terrorist~~15386
▁Juan~~8354
Ma~~4913
▁Melani~~15825
▁before~~567
▁slogan~~9405
lementine~~15073
▁sustainabl~~4245
▁intertwine~~9581
opper~~7414
▁Iraqi~~8469
▁booth~~3826
▁partially~~5486
stall~~10634
▁boots~~10916
▁debt~~10008
▁emulate~~6934
▁gyps~~7836
▁centi~~5541
▁poverty~~2031
▁über~~12631
▁multiply~~6977
▁ballistic~~7722
web~~15917
▁symmetr~~8002
ison~~6810
▁Ta~~4451
spray~~16237
▁Plot~~16505
▁Te~~2912
▁group~~688
▁Ti~~14489
spiration~~6647
▁Spec~~8093
▁subtitle~~2155
▁To~~3085
▁northern~~4338
▁TR~~13689
▁TV~~5264
▁Malaysia~~1784
▁bankrupt~~12193
▁intercept~~10435
▁debri~~3360
sensitive~~2623
▁provision~~1638
▁TD~~15579
▁Wonder~~11721
▁TM~~3044
▁advis~~9402
▁Info~~15629
▁alter~~6824
▁spreadsheet~~13187
format~~13661
▁neutral~~10870
▁Nation~~14724
▁Physic~~14559
▁suburbia~~10979
▁gasp~~5574
▁migrat~~9285
▁excavat~~5615
atops~~14474
▁dich~~9462
▁Orchestra~~13018
▁Vagina~~12694
▁Jackson~~8779
▁saint~~4725
▁Adventist~~15758
▁rest~~3816
▁ultrasound~~7317
▁sacred~~11129
▁Columbia~~6369
damm~~11336
▁donate~~7893
▁randomly~~9163
▁banker~~8761
▁Weather~~6602
▁beach~~117
Women~~4766
▁320~~8404
▁huge~~1080
▁Joshua~~8519
▁clothes~~6619
leigh~~9828
▁Marth~~8764
▁experien~~15685
▁antiqu~~933
N~~4055
▁Dublin~~7128
▁politic~~5715
▁Deutsch~~15953
folklore~~14504
▁correspond~~4803
pollinat~~7031
▁games~~2838
▁animals~~146
▁but~~136
▁underpin~~10912
▁violation~~5805
iya~~7918
look~~671
▁ballot~~14621
▁bus~~5150
Taste~~15565
▁desire~~5831
▁Hawaiian~~3469
▁buy~~1161
▁costume~~9500
▁bud~~6821
while~~2789
▁bug~~4876
▁Afghan~~4659
▁bulldoze~~5777
▁fission~~13921
▁signals~~2952
guide~~12313
pack~~2649
lfalfa~~16569
Sarko~~10582
▁amplifie~~13350
▁Alan~~10132
▁Alam~~15107
▁58~~6274
▁voluntary~~8103
▁Bluegrass~~15683
▁ancient~~3578
▁linguist~~5693
ready~~712
▁roach~~15058
MJ~~16106
▁seldom~~8736
▁oceans~~11
▁investigation~~1900
▁transfer~~8651
▁norm~~2685
▁mark~~636
ige~~15650
▁waterproof~~2457
▁knob~~12362
gali~~3348
▁Drug~~16305
▁militari~~3661
▁Terra~~13265
▁religions~~8484
▁accent~~13175
conflict~~8207
▁galax~~11465
▁leadership~~4526
▁Ferrari~~14099
▁rug~~8442
▁rub~~8572
▁rum~~8516
▁run~~1657
▁foundation~~1675
▁rut~~1241
lig~~7487
▁strangers~~8073
▁speaker~~7583
▁functionalit~~6905
luminescence~~11529
▁minor~~5602
▁streak~~13221
▁catalyst~~1013
▁improbabilit~~14028
▁termite~~7881
▁Abreu~~14869
▁Ross~~3138
▁Armen~~13444
▁afterward~~7158
▁Lanting~~16083
▁participat~~2298
่~~5956
▁deploy~~9935
▁scrutin~~4627
▁Bike~~15213
▁trash~~3357
▁champion~~2340
▁naught~~8841
▁Bohr~~14245
▁gentle~~5177
gt~~16542
▁Scientolog~~13488
▁orangutan~~9237
▁cling~~621
$~~6882
▁leather~~8401
chromosom~~9270
▁litigation~~12345
▁famine~~4929
▁derivative~~2695
▁magazine~~5192
lip~~10739
▁MDG~~15017
▁maverick~~12884
▁psychological~~5147
▁distinction~~6836
ight~~7049
▁emblem~~8510
stein~~13595
lika~~8231
▁artificial~~6767
▁Heather~~11168
▁Gentlem~~16582
▁saturate~~14307
▁monopol~~8551
game~~9426
▁palm~~10491
▁oblivio~~9046
▁area~~724
▁lowest~~837
▁retire~~8049
▁entertain~~7273
▁Jerem~~9319
▁Target~~11274
▁statement~~5391
▁trillion~~10002
▁Schul~~4951
▁Jok~~7004
signal~~11575
▁strawberr~~13954
▁frantic~~11816
▁79~~14976
▁78~~6530
hammer~~10772
▁Nino~~741
▁Sami~~16467
▁Arena~~9370
▁rainbow~~9863
▁71~~14354
▁70~~465
▁73~~6277
▁72~~8081
▁75~~107
▁74~~1388
▁77~~13934
▁76~~5314
▁Gamma~~15324
▁factories~~3448
wrack~~16264
parade~~8251
▁tender~~3806
▁proportional~~1452
▁misfortune~~15439
chard~~11890
creation~~5520
some~~4580
▁tribe~~8567
▁Authorit~~10834
economic~~1531
▁Medicine~~8588
▁allgemeine~~16171
▁primitive~~7972
▁campfire~~10206
ulosi~~9023
▁Michel~~8720
▁parabol~~10849
▁rely~~1664
▁Thron~~16191
ntelligence~~13017
▁quest~~2252
ishman~~12970
▁atrocit~~8603
▁Tra~~7108
▁grandparents~~2083
▁printing~~6480
▁essay~~7042
▁Bunker~~15184
▁reli~~9119
▁wicked~~12332
▁2020~~7544
▁cohesi~~10578
▁staring~~7235
▁consideration~~2707
▁headphone~~13273
▁receiv~~5316
▁Detail~~14965
▁Rush~~9710
▁Tamiflu~~15476
run~~10000
▁spiritualit~~11562
rum~~8676
acht~~10036
eruption~~499
▁Pamel~~12953
ummer~~14556
sten~~11930
▁winds~~5063
kan~~10598
ster~~5197
step~~7452
▁recap~~2786
▁concussion~~13890
rus~~984
lichen~~10525
▁cafeteria~~11328
▁Collect~~10496
shine~~12620
▁sticker~~5294
▁Ocul~~16212
▁publicly~~8763
quisition~~14111
▁Eco~~7827
▁meat~~3597
75~~10082
▁Nun~~15632
▁pilgrim~~13318
▁Zambia~~13889
▁WMAP~~6343
▁Dalia~~5036
▁compose~~3049
▁reconcili~~8604
ide~~6678
▁Gold~~7847
block~~10507
▁clerk~~10576
▁compartment~~15710
▁Lippen~~12662
rolle~~12456
▁Benki~~14722
▁KIPP~~12813
öl~~16436
£~~15796
▁Hotmail~~16358
ensus~~4205
▁manag~~2527
▁Augustin~~8309
▁stiff~~11283
▁guess~~852
▁Meyer~~10611
▁assassinat~~10648
▁novelty~~9878
▁guest~~4762
▁empti~~4471
▁Code~~2646
▁Ver~~8856
▁Wade~~13362
▁devour~~5855
▁sunflower~~12085
▁von~~9245
kus~~15859
pionage~~7789
▁limb~~9899
▁empty~~595
▁Pretor~~15014
▁wack~~13021
▁distribution~~3649
▁prey~~280
▁Ford~~8874
▁potato~~9639
▁affection~~8816
kinder~~16580
▁hygien~~5425
▁Lynn~~14426
▁hypothetical~~8794
▁trance~~5359
▁Fort~~4530
▁Minist~~13567
astery~~13326
▁Acheul~~11422
▁mangrove~~14912
▁bank~~1811
▁basket~~4919
▁memoir~~12413
▁bang~~3053
▁band~~249
▁lamb~~9608
▁benevolen~~14732
▁Alien~~14113
utu~~8602
▁ADH~~9951
▁vor~~9202
▁Afrika~~11571
▁loo~~8885
▁layer~~2502
▁Opportunit~~13732
▁mineral~~10925
▁definite~~6245
▁dashboard~~14023
naissance~~5163
metall~~14958
▁done~~1240
▁scream~~5906
dding~~7136
▁tedious~~10631
▁remedi~~10014
▁ooh~~5913
▁missing~~4370
▁Tesla~~13505
▁Pleas~~2386
TV~~13914
nah~~3213
▁leap~~7129
imini~~11566
▁displacement~~11629
▁Have~~13603
▁Bord~~10285
▁lean~~4947
▁disruptive~~7319
▁Sound~~13867
TH~~7267
▁leak~~6739
▁lead~~1162
▁Tropic~~4190
▁leaf~~4750
▁included~~7651
TA~~6088
AA~~13871
▁Human~~9294
AC~~5772
awkins~~14409
AE~~7750
▁ritual~~9173
weise~~16160
evar~~10098
rlei~~16240
▁Kette~~16516
▁surprise~~853
▁Pepsi~~596
AL~~14381
▁nun~~12148
▁1900~~12407
▁nur~~9037
est~~40
▁TEDTalk~~8348
eval~~13996
▁Guardian~~10949
structure~~10791
feder~~13618
▁convert~~536
▁elevate~~13315
e~~163
▁whistl~~2357
▁convers~~7531
▁designers~~3284
▁Charlie~~10535
▁One~~5125
▁washing~~10249
▁bigge~~1034
▁corruption~~7902
▁algorithm~~6440
▁undertake~~13649
▁spin~~3980
▁Karma~~15578
▁reassemble~~13519
▁convergen~~14720
▁0.1~~6705
▁army~~2954
ge~~3207
▁Mike~~5671
▁Wang~~13299
ga~~3674
▁mapping~~4371
go~~3796
▁cult~~12355
▁Rand~~12726
▁CO~~7833
gi~~3475
gh~~9145
▁cingul~~6653
▁neighbor~~3274
▁residenc~~8592
▁Castle~~13081
▁Lifesaver~~15840
fried~~9650
▁attorney~~14844
ese~~7756
▁remotely~~3740
▁handheld~~14142
▁resident~~2997
▁mathematical~~6089
▁Telegraph~~12899
▁paintings~~1943
▁recycling~~10935
openhagen~~9010
▁sparkl~~779
▁Forbes~~11065
▁increasing~~1949
▁got~~75
▁Make~~3282
▁Speed~~5558
wave~~7233
▁opera~~2837
▁PowerPoint~~10455
cellular~~9552
▁lumin~~11802
▁god~~8491
▁capabilit~~8631
▁Safeway~~15259
▁substitute~~9263
▁augmented~~6233
▁hallway~~8594
▁Hewlett~~15642
▁churn~~9573
▁ambitio~~1608
ziger~~11380
▁Techno~~9773
▁outskirt~~3724
▁view~~371
bimetal~~16136
▁casualt~~14212
ulp~~12689
▁consolidate~~1549
▁trivial~~3949
▁emphasize~~5876
zi~~6155
▁celebrity~~9978
▁triumph~~4850
za~~4678
▁Popcorn~~16066
vaccin~~4299
▁Amt~~16152
▁clock~~4458
zu~~12461
▁leading~~3416
▁Interface~~8951
▁lexico~~9764
▁Katzen~~16412
▁flog~~14495
▁ears~~334
▁astonishment~~13807
▁Sala~~9131
▁suboptimal~~8953
▁150~~225
cell~~2984
▁15.~~11673
▁15-~~1304
eating~~10237
▁flop~~14532
▁applaud~~8595
▁replac~~5528
▁earn~~2416
▁Speer~~11829
;~~38
▁electric~~3171
▁director~~1920
▁shit~~5338
▁Cra~~11109
▁subsid~~1656
▁ship~~3894
▁Blog~~12962
ozo~~6722
▁landfill~~11042
▁violat~~5804
▁Samu~~10191
▁Cro~~8229
▁absolute~~4034
cumber~~13400
▁academ~~14322
▁Milli~~15714
▁Sand~~6801
▁shin~~6203
▁Leon~~15591
▁Tor~~14290
▁Food~~5158
▁pull~~1884
genz~~10822
▁pretend~~4573
▁cosmopolitan~~10663
▁Vase~~13668
▁Hilton~~15323
▁investor~~6536
▁Halleluja~~5129
▁vacan~~12618
▁Michael~~6436
▁Bible~~2641
ule~~8843
▁puls~~9451
▁Dori~~12391
▁PRI~~10845
wie~~8628
claim~~11001
win~~11636
▁embrace~~1599
▁widerlich~~14893
traut~~16039
▁floating~~3356
▁tubes~~7335
▁three~~302
▁larger~~2933
▁umbrella~~2452
icular~~6775
▁consistent~~1646
zelle~~16267
▁student~~1365
▁distract~~5506
▁Bala~~14594
▁Christian~~3195
▁animator~~11405
▁rack~~10085
▁Nash~~3092
ithium~~11919
iel~~15991
▁Moment~~15899
▁identifie~~1564
▁painstaking~~9757
▁Field~~12429
▁coffin~~8878
ien~~5318
▁gross~~4922
▁Zo~~8509
▁Mahatma~~11130
▁Prosper~~14134
▁Generator~~16124
▁Billion~~14286
▁Ze~~7953
appointed~~9705
▁Za~~8203
▁genomic~~11878
▁Potential~~16386
▁Hul~~14506
lapse~~11489
▁interstellar~~13610
▁borders~~9116
▁volunteer~~2734
▁elephant~~6230
▁zoom~~3423
▁magnific~~8570
▁intention~~2585
▁Sarajevo~~14211
▁inundat~~15155
▁SETI~~13601
control~~11565
▁planes~~8792
▁preserv~~758
▁Chance~~12589
▁planet~~109
▁Johan~~14483
▁general~~1258
▁interconnected~~7984
▁preconception~~6445
▁union~~9372
▁icon~~416
▁Seng~~15496
▁Moderator~~13084
▁Hannah~~15480
einrich~~13503
▁Solar~~11722
▁reluctant~~11021
▁deficit~~4982
▁granted~~103
falls~~16012
▁kindness~~9609
▁through~~328
▁marsupial~~12783
▁unhapp~~857
▁wholly~~10203
▁creativity~~887
▁Lake~~5017
HIN~~15121
▁places~~156
▁ecolog~~7590
▁detect~~7991
▁weaknesses~~5676
farm~~15570
▁grit~~13053
▁ripple~~12938
▁bike~~2374
▁music~~746
▁Laufen~~15684
▁inexplicabl~~14032
▁fitting~~3034
▁plane~~1794
▁tax~~1504
▁Flip~~14942
▁toilet~~4004
▁tap~~5176
▁survive~~1044
▁Tutsi~~7874
▁tat~~8921
▁tau~~5389
▁plant~~3410
▁tan~~3221
▁segment~~6487
▁plans~~7773
▁hackers~~12745
▁drift~~9472
▁trespass~~14836
▁tag~~1823
▁improve~~1130
▁criticism~~1235
▁Franklin~~5146
▁while~~1355
▁contest~~1384
▁ascend~~11163
▁antidepressant~~15063
▁distort~~2694
▁ARES~~15424
▁viral~~7600
▁hydrothermal~~445
▁ooze~~15540
▁Bloom~~6131
▁handicap~~873
▁spray~~2451
▁staff~~7043
▁math~~835
▁Merk~~16065
▁case~~346
▁gods~~3650
▁influenza~~14108
ruder~~11525
▁Merc~~6364
▁than~~157
▁mate~~279
nonymous~~11968
▁cash~~2667
▁Merz~~15417
▁that~~78
▁cast~~4062
▁prostate~~6751
▁note~~753
▁persist~~3937
▁verb~~5844
▁700~~459
▁Cox~~11717
▁independen~~2087
frontal~~1089
▁typically~~1592
▁events~~3888
▁whale~~4173
▁harmon~~8168
▁pollut~~3540
▁weigh~~1566
▁Con~~2768
▁Com~~5012
front~~10383
▁Selig~~12538
▁Cod~~11616
▁McCart~~11090
▁lung~~4253
▁logo~~3301
▁luna~~7658
modu~~8142
▁active~~710
▁Elephant~~13672
▁fate~~4104
▁surgical~~7359
▁Leber~~15768
▁Passion~~15724
▁Desert~~10588
▁Okol~~15717
▁figur~~1303
▁spice~~9653
▁Inner~~16415
▁canopy~~1804
▁beginning~~557
▁poison~~3537
▁Mario~~16245
▁Captain~~9478
▁locate~~3687
▁Simon~~2957
▁procrastinat~~6063
▁wrote~~1714
▁TED~~12
▁dividend~~10059
▁works~~703
▁Pathfinder~~14353
▁Sargasso~~4123
ille~~9499
▁Greek~~2958
illa~~7337
▁corner~~4424
▁Hin~~15034
▁cocaine~~14104
▁Arian~~14593
▁DDT~~6759
▁Schrödinger~~9449
▁Kolkata~~15597
▁Rockefeller~~12243
▁empower~~1230
▁pant~~4511
▁Farm~~11288
▁argu~~1961
▁interpenetrat~~12933
hantom~~15040
▁Anna~~8876
▁forms~~518
▁Maltese~~9516
▁Hip~~14933
ogue~~8108
▁Grim~~7627
▁horror~~6847
▁leverag~~10016
▁seismi~~14041
eck~~8550
▁juxtaposition~~13327
ech~~7817
▁examine~~2572
ect~~7392
Barrel~~13734
nesthesiologist~~3927
▁Gris~~15299
▁57~~7502
▁56~~9776
▁55~~5410
▁54~~9342
▁stri~~8235
▁52~~7047
▁51~~11578
▁50~~2035
▁stadium~~3181
▁Veteran~~15638
▁provid~~369
mulus~~16016
▁genetic~~1102
▁numerical~~8835
▁flopp~~11590
keep~~2120
-20~~10011
▁Orleans~~3491
▁give~~208
▁5-~~11953
▁healing~~5179
▁Isabelle~~15882
▁challenges~~1442
▁Emergenc~~12666
mag~~9827
▁organize~~1194
▁generations~~1341
▁ga~~8674
▁microblogg~~16121
▁Kathr~~8267
▁superhero~~7077
▁parainfluenza~~15701
quality~~6051
▁element~~2669
▁geneticist~~9226
management~~15810
▁romance~~10968
▁poll~~8277
mal~~9766
▁schedule~~956
ubunt~~12629
neurotransmitter~~3986
▁Nixon~~9585
▁needless~~7974
▁Immigrant~~16362
▁Nord~~5209
▁chronic~~1882
▁reset~~4669
▁announcement~~6960
liste~~10607
natural~~11657
▁pigeon~~10180
neous~~11766
▁Amur~~14999
▁calorie~~3621
bei~~10240
▁expos~~4293
▁Schneider~~13912
bel~~11527
ara~~12658
▁transformation~~5028
▁Listen~~7781
▁hippie~~9334
▁3,3~~13392
▁3,6~~15179
▁epiphyte~~15027
▁demobiliz~~15694
ber~~3122
bare~~15117
▁Eat~~13955
▁lobbie~~11245
▁hin~~12221
▁filmmaker~~1983
▁him~~2355
▁Coul~~12870
▁Washington~~2078
▁slack~~5260
▁hid~~2216
▁referr~~1199
▁superinte~~12435
▁LGBT~~8220
ventil~~14850
▁obsolet~~6138
▁hit~~2503
▁hir~~8902
▁his~~329
▁hip~~3178
▁arsenal~~14557
▁Hampton~~9787
▁footprint~~7274
ark~~9313
▁painting~~6209
▁chord~~12327
▁collaboration~~1184
▁Barack~~8881
▁wit~~6881
ably~~1962
▁Furch~~15515
truck~~6798
▁summ~~5387
▁Equ~~13731
▁Foto~~16514
▁shoulder~~3028
▁violent~~42
▁Midwest~~5022
▁pathetic~~8283
xcuse~~13790
▁promote~~1088
▁browse~~13180
connected~~11383
▁lattice~~9435
▁Player~~15599
awa~~7917
ure~~3829
urf~~10419
urg~~1460
▁settlement~~3640
▁Australopithec~~7931
insky~~9943
uro~~5881
▁bald~~5833
▁terminal~~5046
▁secure~~5594
▁gasse~~11183
▁deeper~~2930
inda~~9379
▁Aldri~~13769
▁Brother~~7395
ury~~2914
▁reckless~~12088
▁extensive~~3029
▁unexpected~~5972
▁formaldehyde~~12370
▁consultant~~8471
▁Lama~~8113
▁flash~~7427
▁Emotion~~12706
inister~~12788
▁Enlighten~~13340
▁discriminati~~9005
▁frank~~4017
elecommunication~~4972
▁Team~~15113
▁discriminate~~9128
▁Name~~13665
▁Geist~~16153
▁oil~~2492
▁franc~~12718
▁hardest~~2776
▁Baby~~6682
▁City~~3748
▁devastate~~11029
(~~14324
rash~~4295
▁sequester~~12623
▁specialize~~5778
▁committee~~12179
▁Gho~~13560
▁Armstrong~~4727
▁Hut~~7873
libri~~7820
▁missile~~3267
mortality~~5513
▁neglect~~1521
▁torch~~3942
▁protocol~~5729
▁Perry~~13475
▁odor~~10247
▁mice~~5444
▁Galler~~8454
variabl~~14662
▁alumin~~3860
▁Klei~~15948
▁headquarter~~10292
▁1920~~10661
kong~~16195
▁mathematician~~11859
▁coerc~~14579
▁verbi~~14332
evolution~~12002
▁slight~~1541
▁symbolic~~5554
immel~~16502
▁indoor~~9759
▁Personal~~11956
gras~~14292
grat~~11778
▁synapti~~12048
sha~~8449
gram~~8833
ification~~4517
▁Homer~~7978
▁faithful~~4602
grad~~2652
▁subatom~~12308
▁engineer~~5786
▁output~~4970
▁vagina~~10244
▁according~~2807
▁Beno~~14871
▁Heiz~~14421
▁Messer~~9797
computer~~7028
▁Sun~~8939
▁Roche~~15976
▁Sub~~8621
▁metric~~6147
▁uranium~~13612
▁Tu~~7484
▁faster~~1337
▁generous~~8304
▁confusion~~6604
▁Brooklyn~~6970
▁halte~~16104
▁impersonat~~13448
urgeon~~11015
state~~3739
▁virgin~~7432
tte~~9505
▁wise~~4600
▁plea~~5223
▁wish~~2021
▁galvanize~~11329
▁eco~~7498
▁superficial~~14176
±~~14866
Station~~14432
ken~~2660
kel~~12107
kei~~15811
▁posterior~~6642
▁Movember~~13929
rock~~9987
▁Kurd~~13674
▁Mama~~11570
▁gil~~15960
▁revolutionize~~2521
▁stent~~15203
▁Rad~~14608
▁flick~~7092
▁impressed~~8423
▁Kurt~~15187
ker~~9038
monitor~~15468
▁erupt~~7289
▁sutur~~12923
▁commit~~2618
▁anxiety~~9153
▁Rag~~10230
▁Paper~~16255
▁North~~1403
▁bilateral~~15437
▁stagna~~4961
▁geometric~~6461
▁perform~~1348
▁forger~~14485
▁America~~394
▁breathe~~4254
▁appear~~2218
▁Palestinian~~10279
▁Pranitha~~14116
▁legislat~~14329
▁lap~~6253
▁Afro~~16263
▁challenge~~1236
▁evolve~~3066
▁Rao~~14516
▁appeal~~8378
▁effort~~1596
▁reuse~~9416
▁Barbie~~14105
93;~~2365
▁Richter~~14439
sari~~6176
▁gerontolog~~5395
▁1.8~~12996
▁dunes~~10590
▁fifth~~5449
▁130~~1801
▁fec~~10259
▁fed~~2208
▁fee~~3415
cent~~6167
uza~~15561
▁Dong~~8386
▁Psychopath~~16377
▁Sarg~~16210
ulate~~7201
▁Sara~~5791
▁trend~~2590
▁nois~~3156
▁key~~1134
▁fifty~~6021
▁flat~~6317
▁suspens~~10196
▁daunting~~8052
▁few~~1746
▁immer~~9432
▁death~~276
▁collection~~2859
ota~~10801
▁Paradi~~14438
▁Nicole~~7231
▁Taschen~~14154
▁creation~~3201
▁briquette~~15879
▁branch~~6399
▁engage~~2296
▁Lean~~16401
▁Leah~~8215
▁distracted~~11194
▁Kern~~16194
▁tomorrow~~752
▁reduction~~4328
▁1.1~~7752
▁Abbott~~13025
▁Thermo~~14488
▁firing~~5942
ffenba~~13349
mega~~12841
▁facilitator~~12462
▁clap~~11154
▁converse~~12083
▁clar~~7776
▁glove~~2479
▁claw~~603
▁input~~3026
▁doubt~~4444
▁clan~~15164
▁Bonnie~~13087
▁cement~~7839
▁Ork~~15510
▁Blend~~15127
▁shell~~550
▁alarming~~10989
▁poetic~~8697
▁Virtual~~6269
▁piss~~8540
▁precursor~~14186
▁proficien~~13233
▁submerge~~10275
▁resin~~9529
fallen~~16209
▁Hurricane~~6800
finance~~12081
orbital~~9450
▁Spin~~9454
▁sick~~802
▁Georgetown~~10239
▁drape~~9043
terstate~~11377
▁TB~~12974
▁slow~~1198
▁slot~~8548
▁warehouse~~5026
▁depress~~11554
party~~12181
ultiplayer~~2725
▁defi~~6055
▁gambl~~12529
▁resume~~13512
▁sniff~~9092
▁Guatemala~~15552
▁camera~~182
avian~~10168
absorb~~2320
▁Nagel~~10358
▁ambassador~~3343
▁Haut~~16325
▁Flaubert~~8710
▁Siemens~~13047
▁concentrate~~3531
▁anecdotal~~12416
▁bombing~~11385
▁degree~~399
▁ob~~8668
destruction~~8316
▁glide~~2504
rift~~6852
▁eradicat~~4249
▁categor~~5476
i~~2233
▁piece~~436
▁OMG~~13841
▁cub~~6874
well~~2052
▁whiske~~12300
finishe~~6214
welt~~4304
▁Physi~~13435
scha~~16320
▁cup~~6735
▁cur~~4885
ified~~1982
▁cut~~3866
▁picnic~~8275
schi~~14417
▁partnership~~4265
▁grad~~5024
▁grab~~542
▁Pakistan~~4426
▁select~~1017
▁gram~~7510
▁Phillip~~15165
▁Egla~~8993
▁grav~~12770
▁Times~~6005
▁harder~~3732
▁Knight~~11169
▁third~~2658
▁gras~~15564
▁leatherback~~14337
▁coyote~~8284
▁genitali~~14410
▁gray~~10524
Be~~7098
▁gluten~~16260
▁improbab~~12534
▁trailer~~3820
nati~~7122
▁circuit~~10350
▁tense~~8241
▁col~~10256
▁also~~212
▁microscop~~6473
▁squid~~314
▁Gecko~~15656
▁exclusion~~12476
▁Nadel~~16512
▁bump~~2964
▁crowdsourc~~14174
▁uninten~~10982
▁spoken~~6940
▁osteo~~10167
▁bumm~~12957
▁charge~~4163
▁Affair~~12169
urkey~~7895
▁Röntgen~~16149
▁engaged~~2847
▁serious~~770
tles~~15
▁Democratic~~5308
▁survivors~~2245
▁Ambassador~~9375
▁sui~~10664
▁battery~~4670
▁capture~~25
▁sum~~3787
▁21.~~16578
▁sun~~515
▁Congress~~6524
▁Shin~~13312
▁sub~~344
▁sue~~10654
page~~9820
▁pot~~7584
▁pop~~3199
omorrow~~12773
▁breath~~4255
▁pos~~6112
▁Israel~~2203
▁racis~~6435
▁effect~~2843
▁corridor~~9349
▁modern~~3580
▁für~~15799
motive~~9769
▁toothpaste~~9887
▁pol~~9750
home~~4230
▁Glass~~5937
homa~~10855
▁awaken~~8975
vril~~16462
ROM~~10119
broad~~4519
▁duct~~7348
traumatic~~10372
▁troubling~~13981
▁autonom~~7229
▁duck~~10056
▁thou~~8501
▁veg~~9663
▁kilos~~6492
▁crania~~14058
▁pavement~~10571
▁Close~~14067
▁portrait~~6227
▁hidden~~2187
▁Khali~~16465
▁engag~~7795
Up~~3495
▁messenger~~1250
▁astonishing~~2446
▁Broad~~14375
▁alarm~~5902
▁brillian~~7718
▁embody~~12508
▁particular~~1462
▁late~~1385
▁Ramadan~~15746
▁Curt~~8022
▁Programme~~15983
▁Pla~~11214
▁separate~~3447
▁grace~~11069
▁shout~~3099
US~~13043
▁Canyon~~7705
lbatross~~3463
▁aller~~11902
▁Reservoir~~16565
▁ASCAP~~14834
▁rotation~~11668
UG~~16317
▁vicious~~8161
interdisciplinar~~12363
▁exceptional~~4360
▁litera~~8193
▁squea~~7495
▁Tests~~15173
▁anesthetize~~8297
▁butterfl~~11211
gramm~~16536
▁cyber~~5672
▁imperfect~~5431
▁determin~~6476
▁nett~~8539
▁prepare~~4571
▁amputate~~15538
▁Sein~~11354
▁interesting~~442
▁reinforc~~9918
▁Lunch~~13957
▁baffl~~7719
▁susceptib~~11170
▁mammogram~~7279
atriarch~~12640
museum~~15136
▁distribute~~1422
▁scene~~1922
inner~~6297
▁7,000~~2169
▁Mytho~~8868
▁repressive~~13939
▁embrac~~3631
eah~~3333
ematode~~13747
▁climate~~1680
▁Babylonian~~8470
▁vibrat~~11997
▁notorious~~12864
▁II~~3364
ht~~3441
hu~~5140
astro~~15505
▁vibran~~20
hi~~5273
ho~~4159
▁bridge~~5949
▁indicator~~6744
ear~~4839
flung~~9385
eat~~7517
he~~5697
▁grammatical~~12772
▁Honey~~12966
▁IM~~14376
▁join~~1782
▁Secretary~~12455
▁agricultural~~4965
▁confuse~~3109
▁Zimba~~14771
▁Out~~4557
carriage~~11372
owing~~9201
▁random~~6477
▁Cesar~~13539
▁Our~~8866
piece~~3736
▁probabilit~~2612
aystack~~14441
▁nuts~~7557
Alla~~16567
▁Margaret~~10959
▁Hawke~~12104
▁Stra~~7048
▁dominat~~1503
erin~~15447
▁shallow~~5578
▁represent~~2969
isier~~5890
▁slave~~8988
▁graphics~~6894
▁asthma~~6690
▁implicit~~12215
▁complication~~13693
▁FAA~~1798
▁caution~~9474
▁wind~~4657
▁wine~~2387
▁wing~~5279
arro~~12646
▁Tamil~~13686
folia~~3206
▁geologic~~10796
▁amplification~~3110
▁pipeline~~6107
▁Wor~~14645
▁Spi~~14273
▁wins~~5812
▁introduc~~11373
▁Eisen~~10226
▁environmentally~~10222
▁knock~~4684
▁Gaza~~9302
esearch~~3351
▁belly~~4618
star~~4525
▁dad~~2367
▁digg~~7937
▁metastase~~15526
▁probabl~~503
▁frontal~~6638
▁kangaroo~~12784
stab~~10650
▁Note~~14701
▁Maps~~12613
stan~~4677
▁Brazilian~~10885
▁buffer~~11008
▁buffet~~10685
▁violin~~12309
▁steroid~~6616
▁includ~~4734
hne~~5978
▁Ego~~15015
▁sneak~~2977
insel~~4718
▁critic~~11406
▁Egg~~6962
▁challeng~~1238
▁seamless~~12867
hnu~~15494
▁JR~~11967
▁3.5~~5590
buoy~~5779
ysmorphophobi~~16224
▁3.2~~9260
▁3.3~~7930
▁Val~~10031
▁Diabetes~~15153
▁Van~~10097
▁Lega~~9299
▁share~~1274
▁shard~~2901
▁shark~~10023
▁Playstation~~8060
▁enable~~1625
▁conduct~~3005
▁sharp~~9885
▁Connecti~~7384
▁outdoor~~3071
▁plaza~~11847
schmuck~~13977
▁morph~~4011
▁palpabl~~1988
▁prim~~8693
▁diploma~~10293
▁Unite~~1165
▁rhino~~7947
▁shuffle~~13762
ppel~~5608
▁macro~~9436
▁calv~~4576
▁Sergio~~15498
pped~~8825
▁crank~~11375
▁technique~~4630
▁call~~420
▁calm~~6432
▁inconsistenc~~10947
▁crane~~8416
▁homicide~~13708
▁Gehry~~9763
▁Alexandr~~4896
▁Remix~~11928
▁Krypto~~15743
void~~3721
▁fisc~~12194
▁password~~12862
▁many~~807
▁Matthew~~10175
▁Shankar~~9186
▁quadrill~~14822
▁ghost~~9158
▁pedagog~~1602
▁estimat~~13972
Internet~~14020
▁shap~~8065
▁camps~~6566
▁goddess~~9188
▁body~~640
▁Dow~~12500
▁studie~~6133
▁income~~9860
▁battl~~8861
▁Arka~~11393
▁laid~~1674
▁neurologic~~16102
▁Don~~7712
▁Doo~~8402
sleep~~5651
▁studio~~5083
▁young~~1344
▁Dod~~12424
ups~~10041
▁bodi~~5564
▁dilute~~12709
▁disast~~11755
▁soul~~5682
force~~8033
▁grandiose~~11240
▁Gibbon~~15467
▁flame~~1273
▁subtl~~11709
▁Jabb~~14369
▁nein~~13387
▁bread~~6296
▁Tech~~8577
▁break~~789
▁underwa~~11346
▁meteorite~~14584
▁save~~4103
virulen~~13092
▁soup~~3523
▁Charter~~12239
nel~~4558
▁trust~~1229
▁Nadi~~14460
▁Ebert~~14378
▁absence~~4973
▁forbidd~~11982
▁useless~~8719
▁grape~~12158
ney~~6989
tipp~~14951
net~~6394
neu~~14832
ever~~1216
ort~~6750
▁collect~~366
▁cu~~5428
hbab~~14651
▁rats~~1030
million~~4740
▁indefinite~~5376
▁Aura~~12949
drew~~3863
▁surge~~10927
▁railroad~~9628
met~~13428
▁rate~~680
▁Boon~~16111
▁Blackawton~~16141
active~~5931
▁cl~~9846
▁co~~5032
oshi~~4375
dred~~2288
▁Galileo~~11791
▁Comedy~~14367
▁Erin~~10752
▁audition~~9815
▁KPI~~15351
▁Bronx~~4442
▁Eric~~2746
litary~~6430
▁photosynthesi~~10359
▁mailbox~~14403
▁stands~~6740
dra~~5465
▁Pittsburgh~~2681
vinyl~~3858
▁Bell~~2350
▁Belo~~15433
▁roam~~11423
▁pacemaker~~13596
▁physiolog~~11410
▁road~~4314
▁transpos~~14411
▁Nylon~~13866
ippe~~13455
▁Alai~~16361
moral~~14545
rbivore~~15200
▁defense~~5903
▁Atlant~~10693
▁Disneyland~~11506
▁clench~~16217
▁dialogue~~7610
▁depressing~~8420
▁batteries~~6805
▁halve~~11060
ellow~~12000
call~~5731
▁perverse~~13242
▁uplift~~5265
type~~266
▁Silicon~~6895
▁fabulous~~8670
▁abduct~~8119
OD~~14785
▁flies~~1799
Ramu~~8183
▁Jehova~~8498
▁dot~~618
▁Schott~~16577
▁cause~~2671
▁Lion~~10998
regal~~13361
▁illusion~~6497
▁laws~~4077
▁don~~373
V~~5239
ward~~2054
ware~~7492
▁burden~~6795
▁boardroom~~14143
▁dog~~3762
▁Force~~4552
▁AIMS~~15698
room~~2055
▁steep~~6585
▁Trag~~16058
▁Michigan~~5018
worth~~10859
▁Male~~14455
▁networks~~3767
▁Date~~15098
▁light~~258
▁doors~~4006
▁spaceship~~1847
▁Johann~~14764
▁warrant~~12976
▁interlock~~12458
▁refrigerat~~11051
▁homosexual~~8204
▁talks~~2354
Screen~~16113
▁11.~~15379
▁11-~~10343
▁700,000~~12037
▁110~~2475
Cookie~~15546
▁culminat~~4211
▁aufge~~16166
rid~~9215
▁caves~~9871
aging~~5378
▁1918~~8505
▁Twin~~12668
quot~~193
▁dealing~~1156
▁marvel~~4235
RCA~~12742
coloniz~~10246
▁Exil~~14393
polis~~2174
▁saying~~731
assava~~15809
▁consent~~12344
▁subset~~11568
▁writing~~2159
▁Dotcom~~7192
▁dispos~~3590
▁item~~4706
▁skip~~6872
▁skin~~3880
▁rabbit~~8900
▁Smoot~~15306
▁Andy~~6663
▁potent~~4294
shaw~~11362
▁Swa~~6911
▁stabbe~~14091
▁fuse~~5785
third~~3530
▁interactive~~6330
▁date~~4226
▁disseminat~~5057
▁astronomer~~8698
▁data~~363
think~~9643
▁twitter~~15138
▁blockbuster~~1977
▁pickle~~12290
▁laminate~~3824
▁reconstruct~~6239
▁hectare~~3613
▁Diagnos~~13903
▁juncture~~15045
▁Davi~~10253
▁chop~~10653
▁Style~~11618
▁repress~~8473
▁Hospital~~2915
ueen~~8101
▁arteries~~1854
▁refuge~~14459
▁coup~~7734
lumni~~10046
▁autops~~12711
oni~~13506
▁mutual~~3250
▁Phoenix~~11000
▁chok~~3359
tched~~3208
▁shiver~~14885
▁secretar~~7366
▁youthful~~5439
▁heritage~~6194
▁Tupperware~~12952
▁slid~~9712
▁Bagel~~16594
osi~~10730
▁enslave~~8472
▁roast~~9071
▁slim~~4907
▁slip~~4563
ATO~~14383
▁inexpensive~~11290
▁avail~~4930
▁Element~~11617
ologie~~16353
▁skateboard~~3905
▁teeth~~5846
▁hotel~~5319
▁erase~~12054
ania~~7599
▁digital~~4662
▁Zone~~15435
▁ironic~~5967
▁Snoop~~14905
▁patron~~12150
▁unsustainabl~~3632
▁content~~2732
▁Concert~~11370
▁unto~~3561
▁Calcu~~6017
ggregat~~4137
▁counter~~5650
▁towel~~5109
▁tower~~1791
▁Digital~~6315
▁anatomy~~1858
▁untouchable~~12955
▁contend~~13191
▁Update~~10446
went~~944
▁DH~~7407
▁Dictionar~~9612
side~~3671
bone~~6919
▁predator~~4216
▁These~~5094
▁enabl~~8911
balone~~10783
▁PhD~~1744
▁Mulli~~9835
▁dishe~~3378
aida~~15869
▁Tasmanian~~12781
▁Stefan~~10814
▁stratospher~~13324
▁example~~808
ISA~~6195
▁veterinar~~14280
▁reus~~7866
▁BM~~16479
▁productive~~3643
▁logarithm~~12360
▁curiosity~~2730
▁accomplishment~~13100
▁Novocure~~14194
▁restaurants~~5624
manda~~4789
▁assign~~7054
▁since~~1445
▁Bunn~~11759
▁embarrass~~4860
India~~12898
linear~~10115
▁Pablo~~15555
▁Heath~~10519
Dodi~~14149
▁things~~230
▁Leonardo~~6157
▁Beijing~~8188
Planet~~14641
▁Bu~~4595
▁Brillian~~13687
▁classifie~~10172
▁users~~6917
▁unravel~~5793
▁unlock~~2829
▁Danny~~13918
▁identify~~4186
▁Tutor~~7016
logging~~12025
▁medi~~12599
▁Drama~~8753
▁pinpoint~~11104
▁retard~~6755
▁fellow~~4702
ist~~2041
ish~~3482
fleck~~15993
▁neural~~1082
ism~~469
rinde~~14622
▁Corbusier~~13868
▁activat~~8010
ise~~2137
▁Rob~~6582
▁bystander~~13129
▁migraine~~9090
▁pay~~1470
grade~~5542
▁paw~~3658
▁models~~1771
▁par~~5694
▁adjust~~4545
buttock~~4578
▁pan~~5066
▁pal~~3004
▁disruption~~9914
▁Spot~~7120
cher~~9427
▁pad~~4692
▁backup~~12109
▁pac~~4214
hood~~4448
▁erziel~~16176
▁Dunlap~~16378
OT~~12097
▁Rod~~11439
▁lightbulb~~12022
▁Fight~~6190
▁Thompson~~11754
▁Modern~~8867
▁peel~~10118
▁smooth~~2498
▁transmitt~~6654
▁transmitter~~7211
▁proxim~~12879
▁quarrie~~13501
▁malignan~~12824
consistent~~14005
▁Mena~~16339
▁bicycle~~9398
▁plausib~~12047
▁vent~~446
▁probiotic~~10251
▁Sich~~7900
▁capitalist~~13214
▁Robotic~~9680
▁minus~~3328
▁exposure~~6724
▁enhance~~11153
▁Slow~~5155
▁capillar~~14752
clamation~~5055
uction~~12259
▁slum~~2051
ference~~4632
requisite~~4090
horn~~10414
▁chemist~~1685
▁Slam~~16277
▁lava~~11517
distance~~13500
▁Adolf~~15368
▁version~~2581
▁taxpayer~~7315
▁musical~~1068
▁Mesopotamia~~14877
▁shows~~1339
▁sprinkle~~11279
▁couch~~1875
▁seek~~200
▁seem~~2923
▁finite~~5143
▁seen~~81
▁Leban~~3298
▁seed~~9679
▁Tata~~5757
▁children~~1423
▁Exxon~~13247
▁trait~~11427
▁afr~~2493
mino~~8713
modern~~5079
▁Critic~~15891
▁fell~~3948
▁Kanzi~~16304
▁nerd~~6921
▁keep~~2782
quist~~12192
▁train~~914
▁VIP~~11678
seek~~13040
▁opt~~10364
▁oven~~11068
▁arch~~10181
▁fence~~9923
▁empathetic~~5811
▁Interviewer~~14920
▁mammals~~6747
▁blackboard~~14096
▁definition~~656
▁Oakland~~6791
▁dinosaur~~10145
▁over~~387
▁axis~~456
▁brings~~2924
▁Bronze~~15755
▁tune~~6877
▁Diego~~6193
▁girl~~3275
▁mortal~~11895
▁festival~~11131
▁Kenya~~8962
▁Rest~~10681
▁republic~~11441
▁cellulos~~4738
regulat~~4083
▁Scud~~15740
▁Happiness~~9407
typ~~9262
▁extracurricular~~5218
▁Limo~~15613
▁stroke~~2906
▁99~~4327
▁98~~6135
don~~5695
▁Morton~~1676
▁Ayl~~4247
▁93~~5315
doc~~5819
▁ensure~~1645
▁90~~1332
m~~63
▁96~~10433
▁95~~4403
▁94~~11300
▁9.~~10051
▁joke~~3752
▁rediscover~~1215
+~~2827
▁vodka~~14555
▁Stein~~11652
▁escape~~3853
▁gourmet~~9664
▁Toten~~16283
▁senior~~4642
▁proverbial~~15305
▁typograph~~14289
▁Nephite~~16425
▁Proto~~14990
▁opposition~~8201
▁parcel~~10063
▁freeze~~5548
▁expressive~~3030
▁feature~~1498
▁encompass~~12412
▁conspirac~~861
▁will~~568
▁Ashaninka~~14723
▁Marathon~~14604
▁Japan~~1586
▁Fil~~8249
▁recess~~952
▁wild~~3547
▁Ambulance~~12078
▁synesthe~~14228
▁Tool~~15511
▁afford~~1429
kul~~13184
▁Tasmania~~12785
▁blush~~13453
▁absurd~~754
▁dial~~5047
▁Mark~~4892
▁Mari~~12583
▁experiment~~2601
beater~~13909
▁gene~~917
▁landmark~~6838
coast~~9746
▁Hubble~~11812
ston~~9077
▁Glasgow~~15410
▁stressed~~7713
▁Marx~~8252
XY~~6224
▁Marv~~9821
▁highly~~1568
▁Nova~~10076
▁Mars~~6555
▁profession~~1474
▁Linda~~13624
▁soccer~~1114
ggression~~5571
▁promot~~1181
bar~~8318
▁repeat~~4852
▁300~~298
▁terrifi~~4251
▁employee~~1208
▁Comics~~15749
bag~~7402
bad~~8227
▁infectious~~7683
ssors~~9875
▁volume~~3096
▁declassif~~14581
▁Great~~2226
bal~~8798
▁30-~~4579
▁employer~~1204
▁brown~~3985
ethical~~7771
▁reconfigur~~15393
▁Foster~~13800
▁like~~121
▁Hobbes~~12499
▁uninhabit~~3432
▁synagogue~~13832
hypnoti~~13855
▁suit~~2584
▁Apple~~8421
▁50,000~~2486
▁Prize~~5501
▁shape~~1917
▁observe~~2960
▁Appli~~8949
▁Musk~~13209
00~~3504
01~~13425
06~~12803
05~~11431
▁reflect~~1583
▁renew~~5142
▁recharge~~1252
▁WorldWide~~16232
Choice~~15700
▁Wann~~16295
▁desperate~~4365
▁Otto~~14429
▁grenade~~4655
tolerance~~14655
▁apathy~~11120
▁HyperCard~~16081
C~~1708
▁Dia~~13533
Central~~393
▁walks~~1289
ome~~5759
▁ventilat~~14217
▁Atkins~~14305
▁Biomimi~~15716
▁personal~~1248
▁confrontation~~11229
▁secular~~1950
▁Alice~~12146
▁Dir~~14204
▁Dis~~12647
▁continu~~5470
▁romantic~~9615
▁professor~~4761
▁outsourc~~13290
▁spreading~~6655
unt~~4993
▁sho~~3517
▁universal~~780
▁Gertrude~~14535
▁principle~~2106
▁Arcade~~14956
▁mistake~~3485
against~~396
una~~12214
▁Palo~~3932
▁Palm~~8981
ung~~3091
▁boast~~15585
uni~~11613
▁Pala~~6170
unk~~6606
▁climax~~13768
▁Area~~7058
▁lake~~5550
▁smile~~7779
▁humble~~5567
▁disappearing~~5678
▁exquisite~~4904
▁Wired~~9681
▁Bang~~5914
▁employ~~7634
▁Band~~2550
▁crown~~9191
▁latter~~2181
▁Ent~~15927
▁poetry~~4889
initiative~~16258
▁rural~~1999
▁legs~~2589
▁NASA~~5932
▁Gero~~14612
▁mutilat~~12702
▁wizard~~14571
▁India~~4339
▁contribute~~1690
three~~9957
tiny~~625
ting~~413
▁inter~~2352
▁Dennett~~11646
interest~~7297
▁narcotics~~15881
▁wandering~~3678
▁enlist~~8893
▁as~~203
▁Ellen~~8246
▁jerk~~4808
▁corrupt~~10467
▁at~~116
▁modalit~~11559
▁genetically~~7169
▁media~~1572
▁ac~~9107
▁ab~~4683
▁veterinarian~~10254
▁prohibit~~9900
▁ag~~5508
rang~~12469
▁an~~321
▁rare~~3582
▁al~~690
▁refus~~7656
▁metastati~~14312
Ch~~11894
▁watershed~~8932
▁variant~~6478
arawa~~13178
▁invert~~12637
▁USB~~14291
Dollar~~15186
▁decode~~10625
▁damage~~5104
▁stereotype~~10615
▁argue~~1658
▁County~~12437
▁scaling~~14013
trone~~16114
▁implie~~5803
Capitol~~11444
nsky~~13510
▁plastic~~3347
▁marry~~8320
▁sometime~~4843
seven~~10567
▁plan~~3763
▁Scottish~~9758
▁subdivision~~10104
▁spor~~12289
ip~~3715
▁desir~~5133
ir~~3604
it~~2972
▁spot~~1861
iv~~3610
▁marri~~4810
ik~~7934
ij~~15395
im~~4760
il~~3124
io~~6172
in~~345
ia~~2889
▁rock~~622
ic~~48
ib~~6876
ie~~2706
id~~1997
ig~~4590
if~~4215
▁gel~~8597
▁geo~~10506
▁Raphael~~13126
▁dig~~6880
▁did~~481
▁die~~1978
▁candy~~9920
erebral~~3003
▁delighted~~8972
▁Bush~~6025
▁dim~~7961
▁dir~~14268
▁dis~~2133
▁dip~~11992
▁div~~9515
▁get~~177
▁crows~~8521
▁Colli~~9988
elli~~11343
▁hiccup~~15078
▁constant~~3009
▁Privat~~16416
ella~~12426
▁cogniti~~1092
▁Arhuaco~~14808
▁Double~~10438
▁squa~~12650
kin~~4775
▁drivers~~11573
▁reply~~8984
▁Nest~~16446
▁blade~~7431
▁courtyard~~10592
▁message~~781
▁province~~9170
▁premature~~6698
▁hexagon~~9089
▁Cultur~~12921
▁cassette~~9127
▁prohibition~~14839
▁pellet~~3394
▁baseline~~11440
▁upgrade~~9857
▁IGF~~16055
left~~12220
▁electron~~8646
▁Venture~~14735
▁Teszler~~16395
▁Krosoczka~~16027
▁Cal~~6279
▁Angelin~~14710
human~~7453
▁Sri~~7754
▁figure~~1626
▁seine~~15852
▁racial~~8806
▁detail~~1468
▁seren~~6431
▁spiderweb~~14611
▁fax~~7700
▁paralysi~~9420
▁shoe~~9814
▁fat~~7303
▁dictionar~~10755
▁influence~~2544
▁flex~~1890
▁far~~620
▁arter~~12246
Built~~14219
▁shop~~3583
▁repertoire~~8222
▁show~~83
▁shot~~2050
▁LinkedIn~~10456
▁ABC~~14776
▁George~~4036
▁crocodile~~10729
▁Save~~8994
▁advent~~11027
▁fac~~4863
▁circuits~~1885
▁Tennessee~~10682
▁larva~~12013
▁rigorous~~4019
▁matter~~87
▁Michoac~~14766
▁Sandwich~~9822
▁airport~~3403
▁Feminist~~14670
▁diaper~~11958
▁divine~~8506
▁fluctuat~~12353
performance~~12981
▁homes~~661
▁orgasm~~5193
▁Rahm~~6926
▁obes~~3624
Art~~15407
▁much~~199
▁muck~~10961
▁maneuver~~1809
▁Square~~8978
▁redundan~~12098
▁Kat~~12279
plica~~9544
▁jumbo~~15065
▁equit~~1412
▁sausage~~5547
Arm~~13446
intensit~~13279
▁equip~~1790
▁Fix~~11067
www~~13892
▁honeybee~~12655
▁kg~~7533
▁chat~~4633
▁cows~~3773
▁chap~~9354
rtiller~~13203
▁Data~~13260
▁chas~~4778
▁abuse~~4440
▁participator~~8891
▁worry~~5368
▁believe~~1214
▁Puls~~14818
▁Federal~~11442
▁melde~~16208
▁Rap~~10542
▁Kal~~11600
▁Mathematica~~12754
▁translate~~1357
▁prescription~~1623
▁Australian~~10824
loyd~~13050
▁quart~~9310
bra~~12264
▁emission~~9448
▁hammer~~3978
▁befallen~~16311
▁sign~~2642
burg~~2400
▁Village~~10489
▁Elio~~14112
▁Schl~~1285
▁fragrance~~10608
burn~~8925
▁Niger~~14972
▁Conno~~11196
▁manifest~~766
▁degrad~~7477
▁cursor~~8819
▁Schw~~13620
▁monkey~~7173
bury~~4836
▁Gorge~~9241
▁kids~~877
▁Cambodia~~6370
▁rigg~~14088
▁99.9~~6460
▁emotion~~2804
orex~~12050
▁ugl~~7805
▁kidd~~5909
▁flori~~13341
=~~13739
▁encouraging~~1185
▁affect~~893
ć~~15880
lief~~10111
▁Fiction~~16365
erra~~12878
▁Hyde~~15394
misunderstanding~~13740
▁inside~~343
▁cosmologist~~11463
▁contradict~~10324
▁anecdote~~7951
▁hyperbol~~6031
▁skipp~~5115
▁encrypt~~10441
▁Vanco~~8023
▁tick~~2325
tennis~~5813
▁empathy~~5810
▁hurdle~~10716
▁Bull~~8743
▁Montag~~8820
▁deput~~12704
▁wings~~7218
▁guard~~11332
▁slope~~10510
▁Solidar~~10896
bert~~6098
DNA~~9265
▁Coach~~8399
form~~8434
▁too~~704
ampaign~~13302
analyse~~7536
▁companion~~8334
ford~~4596
▁expert~~3014
berg~~9818
▁agreement~~7659
▁Flor~~10735
▁top~~384
▁Liberal~~14800
▁Earl~~15801
▁fantasy~~2158
▁Namaste~~12692
▁Trump~~14685
▁wilderness~~14444
▁sometimes~~3102
▁dense~~449
▁collide~~11324
▁Mount~~6542
▁nin~~4390
▁Assembl~~9341
▁dissatisf~~5487
▁Bug~~14745
▁evil~~7596
▁gab~~15797
▁uprising~~1270
▁transformative~~2018
▁drill~~10157
▁Gilli~~11861
diagnose~~9065
▁maze~~6570
▁percentage~~844
▁resolve~~4418
▁Rolle~~15001
▁motel~~14543
kor~~14401
rmostat~~11990
▁shake~~2791
▁protocell~~15822
▁plume~~11536
▁sheep~~3710
▁domestic~~5068
ship~~2395
▁vocabular~~3852
▁crawl~~666
▁pleasure~~3231
handel~~2943
▁chart~~1391
▁40,000~~382
▁Pluto~~12036
▁District~~10929
▁cognitive~~5530
handed~~12130
▁PMTCT~~11025
▁drought~~10602
▁unregul~~15823
▁mistrust~~12062
▁amphibian~~6702
eil~~13064
▁fortress~~15847
▁SARS~~4332
▁protein~~4002
▁else~~1317
felt~~2711
▁concept~~757
▁financial~~1655
▁painful~~2556
▁Islam~~13076
▁Marshall~~7055
▁fascinate~~5666
▁Inuit~~14492
▁aristocra~~11437
billion~~748
▁task~~1035
▁loft~~11233
▁flora~~11774
Schilling~~14343
▁Ashdown~~15126
▁Chaplin~~11642
▁ladder~~6574
▁eulog~~11777
▁suburban~~10985
▁idea~~139
▁fanc~~9620
▁stroma~~16329
▁fang~~14505
▁Pilot~~15342
▁responsive~~8533
▁dressed~~6597
▁Lava~~16370
▁burger~~12293
▁structure~~529
▁illuminate~~10529
▁Londoner~~14919
▁Giuliani~~15190
▁might~~1031
▁peculiar~~4979
invent~~8130
▁skier~~10626
▁mandate~~4228
mile~~383
▁add~~2846
▁hallucination~~9033
▁downward~~8429
▁incorporate~~7419
▁wrong~~2185
▁journalist~~1827
▁Caucas~~12408
marke~~13615
▁axon~~13549
▁outline~~4916
▁Hot~~7131
▁doctor~~1142
▁How~~4478
▁Hol~~6611
0~~6549
▁Hoo~~1928
▁phenomeno~~3965
▁countries~~1294
▁padd~~11773
meister~~10816
▁relie~~7352
▁phenomena~~10121
▁Levin~~11789
▁precious~~6936
Rex~~14477
▁Hob~~7084
▁cru~~9823
▁private~~2700
▁indigen~~9293
▁Excel~~13066
▁sentiment~~7811
▁anchor~~3558
▁bother~~2547
▁Carrillo~~16135
▁facilitate~~11401
▁SOPA~~15022
▁vertebrate~~11869
▁cry~~3276
▁Philip~~9685
▁problem~~99
▁conservation~~761
▁hone~~6052
▁expend~~11882
▁4.000~~7689
▁precis~~3016
▁Hussein~~12232
die~~9779
▁Standard~~6191
▁Age~~5267
▁Reality~~16420
▁distant~~1300
▁sprout~~13261
▁tur~~12535
▁Agn~~12459
round~~4180
dis~~10842
ville~~3093
▁academic~~2301
villa~~11353
▁abstract~~2571
▁Borane~~14891
▁mammoth~~7111
▁bra~~10314
worm~~10747
▁tree~~6397
▁delicate~~11424
▁postcard~~7702
▁iPod~~1492
▁Give~~2712
bacterial~~2519
▁trek~~4303
▁metabolic~~6651
ssig~~6102
oyle~~6887
etchup~~9979
▁Tibet~~6375
▁Wehr~~16150
▁crosse~~6125
▁merchant~~4990
▁stell~~14744
▁Wander~~14995
▁Aber~~15514
▁mammalian~~7168
▁oops~~4264
▁pebble~~10731
▁careful~~1613
▁mixed~~9649
▁Math~~14633
▁extension~~5341
▁Cameron~~4414
▁blown~~6581
▁Casa~~12512
▁disintegrat~~587
▁Thai~~5954
▁30,000~~9400
▁unpack~~5599
▁Cash~~13664
▁That~~1006
▁feasib~~5339
▁cheese~~9657
▁dice~~9496
▁dick~~10977
▁Guinness~~6178
▁Malco~~7323
▁Matt~~6331
▁detection~~7278
▁promis~~2425
▁fully~~5927
box~~3176
▁Verb~~15589
▁military~~1807
▁procedure~~7481
▁alert~~5108
shift~~5536
▁enforce~~4093
bot~~7214
bou~~8262
▁authorit~~1237
▁tenure~~12815
▁phone~~996
▁Group~~4769
▁ganz~~14892
▁alcohol~~8758
▁authoriz~~4166
achi~~8289
▁Wald~~14232
▁lunch~~1251
elect~~1020
▁attachment~~8306
▁hot~~475
▁Wall~~7586
▁how~~213
▁hop~~5997
▁Walk~~10820
▁Allen~~11178
▁hol~~3132
▁everywhere~~782
▁hoo~~11648
▁nudge~~8573
▁reassur~~9064
▁humanitarian~~4286
▁plump~~15938
▁shave~~13218
▁fossilize~~10166
▁Multiple~~13520
▁lies~~141
▁kilo~~12759
▁Bubble~~15612
▁Organism~~15253
▁wake~~1264
aya~~9528
▁reorganize~~14529
▁thin~~5755
▁Alexander~~8486
▁definitiv~~11116
ailway~~15361
▁guardian~~13861
▁Nerv~~15303
ood~~319
▁Africa~~3105
sharing~~2928
▁flavor~~4122
emeni~~14619
▁dicker~~16387
▁Zai~~14209
▁disturb~~7329
oon~~4653
▁analysis~~1206
distribution~~9397
ook~~3434
▁holding~~874
appen~~14860
▁pleasant~~1486
▁squirt~~11275
▁Dollar~~14287
▁impossibilit~~6622
▁previously~~4237
apped~~8329
▁Beach~~3408
▁suppress~~7614
▁yester~~3412
▁pesticide~~6700
▁southern~~4393
▁geoengineer~~14574
▁thoughtful~~2151
▁Taliban~~4654
▁mention~~3663
flu~~10309
▁liter~~10591
ult~~3689
▁Hebr~~2564
▁Hohe~~15936
flo~~3404
making~~1097
▁Ticket~~14901
▁Ha~~953
▁Bali~~10955
▁semina~~10004
▁underst~~318
▁Ball~~7268
▁stitch~~8298
▁menopaus~~7306
▁exciting~~97
▁mediate~~7609
▁reduc~~7854
▁found~~686
▁image~~3261
Mutawa~~14654
▁Muh~~11623
▁tele~~4631
aaah~~15946
aurus~~10151
irport~~5611
▁pioneer~~4065
▁substantial~~10715
▁Jura~~6039
▁tell~~68
▁rape~~8364
▁size~~290
▁college~~4033
▁Histor~~6323
apster~~11888
ido~~10233
▁gravitate~~9565
▁philosoph~~1971
ping~~333
institut~~12256
idio~~3901
▁throat~~11795
▁gleam~~14630
map~~5334
▁Will~~2231
▁shift~~3037
▁multiplic~~12359
mat~~6714
▁interact~~1039
▁Wild~~6417
▁Wilb~~8990
▁quantifie~~11952
▁desert~~4898
▁proponent~~14650
▁Bachelor~~5600
▁Lhasa~~6374
▁go~~336
▁rebuil~~7897
▁fantastic~~2858
mah~~8233
▁environment~~309
▁exhaust~~6600
▁ge~~1970
grow~~7466
▁guten~~15734
man~~2433
▁reconcile~~8136
▁Georgia~~10733
▁exten~~3200
▁Kha~~14664
▁Nelson~~9006
q~~8389
▁Frankie~~10953
▁Golf~~15522
▁Sit~~11621
▁Scrapper~~16445
▁Cathe~~7725
talk~~9941
▁Enrique~~10349
▁Victorian~~10761
▁Standards~~9111
ische~~15420
▁unite~~7966
▁overwhelm~~9206
▁Sylvia~~4116
▁hatch~~12014
immer~~129
▁bachelor~~14797
▁target~~1668
▁sparse~~3435
▁disregard~~12394
estero~~13342
▁Native~~10498
group~~2687
▁adventur~~14665
▁mum~~6629
▁Like~~4967
▁guerrilla~~11382
▁Horizont~~15434
▁Raj~~14874
thane~~1756
▁vertical~~3989
▁Ram~~8149
▁gauge~~9911
▁mud~~2490
▁Cyber~~10437
▁Government~~3798
▁lollipop~~15149
▁Rat~~14253
▁sexual~~4500
mail~~9567
▁Mut~~12868
▁geschützt~~16162
bombe~~14570
▁neurogenesis~~16452
▁memes~~12685
▁buzz~~3216
▁skills~~1036
▁HC~~13905
▁coffee~~924
▁Canc~~9195
She~~5861
▁vacuum~~12746
kka~~8432
▁NPR~~14544
▁Commandment~~2634
▁smartphone~~6137
▁Trick~~15837
▁breed~~6246
▁symbiotic~~3785
crypto~~8311
▁moss~~10526
▁most~~41
▁reduce~~1546
▁describ~~11675
nick~~11615
▁zombie~~14182
▁Sata~~15956
▁40-~~7356
▁DNA~~4000
▁partner~~207
▁fatty~~7307
▁Gute~~16444
▁Container~~14873
▁401~~16093
▁400~~1718
girl~~13663
▁Brian~~3566
▁404~~13701
▁categorize~~9246
▁fist~~4646
▁Lego~~8750
▁shak~~4308
▁shad~~11838
▁restore~~2905
titution~~14796
▁talent~~1326
explain~~10618
▁punish~~8739
▁humongous~~14903
pock~~2132
▁2,2~~15912
dioxide~~10813
▁Keith~~11258
dominate~~13685
▁fish~~236
correct~~6093
▁1890~~11731
▁number~~687
▁plaque~~11491
lag~~9411
▁FreeSpeech~~16558
G~~7646
ory~~3426
▁basis~~4185
▁Walker~~6538
▁repeated~~2709
ors~~2922
▁terabyte~~13356
▁Story~~5127
▁gentlem~~4405
▁Essay~~15722
fusion~~14199
ork~~3831
ori~~8640
▁clon~~7182
▁basic~~360
▁Stern~~12340
▁tactical~~5586
gott~~15516
▁Mich~~3292
▁Mick~~7615
▁meditat~~8114
MF~~12908
frequenc~~13507
App~~13009
▁payoff~~8917
▁eardrum~~11138
▁relation~~9376
oscope~~11151
Khmer~~15583
▁entitle~~4933
▁transmission~~9425
frequent~~13136
▁cel~~11792
▁entry~~8395
▁flexibilit~~7406
▁genocide~~2113
▁vivid~~6220
▁BR~~15978
timation~~7500
▁BP~~6728
▁sole~~6788
▁convey~~3032
▁Dave~~64
▁worth~~1789
▁BG~~4427
▁Olive~~15817
▁BB~~13788
▁BC~~8452
afel~~15748
▁BA~~1795
▁BL~~488
▁dried~~9203
▁streets~~1354
▁profile~~6579
▁Office~~12173
▁spoof~~15156
▁corporations~~3629
▁Br~~4625
▁slur~~7842
▁guitar~~2874
modernism~~11314
▁Sport~~11355
▁Be~~2286
▁classify~~4786
▁unpredictabl~~12465
▁disorder~~9910
▁Ba~~3428
▁Bo~~3810
speaking~~12602
▁Bi~~4400
▁regulation~~7180
urowi~~8936
▁idiot~~989
▁commercial~~4272
▁hurry~~2211
▁Pentagon~~12667
▁mosquito~~10159
▁cruel~~10221
▁airplane~~8131
▁sanit~~4402
▁sensitive~~728
ttle~~5224
▁useful~~2243
11~~6197
10~~4537
▁wrist~~2249
12~~5952
15~~8025
14~~1796
17~~8503
16~~9789
19~~3676
18~~10665
▁inflat~~13410
▁solv~~6130
▁calendar~~9343
protected~~7638
▁communist~~8983
▁chief~~8331
▁needle~~10757
lich~~15507
DL~~14870
lick~~7851
▁drank~~12482
DG~~320
mitte~~16041
▁September~~2981
▁collaps~~14490
▁delegate~~1231
portrait~~12959
▁coloss~~11044
DP~~828
▁immens~~16457
▁fruit~~4944
▁skirt~~2215
▁Licht~~10854
▁neuromodulator~~16584
able~~646
▁20.~~14040
efficient~~7829
▁time~~424
▁20-~~13045
▁profitable~~9895
▁essence~~7326
▁magical~~3586
▁elect~~7575
▁Hungarian~~13082
green~~10410
orado~~14065
▁Magnet~~16130
201~~5940
200~~13923
▁tip~~543
▁surgeon~~4823
▁egalitarian~~13441
bett~~15708
track~~3395
▁Form~~13900
▁imitat~~11538
incidence~~6685
▁Cromwell~~16003
paid~~2672
▁restriction~~1247
▁victor~~6252
▁tid~~11244
▁tie~~4730
▁filament~~611
▁typical~~2752
▁tin~~9087
▁apartment~~7708
▁banne~~4705
▁friendship~~6289
▁interview~~4966
▁Methodi~~16396
angst~~13196
gyro~~9780
▁sheet~~2602
▁Schwei~~10161
▁River~~4376
▁accumulat~~4748
▁Gran~~9301
▁interpersonal~~14333
▁grosse~~15033
▁hybrid~~6496
▁chemistr~~1816
▁drink~~3130
▁decided~~2600
shop~~9579
WF~~12018
▁Benjamin~~5145
shot~~5281
▁Saul~~11651
▁Hendri~~13399
▁geological~~10786
▁gang~~7210
▁seawater~~3445
▁crutch~~4358
▁Nathaniel~~15728
▁Barbar~~9455
▁differentiate~~1601
▁nightmare~~3925
▁Ventur~~12207
▁implication~~4981
▁precipi~~10740
▁Ludwi~~13266
▁peaceful~~5579
ubert~~11786
▁this~~59
▁repair~~5472
▁Formation~~14470
kilometer~~4115
helix~~9719
▁Blak~~11519
▁billion~~702
▁ignor~~14853
awareness~~11964
▁Progress~~13967
ger~~3377
▁netter~~13513
▁polar~~8157
importe~~15513
▁optim~~11989
▁arriv~~3685
▁optic~~5745
▁fall~~3098
▁architect~~3573
mung~~16381
▁renovat~~6996
resistan~~8633
▁Communi~~12427
▁steadi~~10905
▁tightly~~9659
▁seat~~3941
▁calci~~10165
▁concern~~1536
▁seas~~3346
gel~~5385
▁bash~~11857
▁bask~~2784
▁allow~~1869
intuitive~~8610
▁Portrait~~13127
▁bastard~~11096
▁sting~~11682
eller~~9526
▁valuable~~2267
▁base~~3535
▁generic~~5324
▁TMS~~15210
▁Opera~~2861
▁event~~3727
▁variation~~1457
atya~~15350
ercover~~15920
▁bass~~3191
▁cough~~15606
▁grain~~3598
▁sold~~3588
▁cattle~~4819
▁Fif~~11710
▁Loft~~11688
▁solo~~2429
▁reflex~~3278
▁hollow~~12639
▁Angeles~~5610
Tipp~~15711
▁fraud~~10679
▁Punk~~16030
vita~~5379
▁hole~~967
▁hold~~1106
▁Grad~~12447
▁Organization~~8618
▁fabric~~8266
▁Journalism~~16589
▁learning~~743
▁paycheck~~13398
▁commodity~~3770
▁integral~~8115
▁stink~~11083
gaga~~15921
▁Gras~~12038
▁integrat~~3900
▁fracture~~10798
▁Fresh~~16543
▁commoditi~~2122
▁submitt~~6048
▁intricac~~6490
▁pathogen~~5474
▁jogg~~12945
▁listener~~8313
▁carbon~~4072
parent~~9257
ju~~6495
▁Festival~~13483
jo~~9228
ji~~7508
tun~~13226
▁envision~~1846
je~~5916
ja~~3429
▁turn~~221
▁pea~~5546
▁bureaucrac~~14377
ivity~~1136
▁stand~~115
▁lamp~~6912
▁cathedral~~3114
▁pen~~4711
▁well~~701
▁per~~511
▁SPECT~~6636
▁bureaucrat~~7134
▁recognize~~2899
present~~10629
▁patch~~4084
▁pet~~2666
▁slaughter~~3711
▁Hara~~13355
▁eclipse~~10077
▁Herman~~6913
▁colony~~11875
▁queer~~8214
▁transform~~866
▁Humanit~~13725
▁commercializ~~10389
▁sailor~~2204
▁epidemiologist~~10950
ized~~2012
▁suicid~~12397
▁queen~~11243
▁AMD~~14763
▁Bridge~~10487
izen~~8102
▁spoke~~4813
▁marks~~3719
▁Cheeto~~15992
▁encounter~~6362
▁assum~~7460
▁testify~~11188
▁garden~~3743
▁hire~~849
acre~~6248
▁Derek~~12791
▁recruit~~1614
▁static~~4559
▁swimm~~5566
▁Thom~~3243
▁surgery~~4824
income~~10015
▁manipulate~~7174
▁transaction~~4968
▁Miko~~15838
▁extinction~~6742
▁Schach~~11259
▁circum~~7818
▁Eis~~11350
▁diabetic~~10232
lihood~~10890
▁million~~700
▁Rcif~~16528
▁merchandis~~12478
▁Thor~~11448
▁stat~~11046
▁Statistic~~13710
sound~~5271
▁shower~~6806
▁devastation~~11209
▁buffalo~~7152
▁scatter~~7308
▁cabin~~3850
▁rational~~2625
▁Device~~15206
▁scor~~12349
▁intentional~~7145
▁Gross~~3595
▁terribl~~1375
▁word~~2561
▁Galapagos~~4188
▁smartest~~4423
▁worn~~7461
▁worm~~523
cock~~12833
▁work~~756
▁snack~~9616
▁ethnic~~9619
▁miraculous~~12177
▁examples~~2670
▁sued~~7301
▁activis~~8335
▁network~~2778
▁Figur~~15406
▁Rabin~~13330
▁activit~~505
▁Aaron~~14548
nourishe~~12133
protein~~15709
▁Guide~~14917
▁Strick~~16096
par~~4899
▁kitchen~~5649
▁revenue~~10071
ongolese~~14213
▁prop~~4475
▁gatekeeper~~12210
▁audience~~1826
▁relevant~~7812
▁dessert~~9638
▁wait~~705
▁ruder~~16568
▁Republican~~7562
pan~~9576
dated~~4063
▁Arab~~9338
oil~~9634
▁Dur~~10342
▁cheek~~11144
▁individual~~248
oid~~7967
▁parallel~~5424
▁unexplo~~159
▁Cheval~~13452
▁Arav~~13683
▁limitation~~5830
▁swamp~~10503
▁cheer~~5836
▁windshield~~2474
▁mother~~1935
▁pursui~~1694
▁mainstream~~5182
▁eng~~11477
▁end~~395
band~~8913
▁infiltrat~~10440
▁Susan~~7361
▁damn~~5492
▁disclosure~~7283
▁pursue~~1529
▁industrious~~11809
▁Music~~2887
▁env~~4053
▁microfluidic~~8636
▁ent~~4901
▁Macintosh~~13645
▁measure~~1288
▁regret~~6822
▁exercise~~1107
▁extract~~530
▁Kra~~14773
▁operate~~4307
▁tent~~240
▁apocalyptic~~12496
▁levitat~~12865
▁confirm~~5829
▁tens~~410
▁legitimize~~13931
▁turtle~~4120
▁terrifying~~3923
▁admit~~2388
▁wedding~~8008
▁geographical~~6116
▁tend~~292
cursion~~9458
▁turbine~~9316
▁displac~~6850
▁Tue~~4528
▁hundred~~485
▁dolphin~~1050
▁endeavor~~6109
▁angel~~11874
▁em~~3714
▁el~~4895
▁overcom~~3097
▁ground~~632
▁eh~~8327
▁et~~5814
▁es~~3341
4~~2404
▁Rembrandt~~8453
▁decoupl~~15082
▁culprit~~9588
▁display~~1899
▁ex~~3320
▁routine~~4531
▁Share~~12679
▁Copyright~~7624
▁gather~~3554
▁geograph~~3713
mov~~7669
▁nanoparticle~~2484
▁Denis~~11404
temperatur~~12295
grid~~12664
▁repetitive~~3209
▁adjacen~~3990
mog~~1698
▁Eurasi~~9235
▁Joel~~12007
▁dictatorship~~14265
▁Sufi~~13451
efer~~16215
▁infrastructure~~4321
▁silicon~~9548
▁instance~~2897
▁intricate~~3108
▁Hacking~~15327
either~~408
▁Western~~2121
▁fraction~~3397
▁flaw~~7649
▁rust~~11149
▁Ahmedabad~~14820
▁pattern~~1873
▁adolescent~~5221
▁disc~~9248
▁flowers~~3334
ante~~6034
▁60,000~~7239
▁Matthieu~~12553
▁articulate~~2178
▁polish~~10208
▁eject~~13636
▁gap~~1405
▁gas~~6783
▁gar~~3968
▁alive~~2941
▁Ocean~~4151
▁gav~~2240
▁sidewalk~~7014
colonial~~246
Gadget~~14944
▁associat~~8703
▁Schachtel~~16071
ropaganda~~2239
ellig~~10134
▁dug~~5973
▁fatigue~~8724
▁due~~4985
▁cooperative~~8910
boat~~3155
outh~~7123
▁Mecha~~15902
▁gam~~9723
▁gal~~7473
▁skillful~~2987
▁invade~~8315
▁Bis~~12368
▁online~~2982
▁DARPA~~7215
broken~~10127
market~~11692
▁Sydney~~11872
▁Call~~11788
▁Cala~~14252
▁switche~~5714
▁inhibitor~~10351
▁preferr~~5635
otho~~15048
yrone~~6668
violence~~9325
▁dodg~~4305
practical~~12237
▁balance~~6864
▁Trek~~15201
▁volle~~14715
othy~~10341
▁lane~~11803
▁nut~~8541
▁Fang~~15931
▁surrogate~~13906
▁arrival~~7768
▁similarit~~12906
▁century~~1963
▁thorough~~5432
terminolog~~7667
▁4,5~~16359
▁psych~~12641
▁Trabant~~16216
▁uncle~~8177
▁spider~~11272
▁integrate~~7996
▁quirk~~9144
▁Bal~~7101
▁Archive~~10493
▁Fest~~16360
▁Inc~~12854
▁astounding~~5727
▁connectome~~12040
▁Monde~~15462
▁furniture~~3833
▁clinical~~1901
▁speculation~~5453
▁Santa~~6186
▁official~~2808
▁monster~~4048
▁flowing~~4561
▁melod~~2865
▁welt~~16090
▁Santo~~7909
▁clip~~23
▁Khal~~7093
▁Khan~~12073
▁Latino~~15872
▁Egyptian~~12126
▁anything~~1490
gora~~1278
▁Bowery~~16372
▁eigen~~15861
laine~~15236
▁irrigat~~4937
▁weapon~~10312
hhh~~9731
▁sir~~11273
▁swarm~~8814
▁roof~~6306
▁yearning~~7568
▁cube~~2966
▁sil~~12278
▁mindful~~10029
▁fight~~569
▁room~~421
ember~~7841
▁sectarian~~13825
▁faucet~~6792
▁root~~4067
▁Cyborg~~15763
▁dark~~39
▁Aero~~13407
▁disk~~12747
▁mechanisms~~5393
▁Franc~~14242
▁Karolinska~~14200
▁various~~5249
▁denn~~15753
USC~~8569
▁incubator~~13343
▁Bus~~7619
▁stunt~~10418
▁manage~~541
generat~~1629
deed~~1972
▁pound~~9665
film~~5929
fill~~1004
rotection~~10286
▁Winter~~15604
▁Thu~~2529
▁Cassini~~6359
know~~10102
▁insurgent~~13673
▁Bermuda~~4143
▁pretzel~~15787
▁MaKey~~15816
field~~3686
▁The~~194
▁fudge~~2629
▁Ein~~13547
▁Thi~~2761
▁insight~~5852
▁defuse~~12230
▁Community~~6282
▁doughnut~~8356
meka~~15662
▁cluster~~9080
▁Novo~~12061
▁Sharp~~14705
▁phones~~5969
ended~~8845
schwitz~~12382
important~~3991
▁dramatic~~487
▁Protokoll~~15427
13~~10806
▁strain~~3559
▁elicit~~10294
wett~~2513
▁assumption~~4064
▁pinnacle~~11929
▁poem~~4680
▁expanding~~12212
u~~2305
▁poet~~4890
▁thanks~~2992
▁rich~~479
▁evening~~5098
▁stump~~13401
▁Spirit~~12712
resolution~~5925
▁possess~~12402
▁sentimental~~9785
▁junior~~13995
dollar~~2655
gu~~7100
▁cocktail~~8528
zing~~4728
Wayne~~13052
▁bargain~~12480
▁Jordan~~3420
▁circumstance~~4361
▁menstrua~~7385
▁damaging~~10080
▁breastfeed~~12141
▁meditative~~9906
▁Lovegrove~~13846
▁signal~~6829
▁pension~~12356
▁amazing~~3330
▁Dutch~~2398
▁compassion~~3317
▁player~~2726
▁Flash~~11914
▁polic~~13169
▁ecosystem~~698
▁Hanna~~14707
▁Extrem~~13952
▁conflict~~3240
▁bias~~6084
▁Wal~~10267
^~~15954
▁polio~~4248
rror~~14737
tradition~~12514
▁bar~~1481
▁bat~~601
▁your~~552
▁bay~~4152
▁orange~~7172
▁Some~~7062
▁Volkswagen~~15660
▁victim~~4713
▁bac~~14147
▁bad~~858
▁inflation~~12305
▁bag~~3516
▁Council~~12026
▁Herzog~~15651
ius~~11186
▁Shaw~~2434
▁characterize~~11868
▁spher~~12136
▁ban~~5227
▁cosm~~11457
splitter~~13647
▁psychiatr~~12543
▁chef~~982
▁evocati~~9309
▁diagonal~~10105
▁vibrate~~2953
▁superstitio~~9177
▁Funk~~16540
▁ches~~2812
▁Future~~11844
▁chew~~4609
▁Drake~~13616
▁cost~~2610
▁Anschluss~~16397
▁Notation~~14782
▁Francesca~~14699
▁building~~2334
cose~~13904
iven~~15535
▁immense~~8195
▁Master~~7485
▁spectrum~~1535
▁spit~~8546
zero~~7264
▁controll~~988
phage~~13749
shmi~~4781
▁carti~~7456
excit~~9056
aba~~911
▁biotechnolog~~7141
▁evaporate~~10003
▁values~~936
▁Spring~~9947
stool~~6909
abo~~6786
▁Isa~~10856
▁crash~~5522
opter~~10179
▁Facebook~~2816
▁ambiguit~~9154
▁scholarship~~6533
▁arrow~~6830
▁enthusiastic~~11216
▁fad~~13554
▁SuperRabbit~~14019
▁cofounde~~6010
K~~2007
▁Resolut~~15331
▁fusion~~11450
▁puppet~~9600
▁grass~~8649
▁informative~~10931
▁South~~4149
free~~4280
▁naked~~10465
▁skydiv~~10403
▁Slum~~2065
▁Sieg~~12958
▁batch~~13999
▁LOL~~13391
▁chlorop~~6782
▁venture~~1651
▁senses~~9072
▁invoke~~1921
▁intent~~10850
▁Enigma~~14683
▁desolate~~6507
▁Cousteau~~14443
▁evolutionarily~~9933
▁reciprocal~~13071
▁Sprint~~16256
▁nurtur~~6983
▁Seide~~16525
▁putting~~3315
Sinai~~13851
▁threshold~~5473
▁Lars~~10177
▁competitive~~1024
▁song~~790
▁pedestrian~~12615
▁empathiz~~5822
▁Stadium~~16259
▁test~~1291
▁sons~~6309
▁Devil~~12154
▁malaria~~4335
eye~~9618
▁insult~~11062
▁Tim~~10340
▁retrofit~~10978
▁electricity~~7983
▁invasion~~8445
▁Ninety~~7383
▁disappear~~2657
▁Programm~~8950
▁still~~1041
▁ribbon~~649
▁preced~~10873
▁pepper~~10676
▁personalit~~2904
▁Fifth~~12334
▁personaliz~~1607
▁rigid~~5208
▁failure~~4527
Sketch~~15975
▁prolif~~8832
American~~6781
▁sociolog~~6029
▁relations~~4800
▁snatch~~9874
▁Trend~~16184
▁ultimate~~1281
▁dysfunction~~11447
gged~~9024
Parade~~12472
town~~8322
▁Riverside~~6281
▁Ghana~~5773
▁Princeton~~6110
hour~~5206
wick~~13819
der~~2458
des~~10393
ility~~5340
▁Act~~7626
▁Ach~~12448
▁stalk~~9555
▁Maxim~~16504
▁postpone~~5462
▁stall~~7032
den~~153
▁treasure~~4210
▁the~~9
▁Record~~11317
illennium~~5064
▁Zeit~~12675
▁enzyme~~6717
▁Mother~~10638
▁unifie~~11472
▁Compan~~7074
▁trap~~6893
share~~10936
ps~~6304
▁Well~~951
▁Leakey~~9242
▁vigorous~~11582
▁Montessori~~14524
▁trac~~3057
tolerant~~15767
▁puddle~~10231
▁trad~~5044
!~~359
▁reclaim~~11428
▁juice~~5647
Ferran~~12286
ombin~~7193
▁li~~7162
Admiral~~10657
▁Swenson~~16539
▁Magazin~~15043
▁burn~~1883
▁flipp~~5545
▁wife~~3277
▁deliver~~1413
▁Audi~~14531
▁crystalliz~~13743
▁Jesus~~7420
rella~~12138
▁hmm~~14076
▁materials~~2449
ophonie~~16342
▁coherent~~1642
▁database~~8813
▁Garden~~3747
▁relevanc~~9584
▁aging~~5335
▁soybean~~3594
▁365~~9377
▁360~~10018
blood~~715
▁Osmakac~~16468
Atti~~14547
▁coherenc~~9084
▁European~~4130
▁kin~~12176
▁Vent~~5882
▁stigma~~6961
▁create~~612
coat~~2463
▁Kante~~16226
▁Steel~~3570
▁Vene~~11180
▁Virgin~~14962
eath~~2766
▁telephone~~10604
▁Smith~~2076
alph~~10640
▁persecut~~9001
▁Sear~~14001
▁Pension~~16112
ckel~~12792
▁liar~~11699
cken~~10187
▁Manufactur~~12075
▁zebra~~7176
▁Nature~~6410
olpert~~16147
▁Grace~~13097
▁philosopher~~11226
▁lineage~~9266
▁licens~~12524
▁hatred~~13438
▁Word~~7127
▁lungs~~6656
▁Allah~~14370
▁Nichol~~6937
▁suck~~5646
▁pH~~14159
▁such~~1302
▁struggl~~1615
cker~~11670
24~~14256
25~~5262
▁rockets~~9813
20~~1712
▁Feld~~15191
arian~~9525
▁angular~~11667
▁Abraham~~10124
29~~12326
▁Shephe~~14508
▁whims~~2342
▁dropout~~4758
▁Keep~~4848
▁judgment~~8141
pend~~11361
▁Third~~8159
▁generation~~1844
▁rewild~~16570
▁lin~~11064
▁migration~~8418
▁Alfred~~8524
▁Patagonia~~10060
▁Hole~~428
▁Atoll~~5899
▁phenomenal~~7132
▁Moral~~16133
wake~~12845
▁Slavi~~14239
▁bold~~1688
▁Holi~~7012
▁check~~2713
witsch~~15733
▁reality~~2693
▁pavilion~~7865
uhr~~16551
▁copy~~1561
▁Guard~~12387
▁bolt~~964
▁Over~~9985
▁agnostic~~13440
▁lucky~~4281
▁relative~~826
▁reconstruction~~7870
▁Beatles~~10827
▁teaching~~1473
▁Girl~~8350
▁Archi~~13699
▁captur~~12481
▁calculating~~1775
zeit~~8871
▁digest~~524
▁Gui~~9162
▁push~~1525
▁prescribe~~9727
▁Dame~~12720
▁carrie~~5519
▁Freudian~~9061
hari~~10584
▁Siberia~~9287
house~~4835
fish~~4168
▁glorious~~4854
▁Patient~~11912
▁Firef~~16251
▁membrane~~6746
▁eyewitness~~10327
▁tinie~~11095
orient~~11586
ides~~13917
▁km~~11799
bility~~5380
▁ko~~10100
▁kn~~10748
▁kidnapping~~10332
▁sch~~11780
▁Sherman~~14501
▁Gua~~15818
▁rehearsal~~3947
▁ka~~10585
▁convene~~8560
▁Two~~6559
I~~3309
▁magnificent~~6228
▁prediction~~8662
Kinsey~~14704
▁absorb~~2465
print~~9804
▁Bucky~~15533
spiel~~14688
▁disabilit~~2918
▁evaluation~~9393
▁second~~1108
EL~~11689
auffeu~~14321
EN~~12739
▁biosphere~~11499
▁Hirn~~15603
▁desktop~~8912
ED~~10773
▁enigma~~13723
▁Ground~~12673
EC~~13487
▁Paradox~~15197
pleasant~~10871
▁Bruno~~7554
▁pest~~7507
▁physician~~7314
ET~~14220
ribbe~~391
gdal~~1085
ER~~10852
▁terrorism~~9009
bbing~~9623
Ei~~16408
explanat~~12914
▁economist~~2536
▁thylacine~~13516
▁bellwether~~15183
▁moralit~~2691
▁warning~~4554
▁Moog~~15886
▁Grube~~13346
ã~~15504
▁tapestr~~9190
▁Barnett~~13173
â~~13384
▁terrorist~~7791
▁Hazle~~13847
á~~11128
▁Sudh~~15770
▁forager~~11764
▁Audio~~14387
adesh~~4399
▁Universal~~10464
▁synerg~~1255
▁canno~~707
▁smaller~~665
▁Dun~~6027
▁spearhead~~4145
▁deliberation~~8242
▁heterosexual~~10964
▁elevator~~7670
▁forgive~~11323
▁members~~2082
▁Silver~~10876
▁Thursday~~10454
▁AI~~14827
▁Reu~~15718
▁socially~~1040
▁excuse~~1665
▁opens~~4495
▁mix~~1351
▁Transformation~~16493
ois~~10581
▁sleep~~3269
▁mit~~5480
▁mis~~3971
minent~~5640
▁shareholder~~9388
▁durch~~16164
▁Red~~2381
▁min~~9113
▁residu~~12275
▁Reg~~15143
▁interest~~1363
▁AOL~~14961
ze~~6018
▁Rem~~11614
▁mid~~348
▁mic~~3167
▁Rei~~15981
▁serotonin~~12915
▁Eigen~~16293
odium~~12581
▁cleaned~~3500
teacher~~14819
▁dimensions~~3873
park~~14541
▁geopolitic~~13238
▁though~~90
XX~~16044
part~~1959
▁multinational~~3628
▁Trans~~11830
▁stockpile~~12617
▁enchant~~13744
believe~~860
▁cleaner~~12365
b~~925
▁Online~~10764
▁institutional~~894
▁handkerchief~~9050
▁surfer~~3906
▁justify~~8717
▁mood~~6915
haracter~~9675
▁Az~~13680
▁moon~~4044
ô~~15996
▁Kueste~~6200
▁states~~4098
zy~~10583
▁199~~4325
▁198~~580
▁guck~~14282
▁keyboard~~6945
▁Dodo~~16300
urban~~14362
▁193~~2079
▁associate~~2064
▁190~~5417
▁197~~4953
▁196~~5616
▁195~~2022
▁194~~2199
▁actor~~2675
▁accident~~3112
▁Masse~~14952
▁19.~~14255
▁millimeter~~3529
▁Livermore~~12880
▁tailor~~5037
▁instead~~890
▁gravel~~13271
▁Trivial~~15745
▁eleven~~9025
built~~3914
▁Biotech~~13877
▁divide~~1465
ation~~759
▁Final~~3909
▁boundary~~7992
▁exploration~~4049
▁releas~~3984
click~~12034
▁constrain~~3712
▁examination~~6213
▁leader~~4664
▁momentum~~4421
▁farmer~~4941
▁bilingual~~9185
▁Burger~~10644
▁mobil~~3867
▁thrill~~4570
▁prime~~2803
▁honor~~2095
▁State~~1166
▁holistic~~5178
▁prima~~6982
▁resonance~~6770
▁Essen~~14144
▁nickname~~13461
▁blur~~8156
▁sauce~~12936
most~~9969
▁Fund~~8152
▁Never~~7038
significant~~9222
▁Adobe~~15177
ennial~~12728
▁blue~~126
▁Carter~~6310
▁melanchol~~14269
reden~~10069
▁afternoon~~5290
kb~~15664
ka~~7345
▁Ah~~2750
ke~~3175
peration~~8038
ki~~6019
kh~~10551
ko~~926
▁Beth~~8295
dimension~~14420
▁cliff~~405
▁Bett~~8536
▁strongly~~4861
▁solutions~~1242
▁Am~~3791
kt~~13564
▁unique~~3916
▁side~~263
▁enorm~~9200
▁chose~~2044
▁Ober~~11071
▁fMRI~~1834
▁dreamed~~3722
▁Teller~~9709
coli~~9633
▁anthropologist~~8923
▁website~~5220
▁Venkat~~13684
▁Dari~~8482
▁bench~~5170
▁Dark~~12604
öhl~~15962
▁University~~2683
▁microsecond~~12522
rctic~~7832
▁Plan~~10126
▁London~~2219
▁Rhein~~8890
▁flow~~1141
▁Fu~~3828
yllis~~10211
▁questions~~1573
▁Play~~3158
▁Fo~~4812
▁Fl~~2994
ambia~~16282
▁American~~3819
8~~2200
▁Fa~~9351
▁Bhutan~~4921
▁revolutionar~~5263
▁biologist~~582
▁flock~~5203
▁CP~~13492
▁Pei~~15780
▁kind~~233
▁king~~1980
▁Douglas~~6392
▁küssen~~12663
▁Kali~~15640
▁fluid~~534
▁compute~~10353
▁anticipate~~1382
▁Sally~~14580
▁therapeutic~~13096
publishe~~15705
▁Simulator~~15594
▁ALS~~11909
▁cremat~~5692
aku~~6553
▁organizer~~10067
▁RAM~~14824
▁poke~~8549
▁stuck~~3192
▁admir~~6219
▁Frame~~16562
▁2.0~~7493
▁2.3~~6402
▁traditions~~8153
▁murmur~~8823
▁career~~923
ologe~~15980
▁petri~~14494
▁nephew~~6953
▁comrade~~4603
▁blend~~6244
▁tether~~12932
▁Pastor~~16349
controlle~~10373
Houdin~~10200
▁nutritio~~11058
▁grasshopper~~7538
aswam~~13316
▁ging~~14077
▁consensu~~4650
▁Foundation~~3352
▁Ahmadine~~13585
▁theory~~2609
▁reflectiv~~2506
degree~~6587
fang~~11942
▁Pavlov~~10374
▁Gulf~~8301
▁Health~~6955
▁anthropolog~~9253
▁sponge~~3392
vascular~~12924
▁machines~~6494
▁Break~~11223
▁Fermi~~15196
▁Multimedia~~16343
yelit~~4277
▁relentless~~9924
▁Trust~~5327
▁urgent~~3800
▁narrat~~3555
▁Walmart~~10921
▁reframe~~12690
▁mobile~~995
▁stigmatiz~~10963
▁fibro~~7309
ika~~7935
▁subway~~10537
ike~~11685
▁raped~~4507
ozi~~12624
▁supplement~~12185
▁compete~~4773
▁Descartes~~8308
▁yards~~6428
▁opportunity~~2290
▁woke~~3271
▁comp~~7770
▁Tun~~8282
▁come~~289
▁irritat~~2371
▁coma~~9648
▁outstanding~~12358
▁Snow~~13735
solv~~6146
▁Cru~~13535
▁dump~~676
▁Shiri~~8261
▁Index~~10270
point~~3385
▁requir~~7642
bai~~12598
rad~~7723
▁button~~9510
▁chatt~~11563
▁dumb~~1008
▁suburbs~~8543
▁Tijuana~~16563
▁Audu~~10485
▁Gapminder~~11855
▁dumm~~13054
▁rodent~~9095
▁shame~~6150
▁luxur~~8409
▁paradigm~~1443
▁Picture~~14281
▁Democrat~~7564
create~~5510
rasio~~13553
▁Schwarzen~~3511
▁progeri~~14977
▁submit~~6086
▁Bilder~~16308
▁fingernail~~553
▁editorial~~8808
▁Worldchanging~~14687
▁accountant~~13287
▁committ~~5689
▁pocket~~2607
▁outfit~~12820
▁assert~~13562
▁er~~3618
▁Giant~~8059
▁Pakistani~~7753
▁Latte~~16424
▁polymer~~7245
▁severe~~4031
▁tang~~11085
gas~~9327
gar~~9234
▁dissipate~~2251
vana~~10829
gan~~1939
▁guilt~~1122
▁thirty~~2777
▁buyer~~4977
▁Explorer~~5868
gag~~7066
▁Vash~~15845
▁present~~3419
▁voices~~4348
▁spontaneous~~3962
▁bring~~430
▁tumor~~3934
▁clarif~~11106
▁corresponding~~5445
▁herois~~7081
bill~~13244
Dink~~16078
▁ignorant~~6794
▁integrative~~15727
▁condition~~2186
fug~~12145
▁tail~~10149
▁heroin~~4488
▁heroic~~2089
▁Natasha~~12843
ful~~1003
▁comparabl~~7537
▁Sag~~10815
▁Philanthrop~~14736
▁Baum~~14668
▁outweigh~~5364
century~~2046
▁proton~~11476
wollen~~9605
Gregor~~8431
▁Minnesota~~11339
firma~~15750
▁Tower~~9793
▁Idee~~3893
▁vanish~~10495
▁Anton~~4893
▁Licklider~~10101
▁imagine~~1109
▁reconnect~~3780
▁architectural~~6443
ymnosoph~~15344
▁Seoul~~10743
▁Maddie~~13593
rompe~~15647
oxica~~16422
▁Greg~~14425
▁Gree~~9031
▁Grey~~5333
▁Anthon~~4494
▁dangerous~~1805
▁only~~210
▁Mauri~~6154
trium~~15473
▁Seattle~~9274
▁practitioner~~12539
▁assure~~5051
▁touch~~2508
itch~~5907
▁debat~~10863
▁Vibrio~~13089
▁seventeenth~~12592
▁xeno~~7249
▁escort~~13571
▁motivate~~2999
moment~~10865
▁replace~~5526
irstream~~3815
▁Flow~~15593
▁agree~~1565
▁symbols~~10106
sanga~~12217
▁Islamist~~14457
ckenber~~12926
▁perturb~~14747
▁communication~~2368
▁skeptic~~7349
▁moratorium~~13234
y~~238
organization~~10686
▁freedom~~1257
▁wide~~1730
▁native~~10662
▁Mohammed~~15207
▁Webb~~10345
▁illegal~~9890
shape~~635
▁without~~1110
▁Johannes~~5993
emisphere~~9273
▁fitted~~7002
▁ankle~~12245
▁controversial~~9531
therland~~7528
▁girlfriend~~9419
▁deserve~~4368
cus~~7455
▁appliance~~12298
▁clinician~~9421
▁center~~1506
▁Reserve~~12625
source~~9832
▁morpholog~~9239
▁Duke~~6182
ag~~7916
▁petal~~11505
▁hive~~11507
▁flight~~1693
bio~~15985
bil~~9096
▁Ngu~~12030
apest~~11763
▁harvesting~~10586
▁scrub~~14083
▁physiological~~7147
▁agile~~9940
▁angry~~4481
▁genius~~1593
▁anxious~~8711
▁ridge~~49
▁photo~~6488
▁Reha~~13679
bit~~5060
▁Emp~~12151
▁Sole~~14890
▁photograph~~3945
▁realization~~5834
▁and~~16
▁parasite~~12811
▁She~~7441
▁Uru~~6948
▁Watson~~11585
▁any~~84
wir~~5766
▁globalization~~8368
▁laboratory~~434
▁Sack~~2886
back~~2697
▁grill~~13953
▁Sach~~7637
▁Couch~~15463
▁Event~~15239
▁Sacr~~11326
▁PET~~3443
▁insect~~7212
▁appendage~~14748
▁arrogan~~13365
▁IRS~~10140
scale~~1778
pex~~14803
ellowstone~~10517
pez~~6429
per~~7354
pel~~7821
substitut~~7694
▁toaster~~11098
ped~~6242
▁McDonald~~10643
▁tabletop~~11849
Box~~10458
▁arrive~~3323
patient~~7491
▁realize~~1604
300~~5562
▁cheap~~5306
▁prune~~15059
Bot~~2962
▁bond~~2801
O~~4544
▁smack~~10819
▁Dick~~7494
uft~~15157
▁PISA~~1290
uff~~608
ppm~~11202
▁Animal~~7198
▁clever~~2541
▁compress~~7357
nden~~4027
▁navigat~~12866
▁Joan~~11108
▁Chad~~13249
▁Shark~~5871
mbra~~11834
ounce~~3361
▁era~~5631
▁compar~~6969
▁benchmark~~1347
▁Minister~~7546
▁Larami~~15266
haps~~2929
▁carrot~~9596
▁Kuiper~~15280
dispens~~13142
▁creature~~223
▁belong~~372
alandar~~15248
▁industrialize~~5031
▁untouch~~13370
▁Partheno~~11783
▁eliminat~~5343
Sauce~~16322
▁Carolina~~2401
▁Cornell~~10027
▁submersible~~5877
▁dress~~8034
▁in~~8
▁im~~1958
ological~~5390
▁if~~259
▁UNAIDS~~14553
▁Tree~~10219
▁Woody~~11937
Strateg~~16286
▁lesbian~~8169
▁is~~52
▁Martian~~13963
▁Turbo~~13797
▁Leone~~9017
▁address~~4026
▁camel~~7160
▁it~~85
▁comprehensi~~11387
▁Oslo~~13777
▁instantaneous~~8986
▁changing~~1659
▁mingl~~14798
▁appreciat~~7823
▁platform~~5065
serie~~14433
▁Did~~8586
▁travel~~2202
▁Parliament~~5353
▁babysitt~~12354
▁medal~~13099
▁marketplace~~8804
▁telecom~~10452
▁Meadow~~10500
planet~~6348
▁lyric~~3081
▁Mahab~~14973
▁Photosynth~~14826
▁populations~~6132
▁Lust~~16390
▁Mahal~~4779
▁Breton~~15671
idle~~15140
▁tusk~~14791
sort~~10174
▁Design~~2525
▁reboot~~13773
▁Parks~~16004
▁undermine~~8100
▁Solo~~16270
▁Diana~~9099
erasa~~16484
▁Bert~~11486
▁Diane~~13409
engineering~~7139
Land~~15970
▁vision~~2043
▁division~~6439
▁investigate~~5132
elda~~16476
▁coalition~~11438
%~~12268
▁download~~2936
▁mop~~7006
▁mor~~8062
▁antidote~~13280
ulli~~12550
▁mov~~131
▁Dietrich~~15340
▁Saudi~~13170
▁mom~~6886
ellen~~2443
Student~~16143
▁mon~~12247
▁educat~~11032
▁mob~~8828
▁galaxie~~6341
baum~~14781
Man~~5958
▁Weblog~~16341
▁Zu~~5662
√~~14865
▁kilowatt~~12837
▁600~~458
▁bluegrass~~15634
▁firefl~~12129
▁Smithsonian~~12131
▁Philadelphia~~9840
▁capaciti~~11552
▁press~~379
fabricat~~11584
▁prototyping~~12563
▁prefer~~7374
▁Kepler~~12314
▁Fluor~~16517
▁Alto~~3933
▁Sensor~~13842
▁visitor~~9966
ahara~~15885
▁Kraft~~13372
▁gay~~8109
heim~~11352
Sahara~~6366
▁important~~817
2008~~10639
▁intense~~3283
ieder~~16285
▁bombardier~~15739
▁Mosc~~9782
▁determined~~7305
▁Land~~11939
▁Kitt~~11633
▁Mose~~11686
▁Mosk~~16355
▁Milch~~10620
▁brake~~5078
▁season~~2072
▁Territori~~10889
▁achieve~~1441
Marge~~12724
▁uninform~~14047
▁Fashion~~14945
▁reptile~~6777
▁obstacle~~4244
▁constraint~~6117
mitten~~12441
▁Rosali~~9039
▁underestimat~~11547
▁our~~284
▁culturally~~11019
▁cartel~~11976
▁Adria~~12287
▁scientists~~370
▁Okinawa~~15756
intensive~~10723
▁academi~~14172
▁Heaven~~15508
late~~11712
▁refresh~~4535
▁crowdsource~~12616
▁dismantle~~7894
▁Shannon~~6058
▁Atlantic~~388
auer~~12590
▁converge~~7927
▁disguise~~11121
▁purchas~~8414
▁prior~~4109
▁experienc~~6649
mour~~13837
▁Start~~12186
▁1,6~~9129
▁fascination~~9491
▁Full~~14566
▁Krake~~5853
▁receptor~~13091
▁MTT~~12333
▁devil~~8754
▁separat~~11349
▁SAN~~15322
▁randomize~~12257
▁shortcut~~5841
▁SAT~~14534
▁aerodynamic~~13845
▁civilized~~5356
▁Round~~14313
▁experience~~1907
▁sense~~818
▁negativ~~16107
▁Da~~11748
▁Michaela~~15994
▁De~~2026
▁Di~~4820
▁PalmPilot~~15262
crop~~3539
▁Do~~4496
Contra~~15180
▁Dr~~2440
▁Du~~8745
▁Pygm~~7697
croc~~12633
▁DA~~15087
▁Heroe~~11974
▁DC~~13201
▁rejuvenat~~5412
giving~~1450
▁DI~~10053
IUC~~4054
▁Jetman~~16334
fat~~9607
▁DM~~8608
▁DR~~5303
▁orientation~~8003
▁superconductor~~16073
▁Walter~~11753
▁artisan~~10064
▁superpower~~5029
▁between~~1048
▁organ~~638
▁scientist~~6676
▁subvert~~8253
body~~845
▁cat~~6631
▁juggler~~7397
▁cap~~1581
▁kill~~909
▁car~~1769
▁fanatic~~11479
▁awake~~6113
▁Appalachian~~11394
ninsula~~3498
▁hug~~5680
▁generat~~6748
▁Foldi~~15384
▁video~~22
▁anonym~~11695
▁float~~2053
▁cab~~8759
▁Italian~~5204
▁can~~326
▁Alla~~13028
▁Namibia~~9391
▁Alle~~3795
▁cheetah~~14887
30~~3700
adura~~15567
▁Hyderabad~~13288
▁emerg~~3460
▁parameter~~3033
▁Albania~~10561
▁Kemp~~14948
▁breakfast~~6043
▁Pinocchio~~11711
▁salar~~9986
▁2,0~~6272
▁2,6~~12750
▁2,4~~12303
▁rect~~8807
▁synchron~~9178
▁archive~~6835
namen~~9091
▁entrepreneurs~~839
▁communit~~4240
▁nonsens~~5455
private~~13956
FA~~7522
▁diagnose~~7286
▁first~~296
FG~~15730
▁combat~~4583
▁denial~~4862
▁diagnosi~~4830
▁bed~~2104
cha~~12997
▁beg~~6141
▁saliva~~7261
▁attraction~~9356
chi~~3089
chk~~10223
otter~~12527
▁bei~~6951
cho~~10844
▁memetic~~15590
▁Passage~~11187
cht~~15769
TI~~10967
▁comment~~2029
▁house~~532
▁Hippie~~14445
Fi~~6943
▁Easter~~9487
▁bandw~~12601
burst~~6267
Astor~~14595
▁human~~713
▁back~~433
▁narrow~~1745
▁delight~~2102
▁period~~1644
▁knife~~1877
▁correctness~~14402
▁Intel~~12983
▁smiling~~2792
▁Inter~~1702
▁collaborator~~3010
train~~4023
▁spook~~9690
clusion~~10669
▁wealth~~1469
▁premise~~4354
▁feeding~~3577
▁bioluminescen~~5900
eeming~~9884
▁Fish~~6416
▁1,800~~9132
▁Fisk~~16373
▁Famil~~9973
▁Corne~~14675
▁Ital~~4840
f~~2134
tunnel~~10934
▁womb~~6761
▁biochemical~~2802
▁Eile~~16060
▁Mobile~~15933
▁aside~~9621
▁roller~~9735
shoulder~~7027
▁cook~~3589
▁cool~~1058
transcendence~~13833
▁Pacific~~397
▁paint~~2489
▁Photoshop~~7165
▁rudiment~~8427
▁Eduardo~~15566
oline~~11579
Condom~~15903
▁Sal~~9335
▁shack~~9578
▁Institut~~16144
▁excel~~10612
▁Marionette~~13813
afi~~10210
▁Depp~~15378
▁posture~~13368
▁Gando~~14757
▁Bio~~3399
uver~~8024
2-~~15399
,000~~1726
▁picture~~443
▁begin~~283
▁inspect~~5027
▁slipper~~12628
▁Ox~~9907
gosh~~7435
▁scarce~~4948
▁Southwest~~12440
stock~~7525
▁sensib~~11075
sis~~5484
▁funny~~659
▁Panama~~14408
atmen~~15049
▁take~~30
▁long~~227
▁lone~~14347
▁crapp~~9523
▁builder~~7088
▁illogical~~13141
frau~~14646
▁toolbox~~10794
▁authors~~5684
▁Charlotte~~12570
▁Tank~~16046
▁Big~~5735
▁Obsession~~16125
▁Point~~5196
▁perpetrat~~12493
▁syllabus~~14849
▁Noor~~14656
▁ominous~~9167
▁Carder~~14640
▁laundr~~9898
▁inspiration~~7408
▁beast~~5854
▁thing~~497
▁Thirty~~10566
▁Mott~~16061
▁Handel~~16519
▁dissect~~6706
▁Anato~~13419
▁think~~100
▁Basi~~13024
▁Conservati~~4192
terneuron~~16583
ature~~6463
▁Of~~2708
▁Base~~8738
meter~~5920
▁Adam~~2988
▁Hillis~~13919
▁deteriorat~~4290
▁nuance~~3015
▁Gyr~~3462
▁Bast~~1677
▁catastrophe~~5442
lf~~7311
▁supply~~4931
ld~~896
le~~3095
▁dehumaniz~~14530
la~~3430
lo~~8143
ll~~255
lm~~7324
sia~~8462
▁appreciate~~9560
li~~4175
▁philosophical~~5171
▁abolish~~8985
lt~~8330
▁surplus~~4788
▁murder~~8074
▁irreversibl~~6634
▁council~~8559
▁relational~~15385
ly~~56
dad~~9326
▁beam~~5765
junction~~3976
▁Brock~~16292
▁Kid~~1910
▁Time~~5742
dan~~7095
▁explorers~~6510
dah~~11899
▁payback~~15232
▁funder~~11434
▁Darwinian~~7142
nswers~~15512
▁positive~~872
▁beat~~2745
▁bear~~1043
day~~650
▁Karl~~8391
▁affair~~8238
▁livelihood~~4943
▁librari~~6367
▁unconta~~12122
▁primitiv~~13523
▁propagat~~10689
rought~~1792
▁nurture~~9142
astronom~~11059
▁father~~2034
▁Karo~~15987
▁company~~3825
▁library~~7046
▁Berk~~13864
▁Urban~~10321
▁impulse~~7990
▁federal~~1509
fare~~7932
▁inform~~7272
▁reign~~7256
▁tolerant~~8514
▁transferr~~9013
▁soprano~~12660
▁programm~~6090
▁valentine~~15925
▁ignite~~1226
▁Rover~~9296
▁Lance~~12490
▁dispense~~6956
▁outer~~4224
robot~~14750
▁CPU~~15054
▁evaporat~~14997
▁cultural~~1991
▁prolong~~14627
▁persistent~~3532
▁Zucker~~12200
rew~~9984
▁highlight~~3871
▁traged~~4232
Sense~~8948
▁MOOC~~15930
▁Ganz~~15999
▁optimize~~3838
atter~~10501
▁necrophilia~~15789
▁rider~~11268
▁Dumm~~15990
▁rings~~3487
▁Gans~~15649
▁Carol~~3569
▁cartoonist~~9715
▁lonel~~8840
▁Net~~11656
▁Neu~~15270
▁athletic~~8341
▁New~~3139
▁demonstration~~2477
▁Kir~~7890
▁assured~~8916
▁standard~~940
qua~~10990
▁techno~~9826
▁Baldwin~~13443
▁brush~~10875
que~~3174
hazard~~13786
qui~~5113
business~~9601
runk~~6825
quo~~13095
▁carpenter~~2577
▁barricad~~13347
▁all~~92
her~~5630
▁diver~~9255
▁Fall~~7707
▁sage~~12860
▁trace~~3451
▁Terr~~12262
▁societies~~1555
▁locomot~~12994
▁next~~1011
▁Hitler~~13124
▁petrochemical~~12273
▁track~~2421
▁split~~6446
▁shelter~~4373
▁Lotto~~16138
▁flee~~13308
▁poise~~10756
▁Singh~~14120
▁tricks~~8641
▁Brita~~5347
▁Vivr~~16070
▁snail~~15314
urren~~14554
▁Keat~~7620
▁Android~~9686
▁Club~~5944
▁exclude~~8126
▁genome~~5495
▁winner~~5816
▁Here~~7952
▁wash~~3524
▁Pimp~~16496
▁Archimedes~~14481
▁IPC~~1707
▁hungry~~3609
▁exoti~~4647
▁acre~~10296
▁Collusion~~16250
▁Learning~~6009
▁pollination~~12622
achter~~15234
▁Sh~~4714
▁Providenc~~8270
▁reckon~~14653
ogi~~3792
▁vapor~~11190
udi~~12027
oga~~5099
▁false~~4353
▁prominent~~11334
▁whistleblower~~2339
loved~~5655
▁pornograph~~9893
italin~~11553
▁lawyer~~1571
▁Probe~~15907
NT~~13032
▁automobile~~3189
izon~~12035
▁apart~~738
▁tar~~9123
▁octopus~~11530
▁encourage~~1233
▁ridicule~~12053
▁CEO~~6927
▁hyperactiv~~9055
▁epi~~7304
▁Turk~~12263
▁plann~~5361
▁Turn~~11572
▁Sagan~~11743
▁looked~~1311
▁Herz~~14923
▁behave~~798
▁dreams~~8254
▁obscure~~7313
▁scrambl~~10911
▁mono~~8706
ben~~9571
▁roads~~3654
▁plank~~7000
▁drawing~~3358
▁amuse~~9699
▁or~~118
▁net~~375
▁neu~~14030
▁new~~201
▁fringe~~14982
▁Peru~~7519
ists~~1064
▁Oliver~~2885
▁anesthetic~~4018
▁of~~34
▁oh~~3910
▁shine~~444
▁across~~389
▁parable~~1945
mit~~4176
▁neo~~1060
▁paintbrush~~6390
▁Gothic~~14427
▁acu~~5184
▁mortgage~~2696
▁admire~~6187
▁exploit~~4061
▁lightweight~~3844
▁widget~~12676
▁Stephan~~14038
▁Winfre~~11597
ehen~~7797
▁toxin~~12367
▁pore~~9670
▁Ethiopia~~4915
▁compris~~10271
▁glaci~~9272
▁sudden~~2598
▁rede~~12594
▁2,000~~4676
▁asymmetric~~6449
▁cloth~~4699
▁expo~~7863
▁port~~3680
▁surger~~8590
▁burrow~~10776
▁overhead~~8859
▁Astronom~~11549
▁strategic~~5061
▁Appro~~15509
▁Cover~~15630
▁Singularit~~16100
▁stress~~3324
▁freeway~~3847
antast~~14520
▁Hondura~~14073
▁Ghemawat~~13753
▁erect~~5257
text~~10122
▁ELA~~16291
▁rhythm~~736
▁Januar~~5992
▁happi~~1153
▁SK~~16380
iquette~~5815
▁Recycling~~15315
▁testicle~~6712
▁genuine~~5342
▁front~~254
▁meditation~~12213
▁unleash~~3280
▁liespotter~~16345
▁refuel~~15000
knowledge~~11965
▁ST~~12039
▁Wolfram~~12762
▁Might~~7061
▁hull~~6997
▁blank~~3895
▁engrav~~9999
▁circle~~4978
▁Vision~~10881
▁maintain~~3550
▁Rio~~2070
▁tips~~5124
▁Ric~~15446
▁Rie~~2234
finger~~10183
aker~~1992
▁crescen~~3635
▁reform~~4963
▁tru~~1053
▁Proz~~14769
beat~~13623
▁bush~~10573
▁try~~425
▁SR~~13213
▁tra~~5112
▁Guinea~~9230
▁capsule~~8846
▁tri~~3862
▁risks~~4285
▁diversif~~13149
▁collaborat~~14062
▁contrast~~2654
▁homeless~~6959
▁congratulat~~2806
▁discussion~~1996
▁cabinet~~8393
▁simpl~~1366
▁impose~~10577
▁delightful~~9184
▁recline~~14056
▁morbid~~12561
▁incarcerat~~6403
eague~~4834
▁along~~468
▁alone~~1283
▁brain~~1049
▁stabilize~~6613
▁13.~~16443
▁duty~~4110
▁Gagarin~~12132
▁DVD~~2003
▁partners~~429
▁weird~~1169
▁expectanc~~5436
▁constitution~~8517
▁reactors~~13795
▁remake~~14657
▁Maria~~3513
literate~~8905
▁diffuse~~11836
▁Marie~~11295
refore~~4942
▁Lawrence~~7558
apos~~37
▁duration~~2554
▁Project~~5962
▁Shadow~~14478
ington~~2284
▁string~~2947
▁type~~491
▁original~~2573
▁certifi~~3545
▁engineering~~3018
▁hilarious~~9765
▁marvelous~~9704
▁Study~~12740
▁Archiv~~16566
S~~1331
▁screw~~7605
▁demoralize~~9481
▁Boeing~~11674
▁Senegal~~12283
▁court~~9168
▁squirrel~~5711
▁Ryan~~6054
buster~~2099
Gecko~~14751
▁saving~~4366
▁depriv~~1038
transplantation~~7250
Design~~15631
▁blink~~4419
▁singular~~11715
▁Lerner~~15910
▁blind~~4988
▁pinch~~12572
▁impair~~6753
▁Jo~~3152
▁Effect~~10973
▁Jh~~9424
▁clue~~3697
invasive~~1856
▁Je~~8718
▁disparit~~1431
ohn~~16298
▁Ja~~418
ab~~3506
▁biblical~~11089
imming~~14224
▁Ju~~5003
▁Jr~~7442
▁voluntar~~8134
▁augment~~10397
iger~~7164
▁Lesterland~~11429
▁8,000~~6595
electrify~~15568
▁advancement~~8325
▁mafia~~11984
▁JA~~15189
▁sterile~~7133
▁eukaryot~~13750
▁Mode~~16201
▁retina~~10385
▁vegetable~~3742
ah~~2229
rump~~11627
igen~~10257
▁conversation~~4607
▁stunning~~6314
▁symbolize~~11061
▁Nikola~~8790
Center~~16592
▁default~~5277
▁humanity~~4934
▁Gersh~~11635
▁metal~~3390
▁dominant~~7618
▁earth~~3591
▁range~~144
▁urbanis~~3606
▁chimp~~7963
▁nihilis~~13700
▁urbaniz~~10987
▁argument~~5363
▁unconscious~~11655
bule~~6776
▁poop~~11293
▁fertilizer~~4939
▁Monterey~~11544
▁friend~~3307
▁220~~14355
▁orchestra~~2853
plain~~11659
ila~~11266
value~~880
ggle~~10422
defin~~8092
▁informal~~13348
▁massacre~~13113
▁arrest~~5006
IT~~10243
▁pool~~1327
▁multiverse~~11817
uit~~6985
▁single~~955
▁draft~~6442
▁PIPA~~14451
av~~9881
▁rear~~5135
▁Palestine~~3296
▁squatter~~15792
▁Rica~~4178
▁real~~295
▁flare~~11776
▁Rice~~9641
▁Poet~~11751
▁defin~~4460
▁Rich~~10502
ically~~2319
▁read~~2633
▁frequenc~~3190
▁chin~~11526
egel~~16180
▁Grab~~9730
▁Shuffle~~9720
▁psychotherap~~4025
▁reveal~~4220
▁rapid~~4323
Dopa~~15163
▁Image~~12379
▁companies~~4911
▁Redwood~~15370
IV~~13353
▁Cor~~6406
▁chimpanzee~~7940
▁Mugw~~15699
▁railway~~3750
Gravit~~15238
▁MIT~~2644
▁laying~~6633
▁Beverl~~13243
▁cereal~~8650
▁intermediate~~5344
▁Senator~~13897
aking~~3273
▁leaders~~1224
▁spoil~~7784
▁snor~~11097
▁drive~~423
▁swallow~~5687
▁snow~~6380
▁salon~~14721
▁consequence~~5990
▁Himba~~16008
▁agil~~7399
▁Huygens~~14225
ious~~947
▁wood~~6144
▁sublinear~~15091
▁Coh~~10420
▁coin~~6045
▁Ord~~7113
position~~3321
con~~3788
▁Plexiglas~~12454
▁malleab~~7041
▁believer~~7588
▁Kris~~4038
▁vendor~~14319
▁intensifi~~5923
pedia~~13263
▁preparation~~6565
▁Winnipeg~~11698
▁Betti~~11107
▁Marcel~~189
▁route~~3579
▁Cost~~4177
▁made~~272
Gamble~~14615
▁remember~~927
▁array~~7997
▁voil~~13416
▁reunite~~12506
▁multi~~2719
ernstein~~13305
absorption~~12558
▁echoe~~11134
▁glue~~6918
ade~~11132
▁protect~~2507
▁bandage~~2549
ado~~913
ought~~2576
adi~~4591
bank~~10572
▁even~~89
▁calculation~~8397
▁speech~~1012
▁woodpecker~~13536
▁attend~~5976
▁Shaff~~14342
▁spinneret~~15663
▁supernova~~11461
▁Taxi~~11611
hepherd~~11666
▁simulat~~6234
▁visualize~~6764
▁meant~~2037
wink~~15400
▁means~~2841
▁fade~~9051
▁Kinder~~16480
▁Rosling~~9851
▁Engel~~16122
▁dissonance~~3118
▁alligator~~10691
▁heroes~~4318
like~~4886
▁LED~~2970
journalism~~12489
▁maggot~~12012
▁Holocaust~~12383
▁carve~~8095
▁pearl~~7444
▁regain~~12756
▁Gov~~14678
▁Goldman~~7636
▁Mitchell~~6026
▁Prophe~~15608
▁plummet~~11112
▁Toast~~15802
aeda~~13569
▁drove~~3723
▁roundabout~~11577
▁vol~~11567
▁vom~~5575
▁billboard~~9795
▁Gor~~11117
▁vow~~4682
▁vot~~11396
▁horizontal~~6907
▁man~~2934
▁Ador~~6221
▁utter~~5580
▁re~~1061
▁ra~~584
▁articulat~~7611
▁contingen~~13714
▁characteristic~~5345
▁aggregate~~4126
▁Gol~~12912
▁tradeoff~~6482
▁gift~~4801
▁Entertainment~~14069
▁authoritarian~~13301
ogen~~1897
▁persistence~~9717
▁Diese~~16198
▁Malawi~~10726
hose~~5749
estial~~11793
▁stimulat~~9989
▁Ushahidi~~14264
▁thorn~~8032
▁separation~~8068
▁pastor~~8926
Robot~~12993
▁Amy~~5299
▁democratiz~~12337
▁diamond~~2213
▁mail~~5652
▁musician~~3163
▁analytical~~9867
▁begu~~6421
▁Ami~~9909
▁review~~1717
▁oscill~~1735
▁Signatur~~8408
stical~~8083
▁sampl~~4121
mmer~~6024
▁Balkan~~8228
▁gratifying~~13652
▁motor~~5896
▁expose~~7957
▁dictator~~8319
anthrop~~8529
▁receiver~~13358
▁anticipat~~6589
▁space~~304
▁Cameroon~~5774
▁eagle~~13530
▁simplify~~6450
Grad~~13970
▁intersection~~10523
▁Zimmer~~16553
▁deconstruct~~4446
▁Selasi~~16455
▁symbol~~6215
guard~~6769
▁Thanksgiving~~9964
esteem~~9994
hang~~15026
▁march~~4608
▁Rede~~16182
▁superior~~10589
▁ocul~~15681
ridge~~10193
▁triangula~~7998
▁warmth~~9556
▁Science~~6077
spread~~7948
▁incentivize~~6106
▁handbag~~8370
▁myth~~4045
▁Hamburger~~12292
▁yell~~3128
▁resilienc~~9224
▁longe~~5434
▁fields~~2884
▁Kirk~~13232
bus~~7738
brand~~13421
sequel~~9713
▁isotope~~9271
▁other~~267
▁pause~~6079
▁recycl~~7828
▁helpful~~2291
▁Ukraine~~13134
bul~~7490
sburg~~4598
▁viruses~~4270
▁spirit~~6006
bug~~6785
▁pencil~~2664
Athabasca~~10709
▁names~~2020
wise~~2131
▁Long~~3407
j~~4039
▁introvert~~9830
▁Kendal~~4449
▁odd~~7433
▁Sher~~5589
▁named~~2737
▁August~~7760
▁recommendation~~14231
▁fra~~14513
▁software~~3006
pin~~8678
▁1.6~~9364
▁1.7~~5540
▁1.4~~11023
▁1.5~~6047
▁1.2~~13775
▁1.3~~5313
▁1.0~~14015
▁treat~~976
▁transparency~~1180
▁snake~~4617
garten~~16200
▁gib~~15240
▁berate~~15178
▁Next~~9682
▁sanctuar~~13250
▁Mohamed~~12715
▁Ware~~6992
▁absent~~6845
▁divergen~~7690
▁Saturn~~6862
▁Syndrom~~15419
▁Donner~~16581
▁cybercrim~~13034
40~~3707
▁Syria~~3297
▁persuasive~~12940
▁Green~~7848
▁Financ~~11356
▁succumb~~12721
▁uniform~~5419
▁Oppenheim~~12744
▁Grameen~~9570
▁shared~~1912
▁lend~~12817
▁Genome~~9295
▁transit~~11005
▁junk~~7580
ubb~~2359
▁chemo~~519
▁teenager~~2207
▁immersion~~15241
▁interface~~1862
▁intact~~3084
▁catastrophic~~11798
▁motivation~~1135
▁Somalia~~4312
▁highway~~5248
▁bookstore~~2891
▁stabil~~11841
▁perceiv~~11851
▁Albert~~6151
▁species~~578
▁bipolar~~11920
▁Sho~~2228
▁compet~~2160
▁landmine~~9094
iddle~~11158
▁Shi~~13849
▁missionar~~14397
▁eva~~5384
▁trou~~8226
limited~~6319
▁shrub~~10513
▁Williams~~10339
▁produce~~1741
▁Belgi~~10453
▁triple~~9535
▁Feynman~~11598
▁Zapp~~8593
▁aquifer~~13176
▁topograph~~10481
▁product~~613
▁dyslexi~~9322
▁commentator~~12582
▁bruise~~8087
▁vocal~~9067
▁approximate~~315
RU~~13042
▁Bonobo~~16303
▁my~~217
▁mu~~5613
▁trustworth~~8954
▁Dravidian~~14880
▁mo~~3703
▁dedicat~~3306
▁mm~~5959
▁mi~~8748
▁Trac~~5686
▁me~~592
▁deceive~~8664
▁unbor~~6675
▁ma~~4994
▁tremor~~12929
@~~8960
▁empath~~14048
▁hemisphere~~7227
risk~~9755
▁implant~~10348
▁entail~~9417
▁mainframe~~12984
▁Jerusalem~~8458
▁ador~~8411
▁president~~3527
▁Hypertext~~16185
GB~~3068
wich~~10488
▁cultivate~~5161
▁wallet~~12029
▁synthesize~~4001
▁advisor~~9486
GI~~4380
▁pigment~~10387
▁hazard~~11473
▁immigrant~~1513
school~~12453
▁Alaska~~13235
▁Jon~~4262
▁fatal~~4831
▁streamlin~~5632
▁continent~~737
▁Job~~12579
▁Kohle~~13804
▁Take~~9819
venue~~3070
▁Jod~~13295
▁Joe~~9868
▁popp~~8634
Ge~~15141
▁Joy~~11480
▁patholog~~4827
▁growth~~1083
▁BumpTop~~13179
▁IDEO~~12881
▁Hydra~~5532
▁Batman~~8057
▁effects~~2880
▁major~~1543
▁itself~~214
▁least~~1477
▁flourish~~5704
▁virtuoso~~2834
▁Roh~~7809
▁evaluate~~6701
▁Ron~~3253
direct~~1182
▁neuroscience~~8015
▁Ror~~8696
Rast~~14985
▁linear~~3987
▁origins~~9231
▁lease~~8788
▁Rot~~4319
▁credit~~5832
▁leash~~9106
writing~~5665
▁Roy~~12425
ltimo~~14482
▁hung~~1787
▁memor~~938
▁analyst~~13293
ograf~~7464
▁Juni~~14802
journalist~~16590
▁tire~~8723
undi~~9348
kum~~13033
ain~~6925
▁hunt~~1042
conduct~~11277
▁UCS~~14310
▁Kuba~~15922
▁theme~~7864
▁obsession~~7793
▁Hindu~~9211
▁matern~~9264
▁rolled~~4719
▁shy~~3008
ZE~~10846
▁earring~~13456
▁gigawatt~~14391
▁football~~1115
▁parrot~~7071
▁Magazine~~3368
▁Discovery~~5857
pati~~10123
path~~10248
▁she~~928
▁Forum~~9545
▁sophistication~~5517
studie~~14924
▁Burkin~~14756
▁Fried~~10645
▁translucen~~8307
▁USA~~3622
▁less~~1362
▁mislead~~14230
▁religion~~1057
▁elements~~3993
▁topic~~1716
▁Nobel~~4926
▁immoral~~5377
▁inferior~~9079
▁religios~~8208
▁Bolt~~13376
changer~~4391
▁Sto~~11873
▁pneumo~~12808
▁Holland~~2362
▁Friend~~11884
▁Moor~~14442
▁pediatric~~13374
▁standardize~~6148
▁immun~~7244
▁1870~~13245
visible~~3861
Evil~~14366
▁partial~~9179
▁earthquake~~147
athlete~~14981
▁Moon~~6357
▁Slick~~16544
▁Fahren~~5543
▁upright~~7928
▁expand~~5549
▁warmer~~11189
▁Bono~~7623
▁conceal~~14517
▁Conne~~14024
▁Marke~~10930
▁price~~1433
▁interpretation~~2855
▁lesion~~13231
▁donation~~8097
▁extreme~~559
▁minds~~1881
▁honey~~11105
los~~8667
▁Lovelace~~10096
▁commune~~14361
grier~~15080
▁iceberg~~2877
▁downside~~5365
▁job~~1019
TEC~~15023
▁barcode~~15102
▁raise~~1511
▁lush~~14141
▁method~~2569
▁ripe~~11413
▁barrel~~10006
▁lust~~8132
▁joy~~2727
ophag~~7799
▁workplace~~785
▁53~~8451
▁fuel~~3620
▁Occupy~~15079
me~~5041
▁succeed~~1588
Baptiste~~15391
onig~~2718
ma~~473
onic~~3959
▁uncomfortabl~~4020
▁profound~~2017
▁degrade~~5529
essel~~15887
▁plug~~5753
▁Chicken~~10150
stadt~~14538
▁insist~~4865
mp~~8218
▁plus~~3326
▁enormous~~1770
▁escalat~~3600
▁Mayor~~7050
▁Hu~~7470
▁bioma~~271
▁Simpson~~7653
estate~~7741
▁imbalance~~6715
▁oppos~~8239
▁bailout~~10007
▁tremendous~~4514
▁Emory~~9993
▁He~~957
▁past~~1597
▁international~~1306
▁pass~~347
▁payment~~5052
▁Shah~~8507
▁Ho~~2345
▁Hi~~1837
▁capitalism~~8392
▁suicide~~8080
strom~~11504
bund~~14957
bung~~16018
▁birthday~~2036
▁fingertip~~3960
▁HD~~14127
▁GPS~~10724
▁terrestrial~~6515
▁Rehabilitation~~16527
▁innocuous~~10268
▁insulin~~10234
enz~~12875
charging~~6811
▁Ann~~9592
▁ridiculous~~1007
▁Ava~~13947
▁chicken~~6711
▁Arduino~~13548
▁Riley~~15893
▁persever~~10619
lot~~11972
▁campaign~~1783
▁honest~~2372
▁accommodate~~4877
▁5.~~7437
amento~~11327
arbage~~3353
blockade~~13072
▁cogit~~14234
▁remnant~~11462
▁Gibra~~14109
▁200~~297
▁investigative~~9714
▁electrical~~2583
▁Nokia~~9551
▁Spanish~~6857
Modu~~15601
▁architecture~~3065
▁observer~~9152
▁disturbance~~11813
▁Pragmati~~15940
vity~~308
▁irregular~~11468
▁spontane~~16006
▁horribl~~9652
▁condom~~4707
over~~2826
fall~~6567
▁combusti~~1768
▁astonishe~~8323
▁cherish~~5288
▁Balk~~15742
thesis~~520
pression~~11280
▁skill~~1569
▁molecule~~1695
replicating~~13901
▁working~~220
▁continual~~7988
channelrhodopsin~~10360
ima~~8155
▁revolv~~5623
▁bik~~1221
ime~~8728
▁Interval~~15833
▁bin~~2313
▁bio~~152
imi~~7515
cle~~1924
▁certain~~2514
▁bid~~4906
SAF~~9358
imo~~6183
▁big~~125
▁husk~~4751
▁hush~~2220
▁shocking~~55
▁ever~~79
400~~12100
▁Linux~~8945
▁bis~~6726
▁bit~~435
▁Shiritori~~16486
▁anger~~7673
▁prestig~~946
Mobile~~16593
▁eff~~15436
▁Antarctic~~4174
▁farmers~~4917
▁masturbat~~15807
▁Jill~~13375
▁emoti~~13770
orium~~13613
tourism~~7958
▁neuron~~7987
▁joyful~~8727
▁awe~~2059
▁7,6~~16597
▁patrol~~13780
▁resurrect~~10202
▁devi~~2373
▁distinctive~~10514
▁Pinatubo~~15272
▁compassionate~~5808
▁hence~~6136
▁7,5~~14950
▁affirmative~~11400
▁dental~~10725
▁occupy~~7970
▁sediment~~732
▁workers~~963
▁bubble~~1451
▁chant~~8186
▁domain~~4785
▁firework~~11522
mplified~~11205
▁Comp~~9453
▁Bangalore~~4712
▁meditator~~16324
▁result~~842
Percent~~15334
▁Bateson~~14430
▁temperat~~12809
▁ought~~5360
▁Wood~~427
▁Come~~7018
▁portable~~12972
arijuana~~9844
▁synonymous~~5261
▁Amor~~15052
▁gratuitous~~5276
▁physics~~8123
▁Minotaur~~15346
▁graduate~~1353
driving~~14851
▁southwest~~14729
▁haze~~6376
▁Ornis~~14298
▁Christ~~7421
▁voter~~3244
▁Rosetta~~14875
icero~~8675
▁cardiac~~7333
▁Clooney~~13669
bald~~13561
▁mobilize~~8363
▁English~~2358
▁bowl~~2622
▁tractor~~4940
▁tags~~10553
▁Voda~~15010
▁frustrat~~7954
▁whal~~14279
ied~~5488
▁grasp~~1986
▁Agenc~~7216
▁Ang~~6160
▁tagg~~4213
▁scare~~5933
▁sling~~13508
▁scarc~~5991
W~~3021
Telescope~~16234
▁Agent~~13950
reviewe~~13771
▁zip~~4510
▁Guant~~12385
▁behav~~865
▁Kind~~14904
▁King~~2277
▁scenario~~3896
▁retrac~~545
▁shade~~8689
nix~~15937
▁Kino~~15226
filter~~13486
▁zig~~10128
▁fashion~~3840
▁destiny~~14097
▁Access~~10448
ste~~10692
▁Search~~10762
rand~~11315
▁equator~~12119
industrial~~3666
▁Guy~~7730
▁Gut~~11938
▁biofluorescen~~16432
rani~~5966
Å~~16501
▁Gun~~14795
▁accept~~1435
▁Sari~~12951
▁neurosurgeon~~15106
nis~~7454
▁achiev~~1538
▁eastern~~3695
▁Virginia~~8576
▁pl~~11765
ê~~2348
é~~5072
▁po~~3688
eladu~~11724
▁pi~~5230
í~~11126
▁during~~1974
tor~~5863
▁pe~~7023
top~~324
à~~14139
ç~~10580
▁race~~1056
fiction~~9684
▁friss~~16280
ú~~16148
▁Trott~~16340
ø~~14589
ton~~5918
▁underlie~~14027
ü~~15291
ó~~11124
▁pu~~4770
ñ~~1734
▁Roth~~11484
ö~~2772
▁pr~~9165
▁Dennis~~12645
▁beer~~1254
▁bees~~8652
▁beep~~5947
▁Charit~~14049
▁demonstrat~~4928
derson~~10471
▁pressure~~508
▁beef~~7151
conserv~~4164
▁airstrip~~14267
▁outsource~~11679
▁climber~~3907
▁been~~80
▁Aziz~~15905
▁appetite~~2310
▁captain~~4169
▁expenditure~~11867
▁farming~~3741
▁TaskRabbit~~12521
▁deterren~~12627
▁choosing~~2110
▁wa~~11494
▁BMW~~7662
ology~~6111
▁deployment~~10311
▁compare~~2665
▁express~~3038
rag~~4698
▁tragic~~4099
fashion~~9896
▁neurons~~5527
▁Jenni~~10641
ran~~2135
▁enem~~1245
ram~~9422
▁catheter~~13377
Sharing~~15142
rat~~3902
ible~~4880
rap~~10171
▁guarantee~~7792
▁quarry~~13436
▁organiz~~10065
▁promotion~~1220
▁Small~~15430
ray~~2998
▁products~~3367
▁significant~~4112
▁Nan~~12794
RB~~11926
-~~265
▁Nak~~14064
▁Shim~~13328
▁destructive~~8129
IDE~~12070
▁1991~~6251
▁1990~~1329
▁epidemic~~4518
▁1995~~7882
▁1994~~7871
miculit~~16428
though~~691
▁Egypt~~3657
▁97~~8786
▁Vasco~~6511
▁different~~229
▁blossom~~11785
▁bizarre~~53
▁1982~~9073
▁local~~3013
▁minaret~~11981
▁achievement~~2302
́~~16526
flow~~12483
▁Innovation~~12080
▁frack~~11219
▁Halloween~~15839
▁soft~~8352
R~~642
ecause~~8145
▁Uta~~9971
▁off~~624
▁fold~~6451
▁folk~~8213
▁sake~~6843
ermafrost~~10913
▁cocoon~~12164
▁noise~~5886
▁splendid~~14087
▁1,8~~16364
▁1,9~~10273
Guru~~15848
▁1,0~~7426
▁1,1~~3503
▁1,2~~6525
▁1,3~~11247
▁1,4~~7034
▁health~~815
▁1,7~~7552
▁invitation~~6839
▁formation~~6470
▁barbecue~~11414
▁laureate~~8349
▁Soviet~~6504
▁Trini~~12734
transport~~16481
▁knowledge~~892
och~~5481
ock~~4869
omuncul~~16115
oca~~11871
▁Register~~14858
▁fearless~~5798
▁Colorado~~11011
▁Right~~7660
▁Korn~~15523
Vo~~13389
lodge~~14739
▁9,000~~5776
▁broke~~5723
▁Protei~~13543
▁Polit~~15747
▁etc~~3111
▁labyrinth~~11161
watch~~5194
▁repel~~11270
▁Polic~~8617
▁Dynamic~~12992
▁half~~386
aught~~1323
▁Hodg~~5597
▁Polio~~4278
▁hall~~3103
▁habitat~~45
▁trip~~5644
▁perpetual~~7633
▁homolog~~14414
▁Kim~~8700
boggling~~4996
▁Beck~~6601
▁Kit~~3803
▁nauti~~11246
grader~~10170
▁compost~~12374
▁Hotel~~2111
▁diagram~~5466
▁dynamic~~1029
▁popul~~9613
▁historic~~8481
▁Se~~11533
▁Sa~~3211
▁stabilit~~8485
▁Sc~~1172
▁discharge~~4082
▁Subti~~14
▁So~~3080
▁inject~~1849
▁Si~~2056
▁hyper~~2848
▁CIA~~10290
▁finance~~8787
▁Su~~7825
▁St~~5201
▁Sp~~7124
▁misconception~~6123
▁devoted~~2832
▁disrupt~~11879
mut~~2205
capacity~~15044
mus~~5101
▁SM~~13482
▁mechaniz~~975
▁SI~~10799
▁Stephen~~5789
▁occupie~~8257
gabe~~8997
mud~~11464
▁attract~~278
▁scholar~~4798
▁Eben~~13281
▁SP~~6080
▁SS~~12041
▁battlefield~~9216
▁Mobutu~~12064
▁pale~~8338
▁Wirkung~~16174
▁smuggl~~9892
▁Bradley~~11669
▁3,4~~16101
▁toward~~2141
▁situation~~2595
▁usual~~1309
▁captivat~~162
Carlton~~9254
▁Crash~~13029
▁automat~~11889
wear~~8332
▁Domain~~16020
istine~~9166
▁embryonic~~13380
▁Normal~~15781
▁Norman~~9778
▁HTTP~~13256
▁Flu~~15483
▁spectra~~13606
▁actual~~327
▁depletion~~8931
▁200,000~~4136
▁semester~~10635
▁Management~~13237
kwa~~14807
▁clouds~~6260
▁mat~~5843
▁mar~~8259
▁map~~3667
▁Zealand~~4170
▁Mujahid~~15111
▁may~~695
▁preconce~~14055
▁mag~~472
▁EPA~~6703
▁mad~~4480
▁consumption~~1577
▁translation~~11143
▁setting~~486
▁mal~~4959
▁mak~~14338
bureaucratic~~1619
▁dedicate~~6929
▁thermal~~3393
▁nerve~~3979
▁chunk~~5087
simplification~~5531
▁solidify~~15099
▁observ~~2895
▁completely~~722
▁rubber~~6946
▁plot~~6124
▁hobbi~~7033
vatar~~15375
▁balloon~~7418
▁respond~~1508
board~~2182
▁biomaterial~~10793
retouche~~6206
▁consign~~12555
▁plunder~~14936
▁effortless~~9919
▁mitochondrial~~7207
lept~~6967
▁Leave~~6612
▁INCRA~~16560
▁together~~250
▁Route~~10084
craft~~10744
catch~~4201
▁Prostat~~13932
▁Boni~~16478
▁magni~~6350
▁tackl~~2154
▁Horror~~13160
▁USD~~16067
▁Detroit~~9772
▁Bond~~14374
▁respirator~~12371
n~~209
▁founder~~6941
▁migrate~~3903
▁forest~~3210
▁restructur~~13920
▁gorgeous~~4041
▁phenotype~~12764
▁Jung~~10103
▁paradoxical~~2926
▁rendering~~6489
▁compuls~~8139
▁harassment~~12503
▁Toyota~~8943
▁Ensemble~~14661
▁Toxo~~16554
▁Misch~~15500
bilitat~~11086
tomograph~~14301
▁enough~~593
▁explosion~~1766
▁conclude~~8607
▁Lesl~~8366
▁retrospect~~6900
▁dropping~~9278
▁megafauna~~10771
▁Hund~~13463
▁Partner~~4279
▁Stone~~7448
border~~13754
▁awkward~~2090
▁from~~71
▁crippl~~4274
▁irreveren~~13988
▁revolt~~14629
▁outbreak~~4268
▁Anti~~13157
▁Anto~~12848
▁du~~7879
▁Spiegel~~10447
▁guise~~14021
▁Arthur~~11092
▁immunize~~15352
▁servant~~11348
negativ~~11026
▁bathroom~~4467
▁device~~5656
pick~~13784
schel~~7715
▁highland~~10727
▁Clean~~3494
action~~6423
scher~~9701
peake~~13154
▁misuse~~14103
▁fuck~~7721
▁meaning~~1282
▁Humor~~16252
cycle~~4119
▁simulate~~10281
▁watt~~9315
▁Temple~~9805
▁volt~~14914
▁Analysis~~10451
▁agonizing~~10630
ocean~~349
▁Rotterdam~~2413
▁organic~~1749
▁bitter~~1495
eter~~7543
▁Hunt~~15075
iche~~15977
▁graphic~~3058
▁interior~~3832
▁Medica~~8296
▁weight~~1751
▁involve~~2755
▁1500~~11881
▁launch~~4140
ihaly~~12548
▁Na~~6381
▁Ng~~6011
▁Ne~~1266
▁Ni~~1733
▁No~~2701
▁chemical~~439
▁Lester~~11430
▁lion~~7163
▁fiddl~~9695
igar~~9794
▁ministr~~7549
▁Spam~~13979
igai~~15682
▁battalion~~4605
▁reputation~~10086
▁vitamin~~4333
▁NO~~13870
▁Mauriti~~9493
▁meter~~1803
▁styl~~6901
D~~1888
unter~~14054
▁Myhrvold~~12285
▁Janin~~15571
cultural~~8439
vil~~13978
▁somebod~~2686
▁western~~6391
sanitary~~4689
hampagne~~14258
▁emotional~~1094
▁naive~~3332
▁rough~~2496
▁Supernova~~16473
50~~3601
▁Manya~~16533
specific~~12251
zeal~~9495
▁Russia~~4273
▁Johnson~~5888
hund~~7258
▁Binde~~15426
▁Bernoulli~~13971
▁Catholic~~7887
▁Server~~13030
▁Jamaica~~10678
▁McNugget~~9654
▁opportunities~~1420
▁surviv~~6547
HO~~1761
HC~~11718
▁Utopia~~3737
▁neuroscientist~~1831
ick~~6099
▁Kahn~~14066
Life~~13559
ich~~3319
▁bow~~2948
▁bot~~7213
▁Gail~~9361
▁box~~94
▁boy~~2177
▁unhealth~~13275
Hu~~2530
▁combinatori~~13494
▁Sprit~~9392
€~~16573
exhausti~~11299
▁particle~~8815
▁invisible~~5898
▁bon~~8669
▁boo~~11099
▁landscapes~~202
core~~3133
▁Braille~~10302
▁Bergen~~16335
▁lbs~~15069
tour~~9164
corn~~6208
▁Olympic~~7443
▁Olympia~~1066
▁population~~521
corp~~13117
ASDF~~16344
rateful~~15943
▁golden~~9485
▁Negro~~6938
verflow~~14025
▁Wikipedia~~7579
▁depressiv~~15244
▁Method~~12228
espresso~~14029
▁portray~~3834
plus~~1719
▁value~~814
▁medicine~~1143
▁eeri~~12450
▁White~~8973
produc~~6101
▁judicia~~12084
▁nucle~~7206
▁Vietnam~~4599
presence~~5761
▁irrit~~13276
▁cybercriminal~~14639
ahn~~13424
ahl~~2236
two~~10617
ahr~~14588
▁Francisco~~1728
batt~~8042
▁diagnostic~~8625
▁Blind~~11950
▁live~~301
▁precedent~~12526
▁depend~~1595
▁Boah~~15452
▁occupation~~4022
▁master~~6053
▁Norwegian~~9480
▁microwave~~6344
▁Pun~~13810
▁Canne~~9852
▁sticks~~4473
▁Taylor~~7709
▁purchase~~8376
▁flamingo~~14716
▁induce~~12249
▁Randi~~13927
▁Parti~~15972
lage~~2150
▁III~~10528
▁correct~~2397
▁analytic~~11451
head~~1315
medium~~12609
evelopment~~8343
▁sensor~~440
▁habits~~5679
▁echo~~9429
▁chopp~~6875
counterintuitive~~10768
▁suffocat~~5700
▁bagg~~11159
mals~~16410
▁Stewart~~2108
▁horrify~~7774
▁Warhol~~14931
▁Katrina~~12389
▁ball~~3186
▁publisher~~7794
▁reef~~13151
▁Kill~~10858
▁punk~~15085
▁quo~~6083
▁hierarch~~9558
▁powerless~~12575
▁zoo~~3490
▁Dhara~~14119
▁silk~~10600
▁cutting~~2524
▁reactor~~12260
▁Schwartzberg~~15830
▁interfer~~12939
rahi~~13778
▁habe~~11644
nna~~3295
uri~~12043
▁Eiffel~~10417
▁Ostro~~4089
▁ceremon~~7845
▁uneven~~3076
▁realm~~6340
▁reall~~310
trip~~2774
▁neurobiologist~~14843
assembl~~6115
▁psyche~~12969
▁vi~~4292
▁tackle~~1973
no~~7089
▁jean~~7806
na~~2976
▁va~~4367
▁contrar~~9100
ne~~1748
ng~~4241
▁glimpse~~1686
tin~~5295
▁International~~3823
▁Hoffman~~6499
▁photojournalist~~15380
▁185~~6270
▁elbow~~3961
tig~~13902
tic~~3234
▁bor~~7777
▁Air~~4551
▁adopt~~4197
▁Blicke~~14180
▁panel~~6189
▁funnie~~10543
climate~~13872
▁cataract~~9048
▁magnet~~10800
Kodak~~15438
goris~~14238
▁sensory~~3998
▁Aid~~8977
▁plott~~11049
▁Prime~~7903
▁democracy~~2073
▁exit~~5950
▁intervention~~5406
▁Moore~~3345
biopsie~~7318
▁Ente~~15356
▁trench~~9936
▁auditorium~~6493
▁overall~~6472
▁rudder~~13542
nthia~~13911
▁griev~~12405
ica~~2027
▁fertilize~~12261
▁Leviathan~~16109
▁Elizabeth~~2294
▁station~~5781
rob~~8219
focus~~1190
▁wireless~~11898
▁Okapi~~14787
▁Skeptic~~12800
llo~~3507
▁autocrat~~981
ros~~5284
rot~~7097
row~~3215
▁enter~~1202
▁biscuit~~11050
▁Litt~~4833
▁ethnicit~~8805
▁stereotypical~~13102
▁Safdie~~15731
▁candle~~13321
▁client~~3094
▁Wagner~~3073
▁histories~~1944
melon~~4581
▁Now~~11076
▁Not~~3325
▁Nor~~5210
Day~~12693
▁depart~~4614
▁Victor~~15402
dex~~14888
▁biochemist~~12006
▁exile~~6842
environmentalist~~11436
fspring~~6762
▁refrigerator~~2651
▁label~~3730
▁limit~~1673
▁visualiz~~10017
▁napkin~~4690
,2~~13774
▁Public~~8310
level~~8396
▁tool~~3757
▁font~~15443
Terrain~~10322
▁fantasie~~10207
▁Lady~~6096
▁devices~~4379
▁Beethoven~~11407
▁down~~239
▁Nations~~4106
▁Sarah~~12395
▁prairie~~6414
▁apparatus~~11850
lever~~7767
▁tuberc~~9022
▁Tumor~~14192
▁representative~~4806
▁trees~~932
▁47~~10346
▁autist~~6693
trend~~5219
▁resign~~11181
▁Sisyphus~~14932
Acto~~15193
Rev~~11066
▁electrochemi~~11588
▁scar~~4070
▁hippocamp~~7979
▁sweater~~11602
▁Pearl~~6522
▁thousand~~411
▁Scha~~16333
▁Rang~~13298
takeoff~~9057
uzzle~~13423
▁chorus~~2959
▁freez~~562
▁pragmatic~~8196
port~~8403
▁autism~~6692
Champion~~2394
▁Merri~~11378
▁Geruch~~14894
▁proliferat~~3557
▁Wireless~~16042
ecker~~10837
eritage~~4194
▁welcom~~13622
▁scal~~11911
▁Mexic~~7021
▁Feel~~8809
retroviral~~14260
dem~~8173
▁vegetarian~~7526
▁special~~175
▁puppy~~6212
▁Mira~~1923
▁Sumatra~~7896
▁exoskeleton~~13225
▁humanoid~~7926
▁nano~~2450
▁deepest~~6867
water~~4207
▁Ragu~~16356
▁classroom~~1622
▁graduat~~12979
▁metaphorical~~9489
▁Slu~~7112
▁hand~~560
▁hang~~5943
▁loudspeaker~~12885
▁denominator~~13803
▁vote~~3245
▁merci~~13857
▁Roosevelt~~7592
▁orthopedic~~7458
magine~~12168
ional~~10512
▁Fox~~11345
surfing~~6889
▁activate~~3999
▁attempt~~5565
▁commonalit~~11694
▁Bear~~6863
▁compil~~5690
▁fusiform~~9075
▁non~~1824
▁nourish~~6756
▁oxide~~13637
▁McDo~~13650
▁totalitarian~~12003
▁exclusive~~3251
▁micrometeorite~~11513
▁jihad~~15109
enicillin~~9864
▁site~~694
▁hanging~~4486
▁Typ~~16319
▁Forest~~10933
▁now~~437
▁not~~82
▁48~~8615
▁nor~~2318
▁sitt~~672
▁Popular~~7850
suppe~~14682
▁Zip~~14527
▁exponential~~8535
anda~~5790
▁faux~~9756
▁worldwide~~4326
▁Industrial~~969
▁Citi~~16010
▁skinny~~10807
▁management~~3928
▁Asthma~~13976
▁evoke~~5840
rios~~11175
▁decrease~~1163
ptive~~10194
upert~~14636
▁brutal~~2114
oruba~~15288
▁unforge~~14357
▁amplify~~11206
arcelo~~11335
fuel~~14935
egitimate~~13829
▁gravity~~9564
▁lawsuit~~11949
Time~~14385
▁offense~~8324
▁Tunisia~~14297
▁thermonu~~11947
▁coming~~404
▁dormitor~~8387
▁myself~~2428
▁Tit~~14250
▁Buffet~~9945
▁years~~697
▁burned~~2546
▁v~~2165
▁Technolog~~9672
▁decent~~3082
▁Porc~~6358
stream~~4564
▁p~~667
▁Kund~~15815
▁article~~5122
▁z~~990
▁compromise~~1440
▁x~~6105
▁g~~5096
▁f~~1946
<pad>~~0
▁Port~~4434
▁c~~1322
▁b~~910
▁a~~169
▁dye~~7516
▁o~~1195
▁l~~5875
▁k~~904
▁i~~10457
Packard~~3929
▁W~~5771
▁V~~634
▁U~~1330
▁T~~17
▁S~~1763
▁R~~3350
▁their~~340
▁financ~~5325
▁Reykjav~~13189
▁Z~~10042
▁G~~827
▁F~~460
▁E~~820
▁D~~2765
▁C~~495
▁B~~2989
▁A~~2344
▁O~~5716
▁N~~4696
▁M~~2771
▁L~~3401
▁K~~4374
▁J~~7469
▁I~~62
▁H~~4193
▁7~~5948
▁6~~1711
▁5~~5560
▁4~~1682
▁3~~1887
▁2~~4845
▁folks~~4468
▁0~~9754
▁?~~231
▁Student~~14970
granddaughter~~7393
▁;~~799
▁:~~6
▁9~~4624
▁8~~5951
▁cancer~~4822
▁&~~36
▁Ovation~~15176
▁fighters~~4879
▁.~~58
▁-~~2760
▁,~~29
▁Suppe~~16196
▁mess~~3113
▁upward~~8428
▁Taser~~16068
▁importan~~2042
▁audaci~~9484
▁aus~~9244
▁Aviv~~11631
▁Basqu~~15168
▁Suzan~~11653
▁arous~~11416
uent~~12714
▁passion~~2264
▁cramp~~12135
rger~~14499
▁Hall~~3069
▁Bass~~13088
▁disaster~~742
▁Chi~~7179
▁Bazooka~~16429
▁unten~~7135
▁interconnect~~14205
▁stride~~10917
midnight~~4844
▁Cha~~6672
▁system~~526
ounty~~15757
▁originate~~4271
▁Chu~~8383
▁Chr~~8862
▁intim~~16529
▁coauthor~~11217
▁sketches~~7717
▁Build~~7758
▁hypothese~~10155
▁blow~~1758
▁fand~~16221
▁Sacch~~15764
▁marble~~5722
▁tongue~~7445
▁revolution~~787
▁occurr~~2481
▁whack~~604
▁recogni~~5835
▁blob~~3717
▁little~~257
▁cumulative~~4668
▁blog~~5595
uvre~~5642
▁reshape~~8480
▁speed~~2063
▁Peter~~1855
▁please~~3940
▁surrounding~~3534
▁Hollywood~~1976
▁must~~1125
▁loud~~2242
▁Kuwait~~12600
▁muss~~13752
▁sulfate~~14575
▁globe~~4267
▁Pipeline~~15588
▁distraction~~5254
shadow~~13648
▁Magellan~~15470
▁muse~~6288
▁alibi~~10331
▁Fluctus~~14240
26.2~~15024
▁lous~~4732
tern~~11700
term~~2916
name~~5939
▁impact~~1418
▁struggle~~4849
▁encode~~2588
▁Methan~~14416
realistic~~11048
disciplinar~~8965
▁mushroom~~9238
▁Ridge~~12438
▁Photo~~9729
▁strength~~1653
▁Copernic~~14248
▁Golden~~10587
▁attentive~~12849
▁Ottoman~~13447
▁disorders~~6694
▁Lu~~8388
▁consecutive~~8855
▁Shanghai~~1397
▁shredd~~2621
dence~~13852
▁Janeiro~~10412
▁Lo~~3090
▁La~~3125
▁Le~~7559
▁slides~~2762
▁click~~6119
▁wrapp~~6865
▁ice~~2515
▁flush~~4005
rotten~~12224
profit~~4999
bodie~~12352
▁LS~~16080
▁Samarit~~11087
profil~~11697
▁LI~~11810
▁ingenuity~~9880
▁cage~~7234
▁Nye~~12032
▁backward~~1128
▁recycle~~3380
▁LG~~8359
▁condescen~~8589
▁Arm~~10310
▁soldier~~3314
▁Odysse~~13767
▁Mau~~6802
▁24-~~12858
▁Are~~7110
▁Papa~~15154
wal~~10999
curable~~5337
shi~~11862
▁Arr~~13333
▁institution~~4975
▁Sophi~~11195
grab~~16284
▁Art~~5667
▁needles~~10957
▁good~~549
▁evolution~~1016
▁west~~3226
synchron~~14772
amma~~6754
turn~~8189
turm~~15211
▁horoscope~~14728
enmark~~5212
msala~~15614
▁Minorit~~13651
Touch~~16272
ture~~6910
▁Singer~~13713
▁causing~~4341
dient~~11769
▁precaution~~4069
▁polygon~~14165
▁meticulous~~11425
▁outlier~~11927
▁Johnny~~4484
Hertz~~13504
dia~~9196
▁mediocr~~1436
▁manual~~9115
▁alternate~~13638
▁calamit~~9739
Collider~~13224
▁combin~~1437
▁choose~~2014
▁Pool~~13485
engineer~~6173
▁Cy~~8437
ial~~4154
ian~~1173
▁clash~~5120
designer~~14406
stimulation~~15208
clinical~~10356
▁educational~~1660
utum~~8518
▁snap~~2965
▁Monolog~~12695
white~~2142
▁shopkeeper~~10569
▁class~~1487
▁lady~~6205
▁conferenc~~15547
▁retaliat~~13131
alai~~8112
▁Associat~~13711
huh~~8708
▁color~~792
▁retweet~~16183
▁quadruple~~12189
ophile~~15326
▁humid~~11171
▁descend~~8180
hus~~7118
▁about~~105
▁dismiss~~9251
population~~5369
▁Elisabeth~~15008
▁protection~~4079
▁ask~~1176
▁sales~~7082
▁textbook~~7775
▁unnatural~~9598
▁cuddl~~16063
▁Book~~7036
▁finding~~1464
r~~663
▁Aich~~10209
▁bundle~~12619
▁Orange~~11002
▁rooftop~~8371
and~~3542
ane~~9504
▁Hunter~~8858
ang~~3222
▁clunk~~10169
ana~~5883
therap~~15194
pro~~3449
ano~~6765
▁began~~1507
ani~~8181
prostitution~~8344
ank~~5732
ant~~2306
▁harbor~~10472
▁culture~~813
▁combine~~3144
▁Nathan~~12284
▁Mutter~~13195
marathon~~8293
▁Blanc~~15877
▁November~~10218
opsi~~9054
▁bride~~11301
▁annoy~~2370
▁Sue~~13666
▁Electric~~9688
▁cardio~~13998
▁kettle~~11146
▁pivot~~13394
▁Viagra~~9574
enburg~~9775
▁gastr~~15101
animation~~16591
▁Cantor~~16262
¡~~16509
mination~~8565
▁parachute~~4529
▁RNA~~5404
▁Singapore~~1398
▁participant~~10555
▁deeply~~5173
▁would~~478
urga~~9210
▁brothers~~4356
▁Command~~14454
▁prophet~~4035
▁paper~~1696
▁seeing~~447
▁tack~~7488
▁RNS~~15209
statt~~13642
▁hast~~8502
▁Coleman~~13989
▁prophec~~12603
▁modify~~10185
▁William~~8989
▁trigger~~5908
PP~~14341
mber~~9808
▁Milan~~1925
▁connotation~~10092
▁communal~~1952
▁merit~~5856
lux~~14680
▁Harrie~~12105
▁Boltzmann~~15645
▁rivers~~4131
▁Press~~13712
▁Bicycle~~13763
▁perpetuate~~6851
▁divert~~6365
▁authentic~~3248
▁tried~~653
▁considerabl~~5346
▁viv~~10370
monade~~14542
▁Barricelli~~12733
▁Gestalt~~16056
▁mouse~~5447
▁vacation~~1815
▁training~~4532
▁Wort~~15712
arez~~14681
▁incentive~~2624
▁torpedo~~8302
▁mentality~~1211
▁via~~5760
hack~~12566
▁sunfish~~16289
trop~~10352
▁antelope~~13746
▁tu~~6000
gulf~~9463
▁hustle~~9888
▁straddl~~10910
▁memorize~~7780
▁ta~~12375
▁Real~~8733
wood~~931
ossi~~9866
escent~~3634
▁Volta~~14522
▁Read~~13589
▁delay~~4572
▁to~~32
▁Malaria~~16576
▁visionar~~12446
▁earlie~~3706
▁Psycho~~12479
H~~5459
▁machine~~2094
▁Misha~~14635
▁inherit~~9915
▁negotiation~~8258
▁verifi~~14431
▁craftsman~~7678
▁opium~~9160
sse~~13534
▁Bluetooth~~13056
▁Sahara~~9279
▁discrete~~6815
closure~~12964
▁engineers~~5780
▁Herschel~~11236
▁emergenc~~7858
▁homeopath~~15471
▁Christoph~~14582
▁course~~1559
▁curve~~3874
▁lips~~8817
▁Tablet~~15227
▁crunch~~2580
▁endanger~~6413
▁Universe~~6316
through~~10371
schatz~~10399
▁gigabyte~~9501
▁Ultra~~2438
▁Alligator~~16382
▁gro~~10884
▁elastic~~10070
▁gre~~2013
▁dish~~4007
▁gra~~5095
▁Gottes~~16266
▁application~~2510
▁Maldiv~~14449
▁Luther~~8614
▁metaphor~~3024
ehran~~3305
▁Mandela~~9007
▁occasion~~2033
amara~~13046
amel~~12822
▁there~~132
)~~3079
▁advantage~~1022
voluntary~~11551
ways~~8430
▁General~~9340
▁ELAM~~16520
▁1953~~9761
▁peasant~~15615
▁table~~2620
gainst~~13730
▁verify~~4094
▁overlook~~10490
▁Schock~~13329
▁consequences~~3488
▁epileptic~~10378
▁banal~~13697
▁teenage~~2047
▁inaugura~~10826
▁renewable~~10932
▁public~~1502
▁closed~~2757
▁Rabbi~~11078
▁reading~~834
▁moment~~256
▁Organ~~12922
Prince~~14137
▁Fabian~~13959
▁conservatives~~7567
▁Irrational~~16421
▁estimates~~10879
▁Hercul~~15908
▁monochrom~~14573
▁Video~~12110
▁manuscript~~7375
▁green~~1396
▁Jami~~11908
▁communicate~~2879
raduate~~14918
▁waist~~12635
▁Keil~~765
▁surpass~~13886
▁Limb~~13004
▁fly~~381
color~~3955
▁flu~~4331
▁destin~~7459
▁Fell~~15609
60~~6180
▁kne~~462
▁Down~~5246
▁Thing~~9753
arium~~6325
▁fle~~2189
▁nostril~~12255
▁fla~~8410
▁Think~~8956
▁uter~~2844
ket~~11213
▁cosmetic~~11054
▁each~~1743
ivers~~13194
▁Participa~~13721
▁Dewey~~15134
▁Locke~~15414
▁nutrition~~4818
▁Pantheon~~16326
▁irrational~~2543
▁Defens~~6529
▁subtraction~~12736
▁grandson~~9049
▁25,000~~9300
▁exert~~6454
▁astronaut~~2275
▁exo~~6347
▁Jean~~10199
▁vase~~9700
▁coordinate~~4636
▁signed~~6621
3.0~~13756
▁precipitat~~9277
▁Department~~6405
▁adaptation~~3202
minister~~15397
▁pundit~~11454
▁vast~~1975
▁quarter~~2168
▁lethal~~10325
pilot~~15341
case~~7956
▁conceptual~~3756
▁Chag~~11084
▁Leit~~16239
▁rating~~8802
▁stories~~70
▁affirm~~11081
▁lighter~~3484
cast~~5741
▁server~~10924
▁catalyze~~11856
▁Dylan~~3149
▁Tunnel~~15875
▁Wi~~2259
▁Wh~~2393
▁parabola~~10851
▁Wo~~10741
▁underpinning~~15064
▁Wa~~9410
▁We~~2130
▁replicate~~7381
▁expensive~~1461
▁addictive~~7096
▁Buckminster~~13404
▁splint~~14184
▁jungle~~10742
▁Wu~~8382
▁WI~~14733
▁cart~~10606
▁humans~~1018
▁sulfur~~678
▁marked~~4047
▁passionate~~2162
author~~10547
▁Remote~~15329
XXX~~16383
▁Naja~~15696
check~~12418
▁Chang~~8367
▁Leonard~~13986
▁marker~~7994
▁market~~2594
▁Mumbai~~5788
▁Material~~7831
▁patern~~8036
▁feels~~3855
week~~5207
▁59~~14614
▁Wisconsin~~10176
▁Source~~15965
▁populate~~3436
▁Bollywood~~14631
▁combination~~4406
▁speaking~~1105
▁square~~512
▁shuttle~~10651
▁adviser~~10282
▁impoten~~14304
IM~~4764
changing~~8585
▁Madagas~~4056
▁ripp~~2557
▁eliminate~~1246
▁Jay~~4450
▁sushi~~7834
heila~~4502
▁Jar~~10900
▁paranoid~~11628
▁Jaw~~2176
▁behold~~4512
▁psycho~~9066
▁Instagram~~15012
▁areas~~579
▁Jan~~7191
In~~7849
model~~13427
▁chocolate~~4717
▁bind~~4091
▁Pope~~10962
▁striking~~4322
rwin~~9252
▁tomato~~7511
ē~~13859
▁met~~3007
▁Trace~~12985
▁seasonal~~4184
▁etern~~8072
kill~~4016
▁men~~3553
▁individually~~6073
▁Rive~~11883
▁epidemiolog~~15222
▁Track~~10860
til~~2166
▁being~~555
druck~~16199
▁identification~~7181
▁puzzling~~12725
rose~~8694
munition~~13968
▁songwrit~~3805
▁discipline~~3060
mann~~13003
▁appointment~~12978
▁Holz~~7401
▁Hammett~~9518
▁ancestr~~7941
▁Ton~~13304
▁pile~~3765
▁bleach~~13165
tik~~15343
▁Arche~~14153
▁Illustrator~~15260
▁pill~~1876
▁Mesquit~~14577
▁meme~~771
vante~~14098
▁better~~867
▁develop~~185
▁mock~~3864
walk~~10718
Mann~~11607
▁Bau~~15287
▁Katar~~13484
▁boson~~15472
▁Nano~~14316
▁Hans~~6437
ggy~~13895
Something~~9137
▁Bay~~7057
▁Hand~~13013
▁Hang~~4349
▁accompani~~4030
▁solidari~~10897
orker~~3140
xytocin~~2800
▁dollars~~1788
▁operational~~9112
▁188~~10666
▁project~~2002
orio~~2025
▁clinic~~3954
▁flatten~~14288
▁Superman~~12142
▁decree~~8476
▁Lewi~~5534
Master~~15670
[...]
