<pad>▁0
<unk>▁1
<s>▁2
</s>▁3
▁David▁4
▁Gallo▁5
▁:▁6
▁life▁7
▁in▁8
▁the▁9
▁deep▁10
▁oceans▁11
▁TED▁12
▁Talk▁13
▁Subti▁14
tles▁15
▁and▁16
▁T▁17
ranscript▁18
▁with▁19
▁vibran▁20
t▁21
▁video▁22
▁clip▁23
s▁24
▁capture▁25
d▁26
▁by▁27
▁submarine▁28
▁,▁29
▁take▁30
▁us▁31
▁to▁32
▁some▁33
▁of▁34
▁Earth▁35
▁&▁36
apos▁37
;▁38
▁dark▁39
est▁40
▁most▁41
▁violent▁42
▁toxic▁43
▁beautiful▁44
▁habitat▁45
▁valley▁46
▁volcan▁47
ic▁48
▁ridge▁49
▁depth▁50
▁where▁51
▁is▁52
▁bizarre▁53
▁resilien▁54
▁shocking▁55
ly▁56
▁abundant▁57
▁.▁58
▁this▁59
▁Bill▁60
▁Lange▁61
▁I▁62
m▁63
▁Dave▁64
▁we▁65
re▁66
▁going▁67
▁tell▁68
▁you▁69
▁stories▁70
▁from▁71
▁sea▁72
▁here▁73
ve▁74
▁got▁75
credible▁76
▁Titanic▁77
▁that▁78
▁ever▁79
▁been▁80
▁seen▁81
▁not▁82
▁show▁83
▁any▁84
▁it▁85
▁truth▁86
▁matter▁87
▁--▁88
▁even▁89
▁though▁90
▁breaking▁91
▁all▁92
▁sort▁93
▁box▁94
▁office▁95
▁record▁96
▁exciting▁97
▁story▁98
▁problem▁99
▁think▁100
▁ocean▁101
▁for▁102
▁granted▁103
▁when▁104
▁about▁105
▁are▁106
▁75▁107
▁percent▁108
▁planet▁109
▁water▁110
▁average▁111
▁two▁112
▁miles▁113
▁part▁114
▁stand▁115
▁at▁116
▁beach▁117
▁or▁118
▁see▁119
▁images▁120
▁like▁121
▁look▁122
▁out▁123
▁great▁124
▁big▁125
▁blue▁126
▁expanse▁127
▁sh▁128
immer▁129
ing▁130
▁mov▁131
▁there▁132
▁wave▁133
▁surf▁134
▁tide▁135
▁but▁136
▁have▁137
▁no▁138
▁idea▁139
▁what▁140
▁lies▁141
▁longest▁142
▁mountain▁143
▁range▁144
▁on▁145
▁animals▁146
▁earthquake▁147
▁volcano▁148
es▁149
▁bottom▁150
▁biodiversity▁151
▁bio▁152
den▁153
sity▁154
▁higher▁155
▁places▁156
▁than▁157
▁rainforest▁158
▁unexplo▁159
▁yet▁160
▁sight▁161
▁captivat▁162
e▁163
▁make▁164
▁become▁165
▁familiar▁166
▁want▁167
▁edge▁168
▁a▁169
▁▁170
very▁171
▁un▁172
familiar▁173
▁world▁174
▁special▁175
▁technology▁176
▁get▁177
▁into▁178
▁use▁179
▁Al▁180
vin▁181
▁camera▁182
▁something▁183
▁has▁184
▁develop▁185
ed▁186
▁help▁187
▁Sony▁188
▁Marcel▁189
▁Pro▁190
us▁191
▁sai▁192
quot▁193
▁The▁194
▁true▁195
▁voyage▁196
▁discovery▁197
▁so▁198
▁much▁199
▁seek▁200
▁new▁201
▁landscapes▁202
▁as▁203
▁hav▁204
▁eyes▁205
▁people▁206
▁partner▁207
▁give▁208
n▁209
▁only▁210
▁exist▁211
▁also▁212
▁how▁213
▁itself▁214
▁jelly▁215
▁one▁216
▁my▁217
▁favorite▁218
▁because▁219
▁working▁220
▁turn▁221
▁be▁222
▁creature▁223
▁up▁224
▁150▁225
▁feet▁226
▁long▁227
▁those▁228
▁different▁229
▁things▁230
▁?▁231
▁love▁232
▁kind▁233
▁stuff▁234
▁these▁235
▁fish▁236
▁lure▁237
y▁238
▁down▁239
▁tent▁240
a▁241
cles▁242
▁dangl▁243
▁swirl▁244
around▁245
colonial▁246
▁animal▁247
▁individual▁248
▁band▁249
▁together▁250
▁jet▁251
▁thrust▁252
ers▁253
▁front▁254
ll▁255
▁moment▁256
▁little▁257
▁light▁258
▁if▁259
▁school▁260
▁put▁261
▁them▁262
▁side▁263
▁scale▁264
-▁265
type▁266
▁other▁267
▁guys▁268
▁win▁269
▁hands▁270
▁bioma▁271
▁made▁272
▁creatures▁273
X▁274
w▁275
▁death▁276
▁bioluminescence▁277
▁attract▁278
▁mate▁279
▁prey▁280
▁communicat▁281
▁could▁282
▁begin▁283
▁our▁284
archiv▁285
al▁286
▁je▁287
ies▁288
▁come▁289
▁size▁290
▁shapes▁291
▁tend▁292
▁forget▁293
▁fact▁294
▁real▁295
▁first▁296
▁200▁297
▁300▁298
▁way▁299
▁types▁300
▁live▁301
▁three▁302
dimensional▁303
▁space▁304
▁micro▁305
g▁306
ra▁307
vity▁308
▁environment▁309
▁reall▁310
▁explore▁311
▁hear▁312
▁giant▁313
▁squid▁314
▁approximate▁315
▁140▁316
▁160▁317
▁underst▁318
ood▁319
DG▁320
▁an▁321
other▁322
oc▁323
top▁324
od▁325
▁can▁326
▁actual▁327
▁through▁328
▁his▁329
▁head▁330
▁he▁331
▁flap▁332
ping▁333
▁ears▁334
▁graceful▁335
▁go▁336
▁couple▁337
ches▁338
▁right▁339
▁their▁340
▁window▁341
▁peek▁342
▁inside▁343
▁sub▁344
in▁345
▁case▁346
▁pass▁347
▁mid▁348
ocean▁349
▁under▁350
sea▁351
▁roost▁352
er▁353
▁guy▁354
incredibly▁355
▁formal▁356
▁then▁357
▁face▁358
!▁359
▁basic▁360
ally▁361
▁scientific▁362
▁data▁363
▁foot▁364
age▁365
▁collect▁366
▁purpose▁367
▁doing▁368
▁provid▁369
▁scientists▁370
▁view▁371
▁belong▁372
▁don▁373
▁catch▁374
▁net▁375
▁joystick▁376
▁sit▁377
▁computer▁378
▁press▁379
▁forward▁380
▁fly▁381
▁40,000▁382
mile▁383
▁top▁384
▁mile▁385
▁half▁386
▁over▁387
▁Atlantic▁388
▁across▁389
▁Ca▁390
ribbe▁391
an▁392
Central▁393
▁America▁394
▁end▁395
against▁396
▁Pacific▁397
▁nine▁398
▁degree▁399
▁north▁400
▁maps▁401
▁sound▁402
ar▁403
▁coming▁404
▁cliff▁405
▁height▁406
▁mountains▁407
either▁408
▁Alp▁409
▁tens▁410
▁thousand▁411
▁mappe▁412
ting▁413
▁further▁414
▁eventually▁415
▁icon▁416
▁robot▁417
▁Ja▁418
son▁419
▁call▁420
▁room▁421
▁headset▁422
▁drive▁423
▁time▁424
▁try▁425
▁do▁426
▁Wood▁427
▁Hole▁428
▁partners▁429
▁bring▁430
▁virtual▁431
▁region▁432
▁back▁433
▁laboratory▁434
▁bit▁435
▁piece▁436
▁now▁437
▁photographs▁438
▁chemical▁439
▁sensor▁440
▁never▁441
▁interesting▁442
▁picture▁443
▁shine▁444
▁hydrothermal▁445
▁vent▁446
▁seeing▁447
▁cloud▁448
▁dense▁449
▁pack▁450
▁hydrogen▁451
ul▁452
fi▁453
de▁454
rich▁455
▁axis▁456
▁floor▁457
▁600▁458
▁700▁459
▁F▁460
where▁461
▁kne▁462
▁was▁463
▁60▁464
▁70▁465
▁had▁466
▁hint▁467
▁along▁468
ism▁469
▁crack▁470
▁contact▁471
▁mag▁472
ma▁473
▁shooting▁474
▁hot▁475
▁were▁476
▁aware▁477
▁would▁478
▁rich▁479
▁sulfide▁480
▁did▁481
▁which▁482
▁chimney▁483
▁six▁484
▁hundred▁485
▁setting▁486
▁dramatic▁487
▁BL▁488
▁white▁489
▁material▁490
▁type▁491
▁bacteria▁492
▁thrive▁493
▁180▁494
▁C▁495
.▁496
▁thing▁497
▁after▁498
eruption▁499
▁start▁500
▁wonder▁501
▁find▁502
▁probabl▁503
genesis▁504
▁activit▁505
▁support▁506
▁colonies▁507
▁pressure▁508
▁4,000▁509
▁pounds▁510
▁per▁511
▁square▁512
▁inch▁513
▁surface▁514
▁sun▁515
ten▁516
▁energy▁517
▁forms▁518
▁chemo▁519
thesis▁520
▁population▁521
▁tube▁522
▁worm▁523
▁digest▁524
ive▁525
▁system▁526
▁mouth▁527
gill▁528
▁structure▁529
▁extract▁530
▁oxygen▁531
▁house▁532
ynthetic▁533
▁fluid▁534
▁saw▁535
▁convert▁536
▁simple▁537
▁sugar▁538
▁crab▁539
▁lives▁540
▁manage▁541
▁grab▁542
▁tip▁543
▁normal▁544
▁retrac▁545
▁soon▁546
▁touche▁547
▁Oh▁548
▁good▁549
▁shell▁550
▁just▁551
▁your▁552
▁fingernail▁553
▁whole▁554
▁being▁555
▁play▁556
▁beginning▁557
▁temperature▁558
▁extreme▁559
▁hand▁560
▁boil▁561
▁freez▁562
▁female▁563
▁male▁564
▁watch▁565
▁does▁566
▁before▁567
▁will▁568
▁fight▁569
▁everything▁570
▁pitch▁571
▁black▁572
▁except▁573
▁last▁574
▁dive▁575
▁series▁576
▁count▁577
▁species▁578
▁areas▁579
▁198▁580
▁problems▁581
▁biologist▁582
▁sites▁583
▁ra▁584
ther▁585
▁difficult▁586
▁disintegrat▁587
▁imager▁588
▁critical▁589
▁science▁590
▁amaze▁591
▁me▁592
▁enough▁593
▁crush▁594
▁empty▁595
▁Pepsi▁596
▁till▁597
▁shrimp▁598
▁harass▁599
▁poor▁600
▁bat▁601
▁away▁602
▁claw▁603
▁whack▁604
▁same▁605
▁food▁606
st▁607
uff▁608
▁strange▁609
▁harvest▁610
▁filament▁611
▁create▁612
▁product▁613
▁grow▁614
▁hair▁615
▁again▁616
▁red▁617
▁dot▁618
▁laser▁619
▁far▁620
▁cling▁621
▁rock▁622
▁scrap▁623
▁off▁624
tiny▁625
▁pillar▁626
▁several▁627
▁alien▁628
▁landscape▁629
▁spring▁630
▁inhabit▁631
▁ground▁632
▁need▁633
▁V▁634
shape▁635
▁mark▁636
en▁637
▁organ▁638
▁emitt▁639
▁body▁640
▁radiation▁641
R▁642
▁signature▁643
▁able▁644
▁consider▁645
able▁646
▁distance▁647
▁happening▁648
▁ribbon▁649
day▁650
▁speak▁651
▁generate▁652
▁tried▁653
▁place▁654
▁high▁655
▁definition▁656
▁tall▁657
▁lot▁658
▁funny▁659
▁plate▁660
▁homes▁661
▁close▁662
r▁663
▁community▁664
▁smaller▁665
▁crawl▁666
▁p▁667
ago▁668
da▁669
▁neat▁670
look▁671
▁sitt▁672
▁smok▁673
▁hell▁674
▁permit▁675
▁dump▁676
▁unbelievabl▁677
▁sulfur▁678
▁acid▁679
▁rate▁680
▁thriv▁681
▁came▁682
▁evolv▁683
▁talk▁684
▁form▁685
▁found▁686
▁number▁687
▁group▁688
propos▁689
▁al▁690
though▁691
▁short▁692
liv▁693
▁site▁694
▁may▁695
▁10▁696
▁years▁697
▁ecosystem▁698
▁st▁699
▁million▁700
▁well▁701
▁billion▁702
▁works▁703
▁too▁704
▁wait▁705
▁stick▁706
▁canno▁707
▁explain▁708
▁why▁709
▁active▁710
▁week▁711
ready▁712
▁human▁713
▁perspective▁714
blood▁715
▁plumb▁716
▁every▁717
▁year▁718
▁move▁719
▁order▁720
▁five▁721
▁completely▁722
▁wipe▁723
▁area▁724
▁des▁725
pite▁726
ities▁727
▁sensitive▁728
▁yes▁729
▁fragile▁730
▁saying▁731
▁sediment▁732
▁rocks▁733
▁history▁734
▁cycle▁735
▁rhythm▁736
▁continent▁737
▁apart▁738
▁glacier▁739
▁El▁740
▁Nino▁741
▁disaster▁742
▁learning▁743
▁almost▁744
▁symphon▁745
▁music▁746
▁listen▁747
billion▁748
year▁749
▁say▁750
▁Stop▁751
▁tomorrow▁752
▁note▁753
▁absurd▁754
▁learn▁755
▁work▁756
▁concept▁757
▁preserv▁758
ation▁759
▁futil▁760
▁conservation▁761
▁tough▁762
▁thank▁763
▁Steve▁764
▁Keil▁765
▁manifest▁766
o▁767
▁Bulgaria▁768
▁beyond▁769
▁serious▁770
▁meme▁771
▁infect▁772
▁home▁773
▁return▁774
▁revitaliz▁775
▁economy▁776
▁education▁777
▁society▁778
▁sparkl▁779
▁universal▁780
▁message▁781
▁everywhere▁782
▁who▁783
▁reinvent▁784
▁workplace▁785
▁schools▁786
▁revolution▁787
▁arms▁788
▁break▁789
▁song▁790
▁pick▁791
▁color▁792
▁define▁793
▁mean▁794
▁drastic▁795
reach▁796
▁change▁797
▁behave▁798
▁;▁799
▁makes▁800
▁sad▁801
▁sick▁802
▁tired▁803
▁know▁804
▁living▁805
▁potential▁806
▁many▁807
▁example▁808
▁social▁809
▁factor▁810
▁Europe▁811
▁innovation▁812
▁culture▁813
▁value▁814
▁health▁815
▁care▁816
▁important▁817
▁sense▁818
being▁819
▁E▁820
U▁821
▁worst▁822
▁weeks▁823
▁ago▁824
▁Economi▁825
▁relative▁826
▁G▁827
DP▁828
▁capita▁829
▁let▁830
▁rank▁831
▁report▁832
▁OECD▁833
▁reading▁834
▁math▁835
▁business▁836
▁lowest▁837
▁perception▁838
▁entrepreneurs▁839
▁provide▁840
▁benefit▁841
▁result▁842
▁happens▁843
▁percentage▁844
body▁845
▁small▁846
▁engine▁847
▁economies▁848
▁hire▁849
▁taxe▁850
▁broken▁851
▁guess▁852
▁surprise▁853
▁62▁854
▁optimistic▁855
▁future▁856
▁unhapp▁857
▁bad▁858
▁tale▁859
believe▁860
▁conspirac▁861
▁should▁862
▁clear▁863
▁operat▁864
▁behav▁865
▁transform▁866
▁better▁867
▁ourselves▁868
▁friends▁869
▁family▁870
▁happen▁871
▁positive▁872
▁handicap▁873
▁holding▁874
▁forgot▁875
▁babies▁876
▁kids▁877
▁adult▁878
▁de▁879
value▁880
▁45▁881
▁communi▁882
▁valu▁883
▁state▁884
▁squash▁885
▁inadvertent▁886
▁creativity▁887
▁self▁888
expression▁889
▁instead▁890
▁apply▁891
▁knowledge▁892
▁affect▁893
▁institutional▁894
▁context▁895
ld▁896
▁times▁897
▁sc▁898
old▁899
▁park▁900
▁heaven▁901
▁forbid▁902
▁dirt▁903
▁k▁904
▁worse▁905
▁lo▁906
k▁907
vi▁908
▁kill▁909
▁b▁910
aba▁911
▁d▁912
ado▁913
▁train▁914
ness▁915
▁runn▁916
▁gene▁917
▁step▁918
▁woman▁919
▁baby▁920
kam▁921
▁Woohoo▁922
▁career▁923
▁coffee▁924
b▁925
ko▁926
▁remember▁927
▁she▁928
▁passe▁929
▁virus▁930
wood▁931
▁trees▁932
▁antiqu▁933
ated▁934
▁100▁935
▁values▁936
▁rote▁937
▁memor▁938
ization▁939
▁standard▁940
xploration▁941
▁question▁942
▁crap▁943
went▁944
▁kid▁945
▁prestig▁946
ious▁947
▁study▁948
▁eight▁949
▁day▁950
▁Well▁951
▁recess▁952
▁Ha▁953
▁won▁954
▁single▁955
▁schedule▁956
▁He▁957
▁crime▁958
▁creating▁959
▁mind▁960
less▁961
▁robotic▁962
▁workers▁963
▁bolt▁964
▁pre▁965
ri▁966
▁hole▁967
rry▁968
▁Industrial▁969
▁Revolution▁970
▁adapt▁971
ability▁972
▁creative▁973
▁innovative▁974
▁mechaniz▁975
▁treat▁976
▁asset▁977
▁lever▁978
▁throw▁979
▁qualit▁980
▁autocrat▁981
▁chef▁982
▁boss▁983
rus▁984
▁obvious▁985
▁criminal▁986
▁install▁987
▁controll▁988
▁idiot▁989
▁z▁990
illion▁991
▁process▁992
▁follow▁993
▁restrict▁994
▁mobile▁995
▁phone▁996
▁laptop▁997
▁search▁998
▁Internet▁999
M▁1000
how▁1001
professional▁1002
ful▁1003
fill▁1004
▁fun▁1005
▁That▁1006
▁ridiculous▁1007
▁dumb▁1008
▁stupid▁1009
▁prove▁1010
▁next▁1011
▁speech▁1012
▁catalyst▁1013
▁brains▁1014
▁hardwir▁1015
▁evolution▁1016
▁select▁1017
▁humans▁1018
▁job▁1019
elect▁1020
▁traits▁1021
▁advantage▁1022
ous▁1023
▁competitive▁1024
▁nature▁1025
out▁1026
▁kingdom▁1027
be▁1028
▁dynamic▁1029
▁rats▁1030
▁might▁1031
▁known▁1032
▁more▁1033
▁bigge▁1034
▁task▁1035
▁skills▁1036
▁kitten▁1037
▁depriv▁1038
▁interact▁1039
▁socially▁1040
▁still▁1041
▁hunt▁1042
▁bear▁1043
▁survive▁1044
▁longer▁1045
▁final▁1046
▁correlation▁1047
▁between▁1048
▁brain▁1049
▁dolphin▁1050
▁prett▁1051
▁players▁1052
▁tru▁1053
▁national▁1054
ity▁1055
▁race▁1056
▁religion▁1057
▁cool▁1058
▁term▁1059
▁neo▁1060
▁re▁1061
tion▁1062
▁juvenile▁1063
ists▁1064
▁sports▁1065
▁Olympia▁1066
▁professional▁1067
▁musical▁1068
▁instrument▁1069
▁dance▁1070
▁kiss▁1071
▁sing▁1072
of▁1073
▁design▁1074
▁birth▁1075
▁old▁1076
▁age▁1077
▁continuous▁1078
▁stop▁1079
▁huge▁1080
▁stimulate▁1081
▁neural▁1082
▁growth▁1083
▁am▁1084
gdal▁1085
▁control▁1086
▁emotions▁1087
▁promote▁1088
frontal▁1089
cortex▁1090
▁development▁1091
▁cogniti▁1092
on▁1093
▁emotional▁1094
▁matur▁1095
▁decision▁1096
making▁1097
▁fiction▁1098
▁tales▁1099
▁cold▁1100
▁hard▁1101
▁genetic▁1102
right▁1103
▁walk▁1104
▁speaking▁1105
▁hold▁1106
▁exercise▁1107
▁second▁1108
▁imagine▁1109
▁without▁1110
▁theater▁1111
▁arts▁1112
▁danc▁1113
▁soccer▁1114
▁football▁1115
▁laughter▁1116
▁bleak▁1117
▁glu▁1118
▁playful▁1119
▁opposite▁1120
▁feel▁1121
▁guilt▁1122
▁colleague▁1123
▁laughing▁1124
▁must▁1125
▁hide▁1126
▁news▁1127
▁backward▁1128
▁depression▁1129
▁improve▁1130
▁increase▁1131
▁open▁1132
▁mastery▁1133
▁key▁1134
▁motivation▁1135
ivity▁1136
▁frivolous▁1137
▁athlete▁1138
▁ski▁1139
▁groove▁1140
▁flow▁1141
▁doctor▁1142
▁medicine▁1143
▁feeling▁1144
▁celebrat▁1145
▁quick▁1146
▁corporate▁1147
▁FedEx▁1148
▁easy▁1149
otto▁1150
▁service▁1151
▁profit▁1152
▁happi▁1153
▁fulfill▁1154
▁customer▁1155
▁dealing▁1156
▁happy▁1157
▁decisions▁1158
fee▁1159
ling▁1160
▁buy▁1161
▁lead▁1162
▁decrease▁1163
▁Ge▁1164
▁Unite▁1165
▁State▁1166
▁reason▁1167
▁nothing▁1168
▁weird▁1169
▁beside▁1170
▁kick▁1171
▁Sc▁1172
ian▁1173
▁zero▁1174
▁refer▁1175
▁ask▁1176
▁marginal▁1177
▁stakeholders▁1178
▁improv▁1179
▁transparency▁1180
▁promot▁1181
direct▁1182
ion▁1183
▁collaboration▁1184
▁encouraging▁1185
▁auto▁1186
c▁1187
racy▁1188
▁results▁1189
focus▁1190
▁morning▁1191
▁leave▁1192
▁team▁1193
▁organize▁1194
▁o▁1195
clock▁1196
▁sounds▁1197
▁slow▁1198
▁referr▁1199
▁above▁1200
▁industry▁1201
▁enter▁1202
▁best▁1203
▁employer▁1204
▁independent▁1205
▁analysis▁1206
▁anonymous▁1207
▁employee▁1208
▁survey▁1209
▁own▁1210
▁mentality▁1211
▁steps▁1212
▁finish▁1213
▁believe▁1214
▁rediscover▁1215
ever▁1216
▁used▁1217
▁enjoy▁1218
▁months▁1219
▁promotion▁1220
▁bik▁1221
▁book▁1222
▁game▁1223
▁leaders▁1224
▁thought▁1225
▁ignite▁1226
▁fire▁1227
▁Hey▁1228
▁trust▁1229
▁empower▁1230
▁delegate▁1231
▁level▁1232
▁encourage▁1233
▁constructive▁1234
▁criticism▁1235
▁challenge▁1236
▁authorit▁1237
▁challeng▁1238
▁always▁1239
▁done▁1240
▁rut▁1241
▁solutions▁1242
▁eradicate▁1243
▁fear▁1244
▁enem▁1245
▁eliminate▁1246
▁restriction▁1247
▁personal▁1248
▁instant▁1249
▁messenger▁1250
▁lunch▁1251
▁recharge▁1252
▁meet▁1253
▁beer▁1254
▁synerg▁1255
▁ideas▁1256
▁freedom▁1257
▁general▁1258
▁spend▁1259
▁supposed▁1260
▁miserable▁1261
▁grind▁1262
▁20▁1263
▁wake▁1264
▁unacceptabl▁1265
▁Ne▁1266
pri▁1267
em▁1268
▁summar▁1269
▁uprising▁1270
▁seriously▁1271
▁fan▁1272
▁flame▁1273
▁share▁1274
▁success▁1275
▁worked▁1276
▁rein▁1277
gora▁1278
▁promise▁1279
ment▁1280
▁ultimate▁1281
▁meaning▁1282
▁alone▁1283
▁Andrea▁1284
▁Schl▁1285
icher▁1286
▁build▁1287
▁measure▁1288
▁walks▁1289
▁PISA▁1290
▁test▁1291
▁global▁1292
▁measurement▁1293
▁countries▁1294
▁country▁1295
▁stack▁1296
▁systems▁1297
perform▁1298
▁radical▁1299
▁distant▁1300
▁field▁1301
▁such▁1302
▁figur▁1303
▁15-▁1304
olds▁1305
▁international▁1306
▁comparison▁1307
▁globaliz▁1308
▁usual▁1309
▁Look▁1310
▁looked▁1311
▁1960▁1312
▁proportion▁1313
▁complete▁1314
head▁1315
one▁1316
▁else▁1317
▁economic▁1318
▁draw▁1319
stand▁1320
▁1970▁1321
▁c▁1322
aught▁1323
▁1980▁1324
▁expansion▁1325
▁talent▁1326
▁pool▁1327
▁continue▁1328
▁1990▁1329
▁U▁1330
S▁1331
▁90▁1332
▁13▁1333
th▁1334
▁fallen▁1335
▁rise▁1336
▁faster▁1337
▁Korea▁1338
▁shows▁1339
▁possible▁1340
▁generations▁1341
▁Afghanistan▁1342
▁performer▁1343
▁young▁1344
▁Korean▁1345
▁improvement▁1346
▁benchmark▁1347
▁perform▁1348
▁trouble▁1349
▁measur▁1350
▁mix▁1351
▁unemploy▁1352
▁graduate▁1353
▁streets▁1354
▁while▁1355
▁automatic▁1356
▁translate▁1357
▁jobs▁1358
▁direct▁1359
ok▁1360
▁angle▁1361
▁less▁1362
▁interest▁1363
▁whe▁1364
▁student▁1365
▁simpl▁1366
▁reproduce▁1367
▁extra▁1368
pol▁1369
ate▁1370
▁novel▁1371
▁situations▁1372
▁criticize▁1373
▁outcome▁1374
▁terribl▁1375
▁unfair▁1376
▁logic▁1377
▁prepared▁1378
▁technologies▁1379
▁invent▁1380
▁solve▁1381
▁anticipate▁1382
▁once▁1383
▁contest▁1384
▁late▁1385
▁assessment▁1386
▁2009▁1387
▁74▁1388
▁cover▁1389
▁87▁1390
▁chart▁1391
▁performance▁1392
▁below▁1393
▁yellow▁1394
so▁1395
▁green▁1396
▁Shanghai▁1397
▁Singapore▁1398
▁Asia▁1399
▁Fin▁1400
land▁1401
▁Canad▁1402
▁North▁1403
▁Chile▁1404
▁gap▁1405
▁seven▁1406
▁include▁1407
▁difference▁1408
▁introduce▁1409
▁dimension▁1410
▁educator▁1411
▁equit▁1412
▁deliver▁1413
▁ensu▁1414
▁background▁1415
▁equal▁1416
▁chance▁1417
▁impact▁1418
▁strong▁1419
▁opportunities▁1420
▁unequal▁1421
▁distribute▁1422
▁children▁1423
▁waste▁1424
▁matters▁1425
▁born▁1426
▁upper▁1427
▁quadra▁1428
▁afford▁1429
▁large▁1430
▁disparit▁1431
▁debate▁1432
▁price▁1433
▁focus▁1434
▁accept▁1435
▁mediocr▁1436
▁combin▁1437
▁excellence▁1438
▁lesson▁1439
▁compromise▁1440
▁achieve▁1441
▁challenges▁1442
▁paradigm▁1443
▁main▁1444
▁since▁1445
▁policy▁1446
makers▁1447
▁researcher▁1448
▁behind▁1449
giving▁1450
▁bubble▁1451
▁proportional▁1452
▁amount▁1453
▁money▁1454
▁spen▁1455
▁quality▁1456
▁variation▁1457
▁among▁1458
▁Luxemb▁1459
urg▁1460
▁expensive▁1461
▁particular▁1462
▁similar▁1463
▁finding▁1464
▁divide▁1465
educate▁1466
▁badly▁1467
▁detail▁1468
▁wealth▁1469
▁pay▁1470
▁teacher▁1471
▁invest▁1472
▁teaching▁1473
▁profession▁1474
▁days▁1475
▁costs▁1476
▁least▁1477
▁teach▁1478
▁answer▁1479
▁classes▁1480
▁bar▁1481
▁driving▁1482
▁list▁1483
▁exact▁1484
▁parents▁1485
▁pleasant▁1486
▁class▁1487
▁paid▁1488
▁hours▁1489
▁anything▁1490
▁2000▁1491
▁iPod▁1492
▁35▁1493
▁yourself▁1494
▁bitter▁1495
▁impressive▁1496
▁German▁1497
▁feature▁1498
▁lower▁1499
▁disappoint▁1500
▁stunn▁1501
▁public▁1502
▁dominat▁1503
▁tax▁1504
▁issue▁1505
▁center▁1506
▁began▁1507
▁respond▁1508
▁federal▁1509
▁government▁1510
▁raise▁1511
▁investment▁1512
▁immigrant▁1513
▁disadvantage▁1514
▁optimiz▁1515
▁polici▁1516
▁belief▁1517
▁underly▁1518
▁traditional▁1519
▁women▁1520
▁neglect▁1521
▁responsibilit▁1522
▁sent▁1523
▁kindergarten▁1524
▁push▁1525
▁early▁1526
▁childhood▁1527
▁deem▁1528
▁pursue▁1529
▁socio▁1530
economic▁1531
▁line▁1532
▁later▁1533
▁taken▁1534
▁spectrum▁1535
▁concern▁1536
▁double▁1537
▁achiev▁1538
▁decade▁1539
▁bright▁1540
▁slight▁1541
▁direction▁1542
▁major▁1543
ha▁1544
▁Po▁1545
▁reduce▁1546
▁vari▁1547
▁Portugal▁1548
▁consolidate▁1549
▁fragment▁1550
▁Hungar▁1551
▁complain▁1552
▁artifact▁1553
▁homogene▁1554
▁societies▁1555
▁conc▁1556
▁composition▁1557
▁practice▁1558
▁course▁1559
▁model▁1560
▁copy▁1561
▁paste▁1562
ale▁1563
▁identifie▁1564
▁agree▁1565
▁weigh▁1566
▁priorit▁1567
▁highly▁1568
▁skill▁1569
▁child▁1570
▁lawyer▁1571
▁media▁1572
▁questions▁1573
▁convince▁1574
▁citizens▁1575
▁choice▁1576
▁consumption▁1577
▁attractive▁1578
▁shopp▁1579
▁plac▁1580
▁cap▁1581
▁segregat▁1582
▁reflect▁1583
class▁1584
▁link▁1585
▁Japan▁1586
▁expect▁1587
▁succeed▁1588
▁mirror▁1589
▁behavior▁1590
▁mathematics▁1591
▁typically▁1592
▁genius▁1593
▁Japanese▁1594
▁depend▁1595
▁effort▁1596
▁past▁1597
▁ways▁1598
▁embrace▁1599
diversity▁1600
▁differentiate▁1601
▁pedagog▁1602
ical▁1603
▁realize▁1604
▁ordinar▁1605
▁extraordinar▁1606
▁personaliz▁1607
▁ambitio▁1608
▁entire▁1609
▁require▁1610
▁successful▁1611
▁exceed▁1612
▁careful▁1613
▁recruit▁1614
▁struggl▁1615
▁frame▁1616
▁intelligent▁1617
▁pathway▁1618
bureaucratic▁1619
▁often▁1620
▁left▁1621
▁classroom▁1622
▁prescription▁1623
▁set▁1624
▁enable▁1625
▁figure▁1626
▁wisdom▁1627
▁user▁1628
generat▁1629
▁administrative▁1630
▁account▁1631
▁organization▁1632
▁goal▁1633
▁complian▁1634
ce▁1635
▁principal▁1636
ventive▁1637
▁provision▁1638
▁outward▁1639
▁resource▁1640
▁align▁1641
▁coherent▁1642
▁sustain▁1643
▁period▁1644
▁ensure▁1645
▁consistent▁1646
▁implement▁1647
▁knowing▁1648
▁limits▁1649
▁research▁1650
▁venture▁1651
▁telling▁1652
▁strength▁1653
▁powerful▁1654
▁financial▁1655
▁subsid▁1656
▁run▁1657
▁argue▁1658
▁changing▁1659
▁educational▁1660
▁administration▁1661
▁grave▁1662
ard▁1663
▁rely▁1664
▁excuse▁1665
▁complacen▁1666
▁meaningful▁1667
▁target▁1668
▁measurabl▁1669
▁goals▁1670
▁parent▁1671
▁sky▁1672
▁limit▁1673
▁laid▁1674
▁foundation▁1675
▁Morton▁1676
▁Bast▁1677
▁Rachel▁1678
▁Pik▁1679
▁climate▁1680
▁headline▁1681
▁4▁1682
▁minutes▁1683
▁atmospher▁1684
▁chemist▁1685
▁glimpse▁1686
▁massive▁1687
▁bold▁1688
▁her▁1689
▁contribute▁1690
taking▁1691
▁risk▁1692
▁flight▁1693
▁pursui▁1694
▁molecule▁1695
▁paper▁1696
▁air▁1697
mog▁1698
▁both▁1699
▁branches▁1700
▁recently▁1701
▁Inter▁1702
government▁1703
▁Panel▁1704
▁Climate▁1705
▁Change▁1706
▁IPC▁1707
C▁1708
▁understanding▁1709
▁writ▁1710
▁6▁1711
20▁1712
▁40▁1713
▁wrote▁1714
▁page▁1715
▁topic▁1716
▁review▁1717
▁400▁1718
plus▁1719
▁11▁1720
3▁1721
▁annual▁1722
▁gathering▁1723
▁meeting▁1724
▁15▁1725
,000▁1726
▁San▁1727
▁Francisco▁1728
▁studies▁1729
▁wide▁1730
▁variet▁1731
▁Cambridge▁1732
▁Ni▁1733
ñ▁1734
▁oscill▁1735
▁weather▁1736
▁assimilat▁1737
▁satellite▁1738
▁emissions▁1739
▁crop▁1740
▁produce▁1741
▁biofuel▁1742
▁each▁1743
▁PhD▁1744
▁narrow▁1745
▁few▁1746
op▁1747
ne▁1748
▁organic▁1749
▁heard▁1750
▁weight▁1751
▁900▁1752
ta▁1753
▁21▁1754
▁atmosphere▁1755
thane▁1756
▁length▁1757
▁blow▁1758
▁EU▁1759
P▁1760
HO▁1761
E▁1762
▁S▁1763
▁Chamb▁1764
▁Spa▁1765
▁explosion▁1766
▁full▁1767
▁combusti▁1768
▁car▁1769
▁enormous▁1770
▁models▁1771
▁supercomputer▁1772
▁grid▁1773
▁boxes▁1774
▁calculating▁1775
▁variable▁1776
▁minute▁1777
scale▁1778
▁integration▁1779
▁dozen▁1780
▁understand▁1781
▁join▁1782
▁campaign▁1783
▁Malaysia▁1784
ow▁1785
▁middle▁1786
▁hung▁1787
▁dollars▁1788
▁worth▁1789
▁equip▁1790
▁tower▁1791
rought▁1792
▁aircraft▁1793
▁plane▁1794
▁BA▁1795
14▁1796
6▁1797
▁FAA▁1798
▁flies▁1799
▁120▁1800
▁130▁1801
▁flying▁1802
▁meter▁1803
▁canopy▁1804
▁dangerous▁1805
▁inclin▁1806
▁military▁1807
▁pilot▁1808
▁maneuver▁1809
ance▁1810
▁bank▁1811
▁force▁1812
▁harness▁1813
▁board▁1814
▁vacation▁1815
▁chemistr▁1816
▁write▁1817
▁subject▁1818
section▁1819
ub▁1820
▁chapter▁1821
▁ten▁1822
▁tag▁1823
▁non▁1824
cientific▁1825
▁audience▁1826
▁journalist▁1827
▁makers▁1828
▁Christopher▁1829
Charm▁1830
▁neuroscientist▁1831
▁inventor▁1832
▁demonstrate▁1833
▁fMRI▁1834
▁pain▁1835
▁words▁1836
▁Hi▁1837
▁royal▁1838
▁mimic▁1839
▁program▁1840
▁muscle▁1841
▁arm▁1842
▁lab▁1843
▁generation▁1844
▁possibilit▁1845
▁envision▁1846
▁spaceship▁1847
▁shrink▁1848
▁inject▁1849
▁bloodstream▁1850
▁attack▁1851
▁blood▁1852
▁cells▁1853
▁arteries▁1854
▁Peter▁1855
invasive▁1856
▁MRI▁1857
▁anatomy▁1858
▁literally▁1859
▁moves▁1860
▁spot▁1861
▁interface▁1862
▁function▁1863
▁electrode▁1864
▁imag▁1865
▁scanner▁1866
▁collapse▁1867
▁millisecond▁1868
▁allow▁1869
▁65▁1870
▁point▁1871
▁activation▁1872
▁pattern▁1873
▁therapist▁1874
▁couch▁1875
▁pill▁1876
▁knife▁1877
▁fourth▁1878
▁alternative▁1879
▁channel▁1880
▁minds▁1881
▁chronic▁1882
▁burn▁1883
▁pull▁1884
▁circuits▁1885
▁produc▁1886
▁3▁1887
D▁1888
▁information▁1889
▁flex▁1890
▁bi▁1891
cep▁1892
▁patient▁1893
▁shock▁1894
▁person▁1895
▁release▁1896
ogen▁1897
pi▁1898
▁display▁1899
▁investigation▁1900
▁clinical▁1901
▁trial▁1902
▁44▁1903
▁64▁1904
▁Matrix▁1905
▁aspect▁1906
▁experience▁1907
▁Bee▁1908
ba▁1909
▁Kid▁1910
ro▁1911
▁shared▁1912
▁film▁1913
▁movie▁1914
▁power▁1915
▁narrative▁1916
▁shape▁1917
▁worldview▁1918
▁British▁1919
▁director▁1920
▁invoke▁1921
▁scene▁1922
▁Mira▁1923
cle▁1924
▁Milan▁1925
▁Boy▁1926
z▁1927
▁Hoo▁1928
▁FILMCLUB▁1929
▁films▁1930
▁evidence▁1931
▁suggest▁1932
▁cultures▁1933
▁identit▁1934
▁mother▁1935
▁daughter▁1936
▁preach▁1937
▁con▁1938
gan▁1939
▁pupil▁1940
▁storyteller▁1941
▁cave▁1942
▁paintings▁1943
▁histories▁1944
▁parable▁1945
▁f▁1946
te▁1947
rate▁1948
▁increasing▁1949
▁secular▁1950
▁offer▁1951
▁communal▁1952
media▁1953
▁furious▁1954
▁consumer▁1955
▁moral▁1956
▁code▁1957
▁im▁1958
part▁1959
▁cinema▁1960
▁argu▁1961
ably▁1962
▁century▁1963
▁influen▁1964
tial▁1965
▁art▁1966
▁artist▁1967
▁boundar▁1968
▁language▁1969
▁ge▁1970
▁philosoph▁1971
deed▁1972
▁tackle▁1973
▁during▁1974
▁vast▁1975
▁Hollywood▁1976
▁blockbuster▁1977
▁die▁1978
▁sensation▁1979
▁king▁1980
▁common▁1981
ified▁1982
▁filmmaker▁1983
▁worrie▁1984
▁God▁1985
▁grasp▁1986
▁iron▁1987
▁palpabl▁1988
▁technical▁1989
▁access▁1990
▁cultural▁1991
aker▁1992
▁2006▁1993
▁ran▁1994
▁screening▁1995
▁discussion▁1996
id▁1997
▁restless▁1998
▁rural▁1999
▁ham▁2000
let▁2001
▁project▁2002
▁DVD▁2003
▁onto▁2004
▁25▁2005
▁club▁2006
K▁2007
▁18▁2008
interrupt▁2009
▁curate▁2010
▁contextual▁2011
ized▁2012
▁gre▁2013
▁choose▁2014
▁riches▁2015
▁immediate▁2016
▁profound▁2017
▁transformative▁2018
▁discover▁2019
▁names▁2020
▁wish▁2021
▁195▁2022
1▁2023
▁Vi▁2024
orio▁2025
▁De▁2026
ica▁2027
▁remarkable▁2028
▁comment▁2029
▁slums▁2030
▁poverty▁2031
▁aspiration▁2032
▁occasion▁2033
▁father▁2034
▁50▁2035
▁birthday▁2036
▁meant▁2037
▁viewing▁2038
▁print▁2039
▁projection▁2040
ist▁2041
▁importan▁2042
▁vision▁2043
▁chose▁2044
▁celebrate▁2045
century▁2046
▁teenage▁2047
▁30▁2048
▁hope▁2049
▁shot▁2050
▁slum▁2051
well▁2052
▁float▁2053
ward▁2054
room▁2055
▁Si▁2056
x▁2057
▁tilt▁2058
▁awe▁2059
▁incredul▁2060
▁match▁2061
▁mine▁2062
▁speed▁2063
▁associate▁2064
▁Slum▁2065
do▁2066
▁Million▁2067
air▁2068
▁favela▁2069
▁Rio▁2070
▁endur▁2071
▁season▁2072
▁democracy▁2073
▁screen▁2074
▁Mr▁2075
▁Smith▁2076
▁Go▁2077
▁Washington▁2078
▁193▁2079
9▁2080
▁older▁2081
▁members▁2082
▁grandparents▁2083
▁Frank▁2084
▁Cap▁2085
▁classic▁2086
▁independen▁2087
▁propriet▁2088
▁heroic▁2089
▁awkward▁2090
▁expression▁2091
▁faith▁2092
▁political▁2093
▁machine▁2094
▁honor▁2095
came▁2096
night▁2097
ili▁2098
buster▁2099
▁House▁2100
▁Lord▁2101
▁delight▁2102
▁def▁2103
▁bed▁2104
time▁2105
▁principle▁2106
▁Jim▁2107
▁Stewart▁2108
el▁2109
▁choosing▁2110
▁Hotel▁2111
▁Rwanda▁2112
▁genocide▁2113
▁brutal▁2114
▁provoke▁2115
▁tear▁2116
ci▁2117
arm▁2118
▁peace▁2119
keep▁2120
▁Western▁2121
▁commoditi▁2122
▁Sch▁2123
ind▁2124
ler▁2125
▁Lis▁2126
▁demand▁2127
▁consciousness▁2128
▁remark▁2129
▁We▁2130
wise▁2131
pock▁2132
▁dis▁2133
f▁2134
ran▁2135
ch▁2136
ise▁2137
▁Sir▁2138
▁Love▁2139
▁attitude▁2140
▁toward▁2141
white▁2142
▁Brit▁2143
▁rail▁2144
▁collective▁2145
▁unlike▁2146
idney▁2147
iti▁2148
▁tut▁2149
lage▁2150
▁thoughtful▁2151
▁opinion▁2152
▁curious▁2153
▁tackl▁2154
▁subtitle▁2155
▁documentar▁2156
ative▁2157
▁fantasy▁2158
▁writing▁2159
▁compet▁2160
▁favor▁2161
▁passionate▁2162
▁sophisticated▁2163
▁pro▁2164
▁v▁2165
til▁2166
▁near▁2167
▁quarter▁2168
▁7,000▁2169
▁numbers▁2170
▁manner▁2171
▁held▁2172
▁Per▁2173
polis▁2174
▁Iranian▁2175
▁Jaw▁2176
▁boy▁2177
▁articulate▁2178
▁violence▁2179
▁killed▁2180
▁latter▁2181
board▁2182
▁boat▁2183
▁journey▁2184
▁wrong▁2185
▁condition▁2186
▁hidden▁2187
▁tsunami▁2188
▁fle▁2189
▁themselves▁2190
▁aunt▁2191
▁wonderful▁2192
▁bare▁2193
foot▁2194
▁Mountain▁2195
▁cop▁2196
▁robber▁2197
quite▁2198
▁194▁2199
8▁2200
▁sister▁2201
▁travel▁2202
▁Israel▁2203
▁sailor▁2204
mut▁2205
ini▁2206
▁teenager▁2207
▁fed▁2208
▁crew▁2209
▁mentioned▁2210
▁hurry▁2211
▁husband▁2212
▁diamond▁2213
▁sew▁2214
▁skirt▁2215
▁hid▁2216
▁grandfather▁2217
▁appear▁2218
▁London▁2219
▁hush▁2220
▁England▁2221
▁clean▁2222
▁slate▁2223
▁silence▁2224
▁Anne▁2225
▁Great▁2226
scape▁2227
▁Sho▁2228
ah▁2229
▁Triumph▁2230
▁Will▁2231
▁Len▁2232
i▁2233
▁Rie▁2234
fen▁2235
ahl▁2236
▁elegant▁2237
▁Nazi▁2238
ropaganda▁2239
▁gav▁2240
▁hurt▁2241
▁loud▁2242
▁useful▁2243
▁whisper▁2244
▁survivors▁2245
▁occasional▁2246
▁tattoo▁2247
▁maid▁2248
▁wrist▁2249
▁Pur▁2250
▁dissipate▁2251
▁quest▁2252
▁crude▁2253
▁complex▁2254
▁serve▁2255
▁drama▁2256
▁lie▁2257
▁12-▁2258
▁Wi▁2259
▁Oz▁2260
▁Every▁2261
▁unles▁2262
▁heart▁2263
▁passion▁2264
▁Citizen▁2265
▁Kan▁2266
▁valuable▁2267
▁Jane▁2268
▁Aust▁2269
▁brick▁2270
▁wall▁2271
▁okay▁2272
▁Tom▁2273
▁Han▁2274
▁astronaut▁2275
▁Ben▁2276
▁King▁2277
ley▁2278
▁super▁2279
impose▁2280
▁Gandhi▁2281
▁Eve▁2282
▁Har▁2283
ington▁2284
▁Howard▁2285
▁Be▁2286
▁Mil▁2287
dred▁2288
▁Pier▁2289
▁opportunity▁2290
▁helpful▁2291
▁Shakespeare▁2292
▁illuminat▁2293
▁Elizabeth▁2294
literatur▁2295
▁engage▁2296
▁inspire▁2297
▁participat▁2298
▁foresee▁2299
▁confidence▁2300
▁academic▁2301
▁achievement▁2302
▁On▁2303
l▁2304
u▁2305
ant▁2306
▁playground▁2307
definition▁2308
▁ambition▁2309
▁appetite▁2310
▁engagement▁2311
▁witness▁2312
▁bin▁2313
ary▁2314
▁description▁2315
▁describe▁2316
fer▁2317
▁nor▁2318
ically▁2319
absorb▁2320
▁negotiat▁2321
▁infinite▁2322
▁surprised▁2323
▁behaviors▁2324
▁tick▁2325
▁shoes▁2326
▁acquisition▁2327
▁essential▁2328
▁component▁2329
▁impossibl▁2330
▁Re▁2331
▁Wind▁2332
▁gaze▁2333
▁building▁2334
▁door▁2335
▁tools▁2336
▁Chat▁2337
ou▁2338
▁whistleblower▁2339
▁champion▁2340
▁whistle▁2341
▁whims▁2342
or▁2343
▁A▁2344
▁Ho▁2345
h▁2346
off▁2347
ê▁2348
▁la▁2349
▁Bell▁2350
▁fascinating▁2351
▁inter▁2352
lude▁2353
▁talks▁2354
▁him▁2355
▁craft▁2356
▁whistl▁2357
▁English▁2358
ubb▁2359
▁curl▁2360
hai▁2361
▁Holland▁2362
#▁2363
91▁2364
93;▁2365
▁four▁2366
▁dad▁2367
▁communication▁2368
▁34▁2369
▁annoy▁2370
▁irritat▁2371
▁honest▁2372
▁devi▁2373
▁bike▁2374
▁Christmas▁2375
▁party▁2376
law▁2377
▁Ru▁2378
ol▁2379
ph▁2380
▁Red▁2381
No▁2382
▁Rein▁2383
▁dinner▁2384
▁annoying▁2385
▁Pleas▁2386
▁wine▁2387
▁admit▁2388
▁receive▁2389
▁text▁2390
▁Google▁2391
▁World▁2392
▁Wh▁2393
Champion▁2394
ship▁2395
▁lost▁2396
▁correct▁2397
▁Dutch▁2398
▁Louis▁2399
burg▁2400
▁Carolina▁2401
outheast▁2402
▁championship▁2403
4▁2404
▁defend▁2405
▁title▁2406
▁ju▁2407
as▁2408
5▁2409
▁participate▁2410
▁2008▁2411
▁Tokyo▁2412
▁Rotterdam▁2413
▁city▁2414
▁stage▁2415
▁earn▁2416
▁quit▁2417
▁nurse▁2418
▁dream▁2419
▁Huh▁2420
▁track▁2421
▁80▁2422
▁rehearse▁2423
▁tone▁2424
▁promis▁2425
▁technician▁2426
▁ha▁2427
▁myself▁2428
▁solo▁2429
▁propose▁2430
▁Max▁2431
▁West▁2432
man▁2433
▁Shaw▁2434
▁dry▁2435
▁demo▁2436
▁demos▁2437
▁Ultra▁2438
ver▁2439
▁Dr▁2440
▁liquid▁2441
p▁2442
ellen▁2443
▁coat▁2444
▁act▁2445
▁astonishing▁2446
▁shield▁2447
base▁2448
▁materials▁2449
▁nano▁2450
▁spray▁2451
▁umbrella▁2452
▁bounce▁2453
minute▁2454
available▁2455
▁rethink▁2456
▁waterproof▁2457
der▁2458
▁block▁2459
▁nanotechnolog▁2460
▁applie▁2461
▁superhydrophobi▁2462
coat▁2463
▁por▁2464
▁absorb▁2465
more▁2466
po▁2467
rous▁2468
▁drop▁2469
▁round▁2470
▁hydrophob▁2471
▁fresh▁2472
▁wax▁2473
▁windshield▁2474
▁110▁2475
▁175▁2476
▁demonstration▁2477
▁pair▁2478
▁glove▁2479
science▁2480
▁occurr▁2481
▁atoms▁2482
▁nanometer▁2483
▁nanoparticle▁2484
▁thick▁2485
▁50,000▁2486
▁wid▁2487
▁concrete▁2488
▁paint▁2489
▁mud▁2490
▁refine▁2491
▁oil▁2492
▁afr▁2493
aid▁2494
▁fill▁2495
▁rough▁2496
ragg▁2497
▁smooth▁2498
ti▁2499
▁spaces▁2500
▁reach▁2501
▁layer▁2502
▁hit▁2503
▁glide▁2504
▁silver▁2505
▁reflectiv▁2506
▁protect▁2507
▁touch▁2508
▁paddle▁2509
▁application▁2510
▁excited▁2511
▁anti▁2512
wett▁2513
▁certain▁2514
▁ice▁2515
co▁2516
osion▁2517
▁corrosi▁2518
bacterial▁2519
clean▁2520
▁revolutionize▁2521
▁Chris▁2522
▁Anderson▁2523
▁cutting▁2524
▁Design▁2525
▁...▁2526
▁manag▁2527
▁medical▁2528
▁Thu▁2529
Hu▁2530
ong▁2531
▁Dan▁2532
▁Ariel▁2533
▁bugg▁2534
▁behavioral▁2535
▁economist▁2536
▁bugs▁2537
▁OK▁2538
▁cheat▁2539
▁steal▁2540
▁clever▁2541
▁predictabl▁2542
▁irrational▁2543
▁influence▁2544
▁hospital▁2545
▁burned▁2546
▁bother▁2547
▁department▁2548
▁bandage▁2549
▁Band▁2550
Aid▁2551
▁approach▁2552
▁rip▁2553
▁duration▁2554
▁intens▁2555
▁painful▁2556
▁ripp▁2557
▁hour▁2558
▁hat▁2559
▁minimize▁2560
▁word▁2561
▁suggestion▁2562
▁interfere▁2563
▁Hebr▁2564
ew▁2565
kept▁2566
▁university▁2567
▁experimental▁2568
▁method▁2569
▁replica▁2570
▁abstract▁2571
▁examine▁2572
▁original▁2573
▁hardware▁2574
▁store▁2575
ought▁2576
▁carpenter▁2577
▁vice▁2578
▁finger▁2579
▁crunch▁2580
▁version▁2581
▁fund▁2582
▁electrical▁2583
▁suit▁2584
▁intention▁2585
▁plent▁2586
the▁2587
▁encode▁2588
▁legs▁2589
▁trend▁2590
up▁2591
▁mistakes▁2592
▁stock▁2593
▁market▁2594
▁situation▁2595
▁Enr▁2596
▁explode▁2597
▁sudden▁2598
▁apple▁2599
▁decided▁2600
▁experiment▁2601
▁sheet▁2602
▁Pass▁2603
▁dollar▁2604
▁tempt▁2605
▁shred▁2606
▁pocket▁2607
▁backpack▁2608
▁theory▁2609
▁cost▁2610
benefit▁2611
▁probabilit▁2612
▁gain▁2613
▁punishment▁2614
▁option▁2615
▁decide▁2616
▁worthwhile▁2617
▁commit▁2618
▁cent▁2619
▁table▁2620
▁shredd▁2621
▁bowl▁2622
sensitive▁2623
▁incentive▁2624
▁rational▁2625
▁explanation▁2626
▁low▁2627
▁impression▁2628
▁fudge▁2629
▁initial▁2630
▁recall▁2631
▁books▁2632
▁read▁2633
▁Commandment▁2634
▁sample▁2635
▁religious▁2636
▁stopp▁2637
lar▁2638
▁atheist▁2639
▁swear▁2640
▁Bible▁2641
▁sign▁2642
▁falls▁2643
▁MIT▁2644
▁Honor▁2645
▁Code▁2646
▁decreas▁2647
▁walked▁2648
pack▁2649
▁Coke▁2650
▁refrigerator▁2651
grad▁2652
life▁2653
▁contrast▁2654
dollar▁2655
▁bill▁2656
▁disappear▁2657
▁third▁2658
▁Experiment▁2659
ken▁2660
▁12▁2661
▁exchange▁2662
▁intuition▁2663
▁pencil▁2664
▁compare▁2665
▁pet▁2666
▁cash▁2667
▁remove▁2668
▁element▁2669
▁examples▁2670
▁cause▁2671
paid▁2672
▁envelope▁2673
▁stoo▁2674
▁actor▁2675
▁sweat▁2676
shirt▁2677
▁wear▁2678
▁Carnegie▁2679
▁Mellon▁2680
▁Pittsburgh▁2681
▁universit▁2682
▁University▁2683
Y▁2684
▁norm▁2685
▁somebod▁2686
group▁2687
▁appropriate▁2688
▁awareness▁2689
▁remind▁2690
▁moralit▁2691
▁object▁2692
▁reality▁2693
▁distort▁2694
▁derivative▁2695
▁mortgage▁2696
back▁2697
▁secur▁2698
▁economics▁2699
▁private▁2700
▁No▁2701
▁Child▁2702
▁Left▁2703
▁Behind▁2704
▁remov▁2705
ie▁2706
▁consideration▁2707
▁Of▁2708
▁repeated▁2709
▁torture▁2710
felt▁2711
▁Give▁2712
▁check▁2713
▁willing▁2714
▁systematic▁2715
▁experimentation▁2716
▁McG▁2717
onig▁2718
▁multi▁2719
play▁2720
▁thumb▁2721
wrestl▁2722
▁connect▁2723
▁chaos▁2724
ultiplayer▁2725
▁player▁2726
▁joy▁2727
▁relief▁2728
▁pride▁2729
▁curiosity▁2730
▁excitement▁2731
▁content▁2732
▁span▁2733
▁volunteer▁2734
stage▁2735
▁Austria▁2736
▁named▁2737
▁Mo▁2738
noch▁2739
person▁2740
▁Sunni▁2741
▁declare▁2742
▁war▁2743
▁wrestle▁2744
▁beat▁2745
▁Eric▁2746
▁pin▁2747
▁someone▁2748
▁swoop▁2749
▁Ah▁2750
▁rule▁2751
▁typical▁2752
▁node▁2753
▁notice▁2754
▁involve▁2755
▁perfect▁2756
▁closed▁2757
▁1,500▁2758
▁connected▁2759
▁-▁2760
▁Thi▁2761
▁slides▁2762
▁advance▁2763
▁configuration▁2764
▁D▁2765
eath▁2766
▁Star▁2767
▁Con▁2768
figur▁2769
▁War▁2770
▁M▁2771
ö▁2772
bi▁2773
trip▁2774
▁geek▁2775
▁hardest▁2776
▁thirty▁2777
▁network▁2778
▁easi▁2779
▁free▁2780
▁sure▁2781
▁keep▁2782
▁excellen▁2783
▁bask▁2784
▁glow▁2785
▁recap▁2786
▁What▁2787
▁surprising▁2788
while▁2789
▁physical▁2790
▁shake▁2791
▁smiling▁2792
▁send▁2793
▁messages▁2794
▁email▁2795
tally▁2796
▁awesome▁2797
▁connection▁2798
▁hormone▁2799
xytocin▁2800
▁bond▁2801
▁biochemical▁2802
▁prime▁2803
▁emotion▁2804
▁scratch▁2805
▁congratulat▁2806
▁according▁2807
▁official▁2808
▁rules▁2809
▁grandmaster▁2810
▁accelerate▁2811
▁ches▁2812
▁ready▁2813
▁update▁2814
▁Twitter▁2815
▁Facebook▁2816
▁status▁2817
▁legendar▁2818
▁attention▁2819
▁weak▁2820
▁crazy▁2821
▁wo▁2822
oo▁2823
▁Tod▁2824
▁Mach▁2825
over▁2826
+▁2827
▁Ells▁2828
▁unlock▁2829
▁Media▁2830
▁Lab▁2831
▁devoted▁2832
▁extend▁2833
▁virtuoso▁2834
▁amateur▁2835
▁diverse▁2836
▁opera▁2837
▁games▁2838
▁composer▁2839
▁deal▁2840
▁means▁2841
▁Mozart▁2842
▁effect▁2843
▁uter▁2844
Q▁2845
▁add▁2846
▁engaged▁2847
▁hyper▁2848
instrument▁2849
▁Ma▁2850
▁Gabriel▁2851
▁Prince▁2852
▁orchestra▁2853
▁built▁2854
▁interpretation▁2855
▁cello▁2856
▁voice▁2857
▁fantastic▁2858
▁collection▁2859
▁Brain▁2860
▁Opera▁2861
▁natural▁2862
▁gesture▁2863
▁masse▁2864
▁melod▁2865
▁aura▁2866
▁invite▁2867
▁collaborate▁2868
▁tour▁2869
▁permanent▁2870
▁Vienn▁2871
▁museum▁2872
▁led▁2873
▁guitar▁2874
▁Her▁2875
▁proof▁2876
▁iceberg▁2877
▁Guitar▁2878
▁communicate▁2879
▁effects▁2880
▁Hyper▁2881
score▁2882
▁broader▁2883
▁fields▁2884
▁Oliver▁2885
▁Sack▁2886
▁Music▁2887
phil▁2888
ia▁2889
▁sale▁2890
▁bookstore▁2891
▁pianist▁2892
self▁2893
▁details▁2894
▁observ▁2895
▁unusual▁2896
▁instance▁2897
▁Alzheimer▁2898
▁recognize▁2899
▁anyone▁2900
▁shard▁2901
▁jump▁2902
▁chair▁2903
▁personalit▁2904
▁restore▁2905
▁stroke▁2906
▁movement▁2907
▁Parkinson▁2908
▁disease▁2909
▁schizophreni▁2910
▁Boston▁2911
▁Te▁2912
wksb▁2913
ury▁2914
▁Hospital▁2915
term▁2916
▁mental▁2917
▁disabilit▁2918
▁central▁2919
▁treatment▁2920
▁clam▁2921
ors▁2922
▁seem▁2923
▁brings▁2924
▁manipulat▁2925
▁paradoxical▁2926
▁nervous▁2927
sharing▁2928
haps▁2929
▁deeper▁2930
▁outside▁2931
▁Power▁2932
▁larger▁2933
▁man▁2934
▁forever▁2935
▁download▁2936
▁singer▁2937
▁character▁2938
▁leg▁2939
acy▁2940
▁alive▁2941
▁giganti▁2942
handel▁2943
ier▁2944
▁prototype▁2945
▁piano▁2946
▁string▁2947
▁bow▁2948
▁propeller▁2949
▁tickle▁2950
▁acoustic▁2951
▁signals▁2952
▁vibrate▁2953
▁army▁2954
▁robots▁2955
▁intermediar▁2956
▁Simon▁2957
▁Greek▁2958
▁chorus▁2959
▁observe▁2960
▁action▁2961
Bot▁2962
▁smart▁2963
▁bump▁2964
▁snap▁2965
▁cube▁2966
▁System▁2967
▁walls▁2968
▁represent▁2969
▁LED▁2970
▁spine▁2971
it▁2972
▁James▁2973
▁Mad▁2974
dale▁2975
na▁2976
▁sneak▁2977
▁preview▁2978
▁premier▁2979
▁Mona▁2980
▁September▁2981
▁online▁2982
▁grand▁2983
cell▁2984
▁squeez▁2985
▁stay▁2986
▁skillful▁2987
▁Adam▁2988
▁B▁2989
lange▁2990
▁Ph▁2991
▁thanks▁2992
▁Bomba▁2993
▁Fl▁2994
ex▁2995
jet▁2996
▁resident▁2997
ray▁2998
▁motivate▁2999
▁hi▁3000
▁hello▁3001
▁name▁3002
erebral▁3003
▁pal▁3004
▁conduct▁3005
▁software▁3006
▁met▁3007
▁shy▁3008
▁constant▁3009
▁collaborator▁3010
▁CD▁3011
▁mentor▁3012
▁local▁3013
▁expert▁3014
▁nuance▁3015
▁precis▁3016
▁disability▁3017
▁engineering▁3018
▁solution▁3019
▁Fire▁3020
W▁3021
ire▁3022
▁infrar▁3023
▁metaphor▁3024
▁controller▁3025
▁input▁3026
▁cod▁3027
▁shoulder▁3028
▁extensive▁3029
▁expressive▁3030
▁motion▁3031
▁convey▁3032
▁parameter▁3033
▁fitting▁3034
▁stretch▁3035
▁fit▁3036
▁shift▁3037
▁express▁3038
▁relationship▁3039
▁lack▁3040
▁technological▁3041
▁sphere▁3042
▁path▁3043
▁TM▁3044
▁My▁3045
▁Eagle▁3046
▁Song▁3047
▁score▁3048
▁compose▁3049
▁fast▁3050
▁modest▁3051
▁section▁3052
▁bang▁3053
▁analyze▁3054
▁visual▁3055
▁literal▁3056
▁trac▁3057
▁graphic▁3058
▁precise▁3059
▁discipline▁3060
▁hearing▁3061
▁AB▁3062
▁yea▁3063
▁Byr▁3064
▁architecture▁3065
▁evolve▁3066
▁CB▁3067
GB▁3068
▁Hall▁3069
venue▁3070
▁outdoor▁3071
▁drum▁3072
▁Wagner▁3073
▁arena▁3074
▁remarkabl▁3075
▁uneven▁3076
▁Head▁3077
▁anyway▁3078
)▁3079
▁So▁3080
▁lyric▁3081
▁decent▁3082
▁reverberat▁3083
▁intact▁3084
▁To▁3085
ot▁3086
sie▁3087
▁Or▁3088
chi▁3089
▁Lo▁3090
ung▁3091
▁Nash▁3092
ville▁3093
▁client▁3094
le▁3095
▁volume▁3096
▁overcom▁3097
▁fall▁3098
▁shout▁3099
▁nice▁3100
▁Disney▁3101
▁sometimes▁3102
▁hall▁3103
▁specific▁3104
▁Africa▁3105
▁popular▁3106
▁roots▁3107
▁intricate▁3108
▁confuse▁3109
▁amplification▁3110
▁etc▁3111
▁accident▁3112
▁mess▁3113
▁cathedral▁3114
▁flatter▁3115
▁Bach▁3116
▁keys▁3117
▁dissonance▁3118
▁17▁3119
70▁3120
▁rever▁3121
ber▁3122
▁fr▁3123
il▁3124
▁La▁3125
▁Scal▁3126
7▁3127
▁yell▁3128
▁eat▁3129
▁drink▁3130
ria▁3131
▁hol▁3132
core▁3133
▁bomb▁3134
▁pit▁3135
▁fair▁3136
▁Alex▁3137
▁Ross▁3138
▁New▁3139
orker▁3140
▁quiet▁3141
▁eating▁3142
▁gossip▁3143
▁combine▁3144
▁drown▁3145
ural▁3146
▁Mahl▁3147
▁Bob▁3148
▁Dylan▁3149
▁jazz▁3150
▁Scott▁3151
▁Jo▁3152
plin▁3153
▁river▁3154
boat▁3155
▁nois▁3156
▁dancer▁3157
▁Play▁3158
▁improvise▁3159
▁Latin▁3160
▁primary▁3161
▁microphone▁3162
▁musician▁3163
▁radio▁3164
ina▁3165
tra▁3166
▁mic▁3167
▁Ch▁3168
▁Baker▁3169
▁ear▁3170
▁electric▁3171
▁diverge▁3172
▁disco▁3173
que▁3174
ke▁3175
box▁3176
▁bars▁3177
▁hip▁3178
hop▁3179
▁loop▁3180
▁stadium▁3181
basketball▁3182
▁hockey▁3183
▁medium▁3184
speed▁3185
▁ball▁3186
ad▁3187
tempo▁3188
▁automobile▁3189
▁frequenc▁3190
▁bass▁3191
▁stuck▁3192
▁MP▁3193
▁presum▁3194
▁Christian▁3195
▁African▁3196
▁blast▁3197
▁passage▁3198
▁pop▁3199
▁exten▁3200
▁creation▁3201
▁adaptation▁3202
▁anywhere▁3203
▁Attenborough▁3204
▁birds▁3205
folia▁3206
ge▁3207
tched▁3208
▁repetitive▁3209
▁forest▁3210
▁Sa▁3211
van▁3212
nah▁3213
▁spa▁3214
row▁3215
▁buzz▁3216
▁efficient▁3217
▁practical▁3218
▁transmit▁3219
▁savanna▁3220
▁tan▁3221
ang▁3222
▁East▁3223
▁Coast▁3224
▁den▁3225
▁west▁3226
▁primari▁3227
▁galler▁3228
▁evolutionary▁3229
▁adaptive▁3230
▁pleasure▁3231
▁reverse▁3232
▁Roman▁3233
tic▁3234
ur▁3235
▁vessel▁3236
▁pour▁3237
▁instinctive▁3238
▁intuitive▁3239
▁conflict▁3240
▁views▁3241
▁writer▁3242
▁Thom▁3243
▁voter▁3244
▁vote▁3245
▁assume▁3246
▁gut▁3247
▁authentic▁3248
▁fake▁3249
▁mutual▁3250
▁exclusive▁3251
▁needs▁3252
▁Ron▁3253
▁Ed▁3254
ry▁3255
▁Iran▁3256
▁March▁3257
▁14▁3258
▁post▁3259
▁poster▁3260
▁image▁3261
▁Israeli▁3262
▁flag▁3263
▁grocer▁3264
▁owner▁3265
▁10,000▁3266
▁missile▁3267
▁designer▁3268
▁sleep▁3269
▁night▁3270
▁woke▁3271
▁w▁3272
aking▁3273
▁neighbor▁3274
▁girl▁3275
▁cry▁3276
▁wife▁3277
▁reflex▁3278
▁shoot▁3279
▁unleash▁3280
▁dude▁3281
▁Make▁3282
▁intense▁3283
▁designers▁3284
▁lots▁3285
▁spread▁3286
way▁3287
▁Israelis▁3288
▁verge▁3289
▁Middle▁3290
▁Okay▁3291
▁Mich▁3292
▁asking▁3293
▁Who▁3294
nna▁3295
▁Palestine▁3296
▁Syria▁3297
▁Leban▁3298
▁Chinese▁3299
▁popped▁3300
▁logo▁3301
L▁3302
ov▁3303
Israel▁3304
ehran▁3305
▁dedicat▁3306
▁friend▁3307
typing▁3308
I▁3309
,8▁3310
▁photos▁3311
▁perceive▁3312
membran▁3313
▁soldier▁3314
▁putting▁3315
▁respect▁3316
▁compassion▁3317
▁Mu▁3318
ich▁3319
▁ex▁3320
position▁3321
▁France▁3322
▁arrive▁3323
▁stress▁3324
▁Not▁3325
▁plus▁3326
/▁3327
▁minus▁3328
▁aggressiv▁3329
▁amazing▁3330
▁41▁3331
▁naive▁3332
eah▁3333
▁flowers▁3334
▁para▁3335
tro▁3336
oper▁3337
▁courage▁3338
▁inevitabl▁3339
▁avoid▁3340
▁es▁3341
pecial▁3342
▁ambassador▁3343
▁Charles▁3344
▁Moore▁3345
▁seas▁3346
▁plastic▁3347
gali▁3348
▁Marine▁3349
▁R▁3350
esearch▁3351
▁Foundation▁3352
arbage▁3353
▁Pat▁3354
▁endless▁3355
▁floating▁3356
▁trash▁3357
▁drawing▁3358
▁chok▁3359
▁debri▁3360
ounce▁3361
▁ethic▁3362
▁Depression▁3363
▁II▁3364
▁production▁3365
▁capacity▁3366
▁products▁3367
▁Magazine▁3368
▁announc▁3369
▁introduction▁3370
▁throwaway▁3371
▁liberat▁3372
wi▁3373
fe▁3374
▁dr▁3375
ud▁3376
ger▁3377
▁dishe▁3378
▁biodegrad▁3379
▁recycle▁3380
five▁3381
percent▁3382
▁recover▁3383
▁stream▁3384
point▁3385
quat▁3386
▁melt▁3387
▁pur▁3388
▁glass▁3389
▁metal▁3390
▁contaminant▁3391
▁sponge▁3392
▁thermal▁3393
▁pellet▁3394
track▁3395
ru▁3396
▁fraction▁3397
▁accumulation▁3398
▁Bio▁3399
Creek▁3400
▁L▁3401
A▁3402
▁airport▁3403
flo▁3404
sam▁3405
▁California▁3406
▁Long▁3407
▁Beach▁3408
▁diese▁3409
▁plant▁3410
▁visit▁3411
▁yester▁3412
▁spite▁3413
▁deposit▁3414
▁fee▁3415
▁leading▁3416
▁beverage▁3417
▁bottle▁3418
▁present▁3419
▁Jordan▁3420
▁document▁3421
▁mass▁3422
▁zoom▁3423
▁remote▁3424
▁island▁3425
ory▁3426
▁coast▁3427
▁Ba▁3428
ja▁3429
la▁3430
▁Ro▁3431
▁uninhabit▁3432
▁bird▁3433
ook▁3434
▁sparse▁3435
▁populate▁3436
▁poly▁3437
len▁3438
ter▁3439
ep▁3440
ht▁3441
hal▁3442
▁PET▁3443
▁sink▁3444
▁seawater▁3445
▁civilization▁3446
▁separate▁3447
▁factories▁3448
pro▁3449
▁unfortunate▁3450
▁trace▁3451
▁straight▁3452
▁current▁3453
▁latitude▁3454
bo▁3455
▁Luca▁3456
▁Eastern▁3457
▁litter▁3458
▁Philippine▁3459
▁emerg▁3460
▁zone▁3461
▁Gyr▁3462
lbatross▁3463
▁nest▁3464
▁Ku▁3465
▁Mid▁3466
to▁3467
▁Northwest▁3468
▁Hawaiian▁3469
▁Islands▁3470
▁National▁3471
▁Monument▁3472
▁scaveng▁3473
gur▁3474
gi▁3475
▁chick▁3476
month▁3477
▁stomach▁3478
▁goose▁3479
▁dying▁3480
▁rubb▁3481
ish▁3482
▁cigarette▁3483
▁lighter▁3484
▁mistake▁3485
▁retain▁3486
▁rings▁3487
▁consequences▁3488
quatic▁3489
▁zoo▁3490
▁Orleans▁3491
▁town▁3492
▁contribut▁3493
▁Clean▁3494
Up▁3495
▁Day▁3496
▁Pe▁3497
ninsula▁3498
▁east▁3499
▁cleaned▁3500
▁sw▁3501
ath▁3502
▁1,1▁3503
00▁3504
▁bucks▁3505
ab▁3506
llo▁3507
▁Aquarium▁3508
▁Pedr▁3509
▁governor▁3510
▁Schwarzen▁3511
gger▁3512
▁Maria▁3513
▁discuss▁3514
▁crochet▁3515
▁bag▁3516
▁sho▁3517
oplankton▁3518
▁trawl▁3519
▁gyr▁3520
▁Hawaii▁3521
▁plankton▁3522
▁soup▁3523
▁wash▁3524
▁Ka▁3525
ua▁3526
▁president▁3527
▁contain▁3528
▁millimeter▁3529
third▁3530
▁concentrate▁3531
▁persistent▁3532
▁pollutant▁3533
▁surrounding▁3534
▁base▁3535
▁chain▁3536
▁poison▁3537
▁ne▁3538
crop▁3539
▁pollut▁3540
hold▁3541
and▁3542
half▁3543
▁84▁3544
▁certifi▁3545
▁sell▁3546
▁wild▁3547
▁leaving▁3548
gone▁3549
▁maintain▁3550
▁fix▁3551
▁horses▁3552
▁men▁3553
▁gather▁3554
▁narrat▁3555
▁packag▁3556
▁proliferat▁3557
▁anchor▁3558
▁strain▁3559
▁budget▁3560
▁unto▁3561
▁source▁3562
▁land▁3563
rapped▁3564
▁package▁3565
▁Brian▁3566
▁Night▁3567
line▁3568
▁Carol▁3569
▁Steel▁3570
▁cities▁3571
▁meal▁3572
▁architect▁3573
▁da▁3574
ily▁3575
▁miracle▁3576
▁feeding▁3577
▁ancient▁3578
▁route▁3579
▁modern▁3580
▁feed▁3581
▁rare▁3582
▁shop▁3583
▁restaurant▁3584
▁fo▁3585
▁magical▁3586
▁transport▁3587
▁sold▁3588
▁cook▁3589
▁dispos▁3590
▁earth▁3591
dependent▁3592
▁ancestor▁3593
▁soybean▁3594
▁Gross▁3595
▁Brazil▁3596
▁meat▁3597
▁grain▁3598
▁globally▁3599
▁escalat▁3600
50▁3601
▁estimate▁3602
▁twice▁3603
ir▁3604
▁consume▁3605
▁urbanis▁3606
rising▁3607
▁pose▁3608
▁hungry▁3609
iv▁3610
▁carry▁3611
▁nineteen▁3612
▁hectare▁3613
▁losing▁3614
▁equivalent▁3615
▁sa▁3616
lin▁3617
▁er▁3618
▁fossil▁3619
▁fuel▁3620
▁calorie▁3621
▁USA▁3622
▁proper▁3623
▁obes▁3624
▁star▁3625
▁none▁3626
▁trade▁3627
▁multinational▁3628
▁corporations▁3629
▁grim▁3630
▁embrac▁3631
▁unsustainabl▁3632
▁Fer▁3633
escent▁3634
▁crescen▁3635
▁fertil▁3636
▁inventions▁3637
▁agricultur▁3638
▁bound▁3639
▁settlement▁3640
▁compact▁3641
▁surround▁3642
▁productive▁3643
▁farm▁3644
▁temple▁3645
▁Ur▁3646
▁effective▁3647
▁spiritual▁3648
▁distribution▁3649
▁gods▁3650
▁famous▁3651
▁Rome▁3652
▁import▁3653
▁roads▁3654
▁wage▁3655
▁Car▁3656
▁Egypt▁3657
▁paw▁3658
▁reserve▁3659
▁Empire▁3660
▁militari▁3661
▁sp▁3662
▁mention▁3663
▁oyster▁3664
▁hinter▁3665
industrial▁3666
▁map▁3667
ham▁3668
▁south▁3669
ap▁3670
side▁3671
read▁3672
▁Street▁3673
ga▁3674
ite▁3675
19▁3676
80▁3677
▁wandering▁3678
▁smell▁3679
▁port▁3680
▁establish▁3681
▁northwest▁3682
▁Scot▁3683
▁Wales▁3684
▁arriv▁3685
field▁3686
▁locate▁3687
▁po▁3688
ult▁3689
▁An▁3690
gli▁3691
▁northeast▁3692
▁protected▁3693
▁canvas▁3694
▁eastern▁3695
▁industrial▁3696
▁clue▁3697
▁Friday▁3698
▁previous▁3699
30▁3700
aware▁3701
▁Sunday▁3702
▁mo▁3703
ble▁3704
ating▁3705
▁earlie▁3706
40▁3707
▁passenger▁3708
▁pig▁3709
▁sheep▁3710
▁slaughter▁3711
▁constrain▁3712
▁geograph▁3713
▁em▁3714
ip▁3715
▁trains▁3716
▁blob▁3717
▁cars▁3718
▁marks▁3719
▁apparent▁3720
void▁3721
▁dreamed▁3722
▁drove▁3723
▁outskirt▁3724
▁core▁3725
▁peripher▁3726
▁event▁3727
▁egg▁3728
▁cake▁3729
▁label▁3730
▁packet▁3731
▁harder▁3732
▁500▁3733
▁More▁3734
is▁3735
piece▁3736
▁Utopia▁3737
▁semi▁3738
state▁3739
▁remotely▁3740
▁farming▁3741
▁vegetable▁3742
▁garden▁3743
▁fundamental▁3744
▁Ebene▁3745
zer▁3746
▁Garden▁3747
▁City▁3748
▁metropolitan▁3749
▁railway▁3750
▁deliberate▁3751
▁joke▁3752
▁der▁3753
▁ideal▁3754
▁imagin▁3755
▁conceptual▁3756
▁tool▁3757
▁dwell▁3758
topia▁3759
os▁3760
▁slide▁3761
▁dog▁3762
▁plan▁3763
▁stare▁3764
▁pile▁3765
▁raw▁3766
▁networks▁3767
▁grown▁3768
um▁3769
▁commodity▁3770
▁uns▁3771
hole▁3772
▁cows▁3773
▁steam▁3774
▁hum▁3775
ronto▁3776
▁greenhouse▁3777
▁Kev▁3778
▁belonging▁3779
▁reconnect▁3780
▁recogniz▁3781
▁trick▁3782
productive▁3783
▁framework▁3784
▁symbiotic▁3785
culture▁3786
▁sum▁3787
con▁3788
ual▁3789
▁650▁3790
▁Am▁3791
ogi▁3792
Lorenz▁3793
etti▁3794
▁Alle▁3795
go▁3796
▁Good▁3797
▁Government▁3798
▁alle▁3799
▁urgent▁3800
di▁3801
▁Reader▁3802
▁Kit▁3803
▁Hill▁3804
▁songwrit▁3805
▁tender▁3806
▁Dolby▁3807
▁Martin▁3808
▁Evan▁3809
▁Bo▁3810
ine▁3811
▁invit▁3812
▁blessing▁3813
am▁3814
irstream▁3815
▁rest▁3816
led▁3817
▁2002▁3818
▁American▁3819
▁trailer▁3820
▁Wilson▁3821
art▁3822
▁International▁3823
▁laminate▁3824
▁company▁3825
▁booth▁3826
▁exhibition▁3827
▁Fu▁3828
ure▁3829
▁Fair▁3830
ork▁3831
▁interior▁3832
▁furniture▁3833
▁portray▁3834
▁contemporar▁3835
erkeley▁3836
▁stepp▁3837
▁optimize▁3838
istic▁3839
▁fashion▁3840
▁disconnect▁3841
terior▁3842
▁conceive▁3843
▁lightweight▁3844
▁futurist▁3845
tech▁3846
▁freeway▁3847
▁sync▁3848
▁reference▁3849
▁cabin▁3850
▁crisis▁3851
▁vocabular▁3852
▁escape▁3853
▁archeolog▁3854
▁feels▁3855
▁utilit▁3856
▁stripped▁3857
vinyl▁3858
ola▁3859
▁alumin▁3860
visible▁3861
▁tri▁3862
drew▁3863
▁mock▁3864
▁card▁3865
▁cut▁3866
▁mobil▁3867
▁logical▁3868
▁ceiling▁3869
▁compound▁3870
▁highlight▁3871
▁bend▁3872
▁dimensions▁3873
▁curve▁3874
▁devise▁3875
▁fool▁3876
▁eye▁3877
▁believ▁3878
▁panels▁3879
▁skin▁3880
▁geometr▁3881
work▁3882
▁rewire▁3883
▁chase▁3884
▁commission▁3885
▁Designer▁3886
▁Block▁3887
▁events▁3888
▁Octo▁3889
uo▁3890
▁Kur▁3891
aki▁3892
▁Idee▁3893
▁ship▁3894
▁blank▁3895
▁scenario▁3896
▁DJ▁3897
table▁3898
▁fridge▁3899
▁integrat▁3900
idio▁3901
rat▁3902
▁migrate▁3903
▁consult▁3904
▁skateboard▁3905
▁surfer▁3906
▁climber▁3907
▁Bambi▁3908
▁Final▁3909
▁oh▁3910
▁mold▁3911
▁facilit▁3912
▁dilemma▁3913
built▁3914
scribe▁3915
▁unique▁3916
▁16▁3917
▁Elli▁3918
▁Kran▁3919
▁mystery▁3920
▁symptom▁3921
▁feedback▁3922
▁terrifying▁3923
raine▁3924
▁nightmare▁3925
▁pediatrician▁3926
nesthesiologist▁3927
▁management▁3928
Packard▁3929
hildren▁3930
▁Stanford▁3931
▁Palo▁3932
▁Alto▁3933
▁tumor▁3934
▁infection▁3935
▁operation▁3936
▁persist▁3937
▁str▁3938
▁feather▁3939
▁please▁3940
▁seat▁3941
▁torch▁3942
▁Chandler▁3943
▁whom▁3944
▁photograph▁3945
▁aspire▁3946
▁rehearsal▁3947
▁fell▁3948
▁trivial▁3949
▁wrap▁3950
▁ACE▁3951
ibu▁3952
prof▁3953
▁clinic▁3954
color▁3955
▁cadaver▁3956
frozen▁3957
▁paralyz▁3958
onic▁3959
▁fingertip▁3960
▁elbow▁3961
▁spontaneous▁3962
▁24▁3963
nia▁3964
▁phenomeno▁3965
▁illustrate▁3966
▁sleeve▁3967
▁gar▁3968
▁excruciating▁3969
▁burning▁3970
▁mis▁3971
▁innocent▁3972
vo▁3973
▁wir▁3974
▁switch▁3975
junction▁3976
▁bulb▁3977
▁hammer▁3978
▁nerve▁3979
▁spin▁3980
▁cord▁3981
▁conscious▁3982
▁complicated▁3983
▁releas▁3984
▁brown▁3985
neurotransmitter▁3986
▁linear▁3987
▁spill▁3988
▁vertical▁3989
▁adjacen▁3990
important▁3991
▁structural▁3992
▁elements▁3993
▁vital▁3994
▁role▁3995
ulation▁3996
▁distortion▁3997
▁sensory▁3998
▁activate▁3999
▁DNA▁4000
▁synthesize▁4001
▁protein▁4002
▁forth▁4003
▁toilet▁4004
▁flush▁4005
▁doors▁4006
▁dish▁4007
wash▁4008
▁monitor▁4009
▁plasticity▁4010
▁morph▁4011
▁response▁4012
▁stimul▁4013
ifying▁4014
▁drugs▁4015
kill▁4016
▁frank▁4017
▁anesthetic▁4018
▁rigorous▁4019
▁uncomfortabl▁4020
▁therap▁4021
▁occupation▁4022
train▁4023
▁intensive▁4024
▁psychotherap▁4025
▁address▁4026
nden▁4027
cy▁4028
▁despair▁4029
▁accompani▁4030
▁severe▁4031
▁flip▁4032
▁college▁4033
▁absolute▁4034
▁prophet▁4035
▁George▁4036
▁Carl▁4037
▁Kris▁4038
j▁4039
▁law▁4040
▁gorgeous▁4041
▁dose▁4042
▁PR▁4043
▁moon▁4044
▁myth▁4045
▁legend▁4046
▁marked▁4047
▁monster▁4048
▁exploration▁4049
▁discoveries▁4050
fa▁4051
▁monstro▁4052
▁env▁4053
IUC▁4054
N▁4055
▁Madagas▁4056
car▁4057
▁se▁4058
amount▁4059
▁legal▁4060
▁exploit▁4061
▁cast▁4062
dated▁4063
▁assumption▁4064
▁pioneer▁4065
▁govern▁4066
▁root▁4067
wide▁4068
▁precaution▁4069
▁scar▁4070
▁notion▁4071
▁carbon▁4072
▁stor▁4073
▁heat▁4074
▁36▁4075
▁confront▁4076
▁laws▁4077
▁shipp▁4078
▁protection▁4079
▁shore▁4080
▁garbage▁4081
▁discharge▁4082
regulat▁4083
▁patch▁4084
Tex▁4085
▁pollution▁4086
▁dilut▁4087
▁Eli▁4088
▁Ostro▁4089
requisite▁4090
▁bind▁4091
▁monitoring▁4092
▁enforce▁4093
▁verify▁4094
▁doom▁4095
▁gloom▁4096
▁photographer▁4097
▁states▁4098
▁tragic▁4099
▁trajector▁4100
▁destroy▁4101
▁coral▁4102
▁save▁4103
▁fate▁4104
▁basement▁4105
▁Nations▁4106
▁fisher▁4107
▁regime▁4108
▁prior▁4109
▁duty▁4110
▁prevent▁4111
▁significant▁4112
▁harm▁4113
▁progress▁4114
kilometer▁4115
▁Sylvia▁4116
▁leverage▁4117
▁hopeful▁4118
cycle▁4119
▁turtle▁4120
▁sampl▁4121
▁flavor▁4122
▁Sargasso▁4123
▁Sea▁4124
argassum▁4125
▁aggregate▁4126
▁spawn▁4127
▁eel▁4128
▁Northern▁4129
▁European▁4130
▁rivers▁4131
▁dwindl▁4132
▁Stock▁4133
holm▁4134
▁Februar▁4135
▁200,000▁4136
ggregat▁4137
▁lay▁4138
▁eggs▁4139
▁launch▁4140
▁initiative▁4141
▁thus▁4142
▁Bermuda▁4143
▁jurisdiction▁4144
▁spearhead▁4145
▁spinn▁4146
place▁4147
▁cooler▁4148
▁South▁4149
ern▁4150
▁Ocean▁4151
▁bay▁4152
▁territor▁4153
ial▁4154
▁claim▁4155
▁summer▁4156
phy▁4157
▁kri▁4158
ho▁4159
▁CC▁4160
ML▁4161
▁regional▁4162
▁charge▁4163
conserv▁4164
▁marine▁4165
▁authoriz▁4166
▁tooth▁4167
fish▁4168
▁captain▁4169
▁Zealand▁4170
▁decline▁4171
▁killer▁4172
▁whale▁4173
▁Antarctic▁4174
li▁4175
mit▁4176
▁Cost▁4177
▁Rica▁4178
▁Dome▁4179
round▁4180
▁winter▁4181
▁oceanograph▁4182
▁shifts▁4183
▁seasonal▁4184
▁basis▁4185
▁identify▁4186
▁vulnerabl▁4187
▁Galapagos▁4188
▁headed▁4189
▁Tropic▁4190
▁coordinat▁4191
▁Conservati▁4192
▁H▁4193
eritage▁4194
▁Convention▁4195
▁qualify▁4196
▁adopt▁4197
▁urge▁4198
▁Hal▁4199
▁hook▁4200
catch▁4201
▁Tag▁4202
ging▁4203
▁Predator▁4204
ensus▁4205
▁Life▁4206
water▁4207
▁ba▁4208
▁kilometer▁4209
▁treasure▁4210
▁culminat▁4211
▁tun▁4212
▁tagg▁4213
▁pac▁4214
if▁4215
▁predator▁4216
▁column▁4217
▁cucumber▁4218
▁fortunate▁4219
▁reveal▁4220
▁workshop▁4221
▁sufficient▁4222
▁hotspot▁4223
▁outer▁4224
▁trans▁4225
▁date▁4226
▁rocket▁4227
▁mandate▁4228
▁privilege▁4229
home▁4230
▁avert▁4231
▁traged▁4232
▁collision▁4233
▁broad▁4234
▁marvel▁4235
light▁4236
▁previously▁4237
▁unknown▁4238
▁stake▁4239
▁communit▁4240
ng▁4241
▁Earle▁4242
▁penetrate▁4243
▁obstacle▁4244
▁sustainabl▁4245
▁Bruc▁4246
▁Ayl▁4247
▁polio▁4248
▁eradicat▁4249
▁vaccine▁4250
▁terrifi▁4251
▁panic▁4252
▁lung▁4253
▁breathe▁4254
▁breath▁4255
▁cure▁4256
▁twenty▁4257
▁hail▁4258
▁1950▁4259
▁awful▁4260
▁month▁4261
▁Jon▁4262
pox▁4263
▁oops▁4264
▁partnership▁4265
▁sides▁4266
▁globe▁4267
▁outbreak▁4268
▁sequenc▁4269
▁viruses▁4270
▁originate▁4271
▁commercial▁4272
▁Russia▁4273
▁crippl▁4274
▁devastating▁4275
▁explosive▁4276
yelit▁4277
▁Polio▁4278
▁Partner▁4279
free▁4280
▁lucky▁4281
▁armor▁4282
▁vaccines▁4283
▁capital▁4284
▁risks▁4285
▁humanitarian▁4286
▁congress▁4287
▁26▁4288
▁vaccination▁4289
▁deteriorat▁4290
▁tropic▁4291
▁vi▁4292
▁expos▁4293
▁potent▁4294
rash▁4295
▁vaccinate▁4296
▁multiple▁4297
▁peak▁4298
vaccin▁4299
ator▁4300
long▁4301
▁urban▁4302
▁trek▁4303
welt▁4304
▁dodg▁4305
▁bullet▁4306
▁operate▁4307
▁shak▁4308
▁cease▁4309
fire▁4310
▁reporter▁4311
▁Somalia▁4312
infect▁4313
▁road▁4314
▁unfold▁4315
▁foreign▁4316
▁aid▁4317
▁heroes▁4318
▁Rot▁4319
trong▁4320
▁infrastructure▁4321
▁striking▁4322
▁rapid▁4323
▁exception▁4324
▁199▁4325
▁worldwide▁4326
▁99▁4327
▁reduction▁4328
▁1,000▁4329
▁pandemic▁4330
▁flu▁4331
▁SARS▁4332
▁vitamin▁4333
les▁4334
▁malaria▁4335
▁irre▁4336
spective▁4337
▁northern▁4338
▁India▁4339
▁Nigeria▁4340
▁causing▁4341
▁horrific▁4342
▁decades▁4343
▁tenaci▁4344
▁reservoir▁4345
▁grip▁4346
▁frustration▁4347
▁voices▁4348
▁Hang▁4349
▁abandon▁4350
▁settle▁4351
▁seductive▁4352
▁false▁4353
▁premise▁4354
▁Umar▁4355
▁brothers▁4356
▁beating▁4357
▁crutch▁4358
▁rhyme▁4359
▁exceptional▁4360
▁circumstance▁4361
▁strike▁4362
▁drag▁4363
▁families▁4364
▁desperate▁4365
▁saving▁4366
▁va▁4367
▁deserve▁4368
▁buck▁4369
▁missing▁4370
▁mapping▁4371
▁guide▁4372
▁shelter▁4373
▁K▁4374
oshi▁4375
▁River▁4376
▁Muslim▁4377
▁logistic▁4378
▁devices▁4379
GI▁4380
▁carrier▁4381
▁street▁4382
▁commitment▁4383
▁approache▁4384
ommittee▁4385
▁Cross▁4386
▁tactic▁4387
▁50-▁4388
▁Jun▁4389
▁nin▁4390
changer▁4391
▁roll▁4392
▁southern▁4393
rserk▁4394
▁storm▁4395
▁500,000▁4396
ttar▁4397
▁Pr▁4398
adesh▁4399
▁Bi▁4400
har▁4401
▁sanit▁4402
▁95▁4403
▁ladies▁4404
▁gentlem▁4405
▁combination▁4406
▁secondar▁4407
▁stark▁4408
▁reminder▁4409
▁failing▁4410
▁justice▁4411
izing▁4412
▁enthusias▁4413
▁Cameron▁4414
ingdom▁4415
▁There▁4416
▁crossroad▁4417
▁resolve▁4418
▁blink▁4419
▁lose▁4420
▁momentum▁4421
▁Gates▁4422
▁smartest▁4423
▁corner▁4424
▁border▁4425
▁Pakistan▁4426
▁BG▁4427
▁750▁4428
▁800▁4429
▁corners▁4430
▁genero▁4431
▁luck▁4432
▁Tony▁4433
▁Port▁4434
▁TEDWomen▁4435
▁boys▁4436
▁disrespect▁4437
▁mist▁4438
at▁4439
▁abuse▁4440
▁Harlem▁4441
▁Bronx▁4442
▁ingredient▁4443
▁doubt▁4444
▁twist▁4445
▁deconstruct▁4446
▁redefin▁4447
hood▁4448
▁Kendal▁4449
▁Jay▁4450
▁Ta▁4451
▁busy▁4452
▁whip▁4453
▁boom▁4454
▁knee▁4455
not▁4456
ddy▁4457
▁clock▁4458
▁guideline▁4459
▁defin▁4460
▁Just▁4461
▁brother▁4462
▁Henry▁4463
▁burial▁4464
▁Island▁4465
▁prepar▁4466
▁bathroom▁4467
▁folks▁4468
▁ride▁4469
▁lim▁4470
▁empti▁4471
▁burst▁4472
▁sticks▁4473
▁apolog▁4474
▁prop▁4475
▁lift▁4476
▁hostage▁4477
▁How▁4478
▁coach▁4479
▁mad▁4480
▁angry▁4481
▁girls▁4482
▁inner▁4483
▁Johnny▁4484
▁younger▁4485
▁hanging▁4486
▁16-▁4487
▁heroin▁4488
▁overdose▁4489
▁grandmother▁4490
▁fine▁4491
▁sex▁4492
stair▁4493
▁Anthon▁4494
▁opens▁4495
▁Do▁4496
▁jeopard▁4497
▁dear▁4498
▁secre▁4499
▁sexual▁4500
▁neighborhood▁4501
heila▁4502
▁nude▁4503
▁ill▁4504
function▁4505
▁inappropriate▁4506
▁raped▁4507
▁offering▁4508
▁bust▁4509
▁zip▁4510
▁pant▁4511
▁behold▁4512
▁remorse▁4513
▁tremendous▁4514
▁property▁4515
▁equation▁4516
ification▁4517
▁epidemic▁4518
broad▁4519
▁adhere▁4520
▁Stan▁4521
▁McChr▁4522
ystal▁4523
▁Four▁4524
star▁4525
▁leadership▁4526
▁failure▁4527
▁Tue▁4528
▁parachute▁4529
▁Fort▁4530
▁routine▁4531
▁training▁4532
▁27▁4533
▁Army▁4534
▁refresh▁4535
▁budd▁4536
10▁4537
▁strap▁4538
▁heavy▁4539
uck▁4540
ack▁4541
master▁4542
NC▁4543
O▁4544
▁adjust▁4545
▁tight▁4546
▁chest▁4547
▁octave▁4548
▁load▁4549
▁lumber▁4550
▁Air▁4551
▁Force▁4552
▁command▁4553
▁warning▁4554
▁boost▁4555
▁Get▁4556
▁Out▁4557
nel▁4558
▁static▁4559
▁additional▁4560
▁flowing▁4561
om▁4562
▁slip▁4563
stream▁4564
▁lock▁4565
▁position▁4566
born▁4567
▁hypothesis▁4568
▁opening▁4569
▁thrill▁4570
▁prepare▁4571
▁delay▁4572
▁pretend▁4573
▁steer▁4574
▁teache▁4575
▁calv▁4576
▁thigh▁4577
buttock▁4578
▁30-▁4579
some▁4580
melon▁4581
▁eternal▁4582
▁combat▁4583
▁2001▁4584
zone▁4585
▁soldiers▁4586
▁theoretical▁4587
▁46▁4588
▁br▁4589
ig▁4590
adi▁4591
▁Robert▁4592
▁Lee▁4593
▁John▁4594
▁Bu▁4595
ford▁4596
▁Getty▁4597
sburg▁4598
▁Vietnam▁4599
▁wise▁4600
▁brave▁4601
▁faithful▁4602
▁comrade▁4603
▁bunch▁4604
▁battalion▁4605
▁commander▁4606
▁conversation▁4607
▁march▁4608
▁chew▁4609
▁interaction▁4610
▁Training▁4611
▁Center▁4612
▁dawn▁4613
▁depart▁4614
▁battle▁4615
▁humiliation▁4616
▁snake▁4617
▁belly▁4618
▁wag▁4619
▁apologize▁4620
▁sentence▁4621
▁lifted▁4622
▁fail▁4623
▁9▁4624
▁Br▁4625
▁Gen▁4626
▁scrutin▁4627
▁sensitivit▁4628
▁dispers▁4629
▁technique▁4630
▁tele▁4631
ference▁4632
▁chat▁4633
▁22▁4634
▁versa▁4635
▁coordinate▁4636
▁location▁4637
▁intelligence▁4638
▁electronic▁4639
▁mission▁4640
▁rebuild▁4641
▁senior▁4642
▁requirement▁4643
▁steel▁4644
▁knuckle▁4645
▁fist▁4646
▁exoti▁4647
▁weapons▁4648
▁handshak▁4649
▁consensu▁4650
▁Ranger▁4651
pla▁4652
oon▁4653
▁Taliban▁4654
▁grenade▁4655
▁Where▁4656
▁wind▁4657
blown▁4658
▁Afghan▁4659
▁sixth▁4660
▁grade▁4661
▁digital▁4662
version▁4663
▁leader▁4664
▁legitimate▁4665
▁brand▁4666
▁transparent▁4667
▁cumulative▁4668
▁reset▁4669
▁battery▁4670
▁Iraq▁4671
▁officer▁4672
fight▁4673
▁relationships▁4674
▁sin▁4675
▁2,000▁4676
stan▁4677
za▁4678
▁creed▁4679
▁poem▁4680
▁marriage▁4681
▁vow▁4682
▁ab▁4683
▁knock▁4684
nach▁4685
▁Mur▁4686
uga▁4687
nantha▁4688
sanitary▁4689
▁napkin▁4690
▁supplie▁4691
▁pad▁4692
▁fame▁4693
▁impress▁4694
▁replie▁4695
▁N▁4696
▁nast▁4697
rag▁4698
▁cloth▁4699
wheel▁4700
▁milk▁4701
▁fellow▁4702
▁spreads▁4703
▁newspaper▁4704
▁banne▁4705
▁item▁4706
▁condom▁4707
▁29▁4708
▁substance▁4709
▁cotton▁4710
▁pen▁4711
▁Bangalore▁4712
▁victim▁4713
▁Sh▁4714
anti▁4715
▁ring▁4716
▁chocolate▁4717
insel▁4718
▁rolled▁4719
▁intimate▁4720
▁arrange▁4721
▁victims▁4722
▁wi▁4723
▁jealous▁4724
▁saint▁4725
▁refuse▁4726
▁Armstrong▁4727
zing▁4728
▁Everest▁4729
▁tie▁4730
cycling▁4731
▁lous▁4732
▁crises▁4733
▁includ▁4734
▁divorce▁4735
▁suspect▁4736
▁trump▁4737
▁cellulos▁4738
ived▁4739
million▁4740
▁processing▁4741
▁di▁4742
▁invention▁4743
▁patent▁4744
▁dropp▁4745
▁beauty▁4746
▁bored▁4747
▁accumulat▁4748
▁philanthropy▁4749
▁leaf▁4750
▁husk▁4751
▁dust▁4752
▁installation▁4753
▁23▁4754
▁seventh▁4755
▁transnational▁4756
▁MBA▁4757
▁dropout▁4758
▁Co▁4759
im▁4760
▁professor▁4761
▁guest▁4762
▁lecture▁4763
IM▁4764
cost▁4765
Women▁4766
▁Self▁4767
▁Hel▁4768
▁Group▁4769
▁pu▁4770
▁Harvard▁4771
▁Oxford▁4772
▁compete▁4773
▁100-▁4774
kin▁4775
▁lifetime▁4776
▁employment▁4777
▁chas▁4778
▁Mahal▁4779
ak▁4780
shmi▁4781
▁becom▁4782
▁provider▁4783
▁entit▁4784
▁domain▁4785
▁classify▁4786
▁educate▁4787
▁surplus▁4788
manda▁4789
ennett▁4790
▁China▁4791
▁Pek▁4792
▁sat▁4793
aged▁4794
▁owl▁4795
glasses▁4796
▁Fulbright▁4797
▁scholar▁4798
ino▁4799
▁relations▁4800
▁gift▁4801
▁eager▁4802
▁correspond▁4803
▁pump▁4804
▁scribbl▁4805
▁representative▁4806
ssociation▁4807
▁jerk▁4808
▁Let▁4809
▁marri▁4810
erence▁4811
▁Fo▁4812
▁spoke▁4813
▁license▁4814
▁cable▁4815
▁operator▁4816
▁swin▁4817
▁nutrition▁4818
▁cattle▁4819
▁Di▁4820
xi▁4821
▁cancer▁4822
▁surgeon▁4823
▁surgery▁4824
▁surgeons▁4825
▁setback▁4826
▁patholog▁4827
▁kidney▁4828
▁aggressive▁4829
▁diagnosi▁4830
▁fatal▁4831
▁mysterious▁4832
▁Litt▁4833
eague▁4834
house▁4835
bury▁4836
▁specialist▁4837
pp▁4838
ear▁4839
▁Ital▁4840
▁Australia▁4841
▁horizon▁4842
▁sometime▁4843
midnight▁4844
▁2▁4845
something▁4846
▁drug▁4847
▁Keep▁4848
▁struggle▁4849
▁triumph▁4850
▁exhilarating▁4851
▁repeat▁4852
▁hesitation▁4853
▁glorious▁4854
▁healthcare▁4855
bye▁4856
pe▁4857
▁seeming▁4858
cut▁4859
▁embarrass▁4860
▁strongly▁4861
▁denial▁4862
▁fac▁4863
uch▁4864
▁insist▁4865
hand▁4866
▁oncologist▁4867
▁Tell▁4868
ock▁4869
▁Dar▁4870
mouth▁4871
▁immortal▁4872
▁borrow▁4873
▁phrase▁4874
▁redefine▁4875
▁bug▁4876
▁accommodate▁4877
▁illness▁4878
▁fighters▁4879
ible▁4880
▁heal▁4881
▁hospice▁4882
▁unprepared▁4883
▁noble▁4884
▁cur▁4885
like▁4886
▁acknowledg▁4887
▁hero▁4888
▁poetry▁4889
▁poet▁4890
ava▁4891
▁Mark▁4892
▁Anton▁4893
▁conquer▁4894
▁el▁4895
▁Alexandr▁4896
▁defeat▁4897
▁desert▁4898
par▁4899
▁firm▁4900
▁ent▁4901
▁complaint▁4902
▁coward▁4903
▁exquisite▁4904
▁troop▁4905
▁bid▁4906
▁slim▁4907
▁overwhelming▁4908
▁presence▁4909
surance▁4910
▁companies▁4911
▁Gab▁4912
Ma▁4913
hin▁4914
▁Ethiopia▁4915
▁outline▁4916
▁farmers▁4917
▁recipient▁4918
▁basket▁4919
▁Himalaya▁4920
▁Bhutan▁4921
▁gross▁4922
▁happiness▁4923
▁Indian▁4924
▁award▁4925
▁Nobel▁4926
▁prize▁4927
▁demonstrat▁4928
▁famine▁4929
▁avail▁4930
▁supply▁4931
▁acquire▁4932
▁entitle▁4933
▁humanity▁4934
▁starv▁4935
capitalize▁4936
▁irrigat▁4937
▁kilogram▁4938
▁fertilizer▁4939
▁tractor▁4940
▁farmer▁4941
refore▁4942
▁livelihood▁4943
▁fruit▁4944
▁labor▁4945
▁highest▁4946
▁lean▁4947
▁scarce▁4948
entrepreneurship▁4949
▁Theodor▁4950
▁Schul▁4951
tz▁4952
▁197▁4953
minded▁4954
▁liberal▁4955
▁inefficient▁4956
▁magic▁4957
▁hunger▁4958
▁mal▁4959
nutrition▁4960
▁stagna▁4961
▁expectation▁4962
▁reform▁4963
▁prompt▁4964
▁agricultural▁4965
▁interview▁4966
▁Like▁4967
▁transaction▁4968
act▁4969
▁output▁4970
▁reache▁4971
elecommunication▁4972
▁absence▁4973
▁necessar▁4974
▁institution▁4975
▁reliabl▁4976
▁buyer▁4977
▁circle▁4978
▁peculiar▁4979
▁quantit▁4980
▁implication▁4981
▁deficit▁4982
▁marketing▁4983
▁margin▁4984
▁due▁4985
▁handl▁4986
▁bulk▁4987
▁blind▁4988
▁merc▁4989
▁merchant▁4990
▁negotiate▁4991
▁volatil▁4992
unt▁4993
▁ma▁4994
ize▁4995
boggling▁4996
▁seeds▁4997
▁security▁4998
profit▁4999
▁calculate▁5000
0,000▁5001
▁rot▁5002
▁Ju▁5003
▁rains▁5004
▁withdraw▁5005
▁arrest▁5006
▁cookie▁5007
what▁5008
▁comfortabl▁5009
▁Bank▁5010
▁donor▁5011
▁Com▁5012
xchange▁5013
▁EC▁5014
▁82▁5015
▁Illinois▁5016
▁Lake▁5017
▁Michigan▁5018
▁Chicago▁5019
▁Board▁5020
▁Trade▁5021
▁Midwest▁5022
▁loss▁5023
▁grad▁5024
▁receipt▁5025
▁warehouse▁5026
▁inspect▁5027
▁transformation▁5028
▁superpower▁5029
view▁5030
▁industrialize▁5031
▁co▁5032
▁dominance▁5033
SA▁5034
T▁5035
▁Dalia▁5036
▁tailor▁5037
▁integr▁5038
▁efficienc▁5039
▁Edge▁5040
me▁5041
▁sponsor▁5042
eh▁5043
▁trad▁5044
▁cafe▁5045
▁terminal▁5046
▁dial▁5047
▁Addi▁5048
▁Ab▁5049
tification▁5050
▁assure▁5051
▁payment▁5052
▁regulator▁5053
arch▁5054
clamation▁5055
▁parliament▁5056
▁disseminat▁5057
▁premi▁5058
▁limited▁5059
bit▁5060
▁strategic▁5061
▁sector▁5062
▁winds▁5063
illennium▁5064
▁platform▁5065
▁pan▁5066
can▁5067
▁domestic▁5068
▁producer▁5069
▁winning▁5070
▁proposition▁5071
é▁5072
▁praise▁5073
▁emphasi▁5074
ode▁5075
lash▁5076
▁brew▁5077
▁brake▁5078
modern▁5079
▁observation▁5080
▁supreme▁5081
▁publish▁5082
▁studio▁5083
▁serving▁5084
▁bite▁5085
size▁5086
▁chunk▁5087
NN▁5088
forward▁5089
▁obsess▁5090
▁cramm▁5091
▁Carrie▁5092
▁Fisher▁5093
▁These▁5094
▁gra▁5095
▁g▁5096
▁advertisement▁5097
▁evening▁5098
oga▁5099
▁salut▁5100
mus▁5101
▁laugh▁5102
▁das▁5103
▁damage▁5104
runner▁5105
▁marinate▁5106
▁toll▁5107
▁alert▁5108
▁towel▁5109
▁smoke▁5110
▁patien▁5111
▁tra▁5112
qui▁5113
▁Cat▁5114
▁skipp▁5115
▁paragraph▁5116
▁qu▁5117
▁relax▁5118
▁glad▁5119
▁clash▁5120
scanning▁5121
▁article▁5122
saving▁5123
▁tips▁5124
▁One▁5125
ut▁5126
▁Story▁5127
▁reaction▁5128
▁Halleluja▁5129
▁thankful▁5130
▁Whoa▁5131
▁investigate▁5132
▁desir▁5133
▁accelerat▁5134
▁rear▁5135
▁heads▁5136
▁urbanization▁5137
▁driver▁5138
▁cycl▁5139
hu▁5140
rried▁5141
▁renew▁5142
▁finite▁5143
▁drain▁5144
▁Benjamin▁5145
▁Franklin▁5146
▁psychological▁5147
▁incidental▁5148
▁mindset▁5149
▁bus▁5150
▁unthink▁5151
▁conventional▁5152
▁ca▁5153
▁dece▁5154
▁Slow▁5155
▁Move▁5156
▁hypocri▁5157
▁Food▁5158
▁100,000▁5159
▁sensible▁5160
▁cultivate▁5161
▁pace▁5162
naissance▁5163
▁illustration▁5164
▁cultivat▁5165
Cities▁5166
▁rose▁5167
▁curb▁5168
▁traffic▁5169
▁bench▁5170
▁philosophical▁5171
eclaration▁5172
▁deeply▁5173
ill▁5174
▁complement▁5175
▁tap▁5176
▁gentle▁5177
▁holistic▁5178
▁healing▁5179
jury▁5180
▁therapie▁5181
▁mainstream▁5182
▁approv▁5183
▁acu▁5184
pu▁5185
ctu▁5186
▁massage▁5187
chip▁5188
▁pun▁5189
▁intend▁5190
▁agent▁5191
▁magazine▁5192
▁orgasm▁5193
watch▁5194
▁bedroom▁5195
▁Point▁5196
ster▁5197
▁eloquent▁5198
▁sang▁5199
▁lover▁5200
▁St▁5201
▁Tan▁5202
▁flock▁5203
▁Italian▁5204
▁Sex▁5205
hour▁5206
week▁5207
▁rigid▁5208
▁Nord▁5209
▁Nor▁5210
▁Swed▁5211
enmark▁5212
▁nation▁5213
▁weep▁5214
▁37▁5215
▁homework▁5216
▁tutor▁5217
▁extracurricular▁5218
trend▁5219
▁website▁5220
▁adolescent▁5221
▁hover▁5222
▁plea▁5223
ttle▁5224
▁treadmill▁5225
▁parenting▁5226
▁ban▁5227
com▁5228
press▁5229
▁pi▁5230
pa▁5231
ach▁5232
iev▁5233
▁freak▁5234
▁exam▁5235
▁elite▁5236
cited▁5237
lib▁5238
V▁5239
▁ja▁5240
▁spark▁5241
vy▁5242
▁letter▁5243
▁undergraduate▁5244
▁savor▁5245
▁Down▁5246
▁ticket▁5247
▁highway▁5248
▁various▁5249
▁sexy▁5250
▁adrenalin▁5251
▁rush▁5252
▁meta▁5253
▁distraction▁5254
▁politician▁5255
▁taboo▁5256
▁erect▁5257
word▁5258
▁laz▁5259
▁slack▁5260
▁synonymous▁5261
25▁5262
▁revolutionar▁5263
▁TV▁5264
▁uplift▁5265
▁welcome▁5266
▁Age▁5267
▁brigade▁5268
gus▁5269
▁gear▁5270
sound▁5271
▁Ex▁5272
hi▁5273
▁rehabilitat▁5274
▁overload▁5275
▁gratuitous▁5276
▁default▁5277
▁mode▁5278
▁wing▁5279
▁chariot▁5280
shot▁5281
racing▁5282
▁lit▁5283
ros▁5284
▁internal▁5285
▁dread▁5286
▁reward▁5287
▁cherish▁5288
▁ending▁5289
▁afternoon▁5290
▁taxi▁5291
▁stair▁5292
▁staple▁5293
▁sticker▁5294
tin▁5295
▁Dad▁5296
▁sweet▁5297
▁reader▁5298
▁Amy▁5299
▁Lock▁5300
▁Congo▁5301
▁HIV▁5302
▁DR▁5303
▁agenc▁5304
▁flood▁5305
▁cheap▁5306
▁marketer▁5307
▁Democratic▁5308
▁Republic▁5309
▁pave▁5310
RC▁5311
▁prevalence▁5312
▁1.3▁5313
▁76▁5314
▁93▁5315
▁receiv▁5316
▁Dam▁5317
ien▁5318
▁hotel▁5319
▁Kinshasa▁5320
▁Joseph▁5321
▁Christin▁5322
▁pharmac▁5323
▁generic▁5324
▁financ▁5325
fidel▁5326
▁Trust▁5327
rude▁5328
▁provocati▁5329
▁miss▁5330
▁Au▁5331
bre▁5332
▁Grey▁5333
map▁5334
▁aging▁5335
▁mere▁5336
curable▁5337
▁shit▁5338
▁feasib▁5339
ility▁5340
▁extension▁5341
▁genuine▁5342
▁eliminat▁5343
▁intermediate▁5344
▁characteristic▁5345
▁considerabl▁5346
▁Brita▁5347
▁fox▁5348
▁sympathetic▁5349
▁persuade▁5350
▁ecological▁5351
▁prevail▁5352
▁Parliament▁5353
▁conclusion▁5354
▁tolerate▁5355
▁civilized▁5356
▁spade▁5357
rail▁5358
▁trance▁5359
▁ought▁5360
▁plann▁5361
▁turbulen▁5362
▁argument▁5363
▁outweigh▁5364
▁downside▁5365
▁condemn▁5366
▁unnecessar▁5367
▁worry▁5368
population▁5369
▁crossing▁5370
▁Gil▁5371
▁answers▁5372
▁arise▁5373
▁reject▁5374
▁cohort▁5375
▁indefinite▁5376
▁immoral▁5377
aging▁5378
vita▁5379
bility▁5380
▁gha▁5381
clear▁5382
▁agitat▁5383
▁eva▁5384
gel▁5385
▁regard▁5386
▁summ▁5387
▁metabolism▁5388
▁tau▁5389
ological▁5390
▁statement▁5391
animate▁5392
▁mechanisms▁5393
▁accumulate▁5394
▁gerontolog▁5395
▁geriatric▁5396
▁intervene▁5397
▁evident▁5398
▁sand▁5399
▁strategy▁5400
▁prevention▁5401
iful▁5402
▁organism▁5403
▁RNA▁5404
▁interference▁5405
▁intervention▁5406
▁convincing▁5407
▁suppose▁5408
▁confer▁5409
▁55▁5410
▁robust▁5411
▁rejuvenat▁5412
▁breakthrough▁5413
▁incremental▁5414
▁differ▁5415
▁predict▁5416
▁190▁5417
▁stead▁5418
▁uniform▁5419
▁sequence▁5420
▁progression▁5421
▁imagination▁5422
▁computers▁5423
▁parallel▁5424
▁hygien▁5425
▁antibiotic▁5426
▁moderate▁5427
▁cu▁5428
sp▁5429
▁remain▁5430
▁imperfect▁5431
▁thorough▁5432
▁200-▁5433
▁longe▁5434
▁velocit▁5435
▁expectanc▁5436
▁80-▁5437
▁biologically▁5438
▁youthful▁5439
related▁5440
generation▁5441
▁catastrophe▁5442
lright▁5443
▁mice▁5444
▁corresponding▁5445
▁milestone▁5446
▁mouse▁5447
▁imaginative▁5448
▁fifth▁5449
▁lifespan▁5450
▁biolog▁5451
▁specula▁5452
▁speculation▁5453
▁counsel▁5454
▁nonsens▁5455
▁irresponsibl▁5456
▁silent▁5457
▁assess▁5458
H▁5459
▁underestimate▁5460
mbivalen▁5461
▁postpone▁5462
note▁5463
▁ongoing▁5464
dra▁5465
▁diagram▁5466
tries▁5467
▁inhibit▁5468
▁And▁5469
▁continu▁5470
▁periodic▁5471
▁repair▁5472
▁threshold▁5473
▁pathogen▁5474
complete▁5475
▁categor▁5476
▁cell▁5477
▁mutation▁5478
▁chromosome▁5479
▁mit▁5480
och▁5481
▁biological▁5482
▁undergo▁5483
sis▁5484
▁indication▁5485
▁partially▁5486
▁dissatisf▁5487
ied▁5488
▁cite▁5489
▁optimism▁5490
▁confident▁5491
▁damn▁5492
▁resistan▁5493
▁session▁5494
▁genome▁5495
▁strategi▁5496
▁Me▁5497
use▁5498
lah▁5499
▁Mouse▁5500
▁Prize▁5501
▁innovate▁5502
▁proposal▁5503
▁institute▁5504
▁philanthropi▁5505
▁distract▁5506
▁biotech▁5507
▁ag▁5508
▁immune▁5509
create▁5510
tel▁5511
ase▁5512
mortality▁5513
▁brilliant▁5514
controversial▁5515
▁selection▁5516
▁sophistication▁5517
▁genes▁5518
▁carrie▁5519
creation▁5520
▁CA▁5521
▁crash▁5522
▁motorbike▁5523
▁embryo▁5524
▁opposed▁5525
▁replace▁5526
▁neurons▁5527
▁replac▁5528
▁degrade▁5529
▁cognitive▁5530
simplification▁5531
▁Hydra▁5532
▁tissue▁5533
▁Lewi▁5534
▁Pugh▁5535
shift▁5536
▁swim▁5537
▁Pole▁5538
▁frighten▁5539
▁1.7▁5540
▁centi▁5541
grade▁5542
▁Fahren▁5543
heit▁5544
▁flipp▁5545
▁pea▁5546
▁sausage▁5547
▁freeze▁5548
▁expand▁5549
▁lake▁5550
ground▁5551
▁instabil▁5552
▁Bangladesh▁5553
▁symbolic▁5554
▁undern▁5555
▁summit▁5556
▁28▁5557
▁Speed▁5558
▁altitude▁5559
▁5▁5560
,▁5561
300▁5562
▁hitting▁5563
▁bodi▁5564
▁attempt▁5565
▁swimm▁5566
▁humble▁5567
▁Kh▁5568
bu▁5569
▁Glacier▁5570
ggression▁5571
▁h▁5572
▁swam▁5573
▁gasp▁5574
▁vom▁5575
▁underwater▁5576
▁lucki▁5577
▁shallow▁5578
▁peaceful▁5579
▁utter▁5580
ollock▁5581
▁panick▁5582
▁grabb▁5583
▁camp▁5584
brief▁5585
▁tactical▁5586
▁hill▁5587
▁breast▁5588
▁Sher▁5589
▁3.5▁5590
▁6.▁5591
▁grandchildren▁5592
▁safe▁5593
▁secure▁5594
▁blog▁5595
▁tweet▁5596
▁Hodg▁5597
▁comedian▁5598
▁unpack▁5599
▁Bachelor▁5600
▁Literatur▁5601
▁minor▁5602
▁television▁5603
▁collector▁5604
▁With▁5605
▁catalog▁5606
▁landing▁5607
ppel▁5608
▁Los▁5609
▁Angeles▁5610
irport▁5611
▁Building▁5612
▁mu▁5613
extraterrestrial▁5614
▁excavat▁5615
▁196▁5616
LA▁5617
for▁5618
▁Common▁5619
▁Er▁5620
▁coloniz▁5621
▁savage▁5622
▁revolv▁5623
▁restaurants▁5624
▁replacement▁5625
▁Stonehenge▁5626
ui▁5627
▁parking▁5628
▁uncover▁5629
her▁5630
▁era▁5631
▁streamlin▁5632
▁archaic▁5633
▁Jet▁5634
▁preferr▁5635
▁crystal▁5636
▁skull▁5637
▁Philipp▁5638
▁Starck▁5639
minent▁5640
▁ho▁5641
uvre▁5642
▁lobby▁5643
▁trip▁5644
▁attach▁5645
▁suck▁5646
▁juice▁5647
▁monument▁5648
▁kitchen▁5649
▁counter▁5650
sleep▁5651
▁mail▁5652
▁iPhone▁5653
▁tile▁5654
loved▁5655
▁device▁5656
induce▁5657
▁pervasive▁5658
▁instantly▁5659
▁threaten▁5660
▁Jenn▁5661
▁Zu▁5662
▁Lak▁5663
atur▁5664
writing▁5665
▁fascinate▁5666
▁Art▁5667
▁Buch▁5668
wald▁5669
▁humor▁5670
▁Mike▁5671
▁cyber▁5672
space▁5673
▁handwrit▁5674
▁notebook▁5675
▁weaknesses▁5676
▁incident▁5677
▁disappearing▁5678
▁habits▁5679
▁hug▁5680
graph▁5681
▁soul▁5682
▁inspired▁5683
▁authors▁5684
und▁5685
▁Trac▁5686
▁swallow▁5687
▁funeral▁5688
▁committ▁5689
▁compil▁5690
▁verse▁5691
▁cremat▁5692
▁linguist▁5693
▁par▁5694
don▁5695
▁grammar▁5696
he▁5697
▁confine▁5698
▁sucked▁5699
▁suffocat▁5700
raging▁5701
▁craving▁5702
▁emerge▁5703
▁flourish▁5704
▁whirl▁5705
pool▁5706
aving▁5707
▁Andrew▁5708
▁Blu▁5709
▁internet▁5710
▁squirrel▁5711
fline▁5712
▁secret▁5713
▁switche▁5714
▁politic▁5715
▁O▁5716
pt▁5717
▁Milk▁5718
▁Way▁5719
▁total▁5720
▁Apollo▁5721
▁marble▁5722
▁broke▁5723
▁clump▁5724
▁yard▁5725
▁jumble▁5726
▁astounding▁5727
▁transcendent▁5728
▁protocol▁5729
▁dating▁5730
call▁5731
ank▁5732
▁IT▁5733
▁Crowd▁5734
▁Big▁5735
▁reception▁5736
▁presentation▁5737
▁elder▁5738
▁amorph▁5739
▁sill▁5740
cast▁5741
▁Time▁5742
▁Warner▁5743
▁fiber▁5744
▁optic▁5745
▁Hudson▁5746
tier▁5747
▁village▁5748
hose▁5749
▁expansive▁5750
▁thickness▁5751
▁5,000▁5752
▁plug▁5753
ax▁5754
▁thin▁5755
▁Cooper▁5756
▁Tata▁5757
ommunication▁5758
ome▁5759
▁via▁5760
presence▁5761
▁42▁5762
▁proceed▁5763
▁belt▁5764
▁beam▁5765
wir▁5766
▁geographic▁5767
▁fleet▁5768
▁brief▁5769
▁plugg▁5770
▁W▁5771
AC▁5772
▁Ghana▁5773
▁Cameroon▁5774
lon▁5775
▁9,000▁5776
▁bulldoze▁5777
▁specialize▁5778
buoy▁5779
▁engineers▁5780
▁station▁5781
▁hack▁5782
saw▁5783
▁jewel▁5784
▁fuse▁5785
▁engineer▁5786
▁Mom▁5787
▁Mumbai▁5788
▁Stephen▁5789
anda▁5790
▁Sara▁5791
wa▁5792
▁unravel▁5793
▁attain▁5794
real▁5795
▁helpless▁5796
▁infanc▁5797
▁fearless▁5798
▁contributor▁5799
▁instinct▁5800
▁foster▁5801
▁surrender▁5802
▁implie▁5803
▁violat▁5804
▁violation▁5805
▁blame▁5806
bla▁5807
▁compassionate▁5808
▁wie▁5809
▁empathy▁5810
▁empathetic▁5811
▁wins▁5812
tennis▁5813
▁et▁5814
iquette▁5815
▁winner▁5816
▁shirt▁5817
▁demolish▁5818
doc▁5819
rin▁5820
▁nationalis▁5821
▁empathiz▁5822
▁transcend▁5823
▁gender▁5824
▁slap▁5825
tick▁5826
▁scheme▁5827
▁universe▁5828
▁confirm▁5829
▁limitation▁5830
▁desire▁5831
▁credit▁5832
▁bald▁5833
▁realization▁5834
▁recogni▁5835
▁cheer▁5836
▁limitless▁5837
▁relate▁5838
▁manifestation▁5839
▁evoke▁5840
▁shortcut▁5841
▁foam▁5842
▁mat▁5843
▁verb▁5844
verb▁5845
▁teeth▁5846
▁pray▁5847
▁Edit▁5848
▁Wid▁5849
kind▁5850
▁elusive▁5851
▁insight▁5852
▁Krake▁5853
▁beast▁5854
▁devour▁5855
▁merit▁5856
▁Discovery▁5857
▁Channel▁5858
▁expedition▁5859
un▁5860
She▁5861
▁owe▁5862
tor▁5863
▁2010▁5864
▁Mission▁5865
▁Blue▁5866
▁Lin▁5867
▁Explorer▁5868
▁explor▁5869
Gru▁5870
▁Shark▁5871
▁Week▁5872
ob▁5873
▁optical▁5874
▁l▁5875
▁emphasize▁5876
▁submersible▁5877
▁vehicle▁5878
▁wider▁5879
▁Tib▁5880
uro▁5881
▁Vent▁5882
ana▁5883
pulsion▁5884
▁suspicio▁5885
▁noise▁5886
▁hydro▁5887
▁Johnson▁5888
Link▁5889
isier▁5890
iving▁5891
▁ROV▁5892
hydr▁5893
au▁5894
lic▁5895
▁motor▁5896
power▁5897
▁invisible▁5898
▁Atoll▁5899
▁bioluminescen▁5900
▁burglar▁5901
▁alarm▁5902
▁defense▁5903
▁resort▁5904
by▁5905
▁scream▁5906
itch▁5907
▁trigger▁5908
▁kidd▁5909
▁tea▁5910
▁appearance▁5911
▁wow▁5912
▁ooh▁5913
▁Bang▁5914
mont▁5915
je▁5916
▁Tri▁5917
ton▁5918
▁bait▁5919
meter▁5920
▁jig▁5921
▁fisherm▁5922
▁intensifi▁5923
▁flashlight▁5924
resolution▁5925
▁breathtaking▁5926
▁fully▁5927
story▁5928
film▁5929
▁possibl▁5930
active▁5931
▁NASA▁5932
▁scare▁5933
▁adventure▁5934
▁Serge▁5935
▁Brin▁5936
▁Glass▁5937
mounted▁5938
name▁5939
201▁5940
▁hunch▁5941
▁firing▁5942
▁hang▁5943
▁Club▁5944
▁tiger▁5945
▁Hmm▁5946
▁beep▁5947
▁7▁5948
▁bridge▁5949
▁exit▁5950
▁8▁5951
12▁5952
▁delicious▁5953
▁Thai▁5954
อร▁5955
่▁5956
อย▁5957
Man▁5958
▁mm▁5959
▁Nigerian▁5960
▁prince▁5961
▁Project▁5962
▁addition▁5963
▁isolat▁5964
▁bone▁5965
rani▁5966
▁ironic▁5967
▁quer▁5968
▁phones▁5969
▁strapp▁5970
▁screaming▁5971
▁unexpected▁5972
▁dug▁5973
▁habit▁5974
▁But▁5975
▁attend▁5976
▁Dap▁5977
hne▁5978
▁Koller▁5979
▁intrigu▁5980
▁Course▁5981
▁quiz▁5982
▁peer▁5983
peer▁5984
▁assignment▁5985
▁unprecedented▁5986
▁construct▁5987
partheid▁5988
▁minorit▁5989
▁consequence▁5990
▁scarc▁5991
▁Januar▁5992
▁Johannes▁5993
▁admission▁5994
▁registr▁5995
▁gate▁5996
▁hop▁5997
▁stamp▁5998
▁injur▁5999
▁tu▁6000
ition▁6001
fford▁6002
▁recent▁6003
▁Friedman▁6004
▁Times▁6005
▁spirit▁6006
▁enroll▁6007
▁Machine▁6008
▁Learning▁6009
▁cofounde▁6010
▁Ng▁6011
▁register▁6012
▁250▁6013
▁instructor▁6014
▁43▁6015
hri▁6016
▁Calcu▁6017
ze▁6018
ki▁6019
uel▁6020
▁fifty▁6021
▁Page▁6022
▁Kle▁6023
mmer▁6024
▁Bush▁6025
▁Mitchell▁6026
▁Dun▁6027
▁mill▁6028
▁sociolog▁6029
▁RG▁6030
▁hyperbol▁6031
▁Nick▁6032
▁Par▁6033
ante▁6034
▁pixel▁6035
▁Paul▁6036
▁Off▁6037
ac▁6038
▁Jura▁6039
sky▁6040
▁Luft▁6041
han▁6042
▁breakfast▁6043
▁Jose▁6044
▁coin▁6045
▁computational▁6046
▁1.5▁6047
▁submitt▁6048
▁videos▁6049
▁Ak▁6050
quality▁6051
▁hone▁6052
▁master▁6053
▁Ryan▁6054
▁defi▁6055
▁germ▁6056
▁correspondence▁6057
▁Shannon▁6058
▁deadline▁6059
▁usage▁6060
▁graph▁6061
▁spike▁6062
▁procrastinat▁6063
▁certificate▁6064
▁explicit▁6065
▁format▁6066
▁monolith▁6067
▁modular▁6068
▁unit▁6069
verse▁6070
atory▁6071
▁enrich▁6072
▁individually▁6073
all▁6074
▁curriculum▁6075
▁passive▁6076
▁Science▁6077
▁retriev▁6078
▁pause▁6079
▁SP▁6080
▁prospect▁6081
▁discount▁6082
▁quo▁6083
▁bias▁6084
▁deviation▁6085
▁submit▁6086
▁optional▁6087
TA▁6088
▁mathematical▁6089
▁programm▁6090
▁Computer▁6091
▁101▁6092
correct▁6093
▁blurr▁6094
▁browser▁6095
▁Lady▁6096
▁Li▁6097
bert▁6098
ick▁6099
▁facult▁6100
produc▁6101
ssig▁6102
axis▁6103
▁correlate▁6104
▁x▁6105
▁incentivize▁6106
▁pipeline▁6107
▁intellectual▁6108
▁endeavor▁6109
▁Princeton▁6110
ology▁6111
▁pos▁6112
▁awake▁6113
▁testimon▁6114
assembl▁6115
▁geographical▁6116
▁constraint▁6117
▁multicultural▁6118
▁click▁6119
▁submission▁6120
drive▁6121
▁versu▁6122
▁misconception▁6123
▁plot▁6124
▁crosse▁6125
▁cross▁6126
▁error▁6127
▁bucket▁6128
▁virtue▁6129
▁solv▁6130
▁Bloom▁6131
▁populations▁6132
▁studie▁6133
▁instruction▁6134
▁98▁6135
▁hence▁6136
▁smartphone▁6137
▁obsolet▁6138
▁Twa▁6139
▁College▁6140
▁beg▁6141
▁P▁6142
▁filling▁6143
▁wood▁6144
▁le▁6145
solv▁6146
▁metric▁6147
▁standardize▁6148
▁summarize▁6149
▁shame▁6150
▁Albert▁6151
▁Einstein▁6152
▁Jobs▁6153
▁Mauri▁6154
zi▁6155
▁stone▁6156
▁Leonardo▁6157
▁Vinci▁6158
▁Battle▁6159
▁Ang▁6160
ari▁6161
▁1975▁6162
▁Floren▁6163
▁Carlo▁6164
▁former▁6165
own▁6166
cent▁6167
▁related▁6168
▁masterpiece▁6169
▁Pala▁6170
▁Ve▁6171
io▁6172
engineer▁6173
▁decorat▁6174
▁Va▁6175
sari▁6176
▁halt▁6177
▁Guinness▁6178
▁remodel▁6179
60▁6180
▁Grand▁6181
▁Duke▁6182
imo▁6183
▁Med▁6184
▁church▁6185
▁Santa▁6186
▁admire▁6187
▁antenna▁6188
▁panel▁6189
▁Fight▁6190
▁Standard▁6191
lma▁6192
▁Diego▁6193
▁heritage▁6194
ISA▁6195
▁archaeolog▁6196
11▁6197
▁Professor▁6198
▁Fal▁6199
▁Kueste▁6200
▁Madonna▁6201
▁Chair▁6202
▁shin▁6203
▁UV▁6204
▁lady▁6205
retouche▁6206
▁Uni▁6207
corn▁6208
▁painting▁6209
▁Ra▁6210
▁unicorn▁6211
▁puppy▁6212
▁examination▁6213
finishe▁6214
▁symbol▁6215
▁attribut▁6216
▁objective▁6217
▁subjective▁6218
▁admir▁6219
▁vivid▁6220
▁Ador▁6221
▁Mag▁6222
made▁6223
XY▁6224
Z▁6225
▁centuries▁6226
▁portrait▁6227
▁magnificent▁6228
▁genial▁6229
▁elephant▁6230
▁epiphan▁6231
▁tablet▁6232
▁augmented▁6233
▁simulat▁6234
▁aim▁6235
▁locked▁6236
▁scroll▁6237
▁staircase▁6238
▁reconstruct▁6239
▁ruin▁6240
▁protagonist▁6241
ped▁6242
▁Renaissance▁6243
▁blend▁6244
▁definite▁6245
▁breed▁6246
▁Whit▁6247
acre▁6248
▁Choir▁6249
▁Live▁6250
▁1991▁6251
▁victor▁6252
▁lap▁6253
▁choir▁6254
▁idylli▁6255
▁cricket▁6256
▁frog▁6257
▁Steven▁6258
▁Spielberg▁6259
▁clouds▁6260
▁thunder▁6261
▁rain▁6262
▁Mexican▁6263
avi▁6264
▁Pa▁6265
▁Cloud▁6266
burst▁6267
ouTube▁6268
▁Virtual▁6269
▁185▁6270
▁dorm▁6271
▁2,0▁6272
2▁6273
▁58▁6274
▁Sleep▁6275
▁Water▁6276
▁73▁6277
▁Skype▁6278
▁Cal▁6279
▁Fuller▁6280
▁Riverside▁6281
▁Community▁6282
ncy▁6283
▁Laura▁6284
▁Tric▁6285
▁deceptive▁6286
▁3-▁6287
▁muse▁6288
▁friendship▁6289
▁rehab▁6290
▁addiction▁6291
▁wound▁6292
▁proud▁6293
▁gentleman▁6294
▁Thank▁6295
▁bread▁6296
inner▁6297
▁April▁6298
▁chore▁6299
▁steak▁6300
▁Would▁6301
secure▁6302
▁wheel▁6303
ps▁6304
▁household▁6305
▁roof▁6306
▁backyard▁6307
▁mothers▁6308
▁sons▁6309
▁Carter▁6310
▁Emma▁6311
▁programmer▁6312
▁visualization▁6313
▁stunning▁6314
▁Digital▁6315
▁Universe▁6316
▁flat▁6317
bound▁6318
limited▁6319
▁Atlas▁6320
▁Museum▁6321
▁Natural▁6322
▁Histor▁6323
▁Planet▁6324
arium▁6325
▁dome▁6326
▁host▁6327
▁Link▁6328
SS▁6329
▁interactive▁6330
▁Matt▁6331
▁Low▁6332
▁Side▁6333
▁Manhattan▁6334
▁collaborative▁6335
▁Rubi▁6336
▁exhibit▁6337
▁comparative▁6338
▁cosmolog▁6339
▁realm▁6340
▁galaxie▁6341
low▁6342
▁WMAP▁6343
▁microwave▁6344
▁meaningless▁6345
▁jumped▁6346
▁exo▁6347
planet▁6348
▁solar▁6349
▁magni▁6350
tude▁6351
▁Voyage▁6352
▁1▁6353
ioneer▁6354
▁spacecraft▁6355
▁orbit▁6356
▁Moon▁6357
▁Porc▁6358
▁Cassini▁6359
▁phase▁6360
▁ingenious▁6361
▁encounter▁6362
▁Titan▁6363
▁Merc▁6364
▁divert▁6365
Sahara▁6366
▁librari▁6367
▁ghetto▁6368
▁Columbia▁6369
▁Cambodia▁6370
▁Saturday▁6371
▁Aqua▁6372
▁Nepal▁6373
▁Lhasa▁6374
▁Tibet▁6375
▁haze▁6376
▁fires▁6377
▁Gange▁6378
▁closing▁6379
▁snow▁6380
▁Na▁6381
lini▁6382
arni▁6383
▁prison▁6384
▁inmates▁6385
▁epitom▁6386
asis▁6387
▁trunk▁6388
▁twig▁6389
▁paintbrush▁6390
▁western▁6391
▁Douglas▁6392
▁Picasso▁6393
net▁6394
▁quantify▁6395
▁vine▁6396
▁tree▁6397
▁multipli▁6398
▁branch▁6399
▁186▁6400
,5▁6401
▁2.3▁6402
▁incarcerat▁6403
▁declin▁6404
▁Department▁6405
▁Cor▁6406
ction▁6407
▁sustainability▁6408
lift▁6409
▁Nature▁6410
▁Conservanc▁6411
▁Sta▁6412
▁endanger▁6413
▁prairie▁6414
▁restoration▁6415
▁Fish▁6416
▁Wild▁6417
▁Oregon▁6418
▁spott▁6419
▁wetland▁6420
▁begu▁6421
▁Super▁6422
action▁6423
▁guards▁6424
▁prisoner▁6425
▁meetings▁6426
mobile▁6427
▁yards▁6428
pez▁6429
litary▁6430
▁seren▁6431
▁calm▁6432
circle▁6433
rief▁6434
▁racis▁6435
▁Michael▁6436
▁Hans▁6437
▁unimaginabl▁6438
▁division▁6439
▁algorithm▁6440
▁outrageous▁6441
▁draft▁6442
▁architectural▁6443
▁origin▁6444
▁preconception▁6445
▁split▁6446
▁identical▁6447
▁distinct▁6448
▁asymmetric▁6449
▁simplify▁6450
▁fold▁6451
▁iteration▁6452
▁ratio▁6453
▁exert▁6454
▁specify▁6455
▁sculpt▁6456
▁intersect▁6457
pound▁6458
▁scope▁6459
▁99.9▁6460
▁geometric▁6461
▁curv▁6462
ature▁6463
▁radi▁6464
▁elaborate▁6465
▁minimal▁6466
▁archetyp▁6467
▁algorithmic▁6468
▁cylinder▁6469
▁formation▁6470
▁visi▁6471
▁overall▁6472
▁microscop▁6473
▁und▁6474
▁elevation▁6475
▁determin▁6476
▁random▁6477
▁variant▁6478
▁analog▁6479
▁printing▁6480
vor▁6481
▁tradeoff▁6482
▁resolution▁6483
▁slice▁6484
▁unbe▁6485
known▁6486
▁segment▁6487
▁photo▁6488
▁rendering▁6489
▁intricac▁6490
,7▁6491
▁kilos▁6492
▁auditorium▁6493
▁machines▁6494
ju▁6495
▁hybrid▁6496
▁illusion▁6497
▁await▁6498
▁Hoffman▁6499
▁Sputnik▁6500
▁mania▁6501
length▁6502
▁Man▁6503
▁Soviet▁6504
▁Union▁6505
start▁6506
▁desolate▁6507
▁nose▁6508
▁Russian▁6509
▁explorers▁6510
▁Vasco▁6511
▁Ga▁6512
▁Columb▁6513
▁fortune▁6514
▁terrestrial▁6515
▁snippet▁6516
▁Monday▁6517
▁bombs▁6518
▁IBM▁6519
▁loose▁6520
▁historian▁6521
▁Pearl▁6522
▁Harbo▁6523
▁Congress▁6524
▁1,2▁6525
▁nuclear▁6526
▁20,000▁6527
▁Civil▁6528
▁Defens▁6529
▁78▁6530
▁Gallup▁6531
▁Poll▁6532
▁scholarship▁6533
▁Vint▁6534
▁ARPA▁6535
▁investor▁6536
▁TEDster▁6537
▁Walker▁6538
▁Ken▁6539
▁Kam▁6540
▁deadlie▁6541
▁Mount▁6542
▁climb▁6543
▁survived▁6544
▁burie▁6545
▁conference▁6546
▁surviv▁6547
▁summon▁6548
0▁6549
▁Geographic▁6550
▁tectonic▁6551
▁sens▁6552
aku▁6553
take▁6554
▁Mars▁6555
▁jacket▁6556
▁solid▁6557
,500▁6558
▁Two▁6559
▁Camp▁6560
▁dwarf▁6561
▁3,000▁6562
load▁6563
MA▁6564
▁preparation▁6565
▁camps▁6566
fall▁6567
▁waterfall▁6568
▁rat▁6569
▁maze▁6570
▁tumbl▁6571
v▁6572
asse▁6573
▁ladder▁6574
▁rope▁6575
▁climbing▁6576
▁Thre▁6577
▁fixed▁6578
▁profile▁6579
▁scour▁6580
▁blown▁6581
▁Rob▁6582
ular▁6583
▁Face▁6584
▁steep▁6585
▁daylight▁6586
degree▁6587
blew▁6588
▁anticipat▁6589
▁ferocious▁6590
▁mask▁6591
▁rebreather▁6592
▁tank▁6593
itanium▁6594
▁8,000▁6595
▁fierce▁6596
▁dressed▁6597
▁equipp▁6598
▁Doug▁6599
▁exhaust▁6600
▁Beck▁6601
▁Weather▁6602
▁dead▁6603
▁confusion▁6604
▁confus▁6605
unk▁6606
▁Bur▁6607
▁Pet▁6608
than▁6609
▁rescue▁6610
▁Hol▁6611
▁Leave▁6612
▁stabilize▁6613
▁advice▁6614
▁syringe▁6615
▁steroid▁6616
▁luc▁6617
▁injection▁6618
▁clothes▁6619
▁pregnan▁6620
▁signed▁6621
▁impossibilit▁6622
▁kit▁6623
▁hyp▁6624
▁frostbit▁6625
▁warm▁6626
▁reviv▁6627
▁stumbl▁6628
▁mum▁6629
coherent▁6630
▁cat▁6631
▁indicate▁6632
▁laying▁6633
▁irreversibl▁6634
▁speculate▁6635
▁SPECT▁6636
▁scan▁6637
▁frontal▁6638
▁lobe▁6639
▁concentration▁6640
▁temporal▁6641
▁posterior▁6642
bell▁6643
▁stem▁6644
tenance▁6645
▁heartbeat▁6646
spiration▁6647
▁portion▁6648
▁experienc▁6649
▁danger▁6650
▁metabolic▁6651
motivat▁6652
▁cingul▁6653
▁transmitt▁6654
▁spreading▁6655
▁lungs▁6656
▁epic▁6657
▁helicopter▁6658
▁Kath▁6659
du▁6660
▁memorial▁6661
▁Fischer▁6662
▁Andy▁6663
▁Harris▁6664
mba▁6665
▁Tibetan▁6666
▁prayer▁6667
yrone▁6668
▁Haye▁6669
▁Penelope▁6670
▁Jag▁6671
▁Cha▁6672
ffer▁6673
▁chemicals▁6674
▁unbor▁6675
▁scientist▁6676
razine▁6677
ide▁6678
▁corn▁6679
▁joking▁6680
▁estrogen▁6681
▁Baby▁6682
▁statistics▁6683
▁skyrocket▁6684
incidence▁6685
leuk▁6686
emia▁6687
▁statistic▁6688
▁Canadian▁6689
▁asthma▁6690
fold▁6691
▁autism▁6692
▁autist▁6693
▁disorders▁6694
▁genital▁6695
▁defect▁6696
▁diabetes▁6697
▁premature▁6698
▁pubert▁6699
▁pesticide▁6700
▁evaluate▁6701
▁amphibian▁6702
▁EPA▁6703
register▁6704
▁0.1▁6705
▁dissect▁6706
▁ovari▁6707
▁Leopard▁6708
▁Frog▁6709
birth▁6710
▁chicken▁6711
▁testicle▁6712
▁consum▁6713
mat▁6714
▁imbalance▁6715
▁testosterone▁6716
▁enzyme▁6717
▁aromat▁6718
▁subsequent▁6719
▁fe▁6720
▁regulate▁6721
ozo▁6722
▁mutate▁6723
▁exposure▁6724
PJ▁6725
▁bis▁6726
phenol▁6727
▁BP▁6728
carbon▁6729
▁synthetic▁6730
ache▁6731
▁formula▁6732
▁newborn▁6733
▁infant▁6734
▁cup▁6735
▁Senate▁6736
▁police▁6737
▁proven▁6738
▁leak▁6739
▁stands▁6740
▁th▁6741
▁extinction▁6742
▁dinosaurs▁6743
▁indicator▁6744
hell▁6745
▁membrane▁6746
▁mammals▁6747
▁generat▁6748
▁pregnanc▁6749
ort▁6750
▁prostate▁6751
▁pup▁6752
▁impair▁6753
amma▁6754
▁retard▁6755
▁nourish▁6756
estro▁6757
▁PCB▁6758
▁DDT▁6759
▁determine▁6760
▁womb▁6761
fspring▁6762
ES▁6763
▁visualize▁6764
ano▁6765
▁fetus▁6766
▁artificial▁6767
▁van▁6768
guard▁6769
▁resonance▁6770
▁communicator▁6771
▁contaminat▁6772
▁activist▁6773
▁sperm▁6774
icular▁6775
bule▁6776
▁reptile▁6777
▁coincidence▁6778
▁semen▁6779
▁urine▁6780
American▁6781
▁chlorop▁6782
▁gas▁6783
▁Carson▁6784
bug▁6785
abo▁6786
▁Uganda▁6787
▁sole▁6788
▁bath▁6789
▁environmental▁6790
▁Oakland▁6791
▁faucet▁6792
percussion▁6793
▁ignorant▁6794
▁burden▁6795
▁Daw▁6796
▁novelist▁6797
truck▁6798
▁fixate▁6799
▁Hurricane▁6800
▁Sand▁6801
▁Mau▁6802
▁haul▁6803
▁gallon▁6804
▁batteries▁6805
▁shower▁6806
▁preoccup▁6807
▁baker▁6808
▁entrance▁6809
ison▁6810
charging▁6811
▁outlet▁6812
▁indirect▁6813
▁arc▁6814
▁discrete▁6815
▁heartbreak▁6816
▁disappointment▁6817
frame▁6818
▁immersive▁6819
▁embedded▁6820
▁bud▁6821
▁regret▁6822
▁nostalgi▁6823
▁alter▁6824
runk▁6825
▁granular▁6826
▁comprehend▁6827
second▁6828
▁signal▁6829
▁arrow▁6830
▁app▁6831
▁Delhi▁6832
▁reservation▁6833
▁plain▁6834
▁archive▁6835
▁distinction▁6836
▁prioritize▁6837
▁landmark▁6838
▁invitation▁6839
▁author▁6840
▁incessant▁6841
▁exile▁6842
▁sake▁6843
▁competition▁6844
▁absent▁6845
▁convenience▁6846
▁horror▁6847
▁Paris▁6848
▁shatter▁6849
▁displac▁6850
▁perpetuate▁6851
rift▁6852
▁rupture▁6853
▁simultaneous▁6854
vis▁6855
▁Bud▁6856
▁Spanish▁6857
▁rid▁6858
link▁6859
▁terra▁6860
▁Jupiter▁6861
▁Saturn▁6862
▁Bear▁6863
▁balance▁6864
▁wrapp▁6865
war▁6866
▁deepest▁6867
▁clutch▁6868
▁soap▁6869
selves▁6870
▁encapsulate▁6871
▁skip▁6872
▁tuck▁6873
▁cub▁6874
▁chopp▁6875
ib▁6876
▁tune▁6877
bb▁6878
▁Behar▁6879
▁dig▁6880
▁wit▁6881
$▁6882
▁Turkish▁6883
▁carpet▁6884
▁spear▁6885
▁mom▁6886
oyle▁6887
▁storytelling▁6888
surfing▁6889
witzer▁6890
▁mast▁6891
▁fin▁6892
▁trap▁6893
▁graphics▁6894
▁Silicon▁6895
▁Valley▁6896
▁manager▁6897
PO▁6898
▁Luke▁6899
▁retrospect▁6900
▁styl▁6901
▁quote▁6902
▁advertis▁6903
project▁6904
▁functionalit▁6905
▁Mini▁6906
▁horizontal▁6907
▁manufacturer▁6908
stool▁6909
ture▁6910
▁Swa▁6911
▁lamp▁6912
▁Herman▁6913
▁Miller▁6914
▁mood▁6915
▁civic▁6916
▁users▁6917
▁glue▁6918
bone▁6919
▁tech▁6920
▁nerd▁6921
ories▁6922
▁pursu▁6923
▁sketch▁6924
ain▁6925
▁Rahm▁6926
▁CEO▁6927
▁Ali▁6928
▁dedicate▁6929
▁Ar▁6930
▁sodas▁6931
▁symmetric▁6932
▁upside▁6933
▁emulate▁6934
▁Laptop▁6935
▁precious▁6936
▁Nichol▁6937
▁Negro▁6938
pont▁6939
▁spoken▁6940
▁founder▁6941
▁OLPC▁6942
Fi▁6943
▁sunlight▁6944
▁keyboard▁6945
▁rubber▁6946
▁supplier▁6947
▁Uru▁6948
gua▁6949
▁Mongol▁6950
▁bei▁6951
▁manufactur▁6952
▁nephew▁6953
▁Valenti▁6954
▁Health▁6955
▁dispense▁6956
▁hydrant▁6957
▁Puer▁6958
▁homeless▁6959
▁announcement▁6960
▁stigma▁6961
▁Egg▁6962
▁Up▁6963
▁School▁6964
▁spell▁6965
alencia▁6966
lept▁6967
▁Neil▁6968
▁compar▁6969
▁Brooklyn▁6970
▁flexible▁6971
▁Park▁6972
lop▁6973
▁inspiring▁6974
working▁6975
fund▁6976
▁multiply▁6977
▁clone▁6978
▁editor▁6979
▁assistant▁6980
▁professors▁6981
▁prima▁6982
▁nurtur▁6983
▁enlighten▁6984
uit▁6985
▁rent▁6986
▁Mc▁6987
Swee▁6988
ney▁6989
uarter▁6990
lord▁6991
▁Ware▁6992
▁printed▁6993
▁retail▁6994
▁fluorescent▁6995
▁renovat▁6996
▁hull▁6997
cca▁6998
▁pirate▁6999
▁plank▁7000
eg▁7001
▁fitted▁7002
va▁7003
▁Jok▁7004
▁Pi▁7005
▁mop▁7006
▁salt▁7007
▁curtain▁7008
▁edit▁7009
▁tables▁7010
▁auction▁7011
▁Holi▁7012
▁sandwich▁7013
▁sidewalk▁7014
▁Free▁7015
▁Tutor▁7016
our▁7017
▁Come▁7018
▁All▁7019
▁discourag▁7020
▁Mexic▁7021
▁executive▁7022
▁pe▁7023
hat▁7024
Mo▁7025
▁insane▁7026
shoulder▁7027
computer▁7028
▁gifted▁7029
▁modeling▁7030
pollinat▁7031
▁stall▁7032
▁hobbi▁7033
▁1,4▁7034
▁corp▁7035
▁Book▁7036
▁Was▁7037
▁Never▁7038
▁Check▁7039
▁Cind▁7040
▁malleab▁7041
▁essay▁7042
▁staff▁7043
▁Room▁7044
▁style▁7045
▁library▁7046
▁52▁7047
▁Stra▁7048
ight▁7049
▁Mayor▁7050
▁Gavi▁7051
▁Isabel▁7052
▁Allende▁7053
▁assign▁7054
▁Marshall▁7055
▁High▁7056
▁Bay▁7057
▁Area▁7058
▁Amazon▁7059
▁170▁7060
▁Might▁7061
▁Some▁7062
▁addict▁7063
shelf▁7064
▁diminish▁7065
gag▁7066
▁judge▁7067
▁member▁7068
▁gateway▁7069
▁web▁7070
▁parrot▁7071
▁downtown▁7072
upp▁7073
▁Compan▁7074
▁Sam▁7075
▁Pot▁7076
▁superhero▁7077
▁repurpos▁7078
▁villain▁7079
▁vault▁7080
▁herois▁7081
▁sales▁7082
▁Sharo▁7083
▁Hob▁7084
▁Jersey▁7085
▁shelve▁7086
▁grappl▁7087
▁builder▁7088
no▁7089
borough▁7090
▁devotion▁7091
▁flick▁7092
▁Khal▁7093
▁Ham▁7094
dan▁7095
▁addictive▁7096
rot▁7097
Be▁7098
▁Pen▁7099
gu▁7100
▁Bal▁7101
▁penguin▁7102
▁Symphon▁7103
▁Space▁7104
▁evangelical▁7105
▁cousin▁7106
▁Echo▁7107
▁Tra▁7108
▁Mar▁7109
▁Are▁7110
▁mammoth▁7111
▁Slu▁7112
▁Ord▁7113
▁Back▁7114
ff▁7115
▁Pitt▁7116
▁Massac▁7117
hus▁7118
etts▁7119
▁Spot▁7120
incin▁7121
nati▁7122
outh▁7123
▁Sp▁7124
▁Studio▁7125
▁Bat▁7126
▁Word▁7127
▁Dublin▁7128
▁leap▁7129
ttendee▁7130
▁Hot▁7131
▁phenomenal▁7132
▁sterile▁7133
▁bureaucrat▁7134
▁unten▁7135
dding▁7136
▁Root▁7137
▁Wol▁7138
engineering▁7139
▁dogs▁7140
▁biotechnolog▁7141
▁Darwinian▁7142
▁nich▁7143
▁settl▁7144
▁intentional▁7145
▁intentionally▁7146
▁physiological▁7147
wind▁7148
▁selective▁7149
design▁7150
▁beef▁7151
▁buffalo▁7152
ca▁7153
▁pat▁7154
▁supermarket▁7155
▁goat▁7156
▁cute▁7157
▁afterward▁7158
▁taste▁7159
▁camel▁7160
iness▁7161
▁li▁7162
▁lion▁7163
iger▁7164
▁Photoshop▁7165
▁enhancement▁7166
▁manipulation▁7167
▁mammalian▁7168
▁genetically▁7169
▁mammal▁7170
▁wavelength▁7171
▁orange▁7172
▁monkey▁7173
▁manipulate▁7174
▁apes▁7175
▁zebra▁7176
▁FDA▁7177
almon▁7178
▁Chi▁7179
▁regulation▁7180
▁identification▁7181
▁clon▁7182
▁Prome▁7183
▁horse▁7184
linger▁7185
▁gold▁7186
geld▁7187
▁duplicate▁7188
lves▁7189
sta▁7190
▁Jan▁7191
▁Dotcom▁7192
ombin▁7193
▁modifie▁7194
▁Gene▁7195
gen▁7196
▁Institute▁7197
▁Animal▁7198
uar▁7199
▁Asian▁7200
ulate▁7201
matic▁7202
▁gest▁7203
▁cow▁7204
▁regular▁7205
▁nucle▁7206
▁mitochondrial▁7207
▁pure▁7208
▁cockroach▁7209
▁gang▁7210
▁transmitter▁7211
▁insect▁7212
▁bot▁7213
bot▁7214
▁DARPA▁7215
▁Agenc▁7216
▁beetle▁7217
▁wings▁7218
▁chip▁7219
▁shut▁7220
pf▁7221
ft▁7222
▁surveill▁7223
▁rob▁7224
▁Tal▁7225
▁SUN▁7226
▁hemisphere▁7227
▁ethical▁7228
▁autonom▁7229
▁Mig▁7230
▁Nicole▁7231
▁prosthetic▁7232
wave▁7233
▁cage▁7234
▁staring▁7235
▁primate▁7236
▁functional▁7237
▁Florida▁7238
▁60,000▁7239
▁mechanism▁7240
▁simulator▁7241
val▁7242
▁nutrient▁7243
▁immun▁7244
▁polymer▁7245
▁scaffold▁7246
▁transplant▁7247
technolog▁7248
▁xeno▁7249
transplantation▁7250
▁Craig▁7251
▁Venter▁7252
▁synthesizer▁7253
▁Frankenstein▁7254
plasma▁7255
▁reign▁7256
▁Dach▁7257
hund▁7258
▁pink▁7259
▁fur▁7260
▁saliva▁7261
▁Fan▁7262
haus▁7263
zero▁7264
▁Auto▁7265
▁Laborator▁7266
TH▁7267
▁Ball▁7268
▁balanc▁7269
▁inherent▁7270
▁counteract▁7271
▁inform▁7272
▁entertain▁7273
▁footprint▁7274
▁Debora▁7275
▁Rhode▁7276
▁physicist▁7277
▁detection▁7278
▁mammogram▁7279
▁mammograph▁7280
▁rhetoric▁7281
▁radiologist▁7282
▁disclosure▁7283
▁survivor▁7284
▁lump▁7285
▁diagnose▁7286
▁benign▁7287
logy▁7288
▁erupt▁7289
▁Pre▁7290
▁Service▁7291
Task▁7292
▁recommend▁7293
▁coverage▁7294
▁outrage▁7295
▁Post▁7296
interest▁7297
▁shortage▁7298
▁qualifie▁7299
▁interpret▁7300
▁sued▁7301
▁responsibl▁7302
▁fat▁7303
▁epi▁7304
▁determined▁7305
▁menopaus▁7306
▁fatty▁7307
▁scatter▁7308
▁fibro▁7309
▁heterogen▁7310
lf▁7311
▁distinguish▁7312
▁obscure▁7313
▁physician▁7314
▁taxpayer▁7315
enopaus▁7316
▁ultrasound▁7317
biopsie▁7318
▁disruptive▁7319
▁ubiquitous▁7320
▁stereo▁7321
▁Hummer▁7322
▁Malco▁7323
lm▁7324
▁Gladwell▁7325
▁essence▁7326
▁innovator▁7327
▁cartoon▁7328
▁disturb▁7329
▁depict▁7330
▁serendipit▁7331
▁May▁7332
▁cardiac▁7333
▁detector▁7334
▁tubes▁7335
▁sci▁7336
illa▁7337
▁ray▁7338
▁centimeter▁7339
▁semiconductor▁7340
▁tape▁7341
olecular▁7342
▁MBI▁7343
ternis▁7344
ka▁7345
▁biomedic▁7346
rench▁7347
▁duct▁7348
▁skeptic▁7349
▁understate▁7350
▁modification▁7351
▁relie▁7352
▁molecular▁7353
per▁7354
log▁7355
▁40-▁7356
▁compress▁7357
▁faint▁7358
▁surgical▁7359
▁grant▁7360
▁Susan▁7361
▁Ko▁7362
▁investigator▁7363
▁83▁7364
centimeter▁7365
▁secretar▁7366
▁golf▁7367
▁lymph▁7368
▁67▁7369
fifth▁7370
atom▁7371
ologist▁7372
▁accurate▁7373
▁prefer▁7374
▁manuscript▁7375
▁journal▁7376
▁rejection▁7377
▁request▁7378
▁reconsider▁7379
▁Radio▁7380
▁replicate▁7381
doption▁7382
▁Ninety▁7383
▁Connecti▁7384
▁menstrua▁7385
▁rage▁7386
▁mortality▁7387
▁sword▁7388
▁advocate▁7389
together▁7390
ctic▁7391
ect▁7392
granddaughter▁7393
▁Raspyni▁7394
▁Brother▁7395
▁juggl▁7396
▁juggler▁7397
▁uncann▁7398
▁agil▁7399
▁sacrifice▁7400
▁Holz▁7401
bag▁7402
▁Barry▁7403
omics▁7404
▁comfort▁7405
▁flexibilit▁7406
▁DH▁7407
▁inspiration▁7408
F▁7409
▁Daniel▁7410
▁MacArthur▁7411
▁Mosche▁7412
▁excerpt▁7413
opper▁7414
▁Richard▁7415
▁tradition▁7416
▁bull▁7417
▁balloon▁7418
▁incorporate▁7419
▁Jesus▁7420
▁Christ▁7421
▁Wurma▁7422
RW▁7423
▁hate▁7424
▁Wow▁7425
▁1,0▁7426
▁flash▁7427
▁Glori▁7428
▁razor▁7429
▁judg▁7430
▁blade▁7431
▁virgin▁7432
▁odd▁7433
▁eyeball▁7434
gosh▁7435
▁French▁7436
▁5.▁7437
▁rap▁7438
▁lying▁7439
▁twin▁7440
▁She▁7441
▁Jr▁7442
▁Olympic▁7443
▁pearl▁7444
▁tongue▁7445
▁Seven▁7446
club▁7447
▁Stone▁7448
fu▁7449
▁joint▁7450
rthritis▁7451
step▁7452
human▁7453
nis▁7454
cus▁7455
▁carti▁7456
▁ligament▁7457
▁orthopedic▁7458
▁destin▁7459
▁assum▁7460
▁worn▁7461
▁midst▁7462
▁Doc▁7463
ograf▁7464
▁graft▁7465
grow▁7466
king▁7467
▁Aspen▁7468
▁J▁7469
▁Hu▁7470
▁motorcycle▁7471
▁barrier▁7472
▁gal▁7473
▁Achilles▁7474
▁collage▁7475
▁strip▁7476
▁degrad▁7477
▁detergent▁7478
▁template▁7479
▁insert▁7480
▁procedure▁7481
approve▁7482
▁Gal▁7483
▁Tu▁7484
▁Master▁7485
hill▁7486
lig▁7487
▁tack▁7488
face▁7489
bul▁7490
patient▁7491
ware▁7492
▁2.0▁7493
▁Dick▁7494
▁squea▁7495
▁delicac▁7496
▁caterpillar▁7497
▁eco▁7498
friend▁7499
timation▁7500
▁conservative▁7501
▁57▁7502
▁contribution▁7503
▁dung▁7504
▁pollinate▁7505
▁reproduction▁7506
▁pest▁7507
ji▁7508
▁inhabitant▁7509
▁gram▁7510
▁tomato▁7511
▁peanut▁7512
▁agency▁7513
▁balls▁7514
imi▁7515
▁dye▁7516
eat▁7517
▁Can▁7518
▁Peru▁7519
euros▁7520
▁exponentially▁7521
FA▁7522
▁wealthie▁7523
▁consist▁7524
stock▁7525
▁vegetarian▁7526
▁organs▁7527
therland▁7528
▁classical▁7529
▁fever▁7530
▁convers▁7531
▁entrepreneur▁7532
▁kg▁7533
▁bonus▁7534
mmonia▁7535
analyse▁7536
▁comparabl▁7537
▁grasshopper▁7538
▁Mac▁7539
▁expense▁7540
▁vary▁7541
▁Arno▁7542
eter▁7543
▁2020▁7544
▁maker▁7545
▁Minister▁7546
▁Agri▁7547
▁menu▁7548
▁ministr▁7549
gue▁7550
▁hobby▁7551
▁1,7▁7552
▁Wagen▁7553
▁Bruno▁7554
▁Gius▁7555
sani▁7556
▁nuts▁7557
▁Lawrence▁7558
▁Le▁7559
ami▁7560
▁remix▁7561
▁Republican▁7562
▁Larry▁7563
▁Democrat▁7564
▁copyright▁7565
▁lens▁7566
▁conservatives▁7567
▁yearning▁7568
▁confess▁7569
oung▁7570
▁Tee▁7571
ngest▁7572
legation▁7573
▁convention▁7574
▁elect▁7575
onald▁7576
▁Reagan▁7577
mine▁7578
▁Wikipedia▁7579
▁junk▁7580
▁Penn▁7581
lvani▁7582
▁speaker▁7583
▁pot▁7584
luck▁7585
▁Wall▁7586
▁firms▁7587
▁believer▁7588
▁keen▁7589
▁ecolog▁7590
▁Teddy▁7591
▁Roosevelt▁7592
▁Julian▁7593
che▁7594
▁libertarian▁7595
▁evil▁7596
▁Bra▁7597
▁Pack▁7598
ania▁7599
▁viral▁7600
▁Fransisco▁7601
▁Francis▁7602
▁emulat▁7603
▁mash▁7604
▁screw▁7605
▁resonate▁7606
LL▁7607
▁yield▁7608
▁mediate▁7609
▁dialogue▁7610
▁articulat▁7611
▁permea▁7612
▁maximize▁7613
▁suppress▁7614
▁Mick▁7615
team▁7616
▁Willi▁7617
▁dominant▁7618
▁Bus▁7619
▁Keat▁7620
▁celebration▁7621
▁Sonn▁7622
▁Bono▁7623
▁Copyright▁7624
tension▁7625
▁Act▁7626
▁Grim▁7627
bble▁7628
▁footnote▁7629
▁creator▁7630
▁Mash▁7631
▁rights▁7632
▁perpetual▁7633
▁employ▁7634
ership▁7635
▁Goldman▁7636
▁Sach▁7637
protected▁7638
▁permission▁7639
▁nonprofit▁7640
▁Creative▁7641
▁requir▁7642
▁350▁7643
▁Wir▁7644
▁upload▁7645
G▁7646
▁matched▁7647
▁DMCA▁7648
▁flaw▁7649
▁audio▁7650
▁included▁7651
▁Bart▁7652
▁Simpson▁7653
▁election▁7654
▁opponent▁7655
▁refus▁7656
▁respectful▁7657
▁luna▁7658
▁agreement▁7659
▁Right▁7660
▁legislati▁7661
▁BMW▁7662
▁Deep▁7663
▁SUV▁7664
▁pole▁7665
▁aesthetic▁7666
terminolog▁7667
▁Michelangelo▁7668
mov▁7669
▁elevator▁7670
▁congesti▁7671
▁avatar▁7672
▁anger▁7673
▁Chevy▁7674
▁Rock▁7675
▁sculpture▁7676
▁tension▁7677
▁craftsman▁7678
▁handle▁7679
▁obligation▁7680
▁clay▁7681
▁sensual▁7682
▁infectious▁7683
▁Plato▁7684
▁Newton▁7685
▁quant▁7686
▁paradox▁7687
▁4.▁7688
▁4.000▁7689
▁divergen▁7690
▁applica▁7691
chan▁7692
brush▁7693
substitut▁7694
▁intimacy▁7695
▁temperament▁7696
▁Pygm▁7697
▁killing▁7698
▁stole▁7699
▁fax▁7700
▁monumental▁7701
▁postcard▁7702
▁Las▁7703
▁Vega▁7704
▁Canyon▁7705
▁Niagara▁7706
▁Fall▁7707
▁apartment▁7708
▁Taylor▁7709
▁Mal▁7710
dozen▁7711
▁Don▁7712
▁stressed▁7713
▁dialog▁7714
schel▁7715
▁agenda▁7716
▁sketches▁7717
▁brillian▁7718
▁baffl▁7719
▁bullshit▁7720
▁fuck▁7721
▁ballistic▁7722
rad▁7723
▁holiday▁7724
▁Cathe▁7725
rine▁7726
▁priest▁7727
▁sermon▁7728
▁selfish▁7729
▁Guy▁7730
ifi▁7731
▁dictate▁7732
▁forge▁7733
▁coup▁7734
▁brute▁7735
▁Sinclair▁7736
▁refugee▁7737
bus▁7738
▁TEDGlobal▁7739
reported▁7740
estate▁7741
▁mega▁7742
▁migrant▁7743
▁construction▁7744
▁strand▁7745
▁penni▁7746
tari▁7747
▁worker▁7748
▁skyscraper▁7749
AE▁7750
▁cancel▁7751
▁1.1▁7752
▁Pakistani▁7753
▁Sri▁7754
▁Lanka▁7755
ese▁7756
▁passport▁7757
▁Build▁7758
safe▁7759
▁August▁7760
98▁7761
▁minimum▁7762
▁protest▁7763
adequate▁7764
▁hous▁7765
▁contractor▁7766
lever▁7767
▁arrival▁7768
▁developer▁7769
▁comp▁7770
ethical▁7771
▁Tyle▁7772
▁plans▁7773
▁horrify▁7774
▁textbook▁7775
▁clar▁7776
▁bor▁7777
▁um▁7778
▁smile▁7779
▁memorize▁7780
▁Listen▁7781
▁microscope▁7782
▁bacteri▁7783
▁spoil▁7784
▁horrible▁7785
▁slipp▁7786
▁blueprint▁7787
▁factory▁7788
pionage▁7789
▁cloak▁7790
▁terrorist▁7791
▁guarantee▁7792
▁obsession▁7793
▁publisher▁7794
▁engag▁7795
▁slime▁7796
ehen▁7797
▁copie▁7798
ophag▁7799
replication▁7800
▁initiat▁7801
▁13-▁7802
▁fault▁7803
▁tyrann▁7804
▁ugl▁7805
▁jean▁7806
gging▁7807
▁darkness▁7808
▁Roh▁7809
▁paraphras▁7810
▁sentiment▁7811
▁relevant▁7812
▁disappointed▁7813
▁advoca▁7814
▁learner▁7815
perpetuat▁7816
ech▁7817
▁circum▁7818
▁equi▁7819
libri▁7820
pel▁7821
▁LOLcat▁7822
▁appreciat▁7823
rgon▁7824
▁Su▁7825
wall▁7826
▁Eco▁7827
▁recycl▁7828
efficient▁7829
▁Serious▁7830
▁Material▁7831
rctic▁7832
▁CO▁7833
▁sushi▁7834
▁redesign▁7835
▁gyps▁7836
amp▁7837
▁amp▁7838
▁cement▁7839
▁Dec▁7840
ember▁7841
▁slur▁7842
▁President▁7843
▁Operation▁7844
▁ceremon▁7845
▁Cradle▁7846
▁Gold▁7847
▁Green▁7848
In▁7849
▁Popular▁7850
lick▁7851
collar▁7852
▁Natalie▁7853
▁reduc▁7854
▁Windows▁7855
▁windows▁7856
▁Ban▁7857
▁emergenc▁7858
proof▁7859
▁temporar▁7860
▁330▁7861
▁diameter▁7862
▁expo▁7863
▁theme▁7864
▁pavilion▁7865
▁reus▁7866
▁Pomp▁7867
etz▁7868
▁historical▁7869
▁reconstruction▁7870
▁1994▁7871
▁tribes▁7872
▁Hut▁7873
▁Tutsi▁7874
▁blanket▁7875
▁deforest▁7876
▁pipe▁7877
▁barr▁7878
▁du▁7879
▁moisture▁7880
▁termite▁7881
▁1995▁7882
▁Kobe▁7883
▁district▁7884
▁Vietnamese▁7885
▁suffering▁7886
▁Catholic▁7887
▁commut▁7888
▁fundrais▁7889
▁Kir▁7890
▁Asa▁7891
▁Taiwan▁7892
▁donate▁7893
▁dismantle▁7894
urkey▁7895
▁Sumatra▁7896
▁rebuil▁7897
▁Islamic▁7898
▁Chen▁7899
▁Sich▁7900
uan▁7901
▁corruption▁7902
▁Prime▁7903
▁Ber▁7904
▁minister▁7905
▁concert▁7906
▁mayor▁7907
▁Haiti▁7908
▁Santo▁7909
▁Domin▁7910
door▁7911
▁evacuat▁7912
▁privacy▁7913
▁suffer▁7914
▁civil▁7915
ag▁7916
awa▁7917
iya▁7918
▁baseball▁7919
▁container▁7920
church▁7921
▁Zer▁7922
ay▁7923
paleoanthropolog▁7924
▁skeleton▁7925
▁humanoid▁7926
▁converge▁7927
▁upright▁7928
▁Sela▁7929
▁3.3▁7930
▁Australopithec▁7931
fare▁7932
▁Luc▁7933
ik▁7934
ika▁7935
▁significan▁7936
▁digg▁7937
▁2.▁7938
▁flute▁7939
▁chimpanzee▁7940
▁ancestr▁7941
▁gradual▁7942
▁hostile▁7943
▁shove▁7944
▁paleontolog▁7945
▁extinct▁7946
▁rhino▁7947
spread▁7948
▁Homo▁7949
▁sapien▁7950
▁anecdote▁7951
▁Here▁7952
▁Ze▁7953
▁frustrat▁7954
▁sandstone▁7955
case▁7956
▁expose▁7957
tourism▁7958
▁hallmark▁7959
▁forehead▁7960
▁dim▁7961
▁CT▁7962
▁chimp▁7963
▁cope▁7964
▁dependenc▁7965
▁unite▁7966
oid▁7967
▁progressive▁7968
▁preserve▁7969
▁occupy▁7970
▁specimen▁7971
▁primitive▁7972
brain▁7973
▁needless▁7974
▁competent▁7975
▁guns▁7976
iz▁7977
▁Homer▁7978
▁hippocamp▁7979
▁seahorse▁7980
▁resemble▁7981
▁pulse▁7982
▁electricity▁7983
▁interconnected▁7984
▁spatial▁7985
▁recording▁7986
▁neuron▁7987
▁continual▁7988
▁epilep▁7989
▁impulse▁7990
▁detect▁7991
▁boundary▁7992
▁circular▁7993
▁marker▁7994
▁wander▁7995
▁integrate▁7996
▁array▁7997
▁triangula▁7998
▁longitud▁7999
▁triangle▁8000
▁axe▁8001
▁symmetr▁8002
▁orientation▁8003
detect▁8004
▁matche▁8005
▁cue▁8006
▁autobiograph▁8007
▁wedding▁8008
▁recreate▁8009
▁activat▁8010
▁interconnection▁8011
▁reactiv▁8012
▁viewpoint▁8013
▁compass▁8014
▁neuroscience▁8015
▁Jones▁8016
legged▁8017
plex▁8018
▁Josh▁8019
omi▁8020
▁Circle▁8021
▁Curt▁8022
▁Vanco▁8023
uver▁8024
15▁8025
▁marsh▁8026
▁stirring▁8027
▁encouragement▁8028
▁existence▁8029
▁follower▁8030
▁warrior▁8031
▁thorn▁8032
force▁8033
▁dress▁8034
down▁8035
▁patern▁8036
▁incompatib▁8037
peration▁8038
▁Wide▁8039
▁Web▁8040
▁corporation▁8041
batt▁8042
intention▁8043
care▁8044
▁sport▁8045
▁pub▁8046
▁meditate▁8047
▁realistic▁8048
▁retire▁8049
▁commute▁8050
▁10-▁8051
▁daunting▁8052
▁Blood▁8053
▁Harry▁8054
▁swing▁8055
▁pizza▁8056
▁Batman▁8057
▁pajama▁8058
▁Giant▁8059
▁Playstation▁8060
▁upheaval▁8061
▁mor▁8062
▁simplistic▁8063
▁unanswer▁8064
▁shap▁8065
▁constitute▁8066
▁consequent▁8067
▁separation▁8068
▁crucial▁8069
constru▁8070
▁complexity▁8071
▁etern▁8072
▁strangers▁8073
▁murder▁8074
▁indiscriminate▁8075
▁conceivabl▁8076
holera▁8077
▁arrangement▁8078
▁necessit▁8079
▁suicide▁8080
▁72▁8081
▁psychology▁8082
stical▁8083
▁deduct▁8084
▁cooperation▁8085
raising▁8086
▁bruise▁8087
▁bli▁8088
▁rationale▁8089
▁spare▁8090
▁rod▁8091
defin▁8092
▁Spec▁8093
▁statue▁8094
▁carve▁8095
▁marathon▁8096
▁donation▁8097
vision▁8098
uous▁8099
▁undermine▁8100
ueen▁8101
izen▁8102
▁voluntary▁8103
▁veil▁8104
▁youth▁8105
▁optimal▁8106
▁dem▁8107
ogue▁8108
▁gay▁8109
▁proliferation▁8110
▁conception▁8111
alai▁8112
▁Lama▁8113
▁meditat▁8114
▁integral▁8115
▁Ted▁8116
▁Bund▁8117
▁fond▁8118
▁abduct▁8119
▁Edward▁8120
▁Witt▁8121
▁theorist▁8122
▁physics▁8123
▁String▁8124
▁bo▁8125
▁exclude▁8126
▁ignorance▁8127
course▁8128
▁destructive▁8129
invent▁8130
▁airplane▁8131
▁lust▁8132
▁imperial▁8133
▁voluntar▁8134
▁burqa▁8135
▁reconcile▁8136
▁negative▁8137
far▁8138
▁compuls▁8139
▁interrogate▁8140
▁judgment▁8141
modu▁8142
lo▁8143
▁delusion▁8144
ecause▁8145
▁boyfriend▁8146
▁ecsta▁8147
▁Kavita▁8148
▁Ram▁8149
style▁8150
▁Global▁8151
▁Fund▁8152
▁traditions▁8153
▁trends▁8154
ima▁8155
▁blur▁8156
▁polar▁8157
▁First▁8158
▁Third▁8159
▁oppress▁8160
▁vicious▁8161
plan▁8162
violent▁8163
▁Chim▁8164
▁Adichie▁8165
▁puzzle▁8166
▁devou▁8167
▁harmon▁8168
▁lesbian▁8169
▁Croatia▁8170
▁Liberia▁8171
bt▁8172
dem▁8173
eanor▁8174
▁bless▁8175
▁suspicious▁8176
▁uncle▁8177
▁Poor▁8178
▁widow▁8179
▁descend▁8180
ani▁8181
wild▁8182
Ramu▁8183
mutter▁8184
▁feminist▁8185
▁chant▁8186
▁Hind▁8187
▁Beijing▁8188
turn▁8189
▁oppressi▁8190
▁Sake▁8191
▁Koran▁8192
▁litera▁8193
▁breeze▁8194
▁immense▁8195
▁pragmatic▁8196
▁assist▁8197
▁mosque▁8198
ug▁8199
▁realiz▁8200
▁opposition▁8201
▁Lesbo▁8202
▁Za▁8203
▁homosexual▁8204
▁discomfort▁8205
▁prejudice▁8206
conflict▁8207
▁religios▁8208
▁unbearabl▁8209
▁Bosnia▁8210
▁Serbia▁8211
lov▁8212
▁folk▁8213
▁queer▁8214
▁Leah▁8215
▁rebellio▁8216
ugoslav▁8217
mp▁8218
rob▁8219
▁LGBT▁8220
▁alchemist▁8221
▁repertoire▁8222
▁grin▁8223
▁Church▁8224
balk▁8225
▁trou▁8226
bad▁8227
▁Balkan▁8228
▁Cro▁8229
▁Serb▁8230
lika▁8231
▁Ley▁8232
mah▁8233
we▁8234
▁stri▁8235
woman▁8236
▁distress▁8237
▁affair▁8238
▁oppos▁8239
▁dragg▁8240
▁tense▁8241
▁deliberation▁8242
▁curse▁8243
▁accord▁8244
▁mobiliz▁8245
▁Ellen▁8246
af▁8247
▁acknowledge▁8248
▁Fil▁8249
rice▁8250
parade▁8251
▁Marx▁8252
▁subvert▁8253
▁dreams▁8254
▁feminism▁8255
▁ruling▁8256
▁occupie▁8257
▁negotiation▁8258
▁mar▁8259
▁Michelle▁8260
▁Shiri▁8261
bou▁8262
▁navigate▁8263
militar▁8264
▁thread▁8265
▁fabric▁8266
▁Kathr▁8267
▁Schulz▁8268
▁compell▁8269
▁Providenc▁8270
▁Portland▁8271
▁Dakota▁8272
▁row▁8273
▁imitation▁8274
▁picnic▁8275
▁misunderst▁8276
▁poll▁8277
▁emotionally▁8278
▁dreadful▁8279
▁embarrassing▁8280
▁rev▁8281
▁Tun▁8282
▁pathetic▁8283
▁coyote▁8284
▁episode▁8285
▁elementary▁8286
maker▁8287
▁perfection▁8288
achi▁8289
▁CFO▁8290
trophy▁8291
▁ultra▁8292
marathon▁8293
▁virtuo▁8294
▁Beth▁8295
▁Medica▁8296
▁anesthetize▁8297
▁stitch▁8298
▁For▁8299
▁external▁8300
▁Gulf▁8301
▁torpedo▁8302
▁disagree▁8303
▁generous▁8304
ronic▁8305
▁attachment▁8306
▁translucen▁8307
▁Descartes▁8308
▁Augustin▁8309
▁Public▁8310
crypto▁8311
▁revers▁8312
▁listener▁8313
▁readers▁8314
▁invade▁8315
destruction▁8316
osni▁8317
bar▁8318
▁dictator▁8319
▁marry▁8320
heart▁8321
town▁8322
▁astonishe▁8323
▁offense▁8324
▁advancement▁8325
alter▁8326
▁eh▁8327
▁Peace▁8328
apped▁8329
lt▁8330
▁chief▁8331
wear▁8332
▁Wei▁8333
▁companion▁8334
▁activis▁8335
▁Gender▁8336
▁bloat▁8337
▁pale▁8338
▁sibling▁8339
▁19▁8340
▁athletic▁8341
▁Millennium▁8342
evelopment▁8343
prostitution▁8344
▁gum▁8345
▁prostitute▁8346
arten▁8347
▁TEDTalk▁8348
▁laureate▁8349
▁Girl▁8350
▁Transform▁8351
▁soft▁8352
▁cellphone▁8353
▁Juan▁8354
ita▁8355
▁doughnut▁8356
▁upset▁8357
▁Texas▁8358
▁LG▁8359
▁Initiative▁8360
▁pessimist▁8361
▁predominant▁8362
▁mobilize▁8363
▁rape▁8364
▁barbari▁8365
▁Lesl▁8366
▁Chang▁8367
▁globalization▁8368
▁megacit▁8369
▁handbag▁8370
▁rooftop▁8371
▁assembl▁8372
▁iPad▁8373
▁beneficia▁8374
rie▁8375
▁purchase▁8376
▁injustice▁8377
▁appeal▁8378
▁gadget▁8379
▁render▁8380
▁invisib▁8381
▁Wu▁8382
▁Chu▁8383
▁satisfy▁8384
▁Ji▁8385
▁Dong▁8386
▁dormitor▁8387
▁Lu▁8388
q▁8389
▁abbreviat▁8390
▁Karl▁8391
▁capitalism▁8392
▁cabinet▁8393
▁satisfact▁8394
▁entry▁8395
level▁8396
▁calculation▁8397
▁Min▁8398
▁Coach▁8399
▁purse▁8400
▁leather▁8401
▁Doo▁8402
port▁8403
▁320▁8404
▁6,000▁8405
▁currenc▁8406
▁worthless▁8407
▁Signatur▁8408
▁luxur▁8409
▁fla▁8410
▁ador▁8411
▁tendenc▁8412
▁electronics▁8413
▁purchas▁8414
▁Buick▁8415
▁crane▁8416
▁temporari▁8417
▁migration▁8418
▁Nike▁8419
▁depressing▁8420
▁Apple▁8421
LC▁8422
▁impressed▁8423
▁resourceful▁8424
▁illiterate▁8425
▁weekend▁8426
▁rudiment▁8427
▁upward▁8428
▁downward▁8429
ways▁8430
Gregor▁8431
kka▁8432
ei▁8433
form▁8434
▁script▁8435
▁Cyr▁8436
▁Cy▁8437
▁tolerance▁8438
cultural▁8439
▁Director▁8440
▁biograph▁8441
▁rug▁8442
▁bake▁8443
▁187▁8444
▁invasion▁8445
pot▁8446
▁ruler▁8447
▁Bel▁8448
sha▁8449
zzar▁8450
▁53▁8451
▁BC▁8452
▁Rembrandt▁8453
▁Galler▁8454
▁illustrat▁8455
▁scripture▁8456
buch▁8457
▁Jerusalem▁8458
▁Jew▁8459
▁Babylon▁8460
ile▁8461
sia▁8462
▁fest▁8463
▁Persian▁8464
▁Jewish▁8465
▁empire▁8466
▁Mediterrane▁8467
pple▁8468
▁Iraqi▁8469
▁Babylonian▁8470
▁consultant▁8471
▁enslave▁8472
▁repress▁8473
ltar▁8474
▁worship▁8475
▁decree▁8476
▁Ezra▁8477
▁reported▁8478
▁Juda▁8479
▁reshape▁8480
▁historic▁8481
▁Dari▁8482
ith▁8483
▁religions▁8484
▁stabilit▁8485
▁Alexander▁8486
pho▁8487
▁Father▁8488
▁Jefferson▁8489
hurra▁8490
▁god▁8491
▁Bab▁8492
duk▁8493
▁shepherd▁8494
▁grateful▁8495
▁Old▁8496
▁Testament▁8497
▁Jehova▁8498
sai▁8499
▁unsettl▁8500
▁thou▁8501
▁hast▁8502
17▁8503
four▁8504
▁1918▁8505
▁divine▁8506
▁Shah▁8507
Muslim▁8508
▁Zo▁8509
▁emblem▁8510
ue▁8511
▁cooperate▁8512
▁loan▁8513
▁tolerant▁8514
▁tyrant▁8515
▁rum▁8516
▁constitution▁8517
utum▁8518
▁Joshua▁8519
▁Klein▁8520
▁crows▁8521
▁hacker▁8522
▁cor▁8523
▁Alfred▁8524
▁Hitchcock▁8525
Bird▁8526
▁vend▁8527
▁cocktail▁8528
anthrop▁8529
adapte▁8530
ept▁8531
▁parasit▁8532
▁responsive▁8533
▁indicat▁8534
▁exponential▁8535
▁Bett▁8536
▁crow▁8537
▁campus▁8538
▁nett▁8539
▁piss▁8540
▁nut▁8541
endai▁8542
▁suburbs▁8543
▁Pandora▁8544
▁Skinner▁8545
▁spit▁8546
▁sweep▁8547
▁slot▁8548
▁poke▁8549
eck▁8550
▁monopol▁8551
▁discard▁8552
▁exterminat▁8553
▁Logan▁8554
▁tribal▁8555
ureau▁8556
hatte▁8557
▁Bowl▁8558
▁council▁8559
▁convene▁8560
▁Budweiser▁8561
▁nach▁8562
▁candidate▁8563
▁Clinton▁8564
mination▁8565
▁funnel▁8566
▁tribe▁8567
▁Obama▁8568
USC▁8569
▁magnific▁8570
▁crowd▁8571
▁rub▁8572
▁nudge▁8573
▁Stage▁8574
▁Five▁8575
▁Virginia▁8576
▁Tech▁8577
▁Law▁8578
▁Performance▁8579
▁hostilit▁8580
▁undermin▁8581
▁expire▁8582
▁Motor▁8583
▁TEDx▁8584
changing▁8585
▁Did▁8586
▁Journal▁8587
▁Medicine▁8588
▁condescen▁8589
▁surger▁8590
ball▁8591
▁residenc▁8592
▁Zapp▁8593
▁hallway▁8594
▁applaud▁8595
▁competenc▁8596
▁gel▁8597
centric▁8598
▁Truth▁8599
▁Des▁8600
mond▁8601
utu▁8602
▁atrocit▁8603
▁reconcili▁8604
▁guid▁8605
▁accomplish▁8606
▁conclude▁8607
▁DM▁8608
▁narcissis▁8609
intuitive▁8610
▁Independen▁8611
ali▁8612
▁orient▁8613
▁Luther▁8614
▁48▁8615
▁Chief▁8616
▁Polic▁8617
▁Organization▁8618
BC▁8619
▁McCain▁8620
▁Sub▁8621
▁Frederic▁8622
agadd▁8623
lab▁8624
▁diagnostic▁8625
▁Senior▁8626
▁Fellow▁8627
wie▁8628
▁miniaturiz▁8629
▁AIDS▁8630
▁capabilit▁8631
▁medication▁8632
resistan▁8633
▁popp▁8634
▁laborator▁8635
▁microfluidic▁8636
▁US▁8637
▁valve▁8638
▁Jona▁8639
ori▁8640
▁tricks▁8641
▁dazzling▁8642
▁flower▁8643
▁ultraviolet▁8644
▁mimick▁8645
▁electron▁8646
▁forensic▁8647
▁chuck▁8648
▁grass▁8649
▁cereal▁8650
▁transfer▁8651
▁bees▁8652
ectar▁8653
▁symbio▁8654
▁hummingbird▁8655
▁hawk▁8656
spect▁8657
▁orchid▁8658
▁jaw▁8659
▁pollinator▁8660
▁Darwin▁8661
▁prediction▁8662
evolv▁8663
▁deceive▁8664
hould▁8665
▁texture▁8666
los▁8667
▁ob▁8668
▁bon▁8669
▁fabulous▁8670
lang▁8671
▁perfume▁8672
▁smelt▁8673
▁ga▁8674
icero▁8675
rum▁8676
acula▁8677
pin▁8678
▁Dor▁8679
set▁8680
mbient▁8681
▁volatile▁8682
▁metaboliz▁8683
▁starch▁8684
▁Cent▁8685
▁thermo▁8686
egulation▁8687
terflies▁8688
▁shade▁8689
hem▁8690
▁filter▁8691
screen▁8692
▁prim▁8693
rose▁8694
▁Bjor▁8695
▁Ror▁8696
▁poetic▁8697
▁astronomer▁8698
▁Venus▁8699
▁Kim▁8700
▁charm▁8701
▁resist▁8702
▁associat▁8703
▁crayon▁8704
▁inflict▁8705
▁mono▁8706
rama▁8707
huh▁8708
▁Bar▁8709
▁Flaubert▁8710
▁anxious▁8711
▁ver▁8712
mino▁8713
▁Franz▁8714
▁Kafka▁8715
▁Meta▁8716
▁justify▁8717
▁Je▁8718
▁useless▁8719
▁Michel▁8720
urnier▁8721
isch▁8722
▁tire▁8723
▁fatigue▁8724
▁Wolf▁8725
gang▁8726
▁joyful▁8727
ime▁8728
▁ballet▁8729
▁eighth▁8730
▁diligent▁8731
book▁8732
▁Real▁8733
cal▁8734
▁palace▁8735
▁seldom▁8736
▁galleries▁8737
▁Base▁8738
▁punish▁8739
paper▁8740
▁Un▁8741
▁void▁8742
▁Bull▁8743
▁urina▁8744
▁Du▁8745
banish▁8746
kara▁8747
▁mi▁8748
riff▁8749
▁Lego▁8750
castle▁8751
▁log▁8752
▁Drama▁8753
▁devil▁8754
▁creep▁8755
▁na▁8756
▁spouse▁8757
▁alcohol▁8758
▁cab▁8759
▁Lear▁8760
▁banker▁8761
▁painter▁8762
▁publicly▁8763
▁Marth▁8764
▁Graham▁8765
▁Gi▁8766
spiring▁8767
▁Cla▁8768
▁blogs▁8769
▁Sash▁8770
ucci▁8771
▁stars▁8772
92▁8773
▁threat▁8774
motion▁8775
▁Milo▁8776
evic▁8777
▁broadcast▁8778
▁Jackson▁8779
▁charit▁8780
▁handout▁8781
▁repay▁8782
rati▁8783
▁circulation▁8784
▁strangl▁8785
▁97▁8786
▁finance▁8787
▁lease▁8788
ris▁8789
▁Nikola▁8790
ev▁8791
▁planes▁8792
▁subscription▁8793
▁hypothetical▁8794
heard▁8795
▁spectacular▁8796
▁deaf▁8797
bal▁8798
uad▁8799
▁daydream▁8800
matrix▁8801
▁rating▁8802
▁Morning▁8803
▁marketplace▁8804
▁ethnicit▁8805
▁racial▁8806
▁rect▁8807
▁editorial▁8808
▁Feel▁8809
post▁8810
▁occurrence▁8811
educ▁8812
▁database▁8813
▁swarm▁8814
▁particle▁8815
▁affection▁8816
▁lips▁8817
▁pond▁8818
▁cursor▁8819
▁Montag▁8820
▁Mob▁8821
▁Metric▁8822
▁murmur▁8823
▁chronological▁8824
pped▁8825
▁fog▁8826
montage▁8827
▁mob▁8828
▁statistical▁8829
▁breakdown▁8830
▁frequent▁8831
▁prolif▁8832
gram▁8833
▁twentie▁8834
▁numerical▁8835
▁mound▁8836
▁dataset▁8837
▁gelatin▁8838
gle▁8839
▁lonel▁8840
▁naught▁8841
ahoo▁8842
ule▁8843
▁fingerprint▁8844
ended▁8845
▁capsule▁8846
▁radiate▁8847
▁sift▁8848
▁Voice▁8849
▁punct▁8850
rque▁8851
ez▁8852
▁Pu▁8853
eb▁8854
▁consecutive▁8855
▁Ver▁8856
▁Orion▁8857
▁Hunter▁8858
▁overhead▁8859
▁Andromeda▁8860
▁battl▁8861
▁Chr▁8862
▁Olymp▁8863
▁constellation▁8864
▁debut▁8865
▁Our▁8866
▁Modern▁8867
▁Mytho▁8868
▁Aurora▁8869
▁API▁8870
zeit▁8871
geist▁8872
▁mytholog▁8873
▁Ford▁8874
▁alphabet▁8875
▁Anna▁8876
▁Ger▁8877
▁coffin▁8878
▁photographic▁8879
▁representation▁8880
▁Barack▁8881
▁Alabama▁8882
▁Jazeera▁8883
▁superstar▁8884
▁loo▁8885
cooter▁8886
▁Lib▁8887
▁timeline▁8888
▁Nairobi▁8889
▁Rhein▁8890
▁participator▁8891
growth▁8892
▁enlist▁8893
▁critter▁8894
▁interdependenc▁8895
test▁8896
▁Smart▁8897
▁nomad▁8898
▁hunter▁8899
▁rabbit▁8900
▁administer▁8901
▁hir▁8902
▁wheat▁8903
▁administrator▁8904
literate▁8905
▁Protestant▁8906
▁Reform▁8907
▁democrac▁8908
▁commerc▁8909
▁cooperative▁8910
▁enabl▁8911
▁desktop▁8912
band▁8913
▁sociologist▁8914
▁Kelly▁8915
▁assured▁8916
▁payoff▁8917
▁probe▁8918
▁competitor▁8919
▁tournament▁8920
▁tat▁8921
▁innate▁8922
▁anthropologist▁8923
▁slash▁8924
burn▁8925
▁pastor▁8926
▁Garret▁8927
▁Hard▁8928
▁grazing▁8929
▁maxim▁8930
▁depletion▁8931
▁watershed▁8932
▁peripheral▁8933
▁neurophysiolog▁8934
▁altruistic▁8935
urowi▁8936
ochai▁8937
▁Benkler▁8938
▁Sun▁8939
sourcing▁8940
▁Lil▁8941
▁pharmaceutical▁8942
▁Toyota▁8943
▁altruism▁8944
▁Linux▁8945
▁blogger▁8946
▁Ad▁8947
Sense▁8948
▁Appli▁8949
▁Programm▁8950
▁Interface▁8951
▁eBay▁8952
▁suboptimal▁8953
▁trustworth▁8954
▁encyclopedia▁8955
▁Think▁8956
▁NGO▁8957
▁Bit▁8958
put▁8959
@▁8960
▁Salva▁8961
▁Kenya▁8962
organiz▁8963
▁SMS▁8964
disciplinar▁8965
▁foreigner▁8966
▁microorganism▁8967
▁alleviate▁8968
Gordon▁8969
▁Brown▁8970
▁UK▁8971
▁delighted▁8972
▁White▁8973
apalm▁8974
▁awaken▁8975
▁conscience▁8976
▁Aid▁8977
▁Square▁8978
▁Sudan▁8979
▁sympath▁8980
▁Palm▁8981
▁Social▁8982
▁communist▁8983
▁reply▁8984
▁abolish▁8985
▁instantaneous▁8986
▁frontier▁8987
▁slave▁8988
▁William▁8989
▁Wilb▁8990
▁protester▁8991
▁hearts▁8992
▁Egla▁8993
▁Save▁8994
▁Es▁8995
▁Zimbabwe▁8996
gabe▁8997
▁Burm▁8998
▁monk▁8999
▁blogg▁9000
▁persecut▁9001
▁Kyi▁9002
▁slavery▁9003
▁welfare▁9004
▁discriminati▁9005
▁Nelson▁9006
▁Mandela▁9007
▁Win▁9008
▁terrorism▁9009
openhagen▁9010
▁persuad▁9011
prime▁9012
▁transferr▁9013
▁Iceland▁9014
▁prosperity▁9015
▁Sierra▁9016
▁Leone▁9017
ives▁9018
▁Tanzania▁9019
▁Mir▁9020
▁orphan▁9021
▁tuberc▁9022
ulosi▁9023
gged▁9024
▁eleven▁9025
▁export▁9026
▁commemorat▁9027
▁peacekeep▁9028
idden▁9029
▁Ancient▁9030
▁Gree▁9031
▁Demo▁9032
▁hallucination▁9033
▁neurologist▁9034
Bonnet▁9035
▁syndrome▁9036
▁nur▁9037
ker▁9038
▁Rosali▁9039
▁sane▁9040
cular▁9041
People▁9042
▁drape▁9043
▁cats▁9044
▁hallucinat▁9045
▁oblivio▁9046
▁relieve▁9047
▁cataract▁9048
▁grandson▁9049
▁handkerchief▁9050
▁fade▁9051
▁miniatur▁9052
▁repetiti▁9053
opsi▁9054
▁hyperactiv▁9055
excit▁9056
takeoff▁9057
▁cartoons▁9058
▁Ker▁9059
▁Sesam▁9060
▁Freudian▁9061
ants▁9062
▁deform▁9063
▁reassur▁9064
diagnose▁9065
▁psycho▁9066
▁vocal▁9067
▁accus▁9068
▁seduce▁9069
▁humiliat▁9070
▁roast▁9071
▁senses▁9072
▁1982▁9073
sense▁9074
▁fusiform▁9075
▁abnormal▁9076
ston▁9077
▁fig▁9078
▁inferior▁9079
▁cluster▁9080
▁interrupt▁9081
▁convuls▁9082
▁stimulation▁9083
▁coherenc▁9084
▁association▁9085
▁OS▁9086
▁tin▁9087
▁ignore▁9088
▁hexagon▁9089
▁migraine▁9090
namen▁9091
▁sniff▁9092
▁mines▁9093
▁landmine▁9094
▁rodent▁9095
bil▁9096
▁exuberan▁9097
▁princess▁9098
▁Diana▁9099
▁contrar▁9100
▁soil▁9101
▁allocate▁9102
▁reinforce▁9103
▁smash▁9104
▁banana▁9105
▁leash▁9106
▁ac▁9107
credit▁9108
▁Mine▁9109
▁Action▁9110
▁Standards▁9111
▁operational▁9112
▁min▁9113
▁Mozambi▁9114
▁manual▁9115
▁borders▁9116
▁1.▁9117
B▁9118
▁reli▁9119
▁detected▁9120
▁infections▁9121
positive▁9122
▁tar▁9123
▁Hippocrat▁9124
▁89▁9125
▁86▁9126
▁cassette▁9127
▁discriminate▁9128
▁1,6▁9129
▁custom▁9130
▁Sala▁9131
▁1,800▁9132
▁interval▁9133
automat▁9134
▁Value▁9135
▁Nothing▁9136
Something▁9137
▁18-▁9138
▁commandment▁9139
▁heck▁9140
▁censor▁9141
▁nurture▁9142
▁neurological▁9143
▁quirk▁9144
gh▁9145
▁seizure▁9146
▁spur▁9147
▁poo▁9148
▁trauma▁9149
▁mechanic▁9150
▁uncertaint▁9151
▁observer▁9152
▁anxiety▁9153
▁ambiguit▁9154
▁Buddhist▁9155
▁morally▁9156
ambiguous▁9157
▁ghost▁9158
▁accidental▁9159
▁opium▁9160
▁Tai▁9161
▁Gui▁9162
▁randomly▁9163
tour▁9164
▁pr▁9165
istine▁9166
▁ominous▁9167
▁court▁9168
hou▁9169
▁province▁9170
▁agreed▁9171
▁Westerner▁9172
▁ritual▁9173
▁links▁9174
▁Fe▁9175
world▁9176
▁superstitio▁9177
▁synchron▁9178
▁partial▁9179
▁Gar▁9180
▁Rose▁9181
▁featur▁9182
▁bell▁9183
▁delightful▁9184
▁bilingual▁9185
▁Shankar▁9186
skrit▁9187
▁goddess▁9188
▁choreograph▁9189
▁tapestr▁9190
▁crown▁9191
▁glory▁9192
▁civilian▁9193
oma▁9194
▁Canc▁9195
dia▁9196
▁unw▁9197
vara▁9198
▁disgust▁9199
▁enorm▁9200
owing▁9201
▁vor▁9202
▁dried▁9203
▁ravage▁9204
▁chemotherap▁9205
▁overwhelm▁9206
▁miser▁9207
learn▁9208
ura▁9209
urga▁9210
▁Hindu▁9211
enden▁9212
decke▁9213
▁rode▁9214
rid▁9215
▁battlefield▁9216
▁feminine▁9217
▁attribute▁9218
▁dismay▁9219
▁badge▁9220
▁animate▁9221
significant▁9222
▁Sim▁9223
▁resilienc▁9224
▁Spence▁9225
▁geneticist▁9226
ographic▁9227
jo▁9228
vu▁9229
▁Guinea▁9230
▁origins▁9231
▁gorilla▁9232
▁landmass▁9233
gar▁9234
▁Eurasi▁9235
▁gibbon▁9236
▁orangutan▁9237
▁mushroom▁9238
▁morpholog▁9239
▁hominid▁9240
▁Gorge▁9241
▁Leakey▁9242
▁hab▁9243
▁aus▁9244
▁von▁9245
▁categorize▁9246
▁Natur▁9247
▁disc▁9248
species▁9249
▁bla▁9250
▁dismiss▁9251
rwin▁9252
▁anthropolog▁9253
Carlton▁9254
▁diver▁9255
▁genealog▁9256
parent▁9257
unit▁9258
▁hap▁9259
▁3.2▁9260
otid▁9261
typ▁9262
▁substitute▁9263
▁matern▁9264
DNA▁9265
▁lineage▁9266
▁simplifie▁9267
▁Mit▁9268
rial▁9269
chromosom▁9270
▁isotope▁9271
▁glaci▁9272
emisphere▁9273
▁Seattle▁9274
▁Scandinavia▁9275
▁85▁9276
▁precipitat▁9277
▁dropping▁9278
▁Sahara▁9279
▁Neanderthal▁9280
▁offen▁9281
▁locker▁9282
▁grassland▁9283
▁45,000▁9284
▁migrat▁9285
highway▁9286
▁Siberia▁9287
▁Pal▁9288
eolith▁9289
ourne▁9290
NG▁9291
▁coarse▁9292
▁indigen▁9293
▁Human▁9294
▁Genome▁9295
▁Rover▁9296
▁enterprise▁9297
▁plow▁9298
▁Lega▁9299
▁25,000▁9300
▁Gran▁9301
▁Gaza▁9302
▁Taj▁9303
istan▁9304
▁album▁9305
▁Map▁9306
▁Flo▁9307
2010▁9308
▁evocati▁9309
▁quart▁9310
▁Nu▁9311
▁1930▁9312
ark▁9313
▁450▁9314
▁watt▁9315
▁turbine▁9316
▁beacon▁9317
▁1947▁9318
▁Jerem▁9319
▁energetic▁9320
▁qualification▁9321
▁dyslexi▁9322
▁potter▁9323
▁irrelevant▁9324
violence▁9325
dad▁9326
gas▁9327
▁rang▁9328
▁Mat▁9329
▁Oscar▁9330
▁Mary▁9331
▁Robinson▁9332
▁Genev▁9333
▁hippie▁9334
▁Sal▁9335
▁Ahmed▁9336
▁Moussa▁9337
▁Arab▁9338
▁unwilling▁9339
▁General▁9340
▁Assembl▁9341
▁54▁9342
▁calendar▁9343
▁Glob▁9344
▁institutionaliz▁9345
▁nonviolence▁9346
▁cynic▁9347
undi▁9348
▁corridor▁9349
▁Ahmad▁9350
▁Fa▁9351
▁UN▁9352
ICE▁9353
▁chap▁9354
▁Jud▁9355
▁attraction▁9356
▁constituenc▁9357
SAF▁9358
▁NATO▁9359
▁Fat▁9360
▁Gail▁9361
▁instrumental▁9362
▁kidnappe▁9363
▁1.6▁9364
▁dialect▁9365
▁offensive▁9366
▁Securit▁9367
▁Safe▁9368
utilize▁9369
▁Arena▁9370
▁petition▁9371
▁union▁9372
▁utiliz▁9373
himi▁9374
▁Ambassador▁9375
▁relation▁9376
▁365▁9377
▁Mel▁9378
inda▁9379
▁Coca▁9380
Cola▁9381
orporation▁9382
▁distribut▁9383
▁jar▁9384
flung▁9385
▁stagger▁9386
▁entrepreneuri▁9387
▁shareholder▁9388
▁Know▁9389
sight▁9390
▁Namibia▁9391
▁Sprit▁9392
▁evaluation▁9393
▁192▁9394
▁truck▁9395
elling▁9396
distribution▁9397
▁bicycle▁9398
erala▁9399
▁30,000▁9400
▁immunization▁9401
▁advis▁9402
▁delivery▁9403
eur▁9404
▁slogan▁9405
▁Open▁9406
▁Happiness▁9407
▁localize▁9408
▁Cup▁9409
▁Wa▁9410
lag▁9411
▁Somali▁9412
▁Teach▁9413
▁diarrhea▁9414
▁defecat▁9415
▁reuse▁9416
▁entail▁9417
▁circumcis▁9418
▁girlfriend▁9419
▁paralysi▁9420
▁clinician▁9421
ram▁9422
▁Type▁9423
▁Jh▁9424
▁transmission▁9425
game▁9426
cher▁9427
▁AlloSphere▁9428
▁echo▁9429
▁chamber▁9430
▁suspend▁9431
▁immer▁9432
▁atom▁9433
▁sculptor▁9434
▁lattice▁9435
▁macro▁9436
cop▁9437
▁rectangle▁9438
▁pitche▁9439
▁simulation▁9440
▁nanoscale▁9441
▁generative▁9442
▁atomic▁9443
▁Atom▁9444
▁Micro▁9445
▁Light▁9446
▁Energ▁9447
▁emission▁9448
▁Schrödinger▁9449
orbital▁9450
▁puls▁9451
▁contract▁9452
▁Comp▁9453
▁Spin▁9454
▁Barbar▁9455
unders▁9456
▁explorer▁9457
cursion▁9458
▁sledge▁9459
▁spectator▁9460
▁contemplat▁9461
▁dich▁9462
gulf▁9463
▁Mall▁9464
viation▁9465
▁shall▁9466
▁coal▁9467
▁embark▁9468
support▁9469
gun▁9470
▁Wil▁9471
▁drift▁9472
▁crust▁9473
▁caution▁9474
▁tasting▁9475
▁macho▁9476
▁pancrea▁9477
▁Captain▁9478
▁Amunds▁9479
▁Norwegian▁9480
▁demoralize▁9481
aday▁9482
▁cruise▁9483
▁audaci▁9484
▁golden▁9485
▁advisor▁9486
▁Easter▁9487
▁adversit▁9488
▁metaphorical▁9489
▁Savage▁9490
▁fascination▁9491
▁obsessive▁9492
▁Mauriti▁9493
▁assemble▁9494
zeal▁9495
▁dice▁9496
ockpit▁9497
ette▁9498
ille▁9499
▁costume▁9500
▁gigabyte▁9501
▁Sculpey▁9502
edge▁9503
ane▁9504
tte▁9505
▁Episode▁9506
▁dragon▁9507
▁vertebra▁9508
▁imitate▁9509
▁button▁9510
▁pelvi▁9511
▁accura▁9512
lastic▁9513
▁obtain▁9514
▁div▁9515
▁Maltese▁9516
▁Falcon▁9517
▁Hammett▁9518
▁Kni▁9519
▁Haw▁9520
▁Count▁9521
▁falcon▁9522
▁crapp▁9523
▁Christi▁9524
arian▁9525
eller▁9526
ek▁9527
aya▁9528
▁resin▁9529
▁controvers▁9530
▁controversial▁9531
▁Profil▁9532
▁preference▁9533
▁drip▁9534
▁triple▁9535
▁wool▁9536
▁reflection▁9537
▁Fred▁9538
del▁9539
▁Black▁9540
▁Grill▁9541
▁plaster▁9542
▁crazi▁9543
plica▁9544
▁Forum▁9545
ronze▁9546
▁Hux▁9547
▁silicon▁9548
quarter▁9549
▁Chip▁9550
▁Nokia▁9551
cellular▁9552
▁subconscious▁9553
▁blunt▁9554
▁stalk▁9555
▁warmth▁9556
▁Maslow▁9557
▁hierarch▁9558
rung▁9559
▁appreciate▁9560
▁PC▁9561
▁kiosk▁9562
▁convenient▁9563
▁gravity▁9564
▁gravitate▁9565
▁illitera▁9566
mail▁9567
pping▁9568
▁ATM▁9569
▁Grameen▁9570
ben▁9571
▁subscribe▁9572
▁churn▁9573
▁Viagra▁9574
tree▁9575
pan▁9576
▁redistribute▁9577
▁shack▁9578
shop▁9579
chai▁9580
▁intertwine▁9581
nce▁9582
▁infuse▁9583
▁relevanc▁9584
▁Nixon▁9585
olocaust▁9586
▁desk▁9587
▁culprit▁9588
▁degradation▁9589
▁numb▁9590
▁Prius▁9591
▁Ann▁9592
▁lifestyle▁9593
▁prevalent▁9594
consumption▁9595
▁carrot▁9596
▁heavi▁9597
▁unnatural▁9598
▁Ski▁9599
▁puppet▁9600
business▁9601
▁USDA▁9602
▁pyramid▁9603
▁lobbyist▁9604
wollen▁9605
▁unchang▁9606
fat▁9607
▁lamb▁9608
▁kindness▁9609
▁exemplif▁9610
▁locavore▁9611
▁Dictionar▁9612
▁popul▁9613
itis▁9614
▁romantic▁9615
▁snack▁9616
▁Clar▁9617
eye▁9618
▁ethnic▁9619
▁fanc▁9620
▁aside▁9621
▁Julia▁9622
bbing▁9623
▁sanction▁9624
▁Pop▁9625
▁Pringle▁9626
▁Chee▁9627
▁railroad▁9628
▁hub▁9629
▁lettuce▁9630
▁salad▁9631
▁broc▁9632
coli▁9633
oil▁9634
▁subsidi▁9635
▁thro▁9636
▁planetary▁9637
▁dessert▁9638
▁potato▁9639
▁Minute▁9640
▁Rice▁9641
▁cream▁9642
think▁9643
▁powers▁9644
phobi▁9645
▁yogurt▁9646
icker▁9647
▁coma▁9648
▁mixed▁9649
fried▁9650
▁nuke▁9651
▁horribl▁9652
▁spice▁9653
▁McNugget▁9654
cke▁9655
ourself▁9656
▁cheese▁9657
food▁9658
▁tightly▁9659
▁filth▁9660
▁Styro▁9661
foam▁9662
▁veg▁9663
▁gourmet▁9664
▁pound▁9665
▁nutritional▁9666
▁omni▁9667
▁faci▁9668
▁hierarchical▁9669
▁pore▁9670
▁Advanc▁9671
▁Technolog▁9672
▁sentien▁9673
ception▁9674
haracter▁9675
Engine▁9676
▁frown▁9677
lit▁9678
▁seed▁9679
▁Robotic▁9680
▁Wired▁9681
▁Next▁9682
▁involv▁9683
fiction▁9684
▁Philip▁9685
▁Android▁9686
▁Dream▁9687
▁Electric▁9688
▁Bla▁9689
▁spook▁9690
▁puzzles▁9691
▁EG▁9692
▁Discover▁9693
▁toys▁9694
▁fiddl▁9695
▁Gardner▁9696
▁devote▁9697
ritt▁9698
▁amuse▁9699
▁vase▁9700
scher▁9701
▁digit▁9702
▁strict▁9703
▁marvelous▁9704
appointed▁9705
▁RIS▁9706
▁Maeda▁9707
▁magician▁9708
▁Teller▁9709
▁Rush▁9710
▁Hour▁9711
▁slid▁9712
sequel▁9713
▁investigative▁9714
▁cartoonist▁9715
▁overlap▁9716
▁persistence▁9717
▁squint▁9718
helix▁9719
▁Shuffle▁9720
Jo▁9721
▁casual▁9722
▁gam▁9723
▁Boom▁9724
exercis▁9725
▁Nintendo▁9726
▁prescribe▁9727
▁viewer▁9728
▁Photo▁9729
▁Grab▁9730
hhh▁9731
▁Tulle▁9732
▁tinker▁9733
▁Tinker▁9734
▁roller▁9735
▁nail▁9736
sch▁9737
▁ease▁9738
▁calamit▁9739
▁doodle▁9740
▁Robin▁9741
▁complet▁9742
▁decoration▁9743
cuba▁9744
▁mund▁9745
coast▁9746
▁ya▁9747
▁McCall▁9748
▁retro▁9749
▁pol▁9750
▁RM▁9751
▁Tyrann▁9752
▁Thing▁9753
▁0▁9754
risk▁9755
▁faux▁9756
▁painstaking▁9757
▁Scottish▁9758
▁indoor▁9759
▁After▁9760
▁1953▁9761
▁Film▁9762
▁Gehry▁9763
▁lexico▁9764
▁hilarious▁9765
mal▁9766
▁Work▁9767
▁hangers▁9768
motive▁9769
write▁9770
venge▁9771
▁Detroit▁9772
▁Techno▁9773
▁brochure▁9774
enburg▁9775
▁56▁9776
▁bark▁9777
▁Norman▁9778
die▁9779
gyro▁9780
▁jo▁9781
▁Mosc▁9782
▁Shir▁9783
▁Espe▁9784
▁sentimental▁9785
▁Fitzgerald▁9786
▁Hampton▁9787
▁IV▁9788
16▁9789
▁Ricard▁9790
▁105▁9791
▁Ritz▁9792
▁Tower▁9793
igar▁9794
▁billboard▁9795
▁1940▁9796
▁Messer▁9797
▁ME▁9798
▁exaggeration▁9799
▁bunk▁9800
▁cri▁9801
▁Mississippi▁9802
hamed▁9803
print▁9804
▁Temple▁9805
▁Den▁9806
etropolitan▁9807
mber▁9808
PC▁9809
▁Euro▁9810
▁JFK▁9811
▁Tour▁9812
▁rockets▁9813
▁shoe▁9814
▁audition▁9815
▁Kong▁9816
erox▁9817
berg▁9818
▁Take▁9819
page▁9820
▁Marv▁9821
▁Sandwich▁9822
▁cru▁9823
▁Marco▁9824
▁Tempe▁9825
▁techno▁9826
mag▁9827
leigh▁9828
▁charming▁9829
▁introvert▁9830
▁inclusive▁9831
source▁9832
▁uh▁9833
▁Kar▁9834
▁Mulli▁9835
taph▁9836
▁anthr▁9837
winning▁9838
▁unveil▁9839
▁Philadelphia▁9840
▁alpha▁9841
▁antibod▁9842
▁invad▁9843
arijuana▁9844
▁possession▁9845
▁cl▁9846
ococcus▁9847
▁ramp▁9848
amer▁9849
▁Brook▁9850
▁Rosling▁9851
▁Canne▁9852
▁IKEA▁9853
▁Volvo▁9854
▁linguistic▁9855
▁Develop▁9856
▁upgrade▁9857
▁taxonom▁9858
▁destination▁9859
▁income▁9860
after▁9861
▁healthie▁9862
▁rainbow▁9863
enicillin▁9864
▁optimist▁9865
ossi▁9866
▁analytical▁9867
▁Joe▁9868
▁Sabia▁9869
▁Meggendorfer▁9870
▁caves▁9871
▁ist▁9872
▁genug▁9873
▁snatch▁9874
ssors▁9875
▁rejoice▁9876
creme▁9877
▁novelty▁9878
▁Jeff▁9879
▁ingenuity▁9880
av▁9881
J▁9882
▁merg▁9883
eeming▁9884
▁sharp▁9885
▁Missou▁9886
▁toothpaste▁9887
▁hustle▁9888
mate▁9889
▁illegal▁9890
▁barber▁9891
▁smuggl▁9892
▁pornograph▁9893
▁riskier▁9894
▁profitable▁9895
fashion▁9896
oulder▁9897
▁laundr▁9898
▁limb▁9899
▁prohibit▁9900
ender▁9901
▁Mi▁9902
trey▁9903
▁animation▁9904
▁shadow▁9905
▁meditative▁9906
▁Ox▁9907
▁Carolin▁9908
▁Ami▁9909
▁disorder▁9910
▁gauge▁9911
▁stance▁9912
stimulator▁9913
▁disruption▁9914
▁inherit▁9915
▁fragil▁9916
▁caregiver▁9917
▁reinforc▁9918
▁effortless▁9919
▁candy▁9920
▁developmental▁9921
▁disable▁9922
▁fence▁9923
▁relentless▁9924
▁societ▁9925
▁excess▁9926
▁attenuat▁9927
▁imperative▁9928
▁anomal▁9929
abilities▁9930
▁Warren▁9931
traction▁9932
▁evolutionarily▁9933
▁conserve▁9934
▁deploy▁9935
▁trench▁9936
▁intractable▁9937
▁isolation▁9938
eiler▁9939
▁agile▁9940
talk▁9941
▁bully▁9942
insky▁9943
▁Familie▁9944
▁Buffet▁9945
ets▁9946
▁Spring▁9947
daho▁9948
cross▁9949
▁Asperger▁9950
▁ADH▁9951
▁startup▁9952
▁Ag▁9953
▁Sutherland▁9954
▁technologist▁9955
▁Eight▁9956
three▁9957
cola▁9958
▁Business▁9959
▁Review▁9960
▁Game▁9961
knit▁9962
bunker▁9963
▁Thanksgiving▁9964
▁greet▁9965
▁visitor▁9966
▁checklist▁9967
angle▁9968
most▁9969
▁Stalin▁9970
▁Uta▁9971
▁Manifest▁9972
▁Famil▁9973
▁react▁9974
jacke▁9975
help▁9976
▁guru▁9977
▁celebrity▁9978
etchup▁9979
▁psychologist▁9980
ush▁9981
bring▁9982
▁overreact▁9983
rew▁9984
▁Over▁9985
▁salar▁9986
rock▁9987
▁Colli▁9988
▁stimulat▁9989
▁retreat▁9990
▁tourist▁9991
▁worrying▁9992
▁Emory▁9993
esteem▁9994
confidence▁9995
▁Karen▁9996
▁Tolsto▁9997
▁Leo▁9998
▁engrav▁9999
run▁10000
zema▁10001
▁trillion▁10002
▁evaporate▁10003
▁semina▁10004
▁Cliff▁10005
▁barrel▁10006
▁bailout▁10007
▁debt▁10008
isse▁10009
bomb▁10010
-20▁10011
▁rivet▁10012
large▁10013
▁remedi▁10014
income▁10015
▁leverag▁10016
▁visualiz▁10017
▁360▁10018
▁32▁10019
▁3.▁10020
▁dentist▁10021
tomie▁10022
▁shark▁10023
▁mola▁10024
▁gun▁10025
▁FBI▁10026
▁Cornell▁10027
▁recession▁10028
▁mindful▁10029
▁Brand▁10030
▁Val▁10031
cam▁10032
bling▁10033
outique▁10034
▁ego▁10035
acht▁10036
▁collar▁10037
▁Fri▁10038
La▁10039
▁pric▁10040
ups▁10041
▁Z▁10042
ulu▁10043
▁byproduct▁10044
▁boomer▁10045
lumni▁10046
center▁10047
▁Microsoft▁10048
▁Gore▁10049
▁sprint▁10050
▁9.▁10051
▁68▁10052
▁DI▁10053
▁owners▁10054
tage▁10055
▁duck▁10056
▁Line▁10057
▁reimagin▁10058
▁dividend▁10059
▁Patagonia▁10060
ootprint▁10061
▁Fide▁10062
▁parcel▁10063
▁artisan▁10064
▁organiz▁10065
cott▁10066
▁organizer▁10067
▁divers▁10068
reden▁10069
▁elastic▁10070
▁revenue▁10071
last▁10072
Cloud▁10073
▁comics▁10074
▁fuss▁10075
▁Nova▁10076
▁eclipse▁10077
▁Beat▁10078
▁Jagger▁10079
▁damaging▁10080
▁Lex▁10081
75▁10082
▁Ray▁10083
▁Route▁10084
▁rack▁10085
▁reputation▁10086
▁microbi▁10087
▁comic▁10088
▁Navy▁10089
▁Dean▁10090
▁Kamen▁10091
▁connotation▁10092
cer▁10093
▁Babbage▁10094
▁Ada▁10095
▁Lovelace▁10096
▁Van▁10097
evar▁10098
▁Meme▁10099
▁ko▁10100
▁Licklider▁10101
know▁10102
▁Jung▁10103
▁subdivision▁10104
▁diagonal▁10105
▁symbols▁10106
▁resembl▁10107
▁properti▁10108
▁energiz▁10109
▁collid▁10110
lief▁10111
▁embroi▁10112
▁deer▁10113
▁88▁10114
linear▁10115
▁caption▁10116
ett▁10117
▁peel▁10118
ROM▁10119
▁McLuhan▁10120
▁phenomena▁10121
text▁10122
pati▁10123
▁Abraham▁10124
▁Lincoln▁10125
▁Plan▁10126
broken▁10127
▁zig▁10128
▁spiral▁10129
plate▁10130
▁Hea▁10131
▁Alan▁10132
▁Siegel▁10133
ellig▁10134
▁veteran▁10135
▁simplicity▁10136
tod▁10137
▁computation▁10138
▁stealth▁10139
▁IRS▁10140
apping▁10141
cumben▁10142
▁Jack▁10143
▁Horn▁10144
▁dinosaur▁10145
▁paleontologist▁10146
preserv▁10147
activate▁10148
▁tail▁10149
▁Chicken▁10150
aurus▁10151
▁Montana▁10152
▁striving▁10153
▁hills▁10154
▁hypothese▁10155
▁Jeep▁10156
▁drill▁10157
strich▁10158
▁mosquito▁10159
▁Tyrannosaur▁10160
▁Schwei▁10161
moglobin▁10162
▁Hell▁10163
▁cubic▁10164
▁calci▁10165
▁fossilize▁10166
▁osteo▁10167
avian▁10168
▁clunk▁10169
grader▁10170
rap▁10171
▁classifie▁10172
▁puff▁10173
sort▁10174
▁Matthew▁10175
▁Wisconsin▁10176
▁Lars▁10177
▁Archae▁10178
opter▁10179
▁pigeon▁10180
▁arch▁10181
▁fu▁10182
finger▁10183
▁resorb▁10184
▁modify▁10185
▁Colon▁10186
cken▁10187
record▁10188
▁deception▁10189
belief▁10190
▁Samu▁10191
▁Cole▁10192
ridge▁10193
ptive▁10194
embl▁10195
▁suspens▁10196
▁theatric▁10197
▁dexter▁10198
▁Jean▁10199
Houdin▁10200
▁conjure▁10201
▁resurrect▁10202
▁wholly▁10203
labor▁10204
▁sunset▁10205
▁campfire▁10206
▁fantasie▁10207
▁polish▁10208
▁Aich▁10209
afi▁10210
yllis▁10211
▁Rodrig▁10212
▁forgiveness▁10213
▁Zaca▁10214
▁convict▁10215
cted▁10216
▁penalt▁10217
▁November▁10218
▁Tree▁10219
▁hamburger▁10220
▁cruel▁10221
▁environmentally▁10222
chk▁10223
▁swap▁10224
rselves▁10225
▁Eisen▁10226
▁microbes▁10227
▁TEDMED▁10228
▁thirst▁10229
▁Rag▁10230
▁puddle▁10231
▁diabetic▁10232
ido▁10233
▁insulin▁10234
▁Academ▁10235
▁flesh▁10236
eating▁10237
communica▁10238
▁Georgetown▁10239
bei▁10240
▁Crohn▁10241
▁steril▁10242
IT▁10243
▁vagina▁10244
are▁10245
coloniz▁10246
▁odor▁10247
path▁10248
▁washing▁10249
▁excessive▁10250
▁probiotic▁10251
▁UC▁10252
▁Davi▁10253
▁veterinarian▁10254
▁boot▁10255
▁col▁10256
igen▁10257
▁diff▁10258
▁fec▁10259
hru▁10260
ociety▁10261
▁End▁10262
▁Tar▁10263
▁photography▁10264
▁haunt▁10265
▁Hama▁10266
▁Wal▁10267
▁innocuous▁10268
▁citizen▁10269
▁Index▁10270
▁compris▁10271
cap▁10272
▁1,9▁10273
▁stainless▁10274
▁submerge▁10275
▁accompany▁10276
▁abstraction▁10277
wo▁10278
▁Palestinian▁10279
▁bleed▁10280
▁simulate▁10281
▁adviser▁10282
▁advise▁10283
▁Custom▁10284
▁Bord▁10285
rotection▁10286
▁Kennedy▁10287
▁seize▁10288
▁libert▁10289
▁CIA▁10290
▁Langle▁10291
▁headquarter▁10292
▁diploma▁10293
▁elicit▁10294
▁Anthropo▁10295
▁acre▁10296
▁decompos▁10297
▁disorient▁10298
entropy▁10299
▁vulnerability▁10300
▁Cold▁10301
▁Braille▁10302
▁edition▁10303
▁Librar▁10304
▁publication▁10305
▁Exo▁10306
▁Disease▁10307
via▁10308
flu▁10309
▁Arm▁10310
▁deployment▁10311
▁weapon▁10312
issue▁10313
▁bra▁10314
▁acryl▁10315
▁facade▁10316
▁Galactic▁10317
▁annihilat▁10318
▁planets▁10319
▁Kentucky▁10320
▁Urban▁10321
Terrain▁10322
▁Arabic▁10323
▁contradict▁10324
▁lethal▁10325
▁conviction▁10326
▁eyewitness▁10327
▁perpetrator▁10328
▁composite▁10329
▁Polaroid▁10330
▁alibi▁10331
▁kidnapping▁10332
▁implicat▁10333
ake▁10334
▁Calvin▁10335
▁Indiana▁10336
▁Arizona▁10337
dom▁10338
▁Williams▁10339
▁Tim▁10340
othy▁10341
▁Dur▁10342
▁11-▁10343
▁Troy▁10344
▁Webb▁10345
▁47▁10346
▁reiterate▁10347
▁implant▁10348
▁Enrique▁10349
▁circuit▁10350
▁inhibitor▁10351
trop▁10352
▁compute▁10353
lace▁10354
chle▁10355
clinical▁10356
▁Gerhard▁10357
▁Nagel▁10358
▁photosynthesi▁10359
channelrhodopsin▁10360
▁vector▁10361
▁fabricate▁10362
▁tweak▁10363
▁opt▁10364
etic▁10365
▁computing▁10366
▁Fiore▁10367
▁dopamine▁10368
▁generalize▁10369
▁viv▁10370
through▁10371
traumatic▁10372
controlle▁10373
▁Pavlov▁10374
▁headlight▁10375
iva▁10376
▁delete▁10377
▁epileptic▁10378
▁uncommon▁10379
▁Seventy▁10380
▁algae▁10381
▁fungi▁10382
front▁10383
▁photoreceptor▁10384
▁retina▁10385
▁relay▁10386
▁pigment▁10387
osa▁10388
▁commercializ▁10389
▁Neuro▁10390
▁NIH▁10391
sensor▁10392
des▁10393
▁neuro▁10394
▁EB▁10395
process▁10396
▁augment▁10397
▁Gegen▁10398
schatz▁10399
▁wingsuit▁10400
▁feat▁10401
▁dar▁10402
▁skydiv▁10403
▁canyon▁10404
dropping▁10405
country▁10406
▁aero▁10407
▁fl▁10408
▁helmet▁10409
green▁10410
▁carving▁10411
▁Janeiro▁10412
SE▁10413
horn▁10414
▁Jungfrau▁10415
▁hike▁10416
▁Eiffel▁10417
▁stunt▁10418
urf▁10419
▁Coh▁10420
▁propell▁10421
ggle▁10422
▁applau▁10423
▁Mik▁10424
▁Hyp▁10425
▁NSA▁10426
▁revelation▁10427
▁Snowden▁10428
▁PRISM▁10429
▁forecast▁10430
▁Orwell▁10431
famous▁10432
▁96▁10433
▁murderer▁10434
▁intercept▁10435
▁fears▁10436
▁Cyber▁10437
▁Double▁10438
▁Sky▁10439
▁infiltrat▁10440
▁encrypt▁10441
▁file▁10442
▁decrypt▁10443
▁cooperat▁10444
ame▁10445
▁Update▁10446
▁Spiegel▁10447
▁Access▁10448
CH▁10449
▁Network▁10450
▁Analysis▁10451
▁telecom▁10452
▁Belgi▁10453
▁Thursday▁10454
▁PowerPoint▁10455
▁LinkedIn▁10456
▁i▁10457
Box▁10458
▁terrorists▁10459
▁terror▁10460
▁existential▁10461
▁Constitu▁10462
mendment▁10463
▁Universal▁10464
▁naked▁10465
negotia▁10466
▁corrupt▁10467
▁Marc▁10468
▁blam▁10469
▁Meer▁10470
derson▁10471
▁harbor▁10472
▁Mann▁10473
tta▁10474
city▁10475
▁Carro▁10476
essen▁10477
▁sail▁10478
▁Nevada▁10479
▁meadow▁10480
▁topograph▁10481
▁abrupt▁10482
▁125▁10483
▁Highway▁10484
▁Audu▁10485
eight▁10486
▁Bridge▁10487
wich▁10488
▁Village▁10489
▁overlook▁10490
▁palm▁10491
▁cartograph▁10492
▁Archive▁10493
▁Broadway▁10494
▁vanish▁10495
▁Collect▁10496
▁Pon▁10497
▁Native▁10498
spen▁10499
▁Meadow▁10500
atter▁10501
▁Rich▁10502
▁swamp▁10503
▁Gr▁10504
▁Murray▁10505
▁geo▁10506
block▁10507
▁digitize▁10508
▁shoreline▁10509
▁slope▁10510
▁beans▁10511
ional▁10512
▁shrub▁10513
▁distinctive▁10514
▁Upper▁10515
osemite▁10516
ellowstone▁10517
▁Home▁10518
▁Heath▁10519
▁beaver▁10520
▁reproductive▁10521
▁ecologist▁10522
▁intersection▁10523
▁gray▁10524
lichen▁10525
▁moss▁10526
▁timber▁10527
▁III▁10528
▁illuminate▁10529
▁Court▁10530
rough▁10531
▁sewer▁10532
▁windmill▁10533
▁abundance▁10534
▁Charlie▁10535
▁synchronize▁10536
▁subway▁10537
▁Improv▁10538
▁comedy▁10539
▁Pants▁10540
▁Ride▁10541
▁Rap▁10542
▁funnie▁10543
▁videotape▁10544
▁Brigade▁10545
▁Theater▁10546
author▁10547
Jump▁10548
▁jack▁10549
▁stranger▁10550
kh▁10551
▁Best▁10552
▁tags▁10553
ueens▁10554
▁participant▁10555
▁leisure▁10556
▁valid▁10557
▁acceptable▁10558
EDI▁10559
▁Rama▁10560
▁Albania▁10561
still▁10562
▁splash▁10563
▁sprang▁10564
▁63▁10565
▁Thirty▁10566
seven▁10567
▁municipal▁10568
▁shopkeeper▁10569
▁shutter▁10570
▁pavement▁10571
bank▁10572
▁bush▁10573
▁queue▁10574
▁bribe▁10575
▁clerk▁10576
▁impose▁10577
▁cohesi▁10578
tag▁10579
ç▁10580
ois▁10581
Sarko▁10582
zy▁10583
hari▁10584
▁ka▁10585
▁harvesting▁10586
▁Golden▁10587
▁Desert▁10588
▁superior▁10589
▁dunes▁10590
▁liter▁10591
▁courtyard▁10592
▁monsoon▁10593
▁Jaipur▁10594
▁Zero▁10595
▁distill▁10596
aisal▁10597
kan▁10598
ai▁10599
▁silk▁10600
▁grati▁10601
▁drought▁10602
▁squeeze▁10603
▁telephone▁10604
▁planner▁10605
▁cart▁10606
liste▁10607
▁fragrance▁10608
oque▁10609
▁Kashmir▁10610
▁Meyer▁10611
▁excel▁10612
▁robb▁10613
hearted▁10614
▁stereotype▁10615
▁algebra▁10616
two▁10617
explain▁10618
▁persever▁10619
▁Milch▁10620
▁Dead▁10621
▁Men▁10622
▁impatient▁10623
▁swapp▁10624
▁decode▁10625
▁skier▁10626
▁formulation▁10627
▁formulate▁10628
present▁10629
▁agonizing▁10630
▁tedious▁10631
▁mathematically▁10632
▁intimidat▁10633
stall▁10634
▁semester▁10635
▁McK▁10636
▁Had▁10637
▁Mother▁10638
2008▁10639
alph▁10640
▁Jenni▁10641
▁Tso▁10642
▁McDonald▁10643
▁Burger▁10644
▁Fried▁10645
▁Cuba▁10646
▁Boot▁10647
▁assassinat▁10648
▁Roll▁10649
stab▁10650
▁shuttle▁10651
▁pie▁10652
▁chop▁10653
▁sue▁10654
▁tasty▁10655
▁Kyoto▁10656
Admiral▁10657
▁horrifie▁10658
ao▁10659
▁1800▁10660
▁1920▁10661
▁native▁10662
▁cosmopolitan▁10663
▁sui▁10664
18▁10665
▁188▁10666
▁pamphlet▁10667
▁Gom▁10668
clusion▁10669
▁mysteries▁10670
▁Lem▁10671
▁diplomat▁10672
▁recipe▁10673
▁McMurdo▁10674
▁Station▁10675
▁pepper▁10676
▁crisp▁10677
▁Jamaica▁10678
▁fraud▁10679
weight▁10680
▁Rest▁10681
▁Tennessee▁10682
▁lotter▁10683
▁Oma▁10684
▁buffet▁10685
organization▁10686
effective▁10687
▁kar▁10688
▁propagat▁10689
▁Caj▁10690
▁alligator▁10691
ste▁10692
▁Atlant▁10693
▁Starbucks▁10694
▁Kr▁10695
▁Chef▁10696
▁Daf▁10697
▁LP▁10698
♪▁10699
energy▁10700
▁hydrocarbon▁10701
thanol▁10702
▁Nil▁10703
▁2.5▁10704
▁subsidize▁10705
▁concentrat▁10706
▁amoeba▁10707
nsas▁10708
Athabasca▁10709
ludge▁10710
▁kernel▁10711
▁differential▁10712
▁mountaintop▁10713
▁petroleum▁10714
▁substantial▁10715
▁hurdle▁10716
▁Rift▁10717
walk▁10718
intelligent▁10719
▁Hominid▁10720
▁Turkana▁10721
consum▁10722
intensive▁10723
▁GPS▁10724
▁dental▁10725
▁Malawi▁10726
▁highland▁10727
exist▁10728
▁crocodile▁10729
osi▁10730
▁pebble▁10731
▁rib▁10732
▁Georgia▁10733
▁Indonesia▁10734
▁Flor▁10735
fledg▁10736
▁wasteful▁10737
▁shortest▁10738
lip▁10739
▁precipi▁10740
▁Wo▁10741
▁jungle▁10742
▁Seoul▁10743
craft▁10744
▁prehistor▁10745
▁mul▁10746
worm▁10747
▁kn▁10748
▁bamboo▁10749
▁consol▁10750
conventional▁10751
▁Erin▁10752
▁McKe▁10753
▁lexicograph▁10754
▁dictionar▁10755
▁poise▁10756
▁needle▁10757
▁fuzz▁10758
▁decid▁10759
▁Victoria▁10760
▁Victorian▁10761
▁Search▁10762
▁merge▁10763
▁Online▁10764
▁hedge▁10765
hog▁10766
▁Ooh▁10767
counterintuitive▁10768
▁arbitrar▁10769
▁charismati▁10770
▁megafauna▁10771
hammer▁10772
ED▁10773
▁Newsweek▁10774
▁greed▁10775
▁burrow▁10776
▁33▁10777
ornitholog▁10778
▁electro▁10779
▁telescope▁10780
doch▁10781
▁Angela▁10782
balone▁10783
breaking▁10784
▁carbonate▁10785
▁geological▁10786
▁counterpart▁10787
▁chalk▁10788
▁capabilities▁10789
▁Petri▁10790
structure▁10791
▁diatom▁10792
▁biomaterial▁10793
▁toolbox▁10794
▁Cambri▁10795
▁geologic▁10796
▁fluff▁10797
▁fracture▁10798
▁SI▁10799
▁magnet▁10800
ota▁10801
▁navigation▁10802
▁Wel▁10803
▁PH▁10804
altech▁10805
13▁10806
▁skinny▁10807
▁nanotube▁10808
alysis▁10809
organic▁10810
wire▁10811
▁bubbl▁10812
dioxide▁10813
▁Stefan▁10814
▁Sag▁10815
meister▁10816
▁Hong▁10817
▁Kai▁10818
▁smack▁10819
▁Walk▁10820
▁Synchroni▁10821
genz▁10822
▁situat▁10823
▁Australian▁10824
▁Swiss▁10825
▁inaugura▁10826
▁Beatles▁10827
▁Nir▁10828
vana▁10829
▁ink▁10830
Harmon▁10831
▁Tru▁10832
▁Transit▁10833
▁Authorit▁10834
▁subtle▁10835
uniz▁10836
ecker▁10837
razz▁10838
▁divid▁10839
verything▁10840
▁Diaman▁10841
dis▁10842
▁Hawking▁10843
cho▁10844
▁PRI▁10845
ZE▁10846
▁Genom▁10847
▁Absolute▁10848
▁parabol▁10849
▁intent▁10850
▁parabola▁10851
ER▁10852
▁Byron▁10853
▁Licht▁10854
homa▁10855
▁Isa▁10856
▁wheelchair▁10857
▁Kill▁10858
worth▁10859
▁Track▁10860
▁Aristot▁10861
▁intrinsic▁10862
▁debat▁10863
▁demographic▁10864
moment▁10865
happiness▁10866
org▁10867
▁investigat▁10868
wandering▁10869
▁neutral▁10870
pleasant▁10871
wand▁10872
▁preced▁10873
▁causal▁10874
▁brush▁10875
▁Silver▁10876
▁lense▁10877
▁correction▁10878
▁estimates▁10879
fifteen▁10880
▁Vision▁10881
▁nonviolen▁10882
▁olive▁10883
▁gro▁10884
▁Brazilian▁10885
▁Woman▁10886
▁Party▁10887
▁Front▁10888
▁Territori▁10889
lihood▁10890
▁plight▁10891
▁influenc▁10892
jeh▁10893
atten▁10894
▁villager▁10895
▁Solidar▁10896
▁solidari▁10897
budget▁10898
▁Sheikh▁10899
▁Jar▁10900
▁Sil▁10901
wan▁10902
▁Hopkins▁10903
▁transition▁10904
▁steadi▁10905
▁Transition▁10906
▁straw▁10907
▁moderat▁10908
tu▁10909
▁straddl▁10910
▁scrambl▁10911
▁underpin▁10912
ermafrost▁10913
▁offset▁10914
away▁10915
▁boots▁10916
▁stride▁10917
▁league▁10918
▁Por▁10919
▁Easy▁10920
▁Walmart▁10921
▁Second▁10922
▁exchang▁10923
▁server▁10924
▁mineral▁10925
▁radar▁10926
▁surge▁10927
▁Bris▁10928
▁District▁10929
▁Marke▁10930
▁informative▁10931
▁renewable▁10932
▁Forest▁10933
tunnel▁10934
▁recycling▁10935
share▁10936
sex▁10937
▁Lei▁10938
shire▁10939
▁Somerset▁10940
▁Str▁10941
▁lawn▁10942
▁loving▁10943
▁Oil▁10944
health▁10945
▁myriad▁10946
▁inconsistenc▁10947
▁junkie▁10948
▁Guardian▁10949
▁epidemiologist▁10950
▁problematic▁10951
▁inequalit▁10952
▁Frankie▁10953
▁jail▁10954
▁Bali▁10955
▁wip▁10956
▁needles▁10957
▁mismatch▁10958
▁Margaret▁10959
▁Jakarta▁10960
▁muck▁10961
▁Pope▁10962
▁stigmatiz▁10963
▁heterosexual▁10964
▁polygam▁10965
withstand▁10966
TI▁10967
▁romance▁10968
roman▁10969
▁darling▁10970
▁antiretroviral▁10971
▁Lazarus▁10972
▁Effect▁10973
▁drunk▁10974
▁transgress▁10975
▁transgender▁10976
▁dick▁10977
▁retrofit▁10978
▁suburbia▁10979
▁mall▁10980
habi▁10981
▁uninten▁10982
develop▁10983
sustain▁10984
▁suburban▁10985
▁detach▁10986
▁urbaniz▁10987
▁CDC▁10988
▁alarming▁10989
qua▁10990
▁Generation▁10991
▁asphalt▁10992
▁leapfrog▁10993
▁sprawl▁10994
▁deck▁10995
▁troupe▁10996
serving▁10997
▁Lion▁10998
wal▁10999
▁Phoenix▁11000
claim▁11001
▁Orange▁11002
erial▁11003
▁Metro▁11004
▁transit▁11005
▁Main▁11006
divid▁11007
▁buffer▁11008
▁funk▁11009
mar▁11010
▁Colorado▁11011
▁unsafe▁11012
▁undesir▁11013
▁Flint▁11014
urgeon▁11015
▁wav▁11016
transfer▁11017
▁Astroturf▁11018
▁culturally▁11019
▁Besser▁11020
▁reluctant▁11021
disproportionate▁11022
▁1.4▁11023
agwa▁11024
▁PMTCT▁11025
negativ▁11026
▁advent▁11027
▁sliver▁11028
▁devastate▁11029
▁sandwiche▁11030
child▁11031
▁educat▁11032
▁frequently▁11033
▁disclose▁11034
▁Narr▁11035
▁comprehensive▁11036
▁Cape▁11037
▁Stu▁11038
▁scandal▁11039
gro▁11040
rrh▁11041
▁landfill▁11042
▁loa▁11043
▁coloss▁11044
▁empirical▁11045
▁stat▁11046
▁prox▁11047
realistic▁11048
▁plott▁11049
▁biscuit▁11050
▁refrigerat▁11051
▁pasteuri▁11052
▁whil▁11053
▁cosmetic▁11054
▁Ecuador▁11055
▁plantation▁11056
▁liver▁11057
▁nutritio▁11058
astronom▁11059
▁halve▁11060
▁symbolize▁11061
▁insult▁11062
▁domesticate▁11063
▁lin▁11064
▁Forbes▁11065
Rev▁11066
▁Fix▁11067
▁oven▁11068
▁grace▁11069
▁Lass▁11070
▁Ober▁11071
▁Road▁11072
▁mama▁11073
▁overhear▁11074
▁sensib▁11075
▁Now▁11076
▁stir▁11077
▁Rabbi▁11078
▁Sel▁11079
▁riot▁11080
▁affirm▁11081
▁twelve▁11082
▁stink▁11083
▁Chag▁11084
▁tang▁11085
bilitat▁11086
▁Samarit▁11087
▁charter▁11088
▁biblical▁11089
▁McCart▁11090
▁actress▁11091
▁Arthur▁11092
bject▁11093
threaten▁11094
▁tinie▁11095
▁bastard▁11096
▁snor▁11097
▁toaster▁11098
▁boo▁11099
▁anniversar▁11100
blind▁11101
▁placebo▁11102
▁monogam▁11103
▁pinpoint▁11104
▁honey▁11105
▁clarif▁11106
▁Betti▁11107
▁Joan▁11108
▁Cra▁11109
spoon▁11110
▁starr▁11111
▁plummet▁11112
▁contagio▁11113
▁brin▁11114
▁Emil▁11115
▁definitiv▁11116
▁Gor▁11117
▁Zeta▁11118
▁traffick▁11119
▁apathy▁11120
▁disguise▁11121
▁Chihu▁11122
ahua▁11123
ó▁11124
▁Benjam▁11125
í▁11126
▁Juli▁11127
á▁11128
▁sacred▁11129
▁Mahatma▁11130
▁festival▁11131
ade▁11132
ada▁11133
▁echoe▁11134
▁Mont▁11135
▁Sebastian▁11136
▁Glenn▁11137
▁eardrum▁11138
▁snare▁11139
▁Herbi▁11140
▁Hancock▁11141
▁straightforward▁11142
▁translation▁11143
▁cheek▁11144
▁scalp▁11145
▁kettle▁11146
▁vibration▁11147
▁Royal▁11148
▁rust▁11149
lei▁11150
oscope▁11151
▁acoustician▁11152
▁enhance▁11153
▁clap▁11154
▁clapp▁11155
▁relat▁11156
▁practic▁11157
iddle▁11158
▁bagg▁11159
▁Rube▁11160
▁labyrinth▁11161
▁contraption▁11162
▁ascend▁11163
square▁11164
ck▁11165
▁oblige▁11166
▁timing▁11167
▁Heather▁11168
▁Knight▁11169
▁susceptib▁11170
▁humid▁11171
stress▁11172
▁Gramm▁11173
▁Cu▁11174
rios▁11175
▁Kay▁11176
owa▁11177
▁Allen▁11178
osphere▁11179
▁Vene▁11180
▁resign▁11181
▁1850▁11182
▁gasse▁11183
▁0.▁11184
▁Cel▁11185
ius▁11186
▁Passage▁11187
▁testify▁11188
▁warmer▁11189
▁vapor▁11190
▁latent▁11191
▁storms▁11192
▁hoop▁11193
▁distracted▁11194
▁Sophi▁11195
▁Conno▁11196
▁criticiz▁11197
▁Geo▁11198
▁occur▁11199
▁explod▁11200
▁Hiroshima▁11201
ppm▁11202
▁snowflake▁11203
▁lag▁11204
mplified▁11205
▁amplify▁11206
RA▁11207
90▁11208
▁devastation▁11209
▁monarch▁11210
▁butterfl▁11211
▁Ok▁11212
ket▁11213
▁Pla▁11214
▁Jake▁11215
▁enthusiastic▁11216
▁coauthor▁11217
▁Environmental▁11218
▁frack▁11219
▁tipping▁11220
▁asteroid▁11221
▁Philosoph▁11222
▁Break▁11223
fast▁11224
pass▁11225
▁philosopher▁11226
▁inquiry▁11227
▁183▁11228
▁confrontation▁11229
▁cosmo▁11230
▁Whewell▁11231
▁polite▁11232
▁loft▁11233
▁Pri▁11234
▁literar▁11235
▁Herschel▁11236
▁mechanical▁11237
▁calculator▁11238
▁pledge▁11239
▁grandiose▁11240
▁wildest▁11241
▁generalization▁11242
▁queen▁11243
▁tid▁11244
▁lobbie▁11245
▁nauti▁11246
▁1,3▁11247
▁processor▁11248
▁punch▁11249
emost▁11250
▁discontinu▁11251
ungen▁11252
▁astronom▁11253
building▁11254
▁Origin▁11255
▁Zach▁11256
▁Kaplan▁11257
▁Keith▁11258
▁Schach▁11259
▁Invent▁11260
▁squish▁11261
▁Gel▁11262
Tech▁11263
▁slam▁11264
▁Copp▁11265
ila▁11266
▁magnetic▁11267
▁rider▁11268
▁electromagnet▁11269
▁repel▁11270
▁brainstorm▁11271
▁spider▁11272
▁sir▁11273
▁Target▁11274
▁squirt▁11275
▁Supercomputer▁11276
conduct▁11277
▁circulat▁11278
▁sprinkle▁11279
pression▁11280
▁Sek▁11281
hemical▁11282
▁stiff▁11283
▁embed▁11284
▁bent▁11285
▁Wat▁11286
▁Dai▁11287
▁Farm▁11288
Sensing▁11289
▁inexpensive▁11290
▁mesmeriz▁11291
▁plunge▁11292
▁poop▁11293
▁adequate▁11294
▁Marie▁11295
▁anesthesi▁11296
▁latrine▁11297
▁seal▁11298
exhausti▁11299
▁94▁11300
▁bride▁11301
▁disgusting▁11302
▁colon▁11303
huret▁11304
▁nozzle▁11305
▁crumbl▁11306
▁rebel▁11307
nice▁11308
onica▁11309
riet▁11310
▁garage▁11311
elimina▁11312
▁Rick▁11313
modernism▁11314
rand▁11315
▁Architectur▁11316
▁Record▁11317
▁scanne▁11318
lte▁11319
▁Colt▁11320
ladi▁11321
▁AT▁11322
▁forgive▁11323
▁collide▁11324
▁Rauschen▁11325
▁Sacr▁11326
amento▁11327
▁cafeteria▁11328
▁galvanize▁11329
▁Tiger▁11330
▁simpler▁11331
▁guard▁11332
▁Goliath▁11333
▁prominent▁11334
arcelo▁11335
damm▁11336
▁defensive▁11337
▁schizophrenic▁11338
▁Minnesota▁11339
▁sculptural▁11340
▁Cleve▁11341
▁Burn▁11342
elli▁11343
▁Koh▁11344
▁Fox▁11345
▁underwa▁11346
▁Brent▁11347
▁servant▁11348
▁separat▁11349
▁Eis▁11350
▁Ana▁11351
heim▁11352
villa▁11353
▁Sein▁11354
▁Sport▁11355
▁Financ▁11356
▁balcon▁11357
estone▁11358
▁Baxter▁11359
skies▁11360
pend▁11361
shaw▁11362
▁cunning▁11363
▁skylight▁11364
▁Pav▁11365
▁strengthen▁11366
OC▁11367
▁criteri▁11368
▁compartmentaliz▁11369
▁Concert▁11370
▁Berlin▁11371
carriage▁11372
▁introduc▁11373
sceni▁11374
▁crank▁11375
▁teapot▁11376
terstate▁11377
▁Merri▁11378
▁Lou▁11379
ziger▁11380
▁Colombia▁11381
▁guerrilla▁11382
connected▁11383
▁Education▁11384
▁bombing▁11385
▁surfing▁11386
▁comprehensi▁11387
▁Bogota▁11388
▁inoculat▁11389
▁electora▁11390
Kerry▁11391
▁democratic▁11392
▁Arka▁11393
▁Appalachian▁11394
▁admitted▁11395
▁vot▁11396
▁Hamp▁11397
▁impoverish▁11398
▁Survey▁11399
▁affirmative▁11400
▁facilitate▁11401
▁Schau▁11402
icious▁11403
▁Denis▁11404
▁animator▁11405
▁critic▁11406
▁Beethoven▁11407
cene▁11408
gatherer▁11409
▁physiolog▁11410
▁horr▁11411
▁lik▁11412
▁ripe▁11413
▁barbecue▁11414
▁peacock▁11415
▁arous▁11416
magnetism▁11417
▁blu▁11418
▁artwork▁11419
▁decorati▁11420
▁neck▁11421
▁Acheul▁11422
▁roam▁11423
▁delicate▁11424
▁meticulous▁11425
scient▁11426
▁trait▁11427
▁reclaim▁11428
▁Lesterland▁11429
▁Lester▁11430
05▁11431
▁Supreme▁11432
▁camouflage▁11433
▁funder▁11434
▁Jerry▁11435
environmentalist▁11436
▁aristocra▁11437
▁coalition▁11438
▁Rod▁11439
▁baseline▁11440
▁republic▁11441
▁Federal▁11442
▁bipartisan▁11443
Capitol▁11444
▁invasive▁11445
▁polariz▁11446
▁dysfunction▁11447
▁Thor▁11448
▁translator▁11449
▁fusion▁11450
▁analytic▁11451
▁homophob▁11452
▁hopeless▁11453
▁pundit▁11454
▁178▁11455
▁Ree▁11456
▁cosm▁11457
999▁11458
▁Express▁11459
▁twinkl▁11460
▁supernova▁11461
▁remnant▁11462
▁cosmologist▁11463
mud▁11464
▁galax▁11465
▁subtract▁11466
▁giga▁11467
▁irregular▁11468
▁nuclei▁11469
▁gravitational▁11470
▁synthesi▁11471
▁unifie▁11472
▁hazard▁11473
▁imprison▁11474
math▁11475
▁proton▁11476
▁eng▁11477
technologie▁11478
▁fanatic▁11479
▁Joy▁11480
grain▁11481
▁relativ▁11482
▁unify▁11483
▁Roth▁11484
blatt▁11485
▁Bert▁11486
▁Russell▁11487
▁schematic▁11488
lapse▁11489
▁tribute▁11490
▁plaque▁11491
vig▁11492
▁4.5▁11493
▁wa▁11494
ession▁11495
▁vegetation▁11496
▁vigil▁11497
lose▁11498
▁biosphere▁11499
see▁11500
smal▁11501
▁tenth▁11502
▁engulf▁11503
strom▁11504
▁petal▁11505
▁Disneyland▁11506
▁hive▁11507
▁beehive▁11508
▁reefs▁11509
▁urchin▁11510
feld▁11511
▁snapshot▁11512
▁micrometeorite▁11513
▁constituent▁11514
▁powder▁11515
▁bombard▁11516
▁lava▁11517
kala▁11518
▁Blak▁11519
▁infinit▁11520
▁glimmer▁11521
▁firework▁11522
▁mesh▁11523
oubted▁11524
ruder▁11525
▁chin▁11526
bel▁11527
▁knot▁11528
luminescence▁11529
▁octopus▁11530
sel▁11531
▁Avatar▁11532
▁Se▁11533
▁brittle▁11534
▁gentl▁11535
▁plume▁11536
▁Color▁11537
▁imitat▁11538
▁Eye▁11539
▁bloom▁11540
▁Bah▁11541
amas▁11542
▁webcam▁11543
▁Monterey▁11544
▁Hum▁11545
▁Maybe▁11546
▁underestimat▁11547
▁Lesley▁11548
▁Astronom▁11549
▁astronomical▁11550
voluntary▁11551
▁capaciti▁11552
italin▁11553
▁depress▁11554
▁caffein▁11555
programm▁11556
▁rewrit▁11557
▁arithmetic▁11558
▁modalit▁11559
▁module▁11560
otic▁11561
▁spiritualit▁11562
▁chatt▁11563
ffective▁11564
control▁11565
imini▁11566
▁vol▁11567
▁subset▁11568
▁Thula▁11569
▁Mama▁11570
▁Afrika▁11571
▁Turn▁11572
▁drivers▁11573
▁multitasking▁11574
signal▁11575
▁crashe▁11576
▁roundabout▁11577
▁51▁11578
oline▁11579
▁8.▁11580
▁Scho▁11581
▁vigorous▁11582
▁execute▁11583
fabricat▁11584
▁Watson▁11585
orient▁11586
mole▁11587
▁electrochemi▁11588
strand▁11589
▁flopp▁11590
▁See▁11591
▁origami▁11592
▁intestine▁11593
thousand▁11594
circuit▁11595
▁Erik▁11596
▁Winfre▁11597
▁Feynman▁11598
▁Mai▁11599
▁Kal▁11600
itting▁11601
▁sweater▁11602
▁purple▁11603
▁elegan▁11604
personal▁11605
▁suitcase▁11606
Mann▁11607
▁condense▁11608
atz▁11609
▁Ferr▁11610
▁Taxi▁11611
▁Botox▁11612
uni▁11613
▁Rem▁11614
nick▁11615
▁Cod▁11616
▁Element▁11617
▁Style▁11618
▁Pol▁11619
SP▁11620
▁Sit▁11621
▁stain▁11622
▁Muh▁11623
▁Principle▁11624
▁Hei▁11625
▁Hygiene▁11626
rump▁11627
▁paranoid▁11628
▁displacement▁11629
▁Tel▁11630
▁Aviv▁11631
anguish▁11632
▁Kitt▁11633
▁Hart▁11634
▁Gersh▁11635
win▁11636
▁38▁11637
▁cemeter▁11638
oleum▁11639
▁Swee▁11640
witz▁11641
▁Chaplin▁11642
▁Ich▁11643
▁habe▁11644
ata▁11645
▁Dennett▁11646
▁glaze▁11647
▁hoo▁11648
chu▁11649
ethos▁11650
▁Saul▁11651
▁Stein▁11652
▁Suzan▁11653
▁pointillis▁11654
▁unconscious▁11655
▁Net▁11656
natural▁11657
▁inflate▁11658
plain▁11659
▁Hawkins▁11660
▁Canal▁11661
▁Minsky▁11662
▁rotate▁11663
▁rotat▁11664
▁Roger▁11665
hepherd▁11666
▁angular▁11667
▁rotation▁11668
▁Bradley▁11669
cker▁11670
▁Detect▁11671
▁240▁11672
▁15.▁11673
▁Boeing▁11674
▁describ▁11675
▁Sandel▁11676
▁Fast▁11677
▁VIP▁11678
▁outsource▁11679
▁dominate▁11680
▁affluen▁11681
▁sting▁11682
▁Dallas▁11683
▁siz▁11684
ike▁11685
▁Mose▁11686
▁MS▁11687
▁Loft▁11688
EL▁11689
▁taint▁11690
material▁11691
market▁11692
▁disagreement▁11693
▁commonalit▁11694
▁anonym▁11695
▁dishonest▁11696
profil▁11697
▁Winnipeg▁11698
▁liar▁11699
tern▁11700
▁Confuci▁11701
▁Butler▁11702
▁Puppe▁11703
code▁11704
▁coworker▁11705
▁nonverbal▁11706
▁idealiz▁11707
▁examin▁11708
▁subtl▁11709
▁Fif▁11710
▁Pinocchio▁11711
late▁11712
▁utterance▁11713
▁millennia▁11714
▁singular▁11715
▁messag▁11716
▁Cox▁11717
HC▁11718
▁lud▁11719
▁CERN▁11720
▁Wonder▁11721
▁Solar▁11722
▁Enc▁11723
eladu▁11724
▁fountain▁11725
▁Europa▁11726
▁turbulent▁11727
destruct▁11728
metric▁11729
▁1880▁11730
▁1890▁11731
▁emit▁11732
lium▁11733
▁esoteri▁11734
▁transistor▁11735
▁impos▁11736
gala▁11737
oxy▁11738
ekhar▁11739
▁majest▁11740
▁Uran▁11741
▁Neptun▁11742
▁Sagan▁11743
▁shaft▁11744
▁humbl▁11745
▁conceit▁11746
▁Humphrey▁11747
▁Da▁11748
▁assault▁11749
▁Billy▁11750
▁Poet▁11751
▁Laureate▁11752
▁Walter▁11753
▁Thompson▁11754
▁disast▁11755
▁verbal▁11756
▁Dickinson▁11757
▁Melodie▁11758
▁Bunn▁11759
▁Delta▁11760
▁Airline▁11761
▁deflect▁11762
apest▁11763
▁forager▁11764
▁pl▁11765
neous▁11766
▁knees▁11767
midst▁11768
dient▁11769
▁Para▁11770
▁lurk▁11771
▁Country▁11772
▁padd▁11773
▁flora▁11774
▁gripp▁11775
▁flare▁11776
▁eulog▁11777
grat▁11778
bottom▁11779
▁sch▁11780
▁adolescence▁11781
▁Favorit▁11782
▁Partheno▁11783
▁Pascal▁11784
▁blossom▁11785
ubert▁11786
▁youngster▁11787
▁Call▁11788
▁Levin▁11789
▁soundtrack▁11790
▁Galileo▁11791
▁cel▁11792
estial▁11793
▁Schwarzschild▁11794
▁throat▁11795
▁harsh▁11796
▁Prussia▁11797
▁catastrophic▁11798
▁km▁11799
vantage▁11800
▁Galaxy▁11801
▁lumin▁11802
▁lane▁11803
▁tunnel▁11804
▁emanat▁11805
▁glamor▁11806
▁trail▁11807
▁chirp▁11808
▁industrious▁11809
▁LI▁11810
assi▁11811
▁Hubble▁11812
▁disturbance▁11813
▁Proton▁11814
▁chaotic▁11815
▁frantic▁11816
▁multiverse▁11817
▁Ri▁11818
az▁11819
▁Presto▁11820
▁surreal▁11821
blowing▁11822
▁Kessl▁11823
condition▁11824
▁TEDxS▁11825
theater▁11826
▁mild▁11827
atar▁11828
▁Speer▁11829
▁Trans▁11830
▁cooling▁11831
▁analyz▁11832
▁Athen▁11833
mbra▁11834
▁overlay▁11835
▁diffuse▁11836
omfort▁11837
▁shad▁11838
▁hurricane▁11839
▁chill▁11840
▁stabil▁11841
▁energies▁11842
▁photovoltaic▁11843
▁Future▁11844
▁Emirate▁11845
▁Abu▁11846
▁plaza▁11847
aw▁11848
▁tabletop▁11849
▁apparatus▁11850
▁perceiv▁11851
▁emergent▁11852
mple▁11853
▁fractal▁11854
▁Gapminder▁11855
▁catalyze▁11856
▁bash▁11857
▁Pythagor▁11858
▁mathematician▁11859
▁Lauren▁11860
▁Gilli▁11861
shi▁11862
▁bats▁11863
order▁11864
▁AK▁11865
99▁11866
▁expenditure▁11867
▁characterize▁11868
▁vertebrate▁11869
location▁11870
oca▁11871
▁Sydney▁11872
▁Sto▁11873
▁angel▁11874
▁colony▁11875
ose▁11876
▁insecticide▁11877
▁genomic▁11878
▁disrupt▁11879
▁sie▁11880
▁1500▁11881
▁expend▁11882
▁Rive▁11883
▁Friend▁11884
▁Monster▁11885
▁interviewer▁11886
▁flirt▁11887
apster▁11888
▁automat▁11889
chard▁11890
peror▁11891
▁Grandma▁11892
itz▁11893
Ch▁11894
▁mortal▁11895
▁penis▁11896
▁spam▁11897
▁wireless▁11898
dah▁11899
data▁11900
medicine▁11901
▁aller▁11902
▁manufacture▁11903
zen▁11904
articulate▁11905
▁ozone▁11906
▁wreck▁11907
▁Jami▁11908
▁ALS▁11909
▁aisle▁11910
▁scal▁11911
▁Patient▁11912
▁milligram▁11913
▁Flash▁11914
kinetic▁11915
agnesium▁11916
▁rearrange▁11917
▁PNA▁11918
ithium▁11919
▁bipolar▁11920
▁critique▁11921
berto▁11922
PL▁11923
▁Treat▁11924
stern▁11925
RB▁11926
▁outlier▁11927
▁Remix▁11928
▁pinnacle▁11929
sten▁11930
▁dissent▁11931
▁Burt▁11932
▁Album▁11933
amun▁11934
▁Town▁11935
▁idol▁11936
▁Woody▁11937
▁Gut▁11938
▁Land▁11939
▁concoction▁11940
touch▁11941
fang▁11942
found▁11943
lock▁11944
▁exaggerat▁11945
▁mature▁11946
▁thermonu▁11947
▁biase▁11948
▁lawsuit▁11949
▁Blind▁11950
liberation▁11951
▁quantifie▁11952
▁5-▁11953
▁61▁11954
▁Nar▁11955
▁Personal▁11956
▁quantitative▁11957
▁diaper▁11958
▁diffusion▁11959
ometer▁11960
EM▁11961
▁inhale▁11962
isco▁11963
awareness▁11964
knowledge▁11965
garde▁11966
▁JR▁11967
nonymous▁11968
▁graffiti▁11969
▁photocopie▁11970
▁Champ▁11971
lot▁11972
▁curator▁11973
▁Heroe▁11974
▁detaine▁11975
▁cartel▁11976
▁Monro▁11977
ibera▁11978
▁Helen▁11979
▁Levitt▁11980
▁minaret▁11981
▁forbidd▁11982
▁Chernobyl▁11983
▁mafia▁11984
▁yeast▁11985
organism▁11986
▁ferment▁11987
▁dissolve▁11988
▁optim▁11989
rmostat▁11990
▁mini▁11991
▁dip▁11992
ompatible▁11993
▁excite▁11994
▁textile▁11995
▁SL▁11996
▁vibrat▁11997
▁bumblebee▁11998
uk▁11999
ellow▁12000
▁sovereign▁12001
evolution▁12002
▁totalitarian▁12003
Leopold▁12004
▁Cartesian▁12005
▁biochemist▁12006
▁Joel▁12007
▁Salat▁12008
▁apprentice▁12009
▁Poly▁12010
▁graze▁12011
▁maggot▁12012
▁larva▁12013
▁hatch▁12014
▁nitrogen▁12015
▁fertiliz▁12016
shoot▁12017
WF▁12018
▁2030▁12019
▁decisive▁12020
chester▁12021
▁lightbulb▁12022
logen▁12023
people▁12024
logging▁12025
▁Council▁12026
udi▁12027
▁auditor▁12028
▁wallet▁12029
▁Ngu▁12030
▁PBS▁12031
▁Nye▁12032
▁UCLA▁12033
click▁12034
izon▁12035
▁Pluto▁12036
▁700,000▁12037
▁Gras▁12038
▁ST▁12039
▁connectome▁12040
▁SS▁12041
▁intellect▁12042
uri▁12043
▁synapse▁12044
▁spaghetti▁12045
▁insignifican▁12046
▁plausib▁12047
▁synapti▁12048
▁hypothesize▁12049
orex▁12050
▁Autist▁12051
plausible▁12052
▁ridicule▁12053
▁erase▁12054
▁Fusion▁12055
akash▁12056
▁Ode▁12057
▁Major▁12058
▁Electronic▁12059
▁Jacque▁12060
▁Novo▁12061
▁mistrust▁12062
▁compliment▁12063
▁Mobutu▁12064
hren▁12065
spora▁12066
▁Amitabha▁12067
▁bypass▁12068
emeral▁12069
IDE▁12070
iest▁12071
▁Sono▁12072
▁Khan▁12073
▁Textil▁12074
▁Manufactur▁12075
spring▁12076
▁Acumen▁12077
▁Ambulance▁12078
▁ambulance▁12079
▁Innovation▁12080
finance▁12081
▁Sid▁12082
▁converse▁12083
▁judicia▁12084
▁sunflower▁12085
▁Raja▁12086
▁dignit▁12087
▁reckless▁12088
▁abusi▁12089
▁innovat▁12090
▁Moll▁12091
▁Skycar▁12092
▁volant▁12093
▁Vo▁12094
passen▁12095
▁motivator▁12096
OT▁12097
▁redundan▁12098
▁recreation▁12099
400▁12100
▁adage▁12101
▁aeronautic▁12102
OL▁12103
▁Hawke▁12104
▁Harrie▁12105
▁Felix▁12106
kel▁12107
▁Maz▁12108
▁backup▁12109
▁Video▁12110
▁aphorism▁12111
▁NAS▁12112
▁Twenty▁12113
▁Britanni▁12114
razo▁12115
▁Astro▁12116
chim▁12117
▁preferabl▁12118
▁equator▁12119
eureka▁12120
▁brows▁12121
▁unconta▁12122
▁leopard▁12123
tail▁12124
▁Volks▁12125
▁Egyptian▁12126
▁Pharao▁12127
tank▁12128
▁firefl▁12129
handed▁12130
▁Smithsonian▁12131
▁Gagarin▁12132
nourishe▁12133
▁hut▁12134
▁cramp▁12135
▁spher▁12136
illiard▁12137
rella▁12138
▁Potter▁12139
▁playwright▁12140
▁breastfeed▁12141
▁Superman▁12142
▁Mor▁12143
pur▁12144
fug▁12145
▁Alice▁12146
▁Purpl▁12147
▁nun▁12148
▁utilitarian▁12149
▁patron▁12150
▁Emp▁12151
▁Hai▁12152
▁Powell▁12153
▁Devil▁12154
Script▁12155
▁truthful▁12156
▁sinn▁12157
▁grape▁12158
truth▁12159
▁dysfunctional▁12160
station▁12161
▁reintegrat▁12162
▁gland▁12163
▁cocoon▁12164
▁weave▁12165
▁vein▁12166
▁effic▁12167
magine▁12168
▁Affair▁12169
▁dubio▁12170
▁entitlement▁12171
▁Budget▁12172
▁Office▁12173
axe▁12174
partisan▁12175
▁kin▁12176
▁miraculous▁12177
▁circl▁12178
▁committee▁12179
▁Rom▁12180
party▁12181
▁dislike▁12182
polar▁12183
▁Label▁12184
▁supplement▁12185
▁Start▁12186
▁Hispanic▁12187
▁Asteroid▁12188
▁quadruple▁12189
overty▁12190
▁Grove▁12191
quist▁12192
▁bankrupt▁12193
▁fisc▁12194
▁Crime▁12195
ronin▁12196
▁printer▁12197
▁Bewa▁12198
▁strive▁12199
▁Zucker▁12200
▁logge▁12201
▁Schmidt▁12202
▁Netflix▁12203
▁Iron▁12204
▁Wait▁12205
▁impulsive▁12206
▁Ventur▁12207
▁Justin▁12208
▁Bieber▁12209
▁gatekeeper▁12210
rman▁12211
▁expanding▁12212
▁meditation▁12213
una▁12214
▁implicit▁12215
▁Saint▁12216
sanga▁12217
▁Buddha▁12218
▁doctrine▁12219
left▁12220
▁hin▁12221
▁mystic▁12222
haut▁12223
rotten▁12224
▁cha▁12225
▁methodolog▁12226
aus▁12227
▁Method▁12228
▁Compassion▁12229
▁defuse▁12230
▁Saddam▁12231
▁Hussein▁12232
▁mustache▁12233
▁satisfie▁12234
brow▁12235
▁ruthless▁12236
practical▁12237
▁Buddhism▁12238
▁Charter▁12239
▁regenerative▁12240
▁regenerate▁12241
▁Lindbergh▁12242
▁Rockefeller▁12243
reactor▁12244
▁ankle▁12245
▁arter▁12246
▁mon▁12247
▁diagnos▁12248
▁induce▁12249
▁Bad▁12250
specific▁12251
▁Blackberr▁12252
▁ulcer▁12253
▁amputation▁12254
▁nostril▁12255
institut▁12256
▁randomize▁12257
▁laparoscopic▁12258
uction▁12259
▁reactor▁12260
▁fertilize▁12261
▁Terr▁12262
▁Turk▁12263
bra▁12264
parate▁12265
▁translat▁12266
CK▁12267
%▁12268
▁toddler▁12269
▁overlapp▁12270
ironment▁12271
▁recreat▁12272
▁petrochemical▁12273
▁recombin▁12274
▁residu▁12275
▁mixture▁12276
▁flake▁12277
▁sil▁12278
▁Kat▁12279
▁Maker▁12280
rgis▁12281
first▁12282
▁Senegal▁12283
▁Nathan▁12284
▁Myhrvold▁12285
Ferran▁12286
▁Adria▁12287
▁Blumen▁12288
▁spor▁12289
▁pickle▁12290
▁lavish▁12291
▁Hamburger▁12292
▁burger▁12293
▁charcoal▁12294
temperatur▁12295
osh▁12296
▁eyebrow▁12297
▁appliance▁12298
▁Watt▁12299
▁whiske▁12300
▁horn▁12301
▁CSI▁12302
▁2,4▁12303
▁Sophia▁12304
▁inflation▁12305
▁numer▁12306
▁repulsive▁12307
▁subatom▁12308
▁violin▁12309
▁quark▁12310
▁neutrino▁12311
hospita▁12312
guide▁12313
▁Kepler▁12314
itter▁12315
hotter▁12316
▁fastest▁12317
izzy▁12318
▁13.7▁12319
▁squeak▁12320
▁improvis▁12321
▁Pan▁12322
tat▁12323
▁unf▁12324
▁Violin▁12325
29▁12326
▁chord▁12327
stone▁12328
▁Bor▁12329
▁improvisation▁12330
▁1600▁12331
▁wicked▁12332
▁MTT▁12333
▁Fifth▁12334
student▁12335
udience▁12336
▁democratiz▁12337
▁Bess▁12338
▁impenetrab▁12339
▁Stern▁12340
ough▁12341
▁Kabi▁12342
▁riddle▁12343
▁consent▁12344
▁litigation▁12345
▁primordial▁12346
▁Diamond▁12347
▁dispute▁12348
▁scor▁12349
▁romanticize▁12350
▁retirement▁12351
bodie▁12352
▁fluctuat▁12353
▁babysitt▁12354
▁cult▁12355
▁pension▁12356
▁fluent▁12357
▁outstanding▁12358
▁multiplic▁12359
▁logarithm▁12360
digit▁12361
▁knob▁12362
interdisciplinar▁12363
▁plague▁12364
▁cleaner▁12365
obb▁12366
▁toxin▁12367
▁Bis▁12368
▁Control▁12369
▁formaldehyde▁12370
▁respirator▁12371
▁Infinit▁12372
▁Mushroom▁12373
▁compost▁12374
▁ta▁12375
▁decay▁12376
▁decompi▁12377
▁myceli▁12378
▁Image▁12379
▁cliche▁12380
▁crucifi▁12381
schwitz▁12382
▁Holocaust▁12383
Ghraib▁12384
▁Guant▁12385
amo▁12386
▁Guard▁12387
▁Ohio▁12388
▁Katrina▁12389
▁Eu▁12390
▁Dori▁12391
▁Goodwi▁12392
▁Lyndon▁12393
▁disregard▁12394
▁Sarah▁12395
▁legislature▁12396
▁suicid▁12397
▁rally▁12398
▁Erne▁12399
▁rival▁12400
▁peril▁12401
▁possess▁12402
parallele▁12403
▁subordinat▁12404
▁griev▁12405
hak▁12406
▁1900▁12407
▁Caucas▁12408
▁barbaria▁12409
▁Napoleon▁12410
▁sunrise▁12411
▁encompass▁12412
▁memoir▁12413
▁psychic▁12414
▁ranch▁12415
▁anecdotal▁12416
▁Bai▁12417
check▁12418
cloth▁12419
▁sank▁12420
▁spac▁12421
▁replenish▁12422
▁Ethan▁12423
▁Dod▁12424
▁Roy▁12425
ella▁12426
▁Communi▁12427
▁Ebbe▁12428
▁Field▁12429
▁indulgence▁12430
ankees▁12431
▁Serie▁12432
▁loyalt▁12433
&▁12434
▁superinte▁12435
▁Pam▁12436
▁County▁12437
▁Ridge▁12438
▁Tweet▁12439
▁Southwest▁12440
mitten▁12441
▁beard▁12442
▁concession▁12443
▁supervisor▁12444
▁Far▁12445
▁visionar▁12446
▁Grad▁12447
▁Ach▁12448
testament▁12449
▁eeri▁12450
▁Polo▁12451
▁Miss▁12452
school▁12453
▁Plexiglas▁12454
▁Secretary▁12455
rolle▁12456
▁dealer▁12457
▁interlock▁12458
▁Agn▁12459
information▁12460
zu▁12461
▁facilitator▁12462
▁Brenn▁12463
jec▁12464
▁unpredictabl▁12465
▁Shirk▁12466
▁Clay▁12467
▁fram▁12468
rang▁12469
▁mermaid▁12470
ermaid▁12471
Parade▁12472
▁Flickr▁12473
▁Del▁12474
▁librarian▁12475
▁exclusion▁12476
,4▁12477
▁merchandis▁12478
▁Psycho▁12479
▁bargain▁12480
▁captur▁12481
▁drank▁12482
flow▁12483
▁Meet▁12484
affin▁12485
▁Heife▁12486
litz▁12487
▁Judi▁12488
journalism▁12489
▁Lance▁12490
▁bracelet▁12491
▁hijack▁12492
▁perpetrat▁12493
▁Happy▁12494
▁statistician▁12495
▁apocalyptic▁12496
▁Economic▁12497
▁reasonably▁12498
▁Hobbes▁12499
▁Dow▁12500
▁cornerstone▁12501
▁Promi▁12502
▁harassment▁12503
▁execution▁12504
▁commentar▁12505
▁reunite▁12506
▁ideological▁12507
▁embody▁12508
▁ideolog▁12509
▁martyr▁12510
▁Morocc▁12511
▁Casa▁12512
blanc▁12513
tradition▁12514
▁Row▁12515
hoc▁12516
uddle▁12517
affe▁12518
▁31▁12519
▁Airbnb▁12520
▁TaskRabbit▁12521
▁microsecond▁12522
▁advert▁12523
▁licens▁12524
▁Craigslist▁12525
▁precedent▁12526
otter▁12527
▁specifi▁12528
▁gambl▁12529
▁enshrin▁12530
tium▁12531
▁vet▁12532
▁earning▁12533
▁improbab▁12534
▁tur▁12535
▁iTunes▁12536
dley▁12537
▁Selig▁12538
▁practitioner▁12539
▁Psychologi▁12540
▁Doctor▁12541
▁rig▁12542
▁psychiatr▁12543
▁psychiatrist▁12544
talent▁12545
▁Gilbert▁12546
ikszent▁12547
ihaly▁12548
▁weakness▁12549
ulli▁12550
▁Robbi▁12551
▁alleged▁12552
▁Matthieu▁12553
millionaire▁12554
▁consign▁12555
ardi▁12556
▁Deb▁12557
absorption▁12558
▁whipp▁12559
▁cherry▁12560
▁morbid▁12561
▁dough▁12562
▁prototyping▁12563
tangible▁12564
Doh▁12565
hack▁12566
▁microprocessor▁12567
amme▁12568
opening▁12569
▁Charlotte▁12570
▁steward▁12571
▁pinch▁12572
▁Psalm▁12573
▁contradiction▁12574
▁powerless▁12575
▁Creat▁12576
▁pluck▁12577
▁plutonium▁12578
▁Job▁12579
▁Cli▁12580
odium▁12581
▁commentator▁12582
▁Mari▁12583
▁Clark▁12584
▁deathbed▁12585
▁Wer▁12586
▁Braun▁12587
▁antagonist▁12588
▁Chance▁12589
auer▁12590
zhen▁12591
▁seventeenth▁12592
▁165▁12593
▁rede▁12594
▁39▁12595
▁embodiment▁12596
atricia▁12597
bai▁12598
▁medi▁12599
▁Kuwait▁12600
▁bandw▁12601
speaking▁12602
▁prophec▁12603
▁Dark▁12604
▁equate▁12605
▁Divide▁12606
▁Universi▁12607
limb▁12608
medium▁12609
▁Award▁12610
▁Kenyan▁12611
▁Steff▁12612
▁Maps▁12613
uer▁12614
▁pedestrian▁12615
▁crowdsource▁12616
▁stockpile▁12617
▁vacan▁12618
▁bundle▁12619
shine▁12620
▁furnace▁12621
▁pollination▁12622
▁sequester▁12623
ozi▁12624
▁Reserve▁12625
▁safari▁12626
▁deterren▁12627
▁slipper▁12628
ubunt▁12629
▁Solly▁12630
▁über▁12631
▁coincide▁12632
croc▁12633
▁slick▁12634
▁waist▁12635
▁migrator▁12636
▁invert▁12637
▁bracket▁12638
▁hollow▁12639
atriarch▁12640
▁psych▁12641
▁visibl▁12642
▁Oprah▁12643
▁PM▁12644
▁Dennis▁12645
arro▁12646
▁Dis▁12647
▁beekeeper▁12648
▁beekeep▁12649
▁squa▁12650
▁Hack▁12651
▁raft▁12652
▁Kate▁12653
▁diner▁12654
▁honeybee▁12655
▁colonialis▁12656
social▁12657
ara▁12658
systems▁12659
▁soprano▁12660
▁Mein▁12661
▁Lippen▁12662
▁küssen▁12663
grid▁12664
▁Tongu▁12665
▁Emergenc▁12666
▁Pentagon▁12667
▁Twin▁12668
Bath▁12669
▁Jacob▁12670
▁Horse▁12671
▁decentraliz▁12672
▁Ground▁12673
▁Clint▁12674
▁Zeit▁12675
▁widget▁12676
▁Wein▁12677
▁fungus▁12678
▁Share▁12679
▁Conference▁12680
▁Mola▁12681
▁0.5▁12682
▁Pink▁12683
▁Bauer▁12684
▁memes▁12685
▁1860▁12686
▁Ask▁12687
▁CE▁12688
ulp▁12689
▁reframe▁12690
▁rapper▁12691
▁Namaste▁12692
Day▁12693
▁Vagina▁12694
▁Monolog▁12695
wege▁12696
▁Kosov▁12697
nitha▁12698
custome▁12699
▁14-▁12700
▁Butter▁12701
▁mutilat▁12702
itoris▁12703
▁deput▁12704
▁hyena▁12705
▁Emotion▁12706
▁pissed▁12707
▁coconut▁12708
▁dilute▁12709
▁inconvenience▁12710
▁autops▁12711
▁Spirit▁12712
▁Rosa▁12713
uent▁12714
▁Mohamed▁12715
▁Alberto▁12716
▁Giacometti▁12717
▁franc▁12718
▁cryptic▁12719
▁Dame▁12720
▁succumb▁12721
▁gunshot▁12722
▁coincident▁12723
Marge▁12724
▁puzzling▁12725
▁Rand▁12726
▁quad▁12727
ennial▁12728
▁Blair▁12729
▁Tipp▁12730
▁Delan▁12731
▁Dyson▁12732
▁Barricelli▁12733
▁Trini▁12734
▁Neumann▁12735
▁subtraction▁12736
▁Leib▁12737
▁Turing▁12738
EN▁12739
▁Study▁12740
▁revise▁12741
RCA▁12742
▁Morgen▁12743
▁Oppenheim▁12744
▁hackers▁12745
▁vacuum▁12746
▁disk▁12747
▁Graph▁12748
reliabl▁12749
▁2,6▁12750
▁Arithmeti▁12751
▁Log▁12752
crony▁12753
▁Mathematica▁12754
▁Integr▁12755
▁regain▁12756
▁Aha▁12757
▁lightning▁12758
▁kilo▁12759
▁Mega▁12760
hertz▁12761
▁Wolfram▁12762
enotyp▁12763
▁phenotype▁12764
▁proteomics▁12765
▁Renn▁12766
▁Gle▁12767
▁strata▁12768
delt▁12769
▁grav▁12770
▁Mandarin▁12771
▁grammatical▁12772
omorrow▁12773
▁regnet▁12774
▁visceral▁12775
ID▁12776
▁Bru▁12777
ssels▁12778
▁Haus▁12779
▁Igbo▁12780
▁Tasmanian▁12781
▁virulent▁12782
▁marsupial▁12783
▁kangaroo▁12784
▁Tasmania▁12785
▁grue▁12786
▁cervi▁12787
inister▁12788
▁Chester▁12789
entia▁12790
▁Derek▁12791
ckel▁12792
doubt▁12793
▁Nan▁12794
▁AO▁12795
▁Philharmoni▁12796
ripped▁12797
▁Chop▁12798
▁Tat▁12799
▁Skeptic▁12800
▁conflicts▁12801
▁Davos▁12802
06▁12803
▁enliven▁12804
▁Schell▁12805
▁Brad▁12806
▁objection▁12807
▁pneumo▁12808
▁temperat▁12809
▁afflict▁12810
▁parasite▁12811
▁vest▁12812
▁KIPP▁12813
▁66▁12814
▁tenure▁12815
▁Nice▁12816
▁lend▁12817
▁mourn▁12818
ollateral▁12819
▁outfit▁12820
▁Cluster▁12821
amel▁12822
▁lemon▁12823
▁malignan▁12824
acco▁12825
▁salv▁12826
mption▁12827
▁Griffi▁12828
alt▁12829
itude▁12830
▁kite▁12831
▁Mak▁12832
cock▁12833
▁Wright▁12834
▁relegate▁12835
▁autonomous▁12836
▁kilowatt▁12837
▁megawatt▁12838
▁230▁12839
▁747▁12840
mega▁12841
▁1000▁12842
▁Natasha▁12843
▁multimedia▁12844
wake▁12845
▁decipher▁12846
visual▁12847
▁Anto▁12848
▁attentive▁12849
▁clown▁12850
▁Zipcar▁12851
▁Buzz▁12852
▁Peer▁12853
▁Inc▁12854
▁customiz▁12855
▁Top▁12856
Code▁12857
▁24-▁12858
▁Garten▁12859
▁sage▁12860
▁deluge▁12861
▁password▁12862
▁clutter▁12863
▁notorious▁12864
▁levitat▁12865
▁navigat▁12866
▁seamless▁12867
▁Mut▁12868
▁stove▁12869
▁Coul▁12870
▁Paol▁12871
▁MoMA▁12872
▁typeface▁12873
tica▁12874
enz▁12875
▁knack▁12876
▁Argentin▁12877
erra▁12878
▁proxim▁12879
▁Livermore▁12880
▁IDEO▁12881
▁cubicle▁12882
▁Jong▁12883
▁maverick▁12884
▁loudspeaker▁12885
▁rifle▁12886
▁mount▁12887
▁Brem▁12888
▁impairment▁12889
▁Herald▁12890
▁Tribu▁12891
▁Paulo▁12892
Fernando▁12893
▁strangeness▁12894
▁Eames▁12895
glas▁12896
thieu▁12897
India▁12898
▁Telegraph▁12899
▁telegraph▁12900
▁Opium▁12901
▁Mao▁12902
▁Deng▁12903
iaoping▁12904
▁92▁12905
▁similarit▁12906
▁inequit▁12907
MF▁12908
▁Lehman▁12909
▁doorstep▁12910
▁interven▁12911
▁Gol▁12912
▁Ramon▁12913
explanat▁12914
▁serotonin▁12915
RI▁12916
▁palette▁12917
▁Atala▁12918
▁Mass▁12919
▁bladder▁12920
▁Cultur▁12921
▁Organ▁12922
▁sutur▁12923
vascular▁12924
▁volumetri▁12925
ckenber▁12926
▁pendulum▁12927
inspired▁12928
▁tremor▁12929
▁interpla▁12930
▁cone▁12931
▁tether▁12932
▁interpenetrat▁12933
▁spigot▁12934
▁Loui▁12935
▁sauce▁12936
▁centrifug▁12937
▁ripple▁12938
▁interfer▁12939
▁persuasive▁12940
▁Seth▁12941
▁Kiliman▁12942
esis▁12943
▁Ki▁12944
▁jogg▁12945
▁circa▁12946
▁confluen▁12947
▁absolut▁12948
▁Aura▁12949
gab▁12950
▁Sari▁12951
▁Tupperware▁12952
▁Pamel▁12953
▁Kurs▁12954
▁untouchable▁12955
▁Theremin▁12956
▁bumm▁12957
▁Sieg▁12958
portrait▁12959
▁vague▁12960
▁Laur▁12961
▁Blog▁12962
▁Holly▁12963
closure▁12964
▁enclosure▁12965
▁Honey▁12966
▁qualitative▁12967
▁evaluat▁12968
▁psyche▁12969
ishman▁12970
eligi▁12971
▁portable▁12972
iuk▁12973
▁TB▁12974
ief▁12975
▁warrant▁12976
▁biopsy▁12977
▁appointment▁12978
▁graduat▁12979
▁Ash▁12980
performance▁12981
uinea▁12982
▁Intel▁12983
▁mainframe▁12984
▁Trace▁12985
▁abdomen▁12986
▁DARw▁12987
▁CL▁12988
Me▁12989
Tri▁12990
pedal▁12991
▁Dynamic▁12992
Robot▁12993
▁locomot▁12994
range▁12995
▁1.8▁12996
cha▁12997
MPA▁12998
▁Intelligent▁12999
latform▁13000
leg▁13001
▁tacti▁13002
mann▁13003
▁Limb▁13004
▁Match▁13005
▁geologist▁13006
ARS▁13007
▁Multi▁13008
App▁13009
apo▁13010
▁payload▁13011
▁Mechanism▁13012
▁Hand▁13013
▁prosthes▁13014
echanical▁13015
reedom▁13016
ntelligence▁13017
▁Orchestra▁13018
▁Challenge▁13019
Drive▁13020
▁wack▁13021
electrifie▁13022
inch▁13023
▁Basi▁13024
▁Abbott▁13025
▁Bin▁13026
▁Laden▁13027
▁Alla▁13028
▁Crash▁13029
▁Server▁13030
▁Gang▁13031
NT▁13032
kum▁13033
▁cybercrim▁13034
▁froze▁13035
▁14.▁13036
stonia▁13037
▁Hex▁13038
OR▁13039
seek▁13040
600▁13041
RU▁13042
US▁13043
▁Mercedes▁13044
▁20-▁13045
amara▁13046
▁Siemens▁13047
virus▁13048
▁Trug▁13049
loyd▁13050
▁Rosi▁13051
Wayne▁13052
▁grit▁13053
▁dumm▁13054
rries▁13055
▁Bluetooth▁13056
▁Show▁13057
▁Engineering▁13058
▁airbag▁13059
▁bounc▁13060
▁retrospective▁13061
▁Terminator▁13062
izz▁13063
eil▁13064
▁friction▁13065
▁Excel▁13066
▁chute▁13067
layer▁13068
▁Rule▁13069
▁homo▁13070
▁reciprocal▁13071
blockade▁13072
▁conduc▁13073
▁loser▁13074
▁interdependent▁13075
▁Islam▁13076
▁refra▁13077
▁Eva▁13078
▁ceramic▁13079
▁Stil▁13080
▁Castle▁13081
▁Hungarian▁13082
▁Hamburg▁13083
▁Moderator▁13084
▁purg▁13085
▁Attentat▁13086
▁Bonnie▁13087
▁Bass▁13088
▁Vibrio▁13089
▁fischer▁13090
▁receptor▁13091
virulen▁13092
▁census▁13093
▁mutant▁13094
quo▁13095
▁therapeutic▁13096
▁Grace▁13097
▁McCu▁13098
▁medal▁13099
▁accomplishment▁13100
▁Jazz▁13101
▁stereotypical▁13102
▁bloodline▁13103
▁Shivdutt▁13104
▁Living▁13105
▁Chap▁13106
▁serial▁13107
▁establishment▁13108
▁index▁13109
migration▁13110
security▁13111
▁Sreb▁13112
▁massacre▁13113
▁exhum▁13114
▁Commission▁13115
▁Person▁13116
corp▁13117
▁Orthodox▁13118
▁solicit▁13119
▁Information▁13120
oreign▁13121
▁Propaganda▁13122
▁instruct▁13123
▁Hitler▁13124
▁Reich▁13125
▁Raphael▁13126
▁Portrait▁13127
▁Northeast▁13128
▁bystander▁13129
tribu▁13130
▁retaliat▁13131
▁Ukrainian▁13132
▁orphanage▁13133
▁Ukraine▁13134
▁insufficient▁13135
frequent▁13136
▁projector▁13137
▁phosphorus▁13138
fest▁13139
▁phosphor▁13140
▁illogical▁13141
dispens▁13142
▁mycorrhiza▁13143
millimeter▁13144
▁penetrat▁13145
solu▁13146
rghum▁13147
dose▁13148
▁diversif▁13149
▁Key▁13150
▁reef▁13151
▁overfish▁13152
▁overheat▁13153
peake▁13154
▁Indi▁13155
▁seaweed▁13156
▁Anti▁13157
▁embarrassment▁13158
quarium▁13159
▁Horror▁13160
▁droplet▁13161
▁acute▁13162
▁paradi▁13163
▁toast▁13164
▁bleach▁13165
▁Pick▁13166
▁OPEC▁13167
East▁13168
▁polic▁13169
▁Saudi▁13170
BP▁13171
competitive▁13172
▁Barnett▁13173
▁renewables▁13174
▁accent▁13175
▁aquifer▁13176
▁Anand▁13177
arawa▁13178
▁BumpTop▁13179
▁browse▁13180
▁crease▁13181
▁Capital▁13182
▁pronunciation▁13183
kul▁13184
▁suffic▁13185
helm▁13186
▁spreadsheet▁13187
▁Viking▁13188
▁Reykjav▁13189
gado▁13190
▁contend▁13191
provok▁13192
▁Heart▁13193
ivers▁13194
▁Mutter▁13195
angst▁13196
▁Rutan▁13197
▁Hous▁13198
▁regress▁13199
▁Lockheed▁13200
▁DC▁13201
ggie▁13202
rtiller▁13203
uz▁13204
Ship▁13205
▁airline▁13206
▁ellipti▁13207
▁billionaire▁13208
▁Musk▁13209
▁Branson▁13210
▁Bez▁13211
▁Carm▁13212
▁SR▁13213
▁capitalist▁13214
▁supersonic▁13215
▁cargo▁13216
▁accelerator▁13217
▁shave▁13218
▁Telescope▁13219
▁mir▁13220
▁streak▁13221
▁Larg▁13222
▁Hadron▁13223
Collider▁13224
▁exoskeleton▁13225
tun▁13226
machine▁13227
▁crave▁13228
▁perceptual▁13229
▁Laboratorie▁13230
▁lesion▁13231
▁Kirk▁13232
▁proficien▁13233
▁moratorium▁13234
▁Alaska▁13235
▁Mineral▁13236
▁Management▁13237
▁geopolitic▁13238
▁carcinogen▁13239
▁Prestige▁13240
▁vici▁13241
▁perverse▁13242
▁Beverl▁13243
bill▁13244
▁1870▁13245
▁proactive▁13246
▁Exxon▁13247
▁Valdez▁13248
▁Chad▁13249
▁sanctuar▁13250
fin▁13251
▁Transport▁13252
▁Berner▁13253
Lee▁13254
▁HTML▁13255
▁HTTP▁13256
RL▁13257
▁grassroots▁13258
fetch▁13259
▁Data▁13260
▁sprout▁13261
▁Frei▁13262
pedia▁13263
▁Wiki▁13264
▁Terra▁13265
▁Ludwi▁13266
▁jug▁13267
▁Limpopo▁13268
tete▁13269
▁sunbath▁13270
▁gravel▁13271
▁Treasur▁13272
▁headphone▁13273
▁Schafe▁13274
▁unhealth▁13275
▁irrit▁13276
▁soundscape▁13277
pulver▁13278
intensit▁13279
▁antidote▁13280
▁Eben▁13281
▁offender▁13282
▁petrol▁13283
▁Fortune▁13284
▁Kumar▁13285
▁offshor▁13286
▁accountant▁13287
▁Hyderabad▁13288
▁industrie▁13289
▁outsourc▁13290
▁Technologie▁13291
locate▁13292
▁analyst▁13293
MT▁13294
▁Jod▁13295
RT▁13296
▁skeptical▁13297
▁Rang▁13298
▁Wang▁13299
▁Maa▁13300
▁authoritarian▁13301
ampaign▁13302
aunch▁13303
▁Ton▁13304
ernstein▁13305
▁Architect▁13306
▁Migration▁13307
▁flee▁13308
▁deplet▁13309
▁porch▁13310
▁relocate▁13311
▁Shin▁13312
▁prosper▁13313
▁reside▁13314
▁elevate▁13315
aswam▁13316
NK▁13317
▁pilgrim▁13318
▁Atacama▁13319
▁radioactiv▁13320
▁candle▁13321
ikal▁13322
▁Extreme▁13323
▁stratospher▁13324
Shelf▁13325
astery▁13326
▁juxtaposition▁13327
▁Shim▁13328
▁Schock▁13329
▁Rabin▁13330
▁barbed▁13331
▁Russ▁13332
▁Arr▁13333
▁unconditional▁13334
▁underdog▁13335
aka▁13336
▁marrow▁13337
▁Eure▁13338
▁Caf▁13339
▁Enlighten▁13340
▁flori▁13341
estero▁13342
▁incubator▁13343
urture▁13344
▁Malthus▁13345
▁Grube▁13346
▁barricad▁13347
▁informal▁13348
ffenba▁13349
▁amplifie▁13350
▁bleep▁13351
▁Doppler▁13352
IV▁13353
▁McCl▁13354
▁Hara▁13355
▁terabyte▁13356
▁modulate▁13357
▁receiver▁13358
mplitude▁13359
▁Traffic▁13360
regal▁13361
▁Wade▁13362
▁raisin▁13363
odd▁13364
▁arrogan▁13365
▁affectionate▁13366
verbal▁13367
▁posture▁13368
rogat▁13369
▁untouch▁13370
▁Shoot▁13371
▁Kraft▁13372
▁Marrow▁13373
▁pediatric▁13374
▁Jill▁13375
▁Bolt▁13376
▁catheter▁13377
▁contour▁13378
▁puncture▁13379
▁embryonic▁13380
▁neurolog▁13381
union▁13382
▁acquir▁13383
â▁13384
▁13385
▁13386
▁nein▁13387
▁4,▁13388
Vo▁13389
▁texting▁13390
▁LOL▁13391
▁3,3▁13392
index▁13393
▁pivot▁13394
▁Phil▁13395
▁tadpole▁13396
▁compensat▁13397
▁paycheck▁13398
▁Hendri▁13399
cumber▁13400
▁stump▁13401
balance▁13402
▁crest▁13403
▁Buckminster▁13404
atalog▁13405
▁MacCready▁13406
▁Aero▁13407
▁generator▁13408
▁Diane▁13409
▁inflat▁13410
▁dissertation▁13411
▁skelet▁13412
▁copulat▁13413
static▁13414
▁spong▁13415
▁voil▁13416
▁wiggl▁13417
▁contraction▁13418
▁Anato▁13419
▁invertebrate▁13420
brand▁13421
▁Thailand▁13422
uzzle▁13423
ahn▁13424
01▁13425
▁WiFi▁13426
model▁13427
met▁13428
▁mechanistic▁13429
▁Und▁13430
▁Aye▁13431
▁portal▁13432
reason▁13433
▁Freud▁13434
▁Physi▁13435
▁quarry▁13436
ewage▁13437
▁hatred▁13438
▁patriarch▁13439
▁agnostic▁13440
▁egalitarian▁13441
▁bullie▁13442
▁Baldwin▁13443
▁Armen▁13444
▁prosecute▁13445
Arm▁13446
▁Ottoman▁13447
▁impersonat▁13448
▁Rumi▁13449
▁Tab▁13450
▁Sufi▁13451
▁Cheval▁13452
▁blush▁13453
▁Vermeer▁13454
ippe▁13455
▁earring▁13456
▁Goldilock▁13457
▁innocen▁13458
▁Tudor▁13459
▁glance▁13460
▁nickname▁13461
♫▁13462
▁Hund▁13463
▁Chaucer▁13464
▁nominate▁13465
▁Palin▁13466
▁punchline▁13467
cumen▁13468
▁credi▁13469
▁misdirection▁13470
▁Hick▁13471
▁Ig▁13472
kno▁13473
▁Governor▁13474
▁Perry▁13475
▁Maya▁13476
▁reminisc▁13477
atchi▁13478
▁Algeria▁13479
▁Leg▁13480
anne▁13481
▁SM▁13482
▁Festival▁13483
▁Katar▁13484
▁Pool▁13485
filter▁13486
EC▁13487
▁Scientolog▁13488
ruise▁13489
Space▁13490
▁sacrific▁13491
▁CP▁13492
▁advanc▁13493
▁combinatori▁13494
exual▁13495
sufficien▁13496
▁49▁13497
▁bist▁13498
▁FO▁13499
distance▁13500
▁quarrie▁13501
▁Tier▁13502
einrich▁13503
Hertz▁13504
▁Tesla▁13505
oni▁13506
frequenc▁13507
▁sling▁13508
▁telephon▁13509
nsky▁13510
▁prosaic▁13511
▁resume▁13512
▁netter▁13513
uca▁13514
rdo▁13515
▁thylacine▁13516
▁Direct▁13517
▁Shap▁13518
▁reassemble▁13519
▁Multiple▁13520
▁Automat▁13521
▁pronounce▁13522
▁primitiv▁13523
▁Fern▁13524
nde▁13525
▁Lanz▁13526
▁Java▁13527
▁pluripotent▁13528
▁ivory▁13529
▁eagle▁13530
▁captive▁13531
▁Zoo▁13532
▁Dia▁13533
sse▁13534
▁Cru▁13535
▁woodpecker▁13536
▁Eskimo▁13537
SB▁13538
▁Cesar▁13539
▁Fuku▁13540
shima▁13541
▁rudder▁13542
▁Protei▁13543
▁ballast▁13544
▁Kickstarter▁13545
ruct▁13546
▁Ein▁13547
▁Arduino▁13548
▁axon▁13549
▁cortic▁13550
▁EEG▁13551
▁conductiv▁13552
rasio▁13553
▁fad▁13554
▁Pra▁13555
▁Kara▁13556
▁snapp▁13557
▁quadriplegi▁13558
Life▁13559
▁Gho▁13560
bald▁13561
▁assert▁13562
▁discretion▁13563
kt▁13564
▁diplomatic▁13565
▁idealis▁13566
▁Minist▁13567
-1▁13568
aeda▁13569
▁Special▁13570
▁escort▁13571
▁sabbatical▁13572
▁moan▁13573
▁Pac▁13574
▁Insider▁13575
▁Kosovar▁13576
▁Status▁13577
▁Diplomat▁13578
politik▁13579
Shabaab▁13580
▁militia▁13581
▁embodie▁13582
▁Kazak▁13583
▁Darfur▁13584
▁Ahmadine▁13585
lein▁13586
▁Alb▁13587
▁Bagh▁13588
▁Read▁13589
▁Pin▁13590
▁MA▁13591
trick▁13592
▁Maddie▁13593
▁Tob▁13594
stein▁13595
▁pacemaker▁13596
▁coil▁13597
▁Investigat▁13598
similar▁13599
▁spectroscop▁13600
▁SETI▁13601
▁Lithium▁13602
▁Have▁13603
▁spectrogra▁13604
▁extrasolar▁13605
▁spectra▁13606
▁Kelvin▁13607
▁Gib▁13608
▁Bas▁13609
▁interstellar▁13610
▁Alpha▁13611
▁uranium▁13612
orium▁13613
otassium▁13614
marke▁13615
▁Drake▁13616
▁UFO▁13617
feder▁13618
▁Boulevard▁13619
▁Schw▁13620
▁Eden▁13621
▁welcom▁13622
beat▁13623
▁Linda▁13624
platin▁13625
▁Memori▁13626
▁Sloan▁13627
pul▁13628
proving▁13629
▁cowboy▁13630
Levit▁13631
▁hob▁13632
▁roommate▁13633
ibati▁13634
▁marginaliz▁13635
▁eject▁13636
▁oxide▁13637
▁alternate▁13638
ona▁13639
clav▁13640
▁backdrop▁13641
statt▁13642
koff▁13643
▁Report▁13644
▁Macintosh▁13645
▁salien▁13646
splitter▁13647
shadow▁13648
▁undertake▁13649
▁McDo▁13650
▁Minorit▁13651
▁gratifying▁13652
▁Environment▁13653
▁Becket▁13654
▁Ernst▁13655
▁tabu▁13656
▁Ob▁13657
▁Jacques▁13658
95▁13659
zel▁13660
format▁13661
▁Case▁13662
girl▁13663
▁Cash▁13664
▁Name▁13665
▁Sue▁13666
oh▁13667
▁Vase▁13668
▁Clooney▁13669
▁Accenture▁13670
▁Irish▁13671
▁Elephant▁13672
▁insurgent▁13673
▁Kurd▁13674
▁crusade▁13675
▁patrioti▁13676
▁Ragh▁13677
▁KK▁13678
▁Reha▁13679
▁Az▁13680
eryl▁13681
iraj▁13682
▁Arav▁13683
▁Venkat▁13684
dominate▁13685
▁Tamil▁13686
▁Brillian▁13687
▁franchise▁13688
▁TR▁13689
▁gla▁13690
▁rupee▁13691
phthalm▁13692
▁complication▁13693
Monkey▁13694
▁typewriter▁13695
▁astrolog▁13696
▁banal▁13697
ector▁13698
▁Archi▁13699
▁nihilis▁13700
▁404▁13701
▁cou▁13702
▁Kinect▁13703
▁Athlet▁13704
▁Biblical▁13705
ainforest▁13706
▁Sabbat▁13707
▁homicide▁13708
▁Uniform▁13709
▁Statistic▁13710
▁Associat▁13711
▁Press▁13712
▁Singer▁13713
▁contingen▁13714
▁cyborg▁13715
▁Liz▁13716
▁Donnell▁13717
▁heel▁13718
▁Arabia▁13719
▁Sko▁13720
▁Participa▁13721
▁Production▁13722
▁enigma▁13723
▁Nachtwey▁13724
▁Humanit▁13725
▁Omi▁13726
▁Entrepreneur▁13727
▁carcass▁13728
RD▁13729
gainst▁13730
▁Equ▁13731
▁Opportunit▁13732
▁Last▁13733
Barrel▁13734
▁Snow▁13735
▁2,3▁13736
▁Mem▁13737
▁Ferris▁13738
=▁13739
misunderstanding▁13740
▁intergala▁13741
ncyclopedia▁13742
▁crystalliz▁13743
▁enchant▁13744
▁dorsal▁13745
▁antelope▁13746
ematode▁13747
▁quasi▁13748
phage▁13749
▁eukaryot▁13750
▁temptation▁13751
▁muss▁13752
▁Ghemawat▁13753
border▁13754
global▁13755
3.0▁13756
▁overestimat▁13757
▁displace▁13758
▁Relation▁13759
bias▁13760
▁Summi▁13761
▁shuffle▁13762
▁Bicycle▁13763
▁Mandelbrot▁13764
▁blindfold▁13765
enhanc▁13766
▁Odysse▁13767
▁climax▁13768
▁Aldri▁13769
▁emoti▁13770
reviewe▁13771
▁Tahrir▁13772
▁reboot▁13773
,2▁13774
▁1.2▁13775
▁inertia▁13776
▁Oslo▁13777
rahi▁13778
▁Cairo▁13779
▁patrol▁13780
▁magnify▁13781
▁moist▁13782
▁slug▁13783
pick▁13784
▁groom▁13785
hazard▁13786
ommission▁13787
▁BB▁13788
▁Pollock▁13789
xcuse▁13790
▁penguins▁13791
▁Sopran▁13792
oyo▁13793
▁digitiz▁13794
▁reactors▁13795
hili▁13796
▁Turbo▁13797
chef▁13798
▁calibrate▁13799
▁Foster▁13800
▁Tarter▁13801
▁Mesozoi▁13802
▁denominator▁13803
▁Kohle▁13804
▁puppeteer▁13805
▁Basil▁13806
▁astonishment▁13807
▁Faust▁13808
▁canoe▁13809
▁Pun▁13810
▁Bam▁13811
▁Mali▁13812
▁Marionette▁13813
▁Tro▁13814
▁giraffe▁13815
▁Morris▁13816
▁Theatr▁13817
▁Stand▁13818
wick▁13819
▁fearful▁13820
▁Joa▁13821
▁Brett▁13822
▁uneas▁13823
orthodox▁13824
▁sectarian▁13825
▁rabbi▁13826
▁Tora▁13827
▁contempt▁13828
egitimate▁13829
▁spectacle▁13830
religion▁13831
▁synagogue▁13832
transcendence▁13833
lliance▁13834
▁extremism▁13835
▁Sey▁13836
mour▁13837
▁temper▁13838
osmos▁13839
▁Heid▁13840
▁OMG▁13841
▁Sensor▁13842
▁extrinsi▁13843
▁Agu▁13844
▁aerodynamic▁13845
▁Lovegrove▁13846
▁Hazle▁13847
▁bestseller▁13848
▁Shi▁13849
weh▁13850
Sinai▁13851
dence▁13852
▁Bedouin▁13853
israel▁13854
hypnoti▁13855
▁masculin▁13856
▁merci▁13857
▁swelling▁13858
ē▁13859
▁cradle▁13860
▁guardian▁13861
▁Gau▁13862
▁nitr▁13863
▁Berk▁13864
▁Carpe▁13865
▁Nylon▁13866
▁Sound▁13867
▁Corbusier▁13868
▁Brut▁13869
▁NO▁13870
AA▁13871
climate▁13872
▁Crick▁13873
▁precondition▁13874
▁Birke▁13875
▁4000▁13876
▁Biotech▁13877
▁Model▁13878
▁Rouge▁13879
▁Madam▁13880
Mart▁13881
▁Patrick▁13882
▁catapult▁13883
▁presumption▁13884
▁dissident▁13885
▁surpass▁13886
▁margins▁13887
▁Justi▁13888
▁Zambia▁13889
▁concussion▁13890
▁neuropsychologi▁13891
www▁13892
▁Vander▁13893
▁103▁13894
ggy▁13895
▁NFL▁13896
▁Senator▁13897
▁legislator▁13898
routine▁13899
▁Form▁13900
replicating▁13901
tig▁13902
▁Diagnos▁13903
cose▁13904
▁HC▁13905
▁surrogate▁13906
▁prick▁13907
-47▁13908
beater▁13909
▁Patent▁13910
nthia▁13911
▁Schneider▁13912
▁Idol▁13913
TV▁13914
▁Talent▁13915
▁allegiance▁13916
ides▁13917
▁Danny▁13918
▁Hillis▁13919
▁restructur▁13920
▁fission▁13921
tung▁13922
200▁13923
▁violinist▁13924
▁Finger▁13925
▁wann▁13926
▁Randi▁13927
▁Alphabet▁13928
▁Movember▁13929
hav▁13930
▁legitimize▁13931
▁Prostat▁13932
▁Bro▁13933
▁77▁13934
mahl▁13935
▁traumatic▁13936
▁Mond▁13937
▁traumatiz▁13938
▁repressive▁13939
▁Brenda▁13940
▁AAA▁13941
▁Wii▁13942
▁Monopol▁13943
▁Zig▁13944
▁Reservat▁13945
▁Mommy▁13946
▁Ava▁13947
chen▁13948
▁nie▁13949
▁Agent▁13950
▁mitigate▁13951
▁Extrem▁13952
▁grill▁13953
▁strawberr▁13954
▁Eat▁13955
private▁13956
▁Lunch▁13957
▁Program▁13958
▁Fabian▁13959
▁psychedeli▁13960
▁Phantom▁13961
rofluid▁13962
▁Martian▁13963
▁Luri▁13964
▁Such▁13965
▁1910▁13966
▁Progress▁13967
munition▁13968
▁Kipling▁13969
Grad▁13970
▁Bernoulli▁13971
▁estimat▁13972
letter▁13973
▁Ring▁13974
▁tornado▁13975
▁Asthma▁13976
schmuck▁13977
vil▁13978
▁Spam▁13979
▁slee▁13980
▁troubling▁13981
▁fiddle▁13982
▁reced▁13983
▁seatbelt▁13984
▁Terror▁13985
▁Leonard▁13986
▁Susskind▁13987
▁irreveren▁13988
▁Coleman▁13989
▁Les▁13990
▁calculus▁13991
▁Wilkins▁13992
▁gradient▁13993
▁fluke▁13994
▁junior▁13995
eval▁13996
▁cortiso▁13997
▁cardio▁13998
▁batch▁13999
▁opa▁14000
▁Sear▁14001
▁Send▁14002
hil▁14003
▁Mul▁14004
consistent▁14005
▁persuasion▁14006
▁Positive▁14007
▁Niss▁14008
volume▁14009
mission▁14010
bane▁14011
▁Region▁14012
▁scaling▁14013
▁additive▁14014
▁1.0▁14015
▁Bots▁14016
Car▁14017
Dog▁14018
▁SuperRabbit▁14019
Internet▁14020
▁guise▁14021
▁breadth▁14022
▁dashboard▁14023
▁Conne▁14024
verflow▁14025
▁Libeskind▁14026
▁underlie▁14027
▁improbabilit▁14028
espresso▁14029
▁neu▁14030
▁abyss▁14031
▁inexplicabl▁14032
▁obscur▁14033
focal▁14034
▁plural▁14035
▁skyline▁14036
▁McEw▁14037
▁Stephan▁14038
▁Judg▁14039
▁20.▁14040
▁seismi▁14041
▁saddle▁14042
▁Lang▁14043
▁predicat▁14044
▁Ballet▁14045
▁Dance▁14046
▁uninform▁14047
▁empath▁14048
▁Charit▁14049
iff▁14050
gett▁14051
▁Kurzweil▁14052
▁Niels▁14053
unter▁14054
▁preconce▁14055
▁recline▁14056
▁wristwatch▁14057
▁crania▁14058
▁EV▁14059
▁Jesse▁14060
▁increment▁14061
▁collaborat▁14062
▁uncertain▁14063
▁Nak▁14064
orado▁14065
▁Kahn▁14066
▁Close▁14067
▁Agra▁14068
▁Entertainment▁14069
▁Stygi▁14070
▁perimeter▁14071
▁yo▁14072
▁Hondura▁14073
▁Corp▁14074
▁Machiavelli▁14075
▁hmm▁14076
▁ging▁14077
▁psychopath▁14078
▁Strang▁14079
great▁14080
▁doubling▁14081
▁Race▁14082
▁scrub▁14083
DOS▁14084
▁Babel▁14085
▁arrogant▁14086
▁splendid▁14087
▁rigg▁14088
▁circus▁14089
▁arrowhead▁14090
▁stabbe▁14091
▁Papua▁14092
▁eavesdrop▁14093
taste▁14094
▁Denisova▁14095
▁blackboard▁14096
▁destiny▁14097
vante▁14098
▁Ferrari▁14099
▁MR▁14100
▁Statue▁14101
▁nickel▁14102
▁misuse▁14103
▁cocaine▁14104
▁Barbie▁14105
▁trumpet▁14106
▁latch▁14107
▁influenza▁14108
▁Gibra▁14109
▁Barber▁14110
quisition▁14111
▁Elio▁14112
▁Alien▁14113
▁Krishna▁14114
▁rescu▁14115
▁Pranitha▁14116
▁mason▁14117
▁stifle▁14118
▁Dhara▁14119
▁Singh▁14120
▁Guang▁14121
▁Provin▁14122
▁privatiz▁14123
▁NBA▁14124
▁Reuters▁14125
▁venom▁14126
▁HD▁14127
▁hedoni▁14128
▁altruist▁14129
orthogonal▁14130
sprung▁14131
job▁14132
materiali▁14133
▁Prosper▁14134
▁Kiran▁14135
orruption▁14136
Prince▁14137
appers▁14138
à▁14139
▁Respons▁14140
▁lush▁14141
▁handheld▁14142
▁boardroom▁14143
▁Essen▁14144
▁Jess▁14145
▁Mitch▁14146
▁bac▁14147
brid▁14148
Dodi▁14149
▁Camill▁14150
▁celebrit▁14151
▁BBC▁14152
▁Arche▁14153
▁Taschen▁14154
▁Ep▁14155
▁Linu▁14156
▁scoop▁14157
▁rumor▁14158
▁pH▁14159
alanine▁14160
Gen▁14161
▁Aff▁14162
segment▁14163
▁vocation▁14164
▁polygon▁14165
pocalyp▁14166
▁mustard▁14167
▁Dana▁14168
▁Farbe▁14169
marks▁14170
omo▁14171
▁academi▁14172
▁Therapeut▁14173
▁crowdsourc▁14174
nik▁14175
▁superficial▁14176
bird▁14177
▁grownup▁14178
▁Bayes▁14179
▁Blicke▁14180
▁Cristin▁14181
▁zombie▁14182
gestalt▁14183
▁splint▁14184
brot▁14185
▁precursor▁14186
▁Kymaerica▁14187
▁reinterpret▁14188
▁Emba▁14189
▁embass▁14190
▁Gret▁14191
▁Tumor▁14192
vitro▁14193
▁Novocure▁14194
▁GB▁14195
▁recurren▁14196
▁Dill▁14197
▁Lyd▁14198
fusion▁14199
▁Karolinska▁14200
felder▁14201
Claud▁14202
inancial▁14203
▁Dir▁14204
▁interconnect▁14205
▁TNC▁14206
▁Tele▁14207
▁dogma▁14208
▁Zai▁14209
▁drone▁14210
▁Sarajevo▁14211
▁casualt▁14212
ongolese▁14213
▁extremist▁14214
▁flour▁14215
▁Violet▁14216
▁ventilat▁14217
▁Biolog▁14218
Built▁14219
ET▁14220
endezvous▁14221
▁envelop▁14222
▁crater▁14223
imming▁14224
▁Huygens▁14225
▁Ontario▁14226
▁Julie▁14227
▁synesthe▁14228
▁Kiki▁14229
▁mislead▁14230
▁recommendation▁14231
▁Wald▁14232
▁Emer▁14233
▁cogit▁14234
▁Fleisch▁14235
▁Moleeds▁14236
▁hysterical▁14237
goris▁14238
▁Slavi▁14239
▁Fluctus▁14240
▁Nicaragua▁14241
▁Franc▁14242
Uni▁14243
▁Internationale▁14244
▁Bohr▁14245
▁Euler▁14246
ahedron▁14247
▁Copernic▁14248
▁casino▁14249
▁Tit▁14250
▁Fibonacci▁14251
▁Cala▁14252
▁Rat▁14253
▁18.▁14254
▁19.▁14255
24▁14256
▁ONE▁14257
hampagne▁14258
▁Edinburgh▁14259
retroviral▁14260
▁7.▁14261
▁technocrat▁14262
▁Mill▁14263
▁Ushahidi▁14264
▁dictatorship▁14265
Biafra▁14266
▁airstrip▁14267
▁dir▁14268
▁melanchol▁14269
▁enact▁14270
▁Emmanuel▁14271
▁Spider▁14272
▁Spi▁14273
▁Reddit▁14274
▁humpback▁14275
▁Mister▁14276
Splashy▁14277
peace▁14278
▁whal▁14279
▁veterinar▁14280
▁Picture▁14281
▁guck▁14282
▁mantis▁14283
▁loyal▁14284
▁McCan▁14285
▁Billion▁14286
▁Dollar▁14287
▁flatten▁14288
▁typograph▁14289
▁Tor▁14290
▁USB▁14291
gras▁14292
▁Pub▁14293
neutral▁14294
▁TEDxC▁14295
▁BlackBerr▁14296
▁Tunisia▁14297
▁Ornis▁14298
▁Swami▁14299
▁clogg▁14300
tomograph▁14301
▁maximal▁14302
▁loneli▁14303
▁impoten▁14304
▁Atkins▁14305
-3▁14306
▁saturate▁14307
cholester▁14308
▁headache▁14309
▁UCS▁14310
▁PSA▁14311
▁metastati▁14312
▁Round▁14313
▁Mashelkar▁14314
▁residual▁14315
▁Nano▁14316
▁Segment▁14317
▁adhesive▁14318
▁vendor▁14319
auto▁14320
auffeu▁14321
▁academ▁14322
▁socket▁14323
(▁14324
▁validat▁14325
▁announce▁14326
ndustry▁14327
▁Thought▁14328
▁legislat▁14329
▁muffin▁14330
nox▁14331
▁verbi▁14332
▁interpersonal▁14333
▁fratern▁14334
uisance▁14335
▁tuna▁14336
▁leatherback▁14337
▁mak▁14338
▁Jorge▁14339
SHA▁14340
PP▁14341
▁Shaff▁14342
Schilling▁14343
▁Turtle▁14344
▁Gate▁14345
▁Lead▁14346
▁lone▁14347
NH▁14348
▁glider▁14349
▁GM▁14350
mpact▁14351
▁AV▁14352
▁Pathfinder▁14353
▁71▁14354
▁220▁14355
▁Morgan▁14356
▁unforge▁14357
rilobite▁14358
different▁14359
sagen▁14360
▁commune▁14361
urban▁14362
▁Hono▁14363
dorf▁14364
▁botanical▁14365
Evil▁14366
▁Comedy▁14367
▁Venezuela▁14368
▁Jabb▁14369
▁Allah▁14370
▁Hass▁14371
oooo▁14372
▁Habi▁14373
▁Bond▁14374
▁Broad▁14375
▁IM▁14376
▁bureaucrac▁14377
▁Ebert▁14378
▁monoton▁14379
flection▁14380
AL▁14381
Pro▁14382
ATO▁14383
▁Commerc▁14384
Time▁14385
▁Rain▁14386
▁Audio▁14387
▁conjecture▁14388
erium▁14389
▁neutron▁14390
▁gigawatt▁14391
▁criminalize▁14392
▁Exil▁14393
▁Helm▁14394
▁Rep▁14395
▁retool▁14396
▁missionar▁14397
▁Amsterdam▁14398
▁Bueno▁14399
▁Die▁14400
kor▁14401
▁correctness▁14402
▁mailbox▁14403
▁Dale▁14404
ritz▁14405
designer▁14406
▁Expedition▁14407
▁Panama▁14408
awkins▁14409
▁genitali▁14410
▁transpos▁14411
▁Hutchi▁14412
▁Ebola▁14413
▁homolog▁14414
▁dein▁14415
▁Methan▁14416
schi▁14417
monoxid▁14418
terrorism▁14419
dimension▁14420
▁Heiz▁14421
▁Atmosph▁14422
▁Himmel▁14423
blau▁14424
▁Greg▁14425
▁Lynn▁14426
▁Gothic▁14427
▁Antoni▁14428
▁Otto▁14429
▁Bateson▁14430
▁verifi▁14431
Station▁14432
serie▁14433
▁janitor▁14434
mbstone▁14435
quivalent▁14436
hib▁14437
▁Paradi▁14438
▁Richter▁14439
▁mosaic▁14440
aystack▁14441
▁Moor▁14442
▁Cousteau▁14443
▁wilderness▁14444
▁Hippie▁14445
Archipel▁14446
▁Fiji▁14447
quator▁14448
▁Maldiv▁14449
▁lobster▁14450
▁PIPA▁14451
▁Stacey▁14452
▁Kram▁14453
▁Command▁14454
▁Male▁14455
▁Moh▁14456
▁Islamist▁14457
▁Musta▁14458
▁refuge▁14459
▁Nadi▁14460
▁Oxf▁14461
▁legitim▁14462
▁Libya▁14463
azi▁14464
▁Geoff▁14465
▁Summe▁14466
▁GCSE▁14467
▁Dinosaur▁14468
▁Ott▁14469
▁Formation▁14470
Pachycephalosaur▁14471
loch▁14472
▁Drac▁14473
atops▁14474
▁Torosaurus▁14475
▁Scan▁14476
Rex▁14477
▁Shadow▁14478
▁Noa▁14479
winter▁14480
▁Archimedes▁14481
ltimo▁14482
▁Johan▁14483
▁transcribe▁14484
▁forger▁14485
▁Radi▁14486
▁Spar▁14487
▁Thermo▁14488
▁Ti▁14489
▁collaps▁14490
wetter▁14491
▁Inuit▁14492
held▁14493
▁petri▁14494
▁flog▁14495
City▁14496
▁Bowden▁14497
▁ESP▁14498
rger▁14499
▁Test▁14500
▁Sherman▁14501
▁Lago▁14502
▁doodl▁14503
folklore▁14504
▁fang▁14505
▁Hul▁14506
▁kelp▁14507
▁Shephe▁14508
▁Israelite▁14509
romegal▁14510
▁Letter▁14511
▁swift▁14512
▁fra▁14513
disc▁14514
parna▁14515
▁Rao▁14516
▁conceal▁14517
▁Imperial▁14518
▁Accra▁14519
antast▁14520
▁Reuther▁14521
▁Volta▁14522
▁Milton▁14523
▁Montessori▁14524
eopard▁14525
▁senator▁14526
▁Zip▁14527
▁Lip▁14528
▁reorganize▁14529
▁dehumaniz▁14530
▁Audi▁14531
▁flop▁14532
▁Amnes▁14533
▁SAT▁14534
▁Gertrude▁14535
▁Damasio▁14536
▁Hof▁14537
stadt▁14538
▁Schwartz▁14539
▁Charle▁14540
park▁14541
monade▁14542
▁motel▁14543
▁NPR▁14544
moral▁14545
emplar▁14546
Atti▁14547
▁Aaron▁14548
▁Feuer▁14549
▁Polar▁14550
wana▁14551
EP▁14552
▁UNAIDS▁14553
urren▁14554
▁vodka▁14555
ummer▁14556
▁arsenal▁14557
▁FEMA▁14558
▁Physic▁14559
kiloton▁14560
▁Cola▁14561
uten▁14562
▁Osa▁14563
▁Leb▁14564
▁Geiger▁14565
▁Full▁14566
▁gecko▁14567
▁Velcro▁14568
Stick▁14569
bombe▁14570
▁wizard▁14571
▁Keller▁14572
▁monochrom▁14573
▁geoengineer▁14574
▁sulfate▁14575
▁euphori▁14576
▁Mesquit▁14577
▁Inti▁14578
▁coerc▁14579
▁Sally▁14580
▁declassif▁14581
▁Christoph▁14582
Button▁14583
▁meteorite▁14584
▁Rasmus▁14585
▁replicator▁14586
▁substrate▁14587
ahr▁14588
ø▁14589
▁alliance▁14590
standard▁14591
▁biomimic▁14592
▁Arian▁14593
▁Bala▁14594
Astor▁14595
▁Angel▁14596
▁Tap▁14597
▁WikiLeaks▁14598
▁Ass▁14599
ange▁14600
▁wiki▁14601
▁Gutenberg▁14602
moor▁14603
▁Marathon▁14604
▁Derart▁14605
▁Tulu▁14606
▁Paula▁14607
▁Rad▁14608
cliff▁14609
▁Tarahumara▁14610
▁spiderweb▁14611
▁Gero▁14612
▁Ap▁14613
▁59▁14614
Gamble▁14615
▁paranormal▁14616
major▁14617
▁parochial▁14618
emeni▁14619
emen▁14620
▁ballot▁14621
rinde▁14622
netary▁14623
aft▁14624
▁sublim▁14625
▁incision▁14626
▁prolong▁14627
upta▁14628
▁revolt▁14629
▁gleam▁14630
▁Bollywood▁14631
isela▁14632
▁Math▁14633
ommen▁14634
▁Misha▁14635
upert▁14636
▁Turin▁14637
▁Hacker▁14638
▁cybercriminal▁14639
▁Carder▁14640
Planet▁14641
Marke▁14642
Colombo▁14643
▁asylum▁14644
▁Wor▁14645
frau▁14646
▁Ev▁14647
Co▁14648
▁McKi▁14649
▁proponent▁14650
hbab▁14651
ï▁14652
▁reckon▁14653
Mutawa▁14654
tolerance▁14655
▁Noor▁14656
▁remake▁14657
Account▁14658
▁Portal▁14659
▁conductor▁14660
▁Ensemble▁14661
variabl▁14662
▁Coli▁14663
▁Kha▁14664
▁adventur▁14665
▁Paralympic▁14666
▁Aus▁14667
▁Baum▁14668
▁Protest▁14669
▁Feminist▁14670
▁Steine▁14671
▁Parker▁14672
Robi▁14673
▁Guzm▁14674
▁Corne▁14675
liest▁14676
▁Mess▁14677
▁Gov▁14678
▁Electro▁14679
lux▁14680
arez▁14681
suppe▁14682
▁Enigma▁14683
▁Donald▁14684
▁Trump▁14685
dministration▁14686
▁Worldchanging▁14687
spiel▁14688
▁Ganesh▁14689
▁PDA▁14690
▁Bolin▁14691
Hop▁14692
iges▁14693
▁blubb▁14694
▁Rita▁14695
▁copepod▁14696
▁Glas▁14697
▁Piero▁14698
▁Francesca▁14699
▁Visual▁14700
▁Note▁14701
▁Magritte▁14702
iscipline▁14703
Kinsey▁14704
▁Sharp▁14705
▁Allianz▁14706
▁Hanna▁14707
▁parod▁14708
▁Gaga▁14709
▁Angelin▁14710
▁trickster▁14711
▁Kelle▁14712
▁550▁14713
▁Pixar▁14714
▁volle▁14715
▁flamingo▁14716
▁preschool▁14717
▁internalize▁14718
conscious▁14719
▁convergen▁14720
▁salon▁14721
▁Benki▁14722
▁Ashaninka▁14723
▁Nation▁14724
▁Portuguese▁14725
▁Sanghamitr▁14726
taka▁14727
▁horoscope▁14728
▁southwest▁14729
▁Step▁14730
percepti▁14731
▁benevolen▁14732
▁WI▁14733
▁Profit▁14734
▁Venture▁14735
▁Philanthrop▁14736
rror▁14737
difference▁14738
lodge▁14739
▁RFID▁14740
▁supermassive▁14741
-2▁14742
▁Schwarz▁14743
▁stell▁14744
▁Bug▁14745
▁sag▁14746
▁perturb▁14747
▁appendage▁14748
Hex▁14749
robot▁14750
Gecko▁14751
▁capillar▁14752
▁Lob▁14753
▁intangible▁14754
aunt▁14755
▁Burkin▁14756
▁Gando▁14757
▁classmates▁14758
▁confound▁14759
▁Jeann▁14760
▁marshmallow▁14761
uiz▁14762
▁AMD▁14763
▁Johann▁14764
▁waltz▁14765
▁Michoac▁14766
▁metabol▁14767
▁sei▁14768
▁Proz▁14769
revolution▁14770
▁Zimba▁14771
synchron▁14772
▁Kra▁14773
appy▁14774
▁Gay▁14775
▁ABC▁14776
▁App▁14777
▁pillow▁14778
▁Kiva▁14779
▁aber▁14780
baum▁14781
▁Notation▁14782
lö▁14783
▁decibel▁14784
OD▁14785
▁Pepper▁14786
▁Okapi▁14787
▁Fauna▁14788
▁poacher▁14789
▁Ituri▁14790
▁tusk▁14791
▁inscription▁14792
▁1963▁14793
▁UNESCO▁14794
▁Gun▁14795
titution▁14796
▁bachelor▁14797
▁mingl▁14798
▁milieu▁14799
▁Liberal▁14800
▁utopia▁14801
▁Juni▁14802
pex▁14803
▁Mind▁14804
▁Pic▁14805
▁Suga▁14806
kwa▁14807
▁Arhuaco▁14808
ilo▁14809
▁Villa▁14810
fan▁14811
▁divin▁14812
▁Romo▁14813
Store▁14814
▁semantic▁14815
▁Parikrma▁14816
▁Hardy▁14817
▁Puls▁14818
teacher▁14819
▁Ahmedabad▁14820
haram▁14821
▁quadrill▁14822
abyte▁14823
▁RAM▁14824
▁approximation▁14825
▁Photosynth▁14826
▁AI▁14827
▁SING▁14828
▁46664▁14829
▁Avelile▁14830
▁Higgs▁14831
neu▁14832
▁Sousa▁14833
▁ASCAP▁14834
fern▁14835
▁trespass▁14836
volt▁14837
MI▁14838
▁prohibition▁14839
▁Orte▁14840
▁Gas▁14841
▁Gould▁14842
▁neurobiologist▁14843
▁attorney▁14844
▁Nazis▁14845
▁prosecution▁14846
▁Brust▁14847
ein▁14848
▁syllabus▁14849
ventil▁14850
driving▁14851
▁crook▁14852
▁ignor▁14853
characterization▁14854
▁molt▁14855
▁banjo▁14856
▁Registr▁14857
▁Register▁14858
▁Mathe▁14859
appen▁14860
▁GP▁14861
▁detriment▁14862
▁Gustav▁14863
▁Teresa▁14864
√▁14865
±▁14866
stema▁14867
▁Caracas▁14868
▁Abreu▁14869
DL▁14870
▁Beno▁14871
▁SW▁14872
▁Container▁14873
▁Raj▁14874
▁Rosetta▁14875
▁Indus▁14876
▁Mesopotamia▁14877
▁Indo▁14878
European▁14879
▁Dravidian▁14880
▁Wheel▁14881
▁obey▁14882
ieroglyph▁14883
▁Der▁14884
▁shiver▁14885
loh▁14886
▁cheetah▁14887
dex▁14888
▁Cir▁14889
▁Sole▁14890
▁Borane▁14891
▁ganz▁14892
▁widerlich▁14893
▁Geruch▁14894
marin▁14895
▁nah▁14896
list▁14897
▁Heli▁14898
▁CAPTCHA▁14899
▁Duolingo▁14900
▁Ticket▁14901
CAPTCHA▁14902
▁humongous▁14903
▁Kind▁14904
▁Snoop▁14905
▁Dogg▁14906
hhhh▁14907
▁Severin▁14908
▁beginn▁14909
▁rau▁14910
▁Borne▁14911
▁mangrove▁14912
▁twitch▁14913
▁volt▁14914
kl▁14915
▁metronome▁14916
▁Guide▁14917
raduate▁14918
▁Londoner▁14919
▁Interviewer▁14920
▁conform▁14921
▁skat▁14922
▁Herz▁14923
studie▁14924
pulse▁14925
quawk▁14926
▁vocaliz▁14927
▁Fab▁14928
▁Mop▁14929
▁Investment▁14930
▁Warhol▁14931
▁Sisyphus▁14932
▁Hip▁14933
▁Borg▁14934
fuel▁14935
▁plunder▁14936
▁Extra▁14937
▁Hab▁14938
▁Mosh▁14939
▁superorganism▁14940
kau▁14941
▁Flip▁14942
▁Aimee▁14943
Gadget▁14944
▁Fashion▁14945
▁Ort▁14946
▁Current▁14947
▁Kemp▁14948
▁juxtapose▁14949
▁7,5▁14950
tipp▁14951
▁Masse▁14952
▁Frost▁14953
▁Gra▁14954
▁Downtown▁14955
▁Arcade▁14956
bund▁14957
metall▁14958
▁Dimitri▁14959
▁Mendel▁14960
▁AOL▁14961
▁Virgin▁14962
▁Terminal▁14963
▁Hammer▁14964
▁Detail▁14965
Ashbur▁14966
KA▁14967
▁KB▁14968
public▁14969
▁Student▁14970
▁null▁14971
▁Niger▁14972
▁Mahab▁14973
▁Beatrice▁14974
▁mumble▁14975
▁79▁14976
▁progeri▁14977
▁Bern▁14978
▁SPCA▁14979
▁glorifi▁14980
athlete▁14981
▁fringe▁14982
▁Chav▁14983
▁Marle▁14984
Rast▁14985
▁Kauf▁14986
▁Maxwell▁14987
harisma▁14988
AIS▁14989
▁Proto▁14990
handle▁14991
convenient▁14992
▁dragonfl▁14993
▁Scarlet▁14994
▁Wander▁14995
elle▁14996
▁evaporat▁14997
▁Monarch▁14998
▁Amur▁14999
▁refuel▁15000
▁Rolle▁15001
▁cyberattack▁15002
▁Joint▁15003
aub▁15004
▁Blitz▁15005
krieg▁15006
ë▁15007
▁Elisabeth▁15008
uffard▁15009
▁Voda▁15010
▁swipe▁15011
▁Instagram▁15012
sistence▁15013
▁Pretor▁15014
▁Ego▁15015
▁debunk▁15016
▁MDG▁15017
▁Box▁15018
▁Level▁15019
▁Trends▁15020
▁Evaluation▁15021
▁SOPA▁15022
TEC▁15023
26.2▁15024
▁Motion▁15025
hang▁15026
▁epiphyte▁15027
ST▁15028
▁Sustainab▁15029
▁Seminar▁15030
▁Zander▁15031
▁Rebe▁15032
▁grosse▁15033
▁Hin▁15034
Python▁15035
▁Ville▁15036
atorium▁15037
▁contemplate▁15038
▁brach▁15039
hantom▁15040
▁glamour▁15041
▁desalinat▁15042
▁Magazin▁15043
capacity▁15044
▁juncture▁15045
▁Farmer▁15046
vier▁15047
otho▁15048
atmen▁15049
▁Ehrlich▁15050
will▁15051
▁Amor▁15052
▁Lovin▁15053
▁CPU▁15054
▁Ding▁15055
▁Faul▁15056
script▁15057
▁roach▁15058
▁prune▁15059
uniform▁15060
eocortex▁15061
▁assay▁15062
▁antidepressant▁15063
▁underpinning▁15064
▁jumbo▁15065
▁Bolivia▁15066
▁pulmona▁15067
CU▁15068
▁lbs▁15069
▁Plateau▁15070
▁DEP▁15071
▁SLA▁15072
lementine▁15073
▁Shackleton▁15074
▁Hunt▁15075
▁Blogger▁15076
yntax▁15077
▁hiccup▁15078
▁Occupy▁15079
grier▁15080
▁Pizza▁15081
▁decoupl▁15082
▁grizzl▁15083
▁Geld▁15084
▁punk▁15085
▁pragmatis▁15086
▁DA▁15087
▁Oval▁15088
▁Truman▁15089
system▁15090
▁sublinear▁15091
▁Birmingham▁15092
▁sigmoidal▁15093
▁fluctuation▁15094
OMA▁15095
*▁15096
▁blonde▁15097
▁Date▁15098
▁solidify▁15099
▁Auge▁15100
▁gastr▁15101
▁barcode▁15102
▁Reggi▁15103
▁pedal▁15104
▁extrem▁15105
▁neurosurgeon▁15106
▁Alam▁15107
▁GSM▁15108
▁jihad▁15109
akti▁15110
▁Mujahid▁15111
▁disengage▁15112
▁Team▁15113
Ladenism▁15114
▁Miz▁15115
▁hump▁15116
bare▁15117
onne▁15118
thema▁15119
buttermil▁15120
HIN▁15121
▁jettison▁15122
▁PS▁15123
▁dune▁15124
▁bottleneck▁15125
▁Ashdown▁15126
▁Blend▁15127
▁000▁15128
▁Seren▁15129
▁stripe▁15130
▁Sin▁15131
▁Vel▁15132
▁Sar▁15133
▁Dewey▁15134
ymposium▁15135
museum▁15136
▁Swap▁15137
▁twitter▁15138
service▁15139
idle▁15140
Ge▁15141
Sharing▁15142
▁Reg▁15143
▁Sinha▁15144
▁Wiese▁15145
operation▁15146
motor▁15147
▁Irr▁15148
▁lollipop▁15149
▁floss▁15150
▁mush▁15151
▁Bandura▁15152
▁Diabetes▁15153
▁Papa▁15154
▁inundat▁15155
▁spoof▁15156
uft▁15157
▁Gowanus▁15158
▁16.▁15159
uffalo▁15160
▁rebound▁15161
▁Resnick▁15162
Dopa▁15163
▁clan▁15164
▁Phillip▁15165
▁hurd▁15166
urdy▁15167
▁Basqu▁15168
▁viel▁15169
▁Money▁15170
▁Manager▁15171
BO▁15172
▁Tests▁15173
▁VC▁15174
▁yadda▁15175
▁Ovation▁15176
▁Adobe▁15177
▁berate▁15178
▁3,6▁15179
Contra▁15180
anz▁15181
▁Pyl▁15182
▁bellwether▁15183
▁Bunker▁15184
▁Labor▁15185
Dollar▁15186
▁Kurt▁15187
▁Anders▁15188
▁JA▁15189
▁Giuliani▁15190
▁Feld▁15191
▁TEDxB▁15192
Acto▁15193
therap▁15194
▁Piet▁15195
▁Fermi▁15196
▁Paradox▁15197
▁Anthr▁15198
▁animat▁15199
rbivore▁15200
▁Trek▁15201
▁Fische▁15202
▁stent▁15203
▁Myo▁15204
▁Implant▁15205
▁Device▁15206
▁Mohammed▁15207
stimulation▁15208
▁RNS▁15209
▁TMS▁15210
turm▁15211
▁Expo▁15212
▁Bike▁15213
wei▁15214
ilhouette▁15215
▁Zir▁15216
▁Peak▁15217
▁Neurologi▁15218
▁10.▁15219
boot▁15220
▁Ost▁15221
▁epidemiolog▁15222
▁Total▁15223
▁Swimming▁15224
▁Tradition▁15225
▁Kino▁15226
▁Tablet▁15227
▁Ideal▁15228
▁Stirling▁15229
▁Lotus▁15230
▁1-2▁15231
▁payback▁15232
▁revisit▁15233
achter▁15234
▁interrogati▁15235
laine▁15236
▁Kuh▁15237
Gravit▁15238
▁Event▁15239
▁gib▁15240
▁immersion▁15241
▁Chor▁15242
▁Fond▁15243
▁depressiv▁15244
▁thermodynamic▁15245
▁Geh▁15246
▁Satya▁15247
alandar▁15248
▁appall▁15249
▁Pixel▁15250
Moral▁15251
▁aphid▁15252
▁Organism▁15253
49▁15254
▁Klo▁15255
▁Hoover▁15256
▁wrinkle▁15257
▁Instant▁15258
▁Safeway▁15259
▁Illustrator▁15260
▁simultan▁15261
▁PalmPilot▁15262
▁7.5▁15263
platte▁15264
▁Invasion▁15265
▁Larami▁15266
Dynast▁15267
House▁15268
quake▁15269
▁Neu▁15270
uh▁15271
▁Pinatubo▁15272
eira▁15273
tzen▁15274
onie▁15275
▁supernormal▁15276
bergen▁15277
stimul▁15278
▁Regina▁15279
▁Kuiper▁15280
▁cardiologist▁15281
PA▁15282
▁Voodoo▁15283
▁Um▁15284
▁Majest▁15285
heikh▁15286
▁Bau▁15287
oruba▁15288
▁Kongo▁15289
▁Ethiopi▁15290
ü▁15291
ende▁15292
ā▁15293
ollie▁15294
▁skate▁15295
▁Kost▁15296
gier▁15297
▁Ruf▁15298
▁Gris▁15299
▁Alisa▁15300
▁Volk▁15301
▁Babble▁15302
▁Nerv▁15303
listen▁15304
▁proverbial▁15305
▁Smoot▁15306
▁epoch▁15307
COB▁15308
▁Cosmi▁15309
hwaite▁15310
▁Toaster▁15311
iker▁15312
llows▁15313
▁snail▁15314
▁Recycling▁15315
haft▁15316
▁Feder▁15317
▁herein▁15318
▁shuffl▁15319
For▁15320
_▁15321
▁SAN▁15322
▁Hilton▁15323
▁Gamma▁15324
voice▁15325
ophile▁15326
▁Hacking▁15327
▁Manag▁15328
▁Remote▁15329
▁Kahl▁15330
▁Resolut▁15331
▁Freelan▁15332
▁plutocra▁15333
Percent▁15334
▁Tumbl▁15335
▁Bernard▁15336
tenberg▁15337
▁meritocra▁15338
▁Deal▁15339
▁Dietrich▁15340
pilot▁15341
▁Pilot▁15342
tik▁15343
ymnosoph▁15344
▁Arg▁15345
▁Minotaur▁15346
É▁15347
▁Bharat▁15348
harata▁15349
atya▁15350
▁KPI▁15351
▁immunize▁15352
▁hinge▁15353
▁Git▁15354
Hub▁15355
▁Ente▁15356
▁Ruby▁15357
▁Wikileak▁15358
▁Parag▁15359
▁Heil▁15360
ailway▁15361
▁Medina▁15362
▁Turkmenistan▁15363
▁Mental▁15364
▁Idiot▁15365
▁Patriot▁15366
trug▁15367
▁Adolf▁15368
▁Kampf▁15369
▁Redwood▁15370
▁Sequoia▁15371
▁Gedanken▁15372
▁fern▁15373
reiter▁15374
vatar▁15375
▁Hemlock▁15376
▁RP▁15377
▁Depp▁15378
▁11.▁15379
▁photojournalist▁15380
School▁15381
▁Kasparo▁15382
▁adversari▁15383
▁Foldi▁15384
▁relational▁15385
▁Terrorist▁15386
ete▁15387
▁Lev▁15388
batsch▁15389
▁Mord▁15390
Baptiste▁15391
▁Ola▁15392
▁reconfigur▁15393
▁Hyde▁15394
ij▁15395
situ▁15396
minister▁15397
olo▁15398
2-▁15399
wink▁15400
▁shipyard▁15401
▁Victor▁15402
mord▁15403
▁Wert▁15404
▁Barrier▁15405
▁Figur▁15406
Art▁15407
Ark▁15408
▁Chapel▁15409
▁Glasgow▁15410
nerv▁15411
▁Smol▁15412
▁Aristotel▁15413
▁Locke▁15414
▁Neo▁15415
etera▁15416
▁Merz▁15417
pattern▁15418
▁Syndrom▁15419
ische▁15420
▁EKG▁15421
▁Cedars▁15422
xte▁15423
▁ARES▁15424
▁Mais▁15425
▁Binde▁15426
▁Protokoll▁15427
▁Lux▁15428
▁Sultan▁15429
▁Small▁15430
▁Bag▁15431
▁Mitra▁15432
▁Belo▁15433
▁Horizont▁15434
▁Zone▁15435
▁eff▁15436
▁bilateral▁15437
Kodak▁15438
▁misfortune▁15439
wesome▁15440
▁Breivik▁15441
▁Olso▁15442
▁font▁15443
▁Classic▁15444
▁Institution▁15445
▁Ric▁15446
erin▁15447
▁Lucifer▁15448
ambo▁15449
▁klug▁15450
▁Kwa▁15451
▁Boah▁15452
▁Secret▁15453
▁Eno▁15454
▁Kareem▁15455
▁RD▁15456
▁Kyl▁15457
▁gracious▁15458
▁hitchhik▁15459
▁Oper▁15460
[...]
