<pad>▁0
<unk>▁1
<s>▁2
</s>▁3
▁David▁4
▁Gallo▁5
▁über▁6
▁das▁7
▁Leben▁8
▁in▁9
▁der▁10
▁Tiefe▁11
▁des▁12
▁Meeres▁13
▁TED▁14
▁Talk▁15
▁Subti▁16
tles▁17
▁and▁18
▁T▁19
ranscript▁20
▁:▁21
▁mit▁22
▁Hilfe▁23
▁von▁24
▁lebendig▁25
en▁26
▁Videos▁27
▁,▁28
▁die▁29
▁Unter▁30
see▁31
boot▁32
▁gemacht▁33
▁wurden▁34
▁führt▁35
▁uns▁36
▁zu▁37
▁den▁38
▁dunkelste▁39
n▁40
▁gefährlichste▁41
▁giftig▁42
sten▁43
▁und▁44
▁schönste▁45
▁Lebensräume▁46
▁Erde▁47
▁Täler▁48
▁vulkanische▁49
▁Höhen▁50
züge▁51
▁Ozeane▁52
▁wo▁53
▁bizarr▁54
▁ist▁55
▁▁56
widerstandsfähig▁57
▁erschreckend▁58
▁vielfältig▁59
▁.▁60
▁Bill▁61
▁Lange▁62
▁ich▁63
▁bin▁64
▁Dave▁65
▁wir▁66
▁werden▁67
▁Ihnen▁68
▁einige▁69
▁Geschichten▁70
▁Meer▁71
▁Video▁72
form▁73
▁erzählen▁74
▁haben▁75
▁ein▁76
▁paar▁77
▁unglaublichste▁78
▁Aufnahmen▁79
▁Titanic▁80
▁man▁81
▁je▁82
▁gesehen▁83
▁hat▁84
▁nichts▁85
▁davon▁86
▁zeigen▁87
▁Wahrheit▁88
▁dass▁89
▁-▁90
▁ob▁91
wohl▁92
▁sie▁93
▁alle▁94
▁Kino▁95
k▁96
assen▁97
rekorde▁98
bricht▁99
▁nicht▁100
▁gerade▁101
▁aufregendste▁102
▁Geschichte▁103
▁vom▁104
▁denke▁105
▁Problem▁106
▁für▁107
▁selbst▁108
verständlich▁109
▁halten▁110
▁wenn▁111
▁darüber▁112
▁nachdenk▁113
t▁114
▁machen▁115
▁75▁116
%▁117
▁Planeten▁118
▁aus▁119
▁Großteil▁120
▁Meerwasser▁121
durchschnittlich▁122
e▁123
▁etwa▁124
▁3▁125
▁Kilometer▁126
▁Teil▁127
s▁128
▁am▁129
▁Strand▁130
▁stehen▁131
▁oder▁132
▁Bilder▁133
▁wie▁134
▁diese▁135
▁hier▁136
▁sehen▁137
▁auf▁138
▁riesige▁139
▁blaue▁140
▁Weite▁141
▁schauen▁142
▁sch▁143
immer▁144
▁bewegt▁145
▁sich▁146
▁es▁147
▁gibt▁148
▁Wellen▁149
▁Brand▁150
ung▁151
▁Gezeiten▁152
▁aber▁153
▁keine▁154
▁Ahnung▁155
▁was▁156
▁darin▁157
▁verborgen▁158
▁Ozean▁159
▁befinde▁160
▁längste▁161
▁Gebirgs▁162
▁meisten▁163
▁Tiere▁164
▁leben▁165
▁Erdbeben▁166
▁Vulkan▁167
ausbrüche▁168
▁spielt▁169
▁im▁170
▁ab▁171
▁Meeresboden▁172
▁an▁173
▁einigen▁174
▁Stellen▁175
▁Vielfa▁176
lt▁177
▁Dichte▁178
▁Lebens▁179
▁höher▁180
▁als▁181
▁Regenwälder▁182
▁meiste▁183
▁unerforscht▁184
▁doch▁185
▁Schönheit▁186
▁fesseln▁187
▁vertraut▁188
er▁189
▁ihm▁190
▁Sie▁191
▁möchte▁192
▁vorstellen▁193
▁Grenze▁194
▁einer▁195
▁unbekannte▁196
▁Welt▁197
▁müssen▁198
▁schon▁199
▁sehr▁200
▁spezielle▁201
▁Technik▁202
▁bediene▁203
▁um▁204
▁vorzu▁205
dringen▁206
▁benutzen▁207
▁Al▁208
vin▁209
▁Kameras▁210
▁Sony▁211
▁entwickelt▁212
▁Marcel▁213
▁Pro▁214
us▁215
▁einmal▁216
▁gesagt▁217
▁&▁218
quot▁219
;▁220
▁wahre▁221
▁Entdeckung▁222
reise▁223
▁besteht▁224
▁neue▁225
▁Länder▁226
▁sucht▁227
▁sondern▁228
▁Augen▁229
▁Menschen▁230
▁zusammen▁231
gearbeitet▁232
▁gab▁233
▁nur▁234
▁existiert▁235
▁neuen▁236
▁dem▁237
▁auch▁238
m▁239
▁nachzudenken▁240
▁We▁241
icht▁242
ier▁243
▁meiner▁244
▁Liebling▁245
▁weil▁246
▁möglich▁247
▁Funktion▁248
teile▁249
▁Wesen▁250
▁erwiesen▁251
▁wird▁252
▁bis▁253
▁50▁254
▁Meter▁255
▁lang▁256
▁all▁257
▁unterschiedlich▁258
▁Teile▁259
▁?▁260
▁so▁261
▁mag▁262
▁Fisch▁263
ö▁264
der▁265
seite▁266
▁bewegen▁267
▁Tentakel▁268
▁herum▁269
schw▁270
ir▁271
re▁272
▁eine▁273
▁Kolonie▁274
▁Tieren▁275
▁sind▁276
▁alles▁277
▁einzelne▁278
▁Lebewesen▁279
▁einen▁280
▁Organism▁281
▁zusammenschließ▁282
▁vorne▁283
▁Antrieb▁284
d▁285
ü▁286
▁gleich▁287
▁benutzt▁288
▁kleine▁289
▁Licht▁290
▁großen▁291
▁Fische▁292
schule▁293
nimmt▁294
▁Seite▁295
▁Waage▁296
▁legt▁297
ich▁298
tiere▁299
▁andere▁300
▁gewinnen▁301
▁ha▁302
ush▁303
och▁304
▁Biomasse▁305
▁Geschöpfe▁306
X▁307
-▁308
W▁309
ing▁310
T▁311
ode▁312
▁Biolumineszenz▁313
▁Geschlechts▁314
partner▁315
▁anzu▁316
locken▁317
▁Beute▁318
▁k▁319
▁zur▁320
▁Ver▁321
ständig▁322
▁hätten▁323
▁nie▁324
mals▁325
▁Zeit▁326
▁unser▁327
▁Archiv▁328
material▁329
ieren▁330
▁Größen▁331
▁Formen▁332
▁vergessen▁333
▁leicht▁334
▁mehrere▁335
▁tief▁336
▁wirklich▁337
▁kennen▁338
▁obere▁339
▁hundert▁340
▁Metern▁341
▁zwischen▁342
▁dort▁343
▁lebt▁344
▁Tierart▁345
▁einem▁346
▁dreidimensional▁347
▁Raum▁348
▁Mikro▁349
g▁350
r▁351
avi▁352
ation▁353
sraum▁354
▁überhaupt▁355
▁noch▁356
▁erforscht▁357
▁hört▁358
▁Riesen▁359
al▁360
mar▁361
▁dieser▁362
▁weiß▁363
▁wenig▁364
DG▁365
▁ihn▁366
▁unserer▁367
▁denn▁368
▁kleiner▁369
▁Oktopus▁370
▁kann▁371
▁tatsächlich▁372
▁durch▁373
▁Kopf▁374
▁guck▁375
▁wackelt▁376
▁er▁377
▁Ohren▁378
steigt▁379
▁anmutig▁380
▁nach▁381
▁oben▁382
▁finden▁383
▁Tiefen▁384
▁sogar▁385
▁tiefste▁386
▁Zentimeter▁387
▁hin▁388
▁kommen▁389
▁U▁390
Boot▁391
▁heran▁392
▁Fenster▁393
▁eigene▁394
▁zwei▁395
▁Fall▁396
mitte▁397
▁unten▁398
▁solche▁399
▁Kreatur▁400
▁Art▁401
▁Unterwasser▁402
H▁403
ahn▁404
▁irgendwie▁405
▁unglaublich▁406
▁för▁407
mlich▁408
▁aussieh▁409
▁Gesicht▁410
!▁411
▁Grunde▁412
▁wissen▁413
schaftliche▁414
▁Daten▁415
▁Forschungs▁416
zweck▁417
▁macht▁418
▁Wissenschaftler▁419
▁ersten▁420
▁diesen▁421
▁versorgen▁422
▁ihrer▁423
▁natürlich▁424
▁Umgebung▁425
fangen▁426
▁Netz▁427
▁da▁428
▁nehmen▁429
▁Joystick▁430
▁sitzen▁431
▁vor▁432
▁unsere▁433
▁Computer▁434
▁Land▁435
▁drücken▁436
▁fliegen▁437
▁mittel▁438
o▁439
ze▁440
anischen▁441
▁Rücken▁442
▁ansehe▁443
▁64▁444
.000▁445
zug▁446
▁Gipfel▁447
▁2,5▁448
▁jetzt▁449
▁Atlantik▁450
▁Karibik▁451
▁Mittel▁452
amerika▁453
▁überqueren▁454
▁Pazifik▁455
▁ankommen▁456
▁neun▁457
▁Grad▁458
▁nördlich▁459
▁Breite▁460
erstellen▁461
▁Karten▁462
▁Schall▁463
▁So▁464
ar▁465
▁bieg▁466
▁Klippe▁467
▁rechts▁468
▁Höhe▁469
▁Berge▁470
▁beide▁471
▁Seiten▁472
▁Tal▁473
▁größer▁474
▁Alp▁475
▁Fälle▁476
▁zehntausende▁477
▁Bergen▁478
▁d▁479
raußen▁480
▁keiner▁481
▁Karte▁482
▁verzeichnet▁483
▁tauchen▁484
▁immer▁485
▁tiefer▁486
schließlich▁487
▁Bild▁488
▁unseres▁489
▁Roboter▁490
▁heiß▁491
▁Ja▁492
son▁493
▁Headset▁494
▁ohne▁495
ver▁496
z▁497
ger▁498
fahren▁499
▁lassen▁500
▁unter▁501
▁versuchen▁502
▁unseren▁503
▁Partner▁504
▁bei▁505
▁Wood▁506
▁Hole▁507
▁virtuelle▁508
▁Gebiet▁509
▁Labor▁510
▁holen▁511
▁bisher▁512
stück▁513
weise▁514
ntweder▁515
▁Geräusch▁516
▁war▁517
▁Fotos▁518
▁chemische▁519
▁Sensoren▁520
▁interessant▁521
▁zusammengesetzt▁522
▁br▁523
ill▁524
▁richtig▁525
▁nenn▁526
▁hydrothermal▁527
Q▁528
uelle▁529
ht▁530
▁Wolke▁531
▁dicht▁532
em▁533
▁hydrogen▁534
ul▁535
fi▁536
reiche▁537
▁Wasser▁538
▁Längs▁539
achse▁540
▁tritt▁541
▁300▁542
▁Cel▁543
ius▁544
▁also▁545
▁drei▁546
▁vier▁547
▁wussten▁548
▁bereits▁549
▁60▁550
ern▁551
▁70▁552
▁v▁553
kan▁554
isch▁555
▁damit▁556
▁hatten▁557
▁Hinweis▁558
uellen▁559
▁entlang▁560
▁Achse▁561
ismus▁562
▁dring▁563
▁Spalte▁564
▁triff▁565
▁Mag▁566
ma▁567
den▁568
▁wieder▁569
▁bewusst▁570
▁reich▁571
▁H▁572
y▁573
ogen▁574
▁Dinger▁575
▁Schornsteine▁576
▁nennen▁577
▁heiße▁578
▁liegen▁579
▁Gegend▁580
▁dramatisch▁581
▁BL▁582
▁Weiße▁583
▁Bakterien▁584
art▁585
▁180▁586
▁gedeih▁587
▁finde▁588
▁größten▁589
▁Meeresgrund▁590
▁entdecken▁591
▁Erste▁592
aus▁593
bruch▁594
▁lange▁595
▁gefragt▁596
gekommen▁597
▁inzwischen▁598
▁he▁599
rausgefunden▁600
▁wahrscheinlich▁601
▁Erd▁602
inner▁603
▁gekommen▁604
gestoßen▁605
▁Bio▁606
gen▁607
ese▁608
▁unterstützen▁609
▁Kolonien▁610
▁Druck▁611
▁beträgt▁612
▁800▁613
▁kg▁614
▁pro▁615
uadrat▁616
zentimeter▁617
▁5▁618
▁Oberfläche▁619
▁kein▁620
▁Sonnenstrahl▁621
▁hierher▁622
▁vorge▁623
rung▁624
▁ganze▁625
▁Energie▁626
▁antreib▁627
▁kommt▁628
▁Chemo▁629
the▁630
▁Röhren▁631
würmer▁632
▁Würmer▁633
▁Verdauung▁634
ssystem▁635
▁Mund▁636
▁Arten▁637
▁Ki▁638
emen▁639
struktur▁640
▁Auf▁641
nehmen▁642
▁Sauerstoff▁643
▁beherbergt▁644
▁chemo▁645
tischen▁646
▁Flüssigkeit▁647
▁Boden▁648
▁schießen▁649
▁sahen▁650
▁einfache▁651
▁Zucker▁652
▁verwandelt▁653
wurm▁654
▁verdau▁655
▁können▁656
▁Krabbe▁657
▁Stück▁658
▁fassen▁659
▁ge▁660
kriegt▁661
▁normal▁662
erweise▁663
▁ziehen▁664
▁zurück▁665
bald▁666
▁berührt▁667
▁Oh▁668
▁gut▁669
▁Versuch▁670
▁ihre▁671
▁Schale▁672
▁Finger▁673
nägel▁674
▁ganz▁675
▁komplexe▁676
▁erst▁677
▁verstehen▁678
▁beginnen▁679
▁dank▁680
▁Kamera▁681
technologie▁682
▁echte▁683
▁Temperatur▁684
E▁685
x▁686
▁Füße▁687
▁200▁688
▁Köpfe▁689
▁kalt▁690
▁Ihre▁691
▁Hand▁692
▁kochen▁693
▁Fuß▁694
▁Eis▁695
wasser▁696
▁gefällt▁697
▁Weibchen▁698
▁Wurm▁699
▁Männchen▁700
▁dauert▁701
▁drübe▁702
▁kämpfen▁703
▁anfange▁704
▁findet▁705
▁Fin▁706
ternis▁707
▁Tiefsee▁708
▁statt▁709
▁Lichtquelle▁710
▁außer▁711
bringen▁712
▁geht▁713
apos▁714
▁los▁715
▁letzten▁716
▁Tauch▁717
gänge▁718
▁Bereichen▁719
zählt▁720
▁198▁721
▁waren▁722
▁neu▁723
▁Probleme▁724
▁Biologe▁725
▁Lebensraum▁726
▁befasse▁727
▁Sammel▁728
▁lösen▁729
▁Weg▁730
▁wichtig▁731
▁Wissenschaft▁732
▁Kilometern▁733
verhältnisse▁734
▁erstaunlich▁735
▁existieren▁736
▁groß▁737
▁genug▁738
▁leere▁739
▁Cola▁740
dose▁741
▁zerquetsch▁742
▁größere▁743
▁Garnele▁744
▁armen▁745
▁Klein▁746
▁belästigen▁747
schläg▁748
▁seiner▁749
▁K▁750
la▁751
ue▁752
▁zack▁753
▁gleichzeitig▁754
▁geschieht▁755
▁suchen▁756
▁Nahrung▁757
▁seltsame▁758
▁Bakterium▁759
▁abzu▁760
ernte▁761
▁Krabben▁762
▁gar▁763
▁Fä▁764
▁bestehen▁765
▁Stoff▁766
▁produziert▁767
▁sorgen▁768
▁Haar▁769
wuchs▁770
▁Hintergrund▁771
▁rote▁772
▁Punkt▁773
▁Laserstrahl▁774
Boote▁775
▁zeigt▁776
▁weit▁777
▁entfernt▁778
treten▁779
klammer▁780
▁Fels▁781
▁kratzen▁782
▁winzig▁783
▁Säule▁784
▁Säulen▁785
▁Stockwerke▁786
▁hoch▁787
▁fremdartig▁788
▁Landschaft▁789
▁heißen▁790
▁merkwürdig▁791
▁bewohnt▁792
▁brauchen▁793
▁Sonne▁794
förmige▁795
▁Stelle▁796
lichtempfindlich▁797
es▁798
▁Organ▁799
▁geben▁800
▁Wärme▁801
strahlung▁802
▁Infrarot▁803
S▁804
ig▁805
atur▁806
▁recht▁807
▁große▁808
▁Entfernung▁809
▁13▁810
band▁811
heute▁812
▁Augenblick▁813
▁entsteh▁814
▁Aktivität▁815
▁erste▁816
▁Mal▁817
▁irgendwo▁818
▁ausprobiert▁819
▁HD▁820
▁steigen▁821
▁ihr▁822
▁Innere▁823
▁viele▁824
▁verschiedene▁825
▁bildet▁826
▁lustige▁827
▁Platte▁828
strömt▁829
▁Behausung▁830
▁näher▁831
▁Gemeinschaft▁832
▁dran▁833
▁kleinere▁834
▁kri▁835
chen▁836
▁Pa▁837
go▁838
▁toll▁839
krieg▁840
▁mich▁841
▁voll▁842
qua▁843
lm▁844
▁übrigen▁845
▁Zeug▁846
gift▁847
▁würde▁848
▁Erlaub▁849
nis▁850
▁bekommen▁851
▁ver▁852
klappen▁853
▁Schwefel▁854
säure▁855
▁Mengen▁856
▁freigesetzt▁857
▁gedeihen▁858
▁eben▁859
falls▁860
▁vermutlich▁861
▁gesprochen▁862
▁einfachste▁863
▁bekannte▁864
▁Lebensform▁865
▁Reihe▁866
▁These▁867
▁vertreten▁868
▁entstanden▁869
▁sei▁870
▁vielleicht▁871
▁zehn▁872
▁Jahre▁873
Ö▁874
kosystem▁875
▁seit▁876
▁Millionen▁877
▁Milliarden▁878
▁Jahren▁879
▁stabil▁880
▁funktioniert▁881
▁drin▁882
sitzt▁883
▁Schere▁884
▁genau▁885
▁Ende▁886
▁dar▁887
auf▁888
▁wartet▁889
▁sein▁890
▁heraus▁891
st▁892
ck▁893
▁erklären▁894
um▁895
▁aktiv▁896
▁wachsen▁897
▁Woche▁898
▁sagte▁899
▁menschlicher▁900
▁Sicht▁901
▁to▁902
▁Hölle▁903
▁obendr▁904
ein▁905
▁stellt▁906
▁Lebensader▁907
▁Ent▁908
wässer▁909
▁ungefähr▁910
▁jedes▁911
▁Jahr▁912
system▁913
▁Betrieb▁914
▁muss▁915
ziehen▁916
▁dann▁917
▁fünf▁918
▁völlig▁919
▁zerstören▁920
▁nichtsdesto▁921
trotz▁922
▁Regenwald▁923
▁einfach▁924
▁auftaucht▁925
▁empfindlich▁926
▁ja▁927
▁zerbrechlich▁928
▁nein▁929
▁sonderlich▁930
▁zum▁931
▁Schluss▁932
▁sagen▁933
▁Sediment▁934
▁Felsen▁935
▁unglaubliche▁936
▁Vergangenheit▁937
▁Aufzeichnung▁938
geschichte▁939
▁Zykl▁940
▁Rhythm▁941
▁Kontinente▁942
▁entfern▁943
▁voneinander▁944
▁rück▁945
▁gehen▁946
Gebirge▁947
▁Gletscher▁948
▁El▁949
▁Ni▁950
ñ▁951
▁Desaster▁952
▁Rhythmus▁953
▁fast▁954
▁Sin▁955
f▁956
onie▁957
▁Musik▁958
▁darau▁959
▁lernen▁960
▁zuhören▁961
▁halt▁962
▁wollen▁963
▁Note▁964
▁morgen▁965
▁gleiche▁966
▁absurd▁967
▁herauszufinden▁968
▁wohin▁969
▁Planet▁970
▁treib▁971
▁darauf▁972
zustellen▁973
▁umzu▁974
gehen▁975
▁Konzept▁976
▁Bestand▁977
be▁978
w▁979
ahr▁980
los▁981
▁Naturschutz▁982
▁schwieriger▁983
▁schaffen▁984
▁Dank▁985
▁danke▁986
▁Steve▁987
▁Keil▁988
▁Manifest▁989
▁Spielen▁990
▁Bulgari▁991
▁hinaus▁992
▁TEDxB▁993
G▁994
a▁995
▁kämpft▁996
▁seriöse▁997
▁Meme▁998
▁Z▁999
uhause▁1000
▁infiziert▁1001
▁--▁1002
ruft▁1003
▁Wirtschaft▁1004
▁Ausbildung▁1005
▁Gesellschaft▁1006
▁wiederzu▁1007
leben▁1008
▁packen▁1009
▁Vortrag▁1010
▁universal▁1011
▁Meldung▁1012
▁Arbeitsplätze▁1013
▁Schulen▁1014
▁erfinden▁1015
▁Revolution▁1016
▁starten▁1017
▁bevor▁1018
▁Ihr▁1019
▁Gewehr▁1020
▁just▁1021
▁singen▁1022
▁Lieblings▁1023
farbe▁1024
▁auswähle▁1025
▁will▁1026
▁definieren▁1027
▁Meinung▁1028
▁radikaler▁1029
greifen▁1030
▁Wandel▁1031
▁Denken▁1032
▁Verhalten▁1033
▁denken▁1034
▁verhalten▁1035
▁Lage▁1036
▁schlecht▁1037
▁traurig▁1038
▁Nase▁1039
▁hab▁1040
▁Potenzial▁1041
▁nutzen▁1042
▁Platz▁1043
▁Beispiel▁1044
▁soziale▁1045
▁Bedingung▁1046
▁Europa▁1047
▁Bereich▁1048
▁Innovation▁1049
▁Tabelle▁1050
▁Kultur▁1051
▁schätzt▁1052
▁Gesundheit▁1053
▁Wohlbefinden▁1054
▁letzte▁1055
▁E▁1056
.▁1057
U▁1058
▁Schlechte▁1059
▁Magazin▁1060
▁Economi▁1061
▁Wochen▁1062
▁berichtet▁1063
▁gelesen▁1064
▁traurigste▁1065
▁Nation▁1066
▁relativ▁1067
▁BIP▁1068
▁per▁1069
▁Einwohner▁1070
▁Sozial▁1071
bereich▁1072
▁welche▁1073
▁anderen▁1074
▁Bericht▁1075
▁OECD▁1076
▁Lesen▁1077
▁Mathe▁1078
▁Unternehmen▁1079
▁niedrigste▁1080
▁Auffassung▁1081
▁Unternehmer▁1082
▁Vorteile▁1083
▁verschaffen▁1084
▁geschehe▁1085
▁Prozent▁1086
satz▁1087
▁Geschäft▁1088
▁Motor▁1089
▁Angestellte▁1090
▁produzieren▁1091
▁Gebühren▁1092
▁kaputt▁1093
▁Folgen▁1094
bezüglich▁1095
▁überraschend▁1096
▁62▁1097
▁B▁1098
gar▁1099
▁optimistisch▁1100
▁Zukunft▁1101
▁schlechte▁1102
▁schwächste▁1103
▁Tatsachen▁1104
▁Märchen▁1105
▁p▁1106
han▁1107
ta▁1108
sie▁1109
▁Verschwörung▁1110
▁gegen▁1111
▁glaube▁1112
▁soll▁1113
▁klar▁1114
▁System▁1115
▁Bessere▁1116
▁verwandeln▁1117
▁Freunde▁1118
▁Familie▁1119
▁geschah▁1120
▁unangenehm▁1121
▁euch▁1122
▁be▁1123
hindern▁1124
▁Lust▁1125
▁habe▁1126
▁falls▁1127
▁jemand▁1128
▁erinnern▁1129
▁Bab▁1130
ies▁1131
▁spielen▁1132
▁Kinder▁1133
▁Erwachsene▁1134
▁schätzen▁1135
▁wert▁1136
▁Bereiche▁1137
▁sozial▁1138
▁45▁1139
▁Kommun▁1140
▁Staat▁1141
▁mehr▁1142
▁acht▁1143
▁Einzelperson▁1144
▁quetsch▁1145
▁versehentlich▁1146
▁Kreativität▁1147
▁individuelle▁1148
▁Selbst▁1149
ausdruck▁1150
dessen▁1151
▁worauf▁1152
▁legen▁1153
▁Wert▁1154
▁bekannt▁1155
▁Weise▁1156
▁Wissen▁1157
▁gebrauche▁1158
generieren▁1159
▁I▁1160
titution▁1161
kon▁1162
text▁1163
▁betroffen▁1164
▁gelehrt▁1165
▁ernst▁1166
▁passiert▁1167
▁Male▁1168
▁beschimpf▁1169
▁geworden▁1170
▁meine▁1171
▁lasse▁1172
▁Gott▁1173
▁bewahre▁1174
▁Schlamm▁1175
▁Pfütze▁1176
▁töten▁1177
▁Großmütter▁1178
▁Großväter▁1179
raten▁1180
▁worden▁1181
▁viel▁1182
▁sollen▁1183
▁erzogen▁1184
▁durchlaufen▁1185
des▁1186
▁Gen▁1187
▁seriös▁1188
▁verursachte▁1189
▁Entsteh▁1190
▁Großmutter▁1191
faktor▁1192
▁Schritt▁1193
▁Frau▁1194
▁sagt▁1195
▁Ich▁1196
▁Baby▁1197
▁kriegen▁1198
▁Woohoo▁1199
▁passier▁1200
▁arbeiten▁1201
▁Kar▁1202
ie▁1203
▁fördern▁1204
▁Kaffee▁1205
▁trink▁1206
▁mein▁1207
▁daran▁1208
▁Virus▁1209
▁weiter▁1210
▁verloren▁1211
▁Sequoia▁1212
▁veraltet▁1213
▁100▁1214
▁verändert▁1215
▁A▁1216
uswendig▁1217
ler▁1218
▁Standard▁1219
isierung▁1220
wertet▁1221
forschung▁1222
▁Befragung▁1223
▁suchte▁1224
▁Schule▁1225
▁Kind▁1226
▁ging▁1227
▁renommierte▁1228
▁10▁1229
▁lesen▁1230
▁fragte▁1231
▁Na▁1232
▁Schul▁1233
pause▁1234
▁Ha▁1235
▁Moment▁1236
▁Er▁1237
▁alt▁1238
▁Verbrechen▁1239
▁hir▁1240
lose▁1241
Robot▁1242
▁robot▁1243
isierte▁1244
▁Arbeitskraft▁1245
olzen▁1246
gebohrt▁1247
▁Löcher▁1248
▁drehen▁1249
▁verzeih▁1250
▁mir▁1251
▁industrielle▁1252
▁Anpassung▁1253
sfähigkeit▁1254
▁Fähigkeit▁1255
▁kreativ▁1256
▁innovativ▁1257
▁me▁1258
chan▁1259
▁menschliche▁1260
▁Arbeits▁1261
ä▁1262
ft▁1263
▁Aktiv▁1264
▁behandeln▁1265
▁stem▁1266
▁wegwerfe▁1267
schreibt▁1268
▁Arbeit▁1269
▁auto▁1270
rat▁1271
▁Mach▁1272
▁sage▁1273
▁Boss▁1274
▁weiss▁1275
▁besser▁1276
▁dich▁1277
▁misstrauisch▁1278
▁Du▁1279
▁bist▁1280
▁offensichtlich▁1281
▁Kriminelle▁1282
▁installiere▁1283
Ü▁1284
berwachungs▁1285
kamera▁1286
sicht▁1287
igen▁1288
▁Idiot▁1289
▁mache▁1290
▁Prozess▁1291
▁du▁1292
▁folgen▁1293
▁musst▁1294
scher▁1295
▁einschränken▁1296
▁benutze▁1297
▁dein▁1298
▁Handy▁1299
▁Laptop▁1300
▁surf▁1301
▁Internet▁1302
M▁1303
▁un▁1304
professionell▁1305
▁Tages▁1306
▁Erfüll▁1307
▁eingeschränkt▁1308
▁bewertet▁1309
▁Spaß▁1310
rum▁1311
▁Das▁1312
▁Unsinn▁1313
▁dumme▁1314
▁Idee▁1315
▁weg▁1316
▁Dummheit▁1317
▁se▁1318
rö▁1319
▁werde▁1320
▁beweis▁1321
▁folgenden▁1322
▁Vortrags▁1323
▁Katalysator▁1324
▁transformieren▁1325
▁Gehirne▁1326
▁programmiert▁1327
▁Evolution▁1328
▁ausgewählt▁1329
▁million▁1330
▁billion▁1331
▁Ab▁1332
wahl▁1333
▁Eigenschaft▁1334
▁vorteilhaft▁1335
▁Wahl▁1336
▁leistungsfähig▁1337
▁Natur▁1338
▁dumm▁1339
▁überall▁1340
▁Tier▁1341
welt▁1342
▁Ameisen▁1343
▁Regel▁1344
▁Dynamik▁1345
▁Dinge▁1346
▁Ratten▁1347
▁gespielt▁1348
▁grösser▁1349
▁Aufgaben▁1350
▁Kätzchen▁1351
▁schwach▁1352
▁jagen▁1353
▁Bären▁1354
▁länger▁1355
▁fischen▁1356
▁gelernt▁1357
▁Untersuchung▁1358
▁veröffentlicht▁1359
▁wurde▁1360
▁Zusammenhang▁1361
▁Grösse▁1362
▁Gehirns▁1363
desto▁1364
▁Gehirn▁1365
▁Delphine▁1366
▁grosse▁1367
▁wer▁1368
▁glauben▁1369
▁grösste▁1370
▁Spieler▁1371
▁grössten▁1372
▁aller▁1373
▁Nationalität▁1374
▁Rassen▁1375
▁Farben▁1376
▁Religion▁1377
▁Ding▁1378
▁Begriff▁1379
▁Neo▁1380
ten▁1381
▁Bei▁1382
haltung▁1383
▁jugendliche▁1384
▁Merkmale▁1385
▁Erwachsenen▁1386
▁Sport▁1387
▁Olymp▁1388
▁professionelle▁1389
▁Sportler▁1390
instrument▁1391
▁tanzen▁1392
▁küssen▁1393
▁bumm▁1394
eln▁1395
▁geboren▁1396
▁hohe▁1397
▁Alter▁1398
▁ständig▁1399
▁aufhör▁1400
▁Vorteil▁1401
▁genauso▁1402
▁Nerven▁1403
wachstum▁1404
▁Amy▁1405
gdal▁1406
▁stimuliert▁1407
▁Emotionen▁1408
▁kontrolliert▁1409
▁präfrontale▁1410
▁C▁1411
ortex▁1412
▁Entwicklung▁1413
▁fördert▁1414
▁Kognition▁1415
▁Ergebnis▁1416
▁entwickeln▁1417
▁emotionale▁1418
▁Reife▁1419
▁bessere▁1420
▁Entscheidung▁1421
▁Fiktion▁1422
▁Phantasie▁1423
▁;▁1424
empfindlich▁1425
▁scharfe▁1426
▁genetische▁1427
▁Geburts▁1428
recht▁1429
▁gehört▁1430
▁Laufen▁1431
▁Sprechen▁1432
▁Sehen▁1433
▁Aufgabe▁1434
▁Sekunde▁1435
▁schließen▁1436
▁stellen▁1437
▁Theater▁1438
▁Kunst▁1439
▁Lieder▁1440
▁Tanz▁1441
▁Fußball▁1442
▁Football▁1443
▁Lachen▁1444
▁aussehen▁1445
▁trostlos▁1446
▁bed▁1447
rückt▁1448
▁Arbeitsplatz▁1449
▁lustig▁1450
▁spielerisch▁1451
▁vorwärts▁1452
▁G▁1453
egenteil▁1454
▁fühlen▁1455
▁schuldig▁1456
▁Kollegen▁1457
▁lachen▁1458
▁tun▁1459
▁verstecken▁1460
▁könnte▁1461
▁vermute▁1462
▁hart▁1463
▁arbeite▁1464
▁Nachricht▁1465
wärts▁1466
▁Depression▁1467
▁verbessert▁1468
▁verstärkt▁1469
▁Frei▁1470
mut▁1471
Ä▁1472
nderung▁1473
▁Gefühl▁1474
▁Zweck▁1475
▁Meister▁1476
sein▁1477
▁wesentliche▁1478
▁motivieren▁1479
de▁1480
▁Leistung▁1481
stärke▁1482
▁bedeutet▁1483
▁fr▁1484
iv▁1485
ol▁1486
▁Ski▁1487
▁dafür▁1488
▁gern▁1489
▁fühlt▁1490
▁fantastisch▁1491
▁perfekt▁1492
▁Doktor▁1493
▁großartige▁1494
▁Medizin▁1495
▁gültig▁1496
▁feiern▁1497
▁kurze▁1498
▁Firmen▁1499
▁FedEx▁1500
▁Mott▁1501
▁Dienstleistung▁1502
▁Gewinn▁1503
▁deine▁1504
handel▁1505
▁großartig▁1506
▁glücklicher▁1507
▁schlechter▁1508
▁Kunden▁1509
rufen▁1510
▁glücklich▁1511
▁sprechen▁1512
▁Entscheidungen▁1513
▁treffen▁1514
kaufen▁1515
teilen▁1516
▁verschlechtert▁1517
▁Mensch▁1518
▁Vereinigte▁1519
▁Staaten▁1520
▁funktionieren▁1521
▁Chance▁1522
▁verschieden▁1523
▁Gründe▁1524
▁Besondere▁1525
hält▁1526
gesehen▁1527
▁raus▁1528
schmeiße▁1529
▁zweiten▁1530
▁versucht▁1531
▁Firma▁1532
▁Sc▁1533
ian▁1534
▁anfing▁1535
▁zufrieden▁1536
▁Kunde▁1537
▁wollte▁1538
▁weitere▁1539
pf▁1540
ehlen▁1541
▁befragt▁1542
▁minimal▁1543
▁hatte▁1544
▁unzufrieden▁1545
▁Stakeholder▁1546
▁Transparenz▁1547
teuerung▁1548
▁Zusammenarbeit▁1549
▁Au▁1550
okratie▁1551
▁Ergebnisse▁1552
▁fokussiert▁1553
▁egal▁1554
▁wann▁1555
▁morgens▁1556
▁komm▁1557
▁Hause▁1558
▁geh▁1559
gruppe▁1560
▁organisiert▁1561
▁kümmer▁1562
▁Uhr▁1563
▁Förderung▁1564
▁kurz▁1565
▁kling▁1566
▁Veränderung▁1567
▁langsam▁1568
▁jeder▁1569
▁weiterzu▁1570
ehe▁1571
len▁1572
▁Industrie▁1573
▁Wie▁1574
▁gewonnen▁1575
▁Liste▁1576
▁besten▁1577
unternehmen▁1578
arbeit▁1579
geber▁1580
gelistet▁1581
▁unabhängige▁1582
▁Auswertung▁1583
▁anonym▁1584
▁Arbeitnehmer▁1585
▁Umfrage▁1586
▁hält▁1587
Mentalität▁1588
▁manche▁1589
▁Schritte▁1590
erst▁1591
▁Weil▁1592
▁genoss▁1593
▁sechs▁1594
▁Monate▁1595
▁Aufstieg▁1596
▁geschaff▁1597
▁genießen▁1598
▁Mountainbike▁1599
▁Buch▁1600
▁Spiel▁1601
▁Führung▁1602
spersönlichkeit▁1603
an▁1604
führer▁1605
▁Master▁1606
▁Ideen▁1607
▁Dienst▁1608
stelle▁1609
▁Feuer▁1610
revolution▁1611
▁hören▁1612
▁mal▁1613
▁vertrauen▁1614
▁angestellt▁1615
▁dir▁1616
▁ermächtigen▁1617
▁de▁1618
leg▁1619
▁Stufe▁1620
▁höchsten▁1621
▁konstruktive▁1622
▁Kritik▁1623
▁Autorität▁1624
▁herauszu▁1625
fordern▁1626
▁Herausforderung▁1627
▁einzige▁1628
▁Möglichkeit▁1629
▁Trott▁1630
▁loszu▁1631
werden▁1632
▁kreative▁1633
▁Lösung▁1634
▁Führer▁1635
person▁1636
▁Angst▁1637
▁besiegen▁1638
▁Feind▁1639
▁Einschränkung▁1640
▁eliminier▁1641
▁Handys▁1642
▁Privat▁1643
gespräche▁1644
h▁1645
te▁1646
▁Chat▁1647
▁Mittagessen▁1648
▁Urlaub▁1649
laden▁1650
▁Bier▁1651
▁essen▁1652
▁S▁1653
gi▁1654
▁Die▁1655
schen▁1656
▁Freiheit▁1657
▁Wichtigste▁1658
▁Arbeitsstelle▁1659
▁verbringe▁1660
▁traurige▁1661
▁Pla▁1662
cker▁1663
ei▁1664
▁20▁1665
▁aufwache▁1666
▁akzeptab▁1667
el▁1668
▁Ne▁1669
pri▁1670
liv▁1671
▁Zusammenfassung▁1672
▁Aufstand▁1673
▁Spielern▁1674
▁Ernst▁1675
▁Anfang▁1676
▁stattfinden▁1677
▁entfachen▁1678
▁Erfolgs▁1679
geschichten▁1680
▁teilen▁1681
▁wiederbelebt▁1682
▁Versprechen▁1683
wirklich▁1684
▁Produktivität▁1685
▁Sinn▁1686
▁schafft▁1687
▁allein▁1688
▁umwandel▁1689
▁schön▁1690
▁Andrea▁1691
▁Schl▁1692
icher▁1693
hilfe▁1694
rezept▁1695
▁Schulsystem▁1696
▁messen▁1697
nächst▁1698
▁PISA▁1699
Studie▁1700
▁weltweite▁1701
▁Bewertung▁1702
gleich▁1703
▁anschließend▁1704
▁Verbesserung▁1705
tragen▁1706
▁erfahren▁1707
▁Deutschland▁1708
▁abschneide▁1709
▁Faktor▁1710
▁erfolgreiche▁1711
▁ausmacht▁1712
bildung▁1713
▁kompromisslos▁1714
▁Offenhe▁1715
it▁1716
▁schwer▁1717
▁Lernen▁1718
▁Ort▁1719
▁erkennen▁1720
▁reden▁1721
▁Studie▁1722
val▁1723
u▁1724
ierung▁1725
▁nationale▁1726
▁Angelegenheit▁1727
▁Situation▁1728
▁Bezug▁1729
▁Anteil▁1730
▁Bevölkerung▁1731
▁Abitur▁1732
▁USA▁1733
▁erster▁1734
▁ökonomische▁1735
▁traditionelle▁1736
▁Vorreiter▁1737
▁verknüpft▁1738
▁holte▁1739
▁80▁1740
schritt▁1741
▁globale▁1742
▁Auswei▁1743
tung▁1744
▁Talent▁1745
P▁1746
▁for▁1747
▁endete▁1748
▁90▁1749
▁13.▁1750
▁sinkende▁1751
▁Niveau▁1752
▁anders▁1753
wo▁1754
▁schneller▁1755
▁angestiegen▁1756
hand▁1757
▁Korea▁1758
▁deutlich▁1759
▁Generationen▁1760
▁Lebensstandard▁1761
▁heutigen▁1762
▁Afghanistan▁1763
▁schnitt▁1764
▁Schlechtes▁1765
▁junge▁1766
▁global▁1767
▁Fortschritt▁1768
▁Maßstab▁1769
▁leistungs▁1770
är▁1771
▁Bildungssystem▁1772
▁international▁1773
▁Ebene▁1774
▁Angabe▁1775
▁Dauer▁1776
zeit▁1777
▁Abschluss▁1778
▁darleg▁1779
▁leisten▁1780
▁jede▁1781
▁Menge▁1782
▁arbeitslos▁1783
▁Studien▁1784
ab▁1785
gänger▁1786
▁Straßen▁1787
lagen▁1788
▁Arbeitgeber▁1789
▁Fach▁1790
kräfte▁1791
mangel▁1792
▁besagt▁1793
▁automatisch▁1794
▁einhergeh▁1795
▁nun▁1796
▁ändern▁1797
dem▁1798
▁jungen▁1799
▁Leute▁1800
▁direkt▁1801
▁Blickwinkel▁1802
▁Interesse▁1803
▁galt▁1804
▁Wieder▁1805
geben▁1806
▁Erlern▁1807
▁Schüler▁1808
tra▁1809
▁anwende▁1810
▁dabei▁1811
▁einiger▁1812
▁gegenüber▁1813
ämlich▁1814
messung▁1815
▁unfair▁1816
▁Logik▁1817
▁Prüfung▁1818
stoff▁1819
▁bereit▁1820
▁Veränderungen▁1821
▁Jobs▁1822
▁Technologien▁1823
▁verwenden▁1824
▁erfunden▁1825
▁a▁1826
hnen▁1827
▁einst▁1828
▁umstritten▁1829
▁Verfahren▁1830
▁rasch▁1831
▁2009▁1832
▁erfasst▁1833
▁74▁1834
▁87▁1835
▁ausmachen▁1836
▁Ländern▁1837
▁rot▁1838
D▁1839
ur▁1840
ch▁1841
schnitt▁1842
▁gelb▁1843
mäßig▁1844
▁grün▁1845
▁stärkste▁1846
▁Shanghai▁1847
▁Singapur▁1848
▁Asien▁1849
▁Finnland▁1850
▁Kanada▁1851
▁Nordamerika▁1852
▁15-▁1853
jährige▁1854
Jährige▁1855
▁Chile▁1856
▁3,5▁1857
▁Schuljahr▁1858
▁Lücke▁1859
wächst▁1860
▁7▁1861
schließen▁1862
▁heutige▁1863
▁vorbereitet▁1864
▁Kontext▁1865
▁zweite▁1866
▁wichtige▁1867
▁Dimension▁1868
führen▁1869
▁Pädagoge▁1870
gerne▁1871
▁Gleichheit▁1872
erfassen▁1873
▁sorgt▁1874
▁Umfeld▁1875
▁Chancen▁1876
▁Realität▁1877
▁Einfluss▁1878
▁Lern▁1879
leistung▁1880
▁stark▁1881
▁ungleich▁1882
▁verteilt▁1883
▁Potential▁1884
▁Kindern▁1885
▁verschwendet▁1886
▁weniger▁1887
uadrant▁1888
chance▁1889
▁niemand▁1890
▁Dis▁1891
par▁1892
ität▁1893
▁herrschen▁1894
▁steht▁1895
▁Debatte▁1896
▁Kauf▁1897
▁akzeptieren▁1898
mäßigkeit▁1899
▁diesbezüglich▁1900
▁betrachten▁1901
▁hervorragende▁1902
▁verbinden▁1903
▁Tat▁1904
▁wichtigste▁1905
▁Lektion▁1906
▁Vergleich▁1907
gun▁1908
▁hervorragend▁1909
opfer▁1910
▁wenige▁1911
▁fordert▁1912
▁vieler▁1913
▁hauptsächlich▁1914
▁aussortier▁1915
Veröffentlichung▁1916
sträger▁1917
▁Forscher▁1918
▁weltweit▁1919
▁hinter▁1920
▁Erfolg▁1921
▁Systeme▁1922
▁steckt▁1923
▁konzentriere▁1924
▁bunte▁1925
▁Kreis▁1926
▁markiert▁1927
▁Größe▁1928
▁Kreise▁1929
▁proportional▁1930
▁Ausgaben▁1931
▁jeweilige▁1932
▁wäre▁1933
▁Geld▁1934
▁entscheidend▁1935
ualität▁1936
ergebnisse▁1937
▁müsste▁1938
schwankung▁1939
▁verantwortlich▁1940
▁Luxemb▁1941
urg▁1942
▁teuerste▁1943
▁schneide▁1944
▁besonder▁1945
▁ähnlich▁1946
▁erziel▁1947
▁aufgeteilt▁1948
▁reiche▁1949
▁Bildungsniveau▁1950
▁arme▁1951
▁niedrige▁1952
▁enorm▁1953
▁wichtiges▁1954
▁Detail▁1955
▁prozentual▁1956
▁Landes▁1957
▁Lehrer▁1958
ge▁1959
▁ausgegeben▁1960
▁investiert▁1961
laufbahn▁1962
▁attraktiv▁1963
tag▁1964
▁lässt▁1965
▁Kosten▁1966
▁unterrichten▁1967
bild▁1968
▁berufliche▁1969
▁W▁1970
eiterentwicklung▁1971
▁kostet▁1972
▁Klassen▁1973
▁senkt▁1974
▁sichtbar▁1975
▁Balk▁1976
▁beim▁1977
▁nächsten▁1978
▁derselbe▁1979
▁Eltern▁1980
läd▁1981
▁angenehm▁1982
▁Klasse▁1983
▁verwendet▁1984
größe▁1985
▁Preis▁1986
▁bezahlt▁1987
▁stundenlang▁1988
durch▁1989
für▁1990
weitaus▁1991
▁Bildung▁1992
▁2000▁1993
▁Erfindung▁1994
▁iPod▁1995
b▁1996
isse▁1997
▁damals▁1998
▁wahr▁1999
▁35▁2000
▁teurer▁2001
▁bitte▁2002
▁massive▁2003
▁Heimatland▁2004
▁befand▁2005
▁unteren▁2006
▁Ungleichheit▁2007
▁Bewohner▁2008
▁Universität▁2009
abschluss▁2010
▁zählen▁2011
▁enttäuschen▁2012
▁mochte▁2013
▁öffentliche▁2014
▁monatelang▁2015
▁Thema▁2016
▁geprägt▁2017
▁Steuer▁2018
▁stand▁2019
▁Fokus▁2020
▁Diskussion▁2021
▁reagiert▁2022
▁Bundesregierung▁2023
▁erhöhte▁2024
▁Bildungs▁2025
ausgabe▁2026
▁drastisch▁2027
▁unternommen▁2028
▁Migration▁2029
hintergrund▁2030
▁Familien▁2031
▁Interessante▁2032
▁Optimierung▁2033
▁bestehende▁2034
▁Politik▁2035
▁grundlegende▁2036
▁Annahme▁2037
berzeugung▁2038
▁deutsche▁2039
▁veränderten▁2040
▁traditionell▁2041
▁dahin▁2042
▁Kleinkinder▁2043
erziehung▁2044
▁Frauen▁2045
▁schnell▁2046
▁Ra▁2047
ben▁2048
mütter▁2049
▁Kindergarten▁2050
▁schickte▁2051
▁transformiert▁2052
▁Früh▁2053
▁Zentrum▁2054
▁teilt▁2055
▁Gruppen▁2056
▁Wissens▁2057
arbeiter▁2058
teilung▁2059
▁erfolgt▁2060
wirtschaftliche▁2061
▁Grab▁2062
▁Denk▁2063
muster▁2064
▁herausgefordert▁2065
▁gute▁2066
▁9▁2067
▁später▁2068
▁angenommen▁2069
▁Spektrums▁2070
▁besorgt▁2071
▁erzielt▁2072
▁nahm▁2073
mal▁2074
▁Best▁2075
▁innerhalb▁2076
▁Jahrzehnt▁2077
▁schlau▁2078
▁konzentriert▁2079
▁Richtung▁2080
noch▁2081
ber▁2082
▁Polen▁2083
▁geführt▁2084
▁schlechtesten▁2085
▁abgeschnitten▁2086
gehoben▁2087
▁Portugal▁2088
▁fragment▁2089
ierte▁2090
▁vereinheitlich▁2091
▁Un▁2092
▁Kritiker▁2093
▁behaupte▁2094
▁relative▁2095
position▁2096
▁Produkt▁2097
▁wirtschaftliche▁2098
▁sozialer▁2099
gesellschaftlich▁2100
▁Homo▁2101
▁usw▁2102
sbereich▁2103
lich▁2104
▁seine▁2105
▁geändert▁2106
▁Zusammensetzung▁2107
entlassen▁2108
▁rein▁2109
▁beeindruckend▁2110
▁ergibt▁2111
▁Frage▁2112
▁grüne▁2113
srate▁2114
▁guten▁2115
▁angewandt▁2116
▁kopieren▁2117
id▁2118
if▁2119
ziert▁2120
▁zugrunde▁2121
▁stimmen▁2122
▁Prioritäten▁2123
q▁2124
ualifizier▁2125
▁Arbeiter▁2126
▁bezahle▁2127
▁liebe▁2128
▁Anwalt▁2129
▁Medien▁2130
rgestellt▁2131
▁Fragen▁2132
▁Bürger▁2133
▁überzeugt▁2134
▁kurzfristig▁2135
▁beliebteste▁2136
▁Einkaufszentr▁2137
▁beizu▁2138
messen▁2139
▁erfolgreich▁2140
▁früh▁2141
▁getrennt▁2142
▁spiegelt▁2143
▁wider▁2144
▁welt▁2145
klasse▁2146
doch▁2147
▁Unterschied▁2148
her▁2149
▁Japan▁2150
▁erwarten▁2151
▁fragen▁2152
▁Mathematik▁2153
▁antworte▁2154
▁Begabung▁2155
▁abhäng▁2156
▁lerne▁2157
▁japanische▁2158
▁Aufwand▁2159
▁Bemühung▁2160
spricht▁2161
ände▁2162
▁unterrichtet▁2163
issen▁2164
▁Unterschiede▁2165
▁differenzierte▁2166
pä▁2167
ago▁2168
ische▁2169
▁Vor▁2170
weisen▁2171
▁gewöhnliche▁2172
▁außergewöhnlich▁2173
▁gestalten▁2174
möglichkeit▁2175
▁individuell▁2176
▁ehrgeizige▁2177
▁Standards▁2178
▁gesamte▁2179
▁Spektrum▁2180
kommt▁2181
▁nötig▁2182
▁nirgendwo▁2183
▁wählen▁2184
▁sorgsam▁2185
▁bilden▁2186
▁gezielt▁2187
▁Gehalt▁2188
▁jeden▁2189
▁strukturiert▁2190
▁geschaffen▁2191
▁Methoden▁2192
▁Karriere▁2193
büro▁2194
ischen▁2195
▁alleine▁2196
▁gelassen▁2197
▁Unterricht▁2198
vor▁2199
gaben▁2200
▁herrscht▁2201
▁klare▁2202
▁Vorstellung▁2203
▁herausfinde▁2204
▁jeweil▁2205
▁beibring▁2206
▁Weiter▁2207
gabe▁2208
erlangen▁2209
▁administrative▁2210
▁Verantwortung▁2211
▁Kontrolle▁2212
organisation▁2213
▁P▁2214
ädagogik▁2215
▁vorantreiben▁2216
mit▁2217
▁Voraussetzung▁2218
▁stärkere▁2219
▁früher▁2220
▁Ein▁2221
▁Vorschriften▁2222
▁Rektor▁2223
▁erfinderisch▁2224
▁Versorgung▁2225
sehen▁2226
ste▁2227
▁erstklassige▁2228
▁gil▁2229
▁Bee▁2230
in▁2231
druck▁2232
sunterschiede▁2233
▁zurückzu▁2234
begriff▁2235
▁erreicht▁2236
▁Ressourcen▁2237
▁gelang▁2238
▁dorthin▁2239
▁größte▁2240
▁Wirkung▁2241
▁begab▁2242
test▁2243
▁herausfordern▁2244
▁Vorgabe▁2245
▁anhaltende▁2246
▁Zeiträume▁2247
▁hinweg▁2248
kohären▁2249
▁konsequent▁2250
▁umgesetzt▁2251
▁Grundlagen▁2252
▁erfolgreicher▁2253
▁verbesser▁2254
▁Grenzen▁2255
Ver▁2256
sätze▁2257
▁Grund▁2258
▁Stärke▁2259
▁liegt▁2260
▁Mitteilung▁2261
▁einflussreich▁2262
▁Gelder▁2263
verwaltung▁2264
legen▁2265
▁Friedhof▁2266
▁ähnelt▁2267
fällig▁2268
▁Ausrede▁2269
▁sinnvolle▁2270
▁Ziele▁2271
▁setzen▁2272
▁messbar▁2273
▁Ziel▁2274
orientieren▁2275
▁Elternteil▁2276
▁gesetzt▁2277
▁Grundstein▁2278
▁gelegt▁2279
▁Karo▁2280
line▁2281
▁Sp▁2282
l▁2283
▁Rachel▁2284
▁Pik▁2285
▁Klima▁2286
schlag▁2287
eilen▁2288
▁4▁2289
▁Minuten▁2290
▁vermittelt▁2291
▁atmosphärische▁2292
▁Chemiker▁2293
▁Einblick▁2294
wissenschaftlich▁2295
▁wagemutig▁2296
▁Schlagzeilen▁2297
▁Klimawandel▁2298
▁Team▁2299
▁tausende▁2300
▁dazu▁2301
trug▁2302
▁riskant▁2303
▁Flug▁2304
▁wagte▁2305
▁Schlüssel▁2306
molekül▁2307
▁Ausmaß▁2308
▁Anstrengung▁2309
▁Erstellung▁2310
▁Zeitung▁2311
▁Luft▁2312
qualität▁2313
mog▁2314
▁selbe▁2315
▁Feld▁2316
▁letzter▁2317
▁multi▁2318
regierung▁2319
▁IPC▁2320
C▁2321
▁Verständnisse▁2322
▁veröffentlichte▁2323
▁6▁2324
20▁2325
▁40▁2326
▁geschrieben▁2327
▁schrieb▁2328
▁tausend▁2329
▁weiteren▁2330
▁400▁2331
▁Gutachte▁2332
▁11▁2333
3▁2334
▁korrigiert▁2335
▁jährliche▁2336
▁Treffen▁2337
#▁2338
91▁2339
▁physische▁2340
93;▁2341
▁15▁2342
▁San▁2343
▁Francisco▁2344
▁befasst▁2345
▁Viel▁2346
zahl▁2347
▁Themen▁2348
▁Cambridge▁2349
▁Phänomen▁2350
▁Wetter▁2351
▁beeinflusst▁2352
▁Satelliten▁2353
daten▁2354
▁Emission▁2355
▁Saat▁2356
▁Biokraftstoffe▁2357
▁zufällig▁2358
▁studiere▁2359
gebieten▁2360
▁Doktoranden▁2361
▁studieren▁2362
▁Sachen▁2363
▁Prozesse▁2364
▁Moleküle▁2365
op▁2366
▁organische▁2367
▁Molekül▁2368
▁Gewicht▁2369
▁Papier▁2370
▁900▁2371
▁z▁2372
illion▁2373
▁21.▁2374
▁abseit▁2375
▁seines▁2376
▁Atmosphäre▁2377
▁aufzu▁2378
wiegen▁2379
▁entspricht▁2380
▁Methan▁2381
gas▁2382
▁soviel▁2383
blasen▁2384
▁EU▁2385
HO▁2386
R▁2387
▁Kammer▁2388
▁Spanien▁2389
▁Explosion▁2390
▁komplette▁2391
▁Verbrennung▁2392
▁Auto▁2393
▁trotzde▁2394
▁Supercomputer▁2395
▁Modelle▁2396
▁laufen▁2397
▁hunderttausende▁2398
▁Raster▁2399
box▁2400
stände▁2401
▁hunderte▁2402
▁Variable▁2403
▁errechne▁2404
▁Integration▁2405
▁vervollständig▁2406
▁Dutzende▁2407
▁ausser▁2408
▁kürzlich▁2409
ay▁2410
ien▁2411
▁fanden▁2412
▁Wach▁2413
turm▁2414
▁Mitte▁2415
▁hing▁2416
▁Geräte▁2417
▁hunderttausend▁2418
▁Dollar▁2419
▁Turm▁2420
▁wären▁2421
mitten▁2422
▁Teilen▁2423
▁Flugzeug▁2424
▁Modell▁2425
▁BA▁2426
14▁2427
6▁2428
▁FAA▁2429
▁betrieben▁2430
▁fliegt▁2431
▁120▁2432
▁130▁2433
▁Personen▁2434
▁ähnliche▁2435
▁her▁2436
zukommen▁2437
flogen▁2438
▁Spitze▁2439
▁Baumkronen▁2440
▁unglaublicher▁2441
▁gefährlich▁2442
▁Kram▁2443
▁musste▁2444
▁Steigung▁2445
▁Messung▁2446
▁durchzu▁2447
▁Militär▁2448
▁Testpilot▁2449
▁Fliegen▁2450
▁übernehme▁2451
raum▁2452
kl▁2453
▁Bö▁2454
sch▁2455
ungen▁2456
K▁2457
äfte▁2458
▁2▁2459
▁vollständig▁2460
▁befestigt▁2461
▁während▁2462
▁Bord▁2463
▁fliegende▁2464
▁Region▁2465
▁durchführte▁2466
▁Chemie▁2467
▁Student▁2468
▁Neigung▁2469
▁Dutzend▁2470
▁Artikel▁2471
▁gesammelt▁2472
▁formt▁2473
unter▁2474
▁Kapitel▁2475
ka▁2476
pite▁2477
▁Beurteilung▁2478
▁schreiben▁2479
▁Publikum▁2480
▁Journalisten▁2481
▁politische▁2482
▁Christopher▁2483
Charm▁2484
▁scannt▁2485
▁Echtzeit▁2486
▁Neuro▁2487
wissenschaftler▁2488
▁Erfinder▁2489
▁veranschaulich▁2490
▁MRI▁2491
▁Gehirnaktivität▁2492
▁Gedanken▁2493
▁Schmerz▁2494
▁stattfinde▁2495
▁Worten▁2496
fühlst▁2497
▁Hallo▁2498
▁Arm▁2499
heben▁2500
▁win▁2501
ken▁2502
▁ziemlich▁2503
▁königliche▁2504
▁Win▁2505
▁nachahmen▁2506
▁Muskel▁2507
▁programmiere▁2508
▁bald▁2509
bereiche▁2510
▁steuern▁2511
▁Methode▁2512
▁menschlichen▁2513
▁Verstand▁2514
▁Jahrtausende▁2515
labor▁2516
▁Generation▁2517
▁kompliziert▁2518
▁müsse▁2519
▁Raumschiff▁2520
▁schrumpfen▁2521
▁Blut▁2522
kreislauf▁2523
▁injizieren▁2524
▁schrecklich▁2525
▁Arterien▁2526
gegriffen▁2527
körper▁2528
▁Peter▁2529
▁Eingriff▁2530
▁Bestrahlung▁2531
▁Anatomi▁2532
▁buchstäblich▁2533
▁Körper▁2534
▁wichtiger▁2535
▁gelbe▁2536
▁Fleck▁2537
▁entsprechende▁2538
▁Tätigkeit▁2539
▁gesch▁2540
▁zuvor▁2541
▁sicherlich▁2542
▁Elektroden▁2543
▁Roboterarm▁2544
taste▁2545
▁darstellen▁2546
▁Vorgang▁2547
▁üblich▁2548
▁Tage▁2549
▁Analyse▁2550
▁benötigte▁2551
▁Millisekunden▁2552
▁reduziert▁2553
▁erlaubt▁2554
▁live▁2555
▁65▁2556
▁Erreger▁2557
punkte▁2558
▁beeinflussen▁2559
▁Sofa▁2560
▁Therapeut▁2561
▁Tablette▁2562
▁Messer▁2563
▁vierte▁2564
▁verborgene▁2565
▁Wege▁2566
▁chronische▁2567
▁verbrennen▁2568
spüren▁2569
▁Verbindung▁2570
▁hilfreich▁2571
▁verursachen▁2572
▁Abbild▁2573
▁entwerfen▁2574
▁Anzeige▁2575
vorgang▁2576
lesen▁2577
▁nochmal▁2578
▁Arme▁2579
beugen▁2580
ize▁2581
ps▁2582
▁Sache▁2583
▁ausführen▁2584
bahn▁2585
patienten▁2586
tern▁2587
▁Sinne▁2588
▁Wortes▁2589
▁Person▁2590
▁beobachten▁2591
egung▁2592
▁verursacht▁2593
▁Ablauf▁2594
▁end▁2595
▁O▁2596
pi▁2597
ate▁2598
▁freisetz▁2599
▁links▁2600
▁verbunden▁2601
▁regel▁2602
▁experimentelle▁2603
▁klinische▁2604
▁44▁2605
prozentige▁2606
▁Abnahme▁2607
▁Matrix▁2608
▁meinen▁2609
▁kontrollieren▁2610
▁Erscheinung▁2611
▁Erfahrung▁2612
▁Details▁2613
▁einzu▁2614
▁überlasse▁2615
steigen▁2616
▁bringen▁2617
ba▁2618
▁Kid▁2619
ro▁2620
▁geteilt▁2621
▁Wunder▁2622
▁Film▁2623
▁Filme▁2624
▁Macht▁2625
▁gemeinsame▁2626
▁narrative▁2627
▁Erinnerung▁2628
▁Weltanschauung▁2629
▁formen▁2630
▁britische▁2631
▁Regisseur▁2632
▁erinnert▁2633
▁ikonische▁2634
szene▁2635
▁Mai▁2636
land▁2637
▁Boy▁2638
▁the▁2639
▁Hoo▁2640
▁Verein▁2641
▁FILMCLUB▁2642
▁An▁2643
zeichen▁2644
▁Alters▁2645
▁Kulturen▁2646
▁Identität▁2647
▁Form▁2648
▁Mutter▁2649
▁Tochter▁2650
▁Priester▁2651
▁Gemeinde▁2652
mitglied▁2653
▁Erzähler▁2654
▁Höhlenmalerei▁2655
▁Parabel▁2656
▁Fab▁2657
▁erzählt▁2658
nerzähler▁2659
▁zunehmend▁2660
ular▁2661
isiert▁2662
▁zer▁2663
stücke▁2664
▁bieten▁2665
lichkeit▁2666
▁unbe▁2667
einfluss▁2668
▁wild▁2669
▁Konsum▁2670
denken▁2671
▁Erzählung▁2672
▁moralische▁2673
▁Code▁2674
▁wohl▁2675
▁Kunstform▁2676
▁20.▁2677
▁Jahrhunderts▁2678
▁Künstler▁2679
grenzen▁2680
▁Sprachen▁2681
▁Philosophie▁2682
▁enorme▁2683
flecht▁2684
▁Hollywood▁2685
B▁2686
lock▁2687
buster▁2688
▁dominiert▁2689
▁Diät▁2690
gesetzt▁2691
▁Erzähl▁2692
▁selten▁2693
▁Filmproduzent▁2694
▁machte▁2695
▁Sorgen▁2696
▁versetzt▁2697
▁Schrecken▁2698
▁aufbauen▁2699
▁Verständnis▁2700
▁Ironie▁2701
▁fühlbar▁2702
▁Zugang▁2703
▁schwächer▁2704
▁deshalb▁2705
▁gründete▁2706
▁2006▁2707
▁Organisation▁2708
▁wöchentlich▁2709
führt▁2710
▁diskutiert▁2711
archiv▁2712
▁könnten▁2713
▁unruhig▁2714
▁Jugend▁2715
▁Technologie▁2716
▁b▁2717
uer▁2718
lichen▁2719
▁Dorf▁2720
▁DVD▁2721
▁Leinwand▁2722
▁projiziere▁2723
▁Monaten▁2724
▁25▁2725
▁Großbritannien▁2726
▁18▁2727
▁ununterbrochen▁2728
ura▁2729
tiert▁2730
▁kon▁2731
alisiert▁2732
▁ma▁2733
▁Wähler▁2734
giebig▁2735
bwechslung▁2736
reich▁2737
▁Kost▁2738
▁anbieten▁2739
▁konnte▁2740
▁kam▁2741
▁sofort▁2742
▁tiefgreifend▁2743
▁form▁2744
enden▁2745
▁150▁2746
▁klein▁2747
▁entdeckten▁2748
▁Orte▁2749
▁Perspektiven▁2750
▁Pilot▁2751
versuch▁2752
▁beendet▁2753
▁Namen▁2754
▁195▁2755
1▁2756
▁Vi▁2757
orio▁2758
▁De▁2759
ica▁2760
▁bemerkenswert▁2761
▁Kommentar▁2762
▁Slums▁2763
▁Armut▁2764
▁Hoffnung▁2765
▁50.▁2766
▁Geburtstag▁2767
▁Vaters▁2768
saal▁2769
▁miete▁2770
▁Vater▁2771
▁künstlerische▁2772
▁Bedeutung▁2773
▁Vision▁2774
▁beschloss▁2775
▁Teenager▁2776
alter▁2777
▁30▁2778
▁nächste▁2779
▁Einstellung▁2780
▁schweben▁2781
▁Slum▁2782
bewohner▁2783
▁Bese▁2784
▁Himmel▁2785
sechzig▁2786
▁Produktion▁2787
▁sah▁2788
▁sehe▁2789
▁Gesichter▁2790
hrfurcht▁2791
▁neigen▁2792
▁Ungläubig▁2793
keit▁2794
▁Geschwindigkeit▁2795
do▁2796
▁Million▁2797
air▁2798
▁Favela▁2799
▁Rio▁2800
zuordne▁2801
▁nachhaltige▁2802
ison▁2803
▁Demokratie▁2804
▁Regierung▁2805
▁Mr▁2806
▁Smith▁2807
▁Washington▁2808
gedreht▁2809
▁193▁2810
9▁2811
▁älter▁2812
▁Großeltern▁2813
▁Mitglieder▁2814
▁Frank▁2815
▁Cap▁2816
ra▁2817
▁Klassiker▁2818
▁Unabhängigkeit▁2819
stand▁2820
▁Gute▁2821
▁tut▁2822
▁held▁2823
haft▁2824
▁Ausdruck▁2825
▁Glaubens▁2826
▁Maschine▁2827
▁Kraft▁2828
▁Ehre▁2829
iker▁2830
▁verbrachte▁2831
▁englische▁2832
▁Ober▁2833
haus▁2834
ächte▁2835
lange▁2836
▁Fil▁2837
ibu▁2838
tier▁2839
erei▁2840
▁Freude▁2841
▁Kompetenz▁2842
▁erklärt▁2843
▁Lord▁2844
▁Prinzip▁2845
▁Schlaf▁2846
▁vernachlässigt▁2847
hin▁2848
▁erstreckt▁2849
▁Jim▁2850
▁Stewart▁2851
rollen▁2852
▁Auswahl▁2853
▁Hotel▁2854
▁Ruanda▁2855
▁Völkermord▁2856
▁brutal▁2857
▁provoziert▁2858
▁Tränen▁2859
▁prä▁2860
ante▁2861
wa▁2862
ff▁2863
ete▁2864
Friedenstruppen▁2865
▁Doppel▁2866
ng▁2867
igkeit▁2868
▁westliche▁2869
▁Kämpfe▁2870
geht▁2871
▁Sch▁2872
ind▁2873
▁verlangte▁2874
▁bemerkte▁2875
▁voller▁2876
▁Gewissen▁2877
▁hätte▁2878
▁sonst▁2879
▁spürbar▁2880
▁reicher▁2881
▁Pick▁2882
pock▁2883
▁löste▁2884
▁Verlust▁2885
▁Stimm▁2886
▁begeistert▁2887
▁Zuschauer▁2888
▁feierte▁2889
▁Haltung▁2890
weiß▁2891
▁Brit▁2892
impft▁2893
▁kollektive▁2894
▁wertschätzt▁2895
▁Gegen▁2896
▁F▁2897
ichen▁2898
idney▁2899
▁Po▁2900
iti▁2901
▁nachdenklich▁2902
▁eigen▁2903
sinn▁2904
▁neugierig▁2905
▁schwarz▁2906
▁Untertitel▁2907
▁Dokumentarfilm▁2908
▁Fan▁2909
▁detaillierte▁2910
▁Rezension▁2911
▁Lob▁2912
preis▁2913
leidenschaftlich▁2914
▁raffinierte▁2915
▁gegenseitig▁2916
treffen▁2917
tausend▁2918
▁wette▁2919
▁Hunderte▁2920
▁Tausende▁2921
▁Viertel▁2922
million▁2923
▁000▁2924
▁Zahlen▁2925
▁weiterhi▁2926
bertragung▁2927
▁kritische▁2928
▁Alltag▁2929
▁begann▁2930
▁fing▁2931
▁liefert▁2932
▁Kluft▁2933
▁enthalten▁2934
▁Per▁2935
polis▁2936
▁brachte▁2937
▁iranische▁2938
▁Der▁2939
▁weiße▁2940
▁Hai▁2941
▁half▁2942
▁Jungen▁2943
▁art▁2944
ik▁2945
▁erlebt▁2946
▁Flucht▁2947
▁Gewalt▁2948
▁tötete▁2949
▁Boot▁2950
▁geworfen▁2951
▁Recht▁2952
▁versteckte▁2953
▁Botschaft▁2954
▁Flut▁2955
▁ent▁2956
▁Münder▁2957
ter▁2958
iert▁2959
▁gehalten▁2960
▁ihres▁2961
▁gewesen▁2962
nstatt▁2963
▁Objekte▁2964
▁Tante▁2965
▁wunderbare▁2966
blitz▁2967
schnell▁2968
▁erschaffen▁2969
▁bar▁2970
fuß▁2971
▁Tafel▁2972
berg▁2973
▁rennen▁2974
▁Räuber▁2975
arm▁2976
▁erzählte▁2977
▁194▁2978
8▁2979
▁Schwestern▁2980
▁Israel▁2981
▁reiste▁2982
▁Mat▁2983
ros▁2984
▁See▁2985
▁Forderung▁2986
▁human▁2987
ut▁2988
▁Jugendliche▁2989
▁Crew▁2990
▁Essen▁2991
▁versorgt▁2992
▁starb▁2993
▁Reise▁2994
▁erwähnt▁2995
▁verließ▁2996
▁Eile▁2997
▁Mann▁2998
▁Diamanten▁2999
▁Rock▁3000
▁Versteck▁3001
▁erschien▁3002
▁Großvater▁3003
▁London▁3004
▁Ordnung▁3005
▁integrierte▁3006
▁England▁3007
▁Neu▁3008
fang▁3009
▁Schweigen▁3010
gewandert▁3011
▁Anne▁3012
▁The▁3013
▁Great▁3014
scape▁3015
▁Sho▁3016
ah▁3017
▁Triumph▁3018
▁Willen▁3019
▁Len▁3020
i▁3021
▁Rie▁3022
fen▁3023
ahl▁3024
▁elegant▁3025
▁Nazi▁3026
ropaganda▁3027
erleben▁3028
▁enthielt▁3029
▁schmerzt▁3030
▁laut▁3031
▁nützlich▁3032
▁Fl▁3033
stern▁3034
berlebende▁3035
▁gelegentlich▁3036
▁Blick▁3037
▁Tattoo▁3038
▁Handgelenk▁3039
jüng▁3040
fer▁3041
▁Pur▁3042
isten▁3043
▁Suche▁3044
▁zerstreu▁3045
▁grob▁3046
▁Filmemacher▁3047
▁Drama▁3048
▁12-▁3049
▁Zauberer▁3050
▁Oz▁3051
▁sollte▁3052
▁Herz▁3053
▁honor▁3054
▁Leidenschaft▁3055
▁Citizen▁3056
▁Kan▁3057
▁wertvoll▁3058
▁Jane▁3059
▁Aust▁3060
▁Stimmen▁3061
▁biete▁3062
▁zusammenarbeite▁3063
würdig▁3064
▁Stein▁3065
▁Wand▁3066
▁okay▁3067
▁Tom▁3068
▁Han▁3069
▁Astronaut▁3070
▁Love▁3071
ll▁3072
▁Ben▁3073
▁King▁3074
ley▁3075
▁Gandhi▁3076
lagert▁3077
▁real▁3078
▁Eve▁3079
▁Har▁3080
ington▁3081
▁Howard▁3082
▁Be▁3083
ale▁3084
▁Mil▁3085
dred▁3086
▁Pier▁3087
ce▁3088
▁Gelegenheit▁3089
▁Menschsein▁3090
▁Shakespeare▁3091
leuchten▁3092
▁el▁3093
is▁3094
th▁3095
▁ahnte▁3096
▁Begegnung▁3097
▁Literatur▁3098
▁Teilnehmer▁3099
▁engagier▁3100
▁inspirieren▁3101
▁Selbstvertrauen▁3102
▁akademische▁3103
▁vorherseh▁3104
▁ehemal▁3105
halten▁3106
▁Spielplatz▁3107
hrgeiz▁3108
▁Engagement▁3109
▁gefunden▁3110
▁trotz▁3111
▁binär▁3112
▁Beschreibung▁3113
▁oft▁3114
▁beschreiben▁3115
▁we▁3116
▁beschäftigt▁3117
▁verhandel▁3118
▁unendlich▁3119
▁sinn▁3120
stift▁3121
ende▁3122
▁schien▁3123
▁überrascht▁3124
▁Verhaltensweise▁3125
▁Marke▁3126
▁Schuhe▁3127
▁angeboten▁3128
▁Werte▁3129
▁versteh▁3130
▁persönliche▁3131
▁wesentlich▁3132
▁Bestandteil▁3133
▁kulturelle▁3134
▁unmöglich▁3135
▁Gruppe▁3136
▁Vorführung▁3137
▁Hof▁3138
▁Gebäude▁3139
▁neben▁3140
richten▁3141
▁Lu▁3142
▁Gr▁3143
pfeife▁3144
▁TEDx▁3145
otter▁3146
am▁3147
Weltmeister▁3148
▁Pfeifen▁3149
▁Ge▁3150
ou▁3151
kur▁3152
ille▁3153
on▁3154
or▁3155
▁Ho▁3156
off▁3157
▁Komposition▁3158
ê▁3159
▁la▁3160
▁Bell▁3161
▁Besten▁3162
▁Rahmen▁3163
▁faszinierende▁3164
lage▁3165
▁Danke▁3166
▁klingen▁3167
▁Englisch▁3168
▁mo▁3169
iger▁3170
haarige▁3171
▁Typ▁3172
▁Holland▁3173
gebracht▁3174
▁eigentlich▁3175
▁Haus▁3176
pfiff▁3177
▁dachte▁3178
▁Kommunikations▁3179
▁34▁3180
▁Pfeif▁3181
äge▁3182
▁irritiert▁3183
▁ehrlich▁3184
▁Verhaltens▁3185
▁Klassenzimmer▁3186
▁Fahrrad▁3187
▁Heiligen▁3188
▁Abend▁3189
▁grauen▁3190
volle▁3191
▁Weihnachts▁3192
musik▁3193
▁hörte▁3194
▁höre▁3195
▁versuche▁3196
▁Ru▁3197
ph▁3198
▁Red▁3199
os▁3200
ed▁3201
▁Rein▁3202
▁Weihnachtsfeier▁3203
▁Abendessen▁3204
▁nerve▁3205
▁Schw▁3206
rin▁3207
▁gebete▁3208
zuhören▁3209
▁irgendwa▁3210
▁zugegebenerma▁3211
ßen▁3212
▁Wein▁3213
▁get▁3214
runken▁3215
▁Wettbewerb▁3216
▁gäbe▁3217
▁teilnehmen▁3218
▁bekam▁3219
▁SMS▁3220
fähr▁3221
▁Amerika▁3222
▁fahre▁3223
▁liebend▁3224
▁angerufen▁3225
ogel▁3226
schaft▁3227
▁hinfahre▁3228
▁korrekt▁3229
▁Niederländer▁3230
▁gemeint▁3231
▁runter▁3232
gefallen▁3233
gefahren▁3234
▁Louis▁3235
burg▁3236
▁North▁3237
▁Carolina▁3238
gereist▁3239
▁Südost▁3240
▁Berührung▁3241
4▁3242
meisterschaft▁3243
▁teil▁3244
genommen▁3245
▁Titel▁3246
▁verteidige▁3247
▁Jud▁3248
ok▁3249
▁mach▁3250
5▁3251
▁gewann▁3252
▁2008▁3253
getreten▁3254
▁Tokyo▁3255
▁stehe▁3256
▁Rotterdam▁3257
▁wunderschöne▁3258
▁Stadt▁3259
▁Bühne▁3260
▁erzähle▁3261
▁verdiene▁3262
▁zumindest▁3263
▁Haupt▁3264
job▁3265
▁Kranken▁3266
pflege▁3267
▁aufgegeben▁3268
▁Traum▁3269
▁Einzige▁3270
▁pfeifen▁3271
▁Hä▁3272
▁Gleiche▁3273
einander▁3274
▁echt▁3275
▁ca▁3276
üben▁3277
▁Ton▁3278
ud▁3279
igung▁3280
▁Töne▁3281
vielversprechend▁3282
▁Techniker▁3283
▁läuf▁3284
▁geb▁3285
▁Zeichen▁3286
▁Einsatz▁3287
▁leid▁3288
▁gewohnt▁3289
▁start▁3290
selber▁3291
▁Solo▁3292
▁Max▁3293
▁West▁3294
man▁3295
▁herzlich▁3296
▁Mark▁3297
▁Shaw▁3298
▁trockene▁3299
▁Demo▁3300
▁präsentiert▁3301
▁Ultra▁3302
▁Dr▁3303
flüssigkeit▁3304
abweisend▁3305
schicht▁3306
▁Schild▁3307
basierte▁3308
▁Material▁3309
▁fungier▁3310
▁Nano▁3311
ebene▁3312
▁bedeckt▁3313
Spray▁3314
▁Regen▁3315
schirm▁3316
prall▁3317
verzögerte▁3318
bleiben▁3319
▁Unsichtbare▁3320
▁anzuschauen▁3321
▁existierende▁3322
▁aufregende▁3323
fest▁3324
▁nachdenke▁3325
▁Beton▁3326
stein▁3327
▁Hälfte▁3328
▁nanotechnolog▁3329
▁anwendbar▁3330
▁superhydrophobi▁3331
▁porös▁3332
▁absorbier▁3333
tropfen▁3334
▁rund▁3335
▁hydrophob▁3336
ischer▁3337
▁frisch▁3338
ach▁3339
rutscht▁3340
▁Winkel▁3341
°▁3342
p▁3343
indschutzscheibe▁3344
▁erhöht▁3345
▁110▁3346
▁160▁3347
-1▁3348
75▁3349
▁Demonstration▁3350
▁Paar▁3351
▁Handschuhe▁3352
▁Nanotechnologie▁3353
▁behandelt▁3354
▁gebe▁3355
▁Tipp▁3356
▁trocken▁3357
▁entdeckt▁3358
wissenschaft▁3359
▁Atome▁3360
▁regelrecht▁3361
▁super▁3362
lein▁3363
▁Nanometer▁3364
▁gemessen▁3365
▁Milliardstel▁3366
▁Nanopartikel▁3367
▁Dick▁3368
▁50.000▁3369
▁ungeheuer▁3370
▁Materialien▁3371
lö▁3372
liche▁3373
▁Farbe▁3374
le▁3375
▁gefüllt▁3376
▁glatt▁3377
▁Zwischen▁3378
räumen▁3379
▁greifen▁3380
▁bedecken▁3381
▁rutsch▁3382
▁tau▁3383
che▁3384
▁sil▁3385
ne▁3386
netz▁3387
del▁3388
▁bleibt▁3389
▁bestimmt▁3390
▁einsetzen▁3391
▁allgemein▁3392
▁eignet▁3393
▁Anwendung▁3394
▁nass▁3395
schutz▁3396
▁Kor▁3397
osion▁3398
▁anti▁3399
kte▁3400
ri▁3401
elle▁3402
▁überleben▁3403
einig▁3404
▁Berufs▁3405
feld▁3406
▁revolutionier▁3407
▁zeige▁3408
▁bedanke▁3409
▁Chris▁3410
▁Anderson▁3411
habt▁3412
▁Design▁3413
gestrichen▁3414
▁...▁3415
▁medizinische▁3416
▁Forschung▁3417
▁Haufen▁3418
▁konfrontiert▁3419
▁klappt▁3420
▁Judi▁3421
▁Matz▁3422
▁Dan▁3423
▁Ariel▁3424
▁fehlerhafte▁3425
Verhaltensökonom▁3426
▁Fehler▁3427
▁versteckt▁3428
so▁3429
ß▁3430
▁OK▁3431
▁st▁3432
▁betrügen▁3433
▁unterstreich▁3434
▁Argument▁3435
▁vorhersagbar▁3436
▁irrational▁3437
▁begreife▁3438
▁vorhersehbar▁3439
▁Irrational▁3440
▁Krankenhaus▁3441
▁schwere▁3442
▁begegnet▁3443
station▁3444
▁gestört▁3445
Krankenschwester▁3446
bände▁3447
wechselt▁3448
▁Heft▁3449
pflaster▁3450
abreißen▁3451
▁intensiv▁3452
▁zwa▁3453
träglich▁3454
▁richtige▁3455
▁Ansatz▁3456
▁Station▁3457
reißen▁3458
▁festgehalten▁3459
gerissen▁3460
▁Körpers▁3461
▁dauerte▁3462
▁Ganze▁3463
▁Stunde▁3464
▁gehasst▁3465
▁Stunden▁3466
▁Patienten▁3467
▁w▁3468
üßte▁3469
▁Richtige▁3470
▁gering▁3471
▁Und▁3472
▁Patient▁3473
▁Ratschläge▁3474
▁Hebräisch▁3475
▁Sprache▁3476
▁machten▁3477
▁angefangen▁3478
▁interessanteste▁3479
▁abstrakte▁3480
▁getan▁3481
▁interessierte▁3482
▁Werkzeug▁3483
▁kaufte▁3484
▁Schraub▁3485
stock▁3486
▁einge▁3487
pan▁3488
▁bi▁3489
que▁3490
tsch▁3491
chmal▁3492
▁kürzer▁3493
▁ansteigen▁3494
▁Pause▁3495
▁fertig▁3496
▁qu▁3497
älen▁3498
▁schmerzhaft▁3499
▁Wenn▁3500
▁entscheiden▁3501
▁Welche▁3502
▁Projekt▁3503
gesprochen▁3504
▁beschäftigte▁3505
▁Geräusche▁3506
▁Elektroschock▁3507
anzug▁3508
▁starke▁3509
▁Schmerzen▁3510
gestellt▁3511
▁wundervolle▁3512
▁Absicht▁3513
▁großer▁3514
▁wiederholt▁3515
▁herausstellt▁3516
▁Länge▁3517
▁Intensität▁3518
wegen▁3519
▁weh▁3520
getan▁3521
▁Beine▁3522
zuarbeiten▁3523
▁Laufe▁3524
▁geringer▁3525
▁gegeben▁3526
▁erholen▁3527
▁tolle▁3528
▁Pfleger▁3529
▁täuschen▁3530
▁Fehl▁3531
schätzung▁3532
▁verbreitet▁3533
▁Wir▁3534
rlei▁3535
▁Betrug▁3536
▁beschäftige▁3537
üge▁3538
▁gegenwärtige▁3539
▁Börsen▁3540
▁Enr▁3541
▁betrat▁3542
▁plötzlich▁3543
▁explodierte▁3544
▁schwarze▁3545
▁Schafe▁3546
▁fähig▁3547
eher▁3548
▁Experiment▁3549
▁Blatt▁3550
aufgabe▁3551
▁Blätter▁3552
▁gelöst▁3553
▁Probanden▁3554
▁akzeptiert▁3555
▁gezahlt▁3556
▁Durchschnitt▁3557
ummel▁3558
leite▁3559
geteilt▁3560
blatt▁3561
▁stecken▁3562
▁Schnipse▁3563
▁Tasche▁3564
▁beantwortet▁3565
▁sieh▁3566
▁sieben▁3567
▁betr▁3568
ögen▁3569
stheorie▁3570
Nutzen▁3571
ech▁3572
▁Wahrscheinlich▁3573
▁erwischt▁3574
▁wieviel▁3575
nützen▁3576
▁schlimm▁3577
▁Strafe▁3578
gt▁3579
▁entscheide▁3580
▁lohnt▁3581
▁überprüf▁3582
▁Testperson▁3583
▁variiert▁3584
kommen▁3585
▁Wieviel▁3586
▁durfte▁3587
▁zahlt▁3588
▁cent▁3589
▁richtiger▁3590
▁annehmen▁3591
▁Summe▁3592
trogen▁3593
▁stahl▁3594
▁halbe▁3595
▁zerriss▁3596
▁Beweise▁3597
▁übrig▁3598
▁Zimmer▁3599
schale▁3600
▁lag▁3601
▁häufiger▁3602
▁Anreize▁3603
▁offenbar▁3604
▁rational▁3605
▁Kräfte▁3606
▁unterlieg▁3607
seits▁3608
▁Spiegel▁3609
▁Anders▁3610
eit▁3611
▁schummel▁3612
▁gewisse▁3613
grenze▁3614
▁Betrüger▁3615
▁profitier▁3616
▁verschlechtern▁3617
▁test▁3618
uff▁3619
ziger▁3620
Faktor▁3621
▁verkleiner▁3622
geholt▁3623
titel▁3624
zählen▁3625
▁Zehn▁3626
▁Gebote▁3627
▁re▁3628
zi▁3629
▁religiöser▁3630
uß▁3631
▁religiöse▁3632
▁diejenige▁3633
▁sollten▁3634
gehört▁3635
▁Atheist▁3636
▁Bibel▁3637
▁schwöre▁3638
▁schwinde▁3639
▁taten▁3640
▁allerding▁3641
▁schwierig▁3642
▁vereinbar▁3643
▁überlegt▁3644
▁Leuten▁3645
▁verlangen▁3646
▁Ehren▁3647
ko▁3648
dex▁3649
▁unterschreib▁3650
▁bat▁3651
▁folgende▁3652
▁Klar▁3653
▁MIT▁3654
nach▁3655
▁Zettel▁3656
▁allem▁3657
vergrößern▁3658
gelaufen▁3659
▁Sechs▁3660
pack▁3661
▁Kühlschränke▁3662
▁Studenten▁3663
ja▁3664
rgon▁3665
▁Halb▁3666
wert▁3667
szeit▁3668
▁Kühlschrank▁3669
▁Teller▁3670
Dollar▁3671
Schein▁3672
▁stellte▁3673
schein▁3674
▁verschwunden▁3675
▁gutes▁3676
▁Drittel▁3677
▁Herr▁3678
leiter▁3679
▁Marken▁3680
▁muß▁3681
tausch▁3682
▁Folgende▁3683
▁Stift▁3684
geld▁3685
▁Sekunden▁3686
denkt▁3687
▁bekommt▁3688
▁doppelt▁3689
▁Börse▁3690
▁zusätzliche▁3691
▁Element▁3692
▁besaß▁3693
▁Tag▁3694
▁öffnen▁3695
▁neues▁3696
▁rekrutiert▁3697
▁teilzunehmen▁3698
▁Voraus▁3699
▁Umschlag▁3700
▁Bezahl▁3701
stünde▁3702
▁Schauspiel▁3703
schüler▁3704
▁engagiert▁3705
▁Rolle▁3706
stehen▁3707
▁heim▁3708
▁Mission▁3709
▁erfüllt▁3710
studenten▁3711
▁eingesch▁3712
▁wußte▁3713
▁Schauspieler▁3714
▁begangen▁3715
▁reagiere▁3716
▁Sweat▁3717
shirt▁3718
trägt▁3719
▁Uni▁3720
▁durchgeführt▁3721
▁Pittsburgh▁3722
▁Carnegie▁3723
▁Mellon▁3724
▁University▁3725
▁of▁3726
▁studiert▁3727
Studenten▁3728
▁spielte▁3729
Student▁3730
hatte▁3731
rger▁3732
▁hast▁3733
▁behalten▁3734
mehr▁3735
▁norm▁3736
at▁3737
Gruppe▁3738
▁betrüg▁3739
▁angemessen▁3740
▁bestimmte▁3741
identifizieren▁3742
▁Ehrlich▁3743
▁stärker▁3744
▁wahrgenommen▁3745
Ge▁3746
bot▁3747
Experiment▁3748
▁Einzelne▁3749
▁Moral▁3750
▁anfühlt▁3751
▁beispiels▁3752
▁indirekt▁3753
▁Wirklichkeit▁3754
▁verzerrt▁3755
zunehmen▁3756
▁Aktien▁3757
tion▁3758
ative▁3759
▁Hypothek▁3760
gestützt▁3761
papier▁3762
▁repräsentiere▁3763
▁Umwandlung▁3764
▁bleiben▁3765
▁Nächsten▁3766
▁Auswirkung▁3767
▁generell▁3768
ökonomie▁3769
▁Intuition▁3770
▁leiten▁3771
▁falsch▁3772
▁Probe▁3773
▁überlegen▁3774
▁Privatleben▁3775
geschäft▁3776
▁Amerikanische▁3777
reform▁3778
▁2001▁3779
chaffung▁3780
▁neuer▁3781
märkte▁3782
politik▁3783
Gesundheitswesen▁3784
▁hinterfragen▁3785
ging▁3786
zusehen▁3787
▁interessante▁3788
schwester▁3789
bezogen▁3790
▁jemande▁3791
▁wechseln▁3792
Zeitraum▁3793
ual▁3794
▁interessanter▁3795
▁glaubte▁3796
gebung▁3797
▁schwierige▁3798
▁veranstalte▁3799
▁Mögliche▁3800
squalität▁3801
▁systematische▁3802
▁Experimente▁3803
▁McG▁3804
onig▁3805
▁Massen▁3806
Mehrspieler▁3807
▁Daumen▁3808
ringen▁3809
▁bringt▁3810
▁Chaos▁3811
▁versuchte▁3812
spiel▁3813
zubringen▁3814
▁anderer▁3815
▁kenne▁3816
▁positive▁3817
▁Minute▁3818
rleichter▁3819
▁Liebe▁3820
berraschung▁3821
▁Stolz▁3822
▁Neugier▁3823
▁Aufreg▁3824
▁Verwund▁3825
erung▁3826
▁Zufriedenheit▁3827
▁Zeitspanne▁3828
▁brauche▁3829
▁Freiwillige▁3830
▁praktische▁3831
▁hochkomm▁3832
V▁3833
reinigung▁3834
sterreich▁3835
▁namens▁3836
▁Mo▁3837
▁Sunni▁3838
▁erkläre▁3839
amp▁3840
▁ring▁3841
▁Beste▁3842
▁Game▁3843
Generation▁3844
▁Milliarde▁3845
▁Eric▁3846
▁anschließen▁3847
▁gewinn▁3848
▁derjenige▁3849
▁fest▁3850
nagel▁3851
▁warten▁3852
▁drauf▁3853
stürzen▁3854
▁Ah▁3855
▁typische▁3856
▁Knoten▁3857
▁ambition▁3858
reiz▁3859
merken▁3860
mögen▁3861
▁einbeziehen▁3862
▁geschlossen▁3863
strecken▁3864
▁1500▁3865
änge▁3866
▁losgeh▁3867
▁freue▁3868
▁Grafik▁3869
▁Level▁3870
▁Fort▁3871
schritten▁3872
▁Konfiguration▁3873
▁Todes▁3874
figur▁3875
▁irgendwelche▁3876
▁Star▁3877
Fan▁3878
▁M▁3879
bi▁3880
▁Wissenschafts▁3881
▁schwerste▁3882
▁extrem▁3883
▁erstmal▁3884
▁dreißig▁3885
▁Netzwerk▁3886
▁leichter▁3887
▁frei▁3888
▁sicher▁3889
▁Last▁3890
check▁3891
▁schnapp▁3892
▁reichen▁3893
▁Auge▁3894
▁wovo▁3895
▁redet▁3896
▁brauchte▁3897
▁tatsächliche▁3898
▁erzeugt▁3899
▁Sitz▁3900
▁physikalische▁3901
ttel▁3902
lacht▁3903
▁send▁3904
Mail▁3905
▁abrufe▁3906
▁komplett▁3907
fu▁3908
cht▁3909
▁körperlich▁3910
propos▁3911
▁körperliche▁3912
▁Hormon▁3913
▁Oxytocin▁3914
▁setzt▁3915
▁beste▁3916
▁freizu▁3917
setzen▁3918
▁mindesten▁3919
▁Hände▁3920
▁biochemisch▁3921
▁eingestellt▁3922
▁lieben▁3923
▁vorher▁3924
▁Glück▁3925
wunsch▁3926
▁Neuigkeit▁3927
▁offizielle▁3928
▁Groß▁3929
meister▁3930
▁beschleunigen▁3931
▁Schachspiel▁3932
▁irgendjemand▁3933
▁Twitter▁3934
▁Facebook▁3935
status▁3936
▁aktualisiere▁3937
▁Regelwerk▁3938
▁legendäre▁3939
▁passen▁3940
▁Verrückte▁3941
▁Wh▁3942
uuu▁3943
▁Tod▁3944
over▁3945
▁Ells▁3946
▁Media▁3947
▁Lab▁3948
▁widmet▁3949
▁musikalische▁3950
▁Virtuos▁3951
▁Amateur▁3952
▁Oper▁3953
▁Videospiel▁3954
bieten▁3955
▁Komponist▁3956
schluss▁3957
▁Gedanke▁3958
stoßen▁3959
▁Mozart▁3960
effekt▁3961
▁ungeborene▁3962
Wert▁3963
▁bloß▁3964
▁hinzufügen▁3965
▁dynamische▁3966
▁Kern▁3967
▁jedermann▁3968
▁mitten▁3969
▁Erlebnis▁3970
▁sogenannte▁3971
▁Hyper▁3972
▁Inter▁3973
▁erfand▁3974
Y▁3975
▁Ma▁3976
▁Gabriel▁3977
▁Prince▁3978
▁Orchester▁3979
▁Instrumente▁3980
▁eingebaut▁3981
▁Instrument▁3982
▁Interpretation▁3983
▁verändere▁3984
▁Cello▁3985
▁Stimme▁3986
▁fantastische▁3987
▁Serie▁3988
▁Kol▁3989
ktionen▁3990
▁Brain▁3991
▁Opera▁3992
▁gestaltet▁3993
▁natürliche▁3994
▁Geschick▁3995
▁Musikstück▁3996
bewegung▁3997
▁Klang▁3998
massen▁3999
▁Ta▁4000
oberfläche▁4001
▁Melodie▁4002
▁Aura▁4003
▁erzeugen▁4004
▁auszu▁4005
probieren▁4006
▁mitzu▁4007
wirken▁4008
▁Aufführung▁4009
ourne▁4010
▁dauerhaft▁4011
▁Museum▁4012
▁gebaut▁4013
▁führte▁4014
▁Guitar▁4015
▁Her▁4016
fern▁4017
▁Interface▁4018
▁bereitstell▁4019
▁interessiert▁4020
zuspielen▁4021
▁Eisberg▁4022
▁zweiter▁4023
▁reicht▁4024
▁umgestalten▁4025
▁meist▁4026
▁verändern▁4027
▁kommunizieren▁4028
▁Geist▁4029
score▁4030
▁ausreichend▁4031
▁Effekte▁4032
▁interessiere▁4033
▁schöpferische▁4034
▁breiter▁4035
▁Musizieren▁4036
▁wachsende▁4037
▁Gebiete▁4038
▁derzeit▁4039
▁Oliver▁4040
▁Sack▁4041
▁Music▁4042
phil▁4043
ia▁4044
▁erschienen▁4045
swert▁4046
▁Pianist▁4047
▁ungewöhnliche▁4048
▁beobachtet▁4049
▁Letzte▁4050
▁fortgeschritten▁4051
▁Alzheimer▁4052
▁ansprechen▁4053
▁Nahe▁4054
▁bemerkt▁4055
rag▁4056
ment▁4057
▁Stuhl▁4058
▁springen▁4059
▁teilweise▁4060
▁Persönlichkeit▁4061
▁zurückbring▁4062
▁Schlag▁4063
fälle▁4064
▁Bewegungen▁4065
▁Parkinson▁4066
▁wiederher▁4067
▁wirkungsvoll▁4068
▁Schizophren▁4069
▁liegende▁4070
▁Prinzipien▁4071
erlei▁4072
▁Krankenhäuser▁4073
▁Nähe▁4074
▁Boston▁4075
▁Te▁4076
wksb▁4077
ury▁4078
▁Hospital▁4079
▁Langzeit▁4080
rankenhaus▁4081
▁geistige▁4082
▁Behinderung▁4083
bestand▁4084
▁Behandlung▁4085
▁scheint▁4086
behandlung▁4087
▁beschleunigt▁4088
▁weitermache▁4089
▁echtes▁4090
uscht▁4091
▁Gedächtnis▁4092
▁trainiere▁4093
▁musizier▁4094
▁experimentiere▁4095
▁Null▁4096
▁tiefgreifende▁4097
▁dritte▁4098
▁paradox▁4099
▁Worte▁4100
▁Reden▁4101
▁seltsam▁4102
▁nervös▁4103
Synthesizer▁4104
▁teilte▁4105
▁Beispiele▁4106
▁mächtigste▁4107
▁Schnittstelle▁4108
▁Außen▁4109
▁aufzeigen▁4110
▁irre▁4111
▁D▁4112
eath▁4113
▁Power▁4114
projekte▁4115
▁mächtig▁4116
▁Umwelt▁4117
▁herunterzu▁4118
▁Bücher▁4119
▁Kerl▁4120
▁ewig▁4121
▁läd▁4122
▁verschwinde▁4123
▁Beginn▁4124
charakter▁4125
▁Vermächtnis▁4126
▁handelt▁4127
▁weitergebe▁4128
▁Objekt▁4129
▁gigantische▁4130
▁Kr▁4131
uch▁4132
▁robotische▁4133
▁Prototyp▁4134
▁Klavier▁4135
sai▁4136
▁Sa▁4137
ite▁4138
▁streich▁4139
▁Propeller▁4140
▁akustische▁4141
▁Signale▁4142
▁vibrier▁4143
▁vermitteln▁4144
▁gewissermaß▁4145
▁Simon▁4146
▁griechische▁4147
▁Chor▁4148
▁Handlung▁4149
eck▁4150
Bot▁4151
▁Charakter▁4152
rempel▁4153
▁hoffen▁4154
pp▁4155
▁Belieb▁4156
reihen▁4157
▁Würfel▁4158
▁Wände▁4159
▁Gesten▁4160
▁gewählt▁4161
gepackt▁4162
▁LED▁4163
▁Bildschirm▁4164
▁Bar▁4165
▁James▁4166
▁Mad▁4167
dale▁4168
na▁4169
▁betritt▁4170
offizielle▁4171
schau▁4172
▁Premiere▁4173
▁Mona▁4174
co▁4175
▁September▁4176
▁irgendeine▁4177
▁online▁4178
▁Räume▁4179
▁zugänglich▁4180
▁Große▁4181
▁wandeln▁4182
▁gezeigt▁4183
cell▁4184
▁kn▁4185
au▁4186
iges▁4187
▁Spielzeug▁4188
▁anpassen▁4189
▁besondere▁4190
▁einladen▁4191
▁Applau▁4192
▁Adam▁4193
ant▁4194
▁Bomba▁4195
ex▁4196
jet▁4197
▁motiviert▁4198
▁willst▁4199
▁Name▁4200
erebral▁4201
▁geliebt▁4202
▁Software▁4203
▁dirigier▁4204
▁traf▁4205
▁dreieinhalb▁4206
▁erwies▁4207
▁schüchtern▁4208
▁as▁4209
lo▁4210
▁komponiert▁4211
▁regelmäßig▁4212
▁Mitarbeiter▁4213
▁Stücke▁4214
▁CD▁4215
▁betreut▁4216
▁Experte▁4217
▁enge▁4218
▁letzen▁4219
▁gearbeitet▁4220
▁ermöglichen▁4221
▁arbeitet▁4222
▁Nu▁4223
ance▁4224
▁Präzision▁4225
▁braucht▁4226
▁technische▁4227
▁Fire▁4228
ire▁4229
Kamera▁4230
▁betrachtet▁4231
point▁4232
▁wählte▁4233
übertragung▁4234
▁Sprach▁4235
kontrolle▁4236
▁gewöhnt▁4237
▁uninteressant▁4238
est▁4239
▁Gestaltung▁4240
verfahren▁4241
▁Input▁4242
▁fortwährend▁4243
Tracking▁4244
▁schaut▁4245
▁Konstruktion▁4246
teil▁4247
▁folgte▁4248
▁Aspekt▁4249
▁Schulter▁4250
▁cod▁4251
ierten▁4252
▁expressive▁4253
▁Bewegung▁4254
▁brauchbar▁4255
▁übermittel▁4256
▁Parameter▁4257
▁stimmt▁4258
eh▁4259
▁passt▁4260
pe▁4261
kt▁4262
wechsel▁4263
▁erlaub▁4264
▁kreativer▁4265
liefert▁4266
drücken▁4267
▁Strukturen▁4268
▁Beziehung▁4269
▁technologische▁4270
▁fehlt▁4271
sprozess▁4272
▁Also▁4273
▁My▁4274
▁Eagle▁4275
▁Song▁4276
▁Partitur▁4277
track▁4278
▁hineingeh▁4279
▁bescheiden▁4280
▁beginn▁4281
▁platziere▁4282
▁erhält▁4283
fenster▁4284
▁zeichnet▁4285
▁Linien▁4286
▁platziert▁4287
▁anschaut▁4288
▁Abschnitte▁4289
▁verrückt▁4290
▁endet▁4291
▁Knall▁4292
▁analysiert▁4293
▁Aspekte▁4294
▁hervorbring▁4295
▁Graphik▁4296
Screen▁4297
▁bemerken▁4298
▁misst▁4299
▁verfolgt▁4300
▁verdeutlich▁4301
filter▁4302
▁anschaue▁4303
ziel▁4304
gerichtet▁4305
disziplin▁4306
hören▁4307
▁Byr▁4308
▁Architektur▁4309
▁unterstützt▁4310
▁CB▁4311
GB▁4312
▁Konzerte▁4313
▁Lauf▁4314
▁Hall▁4315
▁fragt▁4316
▁Veranstaltung▁4317
sort▁4318
▁Trommel▁4319
▁freie▁4320
▁Wagner▁4321
O▁4322
per▁4323
▁Arena▁4324
ock▁4325
▁Umstände▁4326
angetrieben▁4327
▁unregelmäßige▁4328
▁klang▁4329
▁aufgenommen▁4330
▁Head▁4331
▁jedenfall▁4332
)▁4333
▁Beschaffen▁4334
heit▁4335
▁bewirkt▁4336
▁Texte▁4337
ana▁4338
maßen▁4339
heitlich▁4340
▁präzise▁4341
▁To▁4342
ot▁4343
▁Or▁4344
chi▁4345
▁Lo▁4346
▁Nash▁4347
ville▁4348
▁mancher▁4349
▁Hinsicht▁4350
▁Struktur▁4351
hielt▁4352
▁Band▁4353
▁Laut▁4354
ke▁4355
fallen▁4356
▁Ruf▁4357
▁übertön▁4358
▁Säle▁4359
▁schöner▁4360
▁Disney▁4361
▁aufregend▁4362
▁festgestellt▁4363
▁zurecht▁4364
▁passend▁4365
▁schreibe▁4366
▁schwebt▁4367
▁Saal▁4368
▁sowas▁4369
▁Afrika▁4370
▁populär▁4371
▁tiefe▁4372
▁Wurzel▁4373
▁sag▁4374
▁fun▁4375
▁geling▁4376
▁Kulisse▁4377
▁durcheinander▁4378
▁Verstärk▁4379
▁Zufall▁4380
il▁4381
▁Durch▁4382
▁got▁4383
▁Kathedrale▁4384
▁Noten▁4385
werte▁4386
schmeichel▁4387
▁Bach▁4388
gel▁4389
▁aufwendig▁4390
▁Risiko▁4391
▁Dissonanz▁4392
▁17▁4393
70▁4394
▁verspielt▁4395
▁komplex▁4396
▁La▁4397
▁Scal▁4398
7▁4399
häusern▁4400
gerufen▁4401
▁gegessen▁4402
▁Club▁4403
rie▁4404
▁rief▁4405
▁Zu▁4406
Erlebnis▁4407
▁Neuerung▁4408
ek▁4409
take▁4410
graben▁4411
▁vergrößert▁4412
stimmig▁4413
▁hineinpass▁4414
▁beliebt▁4415
▁Symphonie▁4416
Saa▁4417
▁Alex▁4418
▁Ross▁4419
▁New▁4420
orker▁4421
▁trat▁4422
▁leise▁4423
▁Trink▁4424
▁Tra▁4425
▁kombiniert▁4426
▁wirkt▁4427
▁extreme▁4428
▁eingesetzt▁4429
arten▁4430
▁gewissen▁4431
▁rhythm▁4432
▁strukturell▁4433
▁Mahl▁4434
▁Bob▁4435
▁Dylan▁4436
▁yea▁4437
▁Jazz▁4438
▁Scott▁4439
▁Jo▁4440
plin▁4441
▁Flu▁4442
dampf▁4443
publik▁4444
▁Tänzer▁4445
▁mochten▁4446
▁na▁4447
▁endlos▁4448
▁wiederholen▁4449
▁improvisieren▁4450
▁Latin▁4451
▁ändert▁4452
veranstaltung▁4453
▁gelangt▁4454
▁Mikrofon▁4455
▁ermöglicht▁4456
▁Sänger▁4457
▁Musiker▁4458
▁Radio▁4459
▁gesendet▁4460
▁Live▁4461
ina▁4462
▁translator▁4463
▁note▁4464
▁f▁4465
av▁4466
our▁4467
▁Review▁4468
▁please▁4469
▁delete▁4470
▁g▁4471
▁Ch▁4472
▁Baker▁4473
▁sing▁4474
▁Ohr▁4475
▁flüstert▁4476
isierende▁4477
▁Effekt▁4478
▁Dir▁4479
▁geschieden▁4480
▁aufgezeichnet▁4481
▁Ju▁4482
Box▁4483
▁Kneipe▁4484
▁Anlagen▁4485
▁speziell▁4486
▁Passage▁4487
▁frühe▁4488
▁Hip▁4489
Hop▁4490
geschnitten▁4491
▁Moderator▁4492
▁aufge▁4493
besser▁4494
▁Geburt▁4495
▁Orten▁4496
▁aufgeführt▁4497
kus▁4498
tisch▁4499
▁schlechtes▁4500
adi▁4501
▁Basketball▁4502
all▁4503
ho▁4504
cke▁4505
Stadien▁4506
fan▁4507
▁Bal▁4508
▁moderate▁4509
▁Tempo▁4510
▁moderat▁4511
▁grand▁4512
io▁4513
▁gesellig▁4514
▁Stimmung▁4515
▁Umstand▁4516
▁Autoradio▁4517
ufgewachsen▁4518
▁mittler▁4519
weile▁4520
Stereoanlage▁4521
▁Frequenz▁4522
ässe▁4523
▁high▁4524
▁dazwischen▁4525
▁Deine▁4526
▁Medium▁4527
▁private▁4528
▁MP▁4529
▁Player▁4530
▁christliche▁4531
▁Hin▁4532
▁still▁4533
Afrika▁4534
▁dr▁4535
▁Lautstärke▁4536
▁lauter▁4537
▁Pop▁4538
▁heut▁4539
zu▁4540
tage▁4541
▁gewisser▁4542
▁Gerät▁4543
▁gross▁4544
▁praktizieren▁4545
▁woanders▁4546
▁Davi▁4547
▁Attenborough▁4548
▁Vögel▁4549
dach▁4550
frequent▁4551
▁Wald▁4552
boden▁4553
▁reflektiert▁4554
▁Gras▁4555
amme▁4556
▁summ▁4557
energie▁4558
sparen▁4559
▁praktisch▁4560
▁Landschaften▁4561
▁Savanne▁4562
▁verbreiten▁4563
▁Tan▁4564
ang▁4565
▁angepasst▁4566
▁Ostküste▁4567
▁Wälder▁4568
▁dichter▁4569
▁Westküste▁4570
▁gedacht▁4571
▁Schöpfung▁4572
smodell▁4573
▁Linie▁4574
ga▁4575
▁Muse▁4576
▁hängt▁4577
▁Programme▁4578
▁Betriebssystem▁4579
▁evolutionär▁4580
▁lernfähig▁4581
▁umgekehrt▁4582
▁Sichtweise▁4583
▁romantische▁4584
▁Standpunkt▁4585
▁Gefühle▁4586
▁irgendetw▁4587
as▁4588
▁geformt▁4589
▁Gefäß▁4590
▁injiziert▁4591
▁instinktiv▁4592
▁intuitiv▁4593
▁hingeh▁4594
▁Konflikt▁4595
▁Ansicht▁4596
▁Autor▁4597
▁Thom▁4598
▁mögliche▁4599
▁Erklärung▁4600
▁entgegen▁4601
▁Belange▁4602
▁aufrichtig▁4603
▁Bauch▁4604
▁echter▁4605
▁Glaub▁4606
würdigkeit▁4607
▁vortäusch▁4608
▁Erkenntnis▁4609
▁Vögeln▁4610
passen▁4611
▁Iran▁4612
Liebesgeschichte▁4613
▁14.▁4614
▁Mär▁4615
▁Jahres▁4616
▁Poster▁4617
▁gepostet▁4618
▁israelische▁4619
▁Flagge▁4620
▁erläuter▁4621
▁post▁4622
▁Tagen▁4623
▁wartete▁4624
▁Schlange▁4625
▁Supermarkt▁4626
▁Besitzer▁4627
▁sprachen▁4628
▁erklärte▁4629
▁10.000▁4630
▁Raketen▁4631
▁nieder▁4632
▁Krieg▁4633
▁unternehmen▁4634
▁spät▁4635
▁handeln▁4636
▁Grafikdesigner▁4637
▁like▁4638
▁Bett▁4639
▁Nacht▁4640
▁wachte▁4641
wache▁4642
▁nachts▁4643
▁vorbei▁4644
▁Punkte▁4645
▁gehe▁4646
▁beginne▁4647
▁Was▁4648
▁Nachbarn▁4649
▁Mädchen▁4650
▁Wohnzimmer▁4651
▁weinen▁4652
▁wow▁4653
▁las▁4654
▁Text▁4655
▁weinte▁4656
Reflex▁4657
redet▁4658
▁ernsthaft▁4659
tete▁4660
▁gib▁4661
▁ausgelöst▁4662
▁schicken▁4663
▁Iraner▁4664
▁ergreifen▁4665
▁erhielt▁4666
▁Kommentare▁4667
▁Nachrichten▁4668
▁antwortete▁4669
rück▁4670
▁Kommunikation▁4671
▁gegenseitige▁4672
▁Israelis▁4673
▁hasse▁4674
▁Völker▁4675
▁Feinde▁4676
▁Schwelle▁4677
▁Osten▁4678
▁Okay▁4679
▁lass▁4680
▁erinnere▁4681
▁Mich▁4682
▁sprach▁4683
▁Palästina▁4684
▁Jeder▁4685
▁Syri▁4686
▁Libanon▁4687
▁Chinese▁4688
▁tauchte▁4689
▁Logo▁4690
liebt▁4691
Israel▁4692
▁Teher▁4693
▁lieb▁4694
widmet▁4695
▁verstand▁4696
▁passierte▁4697
▁Freund▁4698
▁Go▁4699
▁Wort▁4700
▁Google▁4701
▁auftauchte▁4702
gab▁4703
▁tippe▁4704
▁erscheinen▁4705
I▁4706
ran▁4707
Webseite▁4708
▁83▁4709
▁Like▁4710
▁kommentier▁4711
▁Erstellen▁4712
▁wahrnimmt▁4713
Seite▁4714
▁Gedenk▁4715
▁gefallen▁4716
▁Soldaten▁4717
lei▁4718
▁Liebste▁4719
▁Terror▁4720
▁zolle▁4721
▁Respekt▁4722
▁Mitgefühl▁4723
▁reisen▁4724
▁Münch▁4725
▁Eröffnung▁4726
▁Ausstellung▁4727
▁Webseite▁4728
▁komme▁4729
▁Frankreich▁4730
▁schüttelt▁4731
▁trank▁4732
▁Unterhaltung▁4733
▁Flughafen▁4734
ion▁4735
▁Stress▁4736
▁startete▁4737
▁Kampagne▁4738
▁Nicht▁4739
▁eure▁4740
▁sterben▁4741
▁dieselbe▁4742
▁Ag▁4743
ivität▁4744
▁Erstaunliche▁4745
▁Welle▁4746
▁herkommen▁4747
leicht▁4748
▁Ron▁4749
▁Ed▁4750
ry▁4751
▁41▁4752
▁Israeli▁4753
▁Ehemann▁4754
▁unterrichte▁4755
▁Grafikdesign▁4756
▁naiv▁4757
▁Blumen▁4758
▁rüber▁4759
▁Armee▁4760
▁Fallschirm▁4761
jäger▁4762
▁mutige▁4763
▁erreichen▁4764
gänglich▁4765
▁vermeiden▁4766
▁Volk▁4767
▁Botschafter▁4768
▁helfen▁4769
▁Frieden▁4770
▁Franz▁4771
▁Se▁4772
bo▁4773
▁Charles▁4774
▁Moore▁4775
▁Plastik▁4776
▁Kapitän▁4777
gali▁4778
▁Marine▁4779
▁R▁4780
esearch▁4781
▁Foundation▁4782
▁entdeckte▁4783
▁Pacific▁4784
arbage▁4785
▁Pat▁4786
▁endlose▁4787
▁Müllhalde▁4788
▁schwimmende▁4789
▁lenkt▁4790
▁Aufmerksamkeit▁4791
▁ersticken▁4792
A▁4793
blagerung▁4794
▁Müll▁4795
▁Ethik▁4796
▁Bewahr▁4797
▁Weltwirtschaft▁4798
skrise▁4799
▁2.▁4800
▁Weltkrieg▁4801
▁Produktions▁4802
kapazität▁4803
▁Erschaffung▁4804
▁Produkten▁4805
▁Friedens▁4806
▁Life▁4807
▁Magazine▁4808
holfen▁4809
▁Einführung▁4810
▁Wegwerf▁4811
produkt▁4812
▁verkündete▁4813
▁Hausfrau▁4814
▁Mühe▁4815
wasch▁4816
▁befreien▁4817
▁gedanklich▁4818
▁Anmerkung▁4819
frei▁4820
▁Produkte▁4821
▁biologisch▁4822
▁abbaubar▁4823
produkte▁4824
▁außerdem▁4825
▁recycle▁4826
▁aufbereitet▁4827
▁bezeichnet▁4828
komm▁4829
▁Schmelz▁4830
punkt▁4831
schmelze▁4832
▁sauberer▁4833
▁Glas▁4834
▁Metall▁4835
halb▁4836
▁schmelzen▁4837
▁verliert▁4838
▁ölige▁4839
▁Bestandteile▁4840
▁Schwamm▁4841
▁gespeichert▁4842
pur▁4843
spen▁4844
▁Flüsse▁4845
▁hinunter▁4846
Creek▁4847
▁Los▁4848
▁Angeles▁4849
▁Treib▁4850
gut▁4851
▁nahe▁4852
▁California▁4853
▁State▁4854
▁Long▁4855
▁Beach▁4856
▁Entsalzung▁4857
werk▁4858
▁besucht▁4859
▁Pf▁4860
and▁4861
systems▁4862
getränk▁4863
flaschen▁4864
▁visualisiert▁4865
Teil▁4866
nehmer▁4867
▁Jordan▁4868
konsum▁4869
▁kunstvoll▁4870
▁detailliert▁4871
▁dokumentiert▁4872
▁Flaschen▁4873
▁abgelegene▁4874
▁Insel▁4875
▁Küste▁4876
▁Nieder▁4877
ali▁4878
for▁4879
▁Ro▁4880
ohn▁4881
▁Vogel▁4882
kolonie▁4883
▁kau▁4884
▁beachten▁4885
kappen▁4886
▁besitzen▁4887
▁Poly▁4888
ep▁4889
hal▁4890
▁Salzwasser▁4891
▁versink▁4892
▁Zivilisation▁4893
nähe▁4894
▁auftauchen▁4895
schlüsse▁4896
▁Fabrik▁4897
▁hergestellt▁4898
pro▁4899
▁schwimmen▁4900
▁unglücklich▁4901
vorschrift▁4902
▁nachvollzieh▁4903
▁Flasche▁4904
▁treiben▁4905
▁kalifornische▁4906
▁Strömung▁4907
▁Süden▁4908
▁Ca▁4909
▁Luca▁4910
▁Eastern▁4911
▁Philippine▁4912
▁verschmutzen▁4913
▁beginnend▁4914
▁Ansammlung▁4915
▁Verschm▁4916
utzung▁4917
▁Nord▁4918
pa▁4919
wirbel▁4920
lbatross▁4921
▁Ku▁4922
▁Mid▁4923
way▁4924
Inseln▁4925
▁Northwest▁4926
▁Hawaiian▁4927
▁Islands▁4928
▁National▁4929
▁Monument▁4930
▁fütter▁4931
▁alte▁4932
▁Junge▁4933
▁Magen▁4934
inhalt▁4935
groß▁4936
zeug▁4937
▁verwechsel▁4938
reibt▁4939
▁Ringe▁4940
▁Konsequenzen▁4941
▁Heim▁4942
▁Orleans▁4943
▁inwie▁4944
weit▁4945
▁Heimat▁4946
stadt▁4947
▁daher▁4948
ub▁4949
insel▁4950
▁östlich▁4951
▁säuber▁4952
▁weite▁4953
▁bot▁4954
▁Cent▁4955
▁Lieferant▁4956
00▁4957
▁investieren▁4958
▁Aktion▁4959
▁kostete▁4960
▁sort▁4961
▁Earth▁4962
▁Day▁4963
llo▁4964
▁Aquarium▁4965
▁Pedr▁4966
▁Schau▁4967
▁Gouverneur▁4968
▁Schwarzen▁4969
gger▁4970
▁Maria▁4971
▁Gespräch▁4972
▁feminine▁4973
▁Hut▁4974
▁Plastiktüte▁4975
kel▁4976
schüttelt▁4977
▁zeigte▁4978
▁Zo▁4979
oplankton▁4980
chle▁4981
ppnet▁4982
▁Wirbel▁4983
▁Hawaii▁4984
▁Plankton▁4985
▁filter▁4986
suppe▁4987
▁1,6▁4988
zieht▁4989
▁entstehen▁4990
▁Proben▁4991
▁Strände▁4992
gespült▁4993
▁Ka▁4994
ua▁4995
▁Präsident▁4996
▁zog▁4997
Fragmente▁4998
▁Millimeter▁4999
meter▁5000
Stück▁5001
▁Schadstoffe▁5002
▁Konzentration▁5003
▁umgebende▁5004
▁häufigste▁5005
▁vorkommen▁5006
▁Nahrungskette▁5007
▁giftige▁5008
▁Pillen▁5009
▁sezier▁5010
▁verschmutzte▁5011
▁Rekord▁5012
▁c▁5013
▁84▁5014
▁winzige▁5015
▁zertifizierte▁5016
▁Obst▁5017
▁Gemüse▁5018
händler▁5019
▁Wildnis▁5020
▁verkaufen▁5021
▁Erbe▁5022
▁zukünftige▁5023
▁hinterlasse▁5024
gesellschaft▁5025
ämmt▁5026
lagern▁5027
▁erhalten▁5028
▁Marktwirtschaft▁5029
▁zerstört▁5030
▁Pferde▁5031
sammeln▁5032
egel▁5033
▁Verpackung▁5034
▁Sprecher▁5035
▁sauber▁5036
nseits▁5037
▁jedwede▁5038
▁Budget▁5039
▁unvorhersehbar▁5040
▁Meereslebe▁5041
wesen▁5042
▁getötet▁5043
▁stoppen▁5044
▁Meere▁5045
last▁5046
▁Brian▁5047
one▁5048
▁Night▁5049
▁Kalifornien▁5050
▁Carol▁5051
▁Steel▁5052
▁Städte▁5053
▁Mahlzeiten▁5054
▁serviert▁5055
▁Architekt▁5056
▁tägliche▁5057
▁ernährt▁5058
▁Nahrungs▁5059
beschaffung▁5060
▁moderne▁5061
▁gestellt▁5062
▁Restaurant▁5063
oyer▁5064
▁Nichts▁5065
▁täglich▁5066
▁transportiert▁5067
▁gekauft▁5068
▁verkauft▁5069
▁gekocht▁5070
▁entsorg▁5071
▁vergleichbar▁5072
▁Natürlich▁5073
▁abhängig▁5074
▁Vorfahre▁5075
▁umso▁5076
räume▁5077
▁außerordentlich▁5078
▁Soja▁5079
Feld▁5080
▁Gross▁5081
▁Brasilien▁5082
▁ernähre▁5083
▁zunehmende▁5084
▁Maße▁5085
▁dienen▁5086
erzeugung▁5087
▁Fleisch▁5088
▁jährlich▁5089
▁Getreide▁5090
produktion▁5091
futter▁5092
▁dreimal▁5093
▁tierische▁5094
▁Ursprung▁5095
▁effizienter▁5096
50▁5097
schätz▁5098
ungsweise▁5099
▁Städten▁5100
▁geschätzt▁5101
▁Milch▁5102
▁konsumiert▁5103
▁Urban▁5104
▁gewaltige▁5105
▁hungrig▁5106
▁Fleischfresser▁5107
unwahrscheinlich▁5108
▁19▁5109
▁Hektar▁5110
▁Reg▁5111
wald▁5112
bau▁5113
fähige▁5114
flächen▁5115
▁Anbau▁5116
fläche▁5117
▁Erosion▁5118
▁fossil▁5119
▁Brennstoffe▁5120
▁Kalorien▁5121
▁benötigt▁5122
▁Kal▁5123
ori▁5124
▁Westen▁5125
▁konsumieren▁5126
▁Lebensmittel▁5127
▁wegge▁5128
schmiss▁5129
▁ordentlich▁5130
▁fettleibig▁5131
▁hunger▁5132
▁multinational▁5133
orporation▁5134
▁düstere▁5135
▁Ernährung▁5136
▁blicken▁5137
soweit▁5138
▁Antwort▁5139
▁Frucht▁5140
bar▁5141
mond▁5142
▁fruchtbar▁5143
▁Erfindungen▁5144
▁Landwirtschaft▁5145
▁gehören▁5146
▁Nahrungsquelle▁5147
▁dauerhafte▁5148
▁Siedlung▁5149
▁aussah▁5150
▁kompakt▁5151
▁umgeben▁5152
▁Tempel▁5153
anlagen▁5154
▁Ur▁5155
▁zentral▁5156
distribution▁5157
zentr▁5158
▁Ernte▁5159
gesammelt▁5160
▁Götter▁5161
▁Rest▁5162
▁verteilen▁5163
grundlage▁5164
▁Rom▁5165
▁Jahrhundert▁5166
▁nenne▁5167
▁antike▁5168
wege▁5169
▁Strassen▁5170
transportieren▁5171
▁Kriege▁5172
gypten▁5173
quelle▁5174
▁Erweiterung▁5175
▁Reiche▁5176
▁gezogen▁5177
▁militärische▁5178
▁Shopping▁5179
wu▁5180
▁erwähnen▁5181
▁Zeitpunkt▁5182
▁Austern▁5183
▁Britanni▁5184
▁Hinter▁5185
▁Appeti▁5186
▁inter▁5187
industrielle▁5188
▁17.▁5189
▁Themse▁5190
ap▁5191
side▁5192
markt▁5193
namen▁5194
▁ansieh▁5195
read▁5196
▁Street▁5197
gespielt▁5198
▁Fluss▁5199
▁bekannteste▁5200
▁existierte▁5201
▁bedenken▁5202
iegel▁5203
▁stink▁5204
▁Hafen▁5205
geschlagen▁5206
▁betreten▁5207
▁Nordwest▁5208
▁Schott▁5209
▁Wales▁5210
field▁5211
flügel▁5212
▁Ost▁5213
li▁5214
▁Nordost▁5215
▁fühle▁5216
vorhersage▁5217
fe▁5218
tzen▁5219
▁gebunden▁5220
▁Erreichen▁5221
▁Verkauf▁5222
ult▁5223
▁heisst▁5224
▁beliebige▁5225
zeitalter▁5226
▁Spuren▁5227
guckt▁5228
▁Hinweise▁5229
▁Friday▁5230
▁Freitag▁5231
▁Plätze▁5232
30▁5233
▁Sonntag▁5234
essen▁5235
▁ausgehen▁5236
▁mu▁5237
Stadt▁5238
▁biologische▁5239
▁Kreislauf▁5240
▁änderte▁5241
▁Western▁5242
▁Eisenbahn▁5243
40▁5244
▁Zug▁5245
reisende▁5246
▁Schweine▁5247
▁Markt▁5248
▁sichtbare▁5249
geschlachtet▁5250
▁geografische▁5251
org▁5252
▁Abhängigkeit▁5253
▁befreit▁5254
Karte▁5255
nähern▁5256
▁Kle▁5257
▁Schla▁5258
masse▁5259
▁Autos▁5260
▁endgültige▁5261
▁Bruch▁5262
▁Gerüche▁5263
▁fuhr▁5264
rand▁5265
▁wunderte▁5266
▁Perip▁5267
▁Nahrungsmittel▁5268
▁Ereignis▁5269
▁kocht▁5270
▁hinzu▁5271
▁Ei▁5272
▁Kuchen▁5273
▁back▁5274
▁riechen▁5275
▁prüfen▁5276
▁Etikett▁5277
▁Rückseite▁5278
▁fürchte▁5279
me▁5280
▁modern▁5281
Ernährungssystem▁5282
▁einfacher▁5283
▁bauen▁5284
▁aufrecht▁5285
▁500▁5286
▁More▁5287
▁Titelbild▁5288
▁Utopia▁5289
▁Anzahl▁5290
▁halb▁5291
unabhängig▁5292
staaten▁5293
▁Garten▁5294
▁gemeinsam▁5295
▁teilnahm▁5296
▁argumentiere▁5297
▁fundamentale▁5298
▁Ord▁5299
ug▁5300
prinzip▁5301
▁formuliert▁5302
▁berühmte▁5303
zer▁5304
▁urbane▁5305
▁Flächen▁5306
bare▁5307
▁darstellt▁5308
▁Utopie▁5309
▁utopisch▁5310
▁nutzte▁5311
▁absichtlich▁5312
▁Scherz▁5313
deutung▁5314
▁Ideal▁5315
rahmen▁5316
▁tiefgründige▁5317
▁hilf▁5318
▁Alternative▁5319
▁Si▁5320
topia▁5321
ltgriechisch▁5322
▁sit▁5323
po▁5324
▁mächtige▁5325
▁konzeptionell▁5326
werkzeug▁5327
▁Folie▁5328
▁Hunde▁5329
blick▁5330
▁gefeiert▁5331
▁Szenen▁5332
▁Männer▁5333
ausdenken▁5334
▁planen▁5335
▁benenn▁5336
▁ausgesucht▁5337
▁kauft▁5338
▁Netzwerke▁5339
▁Märkte▁5340
▁regional▁5341
gebaut▁5342
▁lokal▁5343
Nullsummen▁5344
are▁5345
▁dunkle▁5346
▁Loch▁5347
▁Kühe▁5348
▁Aussicht▁5349
▁Dampf▁5350
▁Hum▁5351
projekt▁5352
ronto▁5353
Gewächshaus▁5354
▁Pflanze▁5355
▁Kev▁5356
▁Projekte▁5357
▁wiederherstell▁5358
▁immens▁5359
etrachtungsweise▁5360
schliessen▁5361
produktiv▁5362
▁produktiv▁5363
▁zwang▁5364
släufig▁5365
▁symbio▁5366
▁herstellen▁5367
kultur▁5368
shalb▁5369
▁Re▁5370
konzept▁5371
▁650▁5372
jahre▁5373
▁Am▁5374
ogi▁5375
Lorenz▁5376
etti▁5377
▁Guten▁5378
▁Verhältnis▁5379
▁kümmert▁5380
▁Alle▁5381
▁dringend▁5382
▁beantworten▁5383
di▁5384
▁Reader▁5385
▁Kit▁5386
ly▁5387
▁Hill▁5388
macher▁5389
▁verlorene▁5390
▁Piano▁5391
▁Dolby▁5392
▁Lied▁5393
▁jene▁5394
▁Martin▁5395
▁Evan▁5396
▁Bo▁5397
▁He▁5398
ine▁5399
▁Einladung▁5400
▁Vergnügen▁5401
▁richtet▁5402
irstream▁5403
reichen▁5404
▁2002▁5405
▁Designer▁5406
▁amerikanische▁5407
▁Wohnwagen▁5408
▁Wilson▁5409
▁International▁5410
▁Kunststoff▁5411
La▁5412
▁Mess▁5413
▁zeitgenössische▁5414
▁Möbel▁5415
ork▁5416
▁Transportmittel▁5417
design▁5418
Inneneinrichtung▁5419
▁entschieden▁5420
kern▁5421
▁Look▁5422
▁Werkstatt▁5423
erkeley▁5424
▁Perspektive▁5425
▁ideal▁5426
▁optimiere▁5427
▁entschied▁5428
▁recherchiere▁5429
▁Verlauf▁5430
▁schief▁5431
▁herausfand▁5432
▁Trennung▁5433
▁äußere▁5434
▁Hülle▁5435
▁ursprünglich▁5436
gewicht▁5437
ige▁5438
▁futurist▁5439
technolog▁5440
▁konzipiert▁5441
▁Schnell▁5442
straße▁5443
brau▁5444
▁altmodisch▁5445
▁Berg▁5446
hütte▁5447
▁bezogen▁5448
▁Krise▁5449
▁Wortschatz▁5450
▁Reisen▁5451
▁Modern▁5452
▁handelte▁5453
▁übereinstimmt▁5454
▁Archäologi▁5455
▁betreiben▁5456
▁authentisch▁5457
▁Nutzen▁5458
ola▁5459
▁Aluminium▁5460
hülle▁5461
▁Lei▁5462
▁zeichnete▁5463
tzt▁5464
▁Karton▁5465
▁baute▁5466
▁Hauptziel▁5467
ät▁5468
▁Mobilität▁5469
▁Schwierigkeit▁5470
▁entwirf▁5471
▁logisch▁5472
▁aufgrund▁5473
laufen▁5474
▁Dach▁5475
▁erschwert▁5476
▁hervorzu▁5477
▁Dimensionen▁5478
▁bo▁5479
vig▁5480
▁Panel▁5481
▁gebogen▁5482
▁verlaufen▁5483
▁entwickelte▁5484
▁Haut▁5485
▁gleitet▁5486
▁lenken▁5487
▁Geometrie▁5488
▁wahrnehme▁5489
▁Gehäuse▁5490
▁unterbrechen▁5491
▁Strom▁5492
kabel▁5493
▁elektrische▁5494
▁fertiggestellt▁5495
▁Auftrag▁5496
▁Block▁5497
Design▁5498
▁Oktober▁5499
uo▁5500
▁Kur▁5501
aki▁5502
firma▁5503
▁verschick▁5504
▁funktionsfähig▁5505
▁Nummer▁5506
▁unbeschriebene▁5507
▁wolle▁5508
▁entwarf▁5509
▁Fantasie▁5510
zenario▁5511
▁DJ▁5512
▁reist▁5513
▁Platten▁5514
▁sammeln▁5515
▁Tour▁5516
spieler▁5517
▁Misch▁5518
pul▁5519
▁Sound▁5520
▁Couch▁5521
willig▁5522
flossen▁5523
▁Skateboard▁5524
▁Surfer▁5525
▁Bergsteiger▁5526
▁Innen▁5527
usstattung▁5528
▁Bau▁5529
prozess▁5530
▁Bambi▁5531
▁genannt▁5532
▁endlich▁5533
▁oh▁5534
▁Werkzeuge▁5535
▁Einrichtung▁5536
ließ▁5537
▁Dilemma▁5538
▁vorhanden▁5539
▁genommen▁5540
▁hand▁5541
gemacht▁5542
arbeiten▁5543
▁einzigartig▁5544
pass▁5545
schneiden▁5546
kasten▁5547
▁16.▁5548
▁Elli▁5549
▁Kran▁5550
▁Geheimnis▁5551
▁Symptome▁5552
▁Nervensystem▁5553
▁Signal▁5554
chleifen▁5555
▁Krankheit▁5556
▁brach▁5557
▁Fakten▁5558
arzt▁5559
thesis▁5560
▁Lebensunterhalt▁5561
schlafen▁5562
▁Akademiker▁5563
▁schläf▁5564
▁Zuhörer▁5565
sonst▁5566
▁Management▁5567
▁Service▁5568
Packard▁5569
▁Klinik▁5570
▁Stanford▁5571
▁Palo▁5572
▁Alto▁5573
▁Morgen▁5574
▁Symptom▁5575
▁Tumor▁5576
▁Infektion▁5577
▁Entzündung▁5578
▁Operation▁5579
▁Ereignisse▁5580
▁erholt▁5581
▁dagegen▁5582
▁Feder▁5583
▁Schlimme▁5584
▁Ihres▁5585
▁Kindes▁5586
▁Brenn▁5587
▁Patientin▁5588
▁Chandler▁5589
▁erlebte▁5590
▁Foto▁5591
▁schöne▁5592
▁16▁5593
▁lernte▁5594
▁strebt▁5595
train▁5596
▁fiel▁5597
▁ausgestreckt▁5598
taucht▁5599
▁unbedeutend▁5600
bu▁5601
prof▁5602
auch▁5603
färb▁5604
▁lila▁5605
▁Ber▁5606
ühr▁5607
▁Leiche▁5608
▁erstarr▁5609
▁gelähmt▁5610
ston▁5611
▁Fingerspitzen▁5612
▁Ellenbogen▁5613
▁ausge▁5614
breitet▁5615
▁Schlimmste▁5616
▁24▁5617
▁All▁5618
od▁5619
nia▁5620
▁leichteste▁5621
rmel▁5622
▁Stoffe▁5623
zog▁5624
▁brennende▁5625
▁harmlos▁5626
▁grausam▁5627
dra▁5628
▁Kabel▁5629
▁Lichtschalter▁5630
▁Decke▁5631
▁Glühbirne▁5632
▁Schalter▁5633
schalten▁5634
▁Hammer▁5635
▁schlagen▁5636
▁Information▁5637
▁Rückenmark▁5638
bewußt▁5639
▁komplizierter▁5640
▁Nerv▁5641
▁verbindet▁5642
▁braune▁5643
▁Päckchen▁5644
Neurotransmitter▁5645
▁linear▁5646
gibt▁5647
▁horizontal▁5648
▁vertikal▁5649
▁rauf▁5650
▁benachbarte▁5651
▁Zellen▁5652
zellen▁5653
▁unwichtig▁5654
elemente▁5655
▁entscheidende▁5656
▁Regulierung▁5657
▁Falle▁5658
fälsch▁5659
▁Sinneseindrücke▁5660
▁aktiviert▁5661
▁DNS▁5662
▁fäng▁5663
▁Proteine▁5664
schüttet▁5665
▁angrenzende▁5666
▁interagieren▁5667
c▁5668
▁aktivier▁5669
▁Feedback▁5670
▁Schleife▁5671
▁verlegt▁5672
▁Toiletten▁5673
spül▁5674
▁Tür▁5675
▁Geschirr▁5676
bildschirm▁5677
▁ausgeschalte▁5678
lastizität▁5679
▁Reaktion▁5680
▁Stimul▁5681
anz▁5682
▁symptom▁5683
verändernde▁5684
▁Medikamenten▁5685
▁Schmerzmittel▁5686
▁offen▁5687
▁effektiv▁5688
▁ruhig▁5689
▁lokale▁5690
sthetik▁5691
▁rigoros▁5692
▁Therapie▁5693
▁alltägliche▁5694
▁intensive▁5695
▁psychotherap▁5696
▁Programm▁5697
▁Mut▁5698
losigkeit▁5699
▁Verzweiflung▁5700
▁Rück▁5701
war▁5702
to▁5703
▁Mittag▁5704
▁College▁5705
student▁5706
▁absolut▁5707
▁rosig▁5708
▁prophet▁5709
▁George▁5710
▁Carl▁5711
▁Mein▁5712
▁Kris▁5713
j▁5714
▁Gesetze▁5715
▁Hohe▁5716
▁geschützt▁5717
▁Welten▁5718
▁Rechts▁5719
experte▁5720
▁kluge▁5721
gestaltung▁5722
▁gesunde▁5723
▁Portion▁5724
▁PR▁5725
zen▁5726
appung▁5727
▁schützen▁5728
▁dunkel▁5729
▁Monde▁5730
▁Mythen▁5731
▁Leg▁5732
▁Hier▁5733
▁Monster▁5734
▁wunder▁5735
▁fremd▁5736
▁mon▁5737
▁beneide▁5738
IUC▁5739
N▁5740
amount▁5741
▁Madagas▁5742
car▁5743
▁fotografiere▁5744
▁juristische▁5745
tiefe▁5746
▁4.000▁5747
▁theoretisch▁5748
▁Allgemeingut▁5749
▁bewirtschafte▁5750
▁Resourcen▁5751
uten▁5752
▁Betroffene▁5753
▁Dunkel▁5754
gemäß▁5755
klären▁5756
▁besonderen▁5757
▁umfassende▁5758
▁Schutz▁5759
becken▁5760
bett▁5761
▁Norm▁5762
▁Vorsorge▁5763
▁beängstigend▁5764
zweifeln▁5765
▁Kohlenstoff▁5766
speicher▁5767
▁liefer▁5768
▁36▁5769
▁angehen▁5770
▁derzeitige▁5771
▁internationale▁5772
▁Schiff▁5773
▁vorrangig▁5774
▁glaubt▁5775
▁erledige▁5776
▁Schiffe▁5777
▁dürfe▁5778
teppich▁5779
▁Texas▁5780
dünn▁5781
▁nachweis▁5782
forscher▁5783
konom▁5784
▁Eli▁5785
▁Ostro▁5786
▁untersuchen▁5787
▁Gemein▁5788
▁verwaltet▁5789
▁Verwaltung▁5790
▁Beteiligte▁5791
▁bedingt▁5792
▁Andere▁5793
▁effektive▁5794
berprüfung▁5795
chtsdurchsetzung▁5796
▁Vertrauen▁5797
▁notwendig▁5798
▁längst▁5799
▁Umweltschützer▁5800
▁Fotografen▁5801
▁tragische▁5802
▁Szenario▁5803
▁abzuwenden▁5804
▁fragile▁5805
landschaft▁5806
▁Korallen▁5807
garten▁5808
▁droht▁5809
▁Vernichtung▁5810
fischerei▁5811
▁retten▁5812
▁Geschehen▁5813
▁fotografiert▁5814
▁Keller▁5815
▁Vereinte▁5816
▁Nationen▁5817
▁verbracht▁5818
▁Regierungen▁5819
zumachen▁5820
▁Festland▁5821
▁Regelung▁5822
▁Fischer▁5823
netze▁5824
▁frühzeitig▁5825
▁Fest▁5826
legung▁5827
▁Route▁5828
▁erfordert▁5829
▁sowie▁5830
▁Verpflichtung▁5831
▁Schäde▁5832
▁vorzubeugen▁5833
▁Fortschritte▁5834
▁überprüft▁5835
uadratkilometer▁5836
▁regiert▁5837
▁Sylvia▁5838
▁Wunsch▁5839
schub▁5840
▁Herzen▁5841
zusag▁5842
▁ho▁5843
ffentlich▁5844
schildkröte▁5845
reisen▁5846
▁Eindruck▁5847
▁Reich▁5848
▁Sargasso▁5849
See▁5850
▁Küsten▁5851
▁begrenzt▁5852
strömung▁5853
▁Fülle▁5854
▁Algen▁5855
ball▁5856
gebiet▁5857
▁nor▁5858
europäisch▁5859
▁no▁5860
rdamerikanische▁5861
▁Zahl▁5862
▁Stock▁5863
holm▁5864
getaucht▁5865
argassum▁5866
▁Februar▁5867
▁200.000▁5868
▁heranwachsen▁5869
▁beeinträchtige▁5870
▁wundersame▁5871
▁einzigartige▁5872
Leben▁5873
▁Initiative▁5874
▁Bermuda▁5875
bedarf▁5876
▁erkannt▁5877
▁Territorium▁5878
▁außerhalb▁5879
wirkt▁5880
▁kühler▁5881
▁Süd▁5882
▁Kontinent▁5883
▁territor▁5884
ial▁5885
▁Ansprüche▁5886
▁Packeis▁5887
▁Frühling▁5888
▁Sommer▁5889
▁Ph▁5890
▁Krill▁5891
nährt▁5892
▁nahezu▁5893
▁intakt▁5894
küste▁5895
nah▁5896
▁CA▁5897
LA▁5898
▁regionale▁5899
▁Ausschuss▁5900
▁Fischbestände▁5901
ressourcen▁5902
▁zuständig▁5903
▁leider▁5904
▁Fischerei▁5905
In▁5906
▁nachzu▁5907
▁dortige▁5908
▁Zahn▁5909
fisch▁5910
F▁5911
▁zugelassen▁5912
ländische▁5913
▁bedeutende▁5914
▁Verk▁5915
▁Bestände▁5916
▁Killer▁5917
wal▁5918
ntarktische▁5919
squelle▁5920
▁beanspruch▁5921
▁Hochsee▁5922
▁sperr▁5923
▁Fischen▁5924
▁Cost▁5925
▁Rica▁5926
▁Dome▁5927
▁Blauwal▁5928
▁Winter▁5929
▁ungewöhnlich▁5930
▁o▁5931
ografische▁5932
▁Jahreszeit▁5933
▁verschieb▁5934
▁permanent▁5935
▁Aus▁5936
▁Wirtschafts▁5937
zone▁5938
amerikanische▁5939
▁wandern▁5940
▁or▁5941
▁verletzlich▁5942
▁Galapagos▁5943
▁Tropic▁5944
▁Sea▁5945
▁Conservati▁5946
▁koordiniert▁5947
▁schützt▁5948
stätte▁5949
▁erkennt▁5950
einkommen▁5951
▁national▁5952
▁Territori▁5953
▁käme▁5954
▁vorgeschlagen▁5955
▁universelle▁5956
Welt▁5957
▁süd▁5958
hak▁5959
▁Beifang▁5960
▁enden▁5961
▁vorschlage▁5962
übergreifend▁5963
▁angelegt▁5964
▁pazifische▁5965
▁Raub▁5966
fische▁5967
ensus▁5968
▁winzigkleine▁5969
▁Sturm▁5970
taucher▁5971
▁zuhause▁5972
▁km▁5973
▁Schätz▁5974
▁gestartet▁5975
▁gespannt▁5976
▁untersucht▁5977
gur▁5978
tun▁5979
▁Politiker▁5980
bereiten▁5981
▁Unterstützung▁5982
▁Workshop▁5983
▁erläutert▁5984
▁Hoffnungsfleck▁5985
▁voranzu▁5986
treiben▁5987
wenden▁5988
gebiete▁5989
▁vernünftige▁5990
▁eingeführt▁5991
▁Weltraum▁5992
▁verfolgen▁5993
▁Lebensdauer▁5994
fahrzeuge▁5995
▁markieren▁5996
▁Trans▁5997
▁anordne▁5998
▁Privileg▁5999
▁zentrale▁6000
▁Tragödie▁6001
▁Kollision▁6002
kurs▁6003
▁umgehen▁6004
▁Paradigma▁6005
▁Vorsicht▁6006
Wunsch▁6007
▁Spot▁6008
light▁6009
▁Tisch▁6010
▁dritten▁6011
weite▁6012
ulation▁6013
▁Veranlagung▁6014
▁regulieren▁6015
ssysteme▁6016
▁Kapazität▁6017
▁erweitern▁6018
gle▁6019
interesse▁6020
sprechen▁6021
▁Earle▁6022
▁talentierte▁6023
▁durchdringen▁6024
▁Nutzung▁6025
▁hoffe▁6026
▁Bruc▁6027
▁Ayl▁6028
ward▁6029
▁Polio▁6030
▁endgültig▁6031
▁Stillstand▁6032
▁beinahe▁6033
▁ausgerottet▁6034
▁breitet▁6035
▁Plan▁6036
▁fortzu▁6037
stoppt▁6038
gelöscht▁6039
mpfstoff▁6040
▁grossartig▁6041
▁grossartige▁6042
▁allgemeine▁6043
▁Panik▁6044
▁hervor▁6045
rief▁6046
▁Szene▁6047
▁eiserne▁6048
▁Lunge▁6049
▁gesund▁6050
▁atmen▁6051
virus▁6052
▁Atem▁6053
mus▁6054
kul▁6055
▁atmet▁6056
▁entsetzlich▁6057
▁Heilung▁6058
▁Impfstoff▁6059
ussergewöhnliche▁6060
▁Mass▁6061
nahme▁6062
▁einführte▁6063
▁zwanzig▁6064
▁gelungen▁6065
ju▁6066
bel▁6067
▁1950▁6068
▁stoppt▁6069
▁Monat▁6070
▁Jon▁6071
▁Pocken▁6072
▁oops▁6073
▁geblieben▁6074
/▁6075
▁Partnerschaft▁6076
▁unbekannt▁6077
rotten▁6078
▁herunter▁6079
▁Schock▁6080
▁realisierte▁6081
▁auftrat▁6082
liegende▁6083
▁Glob▁6084
▁schreckliche▁6085
▁Ausbrüche▁6086
Sequenzierung▁6087
vi▁6088
▁Viren▁6089
▁stammt▁6090
▁Meilen▁6091
▁via▁6092
▁Verkehrs▁6093
flugzeuge▁6094
▁Russland▁6095
ppel▁6096
▁zügig▁6097
▁vernichten▁6098
▁explosive▁6099
▁Dekade▁6100
Ausrottung▁6101
yelit▁6102
ship▁6103
feuer▁6104
▁entzünde▁6105
▁erstickt▁6106
▁polio▁6107
freie▁6108
▁Risse▁6109
▁Panzer▁6110
▁überlebt▁6111
▁Impfstoffe▁6112
eben▁6113
löschen▁6114
sprogramm▁6115
▁kill▁6116
ilanz▁6117
▁Risikokapital▁6118
▁Risik▁6119
▁gewaltig▁6120
▁Lohn▁6121
▁wirtschaftlich▁6122
▁motivation▁6123
▁riesig▁6124
▁Kongress▁6125
abgeordnete▁6126
▁Investition▁6127
▁gesteckt▁6128
▁26▁6129
bezahlt▁6130
▁vorherige▁6131
skosten▁6132
▁Impf▁6133
kosten▁6134
▁beenden▁6135
▁ärmste▁6136
▁sparen▁6137
▁Einsätze▁6138
streben▁6139
▁vielfach▁6140
▁härter▁6141
▁begonne▁6142
▁soviele▁6143
impfung▁6144
▁Dosi▁6145
lang▁6146
▁Tropen▁6147
oni▁6148
tor▁6149
▁Ampulle▁6150
▁angezeigt▁6151
▁zuviel▁6152
▁Hitze▁6153
▁ausgesetzt▁6154
▁potent▁6155
▁Dosen▁6156
sichtlich▁6157
▁verräterische▁6158
impfen▁6159
rennen▁6160
▁Mehrheit▁6161
▁infolge▁6162
▁Vorgehensweise▁6163
teils▁6164
▁ko▁6165
oper▁6166
zeiten▁6167
▁Höhepunkt▁6168
Impfstoff▁6169
▁verabreich▁6170
▁Tropf▁6171
ärzte▁6172
▁Freiwilligen▁6173
opfüber▁6174
▁härteste▁6175
▁städtische▁6176
▁Elendsviertel▁6177
▁eintauchen▁6178
▁glühend▁6179
▁heisse▁6180
▁marschier▁6181
▁abgelegen▁6182
▁erreichbar▁6183
▁Kugeln▁6184
weichen▁6185
▁wackelig▁6186
▁Waffen▁6187
still▁6188
operieren▁6189
▁Reporter▁6190
▁Somalia▁6191
▁sass▁6192
erhalb▁6193
▁Strasse▁6194
Kampagne▁6195
▁ausbreitet▁6196
▁heldenhafte▁6197
ntwicklungshilfe▁6198
▁Helden▁6199
▁Hintergründe▁6200
aussergewöhnlich▁6201
▁Rot▁6202
ary▁6203
star▁6204
▁Infrastruktur▁6205
▁aufzubauen▁6206
▁dauern▁6207
▁Resultate▁6208
▁Ausnahme▁6209
▁betraf▁6210
▁199▁6211
barkeit▁6212
wei▁6213
▁Stand▁6214
▁99▁6215
▁Reduktion▁6216
▁1▁6217
▁pandemische▁6218
▁Grippe▁6219
▁SARS▁6220
▁Vitamin▁6221
▁Malaria▁6222
▁zustande▁6223
▁zwingen▁6224
▁verletzt▁6225
lichste▁6226
▁element▁6227
▁unabhängig▁6228
ographie▁6229
▁spannend▁6230
hren▁6231
▁Hoch▁6232
▁scheinbar▁6233
breite▁6234
▁Norden▁6235
▁Indiens▁6236
▁Nigeria▁6237
▁Afrikas▁6238
brücke▁6239
▁bewirken▁6240
▁Jahrzehnte▁6241
▁hartnäckig▁6242
▁zäh▁6243
▁Reservoir▁6244
▁funktionierte▁6245
▁Frustration▁6246
▁Gesundheits▁6247
▁verführerisch▁6248
▁falsche▁6249
▁anfällig▁6250
▁Schluck▁6251
▁Umar▁6252
▁wohnt▁6253
▁Brüder▁6254
▁rechte▁6255
▁Bein▁6256
▁lahm▁6257
▁Schläge▁6258
wegs▁6259
▁Krücke▁6260
zeugnis▁6261
▁perfekte▁6262
ieder▁6263
▁zieht▁6264
▁verzweifelt▁6265
▁Ersparnisse▁6266
▁vergeblich▁6267
▁verdienen▁6268
brechen▁6269
▁dahinter▁6270
▁innovative▁6271
▁verpasst▁6272
indien▁6273
▁kartografier▁6274
Satellitenbilder▁6275
betreuen▁6276
oshi▁6277
▁involviert▁6278
▁logistische▁6279
▁coole▁6280
GI▁6281
▁Track▁6282
träger▁6283
▁track▁6284
▁Ansätze▁6285
mittler▁6286
▁eng▁6287
ommittee▁6288
▁Kreuz▁6289
▁gewährleiste▁6290
zel▁6291
▁Taktik▁6292
▁überarbeitet▁6293
▁alter▁6294
▁Ware▁6295
▁getestet▁6296
typen▁6297
vis▁6298
▁9.▁6299
▁Juni▁6300
▁Versuche▁6301
▁veränderte▁6302
▁doppelte▁6303
▁lief▁6304
serie▁6305
mässig▁6306
▁herausfordert▁6307
▁Unmögliche▁6308
team▁6309
▁rasend▁6310
▁Indien▁6311
▁erneut▁6312
▁herunterlade▁6313
▁entfaltet▁6314
ettung▁6315
ttar▁6316
▁Pr▁6317
adesh▁6318
▁Bi▁6319
har▁6320
▁Hygiene▁6321
▁wirkte▁6322
▁exakt▁6323
ichte▁6324
▁Einzel▁6325
fall▁6326
▁95▁6327
▁Damen▁6328
▁Herren▁6329
▁Kombination▁6330
▁intelligent▁6331
▁intelligenter▁6332
▁machbar▁6333
▁sekundäre▁6334
währ▁6335
▁versage▁6336
▁No▁6337
plus▁6338
▁Fairness▁6339
▁Gerechtigkeit▁6340
statt▁6341
▁Kapital▁6342
▁Enthusias▁6343
▁schlaue▁6344
▁Zeiten▁6345
▁Cameron▁6346
britannien▁6347
▁Es▁6348
▁Kreuzung▁6349
ntschlossen▁6350
▁Menschheit▁6351
▁übersehen▁6352
▁verlieren▁6353
▁voraussetz▁6354
▁Gates▁6355
▁schwierigste▁6356
▁klügste▁6357
▁ba▁6358
▁aufhört▁6359
▁südlich▁6360
▁Ecke▁6361
▁Grenz▁6362
▁Pakistan▁6363
gesteckt▁6364
▁BG▁6365
▁beschaffen▁6366
▁750▁6367
▁mehrfach▁6368
ück▁6369
▁Einsparung▁6370
▁bremst▁6371
▁Tony▁6372
▁Port▁6373
▁Appell▁6374
▁TEDWomen▁6375
ort▁6376
richter▁6377
isshandlung▁6378
▁Missbrauch▁6379
▁führen▁6380
▁Brech▁6381
Kiste▁6382
▁wuchs▁6383
▁City▁6384
▁Harlem▁6385
▁Bronx▁6386
▁Mannes▁6387
▁beinhaltet▁6388
▁Zutaten▁6389
▁Zweifel▁6390
Sein▁6391
▁verdreht▁6392
▁genauer▁6393
▁analysiere▁6394
▁Männlichkeit▁6395
▁Kendal▁6396
▁Jay▁6397
▁12.▁6398
klatsch▁6399
▁peng▁6400
▁Knie▁6401
neu▁6402
heulen▁6403
▁Papa▁6404
▁zählt▁6405
▁innere▁6406
▁Stopp▁6407
uhr▁6408
▁Sätze▁6409
▁nimm▁6410
▁ertappt▁6411
▁set▁6412
▁reiß▁6413
▁rede▁6414
▁tu▁6415
▁erinnerte▁6416
▁Bruder▁6417
▁Henry▁6418
▁Beerdigung▁6419
▁Island▁6420
▁hielt▁6421
▁Toilette▁6422
weg▁6423
▁Wagen▁6424
▁Schwester▁6425
▁stieg▁6426
▁blieb▁6427
▁wusste▁6428
wüchs▁6429
▁Sohn▁6430
▁beer▁6431
▁Gegenwart▁6432
▁entschuldig▁6433
▁lo▁6434
bt▁6435
▁betrachte▁6436
▁lähmt▁6437
▁Geisel▁6438
▁zwölf▁6439
Spieler▁6440
▁Trainer▁6441
▁erwartete▁6442
▁wütend▁6443
▁Himmels▁6444
▁versetze▁6445
▁12▁6446
▁Mi▁6447
▁Innenstadt▁6448
▁Nachbar▁6449
▁Johnny▁6450
▁jüngere▁6451
▁Kerle▁6452
▁rum▁6453
▁schräg▁6454
▁Jung▁6455
kind▁6456
berdosi▁6457
▁Heroin▁6458
▁gestorben▁6459
▁Bursche▁6460
▁cool▁6461
▁Sex▁6462
spielen▁6463
▁Hey▁6464
▁Anton▁6465
▁nannte▁6466
▁Anthon▁6467
▁rannte▁6468
schnur▁6469
▁öffnete▁6470
▁Will▁6471
▁meinte▁6472
Beziehung▁6473
▁lebte▁6474
▁hieß▁6475
▁Drogen▁6476
▁Kiste▁6477
▁unmittelbar▁6478
▁Gefahr▁6479
engsten▁6480
▁lebenslange▁6481
▁Geheim▁6482
▁schlimmer▁6483
▁erwartet▁6484
▁stet▁6485
▁Pi▁6486
▁vornehm▁6487
objekt▁6488
▁hinein▁6489
▁Nachbarschaft▁6490
heila▁6491
▁nackt▁6492
▁psychisch▁6493
▁krank▁6494
▁unpassend▁6495
▁vergewaltigt▁6496
selbe▁6497
▁schließe▁6498
▁stelle▁6499
platz▁6500
▁tue▁6501
▁überlege▁6502
▁rauskomm▁6503
▁Weisheit▁6504
öffne▁6505
▁Hosen▁6506
stall▁6507
▁War▁6508
zimmer▁6509
▁Arzt▁6510
▁froh▁6511
▁merkte▁6512
gesichts▁6513
▁fühlte▁6514
▁davor▁6515
▁fallen▁6516
▁total▁6517
▁Eigentum▁6518
▁Basis▁6519
▁Grundlage▁6520
wall▁6521
behörde▁6522
▁männliche▁6523
▁Ausmaße▁6524
probleme▁6525
▁Ausland▁6526
▁vorstelle▁6527
▁festhalten▁6528
▁Stan▁6529
▁McChr▁6530
ist▁6531
▁Vier▁6532
▁Mc▁6533
▁Christ▁6534
▁Berufe▁6535
▁zuhört▁6536
▁lernt▁6537
▁Scheitern▁6538
▁Dienstagmorgen▁6539
▁absolviert▁6540
sprung▁6541
ragg▁6542
▁Trainings▁6543
▁Routine▁6544
▁27▁6545
▁Army▁6546
▁absolvier▁6547
übung▁6548
frisch▁6549
▁Kumpel▁6550
▁legs▁6551
10▁6552
▁Anordnung▁6553
▁Trag▁6554
▁sorgfältig▁6555
▁Reserve▁6556
▁Kampf▁6557
uck▁6558
ack▁6559
▁Sprung▁6560
offizie▁6561
operation▁6562
▁prüft▁6563
▁fasst▁6564
▁Brustkorb▁6565
gezogen▁6566
▁Oktave▁6567
▁geladen▁6568
▁erheb▁6569
▁Air▁6570
▁Force▁6571
▁heb▁6572
▁fl▁6573
▁Kommando▁6574
hinweis▁6575
denkst▁6576
reihe▁6577
ör▁6578
▁steh▁6579
link▁6580
zieh▁6581
▁durchläuf▁6582
▁Dienstag▁6583
▁frische▁6584
▁herein▁6585
▁leuchtet▁6586
▁springt▁6587
▁fäll▁6588
▁Wind▁6589
atten▁6590
kram▁6591
▁starren▁6592
▁Kinn▁6593
▁Brust▁6594
bei▁6595
bilder▁6596
akademi▁6597
▁Hypothese▁6598
▁Entfaltung▁6599
stoß▁6600
▁öffnet▁6601
▁bekomm▁6602
▁Kick▁6603
Unterbewusstsein▁6604
schlagen▁6605
schieben▁6606
▁land▁6607
▁abge▁6608
▁locker▁6609
▁Rucksack▁6610
▁Ablass▁6611
▁Landung▁6612
▁Wade▁6613
▁Oberschenkel▁6614
▁elegante▁6615
▁Drehung▁6616
▁knapp▁6617
springen▁6618
▁landete▁6619
melon▁6620
▁tat▁6621
▁gebrochen▁6622
▁Banker▁6623
▁Ausrüstung▁6624
einsatz▁6625
▁zurückkehren▁6626
▁Tun▁6627
▁irgendein▁6628
▁11.▁6629
etz▁6630
▁46▁6631
▁Brigade▁6632
▁gravierende▁6633
nderungen▁6634
▁vorzunehmen▁6635
▁Robert▁6636
▁Lee▁6637
▁John▁6638
▁Bu▁6639
ford▁6640
▁Schlacht▁6641
▁Getty▁6642
sburg▁6643
▁Vietnam▁6644
▁Glauben▁6645
▁klug▁6646
▁mutig▁6647
▁treu▁6648
▁lügen▁6649
▁Stich▁6650
▁Laufbahn▁6651
▁Bat▁6652
ure▁6653
▁Ba▁6654
tail▁6655
lon▁6656
▁diente▁6657
ystal▁6658
▁fand▁6659
▁29▁6660
▁40-▁6661
ometer▁6662
Ma▁6663
sche▁6664
▁zusammenge▁6665
▁Dialog▁6666
▁Ko▁6667
chef▁6668
▁Training▁6669
▁Center▁6670
rwin▁6671
bung▁6672
▁Angriff▁6673
graue▁6674
▁klassische▁6675
▁bereitet▁6676
▁hindurch▁6677
stellung▁6678
befehl▁6679
▁Einheit▁6680
▁vernichtet▁6681
▁Gegner▁6682
▁anstrengen▁6683
▁mobile▁6684
Hörsaal▁6685
▁Nach▁6686
besprechung▁6687
▁Erniedrigung▁6688
errichten▁6689
▁Da▁6690
▁etc▁6691
▁Zylinder▁6692
▁Teppich▁6693
eur▁6694
▁enttäuscht▁6695
▁entschuldige▁6696
▁Satz▁6697
▁scheitern▁6698
▁Versager▁6699
▁Chr▁6700
▁Genauigkeit▁6701
▁Bewusstsein▁6702
▁Truppe▁6703
▁Führungskräfte▁6704
▁Techniken▁6705
konferenz▁6706
▁Online▁6707
hat▁6708
Mails▁6709
▁Telefon▁6710
▁22▁6711
▁operiert▁6712
▁zig▁6713
voll▁6714
▁Zuversicht▁6715
plätze▁6716
▁koordinier▁6717
▁entstand▁6718
werten▁6719
▁heikel▁6720
eg▁6721
▁Vorgesetzte▁6722
▁überzeugen▁6723
▁elektronische▁6724
▁gescheitert▁6725
hofft▁6726
▁erneuer▁6727
gesetze▁6728
▁Anforderung▁6729
kämpfer▁6730
▁Fäuste▁6731
tech▁6732
▁bestand▁6733
▁jung▁6734
▁Man▁6735
▁Befehle▁6736
▁Konsens▁6737
▁Taliban▁6738
warf▁6739
landet▁6740
▁Einheiten▁6741
▁Ranger▁6742
öte▁6743
▁afghanische▁6744
▁Sir▁6745
▁sechsten▁6746
▁Vokabular▁6747
▁Fertigkeit▁6748
▁digitale▁6749
▁ältere▁6750
etwa▁6751
▁Umkehr▁6752
▁angewendet▁6753
skraft▁6754
▁glaubwürdig▁6755
▁anerkannt▁6756
▁brandneue▁6757
▁gezwungen▁6758
▁transparent▁6759
▁bereitwillig▁6760
▁zuzuhören▁6761
geordnet▁6762
grade▁6763
▁add▁6764
▁Akku▁6765
▁Irak▁6766
Offizier▁6767
▁verwickelt▁6768
▁Nachfrage▁6769
▁Wo▁6770
▁Gefecht▁6771
▁zusehen▁6772
▁aufeinander▁6773
▁Seh▁6774
▁zusammenhalten▁6775
▁verb▁6776
acht▁6777
trop▁6778
gelegt▁6779
▁Zeile▁6780
▁lautet▁6781
▁belanglos▁6782
▁Gedicht▁6783
brauchst▁6784
▁kraftvoll▁6785
▁Heirat▁6786
üb▁6787
▁kraftvolle▁6788
▁Zugehörigkeit▁6789
▁pflegen▁6790
▁ange▁6791
wöhn▁6792
muskel▁6793
maschine▁6794
▁Wasch▁6795
brett▁6796
▁Narben▁6797
lässt▁6798
▁verlassen▁6799
ru▁6800
▁Mur▁6801
uga▁6802
nantha▁6803
binden▁6804
Revolution▁6805
▁Einkauf▁6806
▁monatliche▁6807
▁Bedürfnisse▁6808
▁gel▁6809
ob▁6810
Forschungsarbeit▁6811
▁Geschäftsmodell▁6812
▁Ruhm▁6813
▁verdiente▁6814
back▁6815
▁Ehe▁6816
▁beeindrucken▁6817
▁hinterher▁6818
▁eklig▁6819
▁L▁6820
appen▁6821
▁trug▁6822
▁Motorrad▁6823
▁begriff▁6824
▁Maßnahme▁6825
half▁6826
▁Periode▁6827
▁verwende▁6828
▁wüsste▁6829
▁könne▁6830
▁täte▁6831
▁kürz▁6832
▁schockiert▁6833
▁Gebrauch▁6834
▁Finanz▁6835
▁Laden▁6836
▁Binde▁6837
wickeln▁6838
▁verboten▁6839
▁Kondom▁6840
▁allererste▁6841
gefasst▁6842
▁darf▁6843
▁Baumwolle▁6844
▁Penn▁6845
▁produzierte▁6846
nde▁6847
▁Bangalore▁6848
▁vorhandene▁6849
▁Opfer▁6850
▁Sh▁6851
anti▁6852
▁Diaman▁6853
▁Ring▁6854
▁Schokolade▁6855
litz▁6856
▁arrangiert▁6857
heirat▁6858
▁verweiger▁6859
▁Ehefrau▁6860
ersüchtig▁6861
▁weibliche▁6862
▁kriege▁6863
▁Medizinstudent▁6864
gesagt▁6865
▁Mond▁6866
▁setzte▁6867
▁Armstrong▁6868
zing▁6869
▁Mount▁6870
▁Everest▁6871
getragen▁6872
▁füllte▁6873
blut▁6874
flasche▁6875
▁band▁6876
▁Schlauch▁6877
hose▁6878
gedrückt▁6879
▁sodas▁6880
▁verbeuge▁6881
gne▁6882
mud▁6883
▁elend▁6884
▁Feuchtigkeit▁6885
krise▁6886
▁einschließlich▁6887
▁Scheidung▁6888
drohung▁6889
innen▁6890
▁vermutet▁6891
rumpf▁6892
karte▁6893
▁Studentin▁6894
▁ran▁6895
▁Zellulose▁6896
▁Kiefer▁6897
holz▁6898
▁teure▁6899
▁Fertigung▁6900
anlage▁6901
▁verarbeiten▁6902
▁Sackgasse▁6903
maschinen▁6904
▁Bauer▁6905
frau▁6906
▁Roh▁6907
materiali▁6908
▁Maschinen▁6909
▁Weltklasse▁6910
▁Patent▁6911
▁unver▁6912
züglich▁6913
▁ließ▁6914
▁anfäng▁6915
▁langweilig▁6916
▁angehäuft▁6917
liebe▁6918
▁ländliche▁6919
▁Verfügung▁6920
mp▁6921
▁Pflanzen▁6922
▁Säge▁6923
▁entschlossen▁6924
▁23▁6925
▁Bundesstaaten▁6926
▁eingerichtet▁6927
▁siebte▁6928
konzern▁6929
etze▁6930
▁Erstaunen▁6931
▁MBA▁6932
▁Schulabbrecher▁6933
▁Co▁6934
im▁6935
ator▁6936
▁Gast▁6937
professor▁6938
dozen▁6939
IM▁6940
▁Warum▁6941
▁kostengünstige▁6942
▁Selbsthilfe▁6943
gruppen▁6944
▁Pu▁6945
▁Gigant▁6946
▁Harvard▁6947
▁Oxford▁6948
▁600▁6949
▁100-▁6950
Pro▁6951
Mo▁6952
▁verdammt▁6953
hafte▁6954
▁Job▁6955
▁Mahal▁6956
ak▁6957
shmi▁6958
rannt▁6959
▁Hosentasche▁6960
▁vordere▁6961
Bewegung▁6962
▁open▁6963
▁software▁6964
▁unge▁6965
▁gebildet▁6966
eten▁6967
▁Tschü▁6968
▁Clar▁6969
ow▁6970
ki▁6971
manda▁6972
ennett▁6973
▁China▁6974
▁Pek▁6975
▁Party▁6976
▁saß▁6977
kräftig▁6978
▁Nick▁6979
brille▁6980
▁Fliege▁6981
▁Fulbright▁6982
ip▁6983
rus▁6984
▁erforschen▁6985
▁Geschenk▁6986
▁eifrig▁6987
kor▁6988
nden▁6989
tin▁6990
▁horch▁6991
▁Notizen▁6992
▁erfuhr▁6993
▁chinesische▁6994
▁Vertreter▁6995
▁Sojabohnen▁6996
ozi▁6997
▁verstehe▁6998
▁hättest▁6999
Geschäft▁7000
uft▁7001
feuert▁7002
▁heirate▁7003
erence▁7004
▁Br▁7005
▁Fo▁7006
▁studierte▁7007
▁Chinesisch▁7008
lizenz▁7009
fahr▁7010
kü▁7011
▁Di▁7012
xi▁7013
▁bereist▁7014
▁Beruf▁7015
▁Diagnose▁7016
▁Krebs▁7017
▁bekamen▁7018
▁clever▁7019
▁tap▁7020
▁bewahren▁7021
▁Chirurg▁7022
▁Chirurgen▁7023
▁Pathologe▁7024
▁Nieren▁7025
krebs▁7026
▁ansah▁7027
▁seltene▁7028
▁äußerst▁7029
▁aggressive▁7030
folge▁7031
▁Mysteri▁7032
▁trainiert▁7033
▁Baseball▁7034
▁baut▁7035
grab▁7036
▁Spezialist▁7037
▁suche▁7038
▁Heilmethode▁7039
▁Todesurteil▁7040
smal▁7041
smethode▁7042
▁aggressiv▁7043
reicht▁7044
▁Italien▁7045
▁Australien▁7046
▁zeichnen▁7047
▁Horizont▁7048
▁exoti▁7049
▁experimentell▁7050
▁verkleinert▁7051
ippe▁7052
▁frage▁7053
▁Mitternacht▁7054
▁Intensivstation▁7055
▁Assistenz▁7056
▁getroffen▁7057
▁stirb▁7058
▁Medikament▁7059
▁wirksam▁7060
▁triumph▁7061
glück▁7062
ender▁7063
▁Wimper▁7064
cken▁7065
▁bestreite▁7066
▁schlimmsten▁7067
▁glorreich▁7068
stimmt▁7069
▁Sterbe▁7070
leitung▁7071
▁getrieben▁7072
▁Wahnsinn▁7073
Tri▁7074
▁Journalistin▁7075
▁Experten▁7076
fügung▁7077
▁griffbereit▁7078
▁kannte▁7079
▁Wünsche▁7080
▁eindeutig▁7081
▁definiert▁7082
▁haar▁7083
genau▁7084
▁peinlich▁7085
▁Verdrängung▁7086
nnähernd▁7087
machen▁7088
▁Mediziner▁7089
▁verdrängt▁7090
▁Vernunft▁7091
▁verdräng▁7092
▁nützliche▁7093
▁Denkweise▁7094
rzte▁7095
▁miterlebt▁7096
▁Onkologe▁7097
▁Direktor▁7098
▁Pal▁7099
medizin▁7100
▁Dar▁7101
mouth▁7102
▁Medica▁7103
▁School▁7104
▁unsterblich▁7105
he▁7106
Spruch▁7107
▁Feature▁7108
▁Bug▁7109
▁Kampfes▁7110
gefühl▁7111
▁bedeutete▁7112
▁Kämpfer▁7113
baren▁7114
▁Heil▁7115
▁Hospiz▁7116
▁Sterben▁7117
wie▁7118
▁edle▁7119
▁heilen▁7120
▁anscheinen▁7121
▁Versagen▁7122
▁Gehen▁7123
lassen▁7124
nerkennung▁7125
▁Lebensende▁7126
▁Abschied▁7127
▁liebte▁7128
▁Dicht▁7129
kunst▁7130
▁Dichter▁7131
▁Kon▁7132
stan▁7133
ino▁7134
ava▁7135
dichte▁7136
▁Zeilen▁7137
▁vortragen▁7138
▁Marc▁7139
▁Antoni▁7140
wich▁7141
▁Alexandr▁7142
▁besiegt▁7143
▁solle▁7144
▁würdig▁7145
▁Do▁7146
▁fe▁7147
▁Bitte▁7148
ehen▁7149
▁Klänge▁7150
▁geheimnisvolle▁7151
▁verlier▁7152
bersetzung▁7153
▁basieren▁7154
▁überwältigende▁7155
▁Präsenz▁7156
▁DNA▁7157
▁Versicherungs▁7158
▁Gab▁7159
hi▁7160
▁Rohstoffbörse▁7161
thiopien▁7162
▁gründen▁7163
▁Wohlstand▁7164
▁Bauern▁7165
▁minimieren▁7166
Empfänger▁7167
korb▁7168
▁Himalaya▁7169
▁fern▁7170
▁Königreich▁7171
▁Bhutan▁7172
▁beschlossen▁7173
▁Brut▁7174
sozial▁7175
▁Bruttoinlands▁7176
▁funktionierende▁7177
▁Wahlmöglichkeit▁7178
▁indische▁7179
▁Nobelpreis▁7180
▁verlieh▁7181
▁Hungersnot▁7182
▁Verfügbarkeit▁7183
versorgung▁7184
▁Menschlichkeit▁7185
▁gelten▁7186
▁Hunger▁7187
berschuss▁7188
▁Landesteil▁7189
▁Wendepunkt▁7190
meist▁7191
▁Afrikaner▁7192
▁afrikanische▁7193
▁weitest▁7194
kapital▁7195
stellbare▁7196
▁Dünger▁7197
▁14▁7198
▁Traktor▁7199
▁Lateinamerika▁7200
▁vorgegeben▁7201
▁Zustand▁7202
ür▁7203
▁Preise▁7204
▁Früchte▁7205
saison▁7206
frage▁7207
▁Unternehmertum▁7208
▁Theodor▁7209
tz▁7210
▁197▁7211
▁effizient▁7212
▁arm▁7213
▁Profit▁7214
▁ausgerichtet▁7215
▁fair▁7216
▁Geschäfte▁7217
▁liberal▁7218
▁zurückziehen▁7219
wirtschaft▁7220
▁wirken▁7221
▁kommerzielle▁7222
▁Akteure▁7223
▁Anstieg▁7224
ernährung▁7225
▁prognostiziert▁7226
importe▁7227
▁kosten▁7228
▁stagnier▁7229
▁Verwendung▁7230
nahm▁7231
▁Erwartungen▁7232
▁angetrieben▁7233
▁Händler▁7234
▁interviewt▁7235
▁daneben▁7236
▁Reformen▁7237
▁Bade▁7238
▁Transaktion▁7239
▁erarbeitet▁7240
elekommunikation▁7241
wesenheit▁7242
institut▁7243
information▁7244
▁Klassifizierung▁7245
▁zuverlässig▁7246
▁Käufer▁7247
▁Verkäufer▁7248
▁Rohstoff▁7249
äufe▁7250
verkäufer▁7251
▁Netzwerken▁7252
▁Korn▁7253
▁wechselt▁7254
▁Konsumenten▁7255
äcke▁7256
▁bestätigt▁7257
uantität▁7258
signale▁7259
▁Defizit▁7260
▁Handels▁7261
sp▁7262
anne▁7263
▁andauernd▁7264
▁Handhabung▁7265
▁Erzeugnisse▁7266
▁blind▁7267
▁gänzlich▁7268
gewiesen▁7269
▁Erb▁7270
▁unfähig▁7271
▁verringern▁7272
chten▁7273
▁tragen▁7274
periode▁7275
▁verlangt▁7276
risiko▁7277
▁aufbaut▁7278
▁bedroht▁7279
▁flu▁7280
▁Mais▁7281
▁wahnsinnig▁7282
▁direkte▁7283
▁höhere▁7284
▁Saatgut▁7285
sicherheit▁7286
▁äthiopische▁7287
bauer▁7288
▁Top▁7289
▁Felder▁7290
▁ernten▁7291
▁berechnet▁7292
▁Tonnen▁7293
▁Frühjahr▁7294
▁Juli▁7295
▁ernste▁7296
genügend▁7297
über▁7298
schüsse▁7299
▁Verbrauch▁7300
▁Entwicklungs▁7301
hem▁7302
mung▁7303
▁versprechen▁7304
▁Strecke▁7305
▁Hilfs▁7306
lösung▁7307
▁ausländische▁7308
▁Strategie▁7309
▁1980▁7310
▁modisch▁7311
bekommen▁7312
▁einflussreiche▁7313
▁Institution▁7314
▁explodieren▁7315
▁komfortable▁7316
▁Senior▁7317
▁Weltbank▁7318
kehren▁7319
Strateg▁7320
▁Spender▁7321
▁EC▁7322
▁etablier▁7323
▁Neues▁7324
▁82▁7325
▁Städt▁7326
▁Illinois▁7327
▁Michigan▁7328
stunde▁7329
▁Chicago▁7330
kammer▁7331
▁berühmteste▁7332
▁etabliert▁7333
we▁7334
▁lud▁7335
ähne▁7336
▁sandte▁7337
▁ankam▁7338
▁Verluste▁7339
▁Lake▁7340
▁werfen▁7341
▁Farm▁7342
▁Notwendigkeit▁7343
▁Termin▁7344
stellen▁7345
▁Empfang▁7346
▁Handel▁7347
ätigt▁7348
▁ausgehend▁7349
▁großartigste▁7350
▁begutachte▁7351
▁gehandelt▁7352
▁Super▁7353
macht▁7354
▁industrialisier▁7355
▁Referenz▁7356
preise▁7357
▁Kakao▁7358
▁überwiegend▁7359
lagerung▁7360
stechnologie▁7361
dom▁7362
▁Schwellenländer▁7363
▁US▁7364
▁Wachstum▁7365
▁V▁7366
SA▁7367
▁energisch▁7368
▁Dalia▁7369
▁Com▁7370
ity▁7371
▁Ex▁7372
hang▁7373
▁überholt▁7374
▁zweitgrößte▁7375
▁organisierte▁7376
zufügen▁7377
▁kreieren▁7378
akt▁7379
▁dient▁7380
▁Integr▁7381
▁Effizienz▁7382
▁bewältigen▁7383
▁beschrieben▁7384
▁Entwurf▁7385
▁Einzigartige▁7386
▁integriert▁7387
▁Edge▁7388
entwicklung▁7389
▁h▁7390
äppchen▁7391
▁Geldgeber▁7392
▁IT▁7393
▁Lager▁7394
▁agieren▁7395
schrei▁7396
ca▁7397
é▁7398
zentrum▁7399
▁Fern▁7400
▁Info▁7401
park▁7402
ett▁7403
▁Addi▁7404
eb▁7405
gewickelt▁7406
zugleich▁7407
▁grundlegend▁7408
▁Waren▁7409
▁ausgestellt▁7410
rechnung▁7411
abläuf▁7412
▁Betrag▁7413
▁regulator▁7414
▁legal▁7415
▁Anliegen▁7416
▁Parlament▁7417
▁Wichtige▁7418
verteilung▁7419
▁Höchst▁7420
▁informiert▁7421
tscheidungen▁7422
bauen▁7423
bö▁7424
schläge▁7425
▁Kurs▁7426
▁tätig▁7427
▁strategisch▁7428
region▁7429
▁Mangel▁7430
▁erschein▁7431
▁ehrgeizig▁7432
▁Finanzsektor▁7433
▁ebenso▁7434
sektor▁7435
zugrundeliegende▁7436
▁Millenium▁7437
▁Präsidenten▁7438
llerwichtigste▁7439
▁Erträge▁7440
▁Plattform▁7441
▁pan▁7442
afrikanische▁7443
▁Rohstoffe▁7444
▁heimische▁7445
▁Umfang▁7446
▁einnehmen▁7447
▁verdoppelt▁7448
▁Südafrika▁7449
▁Wille▁7450
▁Vorschlag▁7451
▁Honor▁7452
▁Langsamkeit▁7453
▁Journalist▁7454
▁Schnelligkeit▁7455
▁Bremse▁7456
▁allzu▁7457
▁Beobachtung▁7458
öffentliche▁7459
▁vermarkte▁7460
▁Studio▁7461
▁Interview▁7462
▁präsentiere▁7463
▁langsamer▁7464
▁Beitrag▁7465
NN▁7466
▁Maske▁7467
▁Sendung▁7468
▁Zeitraffer▁7469
steckt▁7470
▁besessen▁7471
▁Wett▁7472
lauf▁7473
▁Carrie▁7474
▁Fisher▁7475
▁Profil▁7476
▁erwähne▁7477
▁sofortige▁7478
▁Befriedig▁7479
▁drüber▁7480
▁Walk▁7481
▁Speed▁7482
king▁7483
▁Date▁7484
Dating▁7485
▁Fitness▁7486
club▁7487
▁Plakat▁7488
oga▁7489
tät▁7490
▁grüße▁7491
▁opfer▁7492
▁amüsant▁7493
▁sprint▁7494
▁Schaden▁7495
▁rasant▁7496
▁Lebensstil▁7497
▁zahlen▁7498
▁Weckruf▁7499
▁ra▁7500
▁Warnung▁7501
▁Burn▁7502
out▁7503
Syndrom▁7504
▁schaff▁7505
▁Brüche▁7506
▁Geduld▁7507
▁Ruhe▁7508
▁vorzule▁7509
▁Kate▁7510
gang▁7511
▁Absatz▁7512
kennt▁7513
stritten▁7514
▁entspannen▁7515
liest▁7516
kampf▁7517
ladi▁7518
▁Zeitungsartikel▁7519
tipp▁7520
▁schnelle▁7521
log▁7522
▁erschreckt▁7523
▁reagierte▁7524
▁Halleluja▁7525
▁gesucht▁7526
▁verkürz▁7527
▁Abstand▁7528
▁Whoa▁7529
▁abend▁7530
▁Sil▁7531
speisen▁7532
▁legte▁7533
▁beiseite▁7534
▁gründlich▁7535
▁wünschenswert▁7536
▁Verdächtige▁7537
▁Verstädterung▁7538
▁eigentliche▁7539
▁zyklisch▁7540
▁gemütlich▁7541
▁erneuert▁7542
▁belebt▁7543
▁begrenzte▁7544
▁Ressource▁7545
icker▁7546
▁nutzt▁7547
▁Benjamin▁7548
▁Franklin▁7549
▁psychologisch▁7550
▁Gleichung▁7551
▁aufgestellt▁7552
▁Rennen▁7553
linie▁7554
▁Den▁7555
▁Kult▁7556
schä▁7557
▁gängige▁7558
▁Hex▁7559
essel▁7560
▁Momente▁7561
sam▁7562
un▁7563
▁bezeichnen▁7564
▁Widerspruch▁7565
berblick▁7566
▁Slow▁7567
ood▁7568
▁100.000▁7569
▁verständlich▁7570
▁gesünder▁7571
▁angemessene▁7572
▁explosionsartig▁7573
▁Zunahme▁7574
▁ökologische▁7575
▁Zeitplan▁7576
zubauen▁7577
Cities▁7578
▁überdenken▁7579
▁ermutigt▁7580
▁Rose▁7581
▁zueinander▁7582
ränken▁7583
▁Verkehr▁7584
▁Bänke▁7585
▁Grünfläche▁7586
▁offiziell▁7587
▁philosophische▁7588
▁verkündet▁7589
▁Anwohner▁7590
▁ergänzen▁7591
▁alternative▁7592
▁sanfte▁7593
▁ganzheitliche▁7594
mple▁7595
ären▁7596
▁persönlich▁7597
▁bezweif▁7598
▁Trend▁7599
▁Ak▁7600
sagen▁7601
▁Entspannung▁7602
▁Fakultät▁7603
▁ne▁7604
ähm▁7605
▁Cover▁7606
Magazin▁7607
▁Orgasmus▁7608
ick▁7609
▁Schlafzimmer▁7610
▁psychologische▁7611
▁emotional▁7612
▁spirituelle▁7613
▁Spannung▁7614
aufbau▁7615
▁bescher▁7616
▁Point▁7617
ster▁7618
wort▁7619
wand▁7620
iebhaber▁7621
▁St▁7622
▁tan▁7623
risch▁7624
▁Paare▁7625
▁strömen▁7626
bremsen▁7627
▁scheinen▁7628
▁Arbeitszeit▁7629
▁gegangen▁7630
Stunden▁7631
woche▁7632
▁starr▁7633
▁europäische▁7634
▁klasse▁7635
▁Norwegen▁7636
▁Schweden▁7637
▁Dänemark▁7638
wettbewerbsfähig▁7639
▁Amerikaner▁7640
▁Neid▁7641
▁37▁7642
▁Kindheit▁7643
▁anguck▁7644
▁erstaunt▁7645
▁Hausaufgaben▁7646
▁Nachhilfe▁7647
obb▁7648
▁Website▁7649
▁bekomme▁7650
▁Rande▁7651
rad▁7652
▁zusammengeta▁7653
unterricht▁7654
▁verbannt▁7655
▁stapel▁7656
erfolg▁7657
orientierte▁7658
▁Privatschule▁7659
gebühren▁7660
▁flipp▁7661
▁Nein▁7662
▁Erholung▁7663
▁Zensur▁7664
▁Elite▁7665
Uni▁7666
gegeben▁7667
sta▁7668
cheln▁7669
läufe▁7670
▁überfüllt▁7671
räumt▁7672
Universität▁7673
▁Briefe▁7674
▁Studienanfänger▁7675
▁Brief▁7676
rufe▁7677
▁Straf▁7678
zettel▁7679
▁Fahren▁7680
▁recherchierte▁7681
▁Food▁7682
▁italienische▁7683
▁Autobahn▁7684
▁gefahren▁7685
▁sexy▁7686
▁Adrenalin▁7687
▁meta▁7688
phy▁7689
▁erfüllen▁7690
▁Ablenkung▁7691
▁weiterer▁7692
achtens▁7693
▁Tabu▁7694
▁dreckige▁7695
bedeutend▁7696
▁faul▁7697
tu▁7698
▁anzugeh▁7699
25▁7700
▁Stau▁7701
⁄▁7702
2▁7703
▁revolutionäre▁7704
▁Fernseher▁7705
▁Büro▁7706
▁empfand▁7707
▁herauskam▁7708
ade▁7709
▁begrüßt▁7710
▁Genuss▁7711
presse▁7712
▁Gänge▁7713
zufinden▁7714
▁JA▁7715
▁sa▁7716
üchtig▁7717
▁lebe▁7718
▁genieß▁7719
▁spiele▁7720
▁inner▁7721
▁Schildkröte▁7722
einstellung▁7723
▁geflügelte▁7724
▁produktiver▁7725
▁reichhaltige▁7726
▁trage▁7727
▁PC▁7728
▁passe▁7729
▁10-▁7730
ärge▁7731
▁unterhalten▁7732
▁verabscheu▁7733
liste▁7734
▁grau▁7735
▁Belohnung▁7736
▁schätze▁7737
End▁7738
▁folgt▁7739
▁Lese▁7740
▁Taschen▁7741
▁Haustür▁7742
▁Taxi▁7743
▁Treppe▁7744
gebastelt▁7745
▁Aufkleber▁7746
▁Tim▁7747
▁Str▁7748
upp▁7749
geklebt▁7750
▁Für▁7751
les▁7752
▁Lock▁7753
wood▁7754
▁Kondome▁7755
▁Kongo▁7756
▁HIV▁7757
▁Demokratische▁7758
▁Republik▁7759
ilfsorganisation▁7760
▁kostenlos▁7761
▁billig▁7762
▁überschwemmt▁7763
▁reformier▁7764
▁Marketing▁7765
▁Model▁7766
▁Phil▁7767
▁faktisch▁7768
▁Westeuropa▁7769
▁Krieges▁7770
▁zahlreiche▁7771
▁Pre▁7772
enz▁7773
rate▁7774
▁1,3▁7775
▁76▁7776
▁93▁7777
0.000▁7778
▁dürftig▁7779
▁ledig▁7780
▁lebensrettende▁7781
▁Medikamente▁7782
▁Spenden▁7783
▁geringe▁7784
▁Dam▁7785
▁betreib▁7786
▁Kinshasa▁7787
▁geöffnet▁7788
▁Prostituierte▁7789
▁Joseph▁7790
▁Christin▁7791
▁Apotheke▁7792
▁günstig▁7793
▁abgeb▁7794
kampagne▁7795
version▁7796
ika▁7797
▁schaute▁7798
schaften▁7799
▁Finanzierung▁7800
▁Treue▁7801
ve▁7802
▁Trust▁7803
▁verpackt▁7804
▁Aid▁7805
▁Schachtel▁7806
männer▁7807
▁beschützt▁7808
▁vernünftig▁7809
▁unbedingt▁7810
▁wora▁7811
sprache▁7812
provok▁7813
aspekt▁7814
▁häufig▁7815
▁Verbreitung▁7816
bre▁7817
▁Grey▁7818
lterwerden▁7819
▁verhindern▁7820
▁behauptet▁7821
▁verhindert▁7822
▁schick▁7823
▁Schicksal▁7824
länge▁7825
▁mittlere▁7826
▁Sieg▁7827
▁Wesentliche▁7828
imini▁7829
▁irgendw▁7830
grund▁7831
▁Eigenart▁7832
▁gemein▁7833
▁tötet▁7834
▁ziehe▁7835
jagd▁7836
verständnis▁7837
▁Naja▁7838
▁traditioneller▁7839
▁ökologisch▁7840
explosion▁7841
▁Fü▁7842
chse▁7843
▁letztendlich▁7844
ffentlichkeit▁7845
ari▁7846
▁Schluß▁7847
▁zivilisierte▁7848
▁tolerier▁7849
▁Elend▁7850
▁Trance▁7851
▁wertlos▁7852
▁Vorbereitung▁7853
▁Unruhe▁7854
▁Altern▁7855
▁legitim▁7856
▁Ap▁7857
▁beunruhigt▁7858
▁Nachteile▁7859
▁unnötig▁7860
▁entsprechend▁7861
▁verschwenden▁7862
▁folgender▁7863
▁befürchten▁7864
bevölkerung▁7865
berquer▁7866
▁Gil▁7867
▁stimme▁7868
▁Antworten▁7869
▁Geburtenrate▁7870
▁Sterberate▁7871
▁zöger▁7872
damm▁7873
▁Schar▁7874
▁unbegrenzte▁7875
▁Lebenserwartung▁7876
▁halte▁7877
▁unmoralisch▁7878
▁Akt▁7879
v▁7880
▁unvermeidbar▁7881
▁lächerlich▁7882
▁Positive▁7883
▁eventuell▁7884
▁mission▁7885
regen▁7886
▁Definition▁7887
▁Nebenwirkung▁7888
▁Stoffwechsel▁7889
▁Bin▁7890
▁Aussage▁7891
▁leblos▁7892
fährt▁7893
▁Reparatur▁7894
mechanism▁7895
▁tagtäglich▁7896
▁Nebeneffekt▁7897
▁akkumulier▁7898
▁ausgezeichnet▁7899
▁verzöger▁7900
▁gerontolog▁7901
ria▁7902
rische▁7903
▁interven▁7904
▁relevant▁7905
▁kurzfristige▁7906
▁verurteilt▁7907
▁Ursachen▁7908
▁vielversprechen▁7909
sorge▁7910
▁Organismen▁7911
▁erbärmlich▁7912
▁RNA▁7913
▁Gero▁7914
ologie▁7915
▁überzeugend▁7916
ise▁7917
▁Lebensjahr▁7918
▁55▁7919
▁robuste▁7920
▁verfügbar▁7921
▁bedeuten▁7922
▁Durchbrüche▁7923
▁schrittweise▁7924
▁Vorhersage▁7925
▁190▁7926
▁beständig▁7927
förmig▁7928
▁Abfolge▁7929
▁Luftfahrt▁7930
svermögen▁7931
▁vorhergehende▁7932
▁typisch▁7933
▁fundamental▁7934
▁Durchbruch▁7935
leiste▁7936
▁Antibiotika▁7937
▁Zeitrahmen▁7938
verlängern▁7939
▁Schei▁7940
tel▁7941
▁verbesserte▁7942
▁verbleibende▁7943
ängel▁7944
holen▁7945
▁lebende▁7946
▁1000▁7947
▁Jahrzent▁7948
▁unterbinde▁7949
verbesserung▁7950
▁200-▁7951
▁ausgedacht▁7952
▁Langlebigkeit▁7953
geschwindigkeit▁7954
je▁7955
▁80-▁7956
▁Sturz▁7957
flug▁7958
▁entkommen▁7959
▁sinnvoll▁7960
▁jünger▁7961
▁physisch▁7962
▁geringere▁7963
▁altersbedingte▁7964
Schlussfolgerung▁7965
▁Katastrophen▁7966
einhalb▁7967
▁Verlängerung▁7968
▁Mäuse▁7969
▁Meilenstein▁7970
▁einfallsreich▁7971
▁Rasse▁7972
▁fünften▁7973
▁hinzugefügt▁7974
▁verdreifacht▁7975
▁gleicher▁7976
▁spekuliere▁7977
▁Spekulation▁7978
antwort▁7979
▁schweigen▁7980
izon▁7981
maß▁7982
▁robust▁7983
▁Maus▁7984
▁Allgemein▁7985
▁positiver▁7986
▁neigt▁7987
▁unterschätz▁7988
▁schliess▁7989
mbivalen▁7990
▁erwähnte▁7991
▁Bewältigung▁7992
sstrategie▁7993
zögert▁7994
▁Schädigung▁7995
weist▁7996
▁ursprüngliche▁7997
▁Diagramm▁7998
▁reduzieren▁7999
▁kontinuierlich▁8000
ad▁8001
▁Ingenieurs▁8002
Ansatz▁8003
ansatz▁8004
▁greif▁8005
▁Lass▁8006
▁loslege▁8007
▁reparieren▁8008
▁Beschwerde▁8009
age▁8010
öl▁8011
▁bräuchte▁8012
▁Illustration▁8013
▁unvollständig▁8014
▁rechten▁8015
▁Kategorie▁8016
▁Zell▁8017
verlust▁8018
▁Chromosomen▁8019
▁Mit▁8020
▁Beweis▁8021
▁Ok▁8022
▁worau▁8023
▁langlebig▁8024
▁geschädigte▁8025
▁kurzlebig▁8026
▁Protein▁8027
▁Biologie▁8028
▁Tatsache▁8029
▁zitiere▁8030
▁Arbeiten▁8031
▁Optimismus▁8032
▁basiert▁8033
ologe▁8034
▁radikale▁8035
kehr▁8036
▁Mainstream▁8037
▁resistent▁8038
ession▁8039
▁Genom▁8040
▁kürzeste▁8041
▁entschlüssel▁8042
▁Nun▁8043
▁Me▁8044
hus▁8045
▁Anreiz▁8046
▁Institut▁8047
menschen▁8048
freund▁8049
gier▁8050
▁Biotech▁8051
▁bekämpfen▁8052
▁AG▁8053
▁Immunsystem▁8054
▁bekämpft▁8055
▁Individu▁8056
pflanzen▁8057
▁Zellteilung▁8058
▁Tel▁8059
ome▁8060
sterblichkeit▁8061
▁abgeschlossen▁8062
strittig▁8063
▁übliche▁8064
Antwort▁8065
▁Resultat▁8066
▁Selektion▁8067
arian▁8068
▁Voll▁8069
▁Genen▁8070
▁Gene▁8071
▁Nachkommen▁8072
▁Schwankung▁8073
▁verlängert▁8074
▁hochrechne▁8075
unfall▁8076
▁abnehmen▁8077
▁erhöh▁8078
▁Gehirnzellen▁8079
▁Embryo▁8080
▁Implikation▁8081
▁grundsätzlich▁8082
▁ersetzen▁8083
▁Neuronen▁8084
▁Ersatz▁8085
▁kognitive▁8086
▁herab▁8087
▁Fehlen▁8088
▁Hydra▁8089
▁Gewebe▁8090
▁Lewi▁8091
▁Pugh▁8092
bewusstsein▁8093
▁Schwimmen▁8094
▁Nordpol▁8095
gefunden▁8096
▁minus▁8097
▁1,7▁8098
▁grauenhaft▁8099
▁schoss▁8100
▁gefroren▁8101
▁4,5▁8102
▁Ozeans▁8103
▁sinken▁8104
▁verschwinden▁8105
▁furchtbar▁8106
▁Wu▁8107
finger▁8108
▁gefrier▁8109
▁expandiert▁8110
▁Fingern▁8111
▁eingefroren▁8112
▁platzt▁8113
▁solch▁8114
▁kalte▁8115
▁Klimawandels▁8116
▁hinterließ▁8117
▁Schlachtfeld▁8118
▁Dritte▁8119
▁Instabilität▁8120
▁Bangladesh▁8121
▁symbolische▁8122
▁28▁8123
▁beeindruckende▁8124
▁hinauf▁8125
wi▁8126
▁riesen▁8127
Team▁8128
▁53▁8129
▁Meeresspiegel▁8130
▁durchführen▁8131
höhe▁8132
krank▁8133
aktion▁8134
läuf▁8135
▁Toten▁8136
▁demütig▁8137
▁mächtiger▁8138
▁Kh▁8139
let▁8140
▁geschmolzene▁8141
▁bereitete▁8142
▁kontrollierte▁8143
ggression▁8144
▁warf▁8145
▁schwamm▁8146
▁schnappte▁8147
▁flach▁8148
▁wegzu▁8149
▁Züge▁8150
▁Rand▁8151
▁Ertrinken▁8152
▁friedlich▁8153
▁Schwach▁8154
▁furchterregend▁8155
▁packte▁8156
▁Ger▁8157
dient▁8158
▁Acht▁8159
▁Hügel▁8160
▁Dich▁8161
ruhe▁8162
schwimmen▁8163
▁schwimm▁8164
▁wahrer▁8165
▁Demu▁8166
▁Sher▁8167
▁irgend▁8168
▁benötige▁8169
▁gelebt▁8170
▁besiedelt▁8171
▁betrug▁8172
▁Weltbevölkerung▁8173
,8▁8174
▁taktische▁8175
▁könnt▁8176
▁Eure▁8177
▁Enkelkinder▁8178
▁unversehrt▁8179
▁zukunftsfähig▁8180
▁herbeizu▁8181
▁blogg▁8182
▁tweet▁8183
▁einhundert▁8184
▁Hodg▁8185
▁Humor▁8186
▁ansässig▁8187
▁Bachelor▁8188
▁Fernseh▁8189
ers▁8190
▁Sammler▁8191
▁With▁8192
atalog▁8193
▁Ze▁8194
irport▁8195
Gebäude▁8196
▁altertümliche▁8197
▁außerirdische▁8198
▁196▁8199
▁stamme▁8200
▁geschäftige▁8201
▁trans▁8202
dimensional▁8203
hof▁8204
▁Urzeit▁8205
astro▁8206
▁bevölkert▁8207
▁Spezies▁8208
▁Dreh▁8209
restaurant▁8210
höfe▁8211
▁Stonehenge▁8212
▁Designs▁8213
ui▁8214
▁Park▁8215
▁enthüllt▁8216
ynonym▁8217
▁Jet▁8218
Zeitalter▁8219
zeichnung▁8220
▁bevorzugt▁8221
▁gef▁8222
▁Schlangen▁8223
▁Kristall▁8224
schäd▁8225
ic▁8226
▁Sal▁8227
▁Philipp▁8228
▁Starck▁8229
▁drohende▁8230
▁Gabel▁8231
▁entworfen▁8232
ors▁8233
uvre▁8234
▁Lobby▁8235
achtet▁8236
▁Spa▁8237
▁Drei▁8238
▁befestige▁8239
augen▁8240
▁erschwinglich▁8241
▁Küchen▁8242
▁Schub▁8243
▁harte▁8244
▁design▁8245
▁Post▁8246
▁Heiz▁8247
platte▁8248
▁kapier▁8249
▁Chi▁8250
▁iPhone▁8251
▁Badezimmer▁8252
▁lese▁8253
▁schaue▁8254
▁Anruf▁8255
▁vergess▁8256
▁Wow▁8257
Effekt▁8258
▁Gewohnheit▁8259
▁empfinde▁8260
hängen▁8261
▁J▁8262
▁Stephan▁8263
▁Lak▁8264
schreiben▁8265
gegangen▁8266
▁liest▁8267
▁verstorben▁8268
▁kommende▁8269
▁Schreib▁8270
▁unausweichlich▁8271
rüber▁8272
▁fasziniert▁8273
▁Hi▁8274
▁Mike▁8275
▁Cyber▁8276
space▁8277
▁aufzeichne▁8278
▁Handschrift▁8279
▁Notiz▁8280
buch▁8281
▁Stärken▁8282
▁Schwäche▁8283
▁benannt▁8284
▁Spiegelbild▁8285
▁Email▁8286
▁tippt▁8287
schrift▁8288
▁Umarmung▁8289
▁tausche▁8290
▁hole▁8291
▁Werten▁8292
▁finanzielle▁8293
▁unterzeichnet▁8294
▁anregt▁8295
▁inspiriert▁8296
▁Recycling▁8297
▁erlern▁8298
▁plane▁8299
sammle▁8300
▁Autoren▁8301
▁Trac▁8302
▁veröffentlichen▁8303
▁Flammen▁8304
▁verschlungen▁8305
haufen▁8306
▁zusammenzu▁8307
▁Linguist▁8308
▁Grammatik▁8309
geschaut▁8310
▁unendliche▁8311
▁gefangen▁8312
▁zwing▁8313
wachsen▁8314
▁umzingelt▁8315
▁Gewässer▁8316
▁sehnen▁8317
▁Seele▁8318
▁reinigen▁8319
kämpfe▁8320
▁lehrte▁8321
▁ermutigen▁8322
▁Strud▁8323
▁Ufer▁8324
▁Andrew▁8325
▁Blu▁8326
▁Eich▁8327
hörn▁8328
kau▁8329
fline▁8330
▁geheime▁8331
▁materielle▁8332
▁Einzelteile▁8333
▁beruht▁8334
▁Architekten▁8335
▁komplizierte▁8336
▁Mischung▁8337
▁besuche▁8338
▁spazieren▁8339
▁insbesonder▁8340
▁kriegt▁8341
▁guckte▁8342
▁verwundert▁8343
▁Abbildung▁8344
▁OP▁8345
▁Milchstraße▁8346
▁Unendlichkeit▁8347
▁Gesamt▁8348
▁Apollo▁8349
Bild▁8350
▁Kugel▁8351
hnlichkeit▁8352
▁zusammenbring▁8353
Mann▁8354
▁repariert▁8355
aub▁8356
▁Hintertür▁8357
salat▁8358
▁Protokoll▁8359
▁Dating▁8360
▁Box▁8361
Sitcom▁8362
▁Crowd▁8363
▁Big▁8364
▁Präsentation▁8365
leihen▁8366
▁Väter▁8367
▁einverstande▁8368
▁trenne▁8369
▁wiegt▁8370
▁Narr▁8371
▁amorph▁8372
▁Blo▁8373
▁komische▁8374
▁blink▁8375
▁reale▁8376
cast▁8377
▁Time▁8378
▁Warner▁8379
▁Glasfaser▁8380
▁intim▁8381
▁Hudson▁8382
▁Häuserblock▁8383
bringt▁8384
▁Leitung▁8385
schlauch▁8386
▁Haare▁8387
▁Kanal▁8388
▁5000▁8389
▁angeschlossen▁8390
▁Hal▁8391
ax▁8392
▁Irland▁8393
▁dünne▁8394
▁geplant▁8395
▁Cooper▁8396
▁arbeitete▁8397
▁Tata▁8398
ommunication▁8399
abteilung▁8400
▁kommuniziert▁8401
System▁8402
▁Engländer▁8403
industrie▁8404
▁beherrscht▁8405
▁42▁8406
▁Boom▁8407
▁vernetz▁8408
▁Bit▁8409
▁Lichtstrahl▁8410
▁suchten▁8411
▁unerschlossene▁8412
fällt▁8413
▁erstaunliche▁8414
▁geographische▁8415
▁flüchtige▁8416
▁momentan▁8417
▁Tweet▁8418
Post▁8419
▁Folge▁8420
AC▁8421
Afrikanischen▁8422
▁Lis▁8423
abo▁8424
▁Elfenbein▁8425
▁Ghana▁8426
▁Kamerun▁8427
▁Kürze▁8428
bedingung▁8429
warnung▁8430
▁Nylon▁8431
faden▁8432
L▁8433
▁Bulldozer▁8434
▁Ingenieure▁8435
▁Anschluss▁8436
Station▁8437
gelassen▁8438
▁Inneren▁8439
▁Juwel▁8440
▁Faser▁8441
▁verschmelzen▁8442
▁Cloud▁8443
▁Anweisung▁8444
städte▁8445
▁Mom▁8446
▁Mumbai▁8447
▁Deckel▁8448
▁Schach▁8449
▁Sand▁8450
▁verdeckt▁8451
▁Stephen▁8452
▁vernetzte▁8453
▁Drähte▁8454
▁vernetzt▁8455
▁Chav▁8456
va▁8457
▁Schneider▁8458
▁Swami▁8459
anda▁8460
▁Sara▁8461
ti▁8462
▁entwirr▁8463
▁parallel▁8464
▁persönlicher▁8465
▁begleitet▁8466
▁hilflos▁8467
▁Kleinkind▁8468
▁furchtlos▁8469
▁Konsument▁8470
berlebens▁8471
instinkt▁8472
▁ausgestattet▁8473
▁Pflege▁8474
mutter▁8475
▁vollkommen▁8476
▁ergeben▁8477
▁voraus▁8478
▁verletzen▁8479
▁Verletzung▁8480
▁Schuld▁8481
▁Anklage▁8482
▁wahrhaft▁8483
▁beseitigen▁8484
ank▁8485
▁erwachsen▁8486
▁mitfühlend▁8487
▁ausübt▁8488
▁Status▁8489
▁verfügt▁8490
▁Ganz▁8491
onsten▁8492
▁ergriff▁8493
▁Empathie▁8494
▁Wi▁8495
ble▁8496
don▁8497
▁End▁8498
echten▁8499
▁Match▁8500
schwitz▁8501
▁Tennis▁8502
iquette▁8503
▁schütteln▁8504
▁streckt▁8505
küsst▁8506
▁Hemd▁8507
▁Miene▁8508
▁wünschen▁8509
▁verwehr▁8510
▁Indo▁8511
fühlen▁8512
▁Geschlecht▁8513
▁Gericht▁8514
▁Erleben▁8515
▁Klam▁8516
▁Universum▁8517
▁rundher▁8518
▁Subjekt▁8519
▁versagt▁8520
▁Begrenzung▁8521
▁Sehnsüchte▁8522
füllt▁8523
▁Kreditkarten▁8524
▁Kü▁8525
ndigung▁8526
▁Kahl▁8527
▁Sehnsucht▁8528
seligkeit▁8529
▁unterscheiden▁8530
▁Einsicht▁8531
▁Bestätigung▁8532
▁bedeutungsvoll▁8533
entsprechend▁8534
▁Laune▁8535
▁unbegrenzt▁8536
▁Bast▁8537
▁Manifestation▁8538
▁hervorruf▁8539
▁Geben▁8540
▁ausdrücken▁8541
▁verfügen▁8542
▁Schaumstoff▁8543
mat▁8544
▁Rad▁8545
▁fahren▁8546
▁Kochen▁8547
imitieren▁8548
▁Vorgänger▁8549
▁Verb▁8550
▁Ad▁8551
verb▁8552
▁Zähne▁8553
▁beten▁8554
▁Lehre▁8555
▁Edit▁8556
▁Wid▁8557
▁scheu▁8558
räuber▁8559
graph▁8560
Kalmar▁8561
▁festzu▁8562
▁Krake▁8563
▁angeblich▁8564
▁Wale▁8565
▁versch▁8566
▁giganti▁8567
mann▁8568
▁schw▁8569
▁Doku▁8570
▁Discovery▁8571
▁Channel▁8572
▁Expedition▁8573
▁stattfand▁8574
▁Kurze▁8575
She▁8576
▁Teilnahme▁8577
▁historische▁8578
▁verdanke▁8579
▁2010▁8580
Veranstaltung▁8581
▁Blue▁8582
▁Lin▁8583
bla▁8584
▁Explorer▁8585
Gru▁8586
▁eingeladen▁8587
▁beteiligt▁8588
▁Jagd▁8589
Konferenz▁8590
Experte▁8591
Woche▁8592
▁unauffällig▁8593
▁Beobachten▁8594
▁optische▁8595
▁Wichtig▁8596
plattform▁8597
▁betont▁8598
▁herumge▁8599
▁verwendete▁8600
▁ferngesteuerte▁8601
▁Fahrzeuge▁8602
▁Tib▁8603
uro▁8604
▁Vent▁8605
dacht▁8606
▁Lärm▁8607
of▁8608
▁Johnson▁8609
Link▁8610
▁Düsen▁8611
▁elektrisch▁8612
roboter▁8613
hydr▁8614
J▁8615
ag▁8616
▁schlug▁8617
▁Köder▁8618
batterie▁8619
betriebene▁8620
▁Beleuchtung▁8621
▁unsichtbar▁8622
▁primär▁8623
▁Blau▁8624
▁quasi▁8625
▁Atoll▁8626
▁biolumineszente▁8627
brecher▁8628
▁Abwehr▁8629
ualle▁8630
lma▁8631
uallen▁8632
fressen▁8633
feind▁8634
bert▁8635
strahl▁8636
▁Raubtier▁8637
▁Angreifer▁8638
▁attack▁8639
▁eröffnet▁8640
▁Verteidigung▁8641
▁gewährt▁8642
▁Witz▁8643
▁Schabe▁8644
▁trieb▁8645
▁Jetzt▁8646
▁seht▁8647
▁neck▁8648
▁hau▁8649
oo▁8650
oh▁8651
▁Annäherung▁8652
▁Tri▁8653
ton▁8654
▁aufnahm▁8655
bus▁8656
▁Vorrichtung▁8657
▁Langle▁8658
perspektive▁8659
licht▁8660
▁aufgeregt▁8661
▁Taschenlampe▁8662
flo▁8663
▁riskiert▁8664
▁Sag▁8665
lig▁8666
Video▁8667
▁atemberaubend▁8668
keln▁8669
stöckige▁8670
film▁8671
▁Entdeckungen▁8672
▁bio▁8673
aktiv▁8674
▁unvorstellbar▁8675
▁Weisen▁8676
ruchteil▁8677
▁NASA▁8678
erhaltungssystem▁8679
swachstum▁8680
lasst▁8681
▁wegkomm▁8682
teig▁8683
▁Abenteuer▁8684
▁Serge▁8685
▁Brin▁8686
▁Glass▁8687
▁angebracht▁8688
Computer▁8689
ombin▁8690
201▁8691
▁Computern▁8692
▁erhoben▁8693
schauen▁8694
▁zeichne▁8695
▁Tiger▁8696
köpfe▁8697
▁Hmm▁8698
▁heilige▁8699
▁piep▁8700
▁Boah▁8701
▁Brücke▁8702
fahrt▁8703
▁8▁8704
12▁8705
▁schmeckt▁8706
▁Thai▁8707
▁mm▁8708
▁wunderschön▁8709
▁nigerianische▁8710
▁Prinz▁8711
▁finanziert▁8712
▁umher▁8713
▁potenziell▁8714
▁isoliert▁8715
starrt▁8716
▁flache▁8717
sequenz▁8718
▁Display▁8719
▁Blickfeld▁8720
kontakt▁8721
▁aufnehmen▁8722
▁Schädelknochen▁8723
▁anfangs▁8724
▁ironisch▁8725
▁Such▁8726
fragen▁8727
▁Straße▁8728
▁bequem▁8729
▁Prototypen▁8730
▁unbequem▁8731
▁schreien▁8732
▁rauchen▁8733
▁Zigarette▁8734
▁anzünde▁8735
▁cooler▁8736
▁Aber▁8737
▁sitze▁8738
usgeschlossen▁8739
endes▁8740
▁check▁8741
▁Ar▁8742
▁Dap▁8743
hne▁8744
▁Koller▁8745
▁verführt▁8746
▁faszinierendste▁8747
▁Kurse▁8748
verhalten▁8749
▁Tasten▁8750
qui▁8751
▁Peer▁8752
Peer▁8753
For▁8754
▁dagewesene▁8755
pool▁8756
▁verarbeitet▁8757
▁gehöre▁8758
geschrieben▁8759
▁besuchte▁8760
▁Apartheid▁8761
▁Minderheit▁8762
▁hochwertige▁8763
▁Januar▁8764
▁Johannes▁8765
lassung▁8766
▁Registr▁8767
▁kilometer▁8768
▁Tor▁8769
▁hoffte▁8770
▁ergatter▁8771
▁verlor▁8772
▁steigende▁8773
▁Zwei▁8774
fache▁8775
gesamt▁8776
▁unbezahlbar▁8777
▁Hochschul▁8778
ausbildung▁8779
▁passende▁8780
solv▁8781
ualifikation▁8782
▁Studierende▁8783
▁abschließen▁8784
▁Friedman▁8785
▁jüngste▁8786
▁Times▁8787
tig▁8788
Kurs▁8789
▁Maschinelle▁8790
▁Mitbegründer▁8791
▁Ng▁8792
▁maschinelle▁8793
▁öffentlich▁8794
▁registriert▁8795
▁250▁8796
▁Anspruch▁8797
▁Angebot▁8798
▁bestmögliche▁8799
▁Course▁8800
▁Dozent▁8801
▁43▁8802
richtung▁8803
hri▁8804
▁willkommen▁8805
▁Analysis▁8806
uel▁8807
▁fünfzig▁8808
▁versichert▁8809
▁Page▁8810
▁Richtlinie▁8811
▁Seg▁8812
mmer▁8813
▁Bush▁8814
▁zukünftig▁8815
▁Stirn▁8816
▁Mitchell▁8817
▁Dun▁8818
▁Mill▁8819
▁Soziologie▁8820
▁student▁8821
▁RG▁8822
▁hängen▁8823
▁hyperbolische▁8824
▁Par▁8825
▁Pixel▁8826
▁Paul▁8827
▁Off▁8828
▁Impfung▁8829
▁Jura▁8830
sky▁8831
▁bedient▁8832
▁Frühstück▁8833
▁Jose▁8834
▁komisch▁8835
▁Münze▁8836
▁rechnerische▁8837
▁Studierenden▁8838
▁Inhalte▁8839
aunch▁8840
▁1.5▁8841
meldung▁8842
uiz▁8843
lleinerziehende▁8844
▁Jenn▁8845
▁Kenntnisse▁8846
▁Ryan▁8847
▁Immun▁8848
▁litt▁8849
▁riskier▁8850
▁freut▁8851
▁Happy▁8852
▁Shannon▁8853
▁belegt▁8854
▁festgelegt▁8855
term▁8856
kurve▁8857
▁Spitzen▁8858
▁Zertifikat▁8859
▁Bewerbung▁8860
einrichtung▁8861
gerechnet▁8862
▁explizit▁8863
mate▁8864
minütige▁8865
▁Vorlesung▁8866
▁modular▁8867
gebrochen▁8868
wissen▁8869
▁Zusatz▁8870
▁möchten▁8871
▁Format▁8872
▁individual▁8873
plan▁8874
sitzen▁8875
▁Merkmal▁8876
berlegung▁8877
▁anregen▁8878
zuwenden▁8879
bungen▁8880
▁Science▁8881
▁auffällig▁8882
smaßnahme▁8883
formen▁8884
▁integrieren▁8885
unterbrochen▁8886
▁SP▁8887
spect▁8888
ory▁8889
▁Tendenz▁8890
▁quo▁8891
▁Prä▁8892
fehler▁8893
▁dokumentierte▁8894
▁Abweichung▁8895
▁aufgepasst▁8896
▁optional▁8897
merkt▁8898
saufgaben▁8899
▁bewerte▁8900
▁Tutor▁8901
▁bewerkstelligen▁8902
▁zusätzlich▁8903
▁Multiple▁8904
Choice▁8905
▁mathematische▁8906
▁Begriffe▁8907
modelle▁8908
▁natur▁8909
ingenieur▁8910
▁Programmier▁8911
▁anschaulich▁8912
▁Informatik▁8913
▁101▁8914
▁verschwommen▁8915
▁korrigieren▁8916
▁Browser▁8917
tat▁8918
▁see▁8919
▁elementare▁8920
erfahrung▁8921
▁Geistes▁8922
klappt▁8923
▁schluss▁8924
endlich▁8925
Be▁8926
▁frühere▁8927
▁Good▁8928
▁effektiver▁8929
produzier▁8930
Achse▁8931
▁x▁8932
▁entsprach▁8933
▁erstaunlicher▁8934
bewertung▁8935
▁kritisch▁8936
▁volle▁8937
▁Punktzahl▁8938
▁übereinstimmen▁8939
strategie▁8940
▁erdacht▁8941
▁dreht▁8942
▁versammelt▁8943
▁intellektuelle▁8944
▁Princeton▁8945
▁Weltkarte▁8946
▁verschiedenste▁8947
allererst▁8948
▁wirkliche▁8949
▁Tolle▁8950
▁wach▁8951
Gemeinschaft▁8952
▁austausch▁8953
▁intensiver▁8954
▁Beschränkungen▁8955
▁multikulturelle▁8956
▁Kontakt▁8957
▁ergab▁8958
▁beispiellose▁8959
▁Klick▁8960
sendung▁8961
▁For▁8962
trag▁8963
▁Lernens▁8964
▁hypothetische▁8965
Modu▁8966
▁date▁8967
▁Transformation▁8968
▁revolution▁8969
▁Missverständnis▁8970
▁Verteilung▁8971
▁zweidimensional▁8972
▁erkannte▁8973
▁pass▁8974
▁erreichte▁8975
▁personalisierte▁8976
Personalisierung▁8977
▁Rätsel▁8978
▁Bloom▁8979
Problem▁8980
▁beobachtete▁8981
▁Population▁8982
basiert▁8983
population▁8984
▁basierend▁8985
▁Können▁8986
▁reguläre▁8987
▁Betreuung▁8988
▁Schwellenwert▁8989
▁darunter▁8990
▁98▁8991
▁Smartphone▁8992
▁link▁8993
▁Graph▁8994
▁Kurve▁8995
▁drängen▁8996
▁etliche▁8997
▁vorgestellt▁8998
▁obsolet▁8999
▁Twa▁9000
not▁9001
izen▁9002
▁Professor▁9003
schwer▁9004
arch▁9005
▁Holz▁9006
▁entfacht▁9007
▁Inhalt▁9008
füllen▁9009
▁Problemlösung▁9010
▁aktive▁9011
▁Interaktion▁9012
▁Anwesenheit▁9013
▁Beteiligung▁9014
▁standardisierte▁9015
▁Test▁9016
▁bewiesen▁9017
▁zusammenfassen▁9018
▁Motivation▁9019
eignen▁9020
▁Schande▁9021
▁Hochschule▁9022
gängig▁9023
well▁9024
▁auslösen▁9025
▁Talente▁9026
▁Albert▁9027
▁Einstein▁9028
▁entlegene▁9029
▁Hol▁9030
▁Mauri▁9031
ac▁9032
ini▁9033
gemeißelt▁9034
▁Ingenieur▁9035
▁Leonardo▁9036
▁Ang▁9037
▁Schichten▁9038
▁Betrachtung▁9039
erlebnis▁9040
▁1975▁9041
▁Floren▁9042
▁Carlo▁9043
▁ehemalige▁9044
▁Vinci▁9045
▁Jahrhunderte▁9046
lüfte▁9047
▁Meisterwerk▁9048
▁Pala▁9049
▁Ve▁9050
▁Va▁9051
sari▁9052
gestalt▁9053
▁Guinness▁9054
▁beauftragt▁9055
60▁9056
▁umzugestalten▁9057
imo▁9058
▁Med▁9059
▁Rettung▁9060
▁dicke▁9061
▁Ziegel▁9062
▁schmale▁9063
spalt▁9064
ci▁9065
▁Basil▁9066
▁Santa▁9067
▁bewunder▁9068
▁anspruchsvolle▁9069
ündig▁9070
▁gemalt▁9071
▁Fahne▁9072
▁angeordnet▁9073
▁Diego▁9074
▁eröffne▁9075
▁Ingenieurwissen▁9076
ISA▁9077
▁strömt▁9078
▁Praxis▁9079
11▁9080
▁Fal▁9081
▁Kueste▁9082
▁leitet▁9083
▁Kunstwerk▁9084
zustand▁9085
▁bestimmen▁9086
▁Madonna▁9087
▁UV▁9088
Licht▁9089
schichten▁9090
▁Dame▁9091
▁Einhorn▁9092
▁Malerei▁9093
▁Raffael▁9094
▁Schoß▁9095
▁fortfahren▁9096
▁Hünd▁9097
▁malte▁9098
▁exotische▁9099
▁Symbol▁9100
vertrauenswürdig▁9101
▁positiv▁9102
schreibung▁9103
▁objektive▁9104
▁subjektive▁9105
▁Bewunder▁9106
▁lebendige▁9107
▁Zeichnung▁9108
▁Schicht▁9109
▁Gemälde▁9110
▁König▁9111
XY▁9112
Z▁9113
Scanner▁9114
leuchtet▁9115
▁enthülle▁9116
▁bedeutendste▁9117
▁Werk▁9118
ialität▁9119
▁Elefanten▁9120
jahrhundertelang▁9121
▁Offenbarung▁9122
▁Tablet▁9123
▁Vergrößerung▁9124
▁simuliere▁9125
▁anklicke▁9126
▁hochgeladen▁9127
▁hineinzoom▁9128
wischt▁9129
▁Umgestaltung▁9130
▁Figuren▁9131
▁Kuriosität▁9132
▁Protagonist▁9133
▁passiv▁9134
▁Museums▁9135
▁digital▁9136
▁forschen▁9137
▁Wann▁9138
▁rest▁9139
▁beziehungs▁9140
▁berücksichtige▁9141
▁Renaissance▁9142
decken▁9143
▁Disziplin▁9144
▁definitiv▁9145
rausgehen▁9146
▁Laura▁9147
▁Whit▁9148
acre▁9149
▁1991▁9150
▁transform▁9151
▁Studium▁9152
runde▁9153
▁Bus▁9154
▁Halt▁9155
▁ruht▁9156
▁idylli▁9157
▁Grill▁9158
▁Frösche▁9159
▁Steven▁9160
Spiel▁9161
Wolke▁9162
▁Wolken▁9163
▁helfe▁9164
▁Stille▁9165
▁spürte▁9166
▁heftig▁9167
▁Donner▁9168
▁mexikanische▁9169
burst▁9170
ouTube▁9171
▁Virtuelle▁9172
▁185▁9173
heim▁9174
geführt▁9175
▁2.0▁9176
▁58▁9177
▁Sleep▁9178
▁Water▁9179
▁73▁9180
▁Skype▁9181
▁Cal▁9182
▁Fuller▁9183
▁Riverside▁9184
▁Community▁9185
▁bearbeitet▁9186
▁miteinbezieh▁9187
▁Bescheid▁9188
ache▁9189
▁Tric▁9190
▁trügerisch▁9191
▁3-▁9192
▁Rede▁9193
▁grübel▁9194
▁magische▁9195
▁Dankeschön▁9196
▁Freundschaft▁9197
▁stärken▁9198
fiel▁9199
▁aufwuchs▁9200
▁lobe▁9201
schämt▁9202
▁Rehabilitation▁9203
▁Sucht▁9204
▁gegenüberstehen▁9205
▁Einfache▁9206
▁Wunde▁9207
▁stolz▁9208
▁Verwandten▁9209
▁verheiratet▁9210
▁sehnt▁9211
▁Vielen▁9212
▁Brot▁9213
▁brings▁9214
▁Freundin▁9215
▁April▁9216
▁Hausarbeit▁9217
▁danken▁9218
▁Steak▁9219
▁Würde▁9220
▁preisgebe▁9221
▁unsicher▁9222
handle▁9223
▁wär▁9224
▁vernachlässig▁9225
▁ausnutzen▁9226
▁Spur▁9227
▁zweieinhalb▁9228
▁seid▁9229
▁wollt▁9230
lf▁9231
▁Weltfrieden▁9232
▁Haushalt▁9233
▁Hinterhof▁9234
▁Ehemänner▁9235
▁Mütter▁9236
▁Töchter▁9237
▁Söhne▁9238
▁Carter▁9239
▁Emma▁9240
▁Atlas▁9241
▁Universums▁9242
▁vergangen▁9243
▁Programmierer▁9244
eranschaulichung▁9245
▁Digital▁9246
▁Universe▁9247
▁abspiele▁9248
entwickelt▁9249
▁Metapher▁9250
▁grenzenlos▁9251
▁Aufnahme▁9252
vermögen▁9253
▁Deponie▁9254
▁krümmen▁9255
▁erstellt▁9256
▁American▁9257
▁Natural▁9258
▁Histor▁9259
▁Skal▁9260
▁unterstütze▁9261
▁Um▁9262
arium▁9263
how▁9264
▁Kuppel▁9265
▁Praktik▁9266
▁Link▁9267
▁veranstaltet▁9268
view▁9269
SS▁9270
▁interaktive▁9271
▁Flugbahn▁9272
▁Caf▁9273
▁Matt▁9274
▁Manhattan▁9275
gemeinschaftlich▁9276
▁Rubi▁9277
▁Austellung▁9278
▁vergleichen▁9279
▁Kosmolog▁9280
▁Galaxien▁9281
espür▁9282
▁gebraucht▁9283
▁Urknall▁9284
▁WMAP▁9285
▁Mikrowellen▁9286
▁bedeutungslos▁9287
▁zurückgehen▁9288
sphäre▁9289
▁herausgekommen▁9290
▁Position▁9291
▁aktuell▁9292
▁Exo▁9293
planet▁9294
▁Sonnensystem▁9295
▁SI▁9296
▁hinab▁9297
▁Größenordnung▁9298
▁Bahn▁9299
▁Voyage▁9300
ioneer▁9301
▁Raumfahrzeug▁9302
▁Umlaufbahn▁9303
▁aktualisiert▁9304
▁Porc▁9305
▁Cassini▁9306
verlauf▁9307
▁far▁9308
codier▁9309
sphase▁9310
▁Titan▁9311
▁Merk▁9312
▁ablenken▁9313
▁Nutzer▁9314
▁subsaharische▁9315
▁Bücherei▁9316
▁Ghetto▁9317
▁Kolumbien▁9318
▁Sek▁9319
und▁9320
▁Kambodscha▁9321
▁Samstag▁9322
▁Aqua▁9323
▁Satellit▁9324
▁Nepal▁9325
▁Lhasa▁9326
▁Tibet▁9327
gleichen▁9328
▁Gange▁9329
▁fortbesteh▁9330
▁Schnee▁9331
▁Maßstäbe▁9332
▁Gefängnis▁9333
lini▁9334
arni▁9335
▁hinterfragt▁9336
▁Bäume▁9337
▁Gefängnisse▁9338
▁meint▁9339
▁bewegliche▁9340
▁Häftlinge▁9341
geahnt▁9342
▁verkörper▁9343
generation▁9344
▁verwurzelt▁9345
▁Stamm▁9346
▁Zweig▁9347
verlagern▁9348
▁Gebilde▁9349
▁entschloss▁9350
▁verwandelte▁9351
▁Pinsel▁9352
kam▁9353
baum▁9354
▁Douglas▁9355
▁Stil▁9356
merk▁9357
▁Picasso▁9358
net▁9359
▁erlaubte▁9360
▁quantifizier▁9361
horn▁9362
▁zurückleg▁9363
▁Baum▁9364
▁multipliziert▁9365
▁ausrechne▁9366
▁bewegte▁9367
▁rate▁9368
▁186▁9369
(▁9370
▁statische▁9371
▁Schlüsse▁9372
ektion▁9373
▁star▁9374
▁Wechsel▁9375
rochen▁9376
▁Gitter▁9377
▁unbeweglich▁9378
▁2,3▁9379
▁inhaftiert▁9380
▁Förder▁9381
mittel▁9382
▁Erziehung▁9383
▁hoffnungslos▁9384
künstler▁9385
▁Staate▁9386
▁kooperieren▁9387
▁brachten▁9388
verträg▁9389
bund▁9390
▁Insasse▁9391
▁Sta▁9392
fford▁9393
fäng▁9394
▁gefährdete▁9395
▁restliche▁9396
▁Fish▁9397
▁Wild▁9398
life▁9399
Behörde▁9400
▁pre▁9401
osa▁9402
▁züchte▁9403
▁Feuchtgebiet▁9404
personal▁9405
▁gewalttätig▁9406
▁kahl▁9407
▁Psychologe▁9408
▁Kabine▁9409
▁Höfe▁9410
öf▁9411
▁kleb▁9412
▁Mauer▁9413
▁wenigsten▁9414
pez▁9415
▁Auskunft▁9416
ling▁9417
▁heitere▁9418
▁feststelle▁9419
▁Bewegungs▁9420
veränderung▁9421
▁Stämme▁9422
▁Phänomene▁9423
▁Kummer▁9424
▁Drogenabhängig▁9425
▁Rassis▁9426
▁Michael▁9427
▁Hans▁9428
▁Algorithmen▁9429
▁Vorlage▁9430
▁Vorliebe▁9431
▁Vorurteile▁9432
▁überraschen▁9433
▁faszinieren▁9434
▁erfreu▁9435
▁schlage▁9436
▁Schöpfer▁9437
schöpfung▁9438
▁Mor▁9439
pho▁9440
▁Teilung▁9441
▁Zelle▁9442
▁identisch▁9443
▁asymmetrische▁9444
▁vereinfachen▁9445
▁Fläche▁9446
nick▁9447
falten▁9448
▁simple▁9449
vielfa▁9450
▁Algorithm▁9451
fach▁9452
▁Variation▁9453
dimensionale▁9454
▁Volumen▁9455
▁Wiederholung▁9456
▁400.000▁9457
▁Falt▁9458
verhältnis▁9459
▁gefaltet▁9460
▁örtliche▁9461
▁Gegebenheit▁9462
urchlässig▁9463
▁reißen▁9464
▁generiert▁9465
▁99,9▁9466
▁geometrische▁9467
quivalent▁9468
▁Rauschen▁9469
▁langwierige▁9470
▁Kanten▁9471
zeichnen▁9472
▁Eben▁9473
▁Krümmung▁9474
familie▁9475
ügel▁9476
▁Eingabe▁9477
▁Verarbeitung▁9478
architektonische▁9479
▁algorithm▁9480
▁beinhalte▁9481
▁hineinzu▁9482
zoom▁9483
▁Wahrnehmung▁9484
▁mikroskopisch▁9485
▁Oberflächen▁9486
▁Erhebung▁9487
▁interessantere▁9488
▁vorstellbar▁9489
▁gewöhnlich▁9490
stimmen▁9491
▁Endergebnis▁9492
lot▁9493
▁Varianten▁9494
▁kultiviere▁9495
▁Analogie▁9496
▁abstimm▁9497
▁Theorie▁9498
grün▁9499
Brille▁9500
▁nah▁9501
▁berühren▁9502
Druck▁9503
▁Zwecke▁9504
▁ungünstige▁9505
▁Kompromiss▁9506
▁Auflösung▁9507
modell▁9508
▁dünn▁9509
gestapelt▁9510
▁Röntgenaufnahme▁9511
▁Außenseite▁9512
▁faltet▁9513
▁überraschende▁9514
▁errechnet▁9515
▁Schnitt▁9516
profil▁9517
▁Laser▁9518
schneide▁9519
▁Segment▁9520
▁Scheiben▁9521
▁einzeln▁9522
▁geschnitten▁9523
rstellung▁9524
▁Fe▁9525
inheiten▁9526
än▁9527
▁berechnen▁9528
▁dick▁9529
▁700▁9530
kante▁9531
lief▁9532
▁günstiger▁9533
▁Entwicklungen▁9534
▁AB▁9535
▁Stahl▁9536
▁Hybrid▁9537
▁Täuschung▁9538
ntwerfen▁9539
▁unzählige▁9540
▁träumen▁9541
▁Jan▁9542
▁Wil▁9543
▁Hoffman▁9544
▁Sputnik▁9545
Man▁9546
▁Filmmaterial▁9547
▁Dokument▁9548
▁Start▁9549
▁Sowjet▁9550
union▁9551
▁Wettrüsten▁9552
stieß▁9553
▁Gegenstand▁9554
▁heimlich▁9555
▁Weltall▁9556
▁erobert▁9557
▁Rakete▁9558
▁installiert▁9559
▁Funkgerät▁9560
▁4.▁9561
▁russische▁9562
▁Entdecker▁9563
▁Vasco▁9564
▁Ga▁9565
▁Columb▁9566
▁Ausschnitt▁9567
▁inspirierte▁9568
▁geschickt▁9569
▁Montag▁9570
▁Wasserstoff▁9571
bombe▁9572
▁angreifen▁9573
▁Träger▁9574
▁Historiker▁9575
▁Pearl▁9576
▁Harbo▁9577
▁Auslöser▁9578
▁Diskrepanz▁9579
artig▁9580
▁umfangreiche▁9581
▁Rüstung▁9582
erungen▁9583
▁1.2▁9584
▁nukleare▁9585
▁20.000▁9586
▁Zivil▁9587
▁78▁9588
▁Meinungsumfrage▁9589
▁Sieben▁9590
▁Stipendium▁9591
▁Ingenieurwesen▁9592
▁boom▁9593
▁Vint▁9594
▁ARPA▁9595
▁Dokumentation▁9596
▁einsetzt▁9597
▁Investoren▁9598
▁Veteran▁9599
▁Walker▁9600
▁Ken▁9601
▁Kam▁9602
▁schlimmste▁9603
▁Unglück▁9604
▁TEDMED▁9605
▁Extrem▁9606
▁bildgebende▁9607
▁Hirnforschung▁9608
zeigen▁9609
▁Konferenz▁9610
▁Vorträge▁9611
▁entfessel▁9612
lebensbedrohlich▁9613
berleben▁9614
▁8.▁9615
▁Geographic▁9616
▁tektonische▁9617
Gerät▁9618
▁vierten▁9619
cher▁9620
met▁9621
aku▁9622
▁böse▁9623
▁Winde▁9624
▁32▁9625
kilometer▁9626
▁gefühlt▁9627
▁niedriger▁9628
▁Mars▁9629
jacke▁9630
▁Wasserflasche▁9631
▁übel▁9632
lager▁9633
▁5.▁9634
400▁9635
▁verblasst▁9636
▁höchste▁9637
▁Bedarf▁9638
▁Zelt▁9639
MA▁9640
▁Wasserfall▁9641
▁Ratte▁9642
▁Labyrinth▁9643
▁Kante▁9644
▁stürzt▁9645
▁Sonnenaufg▁9646
gefügt▁9647
▁Sicherheits▁9648
▁aufsteigen▁9649
▁1.▁9650
▁Vorder▁9651
rücken▁9652
▁3.▁9653
▁Fix▁9654
eil▁9655
stream▁9656
grat▁9657
weh▁9658
▁Vorräte▁9659
▁Rob▁9660
▁Teams▁9661
laut▁9662
▁fla▁9663
▁brechen▁9664
▁steil▁9665
▁Nächste▁9666
▁Tageslicht▁9667
▁unerwartet▁9668
maske▁9669
gerät▁9670
Flasche▁9671
▁expo▁9672
▁450▁9673
Meter▁9674
▁klettern▁9675
ange▁9676
klettert▁9677
▁fällt▁9678
▁bekleidet▁9679
▁ausgerüstet▁9680
▁Gra▁9681
▁Elemente▁9682
▁Funk▁9683
▁Doug▁9684
▁erschöpf▁9685
▁Beck▁9686
▁Weather▁9687
sammengebrochen▁9688
▁verwirrend▁9689
▁widersprach▁9690
▁Bur▁9691
▁Pet▁9692
than▁9693
▁funk▁9694
▁warte▁9695
▁lautete▁9696
▁herrschte▁9697
▁stabilisieren▁9698
riet▁9699
▁Ker▁9700
Grad▁9701
▁7.▁9702
300▁9703
gefüllt▁9704
▁Spritze▁9705
▁Steroide▁9706
jenige▁9707
▁Phase▁9708
▁Kleidung▁9709
▁manövrier▁9710
▁kümmerte▁9711
▁Neuseeland▁9712
▁schwanger▁9713
▁meldete▁9714
▁6.▁9715
koff▁9716
▁Angel▁9717
hlt▁9718
▁Erfri▁9719
wärme▁9720
▁einfrier▁9721
blind▁9722
▁Nirgendwo▁9723
▁wa▁9724
▁mum▁9725
▁spaziert▁9726
ept▁9727
versicherung▁9728
▁verbrannt▁9729
rose▁9730
▁Nar▁9731
▁berichtete▁9732
▁gelegen▁9733
▁ka▁9734
▁bli▁9735
zeln▁9736
▁schuf▁9737
gestanden▁9738
plex▁9739
steht▁9740
▁irreversibl▁9741
kühlung▁9742
▁SPECT▁9743
▁Hirn▁9744
funktion▁9745
▁vereinfacht▁9746
▁Frontall▁9747
bündel▁9748
▁Temporallappen▁9749
▁aufbewahr▁9750
hirn▁9751
▁Hirnstamm▁9752
▁Herzschlag▁9753
▁Atmung▁9754
▁dynamisch▁9755
▁Durchblutung▁9756
fluss▁9757
▁Scan▁9758
▁hinten▁9759
▁normaler▁9760
▁Gleich▁9761
▁aufleuchten▁9762
▁Gang▁9763
▁beruhigt▁9764
▁schaltet▁9765
▁Taten▁9766
▁Gyr▁9767
▁cingul▁9768
terior▁9769
▁fokussier▁9770
▁geleitet▁9771
Bereich▁9772
▁Fahrt▁9773
Scan▁9774
▁Hubschrauber▁9775
▁herauf▁9776
▁höchst▁9777
▁Kath▁9778
du▁9779
feier▁9780
old▁9781
zweige▁9782
▁heilig▁9783
▁zugewandt▁9784
▁Andy▁9785
▁Harris▁9786
mba▁9787
▁Gebet▁9788
fa▁9789
▁Gebete▁9790
yrone▁9791
▁Haye▁9792
+▁9793
▁Penelope▁9794
▁Jag▁9795
▁Cha▁9796
ffer▁9797
▁Chemikalien▁9798
▁Schwangerschaft▁9799
trazin▁9800
▁Herbi▁9801
▁genutzt▁9802
▁Konservierung▁9803
smittel▁9804
stoffe▁9805
▁Brustkrebs▁9806
tumor▁9807
▁schockierend▁9808
▁Statistiken▁9809
▁30-▁9810
krankheit▁9811
▁Auftreten▁9812
leuk▁9813
▁gestiegen▁9814
▁Asthma▁9815
▁erkrankt▁9816
▁Verhältnisse▁9817
▁Statistik▁9818
▁Autismus▁9819
▁autistische▁9820
▁Störung▁9821
▁Emp▁9822
▁Fettleibigkeit▁9823
dia▁9824
▁Pub▁9825
▁Gift▁9826
▁Pestizide▁9827
▁Nützliche▁9828
▁Amphibie▁9829
einiger▁9830
▁Grundwasser▁9831
▁Trinkwasser▁9832
▁Regenwasser▁9833
▁0,1▁9834
▁hervorbrachte▁9835
▁Keim▁9836
drüse▁9837
▁Hoden▁9838
▁Eier▁9839
stöcke▁9840
▁aufweis▁9841
▁Leopard▁9842
frosch▁9843
▁dot▁9844
rigen▁9845
reiten▁9846
▁Hühnereier▁9847
▁Erlebnisse▁9848
▁aktuelle▁9849
▁genetisch▁9850
▁männlich▁9851
▁hormonelle▁9852
▁Ungleichgewicht▁9853
▁Testosteron▁9854
▁Enzym▁9855
▁Aroma▁9856
ase▁9857
verwe▁9858
ib▁9859
▁reguliert▁9860
▁Krebszelle▁9861
▁wandelt▁9862
▁And▁9863
▁neueste▁9864
ikal▁9865
▁Let▁9866
ozo▁9867
▁blockiert▁9868
▁mutiert▁9869
▁Pfund▁9870
▁führende▁9871
run▁9872
▁Tumore▁9873
▁Gegenmittel▁9874
▁anstelle▁9875
nutzen▁9876
förder▁9877
PJ▁9878
▁Bis▁9879
phenol▁9880
▁BP▁9881
▁Bindung▁9882
▁poly▁9883
carbon▁9884
haltige▁9885
▁synthetische▁9886
therapie▁9887
▁sickert▁9888
▁Säugling▁9889
milch▁9890
▁eindring▁9891
▁do▁9892
▁Neugeborene▁9893
▁Europäische▁9894
▁Union▁9895
▁Gesetz▁9896
▁verabschiedet▁9897
▁Schnabel▁9898
▁verbiete▁9899
▁Senat▁9900
▁Verbot▁9901
▁abgelehnt▁9902
▁Pflicht▁9903
▁Plastikflasche▁9904
nachlässig▁9905
▁th▁9906
sterben▁9907
▁einig▁9908
▁Dinosaurier▁9909
▁verschwand▁9910
▁Nachwuchs▁9911
▁Indikator▁9912
▁sensib▁9913
▁Membran▁9914
▁Plazenta▁9915
▁Säugetiere▁9916
organism▁9917
▁uralte▁9918
▁unterscheidet▁9919
▁weiterentwickel▁9920
▁hervorgerufen▁9921
▁Fehlgeburt▁9922
▁Erhalt▁9923
▁Hormone▁9924
▁Prostata▁9925
erkrankung▁9926
▁Jungtier▁9927
▁erleide▁9928
▁beeinträchtigt▁9929
leib▁9930
gewachsen▁9931
▁Enkel▁9932
til▁9933
estro▁9934
▁PCB▁9935
▁DDT▁9936
▁Diabetes▁9937
▁gesäu▁9938
▁bzw▁9939
ES▁9940
▁bislang▁9941
▁Darstellung▁9942
Kontroll▁9943
af▁9944
flu▁9945
oc▁9946
▁Güte▁9947
▁künstliche▁9948
▁Mosc▁9949
▁schütte▁9950
kontaminier▁9951
▁Ultraschall▁9952
▁Belastung▁9953
artige▁9954
nsporn▁9955
▁verrückte▁9956
▁kontaminierte▁9957
▁Aktivistin▁9958
▁Lücken▁9959
▁Spermien▁9960
kanäle▁9961
▁leer▁9962
▁Fruchtbarkeit▁9963
gesenkt▁9964
▁Reptilien▁9965
▁Südamerika▁9966
kolleg▁9967
▁Samen▁9968
▁erheblich▁9969
▁Urin▁9970
▁Mexikaner▁9971
▁Carson▁9972
bug▁9973
▁Uganda▁9974
▁Abfluss▁9975
▁Eimer▁9976
geschwächt▁9977
▁Oakland▁9978
▁Dörfer▁9979
▁betätige▁9980
▁Wasserhahn▁9981
▁Herrscher▁9982
rwärmung▁9983
▁interne▁9984
▁Umweltschutz▁9985
▁loslasse▁9986
▁ignorieren▁9987
▁drängt▁9988
▁voranschreiten▁9989
kraft▁9990
▁Pol▁9991
ha▁9992
▁Daw▁9993
▁Wirbelsturm▁9994
▁verwüstet▁9995
Schriftstellerin▁9996
▁fixiert▁9997
▁verpasse▁9998
▁Hurrikan▁9999
▁Hund▁10000
▁Mau▁10001
▁Stromausfall▁10002
▁fürchtete▁10003
▁Spazier▁10004
▁schleppte▁10005
▁Etage▁10006
▁Lä▁10007
▁Batterie▁10008
verkauf▁10009
▁Dusche▁10010
studio▁10011
▁Bäckerei▁10012
rei▁10013
▁Steckdose▁10014
venue▁10015
▁Schirm▁10016
▁Krisen▁10017
situation▁10018
▁merkt▁10019
▁Gemeinsamkeit▁10020
▁geraten▁10021
▁Roman▁10022
▁Bogen▁10023
▁gebrochene▁10024
▁Enttäuschung▁10025
bogen▁10026
▁eindringliche▁10027
▁eingebettet▁10028
▁Sandkorn▁10029
blüht▁10030
▁Gemüt▁10031
fassung▁10032
▁Bedauern▁10033
▁Befürchtung▁10034
▁kleinste▁10035
▁geschrumpft▁10036
fähig▁10037
einheit▁10038
▁Datenmenge▁10039
sekunde▁10040
▁Millionstel▁10041
pfeil▁10042
▁Ursache▁10043
▁Beweg▁10044
gründe▁10045
▁Pfeil▁10046
▁gerät▁10047
▁zielt▁10048
▁fließ▁10049
▁gest▁10050
▁Delhi▁10051
letzt▁10052
vier▁10053
▁archivier▁10054
▁Unterscheidung▁10055
ißt▁10056
▁seelische▁10057
lenken▁10058
▁Wahr▁10059
▁Schriftsteller▁10060
▁twitter▁10061
▁dauernd▁10062
▁Exil▁10063
▁Konkurrenz▁10064
▁fehl▁10065
▁fehlen▁10066
sprachige▁10067
▁französische▁10068
▁Mac▁10069
nachrichten▁10070
▁versende▁10071
▁Illusion▁10072
▁zerschmetter▁10073
▁zurückkehrte▁10074
▁fehlende▁10075
wunden▁10076
ströme▁10077
▁simultan▁10078
▁fließen▁10079
▁Jünger▁10080
geboren▁10081
▁Grossvater▁10082
▁geübt▁10083
▁Bud▁10084
▁Don▁10085
▁Spanisch▁10086
▁Rei▁10087
▁App▁10088
▁Terrasse▁10089
▁Jupiter▁10090
▁Saturn▁10091
▁verband▁10092
▁geknüpft▁10093
▁schwerer▁10094
▁Seifenblase▁10095
▁aufbewahrt▁10096
▁umfasst▁10097
▁Seil▁10098
▁Sari▁10099
▁sprang▁10100
▁Küche▁10101
▁hack▁10102
▁schuld▁10103
lehrer▁10104
▁friss▁10105
ständigkeit▁10106
splitter▁10107
▁Behar▁10108
▁wendet▁10109
▁Hundert▁10110
Laptop▁10111
▁türkische▁10112
▁Speer▁10113
▁Krieger▁10114
▁Möbelstück▁10115
pei▁10116
▁Nackt▁10117
▁gruselig▁10118
▁Gegenstände▁10119
▁nehme▁10120
▁gefiel▁10121
▁Skifahre▁10122
urf▁10123
▁Schweizer▁10124
▁Brett▁10125
▁Mast▁10126
oil▁10127
froren▁10128
▁graph▁10129
▁Außergewöhnlich▁10130
▁Silicon▁10131
▁Valley▁10132
haushalt▁10133
▁Häuser▁10134
▁Beratung▁10135
▁Meetings▁10136
▁Manager▁10137
PO▁10138
▁Luke▁10139
▁erwart▁10140
▁hob▁10141
hinein▁10142
Taste▁10143
▁N▁10144
ther▁10145
haut▁10146
zierung▁10147
▁außen▁10148
▁Illustrator▁10149
list▁10150
▁Zitat▁10151
▁Werbung▁10152
▁Faust▁10153
use▁10154
project▁10155
alität▁10156
▁Mini▁10157
tik▁10158
▁diskret▁10159
winkel▁10160
▁Hersteller▁10161
▁Hock▁10162
eller▁10163
▁Leucht▁10164
▁Swa▁10165
ov▁10166
▁Gestalt▁10167
▁Schlau▁10168
tafel▁10169
▁Le▁10170
Lampe▁10171
▁Herman▁10172
▁Miller▁10173
▁aufwändige▁10174
▁viereinhalb▁10175
▁Lampe▁10176
▁einmalige▁10177
▁Benutzer▁10178
▁warm▁10179
▁helle▁10180
Färbung▁10181
▁vermisch▁10182
▁Helligkeit▁10183
▁Human▁10184
▁kommerziell▁10185
▁humanitäre▁10186
▁zustimmen▁10187
▁Mehr▁10188
▁Fragestellung▁10189
▁Nachhaltigkeit▁10190
Energieverbrauch▁10191
▁Klebstoff▁10192
▁Jaw▁10193
bone▁10194
▁humanistische▁10195
▁sprich▁10196
▁blend▁10197
geräusche▁10198
istisch▁10199
▁Spielerei▁10200
▁Nerd▁10201
▁Sorgfalt▁10202
▁Sonnenbrille▁10203
▁aussuche▁10204
▁Schmuck▁10205
▁Access▁10206
▁aufmerksam▁10207
▁Schalt▁10208
▁innen▁10209
▁digitalisier▁10210
▁bezeichne▁10211
▁Arbeitsweise▁10212
▁vielfältige▁10213
▁Stange▁10214
ain▁10215
▁Rahm▁10216
▁Ali▁10217
▁verwirklicht▁10218
▁widme▁10219
▁Gewinne▁10220
▁partner▁10221
Herangehensweise▁10222
▁Getränk▁10223
▁Bra▁10224
symmetrisch▁10225
▁zusammenbau▁10226
▁Wörter▁10227
▁why▁10228
▁not▁10229
▁verwoben▁10230
▁Unterfangen▁10231
▁gerecht▁10232
Kind▁10233
▁wertvollste▁10234
▁Besitz▁10235
▁Nichol▁10236
▁Negro▁10237
pont▁10238
▁Gründer▁10239
▁OLPC▁10240
Mission▁10241
▁vorangegangene▁10242
▁bedeutsam▁10243
▁preiswert▁10244
▁loswerde▁10245
▁wiedererkenn▁10246
▁Errungenschaft▁10247
▁WiFi▁10248
▁Sonnenein▁10249
▁Tastatur▁10250
▁Gummi▁10251
flüsse▁10252
Leute▁10253
Zulieferer▁10254
▁Uru▁10255
gua▁10256
▁Mongol▁10257
▁wandte▁10258
▁bunt▁10259
▁Herstellung▁10260
sprozesse▁10261
▁vermischt▁10262
▁Entwicklungsl▁10263
ändern▁10264
▁Neffe▁10265
▁Schweiz▁10266
▁Nachmittag▁10267
▁anderthalb▁10268
▁Version▁10269
▁Papp▁10270
City▁10271
▁Valenti▁10272
▁Automat▁10273
freundliche▁10274
▁pu▁10275
ard▁10276
▁Obdachlosen▁10277
▁Werbe▁10278
▁Stigma▁10279
stöß▁10280
▁Schaffen▁10281
▁Egg▁10282
Preis▁10283
Community▁10284
▁fesselnde▁10285
egeister▁10286
alencia▁10287
Zentrum▁10288
▁ehrenamtlich▁10289
▁ungemein▁10290
▁geschlafen▁10291
▁Neil▁10292
gesessen▁10293
▁verglich▁10294
freude▁10295
▁beteilig▁10296
▁Brooklyn▁10297
nommen▁10298
▁tags▁10299
swerte▁10300
schärfe▁10301
▁flexible▁10302
lop▁10303
uote▁10304
▁Lehrerin▁10305
▁inspirierend▁10306
▁arbeitende▁10307
▁Hürde▁10308
▁lehrt▁10309
sstufe▁10310
▁Schreiben▁10311
▁sonder▁10312
defizit▁10313
fin▁10314
▁Weiß▁10315
▁Lehr▁10316
kompetenz▁10317
á▁10318
▁multipliziere▁10319
▁klon▁10320
▁nachgedacht▁10321
▁Redakteur▁10322
▁prinzipiell▁10323
▁spreche▁10324
▁Griff▁10325
▁Vorrang▁10326
▁Nähr▁10327
▁aufgeklärt▁10328
▁Interessen▁10329
brachte▁10330
Swee▁10331
ney▁10332
uarter▁10333
gemeinde▁10334
▁Gebäudes▁10335
▁schriftlich▁10336
▁Barriere▁10337
tauscht▁10338
▁Vermiete▁10339
gemälde▁10340
▁wunderbar▁10341
▁Grundstück▁10342
▁Gewerbe▁10343
▁müsst▁10344
▁einfallen▁10345
▁notwendige▁10346
▁Recherche▁10347
röhren▁10348
▁riss▁10349
▁Aussehen▁10350
▁renoviert▁10351
wisst▁10352
▁Rumpf▁10353
▁Zubehör▁10354
▁gewerbliche▁10355
▁Piraten▁10356
▁Serv▁10357
▁Schrei▁10358
▁lies▁10359
beine▁10360
gefertigt▁10361
▁past▁10362
▁Schilder▁10363
▁Pra▁10364
hertz▁10365
▁Leine▁10366
Theke▁10367
theater▁10368
quarium▁10369
▁Stühle▁10370
com▁10371
▁Auktion▁10372
▁Holi▁10373
day▁10374
wartet▁10375
▁Reklame▁10376
▁Gehweg▁10377
▁Komm▁10378
▁demo▁10379
sproblem▁10380
▁Mexic▁10381
▁nötige▁10382
tätigkeit▁10383
▁übernahm▁10384
▁Kirchen▁10385
bank▁10386
▁Eins▁10387
▁Blöcke▁10388
▁umge▁10389
die▁10390
▁Verlag▁10391
▁High▁10392
▁modellier▁10393
Symbiose▁10394
▁draus▁10395
▁glückliche▁10396
▁1.4▁10397
schulter▁10398
▁konzentrierte▁10399
▁strahlt▁10400
▁Transform▁10401
▁gewachsen▁10402
▁Ausflug▁10403
▁beach▁10404
▁Nie▁10405
liehen▁10406
▁Cind▁10407
▁Event▁10408
ima▁10409
▁schickt▁10410
▁melde▁10411
▁Anleitung▁10412
Raum▁10413
▁Middle▁10414
▁dekoriert▁10415
▁Bibliothek▁10416
▁52▁10417
▁Stra▁10418
Up▁10419
▁kontinuierliche▁10420
▁Kolumne▁10421
▁Bürgermeister▁10422
▁Gavi▁10423
om▁10424
▁Isabel▁10425
▁Allende▁10426
▁Thu▁10427
▁Marshall▁10428
▁sponser▁10429
▁Bay▁10430
▁Area▁10431
▁Amazon▁10432
▁bisherige▁10433
▁externe▁10434
▁170▁10435
▁Regal▁10436
trüb▁10437
▁Entwürfe▁10438
▁absolute▁10439
bücher▁10440
▁Umsatz▁10441
▁Miete▁10442
▁Richter▁10443
▁verdient▁10444
▁bezahlte▁10445
karten▁10446
▁Kette▁10447
▁Papagei▁10448
▁Haken▁10449
chu▁10450
▁Erdgeschoss▁10451
▁gemeinnützige▁10452
▁durchgängig▁10453
▁schloss▁10454
selbstständig▁10455
bekämpfung▁10456
▁Brook▁10457
▁Superhelden▁10458
▁Sam▁10459
▁Pot▁10460
dienst▁10461
▁Bösewicht▁10462
stecken▁10463
▁Li▁10464
▁Heldentum▁10465
▁Verkaufs▁10466
zahlen▁10467
▁Sharo▁10468
▁Hob▁10469
▁Jersey▁10470
▁Akte▁10471
▁Umhang▁10472
stufen▁10473
tür▁10474
▁lä▁10475
hack▁10476
▁vollen▁10477
racht▁10478
▁Handwerker▁10479
▁Bezirk▁10480
ingabe▁10481
▁Khal▁10482
▁Ham▁10483
dan▁10484
▁süchtig▁10485
▁Videospiele▁10486
▁TV▁10487
▁entfliehen▁10488
zeitig▁10489
▁Hausaufgabe▁10490
▁began▁10491
▁Pen▁10492
gu▁10493
▁box▁10494
▁Pinguin▁10495
▁Symphon▁10496
▁Space▁10497
itz▁10498
▁Evangeli▁10499
▁Cousin▁10500
mitglieder▁10501
ile▁10502
▁Echo▁10503
▁Mammut▁10504
▁Slu▁10505
▁betrieb▁10506
▁Zentr▁10507
▁Word▁10508
▁Pitt▁10509
▁Massac▁10510
etts▁10511
incin▁10512
nati▁10513
outh▁10514
▁Fight▁10515
▁Dublin▁10516
ddy▁10517
oyle▁10518
▁wünsche▁10519
▁Individuum▁10520
▁Sprünge▁10521
▁kreiert▁10522
▁Zusammen▁10523
▁Geister▁10524
▁Hilf▁10525
▁Hot▁10526
▁phänomenale▁10527
▁On▁10528
▁Up▁10529
▁dokumentiere▁10530
▁Dead▁10531
▁antreiben▁10532
ide▁10533
▁steril▁10534
▁offene▁10535
▁schließ▁10536
▁Root▁10537
▁Wol▁10538
tree▁10539
▁grundsätzliche▁10540
scha▁10541
▁biotechnolog▁10542
zykl▁10543
zyklus▁10544
▁Darwin▁10545
▁sche▁10546
▁zufällige▁10547
▁Mutation▁10548
istische▁10549
▁evolutionäre▁10550
▁gekennzeichnet▁10551
siedeln▁10552
▁Bezeichnung▁10553
▁vorsätzliche▁10554
Entwicklung▁10555
▁intelligente▁10556
▁physiologische▁10557
tour▁10558
▁Artenvielf▁10559
alt▁10560
▁gezüchtet▁10561
▁Tausend▁10562
▁extra▁10563
▁Rind▁10564
▁Büffel▁10565
▁Schi▁10566
▁Scha▁10567
▁Ziege▁10568
▁süße▁10569
▁Huhn▁10570
▁schmecken▁10571
▁Kamel▁10572
▁Lama▁10573
▁kombiniere▁10574
kreis▁10575
▁Katze▁10576
▁Löwe▁10577
triff▁10578
▁Zer▁10579
▁Photoshop▁10580
▁Manipulation▁10581
▁normale▁10582
▁Genetik▁10583
▁ginge▁10584
▁Spann▁10585
▁Säugetier▁10586
▁stammen▁10587
qualle▁10588
▁leuchten▁10589
kreuz▁10590
▁Wellenlänge▁10591
▁orange▁10592
▁Koralle▁10593
▁Affen▁10594
▁Menschenaffen▁10595
▁komplexer▁10596
▁Haustiere▁10597
▁Zebra▁10598
▁Schwarz▁10599
▁Silber▁10600
▁Regierungs▁10601
▁Environmental▁10602
rotection▁10603
▁Agenc▁10604
▁Drug▁10605
dministration▁10606
▁FDA▁10607
▁Lachs▁10608
ook▁10609
▁Speise▁10610
▁Futter▁10611
▁modifiziert▁10612
▁Komponente▁10613
▁jegliche▁10614
▁Kennzeich▁10615
▁gek▁10616
Gen▁10617
▁plastisch▁10618
▁Prome▁10619
▁Pferd▁10620
linger▁10621
▁Gold▁10622
grube▁10623
▁Klo▁10624
▁Deck▁10625
▁identische▁10626
plikat▁10627
▁Grau▁10628
▁Schwein▁10629
▁Car▁10630
▁Dotcom▁10631
▁missbraucht▁10632
▁Anti▁10633
tic▁10634
üdkorea▁10635
▁Gau▁10636
▁Huf▁10637
atische▁10638
zelle▁10639
▁Eizelle▁10640
▁Kuh▁10641
▁befruchtet▁10642
▁Schaf▁10643
▁interessantes▁10644
wirf▁10645
Art▁10646
uk▁10647
paket▁10648
▁vererbt▁10649
▁Zeitalter▁10650
▁Biotechnologie▁10651
▁reizend▁10652
▁Asia▁10653
▁Kakerlake▁10654
zell▁10655
pflanzt▁10656
▁Sender▁10657
▁quer▁10658
▁Insekten▁10659
Roboter▁10660
▁DARPA▁10661
Projekt▁10662
▁Defens▁10663
Forschung▁10664
▁Käfer▁10665
▁Flügel▁10666
▁verkabelt▁10667
▁Chip▁10668
▁herumfliegen▁10669
▁Stadium▁10670
Technologie▁10671
▁schlüpf▁10672
berwachung▁10673
▁aussende▁10674
schütz▁10675
▁Kriegs▁10676
Rat▁10677
▁SUN▁10678
▁Down▁10679
state▁10680
▁linke▁10681
▁Gehirnhälfte▁10682
▁ethisch▁10683
▁Autonomi▁10684
▁experimentiert▁10685
▁Mig▁10686
▁Nicole▁10687
▁Duke▁10688
affe▁10689
▁überwach▁10690
▁fortbeweg▁10691
gehirn▁10692
▁Prothesen▁10693
Arm▁10694
wellen▁10695
▁verstanden▁10696
monitor▁10697
äfig▁10698
▁Affe▁10699
prothese▁10700
▁Gehirnwelle▁10701
▁Primaten▁10702
▁Armen▁10703
▁Florida▁10704
▁60.000▁10705
▁zerfallen▁10706
Neu▁10707
geschlossen▁10708
Bau▁10709
▁Mechanismus▁10710
simulator▁10711
chip▁10712
▁selbständig▁10713
▁organisieren▁10714
▁Mu▁10715
▁photo▁10716
Gehirn▁10717
▁nahrhaft▁10718
▁Befehl▁10719
▁gehorch▁10720
▁immun▁10721
▁polymer▁10722
▁Gerüst▁10723
gekoppelt▁10724
▁Physi▁10725
rot▁10726
pla▁10727
▁Craig▁10728
▁Venter▁10729
▁Entstehung▁10730
▁Frankenstein▁10731
ette▁10732
▁manipulier▁10733
ckel▁10734
ever▁10735
▁Fell▁10736
▁rosa▁10737
▁Speichel▁10738
▁organ▁10739
▁Spielzeuge▁10740
▁Konsequenz▁10741
▁perfektioniert▁10742
▁ethische▁10743
Fiction▁10744
▁ungeheure▁10745
zero▁10746
▁tanzende▁10747
▁Ball▁10748
▁TEDGlobal▁10749
▁balancier▁10750
▁konstruiert▁10751
studium▁10752
TH▁10753
rich▁10754
▁Räder▁10755
▁instabil▁10756
▁Balance▁10757
▁konstant▁10758
▁Sensor▁10759
▁vermeide▁10760
▁Trick▁10761
▁konstante▁10762
▁Distanz▁10763
sensor▁10764
▁montiert▁10765
▁umkreisen▁10766
▁Parks▁10767
▁Monitor▁10768
▁informieren▁10769
▁unterhaltsam▁10770
▁spaßig▁10771
▁Apparate▁10772
▁herumzu▁10773
▁Fußabdruck▁10774
▁Debora▁10775
▁Rhode▁10776
▁Physiker▁10777
erkennung▁10778
gewebe▁10779
▁herkömmliche▁10780
▁Mammographie▁10781
▁verblüffend▁10782
▁breiten▁10783
▁gerettet▁10784
▁Presse▁10785
▁Radiologe▁10786
Bildgebung▁10787
▁Patente▁10788
rztin▁10789
▁diagnostiziert▁10790
▁ängstlich▁10791
▁zuversichtlich▁10792
▁Mammogramm▁10793
▁fände▁10794
aufnahme▁10795
▁radi▁10796
ologische▁10797
dienste▁10798
ografie▁10799
untersuchung▁10800
▁vierzig▁10801
▁kritisiert▁10802
deckung▁10803
▁entsetzt▁10804
▁herausragend▁10805
▁äußert▁10806
▁qualifiziert▁10807
zuschätzen▁10808
▁radio▁10809
logisch▁10810
▁öfter▁10811
▁verklagt▁10812
▁rechtliche▁10813
▁Rauch▁10814
wahrscheinlich▁10815
▁Fett▁10816
menge▁10817
▁pink▁10818
▁sink▁10819
enopaus▁10820
▁Einzelheit▁10821
bericht▁10822
assi▁10823
fizieren▁10824
▁gemäß▁10825
▁verstreut▁10826
ichtung▁10827
▁gefolg▁10828
▁Wolf▁10829
pel▁10830
▁Röntgenstrahl▁10831
▁Brüste▁10832
anteil▁10833
findig▁10834
▁Risikofaktor▁10835
klärt▁10836
▁Röntgen▁10837
Infrastruktur▁10838
rüsten▁10839
▁Steuergelder▁10840
kostet▁10841
▁Biopsie▁10842
▁teuer▁10843
▁bahnbrechende▁10844
▁allgegenwärtig▁10845
▁Muster▁10846
▁LKW▁10847
▁Malco▁10848
▁Gladwell▁10849
▁Genie▁10850
▁zitiert▁10851
▁Innovator▁10852
▁Cartoon▁10853
▁gedruckt▁10854
▁Stör▁10855
▁Denker▁10856
▁Besuch▁10857
▁May▁10858
▁Nuklear▁10859
physik▁10860
▁Conne▁10861
▁spezialisiert▁10862
▁Detektor▁10863
▁Gamma▁10864
zubilden▁10865
▁potenzielle▁10866
▁unerlässlich▁10867
berlebenschance▁10868
▁massiv▁10869
▁Rohr▁10870
▁Klebe▁10871
▁trennt▁10872
▁Molekular▁10873
olecular▁10874
aging▁10875
▁MBI▁10876
▁Umriss▁10877
▁ergänzt▁10878
Ingenieur▁10879
gehalten▁10880
▁Skeptik▁10881
nahmen▁10882
▁Kontrast▁10883
▁molekulare▁10884
▁staatliche▁10885
▁Gesetzen▁10886
▁geregelt▁10887
▁last▁10888
losen▁10889
▁Ränder▁10890
▁unscharf▁10891
▁deutlicher▁10892
▁chirurgische▁10893
▁auswirk▁10894
▁Susan▁10895
▁Stiftung▁10896
bewerb▁10897
▁auswählt▁10898
gelesen▁10899
absorb▁10900
▁korrelier▁10901
lte▁10902
▁Sekretär▁10903
▁beunruhigend▁10904
▁Farb▁10905
▁Golf▁10906
▁Lymphknoten▁10907
osi▁10908
▁Strahlung▁10909
▁fortgesetzt▁10910
▁67▁10911
▁agressiv▁10912
▁herausstellte▁10913
▁routinemäßig▁10914
▁Fünftel▁10915
▁eintausend▁10916
atom▁10917
isches▁10918
sorgniserregend▁10919
Radio▁10920
logen▁10921
Aufnahme▁10922
▁bahnbrechend▁10923
▁interpretiere▁10924
▁bemerkenswerte▁10925
▁Journal▁10926
prüfung▁10927
▁Manuskript▁10928
konflikt▁10929
▁konkurrierende▁10930
logy▁10931
▁breit▁10932
▁finanziell▁10933
▁Bundes▁10934
staat▁10935
▁hit▁10936
zig▁10937
jahr▁10938
▁bleibende▁10939
▁Kontroll▁10940
aufnahmen▁10941
▁weitergehen▁10942
erblichkeitsrate▁10943
▁Schlagzeile▁10944
▁Verfechter▁10945
erkranken▁10946
▁Verri▁10947
ngerung▁10948
▁Erfolge▁10949
▁Babys▁10950
▁Mittelstufe▁10951
▁unterzog▁10952
▁Raspyni▁10953
Brüder▁10954
▁jonglieren▁10955
▁scherze▁10956
▁Jongleur▁10957
▁demonstrieren▁10958
▁verblüffende▁10959
ilität▁10960
▁Koordination▁10961
▁Barry▁10962
▁moderner▁10963
gelegenheit▁10964
omi▁10965
▁Komfort▁10966
▁Flexib▁10967
▁DH▁10968
▁Show▁10969
▁inspirierende▁10970
▁Daniel▁10971
stütze▁10972
▁Extra▁10973
▁Spezielle▁10974
▁MacArthur▁10975
▁Mosche▁10976
▁Jonglier▁10977
technik▁10978
▁hör▁10979
pt▁10980
topf▁10981
ong▁10982
opper▁10983
▁verlangsamt▁10984
fordere▁10985
▁bedarf▁10986
▁perfekter▁10987
▁Rechten▁10988
▁vermassel▁10989
▁Richard▁10990
▁Tradition▁10991
▁gefährliche▁10992
▁Act▁10993
▁Peitsche▁10994
▁jahrelang▁10995
▁blöd▁10996
▁Entschuldigung▁10997
▁Gefahren▁10998
gott▁10999
▁stell▁11000
▁Wurma▁11001
RW▁11002
▁Hör▁11003
▁Rich▁11004
schön▁11005
▁Anrufe▁11006
▁schlimme▁11007
▁Flash▁11008
▁glaub▁11009
▁sp▁11010
▁Glori▁11011
▁scharf▁11012
▁beurteilen▁11013
▁Klinge▁11014
▁Bleistift▁11015
▁perfektionieren▁11016
▁Perfektion▁11017
▁Jungfrau▁11018
▁ok▁11019
▁Wer▁11020
pfel▁11021
▁roh▁11022
▁Tu▁11023
▁tanzt▁11024
▁Stop▁11025
▁erzähl▁11026
▁Biografie▁11027
▁Meisterschaft▁11028
töpfe▁11029
urren▁11030
ule▁11031
▁Zwilling▁11032
▁Klappe▁11033
▁Set▁11034
up▁11035
▁Pan▁11036
ähnliche▁11037
▁wind▁11038
▁Held▁11039
▁She▁11040
▁Jr▁11041
▁Olympia▁11042
▁unklar▁11043
▁Vokal▁11044
▁trete▁11045
▁Weltrekord▁11046
▁Zunge▁11047
▁Keulen▁11048
▁Stone▁11049
kunft▁11050
▁Gelenk▁11051
itis▁11052
▁neuartige▁11053
Mensch▁11054
taten▁11055
▁Kollege▁11056
rthritis▁11057
hnliche▁11058
geheiratet▁11059
sgeschichte▁11060
▁orthopädische▁11061
▁dis▁11062
▁ließen▁11063
zustimmen▁11064
▁gewandt▁11065
▁Bauteile▁11066
genutzt▁11067
▁Körperteile▁11068
▁innehalte▁11069
▁natürlicher▁11070
▁Pfad▁11071
▁erwäg▁11072
▁Erneuerung▁11073
▁bedürfe▁11074
▁Stammzellen▁11075
▁biologischer▁11076
▁Ersatzteile▁11077
▁Altersgruppe▁11078
▁Doc▁11079
▁Stoß▁11080
ämp▁11081
transplantat▁11082
gelenk▁11083
kapsel▁11084
▁ersetzt▁11085
▁transplantier▁11086
▁beschädigt▁11087
kno▁11088
▁Wander▁11089
▁Aspen▁11090
▁Verfassung▁11091
▁Hu▁11092
▁Past▁11093
▁Motorräder▁11094
▁spend▁11095
▁reichlich▁11096
▁Hindernis▁11097
top▁11098
▁Gal▁11099
act▁11100
▁Achilles▁11101
▁beseitigt▁11102
▁Säure▁11103
Waschmittel▁11104
▁abbau▁11105
▁Prozedur▁11106
▁Mix▁11107
wäsch▁11108
ili▁11109
streifen▁11110
trip▁11111
ping▁11112
Technik▁11113
▁vermenschlichen▁11114
änder▁11115
▁pflanzte▁11116
▁Zulassung▁11117
experiment▁11118
▁kanadische▁11119
own▁11120
hill▁11121
Meister▁11122
heft▁11123
▁ausstatte▁11124
▁nutzbar▁11125
▁dicker▁11126
bul▁11127
▁Hardware▁11128
ware▁11129
▁app▁11130
ita▁11131
▁Argumente▁11132
▁pen▁11133
ible▁11134
▁Chef▁11135
▁Fein▁11136
ecker▁11137
▁Delikatesse▁11138
▁Heuschrecke▁11139
▁Raupe▁11140
▁punct▁11141
▁Geschmack▁11142
▁ausgewogene▁11143
▁herumlaufen▁11144
▁Durchschnitts▁11145
▁Schätzung▁11146
▁vorsichtig▁11147
▁57▁11148
▁profitiert▁11149
▁Irakkrieg▁11150
▁billiger▁11151
▁Dung▁11152
▁bestäuben▁11153
▁Nutzpflanzen▁11154
▁Reproduktion▁11155
▁Schädling▁11156
ji▁11157
▁wundervoll▁11158
▁zubereitet▁11159
▁Mahlzeit▁11160
▁Bienen▁11161
ehrt▁11162
▁is▁11163
▁Gramm▁11164
▁Tomaten▁11165
▁Erdnuss▁11166
Nudel▁11167
▁Suppe▁11168
behörden▁11169
▁Bälle▁11170
▁Kekse▁11171
▁Su▁11172
imi▁11173
stäbchen▁11174
▁Camp▁11175
▁Farbstoff▁11176
▁gefärbt▁11177
fleisch▁11178
▁Insekt▁11179
onnen▁11180
▁Peru▁11181
▁Euro▁11182
▁wertvolle▁11183
▁färbe▁11184
▁exponentiell▁11185
FA▁11186
▁Vieh▁11187
▁Vegetarier▁11188
▁mühelos▁11189
▁zusammenhäng▁11190
▁Organe▁11191
▁ausbreiten▁11192
▁1990▁11193
▁Niederlande▁11194
brach▁11195
▁tödlich▁11196
▁verwandt▁11197
▁Kilogramm▁11198
▁Rindfleisch▁11199
▁Ertrag▁11200
▁Bonus▁11201
▁herauskomm▁11202
erschwendung▁11203
▁Treibhausgase▁11204
▁schädlich▁11205
▁qualitativ▁11206
▁gewöhn▁11207
äche▁11208
▁gefüttert▁11209
▁variieren▁11210
▁Krebse▁11211
▁Arno▁11212
ld▁11213
▁van▁11214
▁verrichte▁11215
▁aussterben▁11216
▁fröhlich▁11217
▁erhältlich▁11218
▁Pe▁11219
eter▁11220
▁prop▁11221
▁2020▁11222
▁niederländische▁11223
cola▁11224
sminister▁11225
▁Speisekarte▁11226
▁Ministerium▁11227
klassige▁11228
▁Hobby▁11229
▁Bruno▁11230
proben▁11231
▁Biss▁11232
▁Gius▁11233
sani▁11234
▁köstlich▁11235
▁Nüsse▁11236
▁Larry▁11237
ssig▁11238
▁Remix▁11239
ED▁11240
▁Republikaner▁11241
▁Demokrat▁11242
▁vermeintlich▁11243
▁konservative▁11244
▁gegnerische▁11245
▁Partei▁11246
▁Copyright▁11247
Kultur▁11248
▁Konservative▁11249
▁nostalgi▁11250
▁Tee▁11251
▁Age▁11252
▁Republican▁11253
▁Leiter▁11254
▁Mitglied▁11255
legation▁11256
▁Versammlung▁11257
onald▁11258
▁Reagan▁11259
schaftskandidat▁11260
▁Wikipedia▁11261
lvani▁11262
▁Jüngste▁11263
versammlung▁11264
▁Lawrence▁11265
▁speichern▁11266
▁geheil▁11267
▁Kirche▁11268
▁verschenke▁11269
▁Wall▁11270
Firmen▁11271
▁Zusammenhänge▁11272
▁zelebrier▁11273
▁vordringen▁11274
exist▁11275
▁Großartige▁11276
kologi▁11277
▁Teddy▁11278
▁Roosevelt▁11279
konomie▁11280
▁essentiell▁11281
▁Julian▁11282
▁Institute▁11283
▁furchtbare▁11284
▁Pack▁11285
ania▁11286
▁viral▁11287
▁original▁11288
uatsch▁11289
▁Aufruf▁11290
▁Existenz▁11291
▁folg▁11292
äre▁11293
Charakter▁11294
▁Urheberrechts▁11295
▁unvermeidlich▁11296
▁Popkultur▁11297
▁Güter▁11298
▁Option▁11299
▁Werke▁11300
▁Konzepte▁11301
▁use▁11302
▁Sorge▁11303
▁leitete▁11304
Film▁11305
▁remix▁11306
▁Mick▁11307
▁Mouse▁11308
boat▁11309
▁Willi▁11310
▁Keat▁11311
▁steckte▁11312
▁Sonn▁11313
▁Bono▁11314
tension▁11315
▁Rechte▁11316
▁Gebrüder▁11317
▁Grim▁11318
▁umsetzt▁11319
▁Fußnote▁11320
▁Ikone▁11321
▁Figur▁11322
▁Mash▁11323
gefordert▁11324
▁Lizenz▁11325
▁hinzufügt▁11326
ris▁11327
▁Urheber▁11328
ächter▁11329
▁Eigentümer▁11330
Inhaber▁11331
▁ausgesprochen▁11332
▁Vorsitzende▁11333
▁Goldman▁11334
▁Sach▁11335
▁respektiere▁11336
▁Creative▁11337
▁Common▁11338
behalten▁11339
urheberrechtlich▁11340
▁Tool▁11341
liegt▁11342
▁Urheberrecht▁11343
▁lizensier▁11344
▁350▁11345
▁ausbalancier▁11346
stolpert▁11347
▁informierte▁11348
▁mysteriöse▁11349
▁gehörte▁11350
▁Con▁11351
gesperrt▁11352
▁DMCA▁11353
▁stumm▁11354
geschaltet▁11355
▁Bruchstücke▁11356
▁Group▁11357
▁abspielt▁11358
schrieb▁11359
▁Bart▁11360
▁kind▁11361
▁bestätigen▁11362
▁em▁11363
schaftswahl▁11364
▁vorderste▁11365
Prinzip▁11366
axis▁11367
▁Irr▁11368
▁geheim▁11369
▁Abkommen▁11370
▁irrsinnig▁11371
▁Thre▁11372
ike▁11373
▁Reform▁11374
sehbare▁11375
kenntnis▁11376
▁Instanz▁11377
▁verinnerlich▁11378
▁Bang▁11379
▁bewegende▁11380
▁Deep▁11381
▁BMW▁11382
▁SUV▁11383
designer▁11384
▁Hierarchie▁11385
▁ästhetische▁11386
▁Michelangelo▁11387
▁Automobil▁11388
▁Fahr▁11389
stühle▁11390
▁funktional▁11391
sorgt▁11392
mweltverschmutz▁11393
gegenstände▁11394
▁hingeg▁11395
Brennstoffzellen▁11396
sucht▁11397
▁befallen▁11398
▁Anzug▁11399
▁vervielfältig▁11400
▁Zorn▁11401
immel▁11402
verkehr▁11403
▁Chevy▁11404
▁Bildhauer▁11405
▁reproduzieren▁11406
▁Original▁11407
▁Handwerk▁11408
▁Skulptur▁11409
drang▁11410
▁Trieb▁11411
▁Drang▁11412
fassen▁11413
▁Inner▁11414
inblick▁11415
greif▁11416
▁erwacht▁11417
▁platonische▁11418
▁Eitel▁11419
▁Newton▁11420
uanten▁11421
methode▁11422
▁Widersprüche▁11423
gestehen▁11424
▁tendieren▁11425
▁4,▁11426
0▁11427
▁4,000▁11428
▁orientiert▁11429
▁Finden▁11430
▁innewohn▁11431
▁Anblick▁11432
▁gewiss▁11433
wettbewerb▁11434
▁Schwärme▁11435
bürste▁11436
▁Sub▁11437
management▁11438
knüpfen▁11439
▁Inti▁11440
mität▁11441
▁stressig▁11442
▁Vorstand▁11443
▁Temperament▁11444
▁Pygm▁11445
▁verliebt▁11446
▁Geliebte▁11447
▁Telefonnummer▁11448
▁Beleg▁11449
Phänomen▁11450
▁IBM▁11451
▁gestohlen▁11452
▁Fax▁11453
▁Gas▁11454
hau▁11455
trick▁11456
▁zusammenkomm▁11457
▁monumental▁11458
▁anhäuf▁11459
▁Postkarten▁11460
▁Las▁11461
▁Vega▁11462
▁Grand▁11463
▁Canyon▁11464
▁Niagara▁11465
▁Nachforschung▁11466
▁Wohnung▁11467
▁Elizabeth▁11468
▁Taylor▁11469
▁Rund▁11470
Uhr▁11471
▁zurückgelassen▁11472
▁Bad▁11473
▁errichtet▁11474
▁faszinierend▁11475
▁Tasse▁11476
ieht▁11477
▁Begleit▁11478
▁gestresst▁11479
schel▁11480
▁Erwartung▁11481
▁zusammenfinde▁11482
▁herausragende▁11483
▁herüber▁11484
branche▁11485
▁Lösen▁11486
▁Agenda▁11487
▁rechne▁11488
▁mental▁11489
▁überwältigt▁11490
▁Mist▁11491
häuft▁11492
▁schrie▁11493
▁Kreativ▁11494
▁Ti▁11495
witsch▁11496
▁ruhige▁11497
▁sauer▁11498
▁Cathe▁11499
rine▁11500
▁Hochzeit▁11501
▁hübsche▁11502
▁Predigt▁11503
▁erwarte▁11504
uan▁11505
ifizierung▁11506
▁innerlich▁11507
schmiede▁11508
▁Kreation▁11509
▁Cross▁11510
Co▁11511
▁brute▁11512
iful▁11513
▁it▁11514
ourself▁11515
▁Sinclair▁11516
▁Immobilien▁11517
Me▁11518
▁bankrott▁11519
gewerbe▁11520
Kollegen▁11521
▁welch▁11522
Industrie▁11523
▁Katar▁11524
▁anzusehen▁11525
▁Wolkenkratzer▁11526
AE▁11527
▁verbi▁11528
rgt▁11529
pflicht▁11530
▁1,1▁11531
▁Inder▁11532
▁Pakistani▁11533
▁Sri▁11534
ker▁11535
▁Arbeitskräfte▁11536
▁eingehen▁11537
▁Klimaanlage▁11538
▁Beamte▁11539
▁Behörden▁11540
leute▁11541
▁Build▁11542
safe▁11543
▁August▁11544
▁1.0▁11545
98▁11546
▁primitiv▁11547
stimmung▁11548
▁protestier▁11549
▁Löhne▁11550
▁Unterkünfte▁11551
▁Finanzkrise▁11552
▁Bauunternehmer▁11553
▁Kredit▁11554
schuldet▁11555
▁unmittelbare▁11556
ets▁11557
▁gegenwärtig▁11558
▁Menschenrechte▁11559
▁Bilanz▁11560
kohle▁11561
oxy▁11562
▁energies▁11563
ame▁11564
▁Anlage▁11565
wurf▁11566
▁Tyle▁11567
▁totale▁11568
▁Lehrpläne▁11569
▁Lehrbuch▁11570
▁Lieblingsthem▁11571
▁diskutiere▁11572
▁Grundidee▁11573
▁erleichter▁11574
geprägt▁11575
▁rat▁11576
▁Mikroskop▁11577
▁Horror▁11578
▁verdorben▁11579
▁grässlich▁11580
▁euer▁11581
lbtraum▁11582
DNA▁11583
ehlt▁11584
▁Baupla▁11585
fabrik▁11586
pläne▁11587
▁list▁11588
schmuggel▁11589
pionage▁11590
▁Clou▁11591
▁fügt▁11592
▁terroristische▁11593
▁Schläfe▁11594
▁Faszinierende▁11595
▁erweiterte▁11596
NG▁11597
School▁11598
Abschluss▁11599
▁garantiere▁11600
▁has▁11601
▁Lehrbücher▁11602
▁Verleger▁11603
▁begeistern▁11604
▁angesehen▁11605
▁Schleim▁11606
▁unverständlich▁11607
▁Kopie▁11608
▁Bak▁11609
phage▁11610
▁Nukle▁11611
▁initiiert▁11612
▁13-▁11613
autor▁11614
▁Technische▁11615
▁akkurat▁11616
▁Tyrann▁11617
▁sinnlos▁11618
▁hässlich▁11619
▁Jean▁11620
▁Je▁11621
gging▁11622
,7▁11623
mov▁11624
▁spezifische▁11625
▁ruiniert▁11626
▁aufrechter▁11627
▁fle▁11628
source▁11629
▁denkbar▁11630
▁Fünf▁11631
klässler▁11632
▁Freizeit▁11633
▁Produzieren▁11634
▁Gleichgewicht▁11635
tanz▁11636
▁Ferien▁11637
▁erhalte▁11638
▁dankbar▁11639
▁nehm▁11640
▁Blog▁11641
▁weckt▁11642
▁nervig▁11643
▁erfinde▁11644
weltfreundliche▁11645
▁Trocken▁11646
▁Baumaterial▁11647
▁CO▁11648
2-▁11649
abdruck▁11650
▁Eco▁11651
▁saubere▁11652
cy▁11653
effiziente▁11654
▁Serious▁11655
▁bestellt▁11656
▁Arktis▁11657
▁Sushi▁11658
▁Gips▁11659
rock▁11660
▁Zement▁11661
▁ausprobiere▁11662
Produktion▁11663
▁Deze▁11664
mber▁11665
▁Brei▁11666
▁laufende▁11667
▁Fließband▁11668
▁Aufregende▁11669
▁Cradle▁11670
▁Green▁11671
ear▁11672
findung▁11673
▁Popular▁11674
▁Gallone▁11675
▁Benzin▁11676
▁entsprechen▁11677
▁ausgleichen▁11678
Ausstoß▁11679
part▁11680
▁abgelaufen▁11681
▁Nathali▁11682
▁zurückblicken▁11683
▁Windows▁11684
▁Ban▁11685
▁Not▁11686
künfte▁11687
röhre▁11688
▁benutzte▁11689
▁Umweltprobleme▁11690
▁wasserdicht▁11691
hitze▁11692
▁temporäre▁11693
▁330▁11694
urchmesser▁11695
▁Toilettenpapier▁11696
▁Expo▁11697
▁Pavillon▁11698
▁recycling▁11699
▁Fertigstell▁11700
▁Abbau▁11701
▁wiederverwende▁11702
▁recycelt▁11703
müll▁11704
▁Pomp▁11705
▁Paris▁11706
▁Büros▁11707
▁Eintrittskarte▁11708
▁beliebte▁11709
▁privilegiert▁11710
▁historisch▁11711
Naturkatastrophe▁11712
▁1994▁11713
▁Tutsi▁11714
▁Flüchtlinge▁11715
Flüchtlingslager▁11716
▁UN▁11717
▁fällen▁11718
▁Abholzung▁11719
problem▁11720
rohr▁11721
ara▁11722
geworfen▁11723
nutzung▁11724
▁Termiten▁11725
▁1995▁11726
▁Kobe▁11727
▁vietnamesische▁11728
▁katholische▁11729
▁vertraute▁11730
▁pendeln▁11731
▁Vietnamese▁11732
▁armselig▁11733
▁Wiederaufbau▁11734
schafft▁11735
▁Fundament▁11736
kä▁11737
▁Kir▁11738
▁Asa▁11739
traut▁11740
▁Taiwan▁11741
tempo▁11742
▁Türke▁11743
▁Sumatra▁11744
▁Tsunami▁11745
▁Lanka▁11746
▁Chen▁11747
▁Provinz▁11748
▁Sich▁11749
▁70.000▁11750
▁Korruption▁11751
inisterpräsident▁11752
con▁11753
▁Premierminister▁11754
▁liebenswürdig▁11755
halle▁11756
▁Konzerthalle▁11757
▁Konzert▁11758
▁Haiti▁11759
▁flog▁11760
▁Santo▁11761
▁Domin▁11762
▁evakuier▁11763
▁leiden▁11764
▁geistig▁11765
▁Abteilung▁11766
▁Vorhänge▁11767
▁Verwalter▁11768
lec▁11769
▁Des▁11770
▁freundlich▁11771
awa▁11772
iya▁11773
felder▁11774
▁Fracht▁11775
church▁11776
kamen▁11777
anthrop▁11778
▁älteste▁11779
▁Skelett▁11780
▁humanoid▁11781
▁weiten▁11782
▁Belege▁11783
▁Steinwerkzeuge▁11784
▁erkunden▁11785
▁Sela▁11786
▁vollständige▁11787
▁3,3▁11788
▁Australopithec▁11789
fare▁11790
sis▁11791
ordne▁11792
▁Luc▁11793
▁Titelseite▁11794
▁Zeitschriften▁11795
▁Fund▁11796
▁Anthropologe▁11797
▁Gastgeber▁11798
▁2,6▁11799
▁Flöten▁11800
▁Nachweis▁11801
▁Perlen▁11802
verfolgen▁11803
▁Schimpansen▁11804
▁auseinander▁11805
▁Erbgut▁11806
▁Herkunft▁11807
▁Fossilien▁11808
slücke▁11809
▁Mechanism▁11810
▁treibende▁11811
▁grad▁11812
▁feindselig▁11813
▁einheimische▁11814
fel▁11815
▁Spitz▁11816
▁bahnt▁11817
▁unfassbar▁11818
▁pal▁11819
▁Ausgrabung▁11820
▁ausgestorben▁11821
berreste▁11822
▁Nashörner▁11823
▁Wüste▁11824
apien▁11825
▁Anekdote▁11826
▁leistet▁11827
▁Assistent▁11828
achtung▁11829
▁Knochen▁11830
▁such▁11831
▁Elefant▁11832
ray▁11833
▁Löwen▁11834
▁müde▁11835
▁ermüdend▁11836
▁frustrierend▁11837
▁Sandstein▁11838
▁Wirbelsäule▁11839
block▁11840
▁früheste▁11841
▁faszinierender▁11842
liches▁11843
▁Nahaufnahme▁11844
▁Fossil▁11845
▁Säu▁11846
▁Aufbereitung▁11847
▁Minister▁11848
▁Tourismus▁11849
museum▁11850
▁erledigt▁11851
▁Stammbaum▁11852
▁angehört▁11853
▁vergleich▁11854
▁Schädel▁11855
▁vertikale▁11856
Kortex▁11857
▁Eck▁11858
▁Abstammung▁11859
▁CT▁11860
▁ausbilde▁11861
klettern▁11862
charakteristisch▁11863
▁verbring▁11864
▁begriffen▁11865
▁menschlich▁11866
▁stützt▁11867
▁Kehl▁11868
kopf▁11869
▁assoziiert▁11870
▁stetig▁11871
▁Bedeutsam▁11872
▁erwachsenen▁11873
ossi▁11874
▁beschränkt▁11875
wohnen▁11876
▁löst▁11877
▁Exemplar▁11878
▁sapien▁11879
▁Urahn▁11880
▁erfolgreichste▁11881
▁meister▁11882
▁primitive▁11883
▁kompetent▁11884
▁selbstsicher▁11885
fried▁11886
fertig▁11887
▁geparkt▁11888
▁abbilde▁11889
▁verknüpfen▁11890
▁Parkplatz▁11891
▁park▁11892
▁Homer▁11893
▁Hippocamp▁11894
▁lateinische▁11895
▁Seepferd▁11896
▁Nervenzellen▁11897
▁Impulse▁11898
blättern▁11899
▁räumliche▁11900
stöber▁11901
▁Nervenzelle▁11902
▁Impuls▁11903
▁sendet▁11904
▁feuern▁11905
▁quadratisch▁11906
▁Platzzelle▁11907
▁Epilep▁11908
tiker▁11909
überwachung▁11910
▁feuert▁11911
fuhr▁11912
▁Schuss▁11913
▁untere▁11914
▁Abstände▁11915
▁verbreitete▁11916
zieren▁11917
▁Abgrenzung▁11918
▁nähert▁11919
▁kreisförmig▁11920
▁dehnt▁11921
▁Vermutung▁11922
▁ausgedehnt▁11923
bewegen▁11924
glied▁11925
gliederung▁11926
▁Gitterzelle▁11927
▁ähneln▁11928
forscht▁11929
▁verschiedener▁11930
gitter▁11931
▁Dreieck▁11932
bewegt▁11933
▁Aufenthaltsort▁11934
▁Symmetrie▁11935
orient▁11936
▁reine▁11937
▁MRT▁11938
rinde▁11939
▁visuelle▁11940
schleppt▁11941
zeugen▁11942
▁Visualisierung▁11943
▁geschä▁11944
▁Vernetzung▁11945
▁reaktivier▁11946
▁Kompass▁11947
▁Vorgänge▁11948
▁vorstellt▁11949
▁Funktionen▁11950
▁Jones▁11951
▁Zauber▁11952
ado▁11953
can▁11954
beinige▁11955
▁berühmt▁11956
▁Vorhang▁11957
▁Solar▁11958
▁Josh▁11959
▁Rote▁11960
▁Vanco▁11961
uver▁11962
15▁11963
▁bedeutend▁11964
▁TEDxS▁11965
▁skizziert▁11966
▁mitreißende▁11967
▁fange▁11968
▁Dasein▁11969
▁Rat▁11970
▁Unternehmens▁11971
▁aß▁11972
krempeln▁11973
▁heikle▁11974
▁Arbeitsleben▁11975
bal▁11976
▁berichten▁11977
lödsinn▁11978
thema▁11979
vereinbar▁11980
▁eingebunden▁11981
erkennen▁11982
▁Abertausende▁11983
Shirt▁11984
▁Ruder▁11985
▁durchgehen▁11986
▁Kinderbetreu▁11987
▁Alptraum▁11988
▁erstellte▁11989
▁anstrebt▁11990
frühstück▁11991
▁Feierabend▁11992
▁meditier▁11993
▁realistisch▁11994
scheiden▁11995
▁Pension▁11996
▁ausgeglichen▁11997
▁scheiterte▁11998
▁angemeldet▁11999
▁spott▁12000
▁fit▁12001
ham▁12002
Tag▁12003
press▁12004
▁entmutigend▁12005
▁Scheiß▁12006
▁Harry▁12007
▁abhol▁12008
▁beendete▁12009
▁albern▁12010
▁Spiele▁12011
▁Pizza▁12012
▁bad▁12013
▁Batman▁12014
▁deck▁12015
▁Kuss▁12016
▁Disneyland▁12017
▁Playstation▁12018
▁Umbruch▁12019
▁radikal▁12020
▁Gut▁12021
▁Böse▁12022
▁argumentiert▁12023
▁wertschätzen▁12024
▁unw▁12025
▁Steine▁12026
▁potentielle▁12027
▁Leid▁12028
▁Behauptung▁12029
▁Fakt▁12030
▁Komplexität▁12031
▁missverstanden▁12032
▁Zustände▁12033
▁Ewigkeit▁12034
▁Leiden▁12035
▁Kontinuum▁12036
▁Fremde▁12037
▁willkürlich▁12038
▁ermordet▁12039
▁Cholera▁12040
▁bezieh▁12041
mordattentäter▁12042
▁72▁12043
▁Jenseits▁12044
▁bedauernswerte▁12045
▁prägt▁12046
▁reif▁12047
▁Psychologie▁12048
▁bewusste▁12049
▁Landkarte▁12050
▁my▁12051
stisch▁12052
▁spirituell▁12053
▁Psyche▁12054
▁garantiert▁12055
▁Atom▁12056
▁bombardier▁12057
▁Geschäfts▁12058
▁betreffen▁12059
blühen▁12060
▁21▁12061
üsse▁12062
▁Blasen▁12063
▁Standort▁12064
▁Connecti▁12065
cut▁12066
▁ausdrücklich▁12067
▁religiös▁12068
wörter▁12069
▁offensichtliche▁12070
defin▁12071
worfen▁12072
▁Spec▁12073
▁Statue▁12074
fähigkeit▁12075
▁Marathon▁12076
vision▁12077
gehalt▁12078
richtig▁12079
▁gleichwertig▁12080
▁Aufblühen▁12081
▁maximier▁12082
▁Grundsätze▁12083
▁analog▁12084
▁brilliant▁12085
▁geringste▁12086
beutel▁12087
ähle▁12088
▁ablehnen▁12089
▁unterdrückt▁12090
▁Brauch▁12091
▁freiwillig▁12092
▁Schleier▁12093
▁Scham▁12094
▁zugegeben▁12095
▁Falsche▁12096
▁reflektieren▁12097
▁optimale▁12098
▁solcher▁12099
mag▁12100
▁Linse▁12101
geschlechtliche▁12102
▁Genozid▁12103
▁Atomwaffen▁12104
sek▁12105
Wissenschaftler▁12106
Typ▁12107
alai▁12108
▁integral▁12109
▁Glücks▁12110
▁Ted▁12111
▁Bund▁12112
▁entführt▁12113
▁gefoltert▁12114
sverschiedenheit▁12115
▁Intellektuelle▁12116
▁potentiell▁12117
▁Van▁12118
▁Edward▁12119
▁Witt▁12120
▁String▁12121
heoretiker▁12122
▁Physik▁12123
▁auftreten▁12124
Theorie▁12125
Club▁12126
▁Experti▁12127
▁berücksichtigt▁12128
▁Ignoranz▁12129
▁zuzu▁12130
▁destruktiv▁12131
fund▁12132
▁zerbrech▁12133
▁kitten▁12134
▁Toleranz▁12135
standard▁12136
von▁12137
▁red▁12138
tüte▁12139
▁muslimische▁12140
▁Besonderheit▁12141
▁Konversation▁12142
▁verschleier▁12143
▁tätowier▁12144
▁wörtlich▁12145
▁49▁12146
▁Burk▁12147
klang▁12148
gewogen▁12149
ltigkeit▁12150
▁negative▁12151
▁Barmherzigkeit▁12152
▁beleuchte▁12153
▁selbstbewusst▁12154
▁ausgebildet▁12155
▁begehren▁12156
FG▁12157
▁Zwang▁12158
▁scannen▁12159
▁Sicherheit▁12160
▁Urteil▁12161
▁schwul▁12162
öpft▁12163
▁barmherzig▁12164
▁Ekstase▁12165
sprengt▁12166
▁Kavita▁12167
▁Ram▁12168
da▁12169
▁ermächtigt▁12170
wandeln▁12171
▁Trends▁12172
mächtig▁12173
▁rettet▁12174
▁Polar▁12175
▁verschwimm▁12176
▁Moderne▁12177
▁Unterdrückung▁12178
▁Rag▁12179
▁Gesellschaften▁12180
▁Kopftuch▁12181
▁Widerstand▁12182
▁verstümmelt▁12183
▁pflanzen▁12184
▁gewaltlose▁12185
isieren▁12186
▁Chim▁12187
▁Adichie▁12188
▁sammelte▁12189
gläubig▁12190
▁Muslim▁12191
▁Les▁12192
▁Kroat▁12193
▁Liberia▁12194
▁gesegnet▁12195
▁zutiefst▁12196
▁Onkel▁12197
rüstung▁12198
▁elf▁12199
▁Witwe▁12200
▁Verwandte▁12201
▁farbenfrohe▁12202
▁zerbrach▁12203
reife▁12204
ani▁12205
▁gekannt▁12206
Ramu▁12207
schreiten▁12208
▁murmelt▁12209
kämpft▁12210
▁exzellente▁12211
▁rebellische▁12212
▁Feministin▁12213
▁Hind▁12214
berechtigung▁12215
▁Geschlechter▁12216
▁zurückgekehrt▁12217
▁gegründet▁12218
▁Sake▁12219
sprech▁12220
erin▁12221
▁Frauenrechte▁12222
▁Untergrund▁12223
▁Afghan▁12224
▁Koran▁12225
▁Prophe▁12226
▁Gläubige▁12227
nterrichtsstunde▁12228
▁pragmatis▁12229
▁Kleider▁12230
▁Imam▁12231
▁lächelt▁12232
witz▁12233
▁Moschee▁12234
Alphabetisierung▁12235
▁sorge▁12236
▁lächl▁12237
▁beobachte▁12238
▁Lesbo▁12239
▁Za▁12240
▁homosexuell▁12241
Unannehmlichkeit▁12242
▁Nachkriegs▁12243
alismus▁12244
eligi▁12245
▁unerträglich▁12246
▁Maz▁12247
▁Bosnien▁12248
▁Serb▁12249
▁Gender▁12250
▁Zwanziger▁12251
▁out▁12252
▁lesbisch▁12253
▁Leah▁12254
▁Roll▁12255
▁Rebellion▁12256
ugoslawi▁12257
▁Harmonie▁12258
▁Repertoire▁12259
▁serbische▁12260
Anleihe▁12261
▁Homosexu▁12262
trauen▁12263
▁repräsentiert▁12264
▁Out▁12265
▁Mittelalter▁12266
▁Tro▁12267
▁Balkan▁12268
lika▁12269
hai▁12270
▁Layma▁12271
▁jahrzehntelang▁12272
▁Bürgerkriege▁12273
tte▁12274
▁sorgte▁12275
▁Kindersoldat▁12276
▁verschleppt▁12277
▁träumte▁12278
▁Blutvergie▁12279
▁Anführer▁12280
▁Friede▁12281
▁Polizist▁12282
▁versprach▁12283
predigt▁12284
▁Eine▁12285
▁Christen▁12286
▁Protest▁12287
▁kleide▁12288
▁Make▁12289
▁wochenlang▁12290
verhandl▁12291
▁Verhandlung▁12292
▁verbliebene▁12293
▁angespannt▁12294
▁Polizei▁12295
älteste▁12296
▁bedacht▁12297
▁verleg▁12298
▁versieh▁12299
▁Westafrika▁12300
▁verflucht▁12301
▁weggehen▁12302
▁ehe▁12303
vertrag▁12304
▁Ellen▁12305
▁Staatsoberh▁12306
tritt▁12307
▁tapfere▁12308
cer▁12309
▁Einblicke▁12310
hili▁12311
pin▁12312
▁Reis▁12313
kuchen▁12314
▁Gay▁12315
▁Pri▁12316
▁Para▁12317
▁Ob▁12318
▁Marx▁12319
wandern▁12320
▁Bestrebung▁12321
▁verleihen▁12322
▁Verbündete▁12323
▁respektiert▁12324
▁Träumen▁12325
▁Feminismus▁12326
▁Unterdrück▁12327
▁herrschende▁12328
▁Erober▁12329
▁Kolonial▁12330
▁Bündel▁12331
▁Glaube▁12332
▁ultimative▁12333
▁Persönliche▁12334
▁politisch▁12335
eanor▁12336
▁Michelle▁12337
▁Shiri▁12338
▁bloße▁12339
▁Hose▁12340
bou▁12341
militar▁12342
gießen▁12343
web▁12344
▁hi▁12345
▁Kathr▁12346
▁Schulz▁12347
▁irren▁12348
▁Road▁12349
▁Providenc▁12350
▁Portland▁12351
▁Oregon▁12352
▁Neben▁12353
straßen▁12354
▁Nationalpark▁12355
▁South▁12356
▁Dakota▁12357
▁Schrift▁12358
▁Gesichts▁12359
▁imitiert▁12360
Rast▁12361
▁miss▁12362
▁verrate▁12363
▁Katz▁12364
▁Besprechung▁12365
urlaub▁12366
▁Blase▁12367
▁Gewissheit▁12368
▁Berufsleben▁12369
▁fürchterlich▁12370
irrt▁12371
▁verheerend▁12372
▁aufschlussreich▁12373
▁Irrtum▁12374
▁Mitleid▁12375
erregend▁12376
▁Kojote▁12377
▁Renn▁12378
jagt▁12379
rennt▁12380
▁realisiert▁12381
▁realisieren▁12382
schaut▁12383
▁feste▁12384
▁strukturelle▁12385
▁kulturell▁12386
▁Grundschul▁12387
▁verantwortungs▁12388
▁Dumm▁12389
Schüler▁12390
▁Over▁12391
achi▁12392
▁CFO▁12393
▁Astrophysik▁12394
Marathon▁12395
läufer▁12396
▁ausflipp▁12397
▁smart▁12398
▁talent▁12399
▁Beth▁12400
Krankenhaus▁12401
klinik▁12402
▁näht▁12403
esundheitspflege▁12404
▁Vorfall▁12405
▁Interessantes▁12406
▁Richtig▁12407
▁verlässlich▁12408
▁Betracht▁12409
▁Mexiko▁12410
ped▁12411
▁widerspiegel▁12412
▁zurückgreife▁12413
▁ignorant▁12414
▁Zugriff▁12415
▁großzügig▁12416
▁Tunnel▁12417
blicken▁12418
▁Idioten▁12419
▁Puzzle▁12420
verzerren▁12421
▁bösartig▁12422
▁Katastrophe▁12423
▁Erst▁12424
▁durchsichtig▁12425
▁Nachthimmel▁12426
▁Descartes▁12427
▁Augustin▁12428
▁sum▁12429
▁verge▁12430
▁Defekt▁12431
▁überwinden▁12432
senheit▁12433
Sendung▁12434
▁Thi▁12435
▁interview▁12436
▁wit▁12437
brigen▁12438
▁Anwesende▁12439
▁Leser▁12440
▁saugen▁12441
marsch▁12442
▁Massenver▁12443
nichtungswaffe▁12444
▁Mittlere▁12445
osni▁12446
▁Diktator▁12447
▁aufwachsen▁12448
▁nerd▁12449
▁Denkmal▁12450
▁revolutionär▁12451
▁Hase▁12452
▁Ley▁12453
mah▁12454
▁Intelligenz▁12455
▁Passion▁12456
▁Gewinner▁12457
gezapft▁12458
▁reise▁12459
▁Unterkunft▁12460
häu▁12461
▁Häuptling▁12462
▁hell▁12463
▁dreckig▁12464
nterwäsche▁12465
▁Wei▁12466
▁Begleiter▁12467
▁schlief▁12468
▁Puppe▁12469
▁Spule▁12470
▁Aktivismus▁12471
auftrag▁12472
▁Neunjährige▁12473
▁sichere▁12474
▁Blei▁12475
licher▁12476
▁aufgebläht▁12477
▁blass▁12478
▁Geschwister▁12479
▁zusammenleb▁12480
▁sport▁12481
wir▁12482
▁sportliche▁12483
▁Begehren▁12484
▁Child▁12485
▁Left▁12486
▁Behind▁12487
▁Millennium▁12488
Entwicklungsziel▁12489
▁abzielen▁12490
prostitution▁12491
liege▁12492
Kaugummi▁12493
▁TEDTalk▁12494
▁abgebrochen▁12495
▁überbrück▁12496
Nobelpreisträger▁12497
▁anwesend▁12498
oung▁12499
▁Girl▁12500
▁Project▁12501
▁hinsetze▁12502
▁Schulabschluss▁12503
▁Getränke▁12504
▁Wiederauf▁12505
▁Juan▁12506
▁Umkreis▁12507
▁sexuelle▁12508
▁wünschte▁12509
▁frustriert▁12510
▁Furcht▁12511
▁Vermögen▁12512
▁vergeben▁12513
Vo▁12514
pend▁12515
▁Erne▁12516
▁Intellekt▁12517
▁erschlossen▁12518
▁LG▁12519
▁Versöhnung▁12520
Initiative▁12521
▁Dreck▁12522
▁Epidemie▁12523
▁mitmachen▁12524
▁li▁12525
ianische▁12526
▁gha▁12527
Bühne▁12528
▁pessimistisch▁12529
ffnung▁12530
mine▁12531
▁Wahlen▁12532
▁mobilisier▁12533
▁Kandidaten▁12534
▁Vergewaltigung▁12535
schaffen▁12536
▁barbarisch▁12537
▁Gespräche▁12538
▁feindlich▁12539
wählen▁12540
gewählt▁12541
▁Lesl▁12542
▁Chang▁12543
▁Globalisierung▁12544
▁Reporterin▁12545
▁Mega▁12546
tasche▁12547
▁Schuldgefühl▁12548
ädchen▁12549
schuhe▁12550
stunden▁12551
▁iPad▁12552
▁Ungerechtigkeit▁12553
▁unterdrücken▁12554
▁Verlangen▁12555
▁Ausbeut▁12556
▁verlockend▁12557
▁respektlos▁12558
▁arrogant▁12559
▁Unsichtbarkeit▁12560
▁Mobiltelefon▁12561
drängt▁12562
▁unersättliche▁12563
▁gewöhnlichen▁12564
▁Chu▁12565
▁Ji▁12566
zulerne▁12567
▁Dong▁12568
▁taucht▁12569
wechseln▁12570
▁Nächte▁12571
▁Schlafsäle▁12572
▁herstellt▁12573
▁kennenlernte▁12574
▁entstellt▁12575
▁Abkürzung▁12576
▁Karl▁12577
▁Kapitalismus▁12578
fremd▁12579
▁Britische▁12580
▁Journalism▁12581
▁Einstieg▁12582
▁Berechnung▁12583
▁circa▁12584
▁Min▁12585
dorf▁12586
Portemonnaie▁12587
▁Coach▁12588
▁Leder▁12589
ake▁12590
▁Doo▁12591
▁amp▁12592
port▁12593
▁dämmert▁12594
▁320▁12595
▁drehte▁12596
▁heiratete▁12597
▁Hochzeits▁12598
▁pol▁12599
schuh▁12600
▁luxur▁12601
▁weiche▁12602
▁Vorzeige▁12603
▁Proportion▁12604
▁zeitlose▁12605
▁Masse▁12606
▁Elektronik▁12607
betrieb▁12608
gekündigt▁12609
▁l▁12610
▁spart▁12611
▁Buick▁12612
räne▁12613
▁vorübergehend▁12614
▁zurückschaue▁12615
▁Restaurants▁12616
▁Baustelle▁12617
▁Nike▁12618
▁witzig▁12619
▁vorfinde▁12620
▁hinausgehen▁12621
▁Apple▁12622
LC▁12623
▁Analphabet▁12624
▁Wochenende▁12625
▁initiiere▁12626
▁pragmatische▁12627
▁immense▁12628
bwärts▁12629
▁Mittelklasse▁12630
gesaugt▁12631
▁Verstehen▁12632
▁Schrö▁12633
gendorfer▁12634
Gregor▁12635
600▁12636
▁Kyros▁12637
Zylinder▁12638
zy▁12639
lin▁12640
kka▁12641
▁zerbrochen▁12642
▁Multi▁12643
▁spürt▁12644
östliche▁12645
▁Biographie▁12646
by▁12647
▁getrocknet▁12648
▁187▁12649
rolle▁12650
▁Invasion▁12651
▁Truppen▁12652
pot▁12653
▁Regime▁12654
▁Episode▁12655
▁Bel▁12656
az▁12657
▁Parallel▁12658
▁Rembrandt▁12659
▁Propheten▁12660
ez▁12661
▁Jerusalem▁12662
brand▁12663
schatz▁12664
▁Juden▁12665
▁Babel▁12666
plünder▁12667
▁golden▁12668
mahl▁12669
▁holt▁12670
gefäß▁12671
▁Feier▁12672
▁jüdische▁12673
▁Volks▁12674
▁Men▁12675
▁Alltags▁12676
▁Babylon▁12677
▁Mittelmeer▁12678
▁reichte▁12679
geleitet▁12680
▁irakische▁12681
gestürzt▁12682
▁verfasst▁12683
gegen▁12684
bertreibung▁12685
▁versklav▁12686
länder▁12687
▁Altar▁12688
ückkehr▁12689
▁Judentum▁12690
▁Verschiebung▁12691
▁Dari▁12692
religiös▁12693
format▁12694
▁verwalte▁12695
▁Angewohnheit▁12696
▁Vorbild▁12697
▁Alexander▁12698
▁Cyr▁12699
▁nachfolgende▁12700
rbietung▁12701
▁heterogen▁12702
▁Gründung▁12703
▁Jefferson▁12704
▁18.▁12705
▁Reichen▁12706
▁Ruin▁12707
▁baby▁12708
▁19.▁12709
▁hebräische▁12710
▁Geologie▁12711
▁erschüttert▁12712
▁Mar▁12713
duk▁12714
▁veranlasst▁12715
mütig▁12716
fass▁12717
▁Testament▁12718
▁Jehova▁12719
▁priest▁12720
▁deutet▁12721
▁angedeute▁12722
▁agiert▁12723
17▁12724
four▁12725
klar▁12726
▁imperial▁12727
▁Osteuropa▁12728
▁1918▁12729
▁Imperial▁12730
▁prägen▁12731
Dynast▁12732
▁Gar▁12733
▁islamische▁12734
▁angreif▁12735
lebenswichtig▁12736
▁Moslem▁12737
▁from▁12738
▁naheliegend▁12739
▁tolerant▁12740
▁Unterdrückte▁12741
wühlen▁12742
▁Rhetorik▁12743
▁oberste▁12744
▁Charta▁12745
▁Rep▁12746
▁Herbst▁12747
▁ausgedrückt▁12748
▁Nah▁12749
▁schrill▁12750
▁weise▁12751
▁Joshua▁12752
▁Krähen▁12753
▁Hacker▁12754
▁Erforschung▁12755
vögel▁12756
▁Alfred▁12757
▁Hitchcock▁12758
▁Snack▁12759
automat▁12760
▁Cocktail▁12761
party▁12762
▁beschwerte▁12763
▁wimmelt▁12764
▁anrichtet▁12765
▁Viecher▁12766
nordnung▁12767
▁blöde▁12768
▁ärgert▁12769
▁weiterlebe▁12770
▁Gegenzug▁12771
▁Parasiten▁12772
range▁12773
chte▁12774
▁anpassungsfähig▁12775
spitze▁12776
▁brüten▁12777
zählung▁12778
▁deuten▁12779
▁exponentielle▁12780
led▁12781
▁Röhrchen▁12782
▁Draht▁12783
▁passte▁12784
▁spontan▁12785
löcher▁12786
▁lästig▁12787
▁eingefangen▁12788
▁fortsetz▁12789
▁feststellte▁12790
▁leg▁12791
▁bedeutsame▁12792
▁urban▁12793
▁verschlossen▁12794
▁Ampel▁12795
▁geknackt▁12796
▁knack▁12797
endai▁12798
▁Vorort▁12799
▁Krähe▁12800
treue▁12801
▁Pandora▁12802
▁flexibel▁12803
▁Skinner▁12804
▁Kondition▁12805
▁Stufen▁12806
uszubilden▁12807
Erdnüsse▁12808
▁hüpfen▁12809
fliegen▁12810
▁vorbeikomm▁12811
▁besorg▁12812
▁zurückkommen▁12813
▁Münz▁12814
▁tie▁12815
▁langweil▁12816
hüpf▁12817
▁erfreut▁12818
▁Monopol▁12819
▁Rendite▁12820
▁Stadion▁12821
rang▁12822
▁Hauptsache▁12823
▁beiderseit▁12824
▁Logan▁12825
▁Stämmen▁12826
▁Business▁12827
USC▁12828
▁Führerschein▁12829
▁Stammes▁12830
neigung▁12831
wälzen▁12832
▁Bowl▁12833
right▁12834
▁bemerkten▁12835
▁Parti▁12836
räte▁12837
sprochen▁12838
▁Relevanz▁12839
▁Budweiser▁12840
lar▁12841
▁Clinton▁12842
mination▁12843
agte▁12844
present▁12845
▁Parteien▁12846
▁Tue▁12847
▁Obama▁12848
▁Gruppierung▁12849
▁zoom▁12850
▁sähe▁12851
▁Virgin▁12852
▁Tech▁12853
▁systematisch▁12854
▁beschissen▁12855
▁Law▁12856
▁Performance▁12857
▁entspring▁12858
▁Feindseligkeit▁12859
▁Fahrzeug▁12860
▁schwärm▁12861
▁spräche▁12862
brächte▁12863
▁weltverändernde▁12864
▁null▁12865
▁konkurrieren▁12866
▁hervorgeh▁12867
▁Aufzug▁12868
jo▁12869
▁Lächeln▁12870
▁Robotern▁12871
programm▁12872
▁lachte▁12873
▁klopfte▁12874
▁hmm▁12875
▁Zapp▁12876
Weihnachten▁12877
▁Weihnachtsbaum▁12878
▁Flur▁12879
▁Call▁12880
center▁12881
▁Dekoration▁12882
▁applaud▁12883
▁Größere▁12884
berschrift▁12885
utu▁12886
▁Wegweiser▁12887
▁noble▁12888
▁Auseinandersetz▁12889
lit▁12890
▁Bürgerkrieg▁12891
▁Wohnort▁12892
▁narzisstisch▁12893
▁widersprechen▁12894
erklärung▁12895
▁Phrase▁12896
▁unabdingbar▁12897
▁Leb▁12898
▁Luther▁12899
▁48▁12900
dis▁12901
▁schubse▁12902
▁Fransisco▁12903
▁wanderte▁12904
▁angeregt▁12905
▁versammel▁12906
trächtig▁12907
netzwerk▁12908
▁steigert▁12909
▁Gallup▁12910
BC▁12911
▁gelangweilt▁12912
▁ermitteln▁12913
▁McCain▁12914
owa▁12915
nobelpreis▁12916
▁Schwarzafrika▁12917
▁Frederic▁12918
agadd▁12919
▁Micro▁12920
werkzeuge▁12921
▁Fellow▁12922
▁vervielfach▁12923
▁Chips▁12924
bür▁12925
sgegenstand▁12926
ahara▁12927
▁AIDS▁12928
zuschlagen▁12929
▁kostenlose▁12930
▁Volkswirtschaft▁12931
▁Zusammenbruch▁12932
▁bewahrt▁12933
resistente▁12934
tämme▁12935
tro▁12936
Medikamente▁12937
▁Miniatur▁12938
▁füllt▁12939
▁Rechenmaschine▁12940
▁liebt▁12941
rofluid▁12942
▁Funktionsweise▁12943
▁Kanäle▁12944
▁Pumpe▁12945
werke▁12946
belastung▁12947
hundert▁12948
▁sicherer▁12949
▁praktikab▁12950
▁befördern▁12951
▁Jona▁12952
▁Tricks▁12953
▁visuell▁12954
▁überwältigend▁12955
▁Blüten▁12956
▁Pollen▁12957
▁Landebahn▁12958
▁ultraviolette▁12959
viertel▁12960
▁Teufels▁12961
▁vermehren▁12962
▁Ableger▁12963
ktronenmikroskop▁12964
▁Heu▁12965
upfen▁12966
▁ineffizient▁12967
▁Nasen▁12968
▁landet▁12969
schleuder▁12970
▁Blume▁12971
▁Gräser▁12972
▁Bestimmung▁12973
▁Nektar▁12974
▁Kolibri▁12975
schwärme▁12976
▁Markierung▁12977
▁Staub▁12978
▁Lil▁12979
▁ahnungslos▁12980
▁Beutel▁12981
▁Orchidee▁12982
▁Maul▁12983
rabbeln▁12984
▁Bestäuber▁12985
üssel▁12986
▁rollt▁12987
▁Rüssel▁12988
streckte▁12989
▁Nachahmer▁12990
▁kopiert▁12991
▁hinschau▁12992
▁übertragen▁12993
Haus▁12994
haben▁12995
Bilder▁12996
▁Textur▁12997
▁glänzende▁12998
metall▁12999
▁Elektronen▁13000
Mikro▁13001
skop▁13002
▁Biene▁13003
▁vertreiben▁13004
angebot▁13005
▁fabelhaft▁13006
▁Can▁13007
aba▁13008
▁riech▁13009
▁Blüte▁13010
▁Heli▁13011
icero▁13012
▁bestäub▁13013
acula▁13014
fleck▁13015
stab▁13016
▁Dor▁13017
set▁13018
▁erwärmt▁13019
temperatur▁13020
▁hineinschau▁13021
▁angezogen▁13022
▁Behälter▁13023
schlaf▁13024
▁Bor▁13025
▁Mücken▁13026
▁Favorit▁13027
▁Sel▁13028
▁verbrenn▁13029
rennung▁13030
▁unüblich▁13031
▁Schmetterlinge▁13032
▁tropische▁13033
▁Grün▁13034
▁Sonnen▁13035
Filter▁13036
scheibe▁13037
▁Filter▁13038
creme▁13039
▁absorbieren▁13040
▁abschließend▁13041
▁Bjor▁13042
▁Ror▁13043
▁poetische▁13044
▁Astronom▁13045
▁Venus▁13046
▁Nebel▁13047
▁Göttin▁13048
▁schenke▁13049
▁Austausch▁13050
▁Kim▁13051
▁koreanische▁13052
unt▁13053
▁Fernsehen▁13054
▁Gesang▁13055
▁Mono▁13056
▁House▁13057
Musik▁13058
rama▁13059
▁Theaterstück▁13060
lügt▁13061
▁zeig▁13062
▁Mama▁13063
▁Lügen▁13064
▁wunderbarer▁13065
▁Alien▁13066
▁antwortet▁13067
▁ideale▁13068
▁äh▁13069
▁infant▁13070
zudenken▁13071
▁Romane▁13072
▁Flaubert▁13073
▁Essenz▁13074
gefährden▁13075
▁Ungeziefer▁13076
▁Kafka▁13077
▁Verwandlung▁13078
▁rechtfertige▁13079
▁nutzlos▁13080
▁glücklichste▁13081
händig▁13082
Sketch▁13083
▁auszusehen▁13084
▁Michel▁13085
urnier▁13086
▁läge▁13087
▁anstrengend▁13088
▁tour▁13089
made▁13090
freudig▁13091
vertreib▁13092
▁Ballet▁13093
Unterricht▁13094
▁male▁13095
▁fleißig▁13096
▁Zeichnen▁13097
erzählen▁13098
win▁13099
▁Palast▁13100
zerrt▁13101
▁Gabe▁13102
finden▁13103
▁Base▁13104
▁bestraft▁13105
▁Tap▁13106
läut▁13107
▁amateur▁13108
▁berühmter▁13109
▁Pablo▁13110
▁Lenk▁13111
▁eingeschlossen▁13112
▁dunkler▁13113
▁Kara▁13114
▁Gitarre▁13115
iff▁13116
▁offenbart▁13117
steller▁13118
▁Lego▁13119
▁Fa▁13120
▁negativ▁13121
▁Eifer▁13122
▁Fernbedienung▁13123
▁kritisiere▁13124
schauspieler▁13125
▁Log▁13126
studie▁13127
▁Bühnen▁13128
▁inszenier▁13129
▁psychiatrische▁13130
▁Anstalt▁13131
asse▁13132
▁laufe▁13133
▁ermutige▁13134
▁Teufel▁13135
▁Gesch▁13136
rieben▁13137
▁Fri▁13138
▁Ehepartner▁13139
▁künstlerisch▁13140
▁Ach▁13141
▁Seelen▁13142
▁Alkohol▁13143
rry▁13144
▁Rücksitz▁13145
▁Fahrer▁13146
▁Taxifahr▁13147
▁Rollen▁13148
▁Lear▁13149
▁Maler▁13150
▁Marth▁13151
▁Graham▁13152
▁Künstlerin▁13153
▁Gi▁13154
▁Just▁13155
rührt▁13156
▁Christian▁13157
▁Blogs▁13158
▁Rückgrat▁13159
grad▁13160
▁Fond▁13161
sse▁13162
▁Sash▁13163
▁Clip▁13164
▁aussagt▁13165
ürf▁13166
ucci▁13167
no▁13168
▁Sterne▁13169
freiheit▁13170
▁eigenständige▁13171
92▁13172
▁feindliche▁13173
▁Drohung▁13174
polizei▁13175
▁drohen▁13176
kunde▁13177
▁bedrohen▁13178
▁Wechselwirkung▁13179
sturz▁13180
▁Zeitlupe▁13181
▁fein▁13182
▁feine▁13183
▁Pläne▁13184
▁strategische▁13185
▁Milo▁13186
evic▁13187
▁schicke▁13188
▁Krawatte▁13189
▁lieferte▁13190
▁brillante▁13191
▁unterschätzt▁13192
▁Jackson▁13193
▁ärgerlich▁13194
▁Kredite▁13195
▁sonnen▁13196
▁googel▁13197
▁treffe▁13198
▁Wohltätigkeit▁13199
▁Zuwendung▁13200
▁Meeting▁13201
▁Bank▁13202
▁Banken▁13203
▁sammelt▁13204
▁Zins▁13205
▁brillant▁13206
lov▁13207
rati▁13208
▁Tageszeit▁13209
▁Redaktion▁13210
attung▁13211
▁Auflage▁13212
▁ausgeklügelte▁13213
▁Druckerpresse▁13214
Plan▁13215
▁DI▁13216
Marge▁13217
systeme▁13218
▁97▁13219
zahlung▁13220
ünktlich▁13221
▁finanzier▁13222
▁Send▁13223
▁Who▁13224
europa▁13225
▁Nikola▁13226
riegel▁13227
pol▁13228
ew▁13229
Flug▁13230
▁Distrikt▁13231
▁kandidier▁13232
widert▁13233
▁Ass▁13234
lösen▁13235
listen▁13236
▁Rechenschaft▁13237
▁Nonprofit▁13238
Organisation▁13239
▁bewundern▁13240
raising▁13241
▁taub▁13242
schaltet▁13243
▁Nenn▁13244
▁1.000▁13245
▁emitt▁13246
uad▁13247
▁Bangladesch▁13248
▁tag▁13249
spinne▁13250
▁stecke▁13251
▁klick▁13252
▁Morning▁13253
▁spektakulär▁13254
▁Stern▁13255
▁Blinden▁13256
▁Web▁13257
▁Hilfsmittel▁13258
▁sprachliche▁13259
▁ethnische▁13260
unterschiede▁13261
ücken▁13262
▁tiefgehende▁13263
▁Bedürfnis▁13264
darstellung▁13265
▁traditions▁13266
beginn▁13267
▁Poe▁13268
▁Leitartikel▁13269
▁Klatsch▁13270
▁verschob▁13271
puren▁13272
programme▁13273
▁durchsucht▁13274
Einträge▁13275
▁abzuleiten▁13276
▁Datenbank▁13277
▁Partikel▁13278
äußert▁13279
▁leuchtende▁13280
▁schmi▁13281
▁Lippen▁13282
▁Teich▁13283
▁Murmel▁13284
▁Mob▁13285
▁Metrik▁13286
▁verabschiede▁13287
nfolge▁13288
▁verwirrt▁13289
▁extrahiert▁13290
▁statistische▁13291
schlüssel▁13292
niedergeschlagen▁13293
▁geschlechts▁13294
spezifische▁13295
ußerung▁13296
analyse▁13297
ogramm▁13298
▁Dreißiger▁13299
▁sonnige▁13300
▁Bris▁13301
▁regne▁13302
▁flatter▁13303
▁numerische▁13304
,▁13305
▁galler▁13306
▁Klecks▁13307
montage▁13308
▁einsam▁13309
städt▁13310
▁Spinne▁13311
▁Gel▁13312
▁passive▁13313
▁bevorzuge▁13314
ahoo▁13315
▁unterteilt▁13316
▁Wut▁13317
▁Trauer▁13318
▁übersetzt▁13319
▁rotierende▁13320
▁Beiträge▁13321
▁Miss▁13322
▁World▁13323
▁Viele▁13324
strich▁13325
rque▁13326
▁Kapsel▁13327
einanderfolgende▁13328
▁projiziert▁13329
▁Binär▁13330
code▁13331
Winkel▁13332
▁Wüsten▁13333
▁betrachtete▁13334
▁archetyp▁13335
▁abgebildet▁13336
▁geschossen▁13337
mont▁13338
▁Sternen▁13339
ürtel▁13340
▁Orion▁13341
▁Jäger▁13342
▁Bull▁13343
▁Andromeda▁13344
▁Griechen▁13345
▁Konstellation▁13346
▁Deb▁13347
▁feiert▁13348
▁Enthüllung▁13349
▁Mythologie▁13350
▁verändernde▁13351
balk▁13352
berichte▁13353
schnittstelle▁13354
geist▁13355
▁Ford▁13356
▁isolieren▁13357
Geheimnisse▁13358
▁alphabet▁13359
▁Anna▁13360
▁Orbit▁13361
▁Sarg▁13362
▁fotografisch▁13363
▁Repräsentation▁13364
shot▁13365
▁hervorheb▁13366
▁Barack▁13367
▁Alabama▁13368
▁Jazeera▁13369
▁Superstar▁13370
cooter▁13371
▁Lib▁13372
morgen▁13373
▁Nairobi▁13374
▁Zitate▁13375
▁erkundet▁13376
▁Rhein▁13377
▁Kollaboration▁13378
▁partizipative▁13379
▁Handeln▁13380
▁angeborene▁13381
▁Instinkt▁13382
▁verpflichte▁13383
▁Stärk▁13384
▁dominierende▁13385
▁Mitteln▁13386
▁Anfänge▁13387
▁Abschnitt▁13388
▁Kooperation▁13389
▁wechselseitige▁13390
▁schrumpft▁13391
▁Smart▁13392
▁nachdachte▁13393
▁blickt▁13394
medien▁13395
▁nomad▁13396
▁Kaninchen▁13397
▁Reichtum▁13398
teten▁13399
▁Ackerbau▁13400
▁Lehm▁13401
▁Imperi▁13402
▁Schulden▁13403
▁Weizen▁13404
▁Alphabet▁13405
▁elitäre▁13406
▁ermöglichte▁13407
▁schreib▁13408
▁kooperative▁13409
▁Haft▁13410
führung▁13411
iel▁13412
▁Radiosend▁13413
▁signifikant▁13414
▁Breitband▁13415
▁Soziologe▁13416
▁myth▁13417
efangenendilemma▁13418
▁Kelly▁13419
▁hierzu▁13420
theorie▁13421
▁Nachdenken▁13422
matrix▁13423
bittert▁13424
▁Konkurrent▁13425
▁Akteur▁13426
▁10.▁13427
▁lehnt▁13428
▁neo▁13429
Wirtschaftslehre▁13430
lehnen▁13431
▁ablehnte▁13432
▁abgeschirmt▁13433
▁rod▁13434
▁Landwirte▁13435
▁Amazonas▁13436
▁Hirte▁13437
▁Zentralafrika▁13438
▁dutzende▁13439
▁Garret▁13440
▁Hard▁13441
▁1960▁13442
matisieren▁13443
▁Weide▁13444
▁Herde▁13445
gras▁13446
▁abgehalten▁13447
güter▁13448
▁Gefangene▁13449
fächer▁13450
elektion▁13451
▁Außenseiter▁13452
▁bestrafe▁13453
▁neurophysiolog▁13454
▁altruist▁13455
▁Bestrafung▁13456
urowi▁13457
ochai▁13458
▁Benkler▁13459
▁Abhandlung▁13460
▁Open▁13461
▁Source▁13462
▁Vorher▁13463
▁Sun▁13464
▁Informations▁13465
▁Portfolio▁13466
▁pharmazeutische▁13467
▁Branche▁13468
▁schaffte▁13469
▁Toyota▁13470
▁Altruismus▁13471
▁Linux▁13472
illa▁13473
▁bereichert▁13474
▁Blogger▁13475
Sense▁13476
▁Entwickler▁13477
▁bereichern▁13478
▁Motive▁13479
▁eBay▁13480
▁suboptimal▁13481
▁Enzyklopädie▁13482
▁Think▁13483
cle▁13484
▁Nichtregierungs▁13485
▁inklusive▁13486
▁Download▁13487
load▁13488
rechner▁13489
▁Kollektiv▁13490
▁at▁13491
▁Home▁13492
▁Pass▁13493
▁Eigeninteresse▁13494
▁ausschließlich▁13495
▁Salva▁13496
▁unternahm▁13497
▁Kenia▁13498
▁eigenständig▁13499
▁Mobilfunk▁13500
telefon▁13501
übergreifende▁13502
▁Angehörige▁13503
▁Sünde▁13504
▁Mikroorganism▁13505
▁gelinde▁13506
▁Diskurs▁13507
sprojekt▁13508
Gordon▁13509
▁Brown▁13510
▁Aufbau▁13511
▁Wohl▁13512
▁Global▁13513
entwickeln▁13514
freut▁13515
▁White▁13516
apalm▁13517
▁erweckt▁13518
▁Vietnamkrieg▁13519
▁him▁13520
ane▁13521
▁lauert▁13522
▁geschockt▁13523
▁erschossen▁13524
▁Sympathie▁13525
▁Palm▁13526
▁schwedische▁13527
demokratische▁13528
▁President▁13529
▁abschaff▁13530
▁verwirklichen▁13531
▁Neue▁13532
▁Sklaven▁13533
▁William▁13534
▁Wilb▁13535
force▁13536
ierende▁13537
▁geriet▁13538
dauert▁13539
▁Egla▁13540
bb▁13541
▁Save▁13542
hildren▁13543
imbabwe▁13544
lokal▁13545
▁gewollt▁13546
▁Burm▁13547
▁Mönch▁13548
▁Kyi▁13549
▁Gehör▁13550
schenkt▁13551
▁Adresse▁13552
▁Bewusstseins▁13553
▁Sklaverei▁13554
▁Wohlfahrtsstaat▁13555
▁Diskriminierung▁13556
▁Ausrichtung▁13557
▁Nelson▁13558
▁Mandela▁13559
house▁13560
▁zusammengefasst▁13561
ommen▁13562
▁rassistische▁13563
zwingen▁13564
▁bevorsteh▁13565
▁Terrorismus▁13566
▁versehen▁13567
▁Kopenhagen▁13568
Institut▁13569
Programm▁13570
▁ärmer▁13571
prime▁13572
Markt▁13573
Produkt▁13574
▁transfer▁13575
▁Stabilität▁13576
▁Sierra▁13577
▁Leone▁13578
▁sechseinhalb▁13579
▁Tansania▁13580
▁Mir▁13581
ai▁13582
familien▁13583
▁Tuberkulose▁13584
▁unerreichbar▁13585
▁Traurigkeit▁13586
▁belohnt▁13587
▁reichste▁13588
▁Netto▁13589
▁Export▁13590
▁Ketten▁13591
▁Sudan▁13592
▁Tode▁13593
glaubt▁13594
▁Griechenland▁13595
▁Halluzination▁13596
▁Neurologe▁13597
Bonnet▁13598
▁sehbehindert▁13599
▁lebhafte▁13600
▁rühren▁13601
führ▁13602
▁beachtet▁13603
schnappt▁13604
▁Schlaganfall▁13605
▁Rosali▁13606
erschrocken▁13607
▁orient▁13608
▁Katzen▁13609
▁gekleidet▁13610
▁blau▁13611
uadrate▁13612
▁hall▁13613
uz▁13614
▁untersuchte▁13615
▁eingehend▁13616
geweckt▁13617
▁visueller▁13618
▁Sehfähigkei▁13619
▁Blind▁13620
hindert▁13621
▁behindert▁13622
▁älterer▁13623
▁175▁13624
▁beschrieb▁13625
▁schwebende▁13626
tücher▁13627
▁gutaussehend▁13628
mantel▁13629
▁rauchte▁13630
▁Schreibtisch▁13631
▁Palin▁13632
opsi▁13633
▁hyper▁13634
▁Visionen▁13635
▁gestreifte▁13636
▁vereinigte▁13637
▁Zieh▁13638
▁Kühl▁13639
▁senkrecht▁13640
lappen▁13641
▁Frosch▁13642
▁Sesam▁13643
▁freu▁13644
▁Einflüsse▁13645
▁stört▁13646
▁beruhigen▁13647
▁psychotisch▁13648
udi▁13649
▁verspotte▁13650
▁interagiert▁13651
verse▁13652
lärm▁13653
abend▁13654
▁1982▁13655
▁Vertraut▁13656
schlüssig▁13657
▁bildlich▁13658
▁fMRI▁13659
▁fusiform▁13660
▁Erkennung▁13661
▁1970▁13662
neuronen▁13663
Mart▁13664
▁inferior▁13665
▁Fragment▁13666
▁neuron▁13667
zusammenhängende▁13668
▁Imagination▁13669
▁Stimulation▁13670
▁Träume▁13671
▁erkenne▁13672
▁Assoziation▁13673
▁blinde▁13674
▁bekannter▁13675
▁Syndrom▁13676
▁befürchte▁13677
uh▁13678
▁ignor▁13679
▁Migräne▁13680
▁abgeleitet▁13681
▁Landminen▁13682
lohn▁13683
▁Nagetier▁13684
mäuse▁13685
▁züchtete▁13686
▁verkaufte▁13687
handlung▁13688
▁importierte▁13689
▁Vielfältig▁13690
▁Detek▁13691
sländer▁13692
▁extrahieren▁13693
▁kündigte▁13694
▁Prinzessin▁13695
▁Diana▁13696
▁Mine▁13697
kratzt▁13698
▁nachhaltig▁13699
▁Geruch▁13700
▁ausgeprägte▁13701
▁lokalisieren▁13702
Verhaltensmuster▁13703
▁verstärken▁13704
geräusch▁13705
▁zerdrück▁13706
▁Bananen▁13707
▁Käfig▁13708
▁Minen▁13709
▁Action▁13710
▁geprüft▁13711
kredit▁13712
uadratmeter▁13713
▁beliebig▁13714
hund▁13715
sambi▁13716
▁senk▁13717
▁befürworte▁13718
▁schilder▁13719
▁1,9▁13720
▁Primär▁13721
infektion▁13722
uverlässig▁13723
positive▁13724
positiv▁13725
▁Umgang▁13726
▁et▁13727
▁Hippokrat▁13728
▁89▁13729
▁86▁13730
▁gene▁13731
▁Spreng▁13732
Kassette▁13733
▁Hundertstel▁13734
Geräusch▁13735
ausgesetzt▁13736
80▁13737
anwendung▁13738
▁Aufspür▁13739
▁Zoll▁13740
▁illegal▁13741
▁Sala▁13742
▁1800▁13743
▁steigern▁13744
▁gesteigert▁13745
▁beachtlich▁13746
▁unentdeckt▁13747
loch▁13748
▁replizier▁13749
▁Schutt▁13750
phase▁13751
▁zahlreich▁13752
▁respektvoll▁13753
▁Etwa▁13754
▁Fast▁13755
♫▁13756
▁eiskalt▁13757
▁Lupe▁13758
zogen▁13759
▁abnormal▁13760
▁Chromosom▁13761
▁muse▁13762
▁bekäme▁13763
▁Inspiration▁13764
▁neurologische▁13765
▁Eigen▁13766
gh▁13767
▁Wahnvorstellung▁13768
▁Psychose▁13769
▁Zwerg▁13770
pu▁13771
▁gewünscht▁13772
▁handfeste▁13773
Baptiste▁13774
▁Gottes▁13775
▁erdenkliche▁13776
ngesicht▁13777
▁weiterzumachen▁13778
▁bringe▁13779
▁übe▁13780
uantenmechani▁13781
▁Materie▁13782
▁Unbekannte▁13783
▁Unsicherheit▁13784
felt▁13785
▁fürchterliche▁13786
▁gefürchtet▁13787
▁Beobachter▁13788
▁übergeordnete▁13789
matik▁13790
▁schlicht▁13791
▁Stringtheorie▁13792
dimension▁13793
deutigkeit▁13794
▁unwohl▁13795
▁Rette▁13796
▁Sprichwort▁13797
▁einmarschiert▁13798
▁buddhistische▁13799
trinken▁13800
▁situation▁13801
▁identifiziert▁13802
ffekt▁13803
▁Schwerpunkt▁13804
▁Strang▁13805
regime▁13806
▁überein▁13807
▁Sit▁13808
arrer▁13809
▁Intention▁13810
▁Empfinden▁13811
▁moralisch▁13812
▁Opium▁13813
▁Selbstmord▁13814
▁unheimlich▁13815
heil▁13816
▁Tai▁13817
▁tourist▁13818
▁unberührt▁13819
▁bedrohlich▁13820
▁Unbehagen▁13821
▁Stapel▁13822
▁stieß▁13823
bereinstimmung▁13824
▁Zufälle▁13825
▁Konstante▁13826
▁Unfälle▁13827
▁Zufälligkeit▁13828
Dorf▁13829
▁Gui▁13830
hou▁13831
▁Unfall▁13832
▁Schüssel▁13833
▁Verantwortlich▁13834
▁Rituale▁13835
zeihung▁13836
▁Zuständigkeit▁13837
▁Zeremonie▁13838
▁Unterwelt▁13839
▁ablaufen▁13840
gestiegen▁13841
▁Synchroni▁13842
▁vorgesehen▁13843
ional▁13844
▁Teilchen▁13845
▁erschaffe▁13846
▁Keyboard▁13847
▁Glocke▁13848
▁Akkord▁13849
▁reizvoll▁13850
▁vi▁13851
▁rose▁13852
▁begrüßen▁13853
▁Shankar▁13854
diagnose▁13855
skrit▁13856
▁Ode▁13857
endezvous▁13858
▁kollaborier▁13859
▁choreograph▁13860
▁Auszeichnung▁13861
▁zivile▁13862
▁cancer▁13863
▁stage▁13864
▁grade▁13865
will▁13866
vara▁13867
▁Tugend▁13868
▁Abscheu▁13869
▁bloss▁13870
▁Auszeit▁13871
▁ableite▁13872
▁Ungeheuer▁13873
▁herausziehe▁13874
▁trocknet▁13875
▁Anker▁13876
▁lächeln▁13877
▁gla▁13878
▁Chemotherapie▁13879
▁Folter▁13880
▁rollen▁13881
▁erlernt▁13882
sha▁13883
urga▁13884
▁Pantheon▁13885
▁Hindu▁13886
▁prächtig▁13887
ritt▁13888
▁shak▁13889
▁gestärkt▁13890
▁Mytho▁13891
messer▁13892
▁ausblende▁13893
wind▁13894
▁Rückschläge▁13895
▁Hindernisse▁13896
▁Sim▁13897
▁Ausdauer▁13898
▁bewaffnet▁13899
rob▁13900
▁Spence▁13901
▁Well▁13902
Abschnitt▁13903
▁Genetiker▁13904
ographic▁13905
uinea▁13906
▁Unglaubliche▁13907
▁oberflächlich▁13908
▁homogene▁13909
▁6,▁13910
▁Großstadt▁13911
genetik▁13912
gründung▁13913
▁zerlegt▁13914
▁Gorilla▁13915
▁nachgewiesen▁13916
▁Landmasse▁13917
tektoni▁13918
▁Indische▁13919
▁Eurasi▁13920
▁Ersten▁13921
▁Südostasien▁13922
▁Gibbon▁13923
▁Orang▁13924
Utan▁13925
▁fossile▁13926
▁herkam▁13927
▁wuerde▁13928
äße▁13929
▁Pilzen▁13930
▁Morphologie▁13931
▁Vorfahr▁13932
▁aufzeigt▁13933
▁Hominid▁13934
spezies▁13935
▁west▁13936
▁Old▁13937
Schlucht▁13938
▁Leakey▁13939
▁erect▁13940
▁katalogisier▁13941
▁prägte▁13942
▁late▁13943
▁weiser▁13944
▁Europäer▁13945
▁monstro▁13946
▁rückständige▁13947
▁Anthropologi▁13948
▁Klassifikation▁13949
Carlton▁13950
▁morpholog▁13951
▁genealog▁13952
stamm▁13953
▁Haben▁13954
▁Verwandtschaft▁13955
▁Latein▁13956
▁frühesten▁13957
▁hap▁13958
ides▁13959
,2▁13960
otid▁13961
rechnen▁13962
▁nähme▁13963
▁aneinander▁13964
▁Korrektur▁13965
mechanismus▁13966
smarker▁13967
▁Marker▁13968
änderung▁13969
rial▁13970
▁mütterliche▁13971
Chromosom▁13972
▁vereinfachte▁13973
▁einleuchtend▁13974
▁Eva▁13975
▁mitochondrial▁13976
▁kurzer▁13977
▁erweitert▁13978
Frage▁13979
▁Geschichts▁13980
▁Eiszeit▁13981
▁Maxim▁13982
▁rau▁13983
kugel▁13984
▁Seattle▁13985
decke▁13986
▁85▁13987
▁Wende▁13988
stafrika▁13989
klima▁13990
▁rekonstruier▁13991
▁Antarktis▁13992
▁Niederschlag▁13993
▁sank▁13994
▁Sahara▁13995
▁Flecken▁13996
▁Faden▁13997
▁Neandertaler▁13998
▁entfernte▁13999
▁beleidige▁14000
asis▁14001
gewohnheiten▁14002
▁verfeiner▁14003
yntax▁14004
sänderung▁14005
▁Ausdehnung▁14006
▁wandert▁14007
migration▁14008
▁erreichten▁14009
flüge▁14010
▁Töten▁14011
▁jagte▁14012
▁Grasland▁14013
▁feucht▁14014
▁Zentralasien▁14015
▁Steppe▁14016
▁Sibirien▁14017
ith▁14018
▁Wanderung▁14019
schloss▁14020
▁Ursprünge▁14021
▁Skizze▁14022
▁indigen▁14023
▁gemischt▁14024
▁Rover▁14025
▁Abzug▁14026
stiftung▁14027
▁25.000▁14028
▁erstaunlichste▁14029
▁Stipendi▁14030
▁Gaza▁14031
istan▁14032
▁Pistole▁14033
mbient▁14034
boote▁14035
▁Album▁14036
▁Streich▁14037
▁1930▁14038
möbel▁14039
lzt▁14040
▁Arche▁14041
▁erheben▁14042
▁versunken▁14043
kollektor▁14044
▁1947▁14045
▁Jerem▁14046
▁energiegeladen▁14047
▁Zerstörung▁14048
▁unschuldig▁14049
▁Legastheni▁14050
▁Töpfe▁14051
▁Besorgnis▁14052
▁teilhabe▁14053
▁irrelevant▁14054
ellen▁14055
▁Waffenruhe▁14056
Gewaltlosigkeit▁14057
ember▁14058
▁Kriegsgefangene▁14059
▁Bombe▁14060
▁vergiftet▁14061
taatsoberhäupter▁14062
▁NGO▁14063
gemeinschaft▁14064
kriegen▁14065
▁Geschäftsführer▁14066
▁British▁14067
ways▁14068
▁Oscar▁14069
resultat▁14070
▁Schöne▁14071
▁Schwert▁14072
▁Mary▁14073
▁Robinson▁14074
▁Genf▁14075
▁Hippie▁14076
▁Ahmed▁14077
▁Mitmach▁14078
▁Moussa▁14079
▁Arabisch▁14080
gespräch▁14081
▁vereinen▁14082
▁anhalten▁14083
▁verwirren▁14084
▁54▁14085
▁Unterstützer▁14086
▁General▁14087
▁Datum▁14088
▁Kalender▁14089
▁Theatr▁14090
▁institutional▁14091
▁Pressekonferenz▁14092
▁offenkundig▁14093
▁tragisch▁14094
▁verliess▁14095
undi▁14096
▁Korridor▁14097
▁Ahmad▁14098
▁Mentor▁14099
ICE▁14100
▁filmte▁14101
helfen▁14102
▁Anhänger▁14103
▁Finanzen▁14104
▁ausschlaggebend▁14105
ltesten▁14106
SAF▁14107
▁NATO▁14108
▁Fat▁14109
▁Russ▁14110
▁Helfer▁14111
wickelt▁14112
▁Dialekt▁14113
▁Kommandant▁14114
angriff▁14115
▁gesunken▁14116
hauen▁14117
▁lancier▁14118
stossen▁14119
▁Social▁14120
▁Petition▁14121
▁unterzeichne▁14122
letzlich▁14123
▁erwecken▁14124
Fussball▁14125
▁Bewusstheit▁14126
himi▁14127
▁lobby▁14128
bezirk▁14129
▁365▁14130
▁Mel▁14131
inda▁14132
▁French▁14133
▁Coca▁14134
Cola▁14135
▁TEDxC▁14136
▁überzeugende▁14137
grier▁14138
▁Vermarkter▁14139
▁sicherste▁14140
▁Coke▁14141
▁sanit▁14142
▁Trip▁14143
▁Fuss▁14144
▁fließende▁14145
▁Elektrizität▁14146
▁NRO▁14147
▁Verwirklich▁14148
▁Sektor▁14149
zapf▁14150
talent▁14151
profit▁14152
Regel▁14153
▁Namibia▁14154
▁Dose▁14155
▁Sprit▁14156
karren▁14157
▁Evaluation▁14158
▁Pin▁14159
▁Einfluß▁14160
▁Zweite▁14161
▁192▁14162
Truck▁14163
▁Vertrieb▁14164
Center▁14165
▁Fahrräder▁14166
▁3000▁14167
▁Tanzania▁14168
▁Einnahmen▁14169
▁Ethiopia▁14170
▁Ethiopi▁14171
▁Notfall▁14172
▁gebären▁14173
▁aufzusuchen▁14174
erala▁14175
▁anwandte▁14176
▁2.5▁14177
Mitarbeiter▁14178
▁Familienplanung▁14179
svorsorge▁14180
ehr▁14181
▁kommunale▁14182
▁erschließ▁14183
komponente▁14184
unternehmer▁14185
▁Vorgehen▁14186
▁Happiness▁14187
▁assoziier▁14188
▁Cup▁14189
aving▁14190
lag▁14191
▁Somali▁14192
Eins▁14193
▁Teach▁14194
▁Vermeid▁14195
▁Dia▁14196
rrh▁14197
▁ansprechend▁14198
▁sanitäre▁14199
▁Hühner▁14200
▁Sanitär▁14201
▁position▁14202
▁Bequemlichkeit▁14203
▁Braut▁14204
werbung▁14205
▁weiger▁14206
▁Beschneidung▁14207
▁Rückgang▁14208
▁zurückblickt▁14209
▁1.6▁14210
▁Lähmung▁14211
ram▁14212
monate▁14213
▁15.▁14214
probe▁14215
▁Jh▁14216
ark▁14217
▁bewies▁14218
▁epi▁14219
▁Aufräum▁14220
eute▁14221
▁ausradier▁14222
empfunden▁14223
▁AlloSphere▁14224
spektrum▁14225
round▁14226
▁kartier▁14227
▁entfalten▁14228
osphere▁14229
▁mak▁14230
▁Spin▁14231
▁Hirnregion▁14232
▁verspüre▁14233
uell▁14234
RI▁14235
▁akustisch▁14236
Agenten▁14237
▁Rechteck▁14238
generat▁14239
iven▁14240
▁Installation▁14241
ive▁14242
▁Simulation▁14243
▁generative▁14244
▁Schwarm▁14245
▁bakterielle▁14246
Programme▁14247
▁atomare▁14248
▁Atomen▁14249
Daten▁14250
▁Light▁14251
▁Energ▁14252
▁Solarzellen▁14253
▁2,000▁14254
▁Zink▁14255
Atom▁14256
linien▁14257
▁hörbar▁14258
▁Signatur▁14259
hängig▁14260
▁Schrödinger▁14261
Gleichung▁14262
▁Elektron▁14263
▁flies▁14264
bit▁14265
▁puls▁14266
▁Photo▁14267
▁emit▁14268
▁Kalkulation▁14269
ronic▁14270
formation▁14271
▁Barbar▁14272
unders▁14273
▁Saft▁14274
door▁14275
▁Südpol▁14276
▁beruflich▁14277
▁Schlitt▁14278
▁ständige▁14279
▁virtuell▁14280
▁progress▁14281
▁Macher▁14282
▁Betrachter▁14283
▁Mall▁14284
▁Letzt▁14285
▁bestieg▁14286
gedruckt▁14287
▁Kohle▁14288
▁Eisen▁14289
▁geniess▁14290
▁Arktische▁14291
▁plant▁14292
▁Eisbär▁14293
▁Helikopter▁14294
ämmer▁14295
▁überquert▁14296
▁Kilo▁14297
▁Kälte▁14298
▁Magische▁14299
▁Ausblick▁14300
▁bemühe▁14301
zuschauen▁14302
▁Substanz▁14303
Jahr▁14304
▁Bauchspeichel▁14305
drüsenkrebs▁14306
ition▁14307
▁Crack▁14308
▁probiert▁14309
zehren▁14310
▁ruinier▁14311
▁Streben▁14312
▁gegenübersteh▁14313
▁Captain▁14314
▁Amunds▁14315
▁norwegische▁14316
▁demoralisier▁14317
▁kehrte▁14318
zulaufen▁14319
▁Oma▁14320
▁Kreuzfahrt▁14321
▁unvollendet▁14322
▁kühn▁14323
▁vollendet▁14324
▁umkehren▁14325
monatige▁14326
berater▁14327
strasse▁14328
▁Osterinsel▁14329
igkeiten▁14330
▁Famil▁14331
▁Stürme▁14332
▁metaphor▁14333
▁Savage▁14334
▁Obsession▁14335
▁Faszination▁14336
▁Dodo▁14337
deckt▁14338
▁Grube▁14339
▁Mauriti▁14340
▁Madagaskar▁14341
▁arch▁14342
▁Sammlung▁14343
ifiziert▁14344
▁Anfall▁14345
▁hinweisen▁14346
▁vergiss▁14347
▁Ordner▁14348
verbindung▁14349
▁Cockpit▁14350
foto▁14351
waffen▁14352
▁Kostüme▁14353
▁gezeichnet▁14354
basteln▁14355
▁Requisite▁14356
▁Drachen▁14357
▁vermessen▁14358
maßstab▁14359
▁chaotisch▁14360
▁ordnet▁14361
▁hochzu▁14362
▁Becken▁14363
knochen▁14364
gescannt▁14365
▁Lineal▁14366
▁bemalt▁14367
schild▁14368
TA▁14369
lastic▁14370
▁angefertigt▁14371
▁vertiefen▁14372
▁stolperte▁14373
▁Maltese▁14374
▁Falken▁14375
▁Hammett▁14376
oma▁14377
▁verlieb▁14378
Menschen▁14379
▁Kni▁14380
▁Hab▁14381
zeremonie▁14382
▁fiktive▁14383
▁Repräsentant▁14384
▁Begierde▁14385
▁recherchiert▁14386
▁heruntergeladen▁14387
▁genaue▁14388
▁Christi▁14389
▁kontaktier▁14390
aya▁14391
▁Flo▁14392
▁Kontroverse▁14393
requisite▁14394
▁versicher▁14395
gossen▁14396
▁kontrovers▁14397
▁Negative▁14398
gestimmt▁14399
▁Sculpey▁14400
▁Proz▁14401
▁modelliert▁14402
▁hinkriege▁14403
▁mat▁14404
schwarz▁14405
Grund▁14406
▁tropft▁14407
▁angenehme▁14408
glanz▁14409
▁Screenshot▁14410
reflex▁14411
▁Reflexion▁14412
▁Fred▁14413
▁Mörder▁14414
▁Lokal▁14415
plica▁14416
▁Forum▁14417
▁befreundet▁14418
▁Wachs▁14419
▁Bronze▁14420
▁Endprodukt▁14421
▁befriedigend▁14422
▁hochhebe▁14423
packen▁14424
▁Hux▁14425
Modell▁14426
▁Silikon▁14427
schi▁14428
▁Nokia▁14429
Forscher▁14430
▁unerwartete▁14431
▁wohne▁14432
▁Tok▁14433
▁Spezial▁14434
▁Ermittlung▁14435
Verbindung▁14436
▁Kenntnis▁14437
bewusst▁14438
▁Videokamera▁14439
talk▁14440
▁herumtrage▁14441
▁wegnehme▁14442
▁Obdach▁14443
▁Transport▁14444
▁Maslow▁14445
digkeit▁14446
▁transzendier▁14447
▁überschreiten▁14448
▁zeitlich▁14449
▁Adress▁14450
▁empfangen▁14451
▁universell▁14452
Netz▁14453
▁Privatsphäre▁14454
▁telefoniere▁14455
▁nette▁14456
▁umdreh▁14457
▁Glückskeks▁14458
Perspektive▁14459
▁verständig▁14460
▁Schlüsselfrage▁14461
spruch▁14462
▁Betreiber▁14463
▁kaufe▁14464
▁aufgeladen▁14465
▁Provision▁14466
[...]
