<unk>	0
<s>	0
</s>	0
en	-0
er	-1
in	-2
▁t	-3
ch	-4
▁a	-5
▁d	-6
▁w	-7
▁s	-8
▁th	-9
nd	-10
ie	-11
es	-12
is	-13
at	-14
on	-15
it	-16
▁m	-17
as	-18
an	-19
re	-20
▁the	-21
▁b	-22
▁h	-23
ich	-24
▁o	-25
▁e	-26
ll	-27
▁u	-28
▁g	-29
ou	-30
or	-31
ar	-32
▁f	-33
▁in	-34
te	-35
ing	-36
▁I	-37
▁n	-38
▁S	-39
le	-40
▁c	-41
▁p	-42
▁die	-43
▁A	-44
▁to	-45
ir	-46
▁v	-47
al	-48
▁is	-49
▁ein	-50
▁of	-51
▁and	-52
us	-53
om	-54
ig	-55
▁l	-56
▁W	-57
ed	-58
▁k	-59
▁T	-60
▁und	-61
un	-62
▁z	-63
▁be	-64
ut	-65
ur	-66
el	-67
▁das	-68
ten	-69
ion	-70
▁D	-71
▁y	-72
▁M	-73
▁that	-74
et	-75
ro	-76
ent	-77
▁ha	-78
im	-79
ic	-80
ere	-81
▁we	-82
ra	-83
▁B	-84
st	-85
▁E	-86
▁you	-87
em	-88
▁der	-89
▁wh	-90
hr	-91
ter	-92
ve	-93
ow	-94
▁zu	-95
il	-96
▁wir	-97
▁G	-98
▁ist	-99
▁it	-100
▁se	-101
▁an	-102
am	-103
icht	-104
ot	-105
ber	-106
gen	-107
id	-108
ach	-109
se	-110
ier	-111
ind	-112
lich	-113
ge	-114
ben	-115
ol	-116
sch	-117
uf	-118
▁U	-119
▁K	-120
▁re	-121
▁F	-122
ke	-123
all	-124
▁un	-125
▁P	-126
▁ver	-127
▁so	-128
▁on	-129
▁ich	-130
▁L	-131
▁es	-132
ct	-133
he	-134
▁was	-135
ay	-136
▁H	-137
▁me	-138
ung	-139
▁And	-140
▁st	-141
▁er	-142
ver	-143
▁N	-144
▁al	-145
de	-146
if	-147
▁this	-148
▁den	-149
▁sie	-150
▁-	-151
um	-152
and	-153
den	-154
▁Sie	-155
▁j	-156
ck	-157
ür	-158
nen	-159
uch	-160
sen	-161
▁all	-162
op	-163
ld	-164
be	-165
▁nicht	-166
ation	-167
▁von	-168
▁--	-169
▁"	-170
▁for	-171
ce	-172
▁dass	-173
▁R	-174
ht	-175
ine	-176
▁eine	-177
ann	-178
▁ab	-179
▁V	-180
▁auf	-181
▁r	-182
▁als	-183
▁Und	-184
ill	-185
▁im	-186
est	-187
▁do	-188
der	-189
hen	-190
ag	-191
her	-192
▁mit	-193
▁ne	-194
▁ge	-195
ess	-196
ly	-197
▁J	-198
ith	-199
ste	-200
▁are	-201
ally	-202
▁wie	-203
isch	-204
▁sch	-205
ul	-206
▁man	-207
▁uns	-208
aus	-209
▁C	-210
enn	-211
▁war	-212
▁with	-213
oo	-214
▁le	-215
▁have	-216
▁So	-217
kt	-218
men	-219
▁he	-220
au	-221
▁they	-222
▁sich	-223
os	-224
out	-225
▁Th	-226
ers	-227
▁mo	-228
we	-229
▁can	-230
▁Z	-231
▁as	-232
▁O	-233
▁wor	-234
ab	-235
über	-236
ad	-237
iv	-238
ant	-239
▁Ich	-240
▁pro	-241
ort	-242
ell	-243
ib	-244
▁i	-245
ern	-246
ust	-247
▁what	-248
ön	-249
▁sind	-250
und	-251
▁In	-252
▁com	-253
▁1	-254
▁dies	-255
▁go	-256
ies	-257
▁at	-258
▁sp	-259
af	-260
pp	-261
▁für	-262
▁St	-263
ould	-264
▁haben	-265
ik	-266
▁about	-267
ien	-268
▁ex	-269
art	-270
▁fr	-271
ist	-272
▁hat	-273
▁not	-274
▁aus	-275
ze	-276
▁The	-277
iel	-278
▁We	-279
▁um	-280
ese	-281
▁ch	-282
og	-283
▁über	-284
ive	-285
ahr	-286
ne	-287
▁Le	-288
oll	-289
▁des	-290
hl	-291
▁de	-292
▁som	-293
▁or	-294
▁kön	-295
ight	-296
▁wer	-297
end	-298
▁dem	-299
▁Das	-300
ein	-301
▁Sch	-302
qu	-303
▁Es	-304
mer	-305
▁there	-306
ike	-307
▁pe	-308
▁my	-309
▁sa	-310
ink	-311
▁Wir	-312
ate	-313
▁ma	-314
igen	-315
▁sh	-316
ople	-317
."	-318
▁con	-319
▁It	-320
▁Er	-321
th	-322
och	-323
ity	-324
▁diese	-325
▁one	-326
pt	-327
▁people	-328
ff	-329
ide	-330
elt	-331
▁like	-332
▁from	-333
tw	-334
esch	-335
ure	-336
▁Be	-337
ute	-338
▁tr	-339
▁ar	-340
ang	-341
ass	-342
ast	-343
ans	-344
ause	-345
▁da	-346
00	-347
▁also	-348
now	-349
▁wenn	-350
▁us	-351
▁einen	-352
ensch	-353
▁our	-354
ook	-355
▁bec	-356
▁but	-357
zen	-358
▁out	-359
▁Ge	-360
▁Die	-361
▁ih	-362
▁get	-363
ap	-364
ieren	-365
▁know	-366
▁Ar	-367
ted	-368
▁just	-369
▁Pro	-370
▁können	-371
▁2	-372
▁An	-373
▁thing	-374
ear	-375
▁pl	-376
▁werden	-377
ick	-378
iert	-379
▁Y	-380
ungen	-381
ild	-382
▁them	-383
oug	-384
▁her	-385
▁sein	-386
▁vor	-387
▁oder	-388
▁ent	-389
▁But	-390
▁these	-391
per	-392
ite	-393
▁very	-394
alk	-395
▁if	-396
▁up	-397
▁think	-398
ub	-399
orm	-400
▁who	-401
ah	-402
ige	-403
▁mach	-404
ank	-405
one	-406
ound	-407
our	-408
▁Ver	-409
ru	-410
iz	-411
▁kann	-412
ain	-413
▁Al	-414
▁by	-415
▁aber	-416
▁einer	-417
▁going	-418
od	-419
▁auch	-420
▁Mensch	-421
ack	-422
▁einem	-423
▁act	-424
▁gen	-425
ät	-426
▁see	-427
▁some	-428
ud	-429
pl	-430
▁dar	-431
eren	-432
ial	-433
zt	-434
ibt	-435
olog	-436
▁Aber	-437
ard	-438
▁nach	-439
▁when	-440
age	-441
▁Un	-442
▁te	-443
ak	-444
▁your	-445
ob	-446
nt	-447
▁en	-448
schaf	-449
änd	-450
ame	-451
ft	-452
▁more	-453
ert	-454
▁nur	-455
▁because	-456
▁Re	-457
▁year	-458
▁had	-459
▁mein	-460
reat	-461
ischen	-462
▁wird	-463
▁hier	-464
▁sehr	-465
▁etw	-466
ble	-467
to	-468
▁will	-469
ug	-470
ect	-471
ime	-472
urch	-473
▁Menschen	-474
ise	-475
ör	-476
▁which	-477
▁–	-478
ück	-479
▁ever	-480
itt	-481
▁how	-482
fen	-483
äch	-484
▁would	-485
ple	-486
▁look	-487
ond	-488
ood	-489
ose	-490
ous	-491
▁their	-492
▁am	-493
are	-494
keit	-495
▁really	-496
▁work	-497
▁were	-498
▁Te	-499
issen	-500
ually	-501
hal	-502
▁mich	-503
ther	-504
hing	-505
▁inter	-506
▁gibt	-507
ign	-508
chen	-509
ong	-510
▁way	-511
▁dann	-512
▁gro	-513
▁Jahr	-514
▁wur	-515
ue	-516
▁gl	-517
heit	-518
lle	-519
▁per	-520
du	-521
me	-522
chn	-523
▁vie	-524
▁here	-525
ven	-526
▁world	-527
▁Ih	-528
iff	-529
▁has	-530
sten	-531
ia	-532
▁qu	-533
▁ste	-534
▁Sp	-535
ken	-536
▁ihr	-537
lie	-538
ater	-539
▁You	-540
ions	-541
wo	-542
▁noch	-543
ment	-544
ri	-545
▁time	-546
ommen	-547
llen	-548
ough	-549
▁etwas	-550
▁then	-551
▁fa	-552
ore	-553
▁This	-554
schaft	-555
▁other	-556
▁Welt	-557
▁Ein	-558
▁fe	-559
eit	-560
▁into	-561
sp	-562
▁sehen	-563
än	-564
▁mir	-565
▁say	-566
rie	-567
▁habe	-568
▁every	-569
▁Als	-570
▁don	-571
▁actually	-572
tern	-573
▁dieser	-574
ip	-575
ren	-576
▁mus	-577
auf	-578
beit	-579
sel	-580
▁durch	-581
▁mehr	-582
▁zur	-583
▁bet	-584
▁could	-585
ische	-586
ens	-587
▁pr	-588
▁ke	-589
ult	-590
▁want	-591
▁sag	-592
lichen	-593
ner	-594
▁gr	-595
▁now	-596
▁things	-597
▁where	-598
▁bra	-599
yste	-600
▁jed	-601
▁years	-602
ring	-603
▁Wh	-604
▁ag	-605
▁Se	-606
▁♫	-607
▁Now	-608
les	-609
▁did	-610
ace	-611
▁Leben	-612
cht	-613
▁viel	-614
etzt	-615
liche	-616
ac	-617
ical	-618
▁somet	-619
form	-620
▁Fra	-621
▁alle	-622
▁Wenn	-623
ED	-624
▁sc	-625
▁been	-626
▁ro	-627
▁find	-628
zu	-629
ice	-630
▁They	-631
blem	-632
ry	-633
▁bei	-634
▁cl	-635
▁make	-636
▁any	-637
üs	-638
ome	-639
iver	-640
▁Ch	-641
▁TED	-642
▁comp	-643
▁diff	-644
▁happ	-645
ile	-646
hn	-647
▁beg	-648
▁no	-649
▁Zeit	-650
ystem	-651
▁ob	-652
▁po	-653
ire	-654
fach	-655
▁let	-656
▁tra	-657
ory	-658
klich	-659
rei	-660
▁zum	-661
▁gan	-662
fl	-663
ph	-664
ake	-665
▁He	-666
▁mö	-667
inge	-668
▁unsere	-669
▁wurde	-670
▁need	-671
▁said	-672
ähr	-673
mt	-674
irst	-675
ßen	-676
▁sel	-677
gt	-678
ree	-679
▁part	-680
ife	-681
wer	-682
▁wür	-683
▁bl	-684
▁Ihnen	-685
▁right	-686
▁over	-687
▁unter	-688
chte	-689
▁Gesch	-690
che	-691
▁something	-692
chnolog	-693
▁machen	-694
▁ihre	-695
assen	-696
▁lo	-697
▁zwe	-698
▁back	-699
ys	-700
illion	-701
able	-702
ange	-703
ungs	-704
fü	-705
▁Tr	-706
▁wo	-707
ount	-708
als	-709
▁wirklich	-710
ger	-711
▁kind	-712
iter	-713
pr	-714
000	-715
▁3	-716
▁Kind	-717
▁bu	-718
▁einfach	-719
▁two	-720
ark	-721
▁than	-722
▁tun	-723
▁much	-724
▁immer	-725
acht	-726
▁got	-727
▁call	-728
ents	-729
bst	-730
▁new	-731
fr	-732
aten	-733
▁talk	-734
ations	-735
▁first	-736
▁Ne	-737
ittle	-738
erson	-739
▁meine	-740
▁those	-741
▁little	-742
▁weil	-743
▁ze	-744
▁kon	-745
▁bes	-746
▁Also	-747
erst	-748
▁fü	-749
own	-750
cent	-751
isten	-752
▁imp	-753
▁Gr	-754
▁Or	-755
▁lot	-756
▁woll	-757
?"	-758
ord	-759
iger	-760
▁his	-761
▁she	-762
rit	-763
▁bis	-764
ats	-765
ale	-766
eln	-767
▁ra	-768
way	-769
gan	-770
▁ph	-771
ath	-772
hmen	-773
▁res	-774
▁ges	-775
▁dis	-776
▁kom	-777
▁dieses	-778
aut	-779
▁hatte	-780
▁ac	-781
vel	-782
▁unser	-783
ase	-784
▁spe	-785
▁Was	-786
▁That	-787
▁kle	-788
▁co	-789
▁müs	-790
▁Man	-791
▁pre	-792
nte	-793
▁most	-794
uchen	-795
leich	-796
är	-797
ody	-798
▁dam	-799
▁life	-800
uen	-801
▁only	-802
hlen	-803
ance	-804
▁diesem	-805
ition	-806
ated	-807
▁real	-808
▁keine	-809
glich	-810
▁hum	-811
ied	-812
ktion	-813
▁Leute	-814
▁Art	-815
▁ad	-816
▁wissen	-817
av	-818
ram	-819
ely	-820
ichte	-821
mal	-822
inn	-823
▁even	-824
▁thr	-825
ish	-826
bar	-827
▁day	-828
ges	-829
xt	-830
▁soll	-831
▁Ges	-832
▁19	-833
▁vers	-834
▁müssen	-835
igkeit	-836
▁gut	-837
▁sol	-838
ok	-839
other	-840
ons	-841
▁star	-842
erent	-843
▁ide	-844
▁Dinge	-845
iß	-846
gr	-847
▁Vor	-848
fe	-849
▁viele	-850
▁lie	-851
▁take	-852
▁sagen	-853
▁waren	-854
▁different	-855
▁diesen	-856
int	-857
▁groß	-858
wn	-859
▁sagte	-860
▁many	-861
▁su	-862
▁andere	-863
▁hel	-864
▁good	-865
gl	-866
unden	-867
▁ind	-868
▁pass	-869
▁Jahren	-870
▁fl	-871
ict	-872
▁bef	-873
gend	-874
off	-875
ont	-876
▁20	-877
▁nat	-878
▁bin	-879
▁through	-880
▁eines	-881
▁show	-882
▁down	-883
▁Trans	-884
▁does	-885
get	-886
ammen	-887
▁There	-888
▁hin	-889
ds	-890
▁around	-891
▁Aus	-892
ors	-893
ution	-894
▁put	-895
▁cont	-896
▁5	-897
urn	-898
cri	-899
▁zwei	-900
▁What	-901
act	-902
▁jetzt	-903
igt	-904
ian	-905
iss	-906
▁gew	-907
ty	-908
▁bek	-909
▁wieder	-910
▁Auf	-911
ient	-912
▁verb	-913
ience	-914
▁Wie	-915
ität	-916
tel	-917
usammen	-918
▁anderen	-919
▁kein	-920
ary	-921
▁em	-922
cess	-923
ahre	-924
▁10	-925
ible	-926
▁tell	-927
▁Me	-928
lleicht	-929
vol	-930
ichtig	-931
▁use	-932
▁off	-933
▁En	-934
ought	-935
▁Der	-936
▁glau	-937
▁being	-938
ious	-939
auen	-940
oc	-941
▁selbst	-942
tit	-943
▁alles	-944
▁Sub	-945
cript	-946
ual	-947
▁Unter	-948
▁würde	-949
▁problem	-950
arn	-951
ss	-952
igh	-953
oss	-954
▁bring	-955
▁Dies	-956
ekt	-957
ede	-958
▁damit	-959
ower	-960
▁comm	-961
▁Ind	-962
ces	-963
▁Talk	-964
ful	-965
ars	-966
▁inc	-967
▁happen	-968
▁same	-969
▁fun	-970
att	-971
▁gem	-972
▁du	-973
ün	-974
▁4	-975
▁ins	-976
▁try	-977
ject	-978
▁wen	-979
▁sm	-980
vor	-981
llt	-982
geb	-983
▁best	-984
▁fact	-985
omen	-986
▁come	-987
tra	-988
▁Mit	-989
▁stud	-990
▁Pl	-991
halten	-992
tet	-993
nis	-994
yp	-995
▁geht	-996
amil	-997
hren	-998
titles	-999
▁may	-1000
ep	-1001
day	-1002
iden	-1003
▁Jahre	-1004
▁Subtitles	-1005
▁Transcript	-1006
▁big	-1007
▁doing	-1008
▁human	-1009
formation	-1010
ost	-1011
▁great	-1012
old	-1013
ism	-1014
▁sur	-1015
▁count	-1016
▁lang	-1017
ting	-1018
äl	-1019
uss	-1020
ically	-1021
▁zurück	-1022
▁three	-1023
▁gesch	-1024
▁start	-1025
▁system	-1026
ade	-1027
▁end	-1028
▁hal	-1029
▁dr	-1030
▁bit	-1031
▁versch	-1032
fter	-1033
ics	-1034
▁denn	-1035
ivers	-1036
▁nie	-1037
ction	-1038
▁sim	-1039
▁muss	-1040
piel	-1041
▁Um	-1042
▁Her	-1043
▁weiter	-1044
▁produ	-1045
▁wä	-1046
▁If	-1047
ucht	-1048
▁well	-1049
ives	-1050
io	-1051
ves	-1052
▁ask	-1053
▁exper	-1054
▁build	-1055
▁dec	-1056
▁Well	-1057
öß	-1058
▁Bl	-1059
▁gu	-1060
▁percent	-1061
ating	-1062
ächlich	-1063
▁schon	-1064
▁ger	-1065
▁ir	-1066
▁zw	-1067
▁klein	-1068
▁heraus	-1069
▁app	-1070
thing	-1071
ler	-1072
▁ben	-1073
▁bas	-1074
▁hand	-1075
▁called	-1076
▁pol	-1077
ving	-1078
üt	-1079
▁technolog	-1080
▁pa	-1081
▁gra	-1082
▁Afr	-1083
▁Arbeit	-1084
von	-1085
ock	-1086
▁Ide	-1087
nten	-1088
gel	-1089
▁Amer	-1090
▁child	-1091
ool	-1092
self	-1093
▁again	-1094
agen	-1095
zent	-1096
kl	-1097
▁quest	-1098
ork	-1099
ize	-1100
ull	-1101
ins	-1102
▁Fl	-1103
teil	-1104
▁ele	-1105
its	-1106
▁möchte	-1107
red	-1108
▁ganz	-1109
imes	-1110
▁ihnen	-1111
▁made	-1112
▁vielleicht	-1113
ek	-1114
az	-1115
ates	-1116
▁mak	-1117
▁learn	-1118
▁Teil	-1119
alt	-1120
etz	-1121
ahl	-1122
▁trans	-1123
bt	-1124
▁zusammen	-1125
▁Kinder	-1126
▁long	-1127
fahr	-1128
▁einz	-1129
cial	-1130
▁Mus	-1131
▁rem	-1132
▁rel	-1133
hne	-1134
▁beh	-1135
▁For	-1136
▁own	-1137
atsächlich	-1138
▁why	-1139
▁Land	-1140
inden	-1141
▁should	-1142
▁Ab	-1143
esen	-1144
▁import	-1145
▁davon	-1146
▁Geschichte	-1147
▁Ste	-1148
▁fra	-1149
sam	-1150
▁Gen	-1151
▁design	-1152
▁sec	-1153
▁Nun	-1154
entlich	-1155
zä	-1156
▁wel	-1157
▁dort	-1158
angen	-1159
for	-1160
eld	-1161
sche	-1162
ierte	-1163
uter	-1164
ational	-1165
▁Wissen	-1166
ichten	-1167
▁person	-1168
pro	-1169
ities	-1170
rank	-1171
▁entw	-1172
▁underst	-1173
▁creat	-1174
aum	-1175
pf	-1176
ved	-1177
▁Beis	-1178
▁Im	-1179
onom	-1180
uß	-1181
uten	-1182
ubl	-1183
oment	-1184
▁gleich	-1185
▁mean	-1186
▁Tag	-1187
▁turn	-1188
▁rec	-1189
▁car	-1190
▁thought	-1191
zie	-1192
▁idea	-1193
ail	-1194
weise	-1195
▁Grund	-1196
▁heute	-1197
▁change	-1198
▁Hier	-1199
▁after	-1200
ane	-1201
▁play	-1202
▁Bild	-1203
halb	-1204
rä	-1205
▁cour	-1206
▁genau	-1207
ica	-1208
hir	-1209
▁hatten	-1210
ope	-1211
▁its	-1212
ielen	-1213
▁letz	-1214
rechen	-1215
▁Nach	-1216
▁200	-1217
▁feel	-1218
▁didn	-1219
▁today	-1220
omp	-1221
,000	-1222
atz	-1223
▁belie	-1224
▁Zu	-1225
▁Fre	-1226
ular	-1227
erg	-1228
▁einige	-1229
▁important	-1230
chten	-1231
erm	-1232
hör	-1233
▁him	-1234
▁drei	-1235
▁ihn	-1236
▁könnte	-1237
anden	-1238
ix	-1239
▁All	-1240
▁jem	-1241
..	-1242
body	-1243
vent	-1244
▁started	-1245
▁last	-1246
aw	-1247
▁Thank	-1248
ings	-1249
olle	-1250
ändern	-1251
äd	-1252
oren	-1253
▁help	-1254
▁Diese	-1255
▁exam	-1256
gar	-1257
mlich	-1258
br	-1259
ogra	-1260
pen	-1261
atur	-1262
iving	-1263
orn	-1264
stehen	-1265
▁darüber	-1266
▁paar	-1267
▁story	-1268
nde	-1269
▁kl	-1270
reich	-1271
imm	-1272
gram	-1273
stell	-1274
bei	-1275
tent	-1276
▁seine	-1277
▁went	-1278
▁before	-1279
▁understand	-1280
anz	-1281
▁Kl	-1282
▁wollen	-1283
asser	-1284
▁sond	-1285
▁course	-1286
▁nun	-1287
▁Gl	-1288
▁power	-1289
▁might	-1290
▁eff	-1291
▁wurden	-1292
ave	-1293
erv	-1294
▁give	-1295
bs	-1296
▁gehen	-1297
ility	-1298
▁still	-1299
▁med	-1300
ather	-1301
ache	-1302
▁werde	-1303
▁better	-1304
ts	-1305
ists	-1306
▁meiner	-1307
▁tak	-1308
▁verw	-1309
▁able	-1310
▁schw	-1311
utzen	-1312
ov	-1313
▁Problem	-1314
▁tatsächlich	-1315
▁another	-1316
utz	-1317
▁never	-1318
ieden	-1319
iten	-1320
ährend	-1321
▁Beispiel	-1322
ital	-1323
äh	-1324
▁brain	-1325
▁point	-1326
▁sl	-1327
ina	-1328
ennen	-1329
amm	-1330
▁cons	-1331
▁Ph	-1332
▁sondern	-1333
▁bess	-1334
▁Geb	-1335
schein	-1336
▁str	-1337
▁found	-1338
...	-1339
▁kid	-1340
▁besch	-1341
▁Ü	-1342
▁Des	-1343
ürlich	-1344
änder	-1345
▁eigen	-1346
▁sort	-1347
oy	-1348
uff	-1349
ues	-1350
▁br	-1351
▁zie	-1352
▁Ihre	-1353
▁wahr	-1354
iven	-1355
,"	-1356
arch	-1357
▁Gehir	-1358
fol	-1359
nehmen	-1360
▁Aut	-1361
▁unserer	-1362
▁Reg	-1363
▁weiß	-1364
amen	-1365
▁fin	-1366
enden	-1367
umber	-1368
▁ec	-1369
ugen	-1370
volution	-1371
ward	-1372
ander	-1373
▁bede	-1374
ata	-1375
▁next	-1376
ellen	-1377
ott	-1378
▁Intern	-1379
▁exp	-1380
land	-1381
▁dazu	-1382
▁gel	-1383
▁neue	-1384
▁mal	-1385
▁gab	-1386
▁school	-1387
▁ago	-1388
▁leben	-1389
ative	-1390
▁Kon	-1391
▁water	-1392
▁New	-1393
▁erzä	-1394
▁vom	-1395
allen	-1396
▁imag	-1397
▁How	-1398
gether	-1399
▁together	-1400
▁mon	-1401
ode	-1402
ym	-1403
▁6	-1404
atch	-1405
▁größ	-1406
ines	-1407
kay	-1408
alth	-1409
▁erst	-1410
cken	-1411
▁comple	-1412
schen	-1413
cted	-1414
stellen	-1415
▁came	-1416
▁wäre	-1417
bl	-1418
▁few	-1419
▁macht	-1420
ween	-1421
▁place	-1422
▁denke	-1423
▁technology	-1424
velop	-1425
ited	-1426
achen	-1427
gef	-1428
▁glob	-1429
▁Million	-1430
▁expl	-1431
▁verl	-1432
▁commun	-1433
▁Hand	-1434
▁Lebens	-1435
öglich	-1436
▁entwick	-1437
▁denken	-1438
▁finden	-1439
▁Technolog	-1440
▁gegen	-1441
read	-1442
▁each	-1443
▁denen	-1444
▁gef	-1445
▁high	-1446
eter	-1447
▁kommen	-1448
▁sogar	-1449
▁Br	-1450
▁Mal	-1451
iness	-1452
▁De	-1453
▁Wer	-1454
aufen	-1455
▁pat	-1456
▁art	-1457
▁used	-1458
▁number	-1459
▁hät	-1460
ingen	-1461
▁inst	-1462
arm	-1463
anted	-1464
oth	-1465
▁gemacht	-1466
ika	-1467
afür	-1468
▁einmal	-1469
hrt	-1470
ident	-1471
ters	-1472
▁wichtig	-1473
▁When	-1474
els	-1475
ized	-1476
ced	-1477
zus	-1478
▁between	-1479
co	-1480
▁sen	-1481
ets	-1482
▁question	-1483
▁zwischen	-1484
▁Ent	-1485
▁gerade	-1486
▁geb	-1487
öff	-1488
▁min	-1489
▁Med	-1490
arbeit	-1491
▁develop	-1492
▁vis	-1493
▁arbeit	-1494
mit	-1495
▁15	-1496
ierung	-1497
▁Frauen	-1498
affen	-1499
ule	-1500
▁Gehirn	-1501
gs	-1502
cause	-1503
▁small	-1504
▁interess	-1505
gest	-1506
▁glaube	-1507
▁plan	-1508
ps	-1509
ific	-1510
ster	-1511
▁geben	-1512
▁funktion	-1513
▁kommt	-1514
cy	-1515
▁looking	-1516
▁weit	-1517
▁30	-1518
▁50	-1519
aterial	-1520
geben	-1521
▁ohne	-1522
▁too	-1523
▁cre	-1524
▁Ihr	-1525
▁par	-1526
▁data	-1527
kommen	-1528
uge	-1529
ways	-1530
▁At	-1531
▁Frage	-1532
▁done	-1533
▁näch	-1534
▁organ	-1535
▁Wasser	-1536
▁100	-1537
ationen	-1538
ium	-1539
▁Is	-1540
ember	-1541
▁interest	-1542
uer	-1543
▁zeigen	-1544
▁schn	-1545
▁four	-1546
▁Über	-1547
▁example	-1548
▁form	-1549
▁el	-1550
▁women	-1551
ilm	-1552
▁Because	-1553
gew	-1554
▁Ex	-1555
▁bere	-1556
▁dafür	-1557
▁light	-1558
▁old	-1559
▁Internet	-1560
▁ans	-1561
▁ihren	-1562
▁wr	-1563
▁run	-1564
▁partic	-1565
▁letzten	-1566
▁erste	-1567
pe	-1568
alen	-1569
▁grow	-1570
▁love	-1571
▁8	-1572
unkt	-1573
▁irgend	-1574
▁9	-1575
dem	-1576
▁met	-1577
▁live	-1578
▁Fr	-1579
▁doesn	-1580
ably	-1581
immt	-1582
▁set	-1583
▁Eine	-1584
▁würden	-1585
tschaft	-1586
▁cell	-1587
rat	-1588
tz	-1589
▁sk	-1590
▁sieht	-1591
▁ersten	-1592
▁nichts	-1593
▁passiert	-1594
ffen	-1595
zeit	-1596
▁cent	-1597
ös	-1598
aub	-1599
▁Da	-1600
ures	-1601
▁verschieden	-1602
tell	-1603
▁Univers	-1604
▁bo	-1605
ikan	-1606
▁sit	-1607
▁War	-1608
▁inv	-1609
▁gener	-1610
▁jeder	-1611
▁7	-1612
gie	-1613
ält	-1614
ement	-1615
yn	-1616
elle	-1617
▁Prozent	-1618
▁Pr	-1619
▁wanted	-1620
▁während	-1621
under	-1622
▁eng	-1623
▁whole	-1624
▁konnte	-1625
▁second	-1626
▁care	-1627
cept	-1628
▁famil	-1629
ross	-1630
ernen	-1631
iolog	-1632
▁meisten	-1633
led	-1634
▁daran	-1635
▁warum	-1636
here	-1637
▁dra	-1638
▁verstehen	-1639
▁lar	-1640
▁mag	-1641
ideo	-1642
oney	-1643
▁Millionen	-1644
▁tre	-1645
▁million	-1646
ands	-1647
ness	-1648
rop	-1649
▁Fe	-1650
▁poss	-1651
unde	-1652
selves	-1653
▁Daten	-1654
▁As	-1655
▁working	-1656
achte	-1657
esehen	-1658
▁Mar	-1659
anke	-1660
▁Comp	-1661
rupp	-1662
iele	-1663
ift	-1664
ider	-1665
▁lassen	-1666
▁My	-1667
fin	-1668
▁trying	-1669
▁sub	-1670
▁begin	-1671
▁chang	-1672
▁book	-1673
ogen	-1674
ma	-1675
▁always	-1676
▁bus	-1677
▁less	-1678
▁econom	-1679
▁polit	-1680
▁Idee	-1681
▁mind	-1682
▁mensch	-1683
schl	-1684
▁reg	-1685
▁Schl	-1686
ude	-1687
▁children	-1688
ett	-1689
jekt	-1690
▁reas	-1691
cher	-1692
▁read	-1693
▁sagt	-1694
zeug	-1695
▁besser	-1696
sy	-1697
▁dire	-1698
▁sollte	-1699
illi	-1700
▁phys	-1701
▁anim	-1702
▁etwa	-1703
ischer	-1704
▁natürlich	-1705
amer	-1706
▁schl	-1707
▁fast	-1708
alls	-1709
essen	-1710
▁Geld	-1711
▁away	-1712
str	-1713
▁sollten	-1714
gehen	-1715
▁norm	-1716
▁believe	-1717
weg	-1718
tre	-1719
▁acc	-1720
atter	-1721
▁Person	-1722
hlt	-1723
amp	-1724
äng	-1725
▁prob	-1726
ural	-1727
▁resp	-1728
agt	-1729
▁stand	-1730
unk	-1731
▁aut	-1732
ollar	-1733
▁dre	-1734
wir	-1735
ivid	-1736
▁country	-1737
▁Mon	-1738
▁Weg	-1739
isen	-1740
richt	-1741
▁könnten	-1742
akt	-1743
▁using	-1744
dern	-1745
▁große	-1746
▁supp	-1747
app	-1748
ilt	-1749
▁Raum	-1750
asch	-1751
ußer	-1752
▁schnell	-1753
.000	-1754
▁pict	-1755
▁ihrer	-1756
ruck	-1757
schied	-1758
▁cor	-1759
▁ja	-1760
▁dabei	-1761
▁ganze	-1762
▁health	-1763
▁kids	-1764
▁meinen	-1765
row	-1766
licher	-1767
hip	-1768
ister	-1769
▁wollte	-1770
lung	-1771
ries	-1772
ric	-1773
▁fre	-1774
fer	-1775
arth	-1776
▁abs	-1777
▁meinem	-1778
raft	-1779
▁...	-1780
▁ziemlich	-1781
vern	-1782
▁sprechen	-1783
uft	-1784
▁sicher	-1785
▁means	-1786
vers	-1787
err	-1788
hin	-1789
kun	-1790
▁bekommen	-1791
▁project	-1792
utet	-1793
öglichkeit	-1794
▁five	-1795
▁teach	-1796
▁information	-1797
▁frien	-1798
▁US	-1799
los	-1800
▁space	-1801
ci	-1802
▁jemand	-1803
net	-1804
▁Verb	-1805
▁hard	-1806
▁Wissenschaft	-1807
▁eig	-1808
▁maybe	-1809
▁thinking	-1810
▁mark	-1811
ession	-1812
▁create	-1813
▁darauf	-1814
▁cou	-1815
▁took	-1816
▁Min	-1817
▁sing	-1818
ierten	-1819
aben	-1820
▁mod	-1821
▁money	-1822
▁Am	-1823
▁ging	-1824
▁'	-1825
urs	-1826
▁hör	-1827
▁arbeiten	-1828
▁One	-1829
▁fut	-1830
▁under	-1831
legen	-1832
▁open	-1833
ories	-1834
▁food	-1835
▁home	-1836
▁everything	-1837
gh	-1838
onder	-1839
▁such	-1840
▁nehmen	-1841
örper	-1842
▁Schw	-1843
▁kam	-1844
▁spec	-1845
▁Ger	-1846
gesch	-1847
▁energ	-1848
utter	-1849
▁doll	-1850
▁ander	-1851
ald	-1852
sehen	-1853
▁process	-1854
nov	-1855
ünd	-1856
up	-1857
urz	-1858
▁Men	-1859
▁become	-1860
▁Ende	-1861
▁Ener	-1862
man	-1863
annt	-1864
lear	-1865
▁Dank	-1866
ringen	-1867
ograph	-1868
ird	-1869
kunft	-1870
scheinlich	-1871
reen	-1872
ständ	-1873
ouse	-1874
adt	-1875
vir	-1876
▁nam	-1877
▁left	-1878
reiben	-1879
sych	-1880
ktur	-1881
▁fas	-1882
▁hist	-1883
▁Gem	-1884
▁Mann	-1885
▁publ	-1886
▁compan	-1887
äs	-1888
▁Inter	-1889
▁future	-1890
ax	-1891
fühl	-1892
ilen	-1893
▁These	-1894
▁weniger	-1895
ruct	-1896
▁She	-1897
▁coll	-1898
▁doch	-1899
▁enough	-1900
▁moment	-1901
▁quite	-1902
▁kleinen	-1903
▁walk	-1904
▁Entw	-1905
▁sense	-1906
▁head	-1907
abor	-1908
▁El	-1909
▁Kom	-1910
ohn	-1911
oot	-1912
icher	-1913
▁interesting	-1914
rag	-1915
cer	-1916
▁Technologie	-1917
▁Dann	-1918
▁bre	-1919
".	-1920
duc	-1921
▁comes	-1922
▁unseren	-1923
▁bedeutet	-1924
▁Wor	-1925
▁cr	-1926
▁Vers	-1927
äter	-1928
▁prof	-1929
▁vier	-1930
▁Chr	-1931
▁York	-1932
ole	-1933
▁Pol	-1934
▁Design	-1935
line	-1936
▁half	-1937
▁energy	-1938
▁Denn	-1939
ennt	-1940
▁bewe	-1941
▁says	-1942
▁global	-1943
▁welche	-1944
▁Information	-1945
▁ass	-1946
▁getting	-1947
ron	-1948
ließ	-1949
▁govern	-1950
▁Famil	-1951
nah	-1952
usst	-1953
äus	-1954
▁typ	-1955
ustr	-1956
▁Kre	-1957
aupt	-1958
▁Dollar	-1959
uck	-1960
ican	-1961
orgen	-1962
▁Mein	-1963
iet	-1964
▁times	-1965
▁ser	-1966
▁Sache	-1967
cke	-1968
iere	-1969
▁making	-1970
▁bringen	-1971
▁sign	-1972
▁ihm	-1973
▁stop	-1974
▁contro	-1975
fte	-1976
▁Krank	-1977
ertain	-1978
▁pop	-1979
ret	-1980
port	-1981
ments	-1982
▁stuff	-1983
▁happened	-1984
▁probably	-1985
▁erw	-1986
▁building	-1987
ulation	-1988
hol	-1989
halt	-1990
▁beste	-1991
▁China	-1992
▁conne	-1993
▁talking	-1994
esten	-1995
▁social	-1996
äft	-1997
▁pie	-1998
▁Möglichkeit	-1999
ices	-2000
inen	-2001
chite	-2002
▁beaut	-2003
par	-2004
▁Eur	-2005
▁seit	-2006
aces	-2007
▁gesehen	-2008
▁grou	-2009
rad	-2010
▁eigentlich	-2011
▁heiß	-2012
sicht	-2013
▁dachte	-2014
▁möglich	-2015
▁elect	-2016
aps	-2017
hand	-2018
▁Ob	-2019
▁cur	-2020
ng	-2021
",	-2022
▁dist	-2023
▁month	-2024
▁room	-2025
▁kleine	-2026
▁makes	-2027
▁Energie	-2028
▁Here	-2029
▁brauchen	-2030
viron	-2031
very	-2032
▁add	-2033
▁zeigt	-2034
▁ber	-2035
▁18	-2036
▁Stud	-2037
▁Stra	-2038
esent	-2039
▁ungl	-2040
achsen	-2041
▁without	-2042
iment	-2043
▁else	-2044
iges	-2045
▁business	-2046
▁Bü	-2047
gle	-2048
▁body	-2049
ying	-2050
▁Africa	-2051
▁fol	-2052
▁Sh	-2053
▁Weise	-2054
▁großen	-2055
ever	-2056
▁Seite	-2057
eder	-2058
▁Gro	-2059
aun	-2060
fort	-2061
▁far	-2062
▁Proble	-2063
▁Ze	-2064
▁voll	-2065
▁jeden	-2066
▁pos	-2067
▁pra	-2068
undert	-2069
eth	-2070
ument	-2071
▁told	-2072
▁job	-2073
▁top	-2074
etzen	-2075
▁keep	-2076
▁lives	-2077
▁Okay	-2078
esearch	-2079
▁wonder	-2080
▁Kar	-2081
▁sound	-2082
aden	-2083
▁Spiel	-2084
ately	-2085
▁wenig	-2086
emat	-2087
▁Gew	-2088
▁coming	-2089
▁Zukunft	-2090
quen	-2091
mp	-2092
▁gar	-2093
▁dollars	-2094
▁12	-2095
▁allow	-2096
▁seem	-2097
▁simple	-2098
▁week	-2099
hle	-2100
▁environ	-2101
▁Computer	-2102
▁Män	-2103
▁bad	-2104
▁side	-2105
▁anything	-2106
▁countries	-2107
▁ganzen	-2108
▁opp	-2109
itive	-2110
▁phot	-2111
▁reason	-2112
▁science	-2113
▁pret	-2114
▁40	-2115
▁Engl	-2116
ief	-2117
▁int	-2118
▁Den	-2119
▁pretty	-2120
ismus	-2121
▁No	-2122
▁Ele	-2123
▁across	-2124
nf	-2125
▁Frau	-2126
opf	-2127
▁ret	-2128
isk	-2129
▁soc	-2130
ether	-2131
ernt	-2132
▁Pat	-2133
▁Str	-2134
▁außer	-2135
▁Menge	-2136
▁OK	-2137
vie	-2138
▁Let	-2139
schaften	-2140
▁Buch	-2141
▁keinen	-2142
▁air	-2143
ches	-2144
▁cult	-2145
ator	-2146
▁je	-2147
erne	-2148
▁versuchen	-2149
▁ey	-2150
▁educ	-2151
▁schle	-2152
utes	-2153
▁ear	-2154
irl	-2155
ince	-2156
▁hoch	-2157
▁men	-2158
erence	-2159
athemat	-2160
uring	-2161
▁val	-2162
▁rest	-2163
rieben	-2164
oral	-2165
▁On	-2166
ders	-2167
▁hope	-2168
▁Entwick	-2169
▁Natur	-2170
ash	-2171
mun	-2172
ende	-2173
▁ways	-2174
ision	-2175
leben	-2176
▁Fall	-2177
▁Woch	-2178
▁goes	-2179
▁program	-2180
work	-2181
▁ä	-2182
▁gesagt	-2183
▁scient	-2184
aft	-2185
▁saw	-2186
▁lernen	-2187
▁col	-2188
▁experience	-2189
ckt	-2190
gal	-2191
▁absol	-2192
▁indem	-2193
Ich	-2194
▁Grupp	-2195
▁living	-2196
ape	-2197
▁Rob	-2198
otion	-2199
zial	-2200
▁gest	-2201
▁niem	-2202
▁seen	-2203
iverse	-2204
stoff	-2205
kte	-2206
▁Stadt	-2207
ots	-2208
where	-2209
stellung	-2210
▁glauben	-2211
air	-2212
▁unglaub	-2213
▁char	-2214
▁music	-2215
▁seiner	-2216
▁fig	-2217
▁hätte	-2218
▁eas	-2219
▁vir	-2220
▁vielen	-2221
apt	-2222
rib	-2223
▁System	-2224
ged	-2225
▁Augen	-2226
ization	-2227
▁particular	-2228
▁Spra	-2229
▁happens	-2230
most	-2231
▁später	-2232
▁Ged	-2233
▁rob	-2234
▁Licht	-2235
▁Lie	-2236
▁Haus	-2237
ipp	-2238
iker	-2239
▁cap	-2240
ähigkeit	-2241
hrer	-2242
▁Ort	-2243
▁case	-2244
▁pers	-2245
▁eigenen	-2246
▁research	-2247
undheit	-2248
▁Körper	-2249
einander	-2250
NA	-2251
öl	-2252
▁Antw	-2253
▁fünf	-2254
▁fal	-2255
▁problems	-2256
▁asked	-2257
▁later	-2258
ants	-2259
▁answer	-2260
▁fest	-2261
racht	-2262
▁gehör	-2263
▁offen	-2264
▁computer	-2265
▁hour	-2266
▁move	-2267
▁picture	-2268
▁Ber	-2269
illiar	-2270
mittel	-2271
ker	-2272
iety	-2273
▁beim	-2274
achten	-2275
▁Warum	-2276
▁langu	-2277
tellt	-2278
folg	-2279
ilder	-2280
▁effect	-2281
ote	-2282
▁stre	-2283
▁having	-2284
▁stellen	-2285
ily	-2286
▁nä	-2287
onnen	-2288
▁planet	-2289
ume	-2290
▁bro	-2291
▁six	-2292
▁share	-2293
▁funktioniert	-2294
▁mil	-2295
▁individ	-2296
▁complete	-2297
scheid	-2298
▁family	-2299
▁Dar	-2300
▁Groß	-2301
▁days	-2302
▁Sel	-2303
▁konnten	-2304
▁environment	-2305
▁land	-2306
▁Vielen	-2307
▁25	-2308
oman	-2309
unst	-2310
▁dig	-2311
▁Produ	-2312
iol	-2313
ality	-2314
▁irgendw	-2315
▁schaffen	-2316
zeich	-2317
let	-2318
▁heißt	-2319
stand	-2320
▁oft	-2321
itz	-2322
nung	-2323
▁Earth	-2324
▁unt	-2325
▁thous	-2326
▁young	-2327
unter	-2328
▁single	-2329
▁Jetzt	-2330
▁Erde	-2331
▁Danke	-2332
▁jedes	-2333
ändert	-2334
▁Moment	-2335
▁inside	-2336
▁ev	-2337
▁Milliar	-2338
ellschaft	-2339
▁loc	-2340
reichen	-2341
▁Mutter	-2342
▁komple	-2343
▁Probleme	-2344
ktiv	-2345
ünst	-2346
▁equ	-2347
tem	-2348
▁Why	-2349
▁pain	-2350
▁bew	-2351
▁öff	-2352
▁Do	-2353
▁ideas	-2354
▁level	-2355
ritt	-2356
▁ble	-2357
asse	-2358
▁Kont	-2359
▁helfen	-2360
▁Zwe	-2361
▁amaz	-2362
isches	-2363
▁basically	-2364
cl	-2365
erein	-2366
▁Wahr	-2367
▁remember	-2368
iti	-2369
zuf	-2370
▁while	-2371
▁prote	-2372
▁neuen	-2373
▁yet	-2374
▁gute	-2375
anc	-2376
rück	-2377
fahren	-2378
ruktur	-2379
▁Kunst	-2380
▁disco	-2381
▁nutzen	-2382
umen	-2383
▁watch	-2384
▁hear	-2385
▁besond	-2386
bo	-2387
zahl	-2388
▁verk	-2389
gefähr	-2390
▁saying	-2391
uche	-2392
▁self	-2393
ready	-2394
▁extre	-2395
ided	-2396
▁suc	-2397
▁Organ	-2398
ament	-2399
▁Form	-2400
▁once	-2401
ury	-2402
idd	-2403
ield	-2404
▁possible	-2405
▁began	-2406
▁betra	-2407
üh	-2408
▁Par	-2409
▁che	-2410
▁invest	-2411
▁almost	-2412
▁certain	-2413
abe	-2414
chs	-2415
uation	-2416
▁aller	-2417
▁wrong	-2418
▁looks	-2419
▁net	-2420
▁both	-2421
▁Gesundheit	-2422
▁insp	-2423
▁normal	-2424
so	-2425
▁biolog	-2426
auer	-2427
▁billion	-2428
▁guy	-2429
▁allen	-2430
▁Wo	-2431
▁contin	-2432
▁Bo	-2433
▁sure	-2434
▁anders	-2435
▁product	-2436
iful	-2437
welt	-2438
▁wahrscheinlich	-2439
▁USA	-2440
▁tot	-2441
osten	-2442
▁line	-2443
denken	-2444
▁bed	-2445
ahlen	-2446
inter	-2447
▁dise	-2448
▁erzählen	-2449
heiten	-2450
▁matter	-2451
▁city	-2452
ogn	-2453
▁true	-2454
glichen	-2455
▁unserem	-2456
arten	-2457
▁Schul	-2458
▁genug	-2459
▁schön	-2460
▁treat	-2461
lichkeit	-2462
ums	-2463
ages	-2464
▁Musik	-2465
ush	-2466
▁incred	-2467
▁public	-2468
▁history	-2469
▁sah	-2470
▁fund	-2471
▁universe	-2472
▁speak	-2473
▁within	-2474
▁whether	-2475
aur	-2476
▁DNA	-2477
▁dev	-2478
▁control	-2479
▁Tod	-2480
▁Fot	-2481
▁herum	-2482
▁nächsten	-2483
inz	-2484
wend	-2485
▁already	-2486
▁ur	-2487
side	-2488
▁erkl	-2489
▁Gegen	-2490
▁begann	-2491
▁amazing	-2492
▁exact	-2493
▁Ideen	-2494
imate	-2495
ivity	-2496
▁kennen	-2497
oice	-2498
ived	-2499
▁someone	-2500
ösen	-2501
chmal	-2502
▁Not	-2503
▁looked	-2504
▁Bed	-2505
▁kill	-2506
▁heart	-2507
öt	-2508
osed	-2509
▁erf	-2510
▁lange	-2511
▁works	-2512
▁nothing	-2513
▁often	-2514
▁seinen	-2515
gem	-2516
▁cost	-2517
▁heard	-2518
ären	-2519
▁mass	-2520
ases	-2521
ones	-2522
▁weg	-2523
gleich	-2524
liches	-2525
▁Selbst	-2526
gte	-2527
▁class	-2528
▁gemein	-2529
▁erinn	-2530
▁extra	-2531
ior	-2532
▁richtig	-2533
stead	-2534
▁term	-2535
▁exist	-2536
ollow	-2537
▁challen	-2538
innen	-2539
▁girl	-2540
▁verd	-2541
▁recht	-2542
▁ungefähr	-2543
ption	-2544
aneten	-2545
▁ü	-2546
ton	-2547
▁psych	-2548
▁Ja	-2549
▁Uns	-2550
▁To	-2551
▁Bere	-2552
▁beautiful	-2553
iddle	-2554
▁bauen	-2555
▁words	-2556
▁bisschen	-2557
▁myself	-2558
gangen	-2559
▁cond	-2560
▁trad	-2561
ination	-2562
▁Ma	-2563
▁bevor	-2564
▁train	-2565
▁cancer	-2566
▁mar	-2567
▁test	-2568
▁Forsch	-2569
▁mother	-2570
▁community	-2571
▁ill	-2572
▁Projekt	-2573
▁Sta	-2574
▁kne	-2575
▁video	-2576
▁iss	-2577
▁language	-2578
▁Geschichten	-2579
forder	-2580
▁Du	-2581
less	-2582
▁jede	-2583
▁result	-2584
▁di	-2585
▁built	-2586
▁cells	-2587
▁imagine	-2588
aper	-2589
▁figure	-2590
▁Fähigkeit	-2591
fä	-2592
▁Planeten	-2593
zieh	-2594
ultur	-2595
vious	-2596
rum	-2597
ians	-2598
aby	-2599
▁aff	-2600
▁rad	-2601
▁full	-2602
▁Informationen	-2603
fra	-2604
▁piece	-2605
The	-2606
utzt	-2607
uchte	-2608
▁eing	-2609
▁CA	-2610
fect	-2611
kennen	-2612
▁liegt	-2613
▁Schule	-2614
fle	-2615
▁age	-2616
▁erl	-2617
▁order	-2618
▁couple	-2619
▁wus	-2620
▁stories	-2621
ße	-2622
▁United	-2623
▁intell	-2624
▁Erfahr	-2625
lt	-2626
▁kurz	-2627
▁link	-2628
mö	-2629
ftw	-2630
▁wicht	-2631
▁Arten	-2632
▁material	-2633
▁exc	-2634
▁ihrem	-2635
iqu	-2636
äre	-2637
outh	-2638
▁Exper	-2639
satz	-2640
▁hund	-2641
iting	-2642
▁Gra	-2643
anken	-2644
ädchen	-2645
▁nah	-2646
imens	-2647
▁face	-2648
▁night	-2649
▁species	-2650
▁front	-2651
▁follow	-2652
▁verändern	-2653
Wh	-2654
ieht	-2655
ired	-2656
cc	-2657
une	-2658
ress	-2659
stit	-2660
zess	-2661
▁hoff	-2662
▁behav	-2663
▁defin	-2664
▁inner	-2665
▁months	-2666
▁sei	-2667
▁Leuten	-2668
▁seinem	-2669
▁pay	-2670
ivil	-2671
llig	-2672
▁Film	-2673
ission	-2674
▁neur	-2675
▁gehört	-2676
nisse	-2677
▁Nicht	-2678
▁nature	-2679
▁Dem	-2680
anzen	-2681
▁government	-2682
▁Für	-2683
▁Krie	-2684
▁klar	-2685
▁Punkt	-2686
▁group	-2687
▁entire	-2688
▁incre	-2689
▁innov	-2690
äche	-2691
▁überall	-2692
▁hö	-2693
asst	-2694
▁friends	-2695
▁darum	-2696
inner	-2697
▁market	-2698
▁Antwort	-2699
ilfe	-2700
voll	-2701
▁los	-2702
▁Ang	-2703
▁Fragen	-2704
▁education	-2705
▁stehen	-2706
mut	-2707
icro	-2708
▁must	-2709
▁everybody	-2710
▁Gebä	-2711
▁Afrika	-2712
▁hinter	-2713
▁sex	-2714
▁Ha	-2715
antw	-2716
▁until	-2717
▁Milliarden	-2718
▁Di	-2719
▁sw	-2720
ctor	-2721
omet	-2722
ienen	-2723
▁60	-2724
▁India	-2725
ering	-2726
▁Kopf	-2727
▁ident	-2728
▁anf	-2729
▁isn	-2730
▁dich	-2731
▁nennen	-2732
▁Unternehmen	-2733
eah	-2734
ames	-2735
plic	-2736
▁object	-2737
▁schwer	-2738
ußen	-2739
reif	-2740
▁alt	-2741
gende	-2742
▁tool	-2743
▁Glück	-2744
▁model	-2745
▁places	-2746
▁sagten	-2747
▁Can	-2748
▁ant	-2749
▁word	-2750
▁wasn	-2751
▁Männer	-2752
ielt	-2753
kten	-2754
nitt	-2755
▁Bet	-2756
▁quick	-2757
▁engine	-2758
▁Mädchen	-2759
▁entwickelt	-2760
irc	-2761
izin	-2762
▁Wirtschaft	-2763
▁completely	-2764
heim	-2765
immen	-2766
▁schwier	-2767
raum	-2768
beite	-2769
ateg	-2770
ested	-2771
omes	-2772
▁Goo	-2773
▁taking	-2774
▁anderes	-2775
▁chem	-2776
▁writ	-2777
▁reden	-2778
▁großart	-2779
▁Vort	-2780
▁eben	-2781
▁euch	-2782
▁wunder	-2783
chan	-2784
osph	-2785
▁large	-2786
▁Dieses	-2787
ene	-2788
▁Lös	-2789
▁terr	-2790
▁entde	-2791
ides	-2792
▁erh	-2793
▁mess	-2794
▁decided	-2795
▁spend	-2796
▁musste	-2797
▁Pe	-2798
▁Vie	-2799
▁dest	-2800
▁prov	-2801
▁view	-2802
▁exactly	-2803
▁discover	-2804
▁199	-2805
alten	-2806
▁repr	-2807
▁Jahrh	-2808
▁Zusammen	-2809
▁oce	-2810
▁Gener	-2811
▁itself	-2812
▁Ur	-2813
▁America	-2814
▁animals	-2815
▁spielen	-2816
ortun	-2817
wohl	-2818
acter	-2819
iber	-2820
ibly	-2821
▁adv	-2822
▁son	-2823
▁Mode	-2824
▁Meine	-2825
▁intern	-2826
zept	-2827
▁game	-2828
ienten	-2829
▁complex	-2830
ared	-2831
▁det	-2832
▁bereits	-2833
▁happening	-2834
bare	-2835
▁Every	-2836
▁success	-2837
ging	-2838
▁Spe	-2839
▁techn	-2840
werk	-2841
ftware	-2842
ability	-2843
▁Indien	-2844
▁became	-2845
▁students	-2846
sh	-2847
rieb	-2848
▁Netz	-2849
▁Minuten	-2850
▁kinds	-2851
▁ourselves	-2852
▁law	-2853
▁ment	-2854
▁stat	-2855
bra	-2856
▁sow	-2857
▁learned	-2858
▁cool	-2859
ütz	-2860
▁Flug	-2861
▁Gott	-2862
▁oben	-2863
▁past	-2864
▁halten	-2865
rug	-2866
▁deal	-2867
indung	-2868
▁States	-2869
▁though	-2870
▁society	-2871
▁themselves	-2872
▁Gesellschaft	-2873
▁schein	-2874
▁minutes	-2875
bed	-2876
▁wind	-2877
▁house	-2878
▁Bes	-2879
ively	-2880
▁since	-2881
▁80	-2882
▁mem	-2883
▁sens	-2884
▁benutzen	-2885
▁besonders	-2886
face	-2887
▁av	-2888
ommt	-2889
igten	-2890
▁gets	-2891
▁steht	-2892
oh	-2893
▁Ir	-2894
istan	-2895
▁John	-2896
▁questions	-2897
▁Dav	-2898
▁ones	-2899
ructure	-2900
▁Bilder	-2901
met	-2902
inning	-2903
▁study	-2904
▁fragen	-2905
▁conf	-2906
▁erreichen	-2907
med	-2908
▁Sc	-2909
▁God	-2910
▁hören	-2911
▁woman	-2912
▁Verhalten	-2913
ral	-2914
ocus	-2915
▁namens	-2916
▁erkennen	-2917
gung	-2918
ature	-2919
▁against	-2920
inal	-2921
▁verschiedene	-2922
ey	-2923
reis	-2924
▁del	-2925
▁dir	-2926
▁fly	-2927
icken	-2928
▁gerne	-2929
▁Ad	-2930
stra	-2931
▁knew	-2932
▁tradition	-2933
▁Wort	-2934
▁Kön	-2935
▁dep	-2936
igung	-2937
▁rather	-2938
▁huge	-2939
▁darin	-2940
fang	-2941
icult	-2942
ising	-2943
▁oper	-2944
liegen	-2945
▁Google	-2946
▁machte	-2947
▁company	-2948
reit	-2949
▁aud	-2950
▁sym	-2951
▁tro	-2952
▁Char	-2953
▁Familie	-2954
▁meet	-2955
▁along	-2956
▁Entscheid	-2957
uden	-2958
richten	-2959
grund	-2960
▁Them	-2961
▁somebody	-2962
ahn	-2963
ager	-2964
▁circ	-2965
▁arbeite	-2966
por	-2967
ichen	-2968
press	-2969
▁clear	-2970
neh	-2971
▁var	-2972
▁won	-2973
▁hätten	-2974
▁Fü	-2975
▁na	-2976
▁free	-2977
▁Bro	-2978
gramm	-2979
uchten	-2980
ef	-2981
uc	-2982
äuf	-2983
onne	-2984
oter	-2985
immer	-2986
▁aw	-2987
▁Bei	-2988
▁red	-2989
bild	-2990
unge	-2991
▁created	-2992
▁Far	-2993
▁Sprache	-2994
▁opportun	-2995
▁cra	-2996
▁focus	-2997
erk	-2998
iste	-2999
▁opt	-3000
wards	-3001
▁lead	-3002
▁priv	-3003
▁colle	-3004
▁turns	-3005
▁relations	-3006
zug	-3007
50	-3008
haps	-3009
▁arg	-3010
endet	-3011
▁Ergeb	-3012
▁Sü	-3013
▁Fol	-3014
▁Lin	-3015
▁ähn	-3016
▁Auto	-3017
▁name	-3018
itting	-3019
ächt	-3020
▁lea	-3021
▁eins	-3022
▁Macht	-3023
▁hours	-3024
iken	-3025
roll	-3026
▁mov	-3027
ished	-3028
▁bott	-3029
▁shows	-3030
öhn	-3031
▁Oder	-3032
▁Beweg	-3033
ource	-3034
▁film	-3035
tellen	-3036
▁jedem	-3037
▁American	-3038
▁guys	-3039
▁pred	-3040
ließlich	-3041
ai	-3042
ump	-3043
sk	-3044
ekte	-3045
▁att	-3046
änger	-3047
▁Then	-3048
▁sechs	-3049
▁Gefühl	-3050
inger	-3051
▁Doch	-3052
▁Gruppe	-3053
▁Eltern	-3054
istic	-3055
▁extrem	-3056
▁statt	-3057
▁worked	-3058
▁Cl	-3059
asure	-3060
▁news	-3061
tend	-3062
andel	-3063
▁Herz	-3064
▁gesam	-3065
▁non	-3066
ples	-3067
▁mot	-3068
haupt	-3069
orden	-3070
▁sometimes	-3071
of	-3072
▁wa	-3073
ützen	-3074
▁deep	-3075
rü	-3076
sent	-3077
annte	-3078
aster	-3079
▁Weil	-3080
▁team	-3081
▁Kn	-3082
▁least	-3083
▁braucht	-3084
▁disease	-3085
▁risk	-3086
▁Kultur	-3087
▁couldn	-3088
▁others	-3089
gestellt	-3090
▁explain	-3091
▁systems	-3092
view	-3093
▁ries	-3094
▁Angst	-3095
▁everyone	-3096
▁neu	-3097
▁welt	-3098
▁11	-3099
osp	-3100
▁ange	-3101
▁network	-3102
fall	-3103
▁HI	-3104
esse	-3105
weit	-3106
▁entf	-3107
▁Durch	-3108
▁Richt	-3109
▁Em	-3110
indet	-3111
▁Some	-3112
onen	-3113
▁Car	-3114
▁Kor	-3115
▁liter	-3116
ässt	-3117
▁Jahrhundert	-3118
hler	-3119
ublik	-3120
▁learning	-3121
▁difficult	-3122
ison	-3123
anger	-3124
▁gave	-3125
▁behind	-3126
▁listen	-3127
▁Vielleicht	-3128
punkt	-3129
▁bewegen	-3130
aly	-3131
▁redu	-3132
antast	-3133
ling	-3134
amera	-3135
führt	-3136
▁Gemein	-3137
aug	-3138
ätz	-3139
▁state	-3140
ined	-3141
▁Fir	-3142
▁glück	-3143
▁happy	-3144
▁vorstellen	-3145
▁amount	-3146
icherheit	-3147
▁führen	-3148
akter	-3149
anten	-3150
▁poor	-3151
▁early	-3152
▁einge	-3153
imension	-3154
▁thousands	-3155
▁HIV	-3156
▁death	-3157
▁moral	-3158
▁irgendwie	-3159
ask	-3160
cing	-3161
ning	-3162
▁arm	-3163
▁sug	-3164
▁mult	-3165
utions	-3166
▁natural	-3167
imp	-3168
▁Luft	-3169
zeugen	-3170
▁appro	-3171
▁wohl	-3172
▁richt	-3173
▁third	-3174
tens	-3175
▁short	-3176
▁entwickeln	-3177
▁verschiedenen	-3178
uz	-3179
apan	-3180
▁erhalten	-3181
ried	-3182
▁lik	-3183
▁Vater	-3184
▁invol	-3185
▁Stunden	-3186
▁oil	-3187
illions	-3188
ence	-3189
▁Video	-3190
▁Chris	-3191
rew	-3192
ules	-3193
▁bemer	-3194
▁super	-3195
▁instead	-3196
▁Krebs	-3197
▁auss	-3198
▁Masch	-3199
▁field	-3200
▁einzel	-3201
▁Veränder	-3202
▁connect	-3203
▁interact	-3204
▁ho	-3205
▁lots	-3206
▁einigen	-3207
ante	-3208
▁manchmal	-3209
▁Ke	-3210
häng	-3211
pect	-3212
▁erk	-3213
▁vorher	-3214
▁Ko	-3215
▁Sinn	-3216
▁Techn	-3217
▁surpr	-3218
▁Freund	-3219
ney	-3220
▁16	-3221
▁impro	-3222
schnitt	-3223
▁moving	-3224
▁Kindern	-3225
alax	-3226
▁disc	-3227
itions	-3228
▁einzige	-3229
äten	-3230
▁Werk	-3231
▁seven	-3232
▁machine	-3233
uh	-3234
ana	-3235
ony	-3236
▁Oh	-3237
▁Har	-3238
ients	-3239
▁takes	-3240
▁outside	-3241
▁bel	-3242
▁cut	-3243
▁difference	-3244
St	-3245
uren	-3246
▁frü	-3247
▁stell	-3248
uelle	-3249
▁beiden	-3250
min	-3251
iben	-3252
Oh	-3253
▁wollten	-3254
▁Material	-3255
▁menschlichen	-3256
▁collect	-3257
▁14	-3258
▁Sachen	-3259
▁relationship	-3260
▁Pa	-3261
haus	-3262
igte	-3263
▁David	-3264
auben	-3265
ölker	-3266
▁Patienten	-3267
▁verwenden	-3268
▁Hause	-3269
▁Stück	-3270
▁black	-3271
▁common	-3272
▁personal	-3273
▁experiment	-3274
bes	-3275
rif	-3276
▁close	-3277
▁green	-3278
▁recent	-3279
▁ändern	-3280
▁archite	-3281
▁powerful	-3282
oph	-3283
hlte	-3284
ither	-3285
▁eher	-3286
▁taken	-3287
▁emotion	-3288
▁Hö	-3289
▁Sk	-3290
ully	-3291
▁bestimm	-3292
tt	-3293
orth	-3294
▁relig	-3295
▁Europe	-3296
▁record	-3297
▁pattern	-3298
vention	-3299
▁nämlich	-3300
▁sage	-3301
tention	-3302
▁besten	-3303
▁changed	-3304
▁innerhalb	-3305
wand	-3306
▁digital	-3307
bere	-3308
ände	-3309
▁incl	-3310
erweise	-3311
▁Gebäude	-3312
zustellen	-3313
▁Regierung	-3314
ester	-3315
▁area	-3316
▁break	-3317
▁middle	-3318
▁Roboter	-3319
▁eyes	-3320
▁jour	-3321
▁pick	-3322
▁genet	-3323
▁Organis	-3324
▁unterschied	-3325
opp	-3326
▁tem	-3327
▁comput	-3328
▁online	-3329
rab	-3330
▁201	-3331
▁century	-3332
▁beginnen	-3333
eh	-3334
ards	-3335
ahren	-3336
okrat	-3337
▁Aufg	-3338
▁indust	-3339
▁culture	-3340
ober	-3341
zieren	-3342
▁verändert	-3343
▁cann	-3344
alität	-3345
▁unglaublich	-3346
▁fort	-3347
▁Bezieh	-3348
ased	-3349
augh	-3350
▁Rück	-3351
▁hands	-3352
▁Heraus	-3353
ehen	-3354
gang	-3355
▁serv	-3356
▁local	-3357
▁World	-3358
▁getan	-3359
▁pract	-3360
▁wonderful	-3361
!"	-3362
oms	-3363
hor	-3364
▁17	-3365
unch	-3366
▁90	-3367
ließen	-3368
▁eight	-3369
▁paper	-3370
lev	-3371
oud	-3372
▁ern	-3373
▁Meer	-3374
aktion	-3375
▁Umwelt	-3376
ummer	-3377
▁event	-3378
▁evolution	-3379
▁Sit	-3380
▁given	-3381
▁fantast	-3382
uld	-3383
ikro	-3384
▁Publik	-3385
genommen	-3386
jor	-3387
urt	-3388
oten	-3389
tete	-3390
▁turned	-3391
ove	-3392
▁hol	-3393
▁squ	-3394
▁fand	-3395
▁ansch	-3396
▁needs	-3397
▁Gleich	-3398
scheiden	-3399
zy	-3400
▁Ben	-3401
isieren	-3402
▁perhaps	-3403
▁Universum	-3404
sw	-3405
▁easy	-3406
▁inspir	-3407
inder	-3408
▁leave	-3409
▁ocean	-3410
▁perform	-3411
▁communic	-3412
▁mathemat	-3413
▁versucht	-3414
▁yourself	-3415
ams	-3416
ufen	-3417
▁Mil	-3418
▁zwar	-3419
▁terms	-3420
▁interessant	-3421
▁Kle	-3422
▁lim	-3423
▁hold	-3424
▁const	-3425
▁wegen	-3426
▁absolute	-3427
▁überhaupt	-3428
▁population	-3429
spr	-3430
▁Su	-3431
▁tut	-3432
▁Ziel	-3433
▁stra	-3434
▁parts	-3435
▁seeing	-3436
▁obvious	-3437
▁Je	-3438
▁Res	-3439
▁Länder	-3440
ply	-3441
verage	-3442
▁Dieser	-3443
pression	-3444
▁occ	-3445
▁Lehrer	-3446
▁potent	-3447
▁Vortrag	-3448
▁beginning	-3449
orie	-3450
▁inde	-3451
▁image	-3452
▁micro	-3453
▁schauen	-3454
omat	-3455
text	-3456
▁low	-3457
▁gleichen	-3458
▁Entwicklung	-3459
hnt	-3460
year	-3461
▁zer	-3462
▁Lage	-3463
▁stellt	-3464
▁Rest	-3465
▁Anfang	-3466
▁finally	-3467
by	-3468
ängt	-3469
▁Städ	-3470
▁miss	-3471
▁reach	-3472
▁father	-3473
▁Nat	-3474
▁beob	-3475
haft	-3476
▁cal	-3477
▁treffen	-3478
iale	-3479
▁blue	-3480
▁robot	-3481
▁architect	-3482
aren	-3483
baren	-3484
völker	-3485
▁Ober	-3486
▁ang	-3487
▁sat	-3488
▁Just	-3489
▁ster	-3490
▁Essen	-3491
▁Erfahrung	-3492
ales	-3493
▁obs	-3494
▁allem	-3495
▁during	-3496
▁nächste	-3497
▁Herausforder	-3498
zin	-3499
book	-3500
ills	-3501
▁cle	-3502
▁viol	-3503
yl	-3504
iziert	-3505
system	-3506
▁Prä	-3507
▁bir	-3508
▁cannot	-3509
▁Stellen	-3510
Well	-3511
▁Part	-3512
idence	-3513
▁friend	-3514
▁Prozess	-3515
▁present	-3516
enne	-3517
▁Tier	-3518
▁spra	-3519
▁Wochen	-3520
▁erstaun	-3521
usion	-3522
▁orig	-3523
▁expect	-3524
▁needed	-3525
▁realized	-3526
▁Vir	-3527
ledge	-3528
alif	-3529
▁niemand	-3530
▁whatever	-3531
umm	-3532
wär	-3533
▁saf	-3534
ially	-3535
▁Japan	-3536
kü	-3537
▁Pap	-3538
ziehen	-3539
▁198	-3540
▁Chin	-3541
▁major	-3542
▁Job	-3543
▁May	-3544
▁Klim	-3545
▁grand	-3546
▁access	-3547
icks	-3548
nahme	-3549
▁Fahr	-3550
▁thank	-3551
bel	-3552
bte	-3553
zub	-3554
aring	-3555
▁mole	-3556
▁longer	-3557
▁simply	-3558
▁sozial	-3559
lam	-3560
orten	-3561
▁Hilfe	-3562
▁Mittel	-3563
▁bereit	-3564
schaffen	-3565
▁perfect	-3566
ele	-3567
pid	-3568
son	-3569
▁Zum	-3570
▁ple	-3571
▁sun	-3572
ograf	-3573
▁Kap	-3574
inary	-3575
▁scale	-3576
oon	-3577
osen	-3578
▁Typ	-3579
▁enc	-3580
▁lässt	-3581
▁vö	-3582
▁size	-3583
▁Tages	-3584
▁Tiere	-3585
▁behavior	-3586
▁Neur	-3587
▁mussten	-3588
▁parents	-3589
agn	-3590
▁hy	-3591
isse	-3592
▁leg	-3593
ources	-3594
▁Archite	-3595
▁Publikum	-3596
▁Zug	-3597
elten	-3598
fully	-3599
▁weitere	-3600
▁interested	-3601
▁economic	-3602
mm	-3603
oun	-3604
▁fore	-3605
▁Polit	-3606
▁Dingen	-3607
▁fühlen	-3608
▁companies	-3609
bor	-3610
▁Geschäft	-3611
reg	-3612
ötz	-3613
▁Rei	-3614
▁buy	-3615
cious	-3616
▁near	-3617
▁media	-3618
▁humans	-3619
ban	-3620
ritte	-3621
▁falsch	-3622
▁verste	-3623
▁Sicherheit	-3624
ilos	-3625
part	-3626
itter	-3627
▁surv	-3628
▁verst	-3629
▁bringt	-3630
▁ground	-3631
ama	-3632
▁21	-3633
auso	-3634
chter	-3635
udden	-3636
▁eigene	-3637
▁Kr	-3638
hood	-3639
▁Web	-3640
statt	-3641
anach	-3642
▁stay	-3643
▁Freunde	-3644
▁13	-3645
▁Dr	-3646
▁key	-3647
▁conc	-3648
merikan	-3649
▁Denken	-3650
▁menschliche	-3651
▁hab	-3652
fläche	-3653
▁tried	-3654
mus	-3655
ilar	-3656
ingt	-3657
achst	-3658
rieden	-3659
▁deren	-3660
ünde	-3661
lungs	-3662
zentr	-3663
▁Mich	-3664
▁erre	-3665
▁kamen	-3666
▁Grunde	-3667
▁People	-3668
▁meines	-3669
▁quickly	-3670
▁okay	-3671
▁bi	-3672
▁unters	-3673
lex	-3674
ails	-3675
▁value	-3676
▁Verein	-3677
▁cities	-3678
▁fundament	-3679
nal	-3680
ächst	-3681
iction	-3682
▁press	-3683
▁leaders	-3684
sein	-3685
▁pres	-3686
▁Möglichkeiten	-3687
ellow	-3688
▁Tage	-3689
▁gone	-3690
cially	-3691
▁spent	-3692
ibility	-3693
▁approach	-3694
cle	-3695
fgh	-3696
ouch	-3697
▁Mars	-3698
▁Seit	-3699
antwort	-3700
▁dessen	-3701
orge	-3702
▁feed	-3703
▁Unterschied	-3704
omin	-3705
uell	-3706
annten	-3707
▁recogn	-3708
▁Gedanken	-3709
▁Per	-3710
▁dark	-3711
▁felt	-3712
▁worden	-3713
▁support	-3714
cin	-3715
ites	-3716
▁Meth	-3717
isiert	-3718
▁Haupt	-3719
▁Lassen	-3720
▁reality	-3721
iny	-3722
▁Met	-3723
fluss	-3724
uellen	-3725
▁persön	-3726
▁special	-3727
com	-3728
ised	-3729
izing	-3730
▁Gren	-3731
▁kont	-3732
▁virt	-3733
▁essen	-3734
▁grund	-3735
izieren	-3736
▁hervor	-3737
▁Struktur	-3738
nahmen	-3739
▁Markt	-3740
▁wusste	-3741
äume	-3742
falls	-3743
▁Boden	-3744
▁enorm	-3745
▁lösen	-3746
▁unten	-3747
▁völlig	-3748
▁schlecht	-3749
▁jo	-3750
▁Sek	-3751
▁ged	-3752
▁Fort	-3753
ysteme	-3754
▁führt	-3755
▁jedoch	-3756
▁ability	-3757
acy	-3758
uth	-3759
äss	-3760
ains	-3761
imme	-3762
▁Ant	-3763
▁Elekt	-3764
▁Right	-3765
▁weeks	-3766
ops	-3767
elte	-3768
▁Oze	-3769
▁lab	-3770
fghan	-3771
▁App	-3772
▁Tre	-3773
▁draw	-3774
▁feet	-3775
flanzen	-3776
lin	-3777
edeut	-3778
▁send	-3779
▁solche	-3780
▁strong	-3781
hrte	-3782
▁democ	-3783
▁schreiben	-3784
▁70	-3785
inde	-3786
▁phone	-3787
ras	-3788
▁Bew	-3789
▁neg	-3790
▁lost	-3791
▁requ	-3792
▁direkt	-3793
▁growth	-3794
▁obwohl	-3795
▁opportunity	-3796
bon	-3797
▁Bar	-3798
rogen	-3799
▁known	-3800
▁Staaten	-3801
▁gleiche	-3802
go	-3803
▁fu	-3804
▁foot	-3805
▁Thema	-3806
▁photograph	-3807
ötzlich	-3808
▁Kü	-3809
▁Nein	-3810
▁fish	-3811
▁Stand	-3812
▁National	-3813
▁damals	-3814
hrung	-3815
samkeit	-3816
▁Bereich	-3817
▁economy	-3818
▁gemeinsam	-3819
▁wären	-3820
▁teilen	-3821
▁sitting	-3822
You	-3823
hält	-3824
ators	-3825
aught	-3826
▁slow	-3827
▁Lösung	-3828
▁instit	-3829
▁modern	-3830
ades	-3831
▁Instit	-3832
▁direct	-3833
lef	-3834
▁sollen	-3835
abil	-3836
ierend	-3837
▁areas	-3838
▁fight	-3839
▁letzte	-3840
▁betrachten	-3841
irm	-3842
▁ed	-3843
▁Rich	-3844
▁either	-3845
▁Bra	-3846
lossen	-3847
ämp	-3848
What	-3849
▁Red	-3850
▁Nacht	-3851
▁Schwe	-3852
▁political	-3853
rote	-3854
▁ermö	-3855
▁step	-3856
zellen	-3857
▁fragte	-3858
▁structure	-3859
▁dad	-3860
▁hor	-3861
hören	-3862
ürger	-3863
ustain	-3864
ünstler	-3865
▁bleiben	-3866
▁measure	-3867
Was	-3868
▁fear	-3869
▁Woche	-3870
▁stark	-3871
▁animal	-3872
▁suchen	-3873
▁Gesicht	-3874
▁besteht	-3875
ball	-3876
zeuge	-3877
▁write	-3878
▁incredible	-3879
▁Mc	-3880
hnen	-3881
spro	-3882
▁eat	-3883
ently	-3884
▁Lond	-3885
▁Nahr	-3886
▁beein	-3887
▁Mo	-3888
este	-3889
wirk	-3890
▁Ist	-3891
ollen	-3892
▁anderer	-3893
▁box	-3894
▁har	-3895
▁caus	-3896
▁main	-3897
▁Innov	-3898
arbeitet	-3899
▁changes	-3900
▁attention	-3901
▁schwierig	-3902
ha	-3903
sc	-3904
oid	-3905
jekte	-3906
▁West	-3907
▁based	-3908
▁sudden	-3909
▁English	-3910
▁individual	-3911
ja	-3912
zogen	-3913
▁brought	-3914
▁teil	-3915
assion	-3916
▁Viele	-3917
▁zuvor	-3918
udenten	-3919
▁consider	-3920
öße	-3921
▁log	-3922
druck	-3923
ology	-3924
▁Hoff	-3925
gebung	-3926
gefühl	-3927
▁Ländern	-3928
▁amerikan	-3929
lang	-3930
▁bar	-3931
gress	-3932
▁clos	-3933
▁images	-3934
▁komplex	-3935
▁verbess	-3936
▁challenge	-3937
▁funktionieren	-3938
oes	-3939
ilden	-3940
eum	-3941
chie	-3942
elbe	-3943
▁Tra	-3944
▁Plan	-3945
▁books	-3946
▁Monate	-3947
▁wouldn	-3948
▁emp	-3949
▁gives	-3950
▁bottom	-3951
bene	-3952
itze	-3953
ances	-3954
▁Fern	-3955
▁Park	-3956
▁essent	-3957
▁sieben	-3958
▁numbers	-3959
merk	-3960
▁Mot	-3961
▁Ster	-3962
ustrie	-3963
▁univers	-3964
ikal	-3965
▁Bau	-3966
▁Tats	-3967
▁prim	-3968
orning	-3969
▁genauso	-3970
▁realize	-3971
▁Familien	-3972
▁gefunden	-3973
▁transform	-3974
vest	-3975
▁Sym	-3976
stein	-3977
▁fail	-3978
▁pull	-3979
erstör	-3980
▁Afghan	-3981
▁consum	-3982
▁größten	-3983
▁respons	-3984
▁surface	-3985
▁knowledge	-3986
gn	-3987
▁Ihren	-3988
▁Liebe	-3989
▁Bedeut	-3990
äm	-3991
ube	-3992
▁kn	-3993
ores	-3994
ieten	-3995
ausende	-3996
▁unseres	-3997
▁international	-3998
▁comb	-3999
▁crit	-4000
▁inte	-4001
▁London	-4002
▁technologies	-4003
ex	-4004
ival	-4005
frast	-4006
▁Namen	-4007
osition	-4008
rän	-4009
oper	-4010
▁born	-4011
▁mechan	-4012
▁Arbeits	-4013
▁meaning	-4014
cks	-4015
eng	-4016
organ	-4017
▁Kraft	-4018
▁impact	-4019
▁visual	-4020
igkeiten	-4021
▁verbunden	-4022
kre	-4023
ests	-4024
▁Dam	-4025
finden	-4026
forsch	-4027
▁force	-4028
▁neues	-4029
ynam	-4030
ouble	-4031
zeigt	-4032
▁emer	-4033
▁benöt	-4034
▁molec	-4035
▁schre	-4036
▁kaufen	-4037
▁theory	-4038
▁zweite	-4039
▁sterben	-4040
▁Wissenschaftler	-4041
bol	-4042
isst	-4043
gegen	-4044
▁fall	-4045
▁Autos	-4046
▁giving	-4047
▁climate	-4048
▁growing	-4049
▁audience	-4050
▁physical	-4051
In	-4052
zw	-4053
haf	-4054
ips	-4055
▁tw	-4056
ored	-4057
wart	-4058
▁Sol	-4059
atten	-4060
▁blood	-4061
▁trotz	-4062
▁Modell	-4063
▁größte	-4064
▁national	-4065
▁developed	-4066
▁vill	-4067
reifen	-4068
▁Mikro	-4069
▁electric	-4070
We	-4071
ox	-4072
▁Fin	-4073
▁Wert	-4074
▁flow	-4075
▁Krieg	-4076
unehmen	-4077
iot	-4078
ücke	-4079
itzen	-4080
▁feeling	-4081
▁forward	-4082
res	-4083
▁lesen	-4084
▁spread	-4085
▁welches	-4086
▁prop	-4087
gewöhn	-4088
ikaner	-4089
▁Europ	-4090
▁nimmt	-4091
▁wrote	-4092
▁langsam	-4093
▁revolution	-4094
▁deg	-4095
▁Best	-4096
▁Frei	-4097
jähr	-4098
▁tief	-4099
▁Sehen	-4100
▁average	-4101
▁erzählt	-4102
▁gelernt	-4103
ieg	-4104
uit	-4105
idge	-4106
reds	-4107
▁Kat	-4108
▁liebe	-4109
▁Zellen	-4110
▁Mathemat	-4111
▁understanding	-4112
▁map	-4113
blick	-4114
▁stage	-4115
▁tools	-4116
▁Revolution	-4117
inos	-4118
▁500	-4119
▁Mag	-4120
▁ign	-4121
▁farm	-4122
▁Bewegung	-4123
▁scientists	-4124
Das	-4125
bre	-4126
ersp	-4127
weis	-4128
inzip	-4129
prochen	-4130
▁erschaffen	-4131
ks	-4132
bau	-4133
▁Tem	-4134
▁Brit	-4135
▁bitte	-4136
▁24	-4137
head	-4138
ktor	-4139
▁vol	-4140
produ	-4141
▁morning	-4142
▁CO	-4143
▁led	-4144
▁With	-4145
▁hine	-4146
▁seems	-4147
▁Programm	-4148
▁starting	-4149
chsel	-4150
▁South	-4151
▁ersch	-4152
▁draußen	-4153
▁scheint	-4154
▁serious	-4155
yr	-4156
▁arr	-4157
▁syn	-4158
mosph	-4159
▁civil	-4160
▁erinnern	-4161
.,	-4162
ID	-4163
jen	-4164
mar	-4165
▁Jed	-4166
▁fair	-4167
▁hast	-4168
▁color	-4169
aliforn	-4170
▁Medien	-4171
▁center	-4172
völkerung	-4173
▁patients	-4174
▁Technologien	-4175
lauf	-4176
licht	-4177
▁nice	-4178
▁path	-4179
▁Reihe	-4180
▁verschw	-4181
▁gegenüber	-4182
äß	-4183
put	-4184
lagen	-4185
▁Labor	-4186
▁Technik	-4187
▁running	-4188
▁Gemeinschaft	-4189
▁Heute	-4190
▁anyone	-4191
▁beeinfl	-4192
▁wissenschaft	-4193
▁Tw	-4194
äuft	-4195
▁ice	-4196
ochen	-4197
onstr	-4198
▁miles	-4199
▁Schritt	-4200
▁bewusst	-4201
▁creating	-4202
▁schließlich	-4203
iod	-4204
rift	-4205
▁197	-4206
alter	-4207
ziale	-4208
▁anal	-4209
▁rein	-4210
estern	-4211
▁favor	-4212
▁white	-4213
ends	-4214
ätze	-4215
igent	-4216
gliche	-4217
▁erfolg	-4218
▁erklären	-4219
▁Verbindung	-4220
ploy	-4221
▁Kam	-4222
▁Cent	-4223
▁dead	-4224
▁jemals	-4225
▁literally	-4226
olz	-4227
▁flo	-4228
▁includ	-4229
hy	-4230
▁Zahl	-4231
▁fert	-4232
▁ausge	-4233
agieren	-4234
▁hinaus	-4235
▁Eis	-4236
feren	-4237
äsent	-4238
zeitig	-4239
▁Blick	-4240
omm	-4241
▁et	-4242
bten	-4243
▁eye	-4244
▁Alle	-4245
▁hosp	-4246
▁optim	-4247
▁playing	-4248
▁wachsen	-4249
▁flu	-4250
obody	-4251
▁Phys	-4252
▁nahm	-4253
▁prom	-4254
▁Muster	-4255
▁folgen	-4256
▁gewesen	-4257
▁telling	-4258
▁Natürlich	-4259
ped	-4260
rael	-4261
▁prin	-4262
ulture	-4263
▁avail	-4264
▁worth	-4265
▁gebaut	-4266
▁Wahrheit	-4267
▁passieren	-4268
cond	-4269
usch	-4270
▁196	-4271
▁Gef	-4272
aking	-4273
▁road	-4274
entlichen	-4275
▁Our	-4276
▁bist	-4277
▁text	-4278
▁hundreds	-4279
▁discovered	-4280
Th	-4281
aged	-4282
ativ	-4283
▁Erk	-4284
▁Süd	-4285
▁Unsere	-4286
▁fanden	-4287
▁sustain	-4288
▁geworden	-4289
use	-4290
▁Tit	-4291
▁lif	-4292
asing	-4293
rolle	-4294
▁Wahl	-4295
▁guess	-4296
▁beginnt	-4297
▁protect	-4298
▁millions	-4299
afft	-4300
▁Team	-4301
▁aren	-4302
▁bege	-4303
▁proper	-4304
▁Tatsache	-4305
▁anfangen	-4306
▁glücklich	-4307
▁miteinander	-4308
▁eth	-4309
▁sehe	-4310
gessen	-4311
▁post	-4312
andeln	-4313
ichtet	-4314
▁medic	-4315
▁neigh	-4316
▁Gewalt	-4317
▁similar	-4318
rig	-4319
▁Rad	-4320
▁San	-4321
▁übr	-4322
▁leicht	-4323
▁unterst	-4324
▁aussehen	-4325
gor	-4326
umb	-4327
urity	-4328
▁Recht	-4329
▁finan	-4330
▁bekannt	-4331
▁kleines	-4332
uals	-4333
▁Yeah	-4334
▁mache	-4335
▁daraus	-4336
▁concept	-4337
wirtschaft	-4338
aff	-4339
▁ko	-4340
▁Stre	-4341
▁wert	-4342
▁deshalb	-4343
▁nachdem	-4344
▁Studenten	-4345
zens	-4346
▁Jeder	-4347
▁Bildung	-4348
aß	-4349
aves	-4350
zeugt	-4351
▁größer	-4352
▁solution	-4353
cker	-4354
fern	-4355
▁300	-4356
▁hon	-4357
älfte	-4358
▁Anzahl	-4359
▁travel	-4360
▁Kranken	-4361
▁möchten	-4362
▁Richtung	-4363
bew	-4364
ibr	-4365
ungsk	-4366
wegen	-4367
ändig	-4368
▁Face	-4369
▁curr	-4370
▁sell	-4371
▁soon	-4372
▁zehn	-4373
▁neben	-4374
▁perfe	-4375
▁polic	-4376
▁Christ	-4377
▁suggest	-4378
▁verloren	-4379
ille	-4380
wind	-4381
▁mom	-4382
▁raus	-4383
▁Platz	-4384
▁Bürger	-4385
▁movement	-4386
▁positive	-4387
▁iP	-4388
▁Sicht	-4389
▁moder	-4390
▁konzentr	-4391
cul	-4392
▁1,	-4393
▁dro	-4394
gorith	-4395
▁benef	-4396
▁blind	-4397
0,	-4398
ragen	-4399
▁issue	-4400
▁danach	-4401
▁development	-4402
olf	-4403
öst	-4404
iled	-4405
icans	-4406
▁cars	-4407
▁Ihrem	-4408
▁truth	-4409
▁schwar	-4410
otyp	-4411
▁Stat	-4412
▁spir	-4413
iation	-4414
▁Alles	-4415
▁alone	-4416
▁block	-4417
▁Afghanistan	-4418
▁Tatsächlich	-4419
ley	-4420
▁cop	-4421
▁lay	-4422
▁mob	-4423
itäten	-4424
▁Super	-4425
▁smart	-4426
▁Stimme	-4427
▁faszin	-4428
▁experien	-4429
▁Krankheit	-4430
▁verwendet	-4431
▁absolutely	-4432
ideos	-4433
▁Aben	-4434
▁acht	-4435
▁Medik	-4436
▁falls	-4437
▁developing	-4438
▁By	-4439
anze	-4440
▁est	-4441
▁hil	-4442
▁mer	-4443
▁gele	-4444
▁verm	-4445
▁Teile	-4446
▁sever	-4447
▁shape	-4448
▁solve	-4449
▁Produkt	-4450
▁Während	-4451
▁Bedeutung	-4452
kon	-4453
▁tö	-4454
aubt	-4455
ered	-4456
▁Ken	-4457
▁fur	-4458
▁pack	-4459
setzen	-4460
▁Reise	-4461
▁showed	-4462
sichtlich	-4463
▁compassion	-4464
▁Bas	-4465
▁toll	-4466
▁Ihrer	-4467
pecially	-4468
▁plötzlich	-4469
▁innovation	-4470
Sch	-4471
des	-4472
iko	-4473
oose	-4474
▁Arm	-4475
▁Hel	-4476
griff	-4477
ining	-4478
▁suff	-4479
▁Besch	-4480
▁elekt	-4481
▁talked	-4482
▁Aufgabe	-4483
▁entfernt	-4484
omb	-4485
uchs	-4486
teilt	-4487
▁among	-4488
▁knows	-4489
▁solar	-4490
▁schrieb	-4491
yond	-4492
▁Ris	-4493
ionen	-4494
▁type	-4495
▁Eigen	-4496
▁achie	-4497
▁cover	-4498
▁bekommt	-4499
▁Situation	-4500
ny	-4501
▁Fuß	-4502
▁dein	-4503
▁Einige	-4504
▁findet	-4505
▁stellte	-4506
▁Umgebung	-4507
▁available	-4508
▁incredibly	-4509
ügen	-4510
▁voice	-4511
▁genannt	-4512
▁designed	-4513
▁Vorstellung	-4514
SA	-4515
imen	-4516
recht	-4517
▁rate	-4518
▁Aktiv	-4519
▁benutzt	-4520
▁patient	-4521
how	-4522
▁pur	-4523
▁guten	-4524
▁attack	-4525
▁gezeigt	-4526
▁produce	-4527
▁industry	-4528
▁Forschung	-4529
▁Ira	-4530
▁Iran	-4531
▁Viel	-4532
▁milit	-4533
▁kleiner	-4534
▁beschäft	-4535
▁recently	-4536
▁resources	-4537
▁sea	-4538
▁fing	-4539
▁infl	-4540
▁tiny	-4541
▁aufge	-4542
▁Erfolg	-4543
▁Deshalb	-4544
▁entscheiden	-4545
xy	-4546
rel	-4547
▁cy	-4548
ique	-4549
▁Mark	-4550
▁Nord	-4551
ichter	-4552
ritten	-4553
sequen	-4554
▁chance	-4555
▁vision	-4556
IDS	-4557
▁Sat	-4558
▁jen	-4559
bringen	-4560
▁period	-4561
▁sofort	-4562
▁Facebook	-4563
Pro	-4564
auft	-4565
▁Mex	-4566
roffen	-4567
▁touch	-4568
▁situation	-4569
▁Na	-4570
umor	-4571
▁Bel	-4572
ussen	-4573
▁fire	-4574
itation	-4575
▁Sonnen	-4576
▁asking	-4577
ierungen	-4578
▁Veränderung	-4579
ms	-4580
▁Don	-4581
▁hig	-4582
bsite	-4583
▁Prof	-4584
▁sold	-4585
ishing	-4586
▁drive	-4587
▁Wirklich	-4588
▁kü	-4589
▁Paul	-4590
▁Rolle	-4591
▁street	-4592
▁convers	-4593
▁Demokrat	-4594
▁changing	-4595
▁erfolgreich	-4596
ärt	-4597
▁Dor	-4598
▁Zent	-4599
gemein	-4600
▁Straßen	-4601
▁niemals	-4602
racy	-4603
setz	-4604
oring	-4605
▁samm	-4606
▁save	-4607
▁beyond	-4608
▁bigger	-4609
▁gefähr	-4610
▁weltweit	-4611
lage	-4612
wood	-4613
▁tat	-4614
▁Blut	-4615
▁Wind	-4616
▁camp	-4617
▁issues	-4618
▁Chinese	-4619
▁generation	-4620
org	-4621
itch	-4622
▁Beg	-4623
▁egal	-4624
andelt	-4625
▁refle	-4626
▁search	-4627
▁pictures	-4628
▁nachdenken	-4629
▁anc	-4630
▁nuc	-4631
utage	-4632
▁wall	-4633
▁Psych	-4634
isierung	-4635
▁Generation	-4636
roh	-4637
▁Fä	-4638
inne	-4639
▁Som	-4640
▁def	-4641
▁ref	-4642
▁ult	-4643
▁City	-4644
indern	-4645
▁Fisch	-4646
▁beide	-4647
▁subject	-4648
▁evidence	-4649
▁komplett	-4650
▁computers	-4651
gra	-4652
▁sonst	-4653
zufinden	-4654
▁becomes	-4655
▁hundred	-4656
▁message	-4657
▁soziale	-4658
▁Sau	-4659
▁yes	-4660
ünden	-4661
▁Schü	-4662
▁conv	-4663
▁dream	-4664
▁react	-4665
unktion	-4666
wachsen	-4667
▁Hälfte	-4668
▁putting	-4669
anda	-4670
▁hoffe	-4671
▁carbon	-4672
▁reasons	-4673
▁intelligen	-4674
▁Herausforderung	-4675
▁Rel	-4676
iesen	-4677
▁Foto	-4678
▁peace	-4679
▁tells	-4680
▁predict	-4681
▁Entwicklungs	-4682
hern	-4683
esser	-4684
ified	-4685
unkte	-4686
▁Chem	-4687
▁haven	-4688
▁rules	-4689
▁Amerika	-4690
▁erreicht	-4691
▁especially	-4692
fore	-4693
ctors	-4694
ologie	-4695
▁Größe	-4696
▁allein	-4697
▁Medizin	-4698
▁Meinung	-4699
▁verrück	-4700
▁writing	-4701
▁betrachte	-4702
▁profession	-4703
▁Of	-4704
iers	-4705
mung	-4706
änge	-4707
▁Tat	-4708
▁Tür	-4709
▁geh	-4710
essor	-4711
oices	-4712
utzutage	-4713
▁medical	-4714
▁Mitgefühl	-4715
enk	-4716
▁ak	-4717
back	-4718
pfer	-4719
▁Erd	-4720
▁song	-4721
▁wid	-4722
▁wish	-4723
führen	-4724
lassen	-4725
achstum	-4726
ee	-4727
▁Ed	-4728
akes	-4729
▁Bab	-4730
▁überw	-4731
agement	-4732
▁general	-4733
▁kontroll	-4734
▁conscious	-4735
▁Dan	-4736
▁Bill	-4737
▁bekam	-4738
▁mögen	-4739
▁except	-4740
▁veröff	-4741
rom	-4742
band	-4743
▁Hir	-4744
▁fix	-4745
plant	-4746
▁entsp	-4747
▁action	-4748
▁bacter	-4749
▁several	-4750
▁einfache	-4751
ta	-4752
cts	-4753
▁ann	-4754
dlich	-4755
▁alten	-4756
▁zeige	-4757
▁Straße	-4758
▁lieben	-4759
▁function	-4760
win	-4761
ziert	-4762
üssel	-4763
▁Geist	-4764
▁Mitte	-4765
▁fahren	-4766
▁gingen	-4767
▁Prinzip	-4768
▁strateg	-4769
asen	-4770
▁links	-4771
möglich	-4772
▁Europa	-4773
▁Papier	-4774
▁danger	-4775
▁integr	-4776
▁region	-4777
▁involved	-4778
▁Entscheidungen	-4779
▁Ju	-4780
▁North	-4781
▁device	-4782
▁laufen	-4783
▁spricht	-4784
adem	-4785
▁Wör	-4786
ected	-4787
ossen	-4788
▁ball	-4789
▁rock	-4790
▁daher	-4791
▁lived	-4792
▁Bakter	-4793
▁groups	-4794
▁software	-4795
▁Fähigkeiten	-4796
Wir	-4797
affe	-4798
stens	-4799
▁Will	-4800
▁frag	-4801
▁girls	-4802
▁total	-4803
▁virus	-4804
▁nachzu	-4805
▁ziehen	-4806
▁gegeben	-4807
itet	-4808
room	-4809
▁dram	-4810
▁evol	-4811
▁Austr	-4812
▁Kosten	-4813
▁jemanden	-4814
ada	-4815
ami	-4816
iar	-4817
ows	-4818
ford	-4819
▁brachte	-4820
▁überras	-4821
▁bestimmt	-4822
▁genommen	-4823
ißen	-4824
arily	-4825
ängen	-4826
▁baby	-4827
▁motiv	-4828
▁Hinter	-4829
▁Israel	-4830
▁Künstler	-4831
▁Realität	-4832
▁geschieht	-4833
▁Kil	-4834
▁Einz	-4835
▁died	-4836
▁Preis	-4837
▁nennt	-4838
▁table	-4839
▁choice	-4840
▁likely	-4841
▁Richard	-4842
zte	-4843
▁Bi	-4844
ises	-4845
▁Von	-4846
▁unbe	-4847
▁Städte	-4848
▁fliegen	-4849
▁See	-4850
▁akt	-4851
ienst	-4852
erstoff	-4853
jenigen	-4854
▁länger	-4855
▁setzen	-4856
schieden	-4857
▁towards	-4858
ify	-4859
▁la	-4860
ette	-4861
imal	-4862
ällt	-4863
abhäng	-4864
▁basic	-4865
▁games	-4866
▁sounds	-4867
enschaft	-4868
▁geboren	-4869
▁schools	-4870
▁materials	-4871
▁Nachrichten	-4872
ech	-4873
oke	-4874
zer	-4875
auten	-4876
flict	-4877
indest	-4878
arbeiten	-4879
▁Bewusst	-4880
▁potential	-4881
esh	-4882
the	-4883
▁op	-4884
pped	-4885
rate	-4886
▁Nie	-4887
▁gek	-4888
▁speed	-4889
▁liegen	-4890
▁necess	-4891
▁Maschine	-4892
zü	-4893
stru	-4894
▁Maß	-4895
▁nine	-4896
▁First	-4897
▁Zahlen	-4898
▁schneller	-4899
kel	-4900
viel	-4901
olekü	-4902
spiel	-4903
unger	-4904
▁Eink	-4905
▁Leid	-4906
dessen	-4907
▁Where	-4908
▁wirtschaft	-4909
▁interessiert	-4910
fre	-4911
▁oh	-4912
▁kur	-4913
▁Sonne	-4914
▁extraord	-4915
▁teachers	-4916
▁herauszufinden	-4917
bung	-4918
▁Pal	-4919
▁sle	-4920
ivität	-4921
▁kreat	-4922
▁machten	-4923
▁Vereinigten	-4924
atic	-4925
atte	-4926
artet	-4927
ously	-4928
▁rich	-4929
▁Sm	-4930
▁Strom	-4931
▁intro	-4932
▁moved	-4933
▁histor	-4934
indungen	-4935
▁gesamte	-4936
rief	-4937
älter	-4938
▁nein	-4939
isions	-4940
▁Firma	-4941
bildung	-4942
▁Kommun	-4943
▁Studie	-4944
▁office	-4945
▁projects	-4946
▁character	-4947
▁particularly	-4948
▁TV	-4949
▁Nur	-4950
▁bee	-4951
▁lok	-4952
▁Politik	-4953
▁anstatt	-4954
▁demonstr	-4955
▁scientific	-4956
arr	-4957
lei	-4958
kehr	-4959
antly	-4960
nehmer	-4961
▁Kreat	-4962
▁Schön	-4963
▁activ	-4964
▁Schauen	-4965
lim	-4966
▁1.	-4967
come	-4968
▁dru	-4969
▁Ding	-4970
▁Frank	-4971
▁breat	-4972
▁multi	-4973
▁track	-4974
▁Ergebnis	-4975
▁examples	-4976
▁geschrieben	-4977
▁gas	-4978
seite	-4979
▁anzu	-4980
▁sent	-4981
ground	-4982
lungen	-4983
▁trust	-4984
▁absolut	-4985
▁further	-4986
ikel	-4987
over	-4988
oming	-4989
ätzen	-4990
▁warm	-4991
▁starts	-4992
▁Det	-4993
▁hit	-4994
teile	-4995
▁frei	-4996
▁onto	-4997
▁wants	-4998
▁stimmt	-4999
▁Auswirk	-5000
▁biggest	-5001
▁journey	-5002
▁Yes	-5003
weisen	-5004
ämpfen	-5005
▁graph	-5006
▁mount	-5007
▁verfü	-5008
ilosoph	-5009
▁Jahrze	-5010
▁University	-5011
oß	-5012
ühren	-5013
▁Geme	-5014
▁tend	-5015
▁After	-5016
▁plant	-5017
▁hinein	-5018
▁irgende	-5019
▁passion	-5020
▁Beziehung	-5021
▁obviously	-5022
merksamkeit	-5023
▁gebe	-5024
▁anybody	-5025
▁creative	-5026
▁violence	-5027
▁gesprochen	-5028
lied	-5029
▁fem	-5030
piele	-5031
▁Wand	-5032
teilen	-5033
▁screen	-5034
handlung	-5035
▁zerstör	-5036
Die	-5037
isis	-5038
▁Fle	-5039
enken	-5040
igens	-5041
ücken	-5042
▁repl	-5043
▁Austral	-5044
▁Pflanzen	-5045
▁Aufmerksamkeit	-5046
▁Id	-5047
▁Islam	-5048
▁Bücher	-5049
▁quality	-5050
▁results	-5051
▁Hoffnung	-5052
▁begannen	-5053
▁Oberfläche	-5054
▁Sw	-5055
▁400	-5056
▁mut	-5057
astic	-5058
▁Hoch	-5059
▁carry	-5060
▁camera	-5061
▁tragen	-5062
▁transl	-5063
▁dachten	-5064
▁walking	-5065
ari	-5066
ägt	-5067
▁Gu	-5068
more	-5069
▁Russ	-5070
▁bank	-5071
▁verh	-5072
▁Kolle	-5073
▁showing	-5074
▁student	-5075
▁totally	-5076
▁certainly	-5077
▁wichtiger	-5078
ags	-5079
bald	-5080
▁Büro	-5081
▁nahe	-5082
▁rece	-5083
trauen	-5084
▁Alter	-5085
▁Maybe	-5086
▁transport	-5087
oe	-5088
arf	-5089
auch	-5090
icle	-5091
schw	-5092
▁Any	-5093
pidem	-5094
▁Dorf	-5095
▁bill	-5096
▁heut	-5097
▁jobs	-5098
▁Niger	-5099
▁clean	-5100
▁ernst	-5101
▁Fehler	-5102
▁großer	-5103
▁Schulen	-5104
uk	-5105
▁Eff	-5106
▁fam	-5107
▁Karte	-5108
aughter	-5109
▁compet	-5110
▁kosten	-5111
▁Evolution	-5112
bur	-5113
▁Regeln	-5114
▁Wieder	-5115
▁memory	-5116
▁sprach	-5117
▁verurs	-5118
▁wichtige	-5119
▁Experiment	-5120
▁gleichzeitig	-5121
wh	-5122
cen	-5123
ickt	-5124
isco	-5125
▁cross	-5126
▁notice	-5127
▁threat	-5128
▁Gruppen	-5129
▁complic	-5130
▁largest	-5131
▁ähnlich	-5132
▁Kontrolle	-5133
▁Menschheit	-5134
IT	-5135
lo	-5136
ppe	-5137
legt	-5138
medi	-5139
▁Ser	-5140
▁swe	-5141
▁capt	-5142
▁gern	-5143
▁Ozean	-5144
▁zuerst	-5145
▁context	-5146
▁Einfluss	-5147
▁chemical	-5148
hre	-5149
nern	-5150
front	-5151
▁effic	-5152
▁junge	-5153
osystem	-5154
▁bewegt	-5155
▁conflict	-5156
▁represent	-5157
▁Demokratie	-5158
▁Zw	-5159
amin	-5160
deck	-5161
feld	-5162
like	-5163
▁Erf	-5164
gendes	-5165
▁separ	-5166
▁sequen	-5167
▁exciting	-5168
▁security	-5169
▁fundamental	-5170
erve	-5171
▁Vol	-5172
ustand	-5173
▁früher	-5174
▁Fortsch	-5175
▁capital	-5176
▁happiness	-5177
▁everywhere	-5178
ohl	-5179
nete	-5180
zies	-5181
▁Terr	-5182
▁drug	-5183
▁Druck	-5184
▁kompl	-5185
issenschaft	-5186
▁gearbeitet	-5187
plan	-5188
▁bald	-5189
▁door	-5190
altung	-5191
▁apart	-5192
▁dynam	-5193
▁ansehen	-5194
▁collabor	-5195
▁sozialen	-5196
ror	-5197
sth	-5198
abel	-5199
aute	-5200
▁Baum	-5201
▁appl	-5202
▁Telef	-5203
▁ihres	-5204
▁terror	-5205
▁Bevölkerung	-5206
kr	-5207
▁Arab	-5208
▁wild	-5209
ativen	-5210
ements	-5211
▁trees	-5212
▁brains	-5213
▁nobody	-5214
▁particip	-5215
▁passierte	-5216
▁Kan	-5217
▁Tro	-5218
schie	-5219
▁Himm	-5220
▁prot	-5221
▁finde	-5222
▁sahen	-5223
▁member	-5224
▁spirit	-5225
▁deliver	-5226
▁democracy	-5227
▁Hy	-5228
etic	-5229
imin	-5230
onse	-5231
▁ehr	-5232
▁mis	-5233
▁Orte	-5234
▁Sand	-5235
▁Sohn	-5236
▁näher	-5237
▁trial	-5238
▁perspect	-5239
▁verlassen	-5240
erei	-5241
ramm	-5242
▁Act	-5243
▁Fil	-5244
▁Most	-5245
tember	-5246
wasser	-5247
▁Armut	-5248
▁Seiten	-5249
▁extremely	-5250
ham	-5251
rage	-5252
ulpt	-5253
▁Hin	-5254
▁hot	-5255
▁Phil	-5256
▁Ress	-5257
▁lose	-5258
0.	-5259
ürf	-5260
krie	-5261
eless	-5262
▁Verl	-5263
▁park	-5264
ometer	-5265
▁meant	-5266
ikation	-5267
indruck	-5268
▁inform	-5269
▁plants	-5270
▁verbra	-5271
▁Versuch	-5272
▁nuclear	-5273
▁progress	-5274
▁beobachten	-5275
ery	-5276
uad	-5277
ützt	-5278
▁Col	-5279
▁Sex	-5280
▁zus	-5281
▁Regen	-5282
▁prakt	-5283
▁urban	-5284
▁account	-5285
▁objects	-5286
▁village	-5287
▁Software	-5288
▁bemerken	-5289
▁thousand	-5290
▁versuchte	-5291
▁bestimmten	-5292
unt	-5293
▁boy	-5294
verty	-5295
▁2000	-5296
▁desc	-5297
▁sand	-5298
▁Genau	-5299
▁Meter	-5300
▁birth	-5301
▁Wörter	-5302
▁Erinner	-5303
▁poverty	-5304
ares	-5305
inken	-5306
▁lern	-5307
▁role	-5308
ossible	-5309
▁remark	-5310
▁African	-5311
▁Grenzen	-5312
▁Konzept	-5313
▁activity	-5314
▁favorite	-5315
▁watching	-5316
▁ö	-5317
▁sil	-5318
▁Auch	-5319
▁meth	-5320
▁Galax	-5321
underte	-5322
▁finding	-5323
▁teacher	-5324
▁einzelne	-5325
▁Universität	-5326
ils	-5327
ables	-5328
teten	-5329
▁Bank	-5330
▁Oper	-5331
▁empf	-5332
▁poll	-5333
▁labor	-5334
▁nation	-5335
▁Studien	-5336
▁discuss	-5337
▁suddenly	-5338
▁Ag	-5339
etze	-5340
▁Are	-5341
▁etc	-5342
▁vac	-5343
ächen	-5344
▁fill	-5345
▁grew	-5346
ourcen	-5347
▁lands	-5348
▁spezie	-5349
▁medizin	-5350
▁Innovation	-5351
▁Mathematik	-5352
abl	-5353
▁gehe	-5354
▁laun	-5355
▁movie	-5356
▁natür	-5357
peratur	-5358
▁Zugang	-5359
▁bleibt	-5360
▁Twitter	-5361
▁psycholog	-5362
sm	-5363
öp	-5364
▁Baby	-5365
▁skin	-5366
▁cause	-5367
▁minds	-5368
▁named	-5369
unately	-5370
▁return	-5371
▁sitzen	-5372
▁bessere	-5373
▁neighbor	-5374
▁supposed	-5375
▁buildings	-5376
▁offensichtlich	-5377
▁NA	-5378
letz	-5379
plex	-5380
zusch	-5381
▁East	-5382
▁Lauf	-5383
▁Port	-5384
▁galax	-5385
▁models	-5386
▁ständig	-5387
▁Reaktion	-5388
▁hospital	-5389
rep	-5390
lern	-5391
ounds	-5392
▁safe	-5393
ferenz	-5394
▁crazy	-5395
hington	-5396
schluss	-5397
▁Monaten	-5398
▁private	-5399
▁products	-5400
▁response	-5401
windigkeit	-5402
▁individuals	-5403
imb	-5404
▁150	-5405
▁ine	-5406
▁inf	-5407
▁rot	-5408
ulate	-5409
▁Spaß	-5410
iologie	-5411
▁author	-5412
▁anschauen	-5413
▁connected	-5414
Re	-5415
▁.	-5416
abr	-5417
itte	-5418
▁Bud	-5419
▁bal	-5420
iegel	-5421
orfen	-5422
▁Look	-5423
▁citi	-5424
aterie	-5425
schlag	-5426
▁Eines	-5427
▁ready	-5428
▁waste	-5429
▁arbeitet	-5430
▁position	-5431
aue	-5432
obil	-5433
odies	-5434
ausend	-5435
ustrial	-5436
▁Gebiet	-5437
▁appear	-5438
▁disapp	-5439
▁higher	-5440
▁Washington	-5441
▁eventually	-5442
▁verbessern	-5443
ael	-5444
▁Tas	-5445
▁sod	-5446
▁faster	-5447
▁taught	-5448
zeichnet	-5449
▁continue	-5450
▁richtige	-5451
▁richtigen	-5452
stet	-5453
▁000	-5454
▁tru	-5455
auber	-5456
▁Even	-5457
▁mine	-5458
▁Orten	-5459
▁adult	-5460
▁domin	-5461
▁forms	-5462
▁Invest	-5463
▁Stelle	-5464
▁source	-5465
▁content	-5466
▁vergessen	-5467
▁extraordinary	-5468
▁35	-5469
cape	-5470
edia	-5471
aving	-5472
▁rain	-5473
▁including	-5474
joy	-5475
▁sn	-5476
▁Wohl	-5477
▁bilden	-5478
▁Vergangen	-5479
▁somewhere	-5480
▁verlieren	-5481
ufe	-5482
zwe	-5483
olly	-5484
erven	-5485
▁Zeug	-5486
ensive	-5487
▁crisis	-5488
▁massive	-5489
▁Beispiele	-5490
uern	-5491
▁Gel	-5492
▁lau	-5493
▁tar	-5494
▁Mehr	-5495
▁cart	-5496
▁task	-5497
ruption	-5498
▁großes	-5499
▁kannst	-5500
▁voller	-5501
▁Nachbar	-5502
▁Schüler	-5503
▁arbeitete	-5504
▁Krankheiten	-5505
▁traditional	-5506
▁nachzudenken	-5507
osh	-5508
was	-5509
nder	-5510
ragt	-5511
wert	-5512
ünft	-5513
▁Gut	-5514
▁Ord	-5515
▁Sim	-5516
annen	-5517
▁nied	-5518
ilities	-5519
▁Morgen	-5520
ständnis	-5521
▁communities	-5522
▁Asp	-5523
ender	-5524
onent	-5525
räfte	-5526
▁dete	-5527
▁phen	-5528
▁worse	-5529
isation	-5530
▁Gesetz	-5531
▁series	-5532
▁Spezies	-5533
▁allowed	-5534
Wie	-5535
üss	-5536
▁Bot	-5537
▁Com	-5538
▁Jul	-5539
arian	-5540
atory	-5541
▁AIDS	-5542
▁goal	-5543
▁prec	-5544
▁push	-5545
▁Franc	-5546
▁sorts	-5547
▁larger	-5548
▁erlaubt	-5549
▁introdu	-5550
▁impossible	-5551
▁complicated	-5552
ya	-5553
ört	-5554
▁Los	-5555
▁rid	-5556
▁Gene	-5557
▁Tagen	-5558
▁deine	-5559
▁earth	-5560
▁shown	-5561
▁Molekü	-5562
▁doctor	-5563
▁princi	-5564
▁studies	-5565
▁wussten	-5566
▁möglichen	-5567
▁essentially	-5568
▁produzieren	-5569
bit	-5570
dom	-5571
ued	-5572
▁Po	-5573
ckte	-5574
gere	-5575
▁bur	-5576
▁deut	-5577
▁Konfl	-5578
ierende	-5579
▁immedi	-5580
▁indeed	-5581
▁hundert	-5582
▁aussieht	-5583
▁medicine	-5584
▁Bakterien	-5585
▁Vergangenheit	-5586
rem	-5587
stre	-5588
bauen	-5589
▁Kern	-5590
▁Sign	-5591
▁list	-5592
▁wife	-5593
▁denkt	-5594
▁drugs	-5595
▁Objekt	-5596
▁Frieden	-5597
▁colleag	-5598
▁Personen	-5599
▁zumindest	-5600
▁Wirklichkeit	-5601
ires	-5602
▁kre	-5603
board	-5604
erman	-5605
▁above	-5606
▁affect	-5607
▁afford	-5608
▁points	-5609
izations	-5610
▁gewinnen	-5611
itor	-5612
rior	-5613
vert	-5614
▁Del	-5615
▁MIT	-5616
▁selt	-5617
▁Feuer	-5618
▁dahin	-5619
wendung	-5620
▁allows	-5621
▁concern	-5622
▁architecture	-5623
fs	-5624
▁Ern	-5625
▁Kong	-5626
▁mist	-5627
ielten	-5628
reiten	-5629
stellt	-5630
▁Ebene	-5631
▁Gerät	-5632
▁diagn	-5633
▁ended	-5634
▁altern	-5635
▁launch	-5636
entliche	-5637
legenheit	-5638
▁signific	-5639
genie	-5640
▁late	-5641
▁enjoy	-5642
▁Können	-5643
▁führte	-5644
▁minute	-5645
▁gebracht	-5646
▁perspective	-5647
ser	-5648
ürz	-5649
▁Go	-5650
▁Mü	-5651
▁Who	-5652
▁cook	-5653
▁echt	-5654
▁site	-5655
astrop	-5656
▁bunch	-5657
▁truly	-5658
▁Nachricht	-5659
No	-5660
po	-5661
edom	-5662
iced	-5663
▁Ker	-5664
▁Uhr	-5665
änden	-5666
▁Haut	-5667
▁rele	-5668
ruction	-5669
▁gewalt	-5670
▁England	-5671
▁Theorie	-5672
▁distrib	-5673
▁families	-5674
▁electricity	-5675
▁Entscheidung	-5676
ec	-5677
osm	-5678
falt	-5679
lebt	-5680
mals	-5681
rene	-5682
kelet	-5683
rasch	-5684
äufig	-5685
▁burn	-5686
▁stick	-5687
▁fertig	-5688
▁bacteria	-5689
▁gesamten	-5690
▁training	-5691
▁conditions	-5692
gy	-5693
ingu	-5694
▁Wel	-5695
▁doc	-5696
▁fine	-5697
iments	-5698
ournal	-5699
▁Fotos	-5700
▁Hände	-5701
▁James	-5702
▁cases	-5703
▁höher	-5704
▁magic	-5705
▁Firmen	-5706
▁fascin	-5707
▁stress	-5708
▁phenomen	-5709
▁versuche	-5710
▁Ergebnisse	-5711
▁heutzutage	-5712
mark	-5713
iegen	-5714
leist	-5715
▁Kons	-5716
▁inse	-5717
▁winz	-5718
▁Relig	-5719
▁older	-5720
▁Terror	-5721
▁befinden	-5722
▁decision	-5723
▁interview	-5724
▁surprising	-5725
ius	-5726
prü	-5727
äte	-5728
▁Kur	-5729
altet	-5730
▁Like	-5731
▁Wohn	-5732
▁Zwei	-5733
▁port	-5734
▁vert	-5735
▁pieces	-5736
▁reading	-5737
aria	-5738
▁purp	-5739
▁roll	-5740
vented	-5741
▁attra	-5742
▁Bienen	-5743
▁choose	-5744
▁morgen	-5745
▁prison	-5746
▁Charles	-5747
▁neurons	-5748
▁erzeugen	-5749
▁irgendwo	-5750
▁standing	-5751
▁treatment	-5752
▁successful	-5753
ured	-5754
▁sor	-5755
▁tie	-5756
drück	-5757
▁wait	-5758
▁Times	-5759
▁Worte	-5760
▁lower	-5761
▁talks	-5762
▁Landes	-5763
▁schreck	-5764
▁Architektur	-5765
lier	-5766
▁wund	-5767
ctions	-5768
though	-5769
▁Daher	-5770
▁Leist	-5771
▁nenne	-5772
▁analys	-5773
▁patterns	-5774
▁trotzdem	-5775
dig	-5776
abet	-5777
uber	-5778
▁bab	-5779
▁alte	-5780
▁tree	-5781
▁Angel	-5782
▁aktiv	-5783
▁aufre	-5784
▁hilft	-5785
▁George	-5786
▁killed	-5787
▁manche	-5788
iversity	-5789
▁excited	-5790
▁influen	-5791
▁einzelnen	-5792
ids	-5793
ino	-5794
klär	-5795
▁Nor	-5796
▁Tal	-5797
▁cat	-5798
▁oxy	-5799
iling	-5800
riere	-5801
▁Priv	-5802
▁coun	-5803
▁kept	-5804
▁alive	-5805
▁provide	-5806
▁Sekunden	-5807
▁critical	-5808
▁gekommen	-5809
aup	-5810
mon	-5811
▁Che	-5812
kommt	-5813
orben	-5814
machen	-5815
utzung	-5816
werfen	-5817
▁Linie	-5818
▁sleep	-5819
▁effort	-5820
▁solchen	-5821
▁somehow	-5822
▁argument	-5823
▁erschein	-5824
pol	-5825
merz	-5826
▁erg	-5827
blich	-5828
holen	-5829
▁town	-5830
▁traf	-5831
▁Bühne	-5832
▁Kampf	-5833
▁Stamm	-5834
▁School	-5835
▁calcul	-5836
▁einges	-5837
▁robots	-5838
▁sowohl	-5839
▁spielt	-5840
▁address	-5841
▁usually	-5842
▁increase	-5843
▁painting	-5844
ulf	-5845
▁Mr	-5846
eles	-5847
hang	-5848
hyth	-5849
▁sky	-5850
aging	-5851
▁Präs	-5852
▁clin	-5853
▁luck	-5854
▁math	-5855
▁Which	-5856
▁Michael	-5857
▁Netzwerk	-5858
▁erfahren	-5859
▁Regierungen	-5860
▁organization	-5861
wür	-5862
pret	-5863
scht	-5864
▁bor	-5865
▁Mont	-5866
▁stär	-5867
▁upon	-5868
▁wirk	-5869
reitet	-5870
▁Today	-5871
▁occur	-5872
▁Formen	-5873
▁keiner	-5874
▁automat	-5875
▁erklärt	-5876
▁mention	-5877
▁physics	-5878
▁version	-5879
▁machines	-5880
▁military	-5881
▁decisions	-5882
▁entdecken	-5883
▁increasing	-5884
▁Auswirkungen	-5885
tr	-5886
uls	-5887
ücht	-5888
▁mat	-5889
hnung	-5890
▁Mond	-5891
ektive	-5892
ierter	-5893
▁Prote	-5894
▁Indian	-5895
▁Second	-5896
▁beings	-5897
▁skills	-5898
▁symbol	-5899
▁college	-5900
▁himself	-5901
▁smaller	-5902
▁straight	-5903
▁unmöglich	-5904
ios	-5905
tex	-5906
yle	-5907
ählt	-5908
▁Zuf	-5909
▁wes	-5910
obert	-5911
▁kaum	-5912
glicht	-5913
▁Those	-5914
▁Gefäng	-5915
▁riesige	-5916
▁globalen	-5917
▁programm	-5918
▁emotional	-5919
▁geschehen	-5920
▁verbinden	-5921
ala	-5922
leb	-5923
mäß	-5924
isms	-5925
pend	-5926
play	-5927
rech	-5928
▁Wik	-5929
▁pen	-5930
▁veh	-5931
ahmen	-5932
▁Hall	-5933
▁angef	-5934
▁Museum	-5935
▁employ	-5936
▁statist	-5937
▁Medikamen	-5938
▁Bewusstsein	-5939
▁conversation	-5940
20	-5941
5,	-5942
▁Gh	-5943
▁rund	-5944
▁uses	-5945
icians	-5946
ightly	-5947
▁Monat	-5948
▁lines	-5949
▁beauty	-5950
▁Flugzeug	-5951
▁Amerikaner	-5952
▁Wahrscheinlich	-5953
▁Ok	-5954
äusch	-5955
▁Ball	-5956
▁Gold	-5957
▁Heim	-5958
▁Test	-5959
wenden	-5960
▁Bezug	-5961
▁einzig	-5962
▁runter	-5963
▁sodass	-5964
▁aufgrund	-5965
licherweise	-5966
▁ermöglicht	-5967
▁Sa	-5968
buch	-5969
▁inn	-5970
sprün	-5971
▁cele	-5972
▁hält	-5973
▁throw	-5974
▁actual	-5975
▁express	-5976
▁seconds	-5977
amt	-5978
ray	-5979
▁tä	-5980
▁dunk	-5981
▁erhö	-5982
▁sele	-5983
zimmer	-5984
▁jungen	-5985
▁retten	-5986
▁Glauben	-5987
▁dadurch	-5988
▁respond	-5989
▁Anderson	-5990
▁bestimmte	-5991
same	-5992
time	-5993
▁whe	-5994
seits	-5995
ütter	-5996
▁Berg	-5997
▁Bett	-5998
▁card	-5999
▁nerv	-6000
▁rede	-6001
assung	-6002
▁Gespr	-6003
▁check	-6004
▁stars	-6005
▁Entdeck	-6006
▁recognize	-6007
▁großartige	-6008
ux	-6009
▁Hü	-6010
agine	-6011
ildet	-6012
▁Disk	-6013
▁code	-6014
▁hell	-6015
▁west	-6016
ration	-6017
▁Somet	-6018
▁letzt	-6019
▁passen	-6020
▁describ	-6021
▁leisten	-6022
▁anywhere	-6023
▁entdeckt	-6024
▁expensive	-6025
▁Ressourcen	-6026
▁Verantwort	-6027
▁untersuchen	-6028
örp	-6029
▁ca	-6030
▁Ere	-6031
▁Pak	-6032
örder	-6033
▁Bang	-6034
▁Höhe	-6035
▁page	-6036
▁rand	-6037
ameras	-6038
zahlen	-6039
ualität	-6040
▁messen	-6041
▁rights	-6042
▁anymore	-6043
▁written	-6044
▁Kollegen	-6045
▁humanity	-6046
ara	-6047
▁Sä	-6048
▁hop	-6049
▁lag	-6050
▁las	-6051
▁web	-6052
▁High	-6053
▁neun	-6054
▁genes	-6055
▁Chance	-6056
▁Geheim	-6057
▁biology	-6058
▁greater	-6059
▁plastic	-6060
▁Wachstum	-6061
▁standard	-6062
▁Erwachsen	-6063
▁Nä	-6064
icon	-6065
wers	-6066
ähig	-6067
▁kil	-6068
▁wann	-6069
▁brand	-6070
▁ignor	-6071
▁price	-6072
▁depend	-6073
▁forest	-6074
▁mental	-6075
▁report	-6076
ingungen	-6077
▁Einstein	-6078
▁einander	-6079
▁Maschinen	-6080
▁listening	-6081
▁solutions	-6082
▁betrachtet	-6083
iat	-6084
oden	-6085
seit	-6086
uted	-6087
▁Bus	-6088
▁Arzt	-6089
▁glass	-6090
▁Himmel	-6091
▁Systeme	-6092
▁gefragt	-6093
▁Funktion	-6094
▁specific	-6095
▁großartig	-6096
pts	-6097
will	-6098
ährt	-6099
▁dog	-6100
▁fil	-6101
emand	-6102
gener	-6103
werke	-6104
▁vern	-6105
ieties	-6106
▁Traum	-6107
▁Verfü	-6108
▁danke	-6109
▁surger	-6110
▁verfol	-6111
▁Ingenie	-6112
▁Methode	-6113
▁service	-6114
▁becoming	-6115
▁entschieden	-6116
ilet	-6117
reng	-6118
▁Ton	-6119
▁Inse	-6120
▁legs	-6121
▁spect	-6122
▁zeigte	-6123
▁Freiheit	-6124
▁Americans	-6125
▁verstanden	-6126
▁performance	-6127
9,	-6128
Es	-6129
afr	-6130
▁nut	-6131
▁abge	-6132
▁lebt	-6133
▁lief	-6134
▁rise	-6135
▁weap	-6136
▁Sinne	-6137
▁läuft	-6138
▁quant	-6139
▁Darwin	-6140
▁secret	-6141
▁weight	-6142
▁Nahrung	-6143
▁Ordnung	-6144
▁brother	-6145
▁contrib	-6146
▁bestehen	-6147
fortunately	-6148
▁production	-6149
▁normalerweise	-6150
sum	-6151
upp	-6152
▁Ame	-6153
▁unc	-6154
äuser	-6155
stoffe	-6156
▁Zivil	-6157
▁board	-6158
▁hörte	-6159
reprene	-6160
▁Lernen	-6161
▁policy	-6162
▁rechts	-6163
zunehmen	-6164
▁driving	-6165
▁sammeln	-6166
arte	-6167
▁crow	-6168
▁yeah	-6169
▁loved	-6170
▁shark	-6171
▁bodies	-6172
▁famous	-6173
▁healthy	-6174
▁Designer	-6175
▁gestellt	-6176
▁Krankenhaus	-6177
▁herausfinden	-6178
amb	-6179
key	-6180
▁45	-6181
▁Sl	-6182
aker	-6183
önen	-6184
steht	-6185
▁Herr	-6186
▁harm	-6187
tragen	-6188
▁drink	-6189
▁Geburt	-6190
▁please	-6191
arbeiter	-6192
▁clearly	-6193
▁current	-6194
▁practice	-6195
▁übrigens	-6196
▁dangerous	-6197
▁environmental	-6198
▁amerikanischen	-6199
zi	-6200
obal	-6201
▁Sep	-6202
▁ord	-6203
acity	-6204
attle	-6205
grupp	-6206
▁cold	-6207
▁ther	-6208
▁zufä	-6209
sweise	-6210
▁Brust	-6211
▁Einer	-6212
▁Nerven	-6213
▁celebr	-6214
▁earlier	-6215
▁zweiten	-6216
▁erzählte	-6217
▁schützen	-6218
▁fantastic	-6219
▁throughout	-6220
osc	-6221
trag	-6222
auern	-6223
rochen	-6224
▁Comput	-6225
▁Klimaw	-6226
▁Robert	-6227
▁random	-6228
▁handelt	-6229
▁greatest	-6230
▁diejenigen	-6231
▁intelligence	-6232
phone	-6233
▁desp	-6234
▁höch	-6235
▁Außer	-6236
▁Regel	-6237
▁funny	-6238
▁Jahres	-6239
dimension	-6240
▁Englisch	-6241
▁familiar	-6242
▁außerhalb	-6243
▁geschaffen	-6244
▁interessante	-6245
2,	-6246
Be	-6247
▁Lö	-6248
▁Pf	-6249
▁Eth	-6250
▁fit	-6251
▁sus	-6252
iding	-6253
▁Fluss	-6254
▁König	-6255
▁berüh	-6256
▁store	-6257
barkeit	-6258
mitteln	-6259
▁Gründe	-6260
▁babies	-6261
▁career	-6262
▁kommun	-6263
ads	-6264
aim	-6265
sta	-6266
berg	-6267
mend	-6268
riff	-6269
▁Gal	-6270
▁pan	-6271
etzte	-6272
▁Rand	-6273
änomen	-6274
▁costs	-6275
▁fallen	-6276
▁profit	-6277
▁waiting	-6278
▁befindet	-6279
▁teaching	-6280
▁Vergleich	-6281
bü	-6282
ago	-6283
Nein	-6284
ceed	-6285
▁hyd	-6286
reche	-6287
▁Bast	-6288
▁Komp	-6289
▁Lehr	-6290
▁mächt	-6291
▁range	-6292
▁älter	-6293
▁Intell	-6294
▁police	-6295
▁walked	-6296
▁willing	-6297
▁einzigen	-6298
▁September	-6299
▁wundersch	-6300
8,	-6301
▁Aud	-6302
ained	-6303
anter	-6304
itten	-6305
▁Gefü	-6306
nungen	-6307
▁Farbe	-6308
▁liber	-6309
▁strange	-6310
30	-6311
ae	-6312
Hey	-6313
▁Ak	-6314
ften	-6315
iner	-6316
▁Tom	-6317
lands	-6318
reten	-6319
▁leid	-6320
▁shot	-6321
atives	-6322
▁Damit	-6323
▁strug	-6324
▁taten	-6325
teilung	-6326
▁Beginn	-6327
▁Jungen	-6328
▁bisher	-6329
▁determ	-6330
▁improv	-6331
▁temper	-6332
▁Another	-6333
▁doctors	-6334
▁Schönheit	-6335
▁intelligent	-6336
ady	-6337
vard	-6338
aries	-6339
äumen	-6340
istent	-6341
▁Liebl	-6342
▁encou	-6343
▁unver	-6344
unächst	-6345
▁Einzel	-6346
▁abstra	-6347
▁behaup	-6348
▁square	-6349
▁Western	-6350
▁herunter	-6351
▁therefore	-6352
▁grundlegen	-6353
▁Ru	-6354
ffic	-6355
stes	-6356
▁cry	-6357
▁dri	-6358
▁Life	-6359
▁Wege	-6360
▁Your	-6361
▁ausz	-6362
▁ille	-6363
schirm	-6364
▁Imagine	-6365
▁freedom	-6366
▁invented	-6367
▁Interesse	-6368
▁remarkable	-6369
▁Verständnis	-6370
▁Organisation	-6371
ikt	-6372
aptop	-6373
gesetzt	-6374
▁remind	-6375
▁Partner	-6376
▁citizens	-6377
▁effective	-6378
▁Behandlung	-6379
7,	-6380
War	-6381
inct	-6382
itat	-6383
▁Wür	-6384
▁sam	-6385
endes	-6386
reibt	-6387
▁Wald	-6388
▁uner	-6389
aurant	-6390
schuld	-6391
▁catch	-6392
▁gradu	-6393
▁reich	-6394
▁weren	-6395
imately	-6396
schiede	-6397
▁artist	-6398
▁flying	-6399
▁meeting	-6400
▁respect	-6401
▁welcher	-6402
▁einfachen	-6403
▁herstellen	-6404
▁Beziehungen	-6405
▁unterstützen	-6406
fel	-6407
urm	-6408
uzz	-6409
iell	-6410
lose	-6411
mand	-6412
▁Sal	-6413
▁grü	-6414
▁Cong	-6415
▁Noch	-6416
▁antw	-6417
▁blog	-6418
ildern	-6419
▁method	-6420
▁comfort	-6421
▁genetic	-6422
▁website	-6423
▁services	-6424
ikanischen	-6425
▁direction	-6426
▁getroffen	-6427
▁,	-6428
ieß	-6429
▁Co	-6430
hers	-6431
lant	-6432
wick	-6433
▁Sil	-6434
▁cru	-6435
orien	-6436
▁Amaz	-6437
▁Schn	-6438
▁jump	-6439
▁lust	-6440
▁shap	-6441
stelle	-6442
▁Instr	-6443
▁ahead	-6444
▁types	-6445
▁values	-6446
▁wealth	-6447
▁Telefon	-6448
▁Lösungen	-6449
▁institutions	-6450
▁öffentlichen	-6451
Ja	-6452
ih	-6453
tes	-6454
iant	-6455
rees	-6456
▁His	-6457
▁Kir	-6458
▁Two	-6459
▁inj	-6460
platz	-6461
rifft	-6462
▁Fakt	-6463
▁Hirn	-6464
▁Norm	-6465
▁zero	-6466
passen	-6467
▁floor	-6468
▁Nummer	-6469
▁ebenso	-6470
▁income	-6471
▁selben	-6472
▁Artikel	-6473
▁Gehirns	-6474
▁Harvard	-6475
▁mehrere	-6476
▁erwarten	-6477
▁Erfahrungen	-6478
▁GP	-6479
aste	-6480
▁jud	-6481
alley	-6482
ießen	-6483
▁rule	-6484
▁legal	-6485
▁worry	-6486
zugehen	-6487
▁Drogen	-6488
▁seines	-6489
ierenden	-6490
▁following	-6491
hib	-6492
anne	-6493
iens	-6494
iles	-6495
▁Dre	-6496
anced	-6497
hrten	-6498
masch	-6499
▁Gewe	-6500
▁Name	-6501
▁final	-6502
▁forth	-6503
▁Ereign	-6504
▁decade	-6505
▁warten	-6506
▁various	-6507
▁Californ	-6508
▁Pakistan	-6509
▁bedeuten	-6510
ellschaften	-6511
▁km	-6512
omas	-6513
rzte	-6514
▁Bis	-6515
▁Fen	-6516
▁Kol	-6517
▁fac	-6518
ählen	-6519
▁früh	-6520
▁tiss	-6521
ätzlich	-6522
▁German	-6523
▁dritte	-6524
▁heutigen	-6525
▁politics	-6526
▁engineering	-6527
spe	-6528
cies	-6529
▁Arg	-6530
▁Neu	-6531
▁win	-6532
redit	-6533
▁Lang	-6534
▁hart	-6535
achtet	-6536
▁Schle	-6537
▁Steve	-6538
▁levels	-6539
▁useful	-6540
▁Nigeria	-6541
▁Einkommen	-6542
▁Zeitpunkt	-6543
▁governments	-6544
▁Veränderungen	-6545
für	-6546
alle	-6547
▁Big	-6548
▁Bru	-6549
▁Mär	-6550
▁div	-6551
▁Grad	-6552
▁Miss	-6553
▁invent	-6554
▁Erkennt	-6555
▁Komplex	-6556
▁install	-6557
▁entweder	-6558
uhl	-6559
ancy	-6560
irur	-6561
stück	-6562
▁Alex	-6563
▁Think	-6564
▁aufzu	-6565
▁telev	-6566
▁Zeiten	-6567
▁gewiss	-6568
ervation	-6569
▁instance	-6570
hem	-6571
seh	-6572
stä	-6573
hnte	-6574
▁rep	-6575
dings	-6576
▁laws	-6577
▁Wesen	-6578
▁trade	-6579
inosaur	-6580
▁Vision	-6581
▁honest	-6582
▁mobile	-6583
▁wunderv	-6584
▁electron	-6585
▁connection	-6586
1,	-6587
ibl	-6588
tech	-6589
▁Pil	-6590
▁deb	-6591
angel	-6592
itens	-6593
ringt	-6594
round	-6595
ypoth	-6596
▁Mort	-6597
▁NASA	-6598
▁Tisch	-6599
▁relev	-6600
▁Kamera	-6601
▁decide	-6602
▁elektr	-6603
▁shared	-6604
▁voraus	-6605
gefunden	-6606
chnologie	-6607
▁dasselbe	-6608
▁creativity	-6609
MS	-6610
hi	-6611
kam	-6612
brit	-6613
esis	-6614
▁Vier	-6615
anning	-6616
▁Plast	-6617
▁apply	-6618
▁whose	-6619
▁expand	-6620
▁saving	-6621
▁selten	-6622
▁unique	-6623
▁decades	-6624
▁popular	-6625
▁Vorstell	-6626
▁differen	-6627
▁entreprene	-6628
▁außergewöhn	-6629
▁Jahrhunderts	-6630
urb	-6631
öse	-6632
itiv	-6633
konom	-6634
▁Mart	-6635
▁Sold	-6636
▁Green	-6637
▁match	-6638
▁raise	-6639
▁Finger	-6640
▁Stunde	-6641
▁Videos	-6642
▁Individ	-6643
▁Journal	-6644
▁Statist	-6645
▁ehrlich	-6646
▁Manchmal	-6647
▁erfunden	-6648
▁schicken	-6649
▁verkaufen	-6650
▁unglaubliche	-6651
Te	-6652
▁Mut	-6653
▁ran	-6654
unsch	-6655
▁Band	-6656
▁From	-6657
▁Kurz	-6658
▁desto	-6659
▁radio	-6660
▁Finanz	-6661
▁Punkte	-6662
▁Teilen	-6663
▁Westen	-6664
▁Worten	-6665
▁wenige	-6666
▁Produkte	-6667
▁California	-6668
▁immediately	-6669
val	-6670
▁Anw	-6671
▁Jan	-6672
▁bud	-6673
eting	-6674
gency	-6675
ustom	-6676
▁Text	-6677
▁YouT	-6678
▁concl	-6679
▁metap	-6680
▁slide	-6681
zusagen	-6682
gebracht	-6683
▁Schlüssel	-6684
▁Institution	-6685
2.	-6686
Er	-6687
ikas	-6688
▁End	-6689
▁Sam	-6690
▁iPh	-6691
hlung	-6692
▁Auge	-6693
▁isol	-6694
▁laut	-6695
▁Jedes	-6696
▁helped	-6697
▁supply	-6698
▁infrast	-6699
▁verrückt	-6700
▁ebenfalls	-6701
▁financial	-6702
▁Leidenschaft	-6703
RI	-6704
onie	-6705
pack	-6706
▁Con	-6707
▁Dis	-6708
▁Mir	-6709
arter	-6710
▁Ident	-6711
▁fällt	-6712
▁YouTube	-6713
▁erleben	-6714
▁although	-6715
▁erinnere	-6716
▁original	-6717
▁condition	-6718
▁societies	-6719
▁Eigenschaften	-6720
Le	-6721
elf	-6722
vey	-6723
afen	-6724
iete	-6725
uing	-6726
▁hom	-6727
stütz	-6728
▁Drit	-6729
▁Prot	-6730
▁fuel	-6731
▁jene	-6732
▁guter	-6733
▁gutes	-6734
▁hinge	-6735
▁Polize	-6736
▁accept	-6737
▁nahmen	-6738
▁globale	-6739
▁prevent	-6740
▁Projekte	-6741
▁cultural	-6742
do	-6743
ifft	-6744
▁aid	-6745
▁Haben	-6746
▁erfor	-6747
standen	-6748
▁Farben	-6749
▁Freude	-6750
▁Physik	-6751
▁Schutz	-6752
▁commit	-6753
▁forces	-6754
▁gedacht	-6755
▁survive	-6756
▁possibly	-6757
▁Gefängnis	-6758
▁challenges	-6759
▁industrial	-6760
▁television	-6761
ilde	-6762
essed	-6763
▁foss	-6764
▁hair	-6765
▁agric	-6766
▁Thomas	-6767
▁forget	-6768
▁fühlte	-6769
▁myster	-6770
▁summer	-6771
▁eigenes	-6772
▁explore	-6773
▁kulture	-6774
▁Position	-6775
▁directly	-6776
▁jemandem	-6777
▁terrible	-6778
▁Verfügung	-6779
▁vollständ	-6780
frastruktur	-6781
▁Kreativität	-6782
▁neighborhood	-6783
▁üb	-6784
weil	-6785
▁Tor	-6786
ufact	-6787
▁hall	-6788
selben	-6789
▁Unser	-6790
▁aware	-6791
▁dauer	-6792
▁Morton	-6793
▁effekt	-6794
▁senten	-6795
▁struct	-6796
▁trouble	-6797
▁diseases	-6798
▁unabhäng	-6799
▁Intelligen	-6800
▁Bon	-6801
▁bio	-6802
▁imm	-6803
bewer	-6804
eller	-6805
wärts	-6806
▁Körp	-6807
▁Post	-6808
▁hole	-6809
▁Junge	-6810
ulieren	-6811
minister	-6812
▁slightly	-6813
▁Francisco	-6814
▁überleben	-6815
add	-6816
vit	-6817
aign	-6818
räge	-6819
▁äuß	-6820
Warum	-6821
kraft	-6822
▁mitt	-6823
▁verme	-6824
▁brilli	-6825
▁frühen	-6826
ographic	-6827
▁journal	-6828
▁controll	-6829
▁schlechte	-6830
▁Materialien	-6831
▁experiments	-6832
▁durchschnitt	-6833
"-	-6834
How	-6835
oge	-6836
ners	-6837
üsse	-6838
▁fro	-6839
▁wün	-6840
▁zug	-6841
gaben	-6842
ights	-6843
omant	-6844
▁drop	-6845
▁Liste	-6846
▁Werte	-6847
▁print	-6848
▁worst	-6849
▁Tieren	-6850
▁lernte	-6851
ognitive	-6852
▁atmosph	-6853
▁profound	-6854
▁behandeln	-6855
▁consequen	-6856
▁wunderbar	-6857
▁understood	-6858
▁konzentrieren	-6859
It	-6860
maß	-6861
wise	-6862
▁Pop	-6863
▁bat	-6864
▁mid	-6865
▁Mitt	-6866
▁base	-6867
▁Great	-6868
▁Suche	-6869
▁Ahnung	-6870
▁Waffen	-6871
▁dramat	-6872
▁sobald	-6873
▁nachhalt	-6874
▁Industrie	-6875
▁99	-6876
▁Hom	-6877
▁Hum	-6878
▁hus	-6879
▁Gang	-6880
▁hous	-6881
▁paid	-6882
▁poet	-6883
▁below	-6884
▁chair	-6885
▁manip	-6886
ierungs	-6887
▁Amazon	-6888
▁Region	-6889
▁fangen	-6890
▁states	-6891
▁Schrift	-6892
▁purpose	-6893
▁surgery	-6894
▁Karriere	-6895
▁algorith	-6896
▁capacity	-6897
▁enormous	-6898
▁networks	-6899
▁vergleich	-6900
ibe	-6901
ärm	-6902
erem	-6903
▁vul	-6904
aling	-6905
azine	-6906
ilien	-6907
ograp	-6908
▁Bein	-6909
▁male	-6910
▁vict	-6911
▁assoc	-6912
▁dance	-6913
▁shock	-6914
▁zeich	-6915
britann	-6916
itionen	-6917
ktionen	-6918
▁intens	-6919
▁trifft	-6920
▁vorbei	-6921
▁effects	-6922
▁größeren	-6923
▁transpar	-6924
▁angefangen	-6925
col	-6926
ammt	-6927
▁Wid	-6928
icles	-6929
odell	-6930
▁Jobs	-6931
▁King	-6932
▁Many	-6933
▁Wass	-6934
▁boys	-6935
▁dank	-6936
ochter	-6937
▁echte	-6938
geführt	-6939
isierte	-6940
▁Meeres	-6941
▁behavi	-6942
▁commer	-6943
▁destro	-6944
▁double	-6945
▁negative	-6946
▁Verantwortung	-6947
lös	-6948
▁unf	-6949
ergie	-6950
▁Mill	-6951
▁Kreis	-6952
▁analy	-6953
▁komme	-6954
brechen	-6955
▁Herzen	-6956
▁Sommer	-6957
▁anyway	-6958
▁closer	-6959
▁öffnen	-6960
▁central	-6961
▁tremend	-6962
▁Biologie	-6963
▁Freunden	-6964
▁Werkzeuge	-6965
▁temperature	-6966
Ver	-6967
▁ve	-6968
reib	-6969
term	-6970
▁Rep	-6971
▁Tex	-6972
▁neh	-6973
cribe	-6974
utsch	-6975
ündet	-6976
▁Rede	-6977
▁loss	-6978
▁hinzu	-6979
▁Street	-6980
▁beantw	-6981
▁causes	-6982
▁target	-6983
▁geschah	-6984
▁speaking	-6985
▁Antworten	-6986
▁existiert	-6987
▁published	-6988
▁colleagues	-6989
Ge	-6990
bet	-6991
nam	-6992
▁Mö	-6993
oßen	-6994
▁Beh	-6995
▁Wol	-6996
hlten	-6997
iated	-6998
orgung	-6999
führung	-7000
▁Dienst	-7001
▁Schwar	-7002
▁Wunder	-7003
▁mostly	-7004
▁erzeugt	-7005
▁workers	-7006
▁gegangen	-7007
▁verbringen	-7008
izes	-7009
odes	-7010
rize	-7011
wohn	-7012
▁Hig	-7013
▁Mat	-7014
▁Arme	-7015
▁hört	-7016
anging	-7017
treten	-7018
▁Abend	-7019
▁Zelle	-7020
haltung	-7021
▁Spitze	-7022
▁played	-7023
▁Zustand	-7024
▁answers	-7025
▁schlimm	-7026
▁erstaunlich	-7027
ason	-7028
▁Get	-7029
▁Mos	-7030
▁tens	-7031
▁Bäume	-7032
▁Colle	-7033
▁calls	-7034
▁shoot	-7035
ception	-7036
▁Manche	-7037
▁häufig	-7038
▁oxygen	-7039
▁Fenster	-7040
▁evolved	-7041
▁noticed	-7042
▁ursprün	-7043
▁Ausdruck	-7044
▁programs	-7045
▁Unterstütz	-7046
▁aufgenommen	-7047
▁ermöglichen	-7048
▁kontrollieren	-7049
gin	-7050
itär	-7051
such	-7052
▁mix	-7053
ctive	-7054
folge	-7055
▁Nähe	-7056
▁Stan	-7057
▁sick	-7058
▁Again	-7059
▁Insel	-7060
▁Ansatz	-7061
▁Bedürf	-7062
▁Schiff	-7063
▁pressure	-7064
▁Sauerstoff	-7065
▁organizations	-7066
kn	-7067
vin	-7068
zil	-7069
geht	-7070
ulen	-7071
▁194	-7072
▁Ext	-7073
▁fat	-7074
hause	-7075
pping	-7076
▁Blog	-7077
▁Kore	-7078
▁heat	-7079
ennung	-7080
ologen	-7081
▁dying	-7082
▁Männern	-7083
▁Schluss	-7084
▁Tochter	-7085
▁choices	-7086
▁helping	-7087
▁spreche	-7088
▁begonnen	-7089
▁Überleben	-7090
▁Gelegenheit	-7091
▁experiences	-7092
▁herzustellen	-7093
▁Infrastruktur	-7094
▁relationships	-7095
▁infrastructure	-7096
An	-7097
auert	-7098
hilfe	-7099
ichts	-7100
raten	-7101
▁Erst	-7102
▁koll	-7103
▁unge	-7104
▁Osten	-7105
▁erwäh	-7106
▁frame	-7107
▁offic	-7108
▁chines	-7109
▁corner	-7110
▁Erstens	-7111
▁Gefühle	-7112
▁Klassen	-7113
▁genutzt	-7114
▁präsent	-7115
▁mountain	-7116
geschichte	-7117
▁entstehen	-7118
▁conference	-7119
zul	-7120
artig	-7121
fraid	-7122
water	-7123
▁Wikip	-7124
▁absch	-7125
▁birds	-7126
▁wider	-7127
ichtbar	-7128
▁akzept	-7129
▁iPhone	-7130
▁Instead	-7131
▁creates	-7132
▁improve	-7133
▁markets	-7134
▁Experimen	-7135
▁Gesundheits	-7136
con	-7137
kur	-7138
▁2.	-7139
▁75	-7140
aced	-7141
aven	-7142
▁Gar	-7143
▁Les	-7144
▁Sun	-7145
▁nar	-7146
acher	-7147
rical	-7148
stadt	-7149
▁krie	-7150
▁lack	-7151
▁plat	-7152
schutz	-7153
▁Titel	-7154
▁parad	-7155
▁smell	-7156
▁trick	-7157
▁twice	-7158
▁active	-7159
▁afraid	-7160
▁applic	-7161
▁frustr	-7162
▁speech	-7163
▁wählen	-7164
zeichnen	-7165
▁entlang	-7166
▁größere	-7167
▁notwend	-7168
▁produced	-7169
▁geschafft	-7170
▁atmosphere	-7171
▁Großbritann	-7172
▁communicate	-7173
▁institution	-7174
▁sustainable	-7175
ico	-7176
orb	-7177
▁23	-7178
ogel	-7179
olden	-7180
rench	-7181
▁Hund	-7182
▁Ther	-7183
▁coff	-7184
▁erne	-7185
▁tele	-7186
fassen	-7187
▁gather	-7188
▁highly	-7189
ollywood	-7190
▁bringing	-7191
▁surround	-7192
▁scientist	-7193
▁Medikamente	-7194
rot	-7195
▁od	-7196
▁Etw	-7197
▁kor	-7198
▁sou	-7199
bruch	-7200
stieg	-7201
▁Chic	-7202
▁Jack	-7203
▁Wett	-7204
▁bein	-7205
▁flex	-7206
▁ließ	-7207
▁wire	-7208
istisch	-7209
▁Center	-7210
mosphäre	-7211
▁Knochen	-7212
▁Materie	-7213
▁kämpfen	-7214
▁manufact	-7215
▁riesigen	-7216
▁complexity	-7217
▁verantwort	-7218
▁consciousness	-7219
Un	-7220
ida	-7221
rian	-7222
▁afr	-7223
▁dür	-7224
iffen	-7225
istry	-7226
oston	-7227
weite	-7228
▁Good	-7229
▁bees	-7230
▁adapt	-7231
auschen	-7232
▁10,000	-7233
▁Nehmen	-7234
▁bezahl	-7235
▁custom	-7236
▁ancient	-7237
▁degrees	-7238
▁streets	-7239
industrie	-7240
▁Vielfalt	-7241
▁erlauben	-7242
▁studying	-7243
▁communication	-7244
cel	-7245
ola	-7246
▁GPS	-7247
ekten	-7248
isted	-7249
markt	-7250
mente	-7251
▁Adam	-7252
▁nütz	-7253
etzten	-7254
▁Peter	-7255
▁rough	-7256
▁synth	-7257
▁Brazil	-7258
▁schaut	-7259
▁vertra	-7260
▁Neuronen	-7261
▁campaign	-7262
▁beeinflusst	-7263
▁differently	-7264
edy	-7265
erc	-7266
pre	-7267
hner	-7268
leun	-7269
▁Frü	-7270
▁oppos	-7271
▁photo	-7272
▁Massen	-7273
▁Norden	-7274
▁bought	-7275
▁broken	-7276
▁reduce	-7277
▁satell	-7278
▁dorthin	-7279
▁seltsam	-7280
▁Interess	-7281
▁brauchte	-7282
▁Wikipedia	-7283
▁diversity	-7284
▁reagieren	-7285
rt	-7286
oom	-7287
▁Wä	-7288
holt	-7289
uert	-7290
heben	-7291
mögen	-7292
▁Erzä	-7293
▁Micro	-7294
otograf	-7295
▁Atlant	-7296
▁Online	-7297
▁handeln	-7298
▁Phänomen	-7299
▁inspired	-7300
▁veränder	-7301
▁einfacher	-7302
▁Universums	-7303
▁Komplexität	-7304
▁Verbindungen	-7305
▁beeinflussen	-7306
▁Kommunikation	-7307
▁Geschwindigkeit	-7308
4,	-7309
abt	-7310
ding	-7311
spra	-7312
▁600	-7313
▁tax	-7314
▁wis	-7315
▁Denk	-7316
▁gilt	-7317
▁krit	-7318
▁kürz	-7319
▁race	-7320
▁reve	-7321
▁fragt	-7322
▁sogen	-7323
▁Middle	-7324
▁element	-7325
▁Werkzeug	-7326
▁Botschaft	-7327
▁biological	-7328
▁differences	-7329
▁Entwicklungsl	-7330
Why	-7331
Wenn	-7332
deut	-7333
alien	-7334
ampag	-7335
entle	-7336
▁Dort	-7337
▁Eins	-7338
▁Glas	-7339
▁Iraq	-7340
▁Loch	-7341
artige	-7342
umente	-7343
▁fühlt	-7344
▁gross	-7345
▁Muslim	-7346
▁Thanks	-7347
▁genome	-7348
▁langen	-7349
▁switch	-7350
▁Chicago	-7351
▁Plastik	-7352
▁endlich	-7353
▁missing	-7354
▁stopped	-7355
erspektive	-7356
▁Fortschritt	-7357
▁wichtigsten	-7358
bank	-7359
größ	-7360
izen	-7361
lder	-7362
rect	-7363
üben	-7364
▁Lar	-7365
▁bub	-7366
▁tom	-7367
neten	-7368
▁vast	-7369
▁hielt	-7370
▁nehme	-7371
▁eating	-7372
▁female	-7373
▁ändert	-7374
▁Begriff	-7375
▁daughter	-7376
bin	-7377
gas	-7378
akten	-7379
▁Holz	-7380
▁bomb	-7381
▁gift	-7382
▁prep	-7383
▁teen	-7384
▁Todes	-7385
▁Risiko	-7386
▁Schlag	-7387
▁cooper	-7388
▁spaces	-7389
▁window	-7390
▁achieve	-7391
▁devices	-7392
▁extreme	-7393
▁Insekten	-7394
▁ecosystem	-7395
▁landscape	-7396
▁Verhaltens	-7397
▁produziert	-7398
▁Gesellschaften	-7399
car	-7400
uum	-7401
eden	-7402
load	-7403
stag	-7404
used	-7405
▁jün	-7406
fälle	-7407
idden	-7408
mmern	-7409
right	-7410
volle	-7411
▁Trad	-7412
gebaut	-7413
izität	-7414
lieben	-7415
▁Paris	-7416
▁basis	-7417
▁lights	-7418
▁Version	-7419
▁politische	-7420
▁significant	-7421
▁Zusammenarbeit	-7422
emen	-7423
glie	-7424
nden	-7425
▁Las	-7426
▁Lat	-7427
▁Sen	-7428
▁Zur	-7429
▁dom	-7430
setzt	-7431
▁More	-7432
▁disk	-7433
▁gros	-7434
imeter	-7435
▁Typen	-7436
▁auszu	-7437
▁cheap	-7438
▁fühle	-7439
▁initi	-7440
▁kenne	-7441
▁legen	-7442
▁Klasse	-7443
▁seemed	-7444
▁therap	-7445
▁artists	-7446
▁entsteht	-7447
▁stellten	-7448
▁Geschäfts	-7449
▁molecules	-7450
▁weiterhin	-7451
▁Temperatur	-7452
ruf	-7453
▁2,	-7454
chem	-7455
king	-7456
▁Air	-7457
▁Kop	-7458
▁sad	-7459
▁san	-7460
haben	-7461
ließt	-7462
▁Over	-7463
▁rare	-7464
▁Beruf	-7465
stronom	-7466
▁Boston	-7467
▁Karten	-7468
▁breast	-7469
▁kostet	-7470
▁Ameisen	-7471
▁College	-7472
▁religion	-7473
▁spending	-7474
▁creatures	-7475
▁entschied	-7476
▁überzeugen	-7477
▁politischen	-7478
▁Durchschnitt	-7479
1.	-7480
que	-7481
ses	-7482
kung	-7483
▁nöt	-7484
▁pig	-7485
rauch	-7486
▁Müll	-7487
▁Tanz	-7488
▁hero	-7489
brauch	-7490
istenz	-7491
▁1,000	-7492
▁fully	-7493
ssystem	-7494
▁verfüg	-7495
▁vulner	-7496
▁Einsatz	-7497
▁designers	-7498
▁Klimawandel	-7499
▁Zusammenhang	-7500
det	-7501
▁Kä	-7502
▁ut	-7503
cell	-7504
mmer	-7505
uild	-7506
▁Lab	-7507
▁sal	-7508
ansen	-7509
icket	-7510
▁gene	-7511
▁habt	-7512
uments	-7513
▁rapid	-7514
▁seien	-7515
▁Result	-7516
▁symmet	-7517
▁Kapital	-7518
▁sharing	-7519
▁metaphor	-7520
▁efficient	-7521
▁Unterschiede	-7522
hes	-7523
Okay	-7524
eler	-7525
teln	-7526
▁ext	-7527
athan	-7528
based	-7529
light	-7530
ätsel	-7531
▁buch	-7532
▁enth	-7533
aining	-7534
▁Higgs	-7535
▁Opfer	-7536
▁Virus	-7537
▁bread	-7538
▁könnt	-7539
▁sowie	-7540
mission	-7541
▁Altern	-7542
▁Kohlen	-7543
▁Wunsch	-7544
▁easily	-7545
▁photos	-7546
▁Städten	-7547
▁members	-7548
▁verkauft	-7549
▁Präsident	-7550
▁philosoph	-7551
▁tremendous	-7552
▁Unterstützung	-7553
▁Ho	-7554
▁eg	-7555
angt	-7556
igur	-7557
obel	-7558
rupt	-7559
▁20.	-7560
ocken	-7561
ratic	-7562
afrika	-7563
wohner	-7564
ährung	-7565
▁agree	-7566
▁digit	-7567
▁motor	-7568
zubauen	-7569
▁einsch	-7570
▁presen	-7571
isierten	-7572
▁dagegen	-7573
▁gewonnen	-7574
▁interpret	-7575
▁background	-7576
▁opportunities	-7577
tle	-7578
▁Ah	-7579
ston	-7580
urop	-7581
losen	-7582
quenz	-7583
▁Ganz	-7584
▁Jede	-7585
▁TEDx	-7586
▁Babys	-7587
▁assum	-7588
▁shift	-7589
entwick	-7590
▁batter	-7591
▁engage	-7592
▁gotten	-7593
▁passed	-7594
ological	-7595
▁Objekte	-7596
▁Zentrum	-7597
▁hearing	-7598
▁Aufgaben	-7599
▁begeister	-7600
▁Intelligenz	-7601
ias	-7602
leg	-7603
▁CE	-7604
▁sü	-7605
hung	-7606
verb	-7607
▁Wal	-7608
▁fle	-7609
house	-7610
▁Feld	-7611
▁Kein	-7612
▁Proz	-7613
▁Sche	-7614
erecht	-7615
gramme	-7616
ording	-7617
stände	-7618
▁unbed	-7619
▁Schimp	-7620
▁bedeut	-7621
▁erhält	-7622
▁shares	-7623
ationale	-7624
ulations	-7625
▁Diskuss	-7626
▁Sekunde	-7627
▁farmers	-7628
▁focused	-7629
▁moments	-7630
▁Religion	-7631
▁behandelt	-7632
▁Depression	-7633
▁commercial	-7634
▁fascinating	-7635
▁imagination	-7636
▁responsibility	-7637
ays	-7638
urf	-7639
erin	-7640
▁saß	-7641
andid	-7642
frage	-7643
usive	-7644
▁Golf	-7645
▁Szen	-7646
▁heav	-7647
▁feels	-7648
mutlich	-7649
▁Jugend	-7650
▁sexual	-7651
▁schafft	-7652
▁Konferenz	-7653
▁benötigen	-7654
▁verbreitet	-7655
▁verursacht	-7656
na	-7657
ani	-7658
opt	-7659
ieso	-7660
ügel	-7661
ührt	-7662
etwas	-7663
ugier	-7664
▁Heil	-7665
▁none	-7666
führer	-7667
▁Zusch	-7668
▁avoid	-7669
▁davor	-7670
▁visit	-7671
▁Spiele	-7672
▁desert	-7673
▁ganzes	-7674
▁klingt	-7675
istische	-7676
▁letztes	-7677
▁modernen	-7678
▁Fernsehen	-7679
▁Vertrauen	-7680
▁erstellen	-7681
dimensional	-7682
▁Ausbildung	-7683
▁leadership	-7684
▁Jo	-7685
▁ep	-7686
orgt	-7687
spir	-7688
▁Abs	-7689
▁Bur	-7690
▁Haw	-7691
print	-7692
▁Gest	-7693
▁Satz	-7694
▁fash	-7695
▁join	-7696
▁recy	-7697
▁stim	-7698
estens	-7699
formen	-7700
ivalent	-7701
ography	-7702
▁Inform	-7703
▁yellow	-7704
▁Science	-7705
▁mission	-7706
▁Soldaten	-7707
▁identity	-7708
▁Kilometer	-7709
▁Atmosphäre	-7710
▁Hintergrund	-7711
▁Landwirtschaft	-7712
ka	-7713
Sie	-7714
izz	-7715
kop	-7716
gypt	-7717
reci	-7718
tert	-7719
ician	-7720
krebs	-7721
verse	-7722
▁Take	-7723
▁Ghana	-7724
▁neuer	-7725
▁spiel	-7726
▁weird	-7727
klärung	-7728
änglich	-7729
▁Kunden	-7730
▁Privat	-7731
▁nearly	-7732
zwischen	-7733
▁Kontakt	-7734
▁Schwier	-7735
▁Zeichen	-7736
▁failure	-7737
▁Professor	-7738
▁überzeugt	-7739
▁übertragen	-7740
500	-7741
die	-7742
zif	-7743
bert	-7744
stab	-7745
well	-7746
antas	-7747
frist	-7748
▁darf	-7749
▁erfü	-7750
▁schm	-7751
▁tour	-7752
▁vari	-7753
▁Child	-7754
▁gaben	-7755
zeichen	-7756
▁Valley	-7757
▁Wandel	-7758
▁epidem	-7759
▁selber	-7760
▁streng	-7761
▁British	-7762
▁Spielen	-7763
▁knowing	-7764
▁perfekt	-7765
▁turning	-7766
▁virtual	-7767
forschung	-7768
▁benefits	-7769
▁erforschen	-7770
▁investieren	-7771
▁possibility	-7772
hö	-7773
sl	-7774
aos	-7775
renz	-7776
▁Mac	-7777
▁Seb	-7778
▁Spr	-7779
▁zent	-7780
▁Schne	-7781
▁giant	-7782
▁gentle	-7783
▁forever	-7784
▁betrifft	-7785
▁dieselbe	-7786
▁brilliant	-7787
▁unbedingt	-7788
▁phenomenon	-7789
▁Großbritannien	-7790
▁Ac	-7791
▁250	-7792
▁Hil	-7793
▁amb	-7794
▁Stär	-7795
▁mort	-7796
▁trag	-7797
isible	-7798
▁Autor	-7799
▁Vogel	-7800
▁enter	-7801
zusehen	-7802
▁tissue	-7803
▁umgehen	-7804
▁erinnert	-7805
▁weiteres	-7806
▁Lieblings	-7807
▁Untersuch	-7808
▁religious	-7809
▁27	-7810
aken	-7811
üren	-7812
▁Cam	-7813
▁joy	-7814
▁zuk	-7815
appen	-7816
schte	-7817
▁Fach	-7818
▁Verk	-7819
▁meas	-7820
▁seed	-7821
▁ship	-7822
antage	-7823
▁Affen	-7824
▁Stoff	-7825
▁mouth	-7826
▁simpl	-7827
▁aspect	-7828
▁coffee	-7829
▁gewöhn	-7830
▁signal	-7831
▁alleine	-7832
▁balance	-7833
▁foreign	-7834
▁accident	-7835
▁opposite	-7836
▁Identität	-7837
▁beschreiben	-7838
▁wunderschön	-7839
▁Organisationen	-7840
▁herausgefunden	-7841
ros	-7842
▁Vö	-7843
halte	-7844
▁Fest	-7845
▁bloß	-7846
▁eure	-7847
▁Handy	-7848
▁Obama	-7849
▁disor	-7850
▁Sterne	-7851
▁fairly	-7852
▁lautet	-7853
▁victim	-7854
entlicht	-7855
▁fashion	-7856
▁geführt	-7857
▁planets	-7858
ification	-7859
▁Actually	-7860
▁addition	-7861
▁wiederum	-7862
▁Institute	-7863
▁verdienen	-7864
▁beschäftigt	-7865
▁entwickelten	-7866
Don	-7867
van	-7868
▁ta	-7869
apie	-7870
know	-7871
lymp	-7872
ware	-7873
▁hau	-7874
krieg	-7875
▁2008	-7876
▁Brot	-7877
▁core	-7878
▁jung	-7879
▁note	-7880
▁spot	-7881
▁Basis	-7882
▁Haiti	-7883
▁condu	-7884
▁helps	-7885
▁lucky	-7886
setzung	-7887
▁Fällen	-7888
▁Mexico	-7889
▁Rücken	-7890
▁Satell	-7891
▁bitten	-7892
▁demand	-7893
▁magnet	-7894
▁sculpt	-7895
▁weapons	-7896
▁Nahrungs	-7897
▁benötigt	-7898
▁particles	-7899
▁vollkommen	-7900
▁Bedingungen	-7901
▁Lebensmittel	-7902
▁kommunizieren	-7903
ko	-7904
▁Wü	-7905
aler	-7906
hört	-7907
leid	-7908
▁Rem	-7909
▁gun	-7910
▁lat	-7911
▁Lern	-7912
▁puzz	-7913
▁Masse	-7914
▁email	-7915
▁künst	-7916
▁sitzt	-7917
▁Themen	-7918
▁clever	-7919
▁drehen	-7920
▁infect	-7921
▁Niemand	-7922
▁Patient	-7923
▁rechten	-7924
▁stecken	-7925
▁zukünft	-7926
▁Korallen	-7927
▁außerdem	-7928
▁deutlich	-7929
ota	-7930
ibel	-7931
iche	-7932
▁Nad	-7933
▁Abst	-7934
▁Drei	-7935
▁Volk	-7936
▁anti	-7937
▁Anges	-7938
▁Klima	-7939
▁Sport	-7940
▁names	-7941
▁party	-7942
▁tough	-7943
▁French	-7944
▁Sebast	-7945
▁hinweg	-7946
▁master	-7947
▁notion	-7948
▁verwir	-7949
▁Bildern	-7950
▁Einfach	-7951
▁buchstä	-7952
▁leading	-7953
▁eingesch	-7954
▁erwartet	-7955
▁veröffentlicht	-7956
PA	-7957
soft	-7958
tels	-7959
▁Log	-7960
▁Ros	-7961
▁daß	-7962
eline	-7963
swert	-7964
▁Asia	-7965
▁Graf	-7966
▁Pers	-7967
ighten	-7968
▁Kaffe	-7969
▁coast	-7970
▁exerc	-7971
▁faith	-7972
▁Nutzen	-7973
▁ancest	-7974
▁brings	-7975
▁colors	-7976
▁events	-7977
▁leider	-7978
▁versus	-7979
▁Angeles	-7980
▁steigen	-7981
istischen	-7982
▁Gemeinde	-7983
▁exponent	-7984
▁partners	-7985
▁rational	-7986
▁gestalten	-7987
▁sozusagen	-7988
▁competition	-7989
6,	-7990
far	-7991
▁Dra	-7992
▁unw	-7993
asion	-7994
chnen	-7995
werte	-7996
zelle	-7997
▁ausl	-7998
▁plus	-7999
ördern	-8000
▁tolle	-8001
▁wirst	-8002
▁erstes	-8003
▁origin	-8004
▁werfen	-8005
ständlich	-8006
▁Kindheit	-8007
2-	-8008
ky	-8009
ua	-8010
ano	-8011
pfl	-8012
xis	-8013
itzt	-8014
vity	-8015
▁Bio	-8016
▁Bob	-8017
etter	-8018
icted	-8019
igend	-8020
krank	-8021
urcht	-8022
zweif	-8023
▁Jeff	-8024
▁Sein	-8025
▁abzu	-8026
▁wood	-8027
kehren	-8028
wirken	-8029
▁Stein	-8030
▁dreht	-8031
wechsel	-8032
▁Geräte	-8033
▁Global	-8034
▁charge	-8035
▁corpor	-8036
▁remote	-8037
▁Modelle	-8038
▁anderem	-8039
ungskraft	-8040
▁Forscher	-8041
▁describe	-8042
▁zufällig	-8043
▁Milliarde	-8044
▁sicherlich	-8045
Ar	-8046
la	-8047
iop	-8048
ünf	-8049
fält	-8050
onds	-8051
▁ban	-8052
ckten	-8053
lecht	-8054
▁Kann	-8055
▁Link	-8056
▁bird	-8057
▁forg	-8058
▁repe	-8059
▁vorh	-8060
fallen	-8061
▁Carol	-8062
▁Laden	-8063
▁bound	-8064
▁effiz	-8065
▁krank	-8066
▁töten	-8067
▁Island	-8068
▁Martin	-8069
▁flight	-8070
ifically	-8071
▁Wahrneh	-8072
▁abgesch	-8073
▁ausgest	-8074
▁bezahlen	-8075
▁Charakter	-8076
▁Bildschirm	-8077
▁definition	-8078
60	-8079
bie	-8080
ded	-8081
anst	-8082
iban	-8083
pper	-8084
▁kit	-8085
asche	-8086
bling	-8087
▁Fabr	-8088
▁Last	-8089
▁host	-8090
▁iron	-8091
▁sinn	-8092
ancing	-8093
inhalb	-8094
zeiten	-8095
▁Metap	-8096
▁Solar	-8097
▁Statt	-8098
▁weiss	-8099
▁bridge	-8100
▁dreams	-8101
▁haupts	-8102
▁schöne	-8103
▁Gesetze	-8104
▁Kontext	-8105
▁concent	-8106
▁despite	-8107
▁European	-8108
▁Sprachen	-8109
▁besitzen	-8110
▁relevant	-8111
▁childhood	-8112
▁suffering	-8113
▁vermutlich	-8114
di	-8115
dy	-8116
üp	-8117
igr	-8118
änn	-8119
apse	-8120
eine	-8121
rale	-8122
yram	-8123
▁Ach	-8124
▁Did	-8125
▁usw	-8126
aters	-8127
chern	-8128
schlä	-8129
▁auth	-8130
▁held	-8131
oppelt	-8132
rennen	-8133
ulated	-8134
▁Genom	-8135
▁Keine	-8136
▁prior	-8137
▁proud	-8138
▁sorry	-8139
hältnis	-8140
▁Nichts	-8141
▁Sozial	-8142
▁sector	-8143
richtung	-8144
▁Audience	-8145
▁distance	-8146
▁elements	-8147
▁Sebastian	-8148
▁alternative	-8149
▁importantly	-8150
▁durchgeführt	-8151
AR	-8152
Der	-8153
ety	-8154
ipe	-8155
▁II	-8156
Talk	-8157
cles	-8158
gern	-8159
iest	-8160
ifen	-8161
▁Akt	-8162
cting	-8163
itely	-8164
ungsf	-8165
▁Arch	-8166
▁halb	-8167
▁stem	-8168
jekten	-8169
mother	-8170
pected	-8171
▁Liter	-8172
▁Treib	-8173
▁broad	-8174
▁laugh	-8175
▁wohin	-8176
oration	-8177
▁aussch	-8178
▁easier	-8179
▁lesson	-8180
▁meters	-8181
▁steckt	-8182
▁husband	-8183
▁illegal	-8184
▁regular	-8185
▁nächstes	-8186
▁natürliche	-8187
▁structures	-8188
▁verhindern	-8189
▁wunderbare	-8190
iox	-8191
▁UN	-8192
This	-8193
oler	-8194
phen	-8195
ties	-8196
▁Emp	-8197
▁Sar	-8198
▁Tur	-8199
hnten	-8200
utzer	-8201
▁Inst	-8202
▁Irak	-8203
▁edge	-8204
▁emot	-8205
idents	-8206
laufen	-8207
nissen	-8208
▁Mobil	-8209
▁accur	-8210
▁gebra	-8211
artment	-8212
gewicht	-8213
▁Rahmen	-8214
▁resist	-8215
▁romant	-8216
▁Schmerz	-8217
▁appreci	-8218
▁counter	-8219
▁figured	-8220
▁identif	-8221
▁insects	-8222
▁Bildungs	-8223
▁previous	-8224
▁scheinen	-8225
▁gegenseit	-8226
▁repräsent	-8227
▁buchstäblich	-8228
▁interagieren	-8229
3,	-8230
aks	-8231
ths	-8232
▁Cr	-8233
oret	-8234
▁Jer	-8235
▁Jon	-8236
▁Mod	-8237
▁pun	-8238
etten	-8239
ulous	-8240
▁Sehr	-8241
▁hung	-8242
▁mill	-8243
▁Beine	-8244
▁Falls	-8245
▁Staat	-8246
▁eröff	-8247
▁leads	-8248
▁noise	-8249
sichtig	-8250
▁deeply	-8251
▁dollar	-8252
▁erweit	-8253
▁glaubt	-8254
▁raised	-8255
▁Führung	-8256
▁Gewicht	-8257
▁kompliz	-8258
▁succeed	-8259
ikanische	-8260
▁Großteil	-8261
▁billions	-8262
▁designer	-8263
▁document	-8264
▁fighting	-8265
▁Microsoft	-8266
▁Problemen	-8267
▁Erinnerung	-8268
▁necessarily	-8269
▁responsible	-8270
len	-8271
cked	-8272
icke	-8273
osis	-8274
▁cro	-8275
agers	-8276
amour	-8277
esign	-8278
ächer	-8279
▁band	-8280
▁magn	-8281
▁hängt	-8282
▁indic	-8283
▁quote	-8284
▁truck	-8285
▁wheel	-8286
▁Sorgen	-8287
▁antwor	-8288
▁oceans	-8289
▁religi	-8290
▁Drittel	-8291
▁Mission	-8292
▁kümmern	-8293
ffentlich	-8294
▁Galaxien	-8295
▁Leistung	-8296
▁Teilchen	-8297
▁besseren	-8298
▁tausende	-8299
▁discovery	-8300
▁einsetzen	-8301
▁schließen	-8302
▁verfolgen	-8303
▁ultimately	-8304
▁überrascht	-8305
▁Institutionen	-8306
Du	-8307
dr	-8308
rey	-8309
pted	-8310
▁Ass	-8311
▁Sur	-8312
eared	-8313
inkel	-8314
laden	-8315
▁Ecke	-8316
▁boat	-8317
▁mamm	-8318
▁purs	-8319
tended	-8320
▁Außen	-8321
▁Mount	-8322
▁crash	-8323
▁grass	-8324
▁stolz	-8325
jährige	-8326
steller	-8327
▁Bauern	-8328
▁Heimat	-8329
▁convin	-8330
▁opened	-8331
▁sorgen	-8332
▁derzeit	-8333
▁fragten	-8334
▁related	-8335
▁shouldn	-8336
▁Gegenteil	-8337
▁Sometimes	-8338
▁necessary	-8339
▁verwandeln	-8340
▁mathematics	-8341
rol	-8342
▁ru	-8343
alog	-8344
▁Pra	-8345
▁dou	-8346
ialog	-8347
illed	-8348
itete	-8349
▁Führ	-8350
▁ober	-8351
uadrat	-8352
▁Filme	-8353
▁Jungs	-8354
▁Seine	-8355
▁cloud	-8356
▁embra	-8357
▁hohen	-8358
▁moves	-8359
▁newsp	-8360
▁offer	-8361
▁paint	-8362
▁river	-8363
▁walls	-8364
▁kurzen	-8365
maschine	-8366
▁Polizei	-8367
▁correct	-8368
▁destroy	-8369
▁holding	-8370
▁require	-8371
▁Konflikt	-8372
▁gelangen	-8373
▁sequence	-8374
▁bestimmen	-8375
▁entwerfen	-8376
▁intellect	-8377
▁president	-8378
▁Strukturen	-8379
.'	-8380
set	-8381
▁Ox	-8382
sinn	-8383
udes	-8384
▁Mem	-8385
▁Tim	-8386
▁dur	-8387
▁Fund	-8388
▁Count	-8389
▁Stift	-8390
▁alter	-8391
▁mouse	-8392
▁Gefahr	-8393
▁Meilen	-8394
▁contra	-8395
▁dürfen	-8396
▁parent	-8397
▁wisdom	-8398
uationen	-8399
▁Gründen	-8400
▁However	-8401
▁contact	-8402
▁display	-8403
▁falsche	-8404
▁illustr	-8405
▁typical	-8406
▁Kaliforn	-8407
▁entirely	-8408
▁fotograf	-8409
▁independ	-8410
▁strategy	-8411
▁zunehmen	-8412
richtungen	-8413
▁allgemein	-8414
▁influence	-8415
▁verbracht	-8416
▁depression	-8417
▁Kohlenstoff	-8418
▁überraschen	-8419
▁professional	-8420
▁möglicherweise	-8421
▁DH	-8422
▁Tun	-8423
beweg	-8424
elesc	-8425
ffekt	-8426
▁Mach	-8427
▁nutz	-8428
iminal	-8429
werten	-8430
▁setzt	-8431
▁stuck	-8432
▁hidden	-8433
▁lieber	-8434
jährigen	-8435
▁Emotion	-8436
▁benefit	-8437
▁leaving	-8438
▁matters	-8439
▁täglich	-8440
ibilities	-8441
▁Verstand	-8442
▁platform	-8443
▁surprise	-8444
esentlichen	-8445
▁gefährlich	-8446
▁irgendwann	-8447
▁vollständig	-8448
ffentlichkeit	-8449
▁civilization	-8450
bas	-8451
igm	-8452
xim	-8453
▁AB	-8454
enty	-8455
wide	-8456
▁shr	-8457
▁tit	-8458
ausch	-8459
orrow	-8460
sagen	-8461
▁Dere	-8462
▁Frem	-8463
▁seat	-8464
abetes	-8465
▁Apple	-8466
▁compl	-8467
▁halte	-8468
gesehen	-8469
meister	-8470
▁Stress	-8471
▁Zuerst	-8472
▁caught	-8473
▁finanz	-8474
▁Deutsch	-8475
▁Fleisch	-8476
▁General	-8477
▁Wichtig	-8478
▁traffic	-8479
▁Elektron	-8480
▁Zweitens	-8481
▁weiteren	-8482
▁invisible	-8483
▁operating	-8484
▁begeistert	-8485
▁öffentlich	-8486
▁Schimpansen	-8487
athy	-8488
geln	-8489
prob	-8490
sing	-8491
ötet	-8492
▁Aug	-8493
geber	-8494
ingly	-8495
pielt	-8496
▁Lied	-8497
▁Once	-8498
▁Sing	-8499
▁Very	-8500
▁lies	-8501
▁moon	-8502
▁Brenn	-8503
▁Willi	-8504
▁Ziele	-8505
▁click	-8506
ometers	-8507
▁Gewebe	-8508
▁Händen	-8509
▁Republ	-8510
▁adults	-8511
▁closed	-8512
▁Stimmen	-8513
▁Verkehr	-8514
▁acceler	-8515
▁creation	-8516
▁investment	-8517
gro	-8518
anth	-8519
eper	-8520
prof	-8521
teid	-8522
wegs	-8523
▁reb	-8524
uries	-8525
▁Fünf	-8526
▁Maus	-8527
▁Sind	-8528
▁ants	-8529
▁exch	-8530
hrough	-8531
weiten	-8532
▁Kapit	-8533
▁Klang	-8534
▁Motor	-8535
▁Spekt	-8536
▁exhib	-8537
▁ideal	-8538
▁kurze	-8539
▁Elektr	-8540
▁Nation	-8541
▁beteil	-8542
▁budget	-8543
▁detail	-8544
▁gehabt	-8545
▁pounds	-8546
▁slowly	-8547
▁wächst	-8548
▁studied	-8549
▁believed	-8550
▁Forschungs	-8551
▁university	-8552
har	-8553
ädt	-8554
öpf	-8555
▁BG	-8556
ears	-8557
kton	-8558
▁Off	-8559
asten	-8560
craft	-8561
fahrt	-8562
riage	-8563
ropri	-8564
scher	-8565
▁Boot	-8566
▁Bras	-8567
▁Eing	-8568
▁hohe	-8569
▁pair	-8570
ategie	-8571
itness	-8572
▁angew	-8573
▁klass	-8574
▁sport	-8575
ampagne	-8576
atively	-8577
istence	-8578
▁Chirur	-8579
▁begins	-8580
▁bieten	-8581
▁letter	-8582
ausenden	-8583
▁bemerkt	-8584
▁gewisse	-8585
▁Experten	-8586
▁separate	-8587
▁engineers	-8588
▁collective	-8589
▁hauptsächlich	-8590
ardo	-8591
olit	-8592
roph	-8593
unte	-8594
wahl	-8595
▁Ill	-8596
▁Mad	-8597
▁Syn	-8598
▁prä	-8599
andem	-8600
anner	-8601
▁1950	-8602
▁Rock	-8603
▁roof	-8604
▁Nobel	-8605
▁claim	-8606
▁climb	-8607
▁nutzt	-8608
▁degree	-8609
▁museum	-8610
▁einiger	-8611
▁trained	-8612
▁emotions	-8613
▁classroom	-8614
▁organisms	-8615
▁vorhanden	-8616
▁constantly	-8617
▁letztendlich	-8618
Nun	-8619
cil	-8620
inc	-8621
uel	-8622
▁Ug	-8623
aßen	-8624
loss	-8625
schm	-8626
ößen	-8627
▁Hal	-8628
▁Kal	-8629
▁Law	-8630
▁row	-8631
▁spl	-8632
▁tal	-8633
▁ält	-8634
adies	-8635
apers	-8636
hafte	-8637
unken	-8638
▁Flor	-8639
▁Phot	-8640
▁arch	-8641
atoren	-8642
▁Zeich	-8643
▁anges	-8644
▁begeg	-8645
▁hyper	-8646
▁quiet	-8647
▁resol	-8648
▁starb	-8649
ächtnis	-8650
▁Häuser	-8651
▁Rätsel	-8652
▁failed	-8653
▁phones	-8654
▁testen	-8655
▁everyday	-8656
▁prototyp	-8657
▁Aktivität	-8658
▁angesehen	-8659
▁concerned	-8660
▁unfortunately	-8661
5.	-8662
ris	-8663
yer	-8664
äum	-8665
▁Ro	-8666
bahn	-8667
best	-8668
iern	-8669
mann	-8670
▁Ehe	-8671
▁Rat	-8672
▁ter	-8673
▁tue	-8674
allel	-8675
ipped	-8676
macht	-8677
▁bone	-8678
▁argue	-8679
▁lernt	-8680
▁surge	-8681
issions	-8682
▁Mütter	-8683
▁finger	-8684
▁thinks	-8685
illionen	-8686
▁Verletz	-8687
▁factory	-8688
▁reprodu	-8689
▁wenigen	-8690
blichkeit	-8691
zubringen	-8692
▁Standard	-8693
▁Stanford	-8694
▁advantage	-8695
▁praktisch	-8696
▁mindestens	-8697
▁öffentliche	-8698
▁amerikanische	-8699
▁verantwortlich	-8700
Os	-8701
Se	-8702
pos	-8703
äbe	-8704
gans	-8705
iano	-8706
oben	-8707
onym	-8708
▁21.	-8709
▁Ins	-8710
▁Pan	-8711
▁pet	-8712
agram	-8713
ordin	-8714
uster	-8715
▁Beob	-8716
▁Bush	-8717
▁Leon	-8718
▁Open	-8719
▁empt	-8720
▁hate	-8721
itiven	-8722
neiden	-8723
wissen	-8724
▁Texas	-8725
▁brief	-8726
▁weder	-8727
▁garden	-8728
▁implic	-8729
▁leader	-8730
▁capable	-8731
▁managed	-8732
▁schönen	-8733
▁Algorith	-8734
▁Außerdem	-8735
▁galaxies	-8736
▁Katastrop	-8737
▁Landschaft	-8738
▁businesses	-8739
▁versuchten	-8740
▁Experimente	-8741
▁Perspektive	-8742
▁irgendetwas	-8743
▁interessieren	-8744
rip	-8745
äst	-8746
dete	-8747
elly	-8748
gabe	-8749
oons	-8750
▁Gas	-8751
▁era	-8752
▁fab	-8753
▁Janu	-8754
▁Mund	-8755
▁beat	-8756
▁soil	-8757
schule	-8758
▁Defin	-8759
▁Found	-8760
▁coral	-8761
▁equal	-8762
▁wahre	-8763
▁deinen	-8764
▁erster	-8765
▁expert	-8766
▁reward	-8767
▁Gehirne	-8768
▁artific	-8769
▁Gespräch	-8770
▁Nationen	-8771
▁finished	-8772
▁languages	-8773
möglichkeit	-8774
▁eingesetzt	-8775
▁interaction	-8776
▁kompliziert	-8777
80	-8778
ete	-8779
care	-8780
iate	-8781
olph	-8782
▁Fel	-8783
▁cam	-8784
▁kap	-8785
▁sac	-8786
▁ton	-8787
ischt	-8788
letzt	-8789
▁Code	-8790
▁Orig	-8791
▁Vide	-8792
▁meat	-8793
▁weib	-8794
mutter	-8795
▁Kenya	-8796
▁Kohle	-8797
▁faces	-8798
▁grown	-8799
▁stelle	-8800
▁string	-8801
▁empower	-8802
▁getötet	-8803
▁mothers	-8804
▁Dinosaur	-8805
▁compared	-8806
▁gehalten	-8807
▁seriously	-8808
▁arbeiteten	-8809
▁wichtigste	-8810
▁consumption	-8811
▁ju	-8812
aked	-8813
▁Rot	-8814
plane	-8815
rippe	-8816
▁Star	-8817
▁opin	-8818
ending	-8819
immung	-8820
▁Egypt	-8821
▁Olymp	-8822
▁Smith	-8823
▁frage	-8824
▁veget	-8825
uations	-8826
ystemen	-8827
▁Haufen	-8828
▁Zimmer	-8829
▁attach	-8830
▁benutz	-8831
▁circle	-8832
▁toward	-8833
▁Gedanke	-8834
▁Project	-8835
▁station	-8836
▁feedback	-8837
▁finanzie	-8838
▁meistens	-8839
▁Wettbewer	-8840
▁Interaktion	-8841
▁Unternehmer	-8842
▁agriculture	-8843
BI	-8844
ena	-8845
aret	-8846
inkt	-8847
läss	-8848
pass	-8849
▁emb	-8850
▁pal	-8851
ippen	-8852
osion	-8853
place	-8854
▁aufw	-8855
▁fold	-8856
▁herr	-8857
▁king	-8858
▁whom	-8859
ilosop	-8860
person	-8861
▁Dabei	-8862
▁Momen	-8863
▁attem	-8864
▁verbl	-8865
▁wieso	-8866
▁Grenze	-8867
▁Obwohl	-8868
▁bright	-8869
▁nannte	-8870
▁sister	-8871
esterday	-8872
▁invited	-8873
▁weather	-8874
▁followed	-8875
▁Dimension	-8876
▁Everybody	-8877
▁continent	-8878
▁economics	-8879
▁entworfen	-8880
▁perfectly	-8881
▁surprised	-8882
▁unterscheiden	-8883
If	-8884
ita	-8885
▁Ham	-8886
▁Nov	-8887
▁bie	-8888
▁spr	-8889
aufte	-8890
inson	-8891
isher	-8892
known	-8893
owers	-8894
▁Dunk	-8895
▁Have	-8896
▁bear	-8897
▁drag	-8898
ipment	-8899
ipping	-8900
▁Radio	-8901
▁Reich	-8902
▁kennt	-8903
▁trägt	-8904
bewesen	-8905
▁Bruder	-8906
▁diskut	-8907
▁driver	-8908
▁galaxy	-8909
▁gesund	-8910
▁verein	-8911
▁Militär	-8912
▁Spiegel	-8913
▁basiert	-8914
▁depress	-8915
▁erzähle	-8916
▁married	-8917
▁protein	-8918
▁vehicle	-8919
▁majority	-8920
▁described	-8921
▁otherwise	-8922
▁Erkenntnis	-8923
▁beeindruck	-8924
▁principles	-8925
▁beantworten	-8926
▁grandmother	-8927
icy	-8928
engu	-8929
keln	-8930
▁Bal	-8931
▁Deb	-8932
▁Tie	-8933
▁Ven	-8934
▁mos	-8935
inent	-8936
teuer	-8937
▁Span	-8938
▁flie	-8939
▁wear	-8940
▁zeit	-8941
bracht	-8942
▁Bitte	-8943
▁Folge	-8944
▁Laufe	-8945
▁Three	-8946
▁eleph	-8947
▁fresh	-8948
▁holen	-8949
▁immun	-8950
▁instr	-8951
▁lunch	-8952
▁paying	-8953
▁Zuhause	-8954
▁bekamen	-8955
▁curious	-8956
▁dennoch	-8957
▁dritten	-8958
▁nochmal	-8959
▁investig	-8960
▁statistics	-8961
▁hoffentlich	-8962
4.	-8963
avig	-8964
gien	-8965
rast	-8966
sens	-8967
vere	-8968
▁Eig	-8969
▁Pac	-8970
▁Ever	-8971
aschen	-8972
gewalt	-8973
▁Innen	-8974
▁cycle	-8975
▁plane	-8976
▁users	-8977
tential	-8978
▁Kräfte	-8979
▁Uganda	-8980
▁ausgeb	-8981
▁exists	-8982
▁lustig	-8983
▁shapes	-8984
▁wearing	-8985
▁Arbeiten	-8986
▁Eindruck	-8987
▁launched	-8988
▁molecule	-8989
▁normalen	-8990
önlichkeit	-8991
▁schlimmer	-8992
▁allerdings	-8993
▁equivalent	-8994
▁consequences	-8995
asi	-8996
▁Ap	-8997
ifer	-8998
life	-8999
ocks	-9000
oted	-9001
rett	-9002
änen	-9003
▁Jud	-9004
▁dry	-9005
▁rat	-9006
▁tag	-9007
reise	-9008
ängst	-9009
▁2007	-9010
▁Does	-9011
▁Each	-9012
▁aufs	-9013
▁earn	-9014
▁vacc	-9015
▁Start	-9016
▁crime	-9017
▁musst	-9018
artigen	-9019
▁10.000	-9020
▁Fische	-9021
▁dauert	-9022
▁gering	-9023
▁starke	-9024
▁Elektro	-9025
▁warming	-9026
▁aufhören	-9027
▁ungewöhn	-9028
▁Politiker	-9029
▁Schwester	-9030
▁universal	-9031
▁instrument	-9032
▁untersucht	-9033
▁wesentlich	-9034
▁Kalifornien	-9035
▁hergestellt	-9036
▁increasingly	-9037
▁unterschiedlich	-9038
▁Ol	-9039
comp	-9040
▁Ans	-9041
▁SMS	-9042
▁unl	-9043
▁puts	-9044
heimer	-9045
ischem	-9046
▁Erleb	-9047
▁Titan	-9048
▁homes	-9049
▁lebte	-9050
▁limit	-9051
▁versp	-9052
▁Effekt	-9053
▁dinner	-9054
▁incent	-9055
▁linken	-9056
▁mitten	-9057
▁drawing	-9058
▁schaute	-9059
▁erfinden	-9060
▁hunderte	-9061
▁multiple	-9062
▁ordinary	-9063
▁planning	-9064
▁cognitive	-9065
▁Entdeckung	-9066
üst	-9067
akte	-9068
cast	-9069
enkt	-9070
gers	-9071
ifik	-9072
▁Inn	-9073
▁due	-9074
▁sum	-9075
▁van	-9076
▁zog	-9077
aming	-9078
itzer	-9079
leren	-9080
throp	-9081
▁Samm	-9082
▁bull	-9083
▁engl	-9084
▁hasn	-9085
▁stup	-9086
agiert	-9087
uliert	-9088
urally	-9089
▁Kleid	-9090
▁Krise	-9091
▁State	-9092
▁chann	-9093
▁dolph	-9094
▁grade	-9095
▁somit	-9096
reitung	-9097
▁Minute	-9098
▁Toilet	-9099
▁aufgew	-9100
▁ließen	-9101
▁manage	-9102
▁reform	-9103
▁stabil	-9104
▁vieler	-9105
▁Gleiche	-9106
▁Nachdem	-9107
▁highest	-9108
▁Methoden	-9109
▁Moleküle	-9110
▁survival	-9111
▁Gegensatz	-9112
▁mentioned	-9113
▁wichtigen	-9114
▁entspricht	-9115
▁generations	-9116
hte	-9117
herr	-9118
thal	-9119
wärt	-9120
▁195	-9121
▁Hör	-9122
▁Pfl	-9123
▁anz	-9124
▁ten	-9125
ifest	-9126
itung	-9127
power	-9128
ähren	-9129
▁Dass	-9130
▁Mess	-9131
▁Pfer	-9132
▁agre	-9133
▁gold	-9134
▁gäbe	-9135
hängig	-9136
▁2,000	-9137
▁Beste	-9138
▁Trotz	-9139
▁pages	-9140
▁regel	-9141
▁round	-9142
▁rural	-9143
▁traur	-9144
▁Mechan	-9145
▁debate	-9146
▁echten	-9147
▁erlebt	-9148
▁hoffen	-9149
▁unless	-9150
▁100,000	-9151
▁Theater	-9152
▁fördern	-9153
▁limited	-9154
▁nervous	-9155
▁airplane	-9156
▁normally	-9157
▁Folgendes	-9158
▁equipment	-9159
▁Bewegungen	-9160
▁Satelliten	-9161
▁entstanden	-9162
▁existieren	-9163
▁entwickelte	-9164
▁interessanter	-9165
ls	-9166
azz	-9167
ura	-9168
▁26	-9169
wich	-9170
▁Cal	-9171
▁1990	-9172
▁Budd	-9173
▁Manh	-9174
▁fell	-9175
▁reef	-9176
anders	-9177
gruppe	-9178
plomat	-9179
▁teuer	-9180
fassung	-9181
▁Irgend	-9182
▁Lachen	-9183
▁belong	-9184
▁Körpers	-9185
▁Vorteil	-9186
▁beinhal	-9187
▁schwarz	-9188
▁demokrat	-9189
▁erkannte	-9190
▁magazine	-9191
▁verbreiten	-9192
▁vergleichen	-9193
▁Generationen	-9194
▁distribution	-9195
war	-9196
ader	-9197
fung	-9198
stud	-9199
▁Hor	-9200
▁Nar	-9201
▁gig	-9202
▁tap	-9203
▁Ange	-9204
▁Impf	-9205
▁Koll	-9206
▁Pass	-9207
▁Tour	-9208
▁arms	-9209
▁intu	-9210
▁umge	-9211
▁unex	-9212
fragen	-9213
▁Ganze	-9214
▁Gates	-9215
▁Viren	-9216
▁daily	-9217
▁heads	-9218
▁lifet	-9219
▁roten	-9220
▁steps	-9221
fordert	-9222
▁Andere	-9223
▁Planet	-9224
▁fellow	-9225
▁harder	-9226
▁schick	-9227
schlagen	-9228
▁justice	-9229
▁organic	-9230
▁reichen	-9231
▁tausend	-9232
▁theater	-9233
▁treated	-9234
imensions	-9235
▁Japanese	-9236
▁received	-9237
▁principle	-9238
wissenschaft	-9239
▁Wahrnehmung	-9240
▁persönlichen	-9241
▁transformation	-9242
Pl	-9243
nel	-9244
▁'9	-9245
▁22	-9246
▁BF	-9247
▁Cy	-9248
aled	-9249
angs	-9250
lieb	-9251
omme	-9252
▁Dok	-9253
▁tox	-9254
cking	-9255
emble	-9256
estic	-9257
fisch	-9258
itude	-9259
izont	-9260
▁Gras	-9261
▁Hins	-9262
▁Pres	-9263
▁beis	-9264
▁ethn	-9265
▁gesp	-9266
▁wave	-9267
▁Jeden	-9268
▁chimp	-9269
ografie	-9270
▁Fakten	-9271
▁Folgen	-9272
▁Streit	-9273
▁academ	-9274
▁circum	-9275
▁fields	-9276
▁Germany	-9277
▁article	-9278
▁normale	-9279
▁relativ	-9280
▁wechsel	-9281
▁brachten	-9282
▁engineer	-9283
▁soldiers	-9284
▁Konsequen	-9285
▁Lebewesen	-9286
▁Tradition	-9287
▁Zeitalter	-9288
▁verbindet	-9289
▁Foundation	-9290
▁persönlich	-9291
obe	-9292
pel	-9293
öpfe	-9294
▁Top	-9295
mäßig	-9296
rehen	-9297
▁Echt	-9298
▁Fett	-9299
▁Gand	-9300
▁Pfle	-9301
▁fiel	-9302
▁tail	-9303
werden	-9304
▁Ihres	-9305
▁Would	-9306
▁north	-9307
▁south	-9308
ordnung	-9309
▁Beweis	-9310
▁Geräus	-9311
▁Zucker	-9312
▁belief	-9313
▁schien	-9314
▁voices	-9315
▁Ansicht	-9316
▁bezahlt	-9317
▁covered	-9318
▁genauer	-9319
▁letters	-9320
▁volunte	-9321
▁vorbere	-9322
▁effektiv	-9323
▁Australia	-9324
▁hopefully	-9325
▁dimensions	-9326
▁reduzieren	-9327
So	-9328
ca	-9329
box	-9330
▁ap	-9331
andt	-9332
aust	-9333
cket	-9334
down	-9335
kept	-9336
ltra	-9337
zing	-9338
▁11.	-9339
▁Eng	-9340
▁ruh	-9341
zieht	-9342
ünder	-9343
▁1960	-9344
▁1980	-9345
▁dran	-9346
atures	-9347
ifying	-9348
▁Armen	-9349
▁chain	-9350
▁facts	-9351
▁pengu	-9352
glieder	-9353
▁Rechte	-9354
▁Yorker	-9355
▁leaves	-9356
▁motion	-9357
▁müsste	-9358
▁zahlen	-9359
▁killing	-9360
▁setting	-9361
▁Tausende	-9362
▁suggests	-9363
▁Netzwerke	-9364
▁brauchten	-9365
▁essential	-9366
▁Augenblick	-9367
▁Eigentlich	-9368
▁Organismen	-9369
▁electrical	-9370
▁persönliche	-9371
▁Gesundheitsw	-9372
ait	-9373
▁La	-9374
rete	-9375
▁Pfe	-9376
▁gap	-9377
▁mel	-9378
besch	-9379
▁Roll	-9380
▁Sens	-9381
▁Wild	-9382
▁Zell	-9383
▁coal	-9384
▁männ	-9385
▁pure	-9386
▁trib	-9387
▁Milch	-9388
▁colon	-9389
▁einst	-9390
▁novel	-9391
gegeben	-9392
schrift	-9393
umenten	-9394
▁Canada	-9395
▁Garten	-9396
▁Grafik	-9397
▁Oxford	-9398
▁Saturn	-9399
▁Schlaf	-9400
▁Wellen	-9401
▁breath	-9402
▁movies	-9403
▁TEDTalk	-9404
▁gelesen	-9405
▁privile	-9406
▁watched	-9407
▁Hinsicht	-9408
▁aufbauen	-9409
▁schlagen	-9410
▁zunächst	-9411
▁Gemeinden	-9412
▁Hollywood	-9413
▁entertain	-9414
▁irgendein	-9415
▁technical	-9416
▁Individuen	-9417
▁inspiriert	-9418
▁auseinander	-9419
▁medizinische	-9420
ij	-9421
üb	-9422
ela	-9423
üge	-9424
▁65	-9425
ctic	-9426
urer	-9427
▁120	-9428
cture	-9429
istor	-9430
ologe	-9431
tocin	-9432
▁Anim	-9433
▁Beim	-9434
▁Mass	-9435
▁Teen	-9436
▁soph	-9437
▁trip	-9438
ibrary	-9439
▁divid	-9440
▁heran	-9441
▁scene	-9442
auspiel	-9443
flächen	-9444
portion	-9445
▁Buchst	-9446
▁drüben	-9447
▁losing	-9448
▁stupid	-9449
▁Manhatt	-9450
▁brauche	-9451
▁compare	-9452
▁entschl	-9453
▁gehören	-9454
▁gestern	-9455
▁testing	-9456
▁kürzlich	-9457
▁property	-9458
▁sentence	-9459
▁entscheid	-9460
▁erscheinen	-9461
▁verbrachte	-9462
▁Elektrizität	-9463
▁grundlegende	-9464
▁International	-9465
▁traditionellen	-9466
hek	-9467
mas	-9468
oli	-9469
utt	-9470
otic	-9471
sage	-9472
sver	-9473
▁Net	-9474
▁bom	-9475
izien	-9476
▁Dach	-9477
▁Hack	-9478
▁cosm	-9479
▁date	-9480
▁enem	-9481
ondere	-9482
ushing	-9483
vollen	-9484
▁Etwas	-9485
▁Korea	-9486
▁Stock	-9487
▁aufta	-9488
▁vorbe	-9489
▁wobei	-9490
ologist	-9491
▁caused	-9492
▁damage	-9493
▁island	-9494
▁Details	-9495
▁Malaria	-9496
▁autonom	-9497
▁according	-9498
▁entdeckte	-9499
▁vergangen	-9500
▁innovative	-9501
▁natürlichen	-9502
8.	-9503
▁Ra	-9504
acle	-9505
bles	-9506
▁700	-9507
▁tri	-9508
▁Atom	-9509
▁Eben	-9510
▁Elef	-9511
▁jähr	-9512
▁scen	-9513
riften	-9514
▁Derek	-9515
▁Other	-9516
▁categ	-9517
▁flies	-9518
▁folgt	-9519
▁fängt	-9520
▁heavy	-9521
▁solch	-9522
amerika	-9523
▁Aspekt	-9524
▁Linien	-9525
▁Steuer	-9526
▁enable	-9527
▁filled	-9528
▁fourth	-9529
▁kombin	-9530
▁perman	-9531
ätigkeit	-9532
▁angesch	-9533
▁nations	-9534
▁welchen	-9535
▁worried	-9536
▁astronom	-9537
▁entgegen	-9538
▁Everything	-9539
▁Interessen	-9540
▁Produktion	-9541
▁artificial	-9542
▁experienced	-9543
▁erstaunliche	-9544
▁verschwinden	-9545
vas	-9546
üte	-9547
▁sy	-9548
atom	-9549
baut	-9550
obby	-9551
skop	-9552
umin	-9553
▁rie	-9554
igern	-9555
inted	-9556
passt	-9557
▁Resp	-9558
▁beit	-9559
▁copy	-9560
▁rück	-9561
▁shif	-9562
▁surf	-9563
ichern	-9564
recher	-9565
ündete	-9566
▁Could	-9567
▁Their	-9568
▁Weile	-9569
▁angeb	-9570
▁anger	-9571
▁autom	-9572
▁cloth	-9573
▁signs	-9574
▁sites	-9575
▁subst	-9576
anthrop	-9577
frieden	-9578
▁Jemand	-9579
▁Kaffee	-9580
▁Mexiko	-9581
▁announ	-9582
▁explan	-9583
▁hypoth	-9584
▁verblü	-9585
struktur	-9586
sätzlich	-9587
▁Beweise	-9588
▁signals	-9589
▁starten	-9590
▁Elemente	-9591
▁abhängig	-9592
▁cultures	-9593
▁geändert	-9594
▁identify	-9595
▁resource	-9596
▁struggle	-9597
▁Abschluss	-9598
▁Zuschauer	-9599
▁designing	-9600
▁processes	-9601
▁associated	-9602
▁definieren	-9603
▁kilometers	-9604
▁researchers	-9605
▁Schwierigkeiten	-9606
Yes	-9607
kan	-9608
▁af	-9609
edic	-9610
fish	-9611
iend	-9612
mitt	-9613
ompl	-9614
uous	-9615
▁Joe	-9616
agina	-9617
chnet	-9618
gerät	-9619
iable	-9620
lease	-9621
oster	-9622
state	-9623
▁1970	-9624
▁Brun	-9625
▁Mary	-9626
▁scri	-9627
▁vere	-9628
bridge	-9629
design	-9630
▁awful	-9631
▁holes	-9632
▁maint	-9633
▁minim	-9634
▁negot	-9635
▁nötig	-9636
▁shoes	-9637
forscht	-9638
stellte	-9639
▁Ausmaß	-9640
▁Steven	-9641
zuführen	-9642
zusetzen	-9643
▁arrived	-9644
▁players	-9645
▁spannen	-9646
▁Kulturen	-9647
▁appropri	-9648
▁tomorrow	-9649
▁beschloss	-9650
▁effizient	-9651
▁gestorben	-9652
▁considered	-9653
▁darstellen	-9654
▁importance	-9655
▁beschlossen	-9656
▁connections	-9657
▁Ec	-9658
▁Gi	-9659
anch	-9660
ints	-9661
rägt	-9662
▁Cor	-9663
▁Jim	-9664
▁gre	-9665
bares	-9666
genda	-9667
▁Fehl	-9668
▁bits	-9669
▁diet	-9670
▁horr	-9671
▁weak	-9672
merzen	-9673
▁Union	-9674
▁ermut	-9675
▁halbe	-9676
▁infin	-9677
▁spont	-9678
gedacht	-9679
▁Träume	-9680
▁Voraus	-9681
▁advert	-9682
▁analog	-9683
▁bietet	-9684
▁stammt	-9685
▁verlie	-9686
ographie	-9687
▁Spieler	-9688
▁dealing	-9689
▁eindeut	-9690
▁illness	-9691
▁sources	-9692
▁spielte	-9693
▁feelings	-9694
▁komplexe	-9695
▁Manhattan	-9696
▁currently	-9697
▁Architekten	-9698
▁Mitarbeiter	-9699
▁comfortable	-9700
▁faszinierend	-9701
3.	-9702
zed	-9703
zep	-9704
äne	-9705
▁NG	-9706
agon	-9707
cipl	-9708
resp	-9709
test	-9710
▁10,	-9711
▁10-	-9712
▁Alz	-9713
▁Dad	-9714
▁Fas	-9715
▁Int	-9716
alyse	-9717
elben	-9718
gment	-9719
lying	-9720
schau	-9721
▁Gore	-9722
▁Long	-9723
▁Säug	-9724
▁gall	-9725
▁poem	-9726
▁vote	-9727
rechte	-9728
▁folks	-9729
▁liked	-9730
▁passt	-9731
▁stood	-9732
orthern	-9733
▁Batter	-9734
▁kurzem	-9735
▁meiste	-9736
▁zählen	-9737
▁keeping	-9738
▁lessons	-9739
▁anwenden	-9740
▁behalten	-9741
▁Brasilien	-9742
▁Vorfahren	-9743
▁aufregend	-9744
▁convinced	-9745
▁erscheint	-9746
▁professor	-9747
▁satellite	-9748
▁verfügbar	-9749
▁yesterday	-9750
▁zerstören	-9751
▁beobachtet	-9752
▁corruption	-9753
▁management	-9754
▁Dinosaurier	-9755
▁entrepreneurs	-9756
9.	-9757
ET	-9758
Is	-9759
pra	-9760
anen	-9761
icip	-9762
illa	-9763
oute	-9764
star	-9765
unkl	-9766
äuse	-9767
▁Mel	-9768
▁Zer	-9769
▁cow	-9770
ancen	-9771
ierer	-9772
kreis	-9773
omben	-9774
uable	-9775
▁Hill	-9776
▁Jose	-9777
▁Show	-9778
▁myth	-9779
▁user	-9780
▁vess	-9781
ibliot	-9782
isters	-9783
▁Black	-9784
▁Brook	-9785
▁Pingu	-9786
▁empty	-9787
▁layer	-9788
▁perce	-9789
▁recon	-9790
▁saved	-9791
▁spoke	-9792
▁waves	-9793
iologen	-9794
▁deeper	-9795
▁finish	-9796
▁spring	-9797
achstums	-9798
▁Britain	-9799
▁Florida	-9800
▁Student	-9801
▁Website	-9802
▁capture	-9803
▁opening	-9804
▁viruses	-9805
isationen	-9806
▁Prototyp	-9807
▁analysis	-9808
▁nützlich	-9809
▁strength	-9810
▁Emotionen	-9811
▁Erklärung	-9812
▁interface	-9813
▁studieren	-9814
▁verhalten	-9815
▁Überrasch	-9816
▁aufzubauen	-9817
▁zugänglich	-9818
▁beschäftigen	-9819
He	-9820
bru	-9821
gyp	-9822
rix	-9823
uhe	-9824
▁32	-9825
That	-9826
▁Bay	-9827
▁Dro	-9828
▁Urs	-9829
erves	-9830
iquid	-9831
nimmt	-9832
▁Bron	-9833
▁Null	-9834
▁Viet	-9835
▁evil	-9836
▁flat	-9837
▁fuhr	-9838
▁gefü	-9839
▁hadn	-9840
▁maps	-9841
▁zahl	-9842
holfen	-9843
minist	-9844
nitten	-9845
▁Neben	-9846
▁erled	-9847
▁humor	-9848
▁meist	-9849
▁quasi	-9850
▁wuchs	-9851
▁übrig	-9852
spielen	-9853
▁berühm	-9854
▁körper	-9855
▁lebten	-9856
▁reicht	-9857
▁sharks	-9858
▁status	-9859
▁Angriff	-9860
▁Berechn	-9861
▁Maßstab	-9862
▁Präsent	-9863
▁cartoon	-9864
▁experts	-9865
▁microsc	-9866
▁morgens	-9867
▁worüber	-9868
▁Nachbarn	-9869
▁diagnost	-9870
▁expected	-9871
▁reaction	-9872
stellungen	-9873
▁Alzheimer	-9874
▁aufgebaut	-9875
▁chimpanze	-9876
▁sophistic	-9877
mü	-9878
afe	-9879
isf	-9880
mel	-9881
uhr	-9882
aube	-9883
▁Tes	-9884
▁dat	-9885
▁sem	-9886
rator	-9887
▁Camp	-9888
▁Eric	-9889
▁Verd	-9890
▁Verw	-9891
▁drin	-9892
▁exec	-9893
▁grab	-9894
▁hide	-9895
▁tall	-9896
▁vibr	-9897
▁wide	-9898
illing	-9899
▁Human	-9900
▁niedr	-9901
▁prove	-9902
bewusst	-9903
drücken	-9904
erneath	-9905
ulating	-9906
▁Bedroh	-9907
▁Gewinn	-9908
▁Riesen	-9909
▁Umfeld	-9910
▁formen	-9911
▁muscle	-9912
▁picked	-9913
▁videos	-9914
ichtlich	-9915
programm	-9916
▁calling	-9917
▁cutting	-9918
▁details	-9919
▁partner	-9920
▁radical	-9921
▁stärker	-9922
▁variety	-9923
▁Arbeiter	-9924
▁Schatten	-9925
▁annehmen	-9926
▁President	-9927
▁Korruption	-9928
▁Deutschland	-9929
▁independent	-9930
▁transparent	-9931
▁Informations	-9932
LA	-9933
wä	-9934
▁3.	-9935
▁PM	-9936
adow	-9937
atik	-9938
izer	-9939
ller	-9940
osex	-9941
rain	-9942
▁Day	-9943
▁LED	-9944
▁Lou	-9945
▁Mah	-9946
▁Opt	-9947
glied	-9948
iques	-9949
llekt	-9950
▁Atem	-9951
▁Dire	-9952
▁Prim	-9953
▁Vern	-9954
▁chap	-9955
▁hurt	-9956
▁youn	-9957
iences	-9958
▁Fälle	-9959
▁Grand	-9960
▁Gutes	-9961
▁Seele	-9962
▁Vögel	-9963
▁blieb	-9964
▁crowd	-9965
▁teeth	-9966
▁zieht	-9967
ziehung	-9968
züglich	-9969
▁Erwart	-9970
▁Helden	-9971
▁Inhalt	-9972
▁Staats	-9973
▁encoun	-9974
▁nieder	-9975
▁safety	-9976
▁setzte	-9977
▁battery	-9978
▁Chemikal	-9979
▁ersetzen	-9980
▁gewissen	-9981
▁marriage	-9982
▁thoughts	-9983
▁valuable	-9984
▁zerstört	-9985
▁Cambridge	-9986
▁Jahrzehnt	-9987
▁worldwide	-9988
▁properties	-9989
▁vermitteln	-9990
▁construction	-9991
EC	-9992
sa	-9993
vis	-9994
agos	-9995
iler	-9996
izop	-9997
▁Ost	-9998
▁Wei	-9999
▁pil	-10000
▁rig	-10001
anzös	-10002
iency	-10003
iform	-10004
orted	-10005
▁Gree	-10006
▁Kerl	-10007
▁Soll	-10008
▁Wurz	-10009
▁asks	-10010
▁dots	-10011
▁ends	-10012
▁shel	-10013
agramm	-10014
orient	-10015
▁Betra	-10016
▁Moral	-10017
▁Tests	-10018
▁geist	-10019
bereich	-10020
▁Health	-10021
▁Howard	-10022
▁ausgel	-10023
▁houses	-10024
▁replic	-10025
▁review	-10026
▁skelet	-10027
▁trials	-10028
izophren	-10029
▁Werbung	-10030
▁erkennt	-10031
▁moderne	-10032
▁umgeben	-10033
▁epidemic	-10034
▁verwende	-10035
idimension	-10036
versorgung	-10037
▁Potential	-10038
▁beschleun	-10039
▁industrie	-10040
▁invention	-10041
▁Geschlecht	-10042
NS	-10043
ees	-10044
pet	-10045
▁Zä	-10046
oles	-10047
▁Hol	-10048
▁Roh	-10049
▁tim	-10050
wesen	-10051
▁Coll	-10052
▁Klin	-10053
▁Ungl	-10054
▁beib	-10055
▁kick	-10056
▁snow	-10057
▁summ	-10058
onents	-10059
titude	-10060
▁Antar	-10061
▁Neues	-10062
▁Zweck	-10063
▁außen	-10064
▁broke	-10065
▁cards	-10066
▁sucht	-10067
▁vorne	-10068
▁Virgin	-10069
▁define	-10070
▁establ	-10071
▁gender	-10072
▁heißen	-10073
▁sample	-10074
▁steigt	-10075
▁zusätz	-10076
▁Auswahl	-10077
▁Konflik	-10078
▁Weltraum	-10079
▁advanced	-10080
▁deswegen	-10081
▁hydrogen	-10082
▁Geheimnis	-10083
▁chemistry	-10084
▁geschickt	-10085
▁photograp	-10086
▁wondering	-10087
▁unabhängig	-10088
▁underneath	-10089
▁specifically	-10090
MA	-10091
sun	-10092
wie	-10093
ario	-10094
aurs	-10095
wach	-10096
▁rit	-10097
ength	-10098
quare	-10099
rooms	-10100
weile	-10101
öpfen	-10102
▁Hans	-10103
▁arts	-10104
▁corn	-10105
▁fern	-10106
haften	-10107
ueller	-10108
▁Febru	-10109
▁Stufe	-10110
▁admit	-10111
▁solid	-10112
▁unend	-10113
zentrum	-10114
▁Anyway	-10115
▁Inspir	-10116
▁Schuld	-10117
▁Welche	-10118
▁facing	-10119
▁treten	-10120
▁Fernseh	-10121
▁authent	-10122
▁cameras	-10123
▁erwähnt	-10124
▁neurosc	-10125
▁roughly	-10126
▁seitdem	-10127
▁Freundin	-10128
▁consumer	-10129
▁emerging	-10130
▁langweil	-10131
▁requires	-10132
▁digitalen	-10133
▁existence	-10134
▁langfrist	-10135
▁notwendig	-10136
▁vermeiden	-10137
▁expression	-10138
▁effectively	-10139
▁stattdessen	-10140
▁possibilities	-10141
Do	-10142
cal	-10143
cap	-10144
hab	-10145
sey	-10146
umn	-10147
▁95	-10148
▁wü	-10149
▁Nan	-10150
▁Sum	-10151
▁bul	-10152
abeth	-10153
chron	-10154
linge	-10155
otten	-10156
usual	-10157
▁Fast	-10158
▁blau	-10159
▁blow	-10160
▁spät	-10161
▁verg	-10162
acters	-10163
muster	-10164
▁Brown	-10165
▁Hilfs	-10166
▁Kreuz	-10167
▁Zitat	-10168
▁honor	-10169
ontroll	-10170
steroid	-10171
▁Chemie	-10172
▁Größen	-10173
▁einzus	-10174
▁forced	-10175
▁junger	-10176
▁leiden	-10177
▁physic	-10178
▁player	-10179
▁Schnitt	-10180
▁Vietnam	-10181
▁dynamic	-10182
▁gebeten	-10183
▁müssten	-10184
▁Minister	-10185
▁convince	-10186
▁disaster	-10187
▁exchange	-10188
▁lifetime	-10189
▁messages	-10190
▁schwarze	-10191
▁sprachen	-10192
▁Bereichen	-10193
▁Operation	-10194
▁Philosoph	-10195
▁carefully	-10196
▁chemicals	-10197
▁organized	-10198
▁practical	-10199
▁characters	-10200
▁schlechter	-10201
▁situations	-10202
▁vulnerable	-10203
▁Situationen	-10204
▁schrecklich	-10205
möglichkeiten	-10206
▁Erinnerungen	-10207
▁KB	-10208
arre	-10209
flug	-10210
führ	-10211
izon	-10212
kins	-10213
ping	-10214
▁800	-10215
▁Bem	-10216
▁Hen	-10217
▁Jes	-10218
▁Rom	-10219
▁Sir	-10220
▁gay	-10221
greif	-10222
karte	-10223
▁Mult	-10224
▁Sitz	-10225
▁Such	-10226
▁Trag	-10227
▁gegr	-10228
▁lady	-10229
▁suit	-10230
igsten	-10231
indert	-10232
▁appar	-10233
▁fewer	-10234
▁fiber	-10235
▁fähig	-10236
▁sugar	-10237
▁Mandel	-10238
▁Wetter	-10239
▁Zauber	-10240
▁poetry	-10241
kosystem	-10242
▁Entfern	-10243
▁Erkrank	-10244
▁berührt	-10245
▁malaria	-10246
▁musical	-10247
▁niedrig	-10248
▁solcher	-10249
▁theoret	-10250
verbrauch	-10251
▁Echtzeit	-10252
▁carrying	-10253
▁entstand	-10254
▁erstellt	-10255
▁exercise	-10256
▁generate	-10257
▁Erfindung	-10258
▁Verbesser	-10259
▁producing	-10260
▁Buchstaben	-10261
▁Verhältnis	-10262
▁fantastisch	-10263
▁intellectual	-10264
han	-10265
sph	-10266
Mail	-10267
würd	-10268
▁19.	-10269
▁191	-10270
▁biz	-10271
▁hur	-10272
▁Homo	-10273
▁arab	-10274
▁biom	-10275
▁gain	-10276
▁grid	-10277
▁rief	-10278
▁shut	-10279
sprung	-10280
äusern	-10281
▁Offen	-10282
▁chart	-10283
▁smile	-10284
achtung	-10285
outhern	-10286
quality	-10287
▁Anteil	-10288
▁Doktor	-10289
▁Winter	-10290
▁buying	-10291
▁enorme	-10292
▁gelöst	-10293
▁spezif	-10294
▁contain	-10295
▁Bereiche	-10296
▁location	-10297
▁systemat	-10298
▁verteilt	-10299
▁Strategie	-10300
▁behaviors	-10301
▁mortality	-10302
▁überrasch	-10303
▁Diskussion	-10304
▁Großmutter	-10305
▁beinhaltet	-10306
▁discussion	-10307
▁schlechten	-10308
▁transition	-10309
▁überwinden	-10310
▁Zivilisation	-10311
▁menschlicher	-10312
-1	-10313
IP	-10314
bek	-10315
fir	-10316
bors	-10317
ämpf	-10318
▁Ter	-10319
▁lic	-10320
maßen	-10321
rufen	-10322
staat	-10323
sters	-10324
uropä	-10325
▁Alph	-10326
▁Kurs	-10327
▁Paar	-10328
▁Wall	-10329
▁erwe	-10330
▁scre	-10331
esents	-10332
iglich	-10333
jemand	-10334
ächeln	-10335
▁Lager	-10336
▁Sogar	-10337
▁Stuhl	-10338
▁beweg	-10339
▁rates	-10340
▁schwe	-10341
▁shall	-10342
▁silen	-10343
ständen	-10344
▁Belohn	-10345
▁Einsch	-10346
▁Kriegs	-10347
▁Signal	-10348
▁Wolken	-10349
▁dunkle	-10350
▁former	-10351
inosaurs	-10352
▁Verlust	-10353
▁hierher	-10354
▁selling	-10355
fähigkeit	-10356
▁circumst	-10357
▁explains	-10358
▁gespielt	-10359
▁relative	-10360
▁Transport	-10361
▁collection	-10362
▁restaurant	-10363
▁westlichen	-10364
▁Erwachsenen	-10365
▁Statistiken	-10366
▁gegenseitig	-10367
▁collaboration	-10368
Man	-10369
can	-10370
ini	-10371
lyn	-10372
not	-10373
ups	-10374
frei	-10375
▁Yet	-10376
▁err	-10377
▁zut	-10378
asste	-10379
hythm	-10380
itals	-10381
▁cure	-10382
▁jüng	-10383
▁klin	-10384
▁ride	-10385
▁wand	-10386
penden	-10387
stream	-10388
▁Brief	-10389
▁Tumor	-10390
▁Women	-10391
▁navig	-10392
▁sympt	-10393
aurants	-10394
griffen	-10395
wärmung	-10396
zufügen	-10397
▁Damals	-10398
▁Stärke	-10399
▁explod	-10400
▁geomet	-10401
▁hinten	-10402
▁winter	-10403
▁Risiken	-10404
▁konstru	-10405
▁sending	-10406
▁unusual	-10407
▁victims	-10408
▁welchem	-10409
▁überprü	-10410
▁Existenz	-10411
▁Nachhalt	-10412
▁clinical	-10413
▁parallel	-10414
▁Anwendung	-10415
▁relatively	-10416
▁represents	-10417
▁verbessert	-10418
▁feststellen	-10419
▁photographs	-10420
▁wirtschaftliche	-10421
DP	-10422
hai	-10423
hel	-10424
ruh	-10425
ähn	-10426
Look	-10427
airs	-10428
bell	-10429
netz	-10430
oses	-10431
ught	-10432
wing	-10433
▁Cra	-10434
▁Pet	-10435
▁bow	-10436
gling	-10437
icing	-10438
illen	-10439
inahe	-10440
▁Allt	-10441
▁Expl	-10442
▁Früh	-10443
▁Josh	-10444
▁Jung	-10445
▁Play	-10446
▁Rake	-10447
▁erle	-10448
▁grün	-10449
▁mode	-10450
▁ring	-10451
▁stir	-10452
gehend	-10453
ichert	-10454
▁Parte	-10455
▁Süden	-10456
▁tumor	-10457
areness	-10458
itarian	-10459
steigen	-10460
▁Andrew	-10461
▁Handel	-10462
▁Ozeane	-10463
▁bottle	-10464
▁desire	-10465
▁langer	-10466
zukommen	-10467
▁Geistes	-10468
▁beinahe	-10469
▁depends	-10470
▁liefern	-10471
▁promise	-10472
▁regener	-10473
▁steuern	-10474
▁äußerst	-10475
▁übersch	-10476
▁Geräusch	-10477
▁encourag	-10478
▁pleasure	-10479
▁whenever	-10480
▁movements	-10481
▁beschreibt	-10482
▁convention	-10483
▁healthcare	-10484
▁psychology	-10485
verständlich	-10486
▁unterstützt	-10487
▁mathematical	-10488
▁internationalen	-10489
-,	-10490
Gl	-10491
va	-10492
▁ce	-10493
alem	-10494
avor	-10495
bers	-10496
foot	-10497
inte	-10498
laub	-10499
▁Hon	-10500
▁Jew	-10501
▁Krä	-10502
▁ped	-10503
halts	-10504
ibiot	-10505
ielle	-10506
oking	-10507
ville	-10508
▁Komb	-10509
▁brit	-10510
▁deta	-10511
▁irre	-10512
▁neut	-10513
▁tank	-10514
▁tons	-10515
▁verf	-10516
▁wake	-10517
rieren	-10518
▁Brian	-10519
▁Koran	-10520
▁Scott	-10521
▁Wieso	-10522
▁maxim	-10523
▁übert	-10524
▁Blumen	-10525
▁Fellow	-10526
▁Laptop	-10527
▁conver	-10528
▁credit	-10529
▁ergibt	-10530
▁fossil	-10531
▁heisst	-10532
▁inevit	-10533
▁kannte	-10534
▁prefer	-10535
▁Fliegen	-10536
▁Galaxie	-10537
▁Momente	-10538
▁Stephen	-10539
▁kitchen	-10540
▁lokalen	-10541
▁Lebenser	-10542
▁kreieren	-10543
▁schätzen	-10544
▁versteht	-10545
handlungen	-10546
▁disappear	-10547
▁employees	-10548
▁Medikament	-10549
▁algorithms	-10550
▁gemeinsame	-10551
▁techniques	-10552
▁veränderte	-10553
200	-10554
ehm	-10555
öss	-10556
bage	-10557
kind	-10558
läuf	-10559
okus	-10560
oved	-10561
samm	-10562
▁Mas	-10563
▁Ray	-10564
▁Sow	-10565
▁Vis	-10566
▁Wil	-10567
▁pot	-10568
iogen	-10569
ränkt	-10570
▁Anst	-10571
▁acqu	-10572
▁diss	-10573
▁getr	-10574
▁narr	-10575
▁runs	-10576
▁trop	-10577
angers	-10578
mented	-10579
▁Schäd	-10580
▁chron	-10581
▁goods	-10582
▁piano	-10583
▁risks	-10584
▁serve	-10585
▁sides	-10586
▁sweet	-10587
▁Gegend	-10588
▁Herren	-10589
▁Leider	-10590
▁Neurow	-10591
▁blauen	-10592
▁bubble	-10593
▁sparen	-10594
qualität	-10595
▁Wissens	-10596
▁impress	-10597
▁include	-10598
▁nachden	-10599
▁rapidly	-10600
▁standen	-10601
▁Kongress	-10602
▁besuchen	-10603
▁beweisen	-10604
▁graduate	-10605
▁prepared	-10606
▁Wohlstand	-10607
▁emissions	-10608
▁lediglich	-10609
▁Australien	-10610
▁Definition	-10611
▁Schauspiel	-10612
▁verwandelt	-10613
▁Kombination	-10614
uba	-10615
erte	-10616
grad	-10617
ikes	-10618
quar	-10619
▁Amy	-10620
▁gee	-10621
level	-10622
oting	-10623
ratch	-10624
▁Bund	-10625
▁Four	-10626
▁Tele	-10627
▁Teuf	-10628
▁Zahn	-10629
▁qual	-10630
▁wars	-10631
elling	-10632
icious	-10633
izienz	-10634
lösung	-10635
ported	-10636
▁Blatt	-10637
▁Letzt	-10638
▁added	-10639
▁defen	-10640
▁goals	-10641
▁stock	-10642
▁Daniel	-10643
▁Epidem	-10644
▁Nieder	-10645
▁Sprach	-10646
▁begren	-10647
▁durchs	-10648
▁factor	-10649
▁organs	-10650
▁remain	-10651
▁stattf	-10652
▁talent	-10653
▁Element	-10654
▁Johnson	-10655
▁Lektion	-10656
▁Pacific	-10657
▁Respekt	-10658
▁attempt	-10659
▁gefällt	-10660
▁primary	-10661
besondere	-10662
▁Aufnahme	-10663
▁Zwischen	-10664
▁trillion	-10665
▁Grundlage	-10666
▁aufnehmen	-10667
▁interests	-10668
▁typically	-10669
▁wirkliche	-10670
▁fasziniert	-10671
▁übernehmen	-10672
▁environments	-10673
▁evolutionary	-10674
▁gesellschaft	-10675
wen	-10676
▁Sy	-10677
ense	-10678
mehr	-10679
rict	-10680
ulin	-10681
äfte	-10682
▁Boy	-10683
▁Dat	-10684
▁Hem	-10685
▁Hey	-10686
▁sau	-10687
▁wom	-10688
antom	-10689
kolog	-10690
▁Inte	-10691
▁Stör	-10692
▁atom	-10693
▁clim	-10694
▁gang	-10695
▁unit	-10696
▁vent	-10697
forest	-10698
imming	-10699
rücken	-10700
▁aging	-10701
▁beach	-10702
▁doubt	-10703
▁refer	-10704
▁skill	-10705
▁steel	-10706
▁unbek	-10707
▁detect	-10708
▁mirror	-10709
▁option	-10710
▁soviel	-10711
▁Afrikas	-10712
▁Bestand	-10713
▁Schicks	-10714
▁Taliban	-10715
▁insight	-10716
▁überein	-10717
abilities	-10718
▁affected	-10719
▁generally	-10720
▁newspaper	-10721
▁definitely	-10722
▁perception	-10723
▁Aktivitäten	-10724
▁großartigen	-10725
▁Wesentlichen	-10726
▁vorzustellen	-10727
▁unglaublichen	-10728
aat	-10729
ült	-10730
abol	-10731
rass	-10732
▁Ann	-10733
▁Ehr	-10734
▁Imp	-10735
▁Rio	-10736
▁Skl	-10737
▁dün	-10738
▁que	-10739
akers	-10740
daten	-10741
opter	-10742
▁Empf	-10743
▁Kenn	-10744
▁Prob	-10745
▁thro	-10746
▁Hotel	-10747
▁Power	-10748
▁White	-10749
▁drauf	-10750
▁reven	-10751
▁Brücke	-10752
▁Danach	-10753
▁meinte	-10754
▁worlds	-10755
▁Einheit	-10756
▁Fahrrad	-10757
▁Komment	-10758
▁Wirkung	-10759
▁kriegen	-10760
▁vergröß	-10761
▁beispiel	-10762
▁gefangen	-10763
leistungen	-10764
▁besondere	-10765
▁radiation	-10766
▁Instrument	-10767
▁introduced	-10768
▁protection	-10769
▁unexpected	-10770
▁Einstellung	-10771
▁Stattdessen	-10772
▁sophisticated	-10773
6.	-10774
70	-10775
All	-10776
Wow	-10777
enz	-10778
uts	-10779
wel	-10780
▁Lu	-10781
▁Ve	-10782
nahm	-10783
oint	-10784
ränk	-10785
temp	-10786
what	-10787
▁FBI	-10788
▁Pen	-10789
▁hey	-10790
▁ing	-10791
chest	-10792
cling	-10793
nungs	-10794
▁Benj	-10795
▁Cart	-10796
▁Merk	-10797
▁Penn	-10798
ternal	-10799
▁Damen	-10800
▁Diagn	-10801
▁Gehen	-10802
▁Küste	-10803
▁Pfund	-10804
▁Platt	-10805
▁Rechn	-10806
▁armen	-10807
▁befre	-10808
▁metal	-10809
▁notes	-10810
▁obser	-10811
▁occup	-10812
▁staff	-10813
▁surve	-10814
igungen	-10815
prechen	-10816
▁Hunger	-10817
▁Mengen	-10818
▁Normal	-10819
▁battle	-10820
▁eingel	-10821
▁fehlen	-10822
material	-10823
▁feature	-10824
▁release	-10825
▁Ungleich	-10826
▁dahinter	-10827
▁elektron	-10828
▁mistakes	-10829
▁mögliche	-10830
▁official	-10831
▁recorded	-10832
▁spectrum	-10833
▁Interview	-10834
▁dinosaurs	-10835
▁erweitern	-10836
▁Verbrechen	-10837
▁Bedürfnisse	-10838
▁geschlossen	-10839
▁politicians	-10840
▁überraschend	-10841
▁Persönlichkeit	-10842
▁internationale	-10843
agh	-10844
▁85	-10845
▁CD	-10846
dest	-10847
mord	-10848
uses	-10849
▁GDP	-10850
▁Sor	-10851
▁rub	-10852
▁wra	-10853
acken	-10854
boden	-10855
ieben	-10856
seins	-10857
uther	-10858
▁Aust	-10859
▁Hell	-10860
▁heir	-10861
▁legt	-10862
▁resc	-10863
▁sees	-10864
ammelt	-10865
unting	-10866
▁Bauch	-10867
▁Jesus	-10868
▁Kenia	-10869
▁Motiv	-10870
▁Poten	-10871
▁Weihn	-10872
▁baute	-10873
▁inher	-10874
▁stehe	-10875
▁theme	-10876
▁traum	-10877
ermaßen	-10878
▁Führer	-10879
▁Gesamt	-10880
▁bauten	-10881
▁compar	-10882
▁gelebt	-10883
▁liquid	-10884
elescope	-10885
sprozess	-10886
▁Absicht	-10887
▁Bibliot	-10888
▁Wechsel	-10889
▁electro	-10890
▁grundle	-10891
▁replace	-10892
▁Betracht	-10893
▁Congress	-10894
▁konfront	-10895
▁vehicles	-10896
▁introduce	-10897
▁molecular	-10898
▁passionate	-10899
erechtigkeit	-10900
Na	-10901
▁x	-10902
lad	-10903
äub	-10904
▁28	-10905
▁Ky	-10906
▁ah	-10907
eten	-10908
igem	-10909
thur	-10910
ugel	-10911
ulse	-10912
äden	-10913
▁Brü	-10914
▁bag	-10915
▁erz	-10916
▁nor	-10917
▁2005	-10918
▁Laut	-10919
▁Weib	-10920
▁beiz	-10921
▁firm	-10922
▁iPod	-10923
▁länd	-10924
▁nett	-10925
▁quad	-10926
▁seid	-10927
▁shop	-10928
▁soft	-10929
▁tick	-10930
leitet	-10931
urance	-10932
▁5,000	-10933
▁Hunde	-10934
▁Klein	-10935
▁dedic	-10936
▁fährt	-10937
▁horse	-10938
▁innen	-10939
▁input	-10940
▁mosqu	-10941
▁topic	-10942
▁verab	-10943
▁Kirche	-10944
▁Russia	-10945
▁Symmet	-10946
▁advice	-10947
▁assign	-10948
▁besagt	-10949
▁medium	-10950
▁season	-10951
▁stream	-10952
pflanzen	-10953
putation	-10954
▁Zeitung	-10955
▁aggress	-10956
▁berühmt	-10957
▁centers	-10958
▁courage	-10959
▁erhöhen	-10960
▁gravity	-10961
▁verring	-10962
losigkeit	-10963
▁Deswegen	-10964
▁Schritte	-10965
▁Vorteile	-10966
▁darunter	-10967
▁digitale	-10968
▁ähnliche	-10969
▁Südafrika	-10970
▁encounter	-10971
▁entfernen	-10972
▁marketing	-10973
▁Chemikalien	-10974
▁akzeptieren	-10975
▁beschrieben	-10976
▁technological	-10977
Ex	-10978
ati	-10979
see	-10980
gant	-10981
lief	-10982
rans	-10983
umps	-10984
west	-10985
▁Ble	-10986
▁Jac	-10987
▁Sus	-10988
▁asp	-10989
istin	-10990
iveau	-10991
räger	-10992
▁Jane	-10993
▁Tief	-10994
▁baut	-10995
▁erhe	-10996
▁höre	-10997
▁peak	-10998
▁rote	-10999
▁soul	-11000
▁tats	-11001
▁zust	-11002
estyle	-11003
fected	-11004
umines	-11005
▁ought	-11006
▁prime	-11007
▁ultra	-11008
erstand	-11009
stoffen	-11010
▁church	-11011
▁driven	-11012
▁ingred	-11013
▁lachen	-11014
lerweile	-11015
▁applied	-11016
▁dropped	-11017
▁enthält	-11018
▁factors	-11019
▁opinion	-11020
verhalten	-11021
▁Metapher	-11022
▁memories	-11023
▁speziell	-11024
▁Gegenwart	-11025
▁Marketing	-11026
▁bekannten	-11027
▁eindeutig	-11028
▁gegründet	-11029
▁mountains	-11030
▁neighbors	-11031
bevölkerung	-11032
▁Jahrzehnten	-11033
▁Sicherheits	-11034
BM	-11035
kul	-11036
örm	-11037
▁MT	-11038
▁PC	-11039
appy	-11040
gely	-11041
half	-11042
igma	-11043
ombe	-11044
reht	-11045
anned	-11046
nchen	-11047
räume	-11048
▁bare	-11049
▁eggs	-11050
ateful	-11051
ruppen	-11052
▁3,000	-11053
▁Henry	-11054
▁Kabel	-11055
▁Phase	-11056
▁Rhyth	-11057
▁Space	-11058
▁Trick	-11059
▁Wüste	-11060
▁atoms	-11061
▁estim	-11062
▁storm	-11063
dlichen	-11064
▁Gottes	-11065
▁blocks	-11066
▁furcht	-11067
▁hoping	-11068
▁realen	-11069
▁refuge	-11070
▁regard	-11071
▁rocket	-11072
▁thanks	-11073
▁ungehe	-11074
▁Hindern	-11075
▁engaged	-11076
▁erhielt	-11077
▁fiction	-11078
▁mistake	-11079
▁Business	-11080
▁perfekte	-11081
▁ultimate	-11082
▁verstehe	-11083
▁vertraut	-11084
▁Allgemein	-11085
▁Geräusche	-11086
▁Kontinent	-11087
▁ancestors	-11088
▁dieselben	-11089
▁gebraucht	-11090
▁pollution	-11091
▁terrorism	-11092
▁components	-11093
▁efficiency	-11094
▁foundation	-11095
▁underwater	-11096
▁combination	-11097
▁gemeinsamen	-11098
▁inspiration	-11099
▁Innovationen	-11100
▁Gerechtigkeit	-11101
▁afrikanischen	-11102
▁funktionierte	-11103
▁Nachhaltigkeit	-11104
abb	-11105
hst	-11106
isl	-11107
ula	-11108
önt	-11109
atar	-11110
etch	-11111
etik	-11112
rüst	-11113
älde	-11114
▁Moo	-11115
▁adj	-11116
▁ens	-11117
▁mor	-11118
▁ums	-11119
alled	-11120
athie	-11121
elson	-11122
kehrt	-11123
obile	-11124
samen	-11125
utete	-11126
▁Walk	-11127
▁clip	-11128
▁gere	-11129
▁wine	-11130
▁Einen	-11131
▁Humor	-11132
▁Wagen	-11133
▁cyber	-11134
▁habit	-11135
▁imple	-11136
▁toler	-11137
gruppen	-11138
▁Symbol	-11139
▁anfing	-11140
▁belieb	-11141
▁cortex	-11142
▁pulled	-11143
▁satisf	-11144
▁sauber	-11145
▁senses	-11146
▁solved	-11147
▁studio	-11148
ikations	-11149
▁Musiker	-11150
▁Richtig	-11151
▁Signale	-11152
▁accompl	-11153
▁actions	-11154
▁chicken	-11155
▁figures	-11156
▁however	-11157
▁manchen	-11158
▁reached	-11159
▁silence	-11160
▁Diagramm	-11161
▁Komponen	-11162
▁falschen	-11163
▁occurred	-11164
▁sichtbar	-11165
▁weiterer	-11166
▁Überzeug	-11167
▁erforscht	-11168
▁traveling	-11169
▁Präsentation	-11170
▁sustainability	-11171
ißt	-11172
opy	-11173
Amer	-11174
anes	-11175
ania	-11176
irat	-11177
utze	-11178
▁Ban	-11179
▁Mor	-11180
acles	-11181
iring	-11182
lager	-11183
lines	-11184
scale	-11185
stron	-11186
techn	-11187
ätter	-11188
üssen	-11189
▁2010	-11190
▁Matt	-11191
▁erwä	-11192
▁fürs	-11193
▁genü	-11194
▁heil	-11195
▁hits	-11196
▁tape	-11197
apping	-11198
friend	-11199
making	-11200
▁Initi	-11201
▁Since	-11202
▁While	-11203
▁Würde	-11204
▁embar	-11205
▁keeps	-11206
▁staat	-11207
ishment	-11208
▁Skulpt	-11209
▁aftern	-11210
▁ausgew	-11211
▁drives	-11212
▁erklär	-11213
▁patent	-11214
▁Central	-11215
▁Gebiete	-11216
▁amounts	-11217
▁ansieht	-11218
▁besitzt	-11219
▁therapy	-11220
▁witness	-11221
erstörung	-11222
stitution	-11223
▁features	-11224
▁folgende	-11225
▁Gesichter	-11226
▁encourage	-11227
▁komplexen	-11228
▁activities	-11229
▁schwieriger	-11230
▁Unterhaltung	-11231
▁aufgewachsen	-11232
▁konzentriert	-11233
Al	-11234
pa	-11235
oir	-11236
ubs	-11237
▁33	-11238
▁sä	-11239
burg	-11240
emin	-11241
irds	-11242
mack	-11243
sper	-11244
▁dot	-11245
▁mad	-11246
▁wüs	-11247
achel	-11248
adium	-11249
bleme	-11250
eding	-11251
opard	-11252
▁1000	-11253
▁Chef	-11254
▁Ford	-11255
▁Wein	-11256
▁silk	-11257
kelett	-11258
plätze	-11259
quelle	-11260
reffen	-11261
▁Folie	-11262
▁Parad	-11263
▁Stahl	-11264
▁aston	-11265
▁films	-11266
▁jener	-11267
▁repar	-11268
▁tests	-11269
▁verkn	-11270
▁Anwend	-11271
▁August	-11272
▁Studio	-11273
▁acting	-11274
▁elimin	-11275
▁golden	-11276
▁kümmer	-11277
▁ökolog	-11278
▁ökonom	-11279
bewegung	-11280
ktivität	-11281
sprechen	-11282
▁cooking	-11283
▁glaubte	-11284
▁operate	-11285
▁quantum	-11286
▁singing	-11287
▁Mehrheit	-11288
▁Teenager	-11289
▁Zunächst	-11290
▁zeichnen	-11291
▁kostenlos	-11292
▁narrative	-11293
▁naturally	-11294
▁meaningful	-11295
▁Terrorismus	-11296
▁dargestellt	-11297
▁destruction	-11298
▁Fortschritte	-11299
▁presentation	-11300
▁beispielsweise	-11301
My	-11302
jo	-11303
ora	-11304
gent	-11305
gibt	-11306
ocal	-11307
uits	-11308
wald	-11309
▁Cop	-11310
▁Dep	-11311
▁Leg	-11312
▁Mur	-11313
▁abh	-11314
▁ere	-11315
▁lon	-11316
belie	-11317
hrase	-11318
▁Abra	-11319
▁Vent	-11320
▁arme	-11321
▁dogs	-11322
▁froh	-11323
▁rout	-11324
▁zoom	-11325
bücher	-11326
igungs	-11327
kosten	-11328
osphor	-11329
recken	-11330
schiff	-11331
▁Darum	-11332
▁Erinn	-11333
▁Kevin	-11334
▁Liber	-11335
▁Samen	-11336
▁roads	-11337
zwungen	-11338
▁Fabrik	-11339
▁France	-11340
▁Löcher	-11341
▁Newton	-11342
▁Pflege	-11343
▁Tonnen	-11344
▁Unfall	-11345
▁Zufall	-11346
▁anhand	-11347
▁lokale	-11348
▁senden	-11349
vermögen	-11350
▁Meister	-11351
▁burning	-11352
▁führten	-11353
▁gewählt	-11354
▁records	-11355
▁zeigten	-11356
schriften	-11357
▁gefallen	-11358
▁occasion	-11359
▁awareness	-11360
▁computing	-11361
▁hospitals	-11362
▁angenommen	-11363
▁bezeichnen	-11364
▁weltweiten	-11365
▁automatisch	-11366
▁Konsequenzen	-11367
▁Untersuchung	-11368
▁menschliches	-11369
▁unterrichten	-11370
▁medizinischen	-11371
DA	-11372
je	-11373
ima	-11374
tte	-11375
▁36	-11376
▁RB	-11377
▁li	-11378
anna	-11379
cons	-11380
ency	-11381
iana	-11382
ätzt	-11383
▁Alt	-11384
▁Sup	-11385
▁bug	-11386
▁nan	-11387
burgh	-11388
esome	-11389
▁Prop	-11390
▁Send	-11391
▁Weis	-11392
▁brut	-11393
▁lens	-11394
▁pump	-11395
▁trig	-11396
aptops	-11397
ducing	-11398
gesamt	-11399
reiche	-11400
unkten	-11401
▁Chaos	-11402
▁Eisen	-11403
▁Immer	-11404
▁Story	-11405
▁blaue	-11406
▁false	-11407
▁günst	-11408
▁pregn	-11409
▁verhe	-11410
▁wofür	-11411
chester	-11412
rechend	-11413
▁Kanada	-11414
▁Mittag	-11415
▁Nelson	-11416
▁Sobald	-11417
▁advent	-11418
▁boring	-11419
▁formed	-11420
▁hinauf	-11421
▁leiten	-11422
▁willst	-11423
▁Molekül	-11424
▁empathy	-11425
▁unglück	-11426
▁visible	-11427
arbeitung	-11428
▁Anführer	-11429
▁Benjamin	-11430
▁dramatic	-11431
▁geholfen	-11432
▁proteins	-11433
▁threaten	-11434
▁mechanism	-11435
▁democratic	-11436
▁percentage	-11437
▁manufacturing	-11438
▁transportation	-11439
7.	-11440
CA	-11441
Ch	-11442
osn	-11443
▁3,	-11444
cers	-11445
fert	-11446
zipl	-11447
▁Son	-11448
▁mur	-11449
▁spo	-11450
iders	-11451
igste	-11452
orous	-11453
umble	-11454
unate	-11455
▁Bege	-11456
▁Dazu	-11457
▁Five	-11458
▁Jenn	-11459
▁Tony	-11460
▁disp	-11461
▁load	-11462
▁rene	-11463
apital	-11464
▁Betti	-11465
▁House	-11466
▁immen	-11467
▁polar	-11468
▁shame	-11469
▁sowas	-11470
▁änder	-11471
ließend	-11472
▁Budget	-11473
▁Dunkel	-11474
▁Eigent	-11475
▁Welten	-11476
▁fingen	-11477
▁fisher	-11478
▁grosse	-11479
▁laptop	-11480
underten	-11481
▁dauerte	-11482
▁diction	-11483
▁forests	-11484
▁largely	-11485
▁Mikroben	-11486
▁Russland	-11487
▁bemerkte	-11488
▁birthday	-11489
▁concrete	-11490
▁villages	-11491
▁Aufnahmen	-11492
▁afternoon	-11493
▁collected	-11494
▁embarrass	-11495
▁framework	-11496
▁increased	-11497
▁schwarzen	-11498
▁überlegen	-11499
▁conclusion	-11500
▁controlled	-11501
▁moralische	-11502
▁personally	-11503
▁participate	-11504
▁fundamentally	-11505
▁psychological	-11506
ato	-11507
ema	-11508
oto	-11509
rin	-11510
alte	-11511
coln	-11512
ouds	-11513
whel	-11514
äger	-11515
▁DNS	-11516
▁Dig	-11517
▁Ruf	-11518
▁toy	-11519
gence	-11520
menge	-11521
ogram	-11522
zepte	-11523
▁Blue	-11524
▁Comm	-11525
▁Kart	-11526
▁Sant	-11527
▁cast	-11528
▁heim	-11529
▁joke	-11530
eitern	-11531
iertes	-11532
▁Erdbe	-11533
▁Inner	-11534
▁Magie	-11535
▁Media	-11536
▁Ohren	-11537
▁Prize	-11538
▁Saudi	-11539
▁Zweif	-11540
▁städt	-11541
inction	-11542
▁Flücht	-11543
▁Grippe	-11544
▁Lungen	-11545
▁Status	-11546
▁bestät	-11547
▁neuron	-11548
▁orange	-11549
▁scared	-11550
▁tempor	-11551
▁Nutzung	-11552
▁Perhaps	-11553
▁Viertel	-11554
▁einiges	-11555
▁glamour	-11556
▁herausf	-11557
▁suppose	-11558
▁unteren	-11559
▁zweimal	-11560
probieren	-11561
▁Argument	-11562
▁Ereignis	-11563
▁Resultat	-11564
▁Webseite	-11565
▁abstract	-11566
▁creature	-11567
▁internal	-11568
▁leichter	-11569
▁required	-11570
▁sunlight	-11571
▁tracking	-11572
▁verstand	-11573
oberfläche	-11574
▁Billionen	-11575
▁Ernährung	-11576
▁Literatur	-11577
▁bemerkens	-11578
▁beobachte	-11579
▁darstellt	-11580
▁protected	-11581
▁providing	-11582
▁scheinbar	-11583
▁schwimmen	-11584
▁vertrauen	-11585
▁Inspiration	-11586
▁Stammzellen	-11587
▁applications	-11588
▁conservation	-11589
▁implications	-11590
▁circumstances	-11591
▁grundsätzlich	-11592
Sp	-11593
ye	-11594
ava	-11595
▁Tö	-11596
▁ok	-11597
adic	-11598
esth	-11599
imit	-11600
izza	-11601
zykl	-11602
▁Dör	-11603
▁Okt	-11604
iture	-11605
point	-11606
reibe	-11607
▁Baus	-11608
▁Eier	-11609
▁Mike	-11610
▁Nase	-11611
▁Ohne	-11612
▁Rick	-11613
▁gewö	-11614
▁subs	-11615
fangen	-11616
freund	-11617
iosity	-11618
profit	-11619
punkte	-11620
▁Bronx	-11621
▁Fokus	-11622
▁Jones	-11623
▁River	-11624
▁Räume	-11625
▁Spann	-11626
▁geste	-11627
▁pharm	-11628
▁voran	-11629
▁wisst	-11630
sterben	-11631
systeme	-11632
ultural	-11633
▁Nobody	-11634
▁Square	-11635
▁achten	-11636
▁critic	-11637
▁singen	-11638
▁survey	-11639
▁tiefer	-11640
▁weißen	-11641
▁Anstatt	-11642
▁Sternen	-11643
▁Verwand	-11644
▁closely	-11645
▁nowhere	-11646
▁outcome	-11647
▁trinken	-11648
▁Bevölker	-11649
▁Erlebnis	-11650
▁Geschenk	-11651
▁Research	-11652
▁besseres	-11653
▁hinunter	-11654
▁Alexander	-11655
▁Angestell	-11656
▁Elefanten	-11657
▁behaupten	-11658
▁betreiben	-11659
▁versteckt	-11660
▁zufrieden	-11661
▁Geburtstag	-11662
▁beibringen	-11663
▁physically	-11664
▁processing	-11665
erie	-11666
ihad	-11667
jahr	-11668
keys	-11669
schn	-11670
▁Bre	-11671
▁Out	-11672
▁Ram	-11673
▁Sah	-11674
▁Tum	-11675
imine	-11676
preis	-11677
retch	-11678
rücke	-11679
wagen	-11680
▁Back	-11681
▁Cons	-11682
▁Krit	-11683
▁furn	-11684
▁hind	-11685
▁hook	-11686
▁icon	-11687
▁swim	-11688
Dollar	-11689
zeigen	-11690
▁Dafür	-11691
▁Optim	-11692
▁Stern	-11693
▁Teles	-11694
▁brill	-11695
▁inten	-11696
▁resil	-11697
▁trend	-11698
ategien	-11699
▁assist	-11700
▁ausger	-11701
▁autism	-11702
▁deaths	-11703
▁extens	-11704
▁flower	-11705
▁grünen	-11706
▁heaven	-11707
▁reisen	-11708
▁whales	-11709
atastrop	-11710
▁Chancen	-11711
▁Gemälde	-11712
▁Vorhers	-11713
▁William	-11714
▁clothes	-11715
▁decline	-11716
▁erkannt	-11717
▁falling	-11718
▁solange	-11719
▁tatsäch	-11720
▁tonight	-11721
▁Gesichts	-11722
▁Versuche	-11723
▁combined	-11724
▁constant	-11725
▁director	-11726
▁existing	-11727
▁overwhel	-11728
▁presence	-11729
▁released	-11730
▁zurückzu	-11731
▁Computers	-11732
▁Wachstums	-11733
▁berichten	-11734
▁centuries	-11735
▁gebrochen	-11736
▁operation	-11737
▁teilweise	-11738
▁Prinzipien	-11739
▁literature	-11740
▁speziellen	-11741
▁Ausstellung	-11742
▁Darstellung	-11743
▁appropriate	-11744
▁potentially	-11745
▁organisieren	-11746
▁verschwunden	-11747
Ein	-11748
For	-11749
sst	-11750
urr	-11751
zut	-11752
▁Üb	-11753
gefü	-11754
ords	-11755
rise	-11756
▁Roy	-11757
▁Sud	-11758
▁kop	-11759
▁mig	-11760
barer	-11761
itors	-11762
▁2050	-11763
▁Klav	-11764
▁Voll	-11765
▁bell	-11766
▁diam	-11767
▁flew	-11768
▁frem	-11769
▁gras	-11770
▁horm	-11771
karten	-11772
usions	-11773
▁Bevor	-11774
▁Feind	-11775
▁anget	-11776
▁frank	-11777
▁score	-11778
▁split	-11779
▁taste	-11780
identen	-11781
systems	-11782
ältigen	-11783
▁Mangel	-11784
▁Märkte	-11785
▁freien	-11786
▁landen	-11787
▁length	-11788
▁script	-11789
▁trafen	-11790
▁vieles	-11791
aneously	-11792
leistung	-11793
▁Mandela	-11794
▁Schaden	-11795
▁bekomme	-11796
▁defined	-11797
▁discipl	-11798
▁drücken	-11799
▁kreativ	-11800
▁treiben	-11801
▁unknown	-11802
▁infected	-11803
▁springen	-11804
▁wertvoll	-11805
▁wireless	-11806
▁Computern	-11807
▁Ingenieur	-11808
▁Spielzeug	-11809
▁enthalten	-11810
▁Restaurant	-11811
▁electronic	-11812
▁productive	-11813
▁proportion	-11814
▁durchführen	-11815
▁explanation	-11816
▁transformed	-11817
▁irgendjemand	-11818
▁Unfortunately	-11819
▁Vorstellungen	-11820
▁bemerkenswert	-11821
geschwindigkeit	-11822
▁Gemeinschaften	-11823
Bl	-11824
ga	-11825
hm	-11826
ffe	-11827
▁Up	-11828
gten	-11829
iser	-11830
pern	-11831
uben	-11832
▁Kra	-11833
aktor	-11834
behör	-11835
telef	-11836
tritt	-11837
▁Balk	-11838
▁Bern	-11839
▁Mosk	-11840
▁Song	-11841
▁Vari	-11842
▁cave	-11843
▁fake	-11844
▁grad	-11845
▁hang	-11846
▁kalt	-11847
▁loud	-11848
▁pill	-11849
▁plot	-11850
▁suic	-11851
astern	-11852
opping	-11853
ätzung	-11854
ündung	-11855
▁Noten	-11856
▁Sympt	-11857
▁adopt	-11858
▁bedro	-11859
▁clock	-11860
▁curve	-11861
▁enden	-11862
▁songs	-11863
▁upper	-11864
▁whist	-11865
ahnsinn	-11866
plicity	-11867
ruments	-11868
schläge	-11869
▁Anders	-11870
▁Kindes	-11871
▁Strand	-11872
▁border	-11873
▁dunkel	-11874
▁europä	-11875
▁heilen	-11876
▁papers	-11877
▁pollen	-11878
cription	-11879
icherung	-11880
▁Gedicht	-11881
▁Lincoln	-11882
▁circuit	-11883
▁flowers	-11884
▁frequen	-11885
▁mosquit	-11886
▁quarter	-11887
▁reverse	-11888
▁robotic	-11889
▁accurate	-11890
▁collapse	-11891
▁schreibt	-11892
▁subjects	-11893
▁transfer	-11894
▁Potenzial	-11895
▁Schicksal	-11896
▁Verstehen	-11897
▁algorithm	-11898
▁einfaches	-11899
▁erwachsen	-11900
▁functions	-11901
▁kreativen	-11902
▁permanent	-11903
▁storytell	-11904
▁technique	-11905
▁Unterricht	-11906
▁Wettbewerb	-11907
▁sogenannte	-11908
▁Schließlich	-11909
▁exploration	-11910
▁instruments	-11911
▁voneinander	-11912
mo	-11913
▁:	-11914
erd	-11915
..."	-11916
erer	-11917
olds	-11918
▁Hat	-11919
▁dok	-11920
ahnen	-11921
anche	-11922
okuss	-11923
ormen	-11924
▁Ehem	-11925
▁Gute	-11926
▁Lego	-11927
▁Only	-11928
▁Stäm	-11929
▁bicy	-11930
▁bike	-11931
▁ears	-11932
▁elev	-11933
▁item	-11934
▁sets	-11935
sunami	-11936
▁Clint	-11937
▁Erfol	-11938
▁Shang	-11939
▁Woman	-11940
▁beige	-11941
▁chose	-11942
▁embed	-11943
▁logic	-11944
▁lying	-11945
▁proto	-11946
▁renew	-11947
▁ridic	-11948
▁teilt	-11949
etische	-11950
▁Abfall	-11951
▁desper	-11952
▁erhöht	-11953
▁filter	-11954
▁forder	-11955
▁genius	-11956
▁latest	-11957
▁monkey	-11958
▁wander	-11959
▁wirken	-11960
▁writer	-11961
ologists	-11962
onnected	-11963
▁Gericht	-11964
▁beenden	-11965
▁fishing	-11966
▁harvest	-11967
▁hielten	-11968
▁weshalb	-11969
iolumines	-11970
▁Regionen	-11971
▁Weisheit	-11972
▁allowing	-11973
▁dokument	-11974
▁horrible	-11975
▁microbes	-11976
▁betrieben	-11977
▁betroffen	-11978
▁derselben	-11979
▁ernsthaft	-11980
▁gentlemen	-11981
▁langsamer	-11982
▁Ereignisse	-11983
▁Frankreich	-11984
▁Gedächtnis	-11985
▁Jahrzehnte	-11986
▁economists	-11987
▁surrounded	-11988
▁transplant	-11989
▁verglichen	-11990
▁Algorithmen	-11991
▁nachgedacht	-11992
▁entrepreneur	-11993
Sh	-11994
li	-11995
▁Fa	-11996
derm	-11997
frau	-11998
gren	-11999
hips	-12000
look	-12001
reck	-12002
ziel	-12003
▁Jun	-12004
▁Lam	-12005
ettet	-12006
linie	-12007
these	-12008
vable	-12009
veled	-12010
▁Feyn	-12011
▁Gemü	-12012
▁Hong	-12013
▁June	-12014
▁Live	-12015
▁dens	-12016
▁disg	-12017
▁grat	-12018
▁lebe	-12019
▁merk	-12020
modell	-12021
phones	-12022
▁Armee	-12023
▁Cyber	-12024
▁angem	-12025
▁error	-12026
▁fehlt	-12027
▁hotel	-12028
▁legit	-12029
▁plans	-12030
▁sight	-12031
▁umher	-12032
antasie	-12033
schicht	-12034
▁Alters	-12035
▁Presse	-12036
▁Weiter	-12037
▁clouds	-12038
▁handle	-12039
▁merken	-12040
▁slides	-12041
▁spüren	-12042
▁Silicon	-12043
▁corresp	-12044
▁fingers	-12045
▁musikal	-12046
▁options	-12047
▁recover	-12048
▁verlang	-12049
▁Hunderte	-12050
▁Illusion	-12051
▁administ	-12052
▁anschaut	-12053
▁physikal	-12054
▁umfassen	-12055
▁unmittel	-12056
▁wondered	-12057
▁Programme	-12058
▁basierend	-12059
▁explained	-12060
▁bezeichnet	-12061
▁laboratory	-12062
▁Wirtschafts	-12063
▁challenging	-12064
▁Entdeckungen	-12065
▁Überraschung	-12066
tä	-12067
brü	-12068
ixt	-12069
las	-12070
wis	-12071
alys	-12072
förm	-12073
ifth	-12074
lass	-12075
nehm	-12076
ocol	-12077
▁Lib	-12078
▁Rit	-12079
▁aim	-12080
▁odd	-12081
being	-12082
child	-12083
ismen	-12084
polit	-12085
üpfen	-12086
▁Gibt	-12087
▁Time	-12088
▁Zust	-12089
▁hers	-12090
▁impl	-12091
▁milk	-12092
▁outc	-12093
▁tack	-12094
▁thin	-12095
ansion	-12096
heorie	-12097
▁Arist	-12098
▁Flüss	-12099
▁Hallo	-12100
▁Lasst	-12101
▁Sarah	-12102
prozess	-12103
rüstung	-12104
sprache	-12105
▁Arthur	-12106
▁Stücke	-12107
▁absorb	-12108
▁suchte	-12109
▁worauf	-12110
▁100.000	-12111
▁Annahme	-12112
▁Aussage	-12113
▁Debatte	-12114
▁Kapitel	-12115
▁Stewart	-12116
▁aufgere	-12117
▁besorgt	-12118
▁combine	-12119
▁comment	-12120
▁gekauft	-12121
▁starben	-12122
scheinend	-12123
▁Kampagne	-12124
▁Physiker	-12125
▁somewhat	-12126
▁stronger	-12127
schmutzung	-12128
▁Christmas	-12129
▁authority	-12130
▁bekämpfen	-12131
▁bezüglich	-12132
▁folgenden	-12133
▁sensitive	-12134
▁spiritual	-12135
▁antwortete	-12136
▁wenigstens	-12137
▁Dimensionen	-12138
▁Psychologie	-12139
▁Sonnenlicht	-12140
▁grundlegend	-12141
▁Lebenserwart	-12142
▁kontrolliert	-12143
▁veröffentlich	-12144
dam	-12145
irt	-12146
mma	-12147
▁55	-12148
bern	-12149
holz	-12150
ippe	-12151
leib	-12152
park	-12153
▁McC	-12154
▁Moz	-12155
▁Wow	-12156
▁ack	-12157
clear	-12158
fällt	-12159
▁Gulf	-12160
▁Mamm	-12161
▁Ment	-12162
▁melt	-12163
▁mush	-12164
bilder	-12165
dienst	-12166
ervice	-12167
father	-12168
ktions	-12169
leiten	-12170
mechan	-12171
▁Beute	-12172
▁Detro	-12173
▁bones	-12174
▁stone	-12175
▁weigh	-12176
▁weiße	-12177
▁woher	-12178
uilding	-12179
▁Golden	-12180
▁Handys	-12181
▁Willen	-12182
▁button	-12183
▁gelang	-12184
▁lehren	-12185
▁spider	-12186
▁stayed	-12187
▁unterr	-12188
▁überqu	-12189
ieinhalb	-12190
▁Feynman	-12191
▁Kameras	-12192
▁attacks	-12193
▁classes	-12194
▁embrace	-12195
▁evening	-12196
▁fluores	-12197
▁neugier	-12198
▁remains	-12199
▁respekt	-12200
▁stoppen	-12201
▁vaccine	-12202
▁Freiwill	-12203
▁Kleidung	-12204
▁Proteine	-12205
▁besessen	-12206
▁contrast	-12207
▁election	-12208
▁genügend	-12209
▁measured	-12210
▁schlafen	-12211
▁synchron	-12212
▁Something	-12213
▁umzugehen	-12214
▁versorgen	-12215
▁zunehmend	-12216
unternehmen	-12217
▁Entfernung	-12218
▁Regierungs	-12219
▁Sichtweise	-12220
▁irgendeine	-12221
▁Verbreitung	-12222
▁Klassenzimmer	-12223
"?	-12224
MM	-12225
rö	-12226
ado	-12227
eda	-12228
eme	-12229
kom	-12230
kor	-12231
mot	-12232
rid	-12233
▁DV	-12234
▁LG	-12235
▁lö	-12236
Yeah	-12237
hour	-12238
ione	-12239
▁Box	-12240
▁Nam	-12241
▁god	-12242
attoo	-12243
hagen	-12244
iking	-12245
uting	-12246
weich	-12247
▁Acht	-12248
▁Come	-12249
▁Fert	-12250
▁News	-12251
▁hieß	-12252
▁mile	-12253
▁obst	-12254
iguren	-12255
istics	-12256
rucken	-12257
▁1.000	-12258
▁Angeb	-12259
▁Conne	-12260
▁Dynam	-12261
▁Fried	-12262
▁diver	-12263
▁grain	-12264
▁memor	-12265
▁platz	-12266
▁prize	-12267
▁rooms	-12268
▁skept	-12269
▁woran	-12270
▁Besuch	-12271
▁Detail	-12272
▁Schnee	-12273
▁Säuget	-12274
▁ausser	-12275
▁hörten	-12276
▁linked	-12277
▁remove	-12278
▁stands	-12279
▁suffer	-12280
▁unlike	-12281
▁volume	-12282
ubringen	-12283
▁Krieges	-12284
▁Schwarz	-12285
▁beliebt	-12286
▁bestand	-12287
▁designs	-12288
▁doppelt	-12289
▁offenen	-12290
▁regions	-12291
erkennung	-12292
▁Shanghai	-12293
▁Transpar	-12294
▁begegnen	-12295
▁interakt	-12296
▁paradigm	-12297
▁provided	-12298
▁Basically	-12299
▁construct	-12300
▁definiert	-12301
▁reference	-12302
▁Erwachsene	-12303
▁ausgesetzt	-12304
▁eingeladen	-12305
▁wahrnehmen	-12306
▁Instrumente	-12307
▁conversations	-12308
hum	-12309
kos	-12310
obi	-12311
yan	-12312
▁Ep	-12313
▁SW	-12314
greg	-12315
icit	-12316
oned	-12317
▁Lee	-12318
▁Sec	-12319
▁aer	-12320
▁anx	-12321
▁pin	-12322
eseit	-12323
force	-12324
stuhl	-12325
unruh	-12326
▁2006	-12327
▁Biom	-12328
▁acts	-12329
▁busy	-12330
▁imit	-12331
▁nest	-12332
▁wash	-12333
source	-12334
unklen	-12335
werken	-12336
▁Roman	-12337
▁Rwand	-12338
▁angel	-12339
▁charm	-12340
▁grüne	-12341
▁pitch	-12342
▁plate	-12343
▁Aktion	-12344
▁Bundes	-12345
▁Fläche	-12346
▁Flügel	-12347
▁Pollen	-12348
▁deploy	-12349
▁interc	-12350
▁involv	-12351
▁relate	-12352
▁schock	-12353
tausende	-12354
▁Indones	-12355
▁careful	-12356
▁command	-12357
▁metabol	-12358
▁mittels	-12359
▁samples	-12360
▁surgeon	-12361
nderungen	-12362
▁Gebäuden	-12363
▁Training	-12364
▁drinking	-12365
▁genießen	-12366
▁penguins	-12367
▁psychiat	-12368
▁untersch	-12369
▁verblüff	-12370
▁verdient	-12371
▁footprint	-12372
▁statement	-12373
▁telephone	-12374
▁behavioral	-12375
▁confidence	-12376
▁Erwartungen	-12377
▁biologische	-12378
ahrscheinlich	-12379
wissenschaften	-12380
11	-12381
IS	-12382
aj	-12383
ETI	-12384
Ind	-12385
rok	-12386
▁Av	-12387
▁JH	-12388
anzt	-12389
ihen	-12390
nach	-12391
ooth	-12392
vely	-12393
züge	-12394
älle	-12395
▁350	-12396
acing	-12397
atson	-12398
brech	-12399
gespr	-12400
ipfel	-12401
▁Akte	-12402
▁Koch	-12403
▁Nick	-12404
▁Rett	-12405
▁Verm	-12406
▁Witz	-12407
▁army	-12408
▁bene	-12409
▁loop	-12410
▁phil	-12411
ereien	-12412
gypten	-12413
winkel	-12414
▁Congo	-12415
▁Kurve	-12416
▁Latin	-12417
▁McDon	-12418
▁Toten	-12419
▁angry	-12420
▁boxes	-12421
▁dress	-12422
▁stere	-12423
▁thick	-12424
▁walks	-12425
▁wovon	-12426
aughing	-12427
esented	-12428
fliegen	-12429
▁Hypoth	-12430
▁Please	-12431
▁Schach	-12432
▁Schalt	-12433
▁Schwer	-12434
▁deiner	-12435
▁dienen	-12436
▁gigant	-12437
▁hängen	-12438
▁nervös	-12439
▁orient	-12440
▁puzzle	-12441
issionen	-12442
▁Detroit	-12443
▁anzusch	-12444
▁ergeben	-12445
▁gezogen	-12446
▁poorest	-12447
operation	-12448
▁Krankenh	-12449
▁Schweden	-12450
▁lebendig	-12451
▁swimming	-12452
ussendlich	-12453
▁continued	-12454
▁irgendwel	-12455
▁reduziert	-12456
legenheiten	-12457
▁Zerstörung	-12458
▁mechanical	-12459
▁Herstellung	-12460
▁elektrische	-12461
▁interactive	-12462
▁vergangenen	-12463
▁wunderbaren	-12464
▁Bevölkerungs	-12465
Kon	-12466
oca	-12467
zig	-12468
ölk	-12469
cean	-12470
etti	-12471
iums	-12472
neid	-12473
rait	-12474
rier	-12475
▁20,	-12476
▁Ted	-12477
▁Ten	-12478
▁Wär	-12479
▁anb	-12480
Spiel	-12481
ansas	-12482
athed	-12483
erung	-12484
ignet	-12485
istet	-12486
läuft	-12487
opath	-12488
think	-12489
▁Cont	-12490
▁Flie	-12491
▁Gall	-12492
▁Grün	-12493
▁Hard	-12494
▁Knie	-12495
▁kons	-12496
▁nose	-12497
▁pink	-12498
▁reco	-12499
▁root	-12500
▁seht	-12501
ilemma	-12502
jected	-12503
onders	-12504
▁Decke	-12505
▁Larry	-12506
▁Wegen	-12507
▁Wicht	-12508
▁angen	-12509
▁bombs	-12510
▁cents	-12511
▁knapp	-12512
▁shell	-12513
▁style	-12514
ichtete	-12515
mittelt	-12516
reibung	-12517
▁Darauf	-12518
▁Ganzen	-12519
▁Joseph	-12520
▁Konsum	-12521
▁Metall	-12522
▁Option	-12523
▁beherr	-12524
▁nachts	-12525
▁prepar	-12526
▁repair	-12527
▁sphere	-12528
▁traged	-12529
bekommen	-12530
ervative	-12531
inations	-12532
▁Aspekte	-12533
▁Redwood	-12534
▁Schicht	-12535
▁classic	-12536
▁dancing	-12537
▁equally	-12538
▁monkeys	-12539
▁offered	-12540
▁solving	-12541
▁verschl	-12542
▁verstär	-12543
▁violent	-12544
▁windows	-12545
▁Zeitraum	-12546
▁ausgeben	-12547
▁engaging	-12548
▁overcome	-12549
▁schauten	-12550
▁transmit	-12551
▁verliert	-12552
▁wherever	-12553
▁aufgeregt	-12554
▁bedeutete	-12555
▁beteiligt	-12556
▁exploring	-12557
▁folgendes	-12558
▁intellekt	-12559
▁lifestyle	-12560
▁practices	-12561
▁recording	-12562
▁spreading	-12563
▁Bibliothek	-12564
▁appreciate	-12565
▁architects	-12566
▁journalist	-12567
▁wundervoll	-12568
gesellschaft	-12569
▁cooperation	-12570
▁inspirieren	-12571
▁grundlegenden	-12572
▁veröffentlichen	-12573
Ne	-12574
SP	-12575
idi	-12576
ila	-12577
kle	-12578
▁ED	-12579
▁SS	-12580
▁ew	-12581
eres	-12582
iene	-12583
illy	-12584
pfel	-12585
plom	-12586
rets	-12587
ucks	-12588
▁Bol	-12589
agger	-12590
insel	-12591
▁Snow	-12592
▁pool	-12593
gebiet	-12594
iology	-12595
stücke	-12596
uchtet	-12597
▁About	-12598
▁Autom	-12599
▁Große	-12600
▁Tiefe	-12601
▁datab	-12602
▁dozen	-12603
▁plays	-12604
▁polio	-12605
▁toxic	-12606
▁uncom	-12607
▁veran	-12608
örtlich	-12609
▁County	-12610
▁Schuhe	-12611
▁ausges	-12612
▁hunger	-12613
▁höhere	-12614
▁joined	-12615
▁lebens	-12616
▁limits	-12617
▁toilet	-12618
funktion	-12619
▁Verkauf	-12620
▁diagram	-12621
▁feeding	-12622
▁funding	-12623
▁grossen	-12624
▁gründen	-12625
▁library	-12626
▁nannten	-12627
▁overall	-12628
▁sensors	-12629
▁younger	-12630
▁Gegenden	-12631
▁Schlacht	-12632
▁bewirken	-12633
▁domestic	-12634
▁ernähren	-12635
▁gewisser	-12636
▁instruct	-12637
▁momentan	-12638
▁reagiert	-12639
▁wechseln	-12640
▁Geschäfte	-12641
▁Verbrauch	-12642
▁anzusehen	-12643
▁arguments	-12644
▁consumers	-12645
▁determine	-12646
▁disorders	-12647
▁standards	-12648
▁unterwegs	-12649
zeichnungen	-12650
▁Ingenieure	-12651
▁Richtungen	-12652
▁unsichtbar	-12653
▁educational	-12654
▁moralischen	-12655
▁vorbereitet	-12656
▁Wirtschaftsw	-12657
▁insbesondere	-12658
▁ursprünglich	-12659
▁Lebenserwartung	-12660
Wo	-12661
cr	-12662
bir	-12663
bly	-12664
irk	-12665
mat	-12666
Welt	-12667
afel	-12668
nütz	-12669
otes	-12670
umer	-12671
▁Acc	-12672
▁Nic	-12673
▁Zus	-12674
▁cha	-12675
▁rum	-12676
▁une	-12677
agnet	-12678
onien	-12679
▁2009	-12680
▁Beit	-12681
▁Bell	-12682
▁Dsch	-12683
▁Schm	-12684
▁Shir	-12685
▁Vert	-12686
▁desk	-12687
▁dign	-12688
▁naja	-12689
▁tube	-12690
▁zuzu	-12691
asters	-12692
gnügen	-12693
ördert	-12694
▁Anruf	-12695
▁Erste	-12696
▁Kateg	-12697
▁Moore	-12698
▁Polio	-12699
▁Scham	-12700
▁alltä	-12701
▁faced	-12702
▁paras	-12703
ektiven	-12704
schauen	-12705
station	-12706
▁Berlin	-12707
▁Ethiop	-12708
▁Faktor	-12709
▁Gemüse	-12710
▁angeht	-12711
▁chocol	-12712
▁erneut	-12713
▁sensor	-12714
abilität	-12715
computer	-12716
pendence	-12717
▁Neugier	-12718
▁Taschen	-12719
▁anticip	-12720
▁beunruh	-12721
▁carried	-12722
▁frankly	-12723
▁zurecht	-12724
▁Carolina	-12725
▁Erdbeben	-12726
▁Remember	-12727
▁grateful	-12728
▁illusion	-12729
▁infinite	-12730
▁obsessed	-12731
▁zurückge	-12732
▁Afrikaner	-12733
▁begreifen	-12734
▁breathing	-12735
▁corporate	-12736
▁niemanden	-12737
▁paintings	-12738
▁selection	-12739
krankheiten	-12740
▁Brustkrebs	-12741
▁Teilnehmer	-12742
▁philosophy	-12743
▁application	-12744
▁Mathematiker	-12745
▁fantastische	-12746
▁hinterlassen	-12747
▁automatically	-12748
▁dreidimension	-12749
Me	-12750
oz	-12751
100	-12752
dis	-12753
gly	-12754
sex	-12755
yon	-12756
aint	-12757
dach	-12758
gelt	-12759
utch	-12760
▁Seh	-12761
▁Tib	-12762
▁Übr	-12763
iolet	-12764
otter	-12765
seher	-12766
stage	-12767
▁Beij	-12768
▁Dame	-12769
▁Glet	-12770
▁Naja	-12771
▁Robo	-12772
▁Ross	-12773
▁SETI	-12774
▁Wann	-12775
▁Zehn	-12776
▁cash	-12777
▁plug	-12778
▁seas	-12779
▁stun	-12780
rition	-12781
▁Berge	-12782
▁Chile	-12783
▁Delhi	-12784
▁Kongo	-12785
▁fixed	-12786
▁globe	-12787
▁vital	-12788
▁wirkt	-12789
▁Gandhi	-12790
▁Watson	-12791
▁agreed	-12792
▁column	-12793
▁dauern	-12794
▁fokuss	-12795
▁marine	-12796
▁owners	-12797
äuschung	-12798
ücksicht	-12799
▁Inneren	-12800
▁Klavier	-12801
▁Spezial	-12802
▁Zweifel	-12803
▁earthqu	-12804
▁extinct	-12805
▁privacy	-12806
▁pushing	-12807
▁Leonardo	-12808
▁Problems	-12809
▁Ursprung	-12810
▁concepts	-12811
▁erfassen	-12812
▁organism	-12813
▁printing	-12814
▁symptoms	-12815
▁wünschte	-12816
▁Bedrohung	-12817
▁economies	-12818
▁identical	-12819
▁spezielle	-12820
technologie	-12821
▁Dunkelheit	-12822
▁Geographic	-12823
▁connecting	-12824
▁directions	-12825
▁hinzufügen	-12826
▁kulturelle	-12827
▁ländlichen	-12828
▁eigentliche	-12829
▁recognition	-12830
▁verursachen	-12831
▁conventional	-12832
▁konfrontiert	-12833
issenschaftler	-12834
▁interessanten	-12835
OL	-12836
bum	-12837
uan	-12838
▁42	-12839
gewe	-12840
real	-12841
rich	-12842
yrus	-12843
▁10.	-12844
▁Geh	-12845
▁mim	-12846
▁tea	-12847
cence	-12848
folgt	-12849
kular	-12850
lesen	-12851
night	-12852
ortet	-12853
▁Hung	-12854
▁Nähr	-12855
▁boom	-12856
▁cand	-12857
▁jail	-12858
▁lets	-12859
▁prem	-12860
▁tent	-12861
System	-12862
anlage	-12863
linien	-12864
öntgen	-12865
▁Asien	-12866
▁Indem	-12867
▁Teams	-12868
▁Zähne	-12869
▁alarm	-12870
▁flood	-12871
▁grows	-12872
▁honey	-12873
▁phase	-12874
▁pyram	-12875
▁scary	-12876
▁stack	-12877
▁stärk	-12878
konomen	-12879
osphere	-12880
▁Before	-12881
▁Tasman	-12882
▁assume	-12883
▁garant	-12884
▁murder	-12885
▁offers	-12886
▁placed	-12887
▁struck	-12888
▁tanzen	-12889
▁tested	-12890
▁Darüber	-12891
▁Verteid	-12892
▁breathe	-12893
▁causing	-12894
▁channel	-12895
▁constra	-12896
▁letzter	-12897
▁orchest	-12898
▁parking	-12899
▁schmerz	-12900
▁Brooklyn	-12901
▁Chinesen	-12902
▁Everyone	-12903
▁asteroid	-12904
▁brothers	-12905
▁equation	-12906
▁floating	-12907
▁glaubten	-12908
▁involves	-12909
▁seltsame	-12910
▁studiert	-12911
▁visuelle	-12912
▁Geschmack	-12913
▁Innerhalb	-12914
▁Parkinson	-12915
▁Plötzlich	-12916
▁animation	-12917
▁celebrate	-12918
▁Verwendung	-12919
▁eingeführt	-12920
▁genetische	-12921
▁Terroristen	-12922
▁astonishing	-12923
▁beigebracht	-12924
▁distributed	-12925
▁represented	-12926
▁technischen	-12927
▁wiederholen	-12928
▁Normalerweise	-12929
But	-12930
Wer	-12931
fäh	-12932
▁Et	-12933
▁IM	-12934
▁Wi	-12935
▁kr	-12936
abin	-12937
ifiz	-12938
ming	-12939
onna	-12940
ubes	-12941
uity	-12942
zten	-12943
älte	-12944
üter	-12945
▁30-	-12946
▁Ast	-12947
▁Bor	-12948
▁DVD	-12949
▁Mer	-12950
▁fan	-12951
▁ink	-12952
▁irr	-12953
▁Haar	-12954
▁Haie	-12955
▁Wolf	-12956
▁bold	-12957
▁poly	-12958
▁scan	-12959
▁sorg	-12960
▁verz	-12961
ederal	-12962
yright	-12963
▁Brand	-12964
▁Proto	-12965
▁decre	-12966
▁enemy	-12967
▁explo	-12968
▁imper	-12969
▁title	-12970
stehung	-12971
▁Machen	-12972
▁Rechen	-12973
▁Rechts	-12974
▁Rezept	-12975
▁Schild	-12976
▁Sweden	-12977
▁candid	-12978
▁colony	-12979
▁extend	-12980
▁kaufte	-12981
▁mainly	-12982
▁pocket	-12983
▁severe	-12984
▁spoken	-12985
▁Designs	-12986
▁Erfolgs	-12987
▁Finally	-12988
▁Systems	-12989
▁Verlauf	-12990
▁besucht	-12991
▁borders	-12992
▁divided	-12993
▁geteilt	-12994
▁starken	-12995
▁November	-12996
▁Systemen	-12997
▁berühren	-12998
▁elephant	-12999
▁kreative	-13000
▁lebenden	-13001
▁mehreren	-13002
▁outcomes	-13003
▁particle	-13004
▁philosop	-13005
▁vielmehr	-13006
▁Konflikte	-13007
▁Schmerzen	-13008
▁Umständen	-13009
▁component	-13010
▁presented	-13011
▁Heutzutage	-13012
▁fascinated	-13013
▁inequality	-13014
▁Wasserstoff	-13015
▁controlling	-13016
▁productivity	-13017
▁entertainment	-13018
hof	-13019
lag	-13020
obs	-13021
tät	-13022
▁2:	-13023
▁Ka	-13024
erzä	-13025
ocke	-13026
opes	-13027
prom	-13028
zero	-13029
▁IBM	-13030
▁Ren	-13031
▁Ron	-13032
▁Sea	-13033
▁zit	-13034
esity	-13035
isses	-13036
viele	-13037
änner	-13038
▁Base	-13039
▁Blau	-13040
▁Bord	-13041
▁Euch	-13042
▁Infe	-13043
▁Male	-13044
▁Sher	-13045
▁dict	-13046
▁gray	-13047
▁trug	-13048
▁zone	-13049
▁Absol	-13050
▁Democ	-13051
▁Level	-13052
▁rufen	-13053
▁teams	-13054
▁weißt	-13055
▁zählt	-13056
▁Number	-13057
▁Sicher	-13058
▁Singap	-13059
▁acknow	-13060
▁devast	-13061
▁extent	-13062
▁linear	-13063
▁machst	-13064
▁neigen	-13065
▁oberen	-13066
▁pandem	-13067
▁prices	-13068
▁rechte	-13069
▁robust	-13070
▁schlug	-13071
▁secure	-13072
▁worker	-13073
anischen	-13074
aufnahme	-13075
romagnet	-13076
▁Ausgang	-13077
▁Montere	-13078
▁Nothing	-13079
▁awesome	-13080
▁bizarre	-13081
▁concert	-13082
▁diverse	-13083
▁habitat	-13084
▁painful	-13085
▁vessels	-13086
▁Erinnern	-13087
▁Männchen	-13088
▁anhalten	-13089
▁anpassen	-13090
▁maintain	-13091
▁manifest	-13092
▁policies	-13093
▁romantic	-13094
▁Projekten	-13095
▁Schreiben	-13096
▁Weltkrieg	-13097
▁conflicts	-13098
▁furniture	-13099
▁increases	-13100
▁sculpture	-13101
▁translate	-13102
▁uncertain	-13103
▁Mobiltelef	-13104
▁exhibition	-13105
▁greenhouse	-13106
▁schwierige	-13107
▁Eigenschaft	-13108
▁präsentiert	-13109
▁entscheidend	-13110
▁interactions	-13111
▁Kommunikations	-13112
BC	-13113
aze	-13114
cus	-13115
eed	-13116
iße	-13117
▁4,	-13118
▁JA	-13119
amed	-13120
etts	-13121
pril	-13122
stät	-13123
uste	-13124
yers	-13125
▁20-	-13126
▁adm	-13127
▁pip	-13128
▁raw	-13129
angle	-13130
ikale	-13131
iller	-13132
isely	-13133
llung	-13134
rechn	-13135
ämpft	-13136
▁1900	-13137
▁Doug	-13138
▁Farm	-13139
▁Kond	-13140
▁limb	-13141
▁läng	-13142
▁ours	-13143
▁pour	-13144
▁till	-13145
auften	-13146
ikatur	-13147
irgend	-13148
utzend	-13149
würdig	-13150
▁Harry	-13151
▁Schok	-13152
▁Stone	-13153
▁athle	-13154
▁sales	-13155
▁tasks	-13156
gemacht	-13157
osphäre	-13158
problem	-13159
▁Extrem	-13160
▁Laufen	-13161
▁Wahlen	-13162
▁behave	-13163
▁legisl	-13164
▁proced	-13165
▁späten	-13166
▁wahren	-13167
▁Abraham	-13168
▁collaps	-13169
▁französ	-13170
▁housing	-13171
▁license	-13172
▁liefert	-13173
▁schlägt	-13174
▁stretch	-13175
▁traurig	-13176
▁unbelie	-13177
▁wieviel	-13178
▁Autismus	-13179
▁Fahrzeug	-13180
▁Faktoren	-13181
▁distinct	-13182
▁winzigen	-13183
▁Denkweise	-13184
▁Vorschlag	-13185
▁insurance	-13186
▁measuring	-13187
▁mitnehmen	-13188
▁Geschäftsm	-13189
▁besonderen	-13190
▁resistance	-13191
▁Neuigkeiten	-13192
▁organisiert	-13193
▁dramatically	-13194
▁Nachbarschaft	-13195
▁außergewöhnlich	-13196
any	-13197
eli	-13198
äck	-13199
▁0,	-13200
▁zü	-13201
ague	-13202
innt	-13203
kont	-13204
phas	-13205
quis	-13206
rome	-13207
▁192	-13208
▁Had	-13209
▁Joh	-13210
▁Oxy	-13211
▁Paz	-13212
▁sed	-13213
Unter	-13214
asant	-13215
lings	-13216
▁Diff	-13217
▁Dist	-13218
▁Girl	-13219
▁Iron	-13220
▁Pole	-13221
▁Zero	-13222
▁hilf	-13223
▁refr	-13224
▁scar	-13225
called	-13226
iratet	-13227
▁Bibel	-13228
▁Guten	-13229
▁Hawai	-13230
▁Misch	-13231
▁Sechs	-13232
▁accum	-13233
▁femin	-13234
▁mobil	-13235
▁ruhig	-13236
▁schüt	-13237
▁smoke	-13238
▁spark	-13239
▁tries	-13240
▁worum	-13241
izabeth	-13242
related	-13243
▁Aufbau	-13244
▁Futter	-13245
▁Leiter	-13246
▁Marken	-13247
▁Niveau	-13248
▁Portug	-13249
▁Shakes	-13250
▁Versch	-13251
▁Widers	-13252
▁Wright	-13253
▁agenda	-13254
▁fliegt	-13255
▁hearts	-13256
▁height	-13257
▁herein	-13258
▁heroes	-13259
▁liebte	-13260
▁lovely	-13261
▁soweit	-13262
▁winzig	-13263
▁wütend	-13264
▁dankbar	-13265
▁efforts	-13266
▁herself	-13267
▁positiv	-13268
ianischen	-13269
▁Monterey	-13270
▁Theorien	-13271
▁besuchte	-13272
▁breaking	-13273
▁laughing	-13274
▁recommen	-13275
▁recovery	-13276
▁traveled	-13277
▁Vergnügen	-13278
▁gestartet	-13279
▁prototype	-13280
▁commitment	-13281
▁consistent	-13282
▁performing	-13283
▁berücksicht	-13284
▁sogenannten	-13285
▁biologischen	-13286
▁Einrichtungen	-13287
▁verschiedener	-13288
--	-13289
Fl	-13290
zz	-13291
Ach	-13292
MMY	-13293
mod	-13294
UMMY	-13295
appt	-13296
dien	-13297
lers	-13298
ppen	-13299
rary	-13300
rein	-13301
walk	-13302
ückt	-13303
▁Dir	-13304
▁Kuh	-13305
▁Mio	-13306
ioxid	-13307
ohlen	-13308
oppel	-13309
orter	-13310
ralen	-13311
teils	-13312
using	-13313
▁Feed	-13314
▁guar	-13315
▁jewe	-13316
▁stol	-13317
▁wing	-13318
bringt	-13319
ichtum	-13320
▁Block	-13321
▁Stick	-13322
▁Still	-13323
▁highl	-13324
▁usual	-13325
▁whale	-13326
▁yield	-13327
brochen	-13328
unclear	-13329
▁Geruch	-13330
▁Höhlen	-13331
▁Michel	-13332
▁anonym	-13333
▁eradic	-13334
▁fabric	-13335
▁konsum	-13336
▁ladies	-13337
▁narrow	-13338
▁planen	-13339
▁schlau	-13340
▁vorhin	-13341
stellten	-13342
▁Islamic	-13343
▁Italien	-13344
▁Spinnen	-13345
▁Vorgang	-13346
▁distant	-13347
▁erinner	-13348
▁existed	-13349
▁finance	-13350
▁intense	-13351
▁militär	-13352
▁mystery	-13353
▁receive	-13354
▁savings	-13355
▁Erfinder	-13356
▁Richtige	-13357
▁Schulter	-13358
▁Spektrum	-13359
▁Trotzdem	-13360
▁achieved	-13361
▁eingehen	-13362
▁embedded	-13363
▁erfüllen	-13364
▁erklärte	-13365
▁erwähnen	-13366
▁flexible	-13367
▁treating	-13368
▁Belohnung	-13369
▁ausmachen	-13370
▁curiosity	-13371
▁dimension	-13372
▁exception	-13373
▁gesammelt	-13374
▁precisely	-13375
▁weltweite	-13376
▁investiert	-13377
▁vorsichtig	-13378
▁Interessant	-13379
▁entsprechen	-13380
▁interacting	-13381
▁elektrischen	-13382
▁leidenschaft	-13383
▁zurückkehren	-13384
▁Gleichgewicht	-13385
kra	-13386
änz	-13387
▁29	-13388
▁BM	-13389
▁Ev	-13390
▁ow	-13391
Aber	-13392
atts	-13393
brid	-13394
fehl	-13395
rand	-13396
sely	-13397
ühen	-13398
▁Fro	-13399
▁Mov	-13400
▁Sag	-13401
▁Uni	-13402
▁bon	-13403
▁wär	-13404
fähig	-13405
hlend	-13406
itial	-13407
oiden	-13408
▁Bier	-13409
▁Chen	-13410
▁diox	-13411
▁excl	-13412
▁sexy	-13413
chtern	-13414
decken	-13415
messer	-13416
▁Gebur	-13417
▁judge	-13418
▁Reihen	-13419
▁Reisen	-13420
▁bildet	-13421
▁conven	-13422
▁divide	-13423
▁escape	-13424
▁freund	-13425
▁lächer	-13426
▁plenty	-13427
▁prosth	-13428
▁stirbt	-13429
▁surely	-13430
▁Analyse	-13431
▁Lächeln	-13432
▁Nations	-13433
▁Neander	-13434
▁Röntgen	-13435
▁appears	-13436
▁ceiling	-13437
▁density	-13438
▁gesetzt	-13439
▁monitor	-13440
▁protest	-13441
▁raising	-13442
▁reflekt	-13443
▁stimmen	-13444
▁Africans	-13445
▁Behinder	-13446
▁Personal	-13447
▁appeared	-13448
▁disorder	-13449
▁dolphins	-13450
▁gelassen	-13451
▁riesiges	-13452
▁verfolgt	-13453
produktion	-13454
ungssystem	-13455
▁beitragen	-13456
▁berechnen	-13457
▁denselben	-13458
▁destroyed	-13459
▁inspiring	-13460
▁dazwischen	-13461
▁ignorieren	-13462
▁Präsidenten	-13463
▁expectations	-13464
▁wunderschöne	-13465
▁identifizieren	-13466
eff	-13467
▁är	-13468
amie	-13469
meid	-13470
▁193	-13471
▁Jay	-13472
▁Mig	-13473
▁Ohr	-13474
▁Wen	-13475
▁Wut	-13476
▁ast	-13477
▁enl	-13478
▁ärm	-13479
acted	-13480
amine	-13481
aumen	-13482
fined	-13483
iente	-13484
riebs	-13485
riffe	-13486
▁Carl	-13487
▁Glüh	-13488
▁Laur	-13489
▁Next	-13490
▁appe	-13491
▁axis	-13492
▁flip	-13493
▁glac	-13494
▁inkl	-13495
▁lung	-13496
graben	-13497
kultur	-13498
lernen	-13499
lichem	-13500
porter	-13501
▁Beton	-13502
▁Front	-13503
▁Immun	-13504
▁Küche	-13505
▁Party	-13506
▁abuse	-13507
▁alien	-13508
▁brach	-13509
▁dense	-13510
▁jenen	-13511
▁knock	-13512
▁mikro	-13513
▁recyc	-13514
▁shake	-13515
▁therm	-13516
▁utter	-13517
quently	-13518
▁20,000	-13519
▁Church	-13520
▁Glücks	-13521
▁Großen	-13522
▁Medium	-13523
▁Organe	-13524
▁Spring	-13525
▁arrang	-13526
▁frozen	-13527
▁ignore	-13528
▁immune	-13529
▁phrase	-13530
▁thrown	-13531
▁Anstieg	-13532
▁Flächen	-13533
▁Konstru	-13534
▁Skelett	-13535
▁dignity	-13536
▁erneuer	-13537
▁opposed	-13538
▁suicide	-13539
ränkungen	-13540
ulationen	-13541
▁Batterie	-13542
▁Gefangen	-13543
▁Pinguine	-13544
▁Virginia	-13545
▁attached	-13546
▁befreien	-13547
▁dominant	-13548
▁gründete	-13549
▁imagined	-13550
▁magnetic	-13551
▁meetings	-13552
▁properly	-13553
▁reaching	-13554
▁vernünft	-13555
▁Plattform	-13556
▁chocolate	-13557
ischerweise	-13558
▁arabischen	-13559
▁department	-13560
▁langweilig	-13561
▁motivation	-13562
▁optimistic	-13563
▁reparieren	-13564
▁simplicity	-13565
▁innovations	-13566
▁personality	-13567
▁populations	-13568
▁zurückgehen	-13569
▁mittlerweile	-13570
▁Investitionen	-13571
▁Weltbevölkerung	-13572
En	-13573
lu	-13574
Auf	-13575
pal	-13576
ype	-13577
▁Ku	-13578
▁Rö	-13579
▁Sn	-13580
▁cm	-13581
iday	-13582
wass	-13583
▁202	-13584
▁Dec	-13585
▁Prü	-13586
▁Vin	-13587
▁twe	-13588
▁wem	-13589
ented	-13590
küste	-13591
legte	-13592
usted	-13593
vater	-13594
▁Nutz	-13595
▁ausb	-13596
▁denk	-13597
▁dumm	-13598
▁ehem	-13599
▁fung	-13600
▁klug	-13601
▁ugly	-13602
fische	-13603
gender	-13604
ktoren	-13605
sphäre	-13606
uanten	-13607
uition	-13608
▁Aller	-13609
▁April	-13610
▁Bruno	-13611
▁Enkel	-13612
▁Hitze	-13613
▁Logik	-13614
▁Sagen	-13615
▁Subst	-13616
▁Szene	-13617
▁fried	-13618
▁hoher	-13619
▁japan	-13620
▁likes	-13621
▁orbit	-13622
▁schme	-13623
aktoren	-13624
forward	-13625
gencies	-13626
schafft	-13627
uchtung	-13628
▁Dialog	-13629
▁Joshua	-13630
▁Teufel	-13631
▁Umgang	-13632
▁deinem	-13633
▁dialog	-13634
▁facial	-13635
▁geheim	-13636
▁gewann	-13637
▁inject	-13638
▁kaputt	-13639
▁lebend	-13640
▁rating	-13641
▁repeat	-13642
▁retire	-13643
▁signed	-13644
▁sports	-13645
▁wenden	-13646
▁zufäll	-13647
aufgaben	-13648
ineering	-13649
▁Bericht	-13650
▁Charlie	-13651
▁Clinton	-13652
▁Muslims	-13653
▁balloon	-13654
▁benutze	-13655
▁dioxide	-13656
▁dunklen	-13657
▁entered	-13658
▁mächtig	-13659
▁obesity	-13660
▁Atlantic	-13661
▁Gebieten	-13662
▁academic	-13663
▁captured	-13664
▁confront	-13665
▁download	-13666
▁höchsten	-13667
▁leuchten	-13668
▁shooting	-13669
▁shoulder	-13670
geschlagen	-13671
▁Karikatur	-13672
▁chemische	-13673
▁reduction	-13674
▁Jedenfalls	-13675
▁Reaktionen	-13676
▁Anwendungen	-13677
▁Einfachheit	-13678
▁Transparenz	-13679
▁disappeared	-13680
▁genetischen	-13681
CH	-13682
And	-13683
reu	-13684
züg	-13685
▁37	-13686
▁AM	-13687
ackt	-13688
bart	-13689
iebt	-13690
imps	-13691
orld	-13692
rest	-13693
▁15-	-13694
▁BIP	-13695
▁CEO	-13696
▁Fal	-13697
▁Lev	-13698
▁Six	-13699
▁Wes	-13700
▁enh	-13701
▁wet	-13702
▁ört	-13703
class	-13704
meter	-13705
olera	-13706
ouver	-13707
peare	-13708
quent	-13709
while	-13710
ürzen	-13711
▁Anti	-13712
▁Brad	-13713
▁Füße	-13714
▁Mahl	-13715
▁Saal	-13716
▁Turn	-13717
▁depr	-13718
▁shar	-13719
acular	-13720
cepted	-13721
etzung	-13722
igaret	-13723
ighted	-13724
ropfen	-13725
▁Buddh	-13726
▁Serie	-13727
▁Wände	-13728
▁abund	-13729
▁angle	-13730
▁harte	-13731
▁jenem	-13732
▁korre	-13733
▁könne	-13734
▁laser	-13735
▁liver	-13736
▁route	-13737
▁seeds	-13738
▁sheep	-13739
▁units	-13740
▁verpf	-13741
▁verur	-13742
ichtung	-13743
ospiele	-13744
▁50,000	-13745
▁Besitz	-13746
▁Econom	-13747
▁Nathan	-13748
▁Proben	-13749
▁Rollen	-13750
▁Rwanda	-13751
▁Tränen	-13752
▁Wälder	-13753
▁hassen	-13754
▁intent	-13755
▁tricks	-13756
▁weapon	-13757
▁öffnet	-13758
▁Eastern	-13759
▁Treffen	-13760
▁Ursache	-13761
▁angehen	-13762
▁brechen	-13763
▁höheren	-13764
▁inspire	-13765
▁kreiert	-13766
▁lernten	-13767
▁muscles	-13768
▁neither	-13769
▁scratch	-13770
▁trigger	-13771
▁whereas	-13772
▁Ausnahme	-13773
▁Children	-13774
▁Demonstr	-13775
▁Dokument	-13776
▁Epidemie	-13777
▁Hinblick	-13778
▁aircraft	-13779
▁begrenzt	-13780
▁estimate	-13781
▁frighten	-13782
▁gerettet	-13783
▁hierarch	-13784
▁hindurch	-13785
▁horizont	-13786
▁Effizienz	-13787
▁Internets	-13788
▁Weihnacht	-13789
▁authentic	-13790
▁customers	-13791
▁dedicated	-13792
▁depending	-13793
▁describes	-13794
▁elsewhere	-13795
▁intention	-13796
▁Mitglieder	-13797
▁accessible	-13798
▁angemessen	-13799
▁emotionale	-13800
▁incentives	-13801
▁microscope	-13802
▁recognized	-13803
▁chinesische	-13804
▁wundervolle	-13805
▁Ungleichheit	-13806
▁photographer	-13807
▁traditionelle	-13808
eds	-13809
via	-13810
▁EM	-13811
▁Hi	-13812
ahen	-13813
fare	-13814
fine	-13815
kord	-13816
ktis	-13817
lies	-13818
onic	-13819
oots	-13820
ürzt	-13821
▁Bek	-13822
▁Hub	-13823
▁Kos	-13824
▁Lad	-13825
▁MRI	-13826
▁Neg	-13827
▁Van	-13828
▁cas	-13829
▁cup	-13830
▁les	-13831
▁tip	-13832
▁unb	-13833
aders	-13834
estet	-13835
gebra	-13836
geord	-13837
grade	-13838
▁Cour	-13839
▁Klar	-13840
▁Myth	-13841
▁Ruhe	-13842
▁Term	-13843
▁aust	-13844
▁beer	-13845
▁eval	-13846
▁flog	-13847
▁gefl	-13848
▁rely	-13849
▁rush	-13850
ailand	-13851
annter	-13852
fältig	-13853
klasse	-13854
▁Craig	-13855
▁Griff	-13856
▁Hyper	-13857
▁Leber	-13858
▁Meere	-13859
▁Ocean	-13860
▁Robot	-13861
▁Smart	-13862
▁Tragö	-13863
▁Trend	-13864
▁Voice	-13865
▁brown	-13866
▁crack	-13867
▁finds	-13868
▁saßen	-13869
▁schol	-13870
century	-13871
gebiete	-13872
▁Atomen	-13873
▁Bedarf	-13874
▁Erzähl	-13875
▁Really	-13876
▁Zurück	-13877
▁bother	-13878
▁chosen	-13879
▁einzuf	-13880
▁kommer	-13881
▁legacy	-13882
▁offene	-13883
▁oldest	-13884
▁rising	-13885
▁scales	-13886
▁schaue	-13887
▁trends	-13888
▁underg	-13889
gelassen	-13890
▁Büchern	-13891
▁Dutzend	-13892
▁January	-13893
▁aspects	-13894
▁beliefs	-13895
▁charity	-13896
▁elegant	-13897
▁footage	-13898
▁implant	-13899
▁letting	-13900
▁methods	-13901
▁origami	-13902
▁richten	-13903
▁suspect	-13904
▁touched	-13905
technolog	-13906
volutions	-13907
▁Diabetes	-13908
▁Feedback	-13909
▁criminal	-13910
▁gemessen	-13911
▁getrennt	-13912
▁heiraten	-13913
▁wahrhaft	-13914
▁Gespräche	-13915
▁Verfahren	-13916
▁backwards	-13917
▁berichtet	-13918
▁committed	-13919
▁musicians	-13920
▁Handlungen	-13921
▁Motivation	-13922
▁collecting	-13923
▁gemeinnütz	-13924
▁governance	-13925
▁strategies	-13926
▁Katastrophe	-13927
▁Konsumenten	-13928
▁Philosophie	-13929
▁advertising	-13930
▁anscheinend	-13931
▁glücklicher	-13932
▁irgendeinem	-13933
▁philanthrop	-13934
▁photography	-13935
▁schlimmsten	-13936
▁Menschlichkeit	-13937
oie	-13938
ran	-13939
zur	-13940
▁Wa	-13941
eums	-13942
kopf	-13943
ockt	-13944
osit	-13945
rang	-13946
städ	-13947
unft	-13948
utan	-13949
wort	-13950
▁Ign	-13951
▁Sav	-13952
▁Tri	-13953
athol	-13954
ricul	-13955
ronen	-13956
▁Grie	-13957
▁Mumb	-13958
▁Näch	-13959
▁bath	-13960
▁cute	-13961
▁defe	-13962
▁dump	-13963
▁fulf	-13964
▁hing	-13965
▁häss	-13966
▁lieb	-13967
▁triv	-13968
▁umso	-13969
dollar	-13970
folgen	-13971
geräte	-13972
ziplin	-13973
▁Camer	-13974
▁Gramm	-13975
▁Indus	-13976
▁Moder	-13977
▁Pferd	-13978
▁Poliz	-13979
▁Santa	-13980
▁atmen	-13981
▁begrü	-13982
▁bewir	-13983
▁chest	-13984
▁drove	-13985
▁meter	-13986
▁minus	-13987
▁purch	-13988
▁stieg	-13989
▁unvor	-13990
▁youth	-13991
▁öfter	-13992
ference	-13993
nderung	-13994
spieler	-13995
staaten	-13996
äuschen	-13997
▁Abhäng	-13998
▁Bauste	-13999
▁Früher	-14000
▁Leiden	-14001
▁Palest	-14002
▁beseit	-14003
▁billig	-14004
▁clinic	-14005
▁crying	-14006
▁formal	-14007
▁intuit	-14008
▁paraly	-14009
▁propos	-14010
▁qualif	-14011
▁sonder	-14012
▁tribes	-14013
ierendes	-14014
▁Everest	-14015
▁Flederm	-14016
▁Kinders	-14017
▁Muskeln	-14018
▁Protein	-14019
▁Schokol	-14020
▁Wurzeln	-14021
▁bedeckt	-14022
▁crucial	-14023
▁mammals	-14024
▁pretend	-14025
▁schwere	-14026
▁section	-14027
▁unsicht	-14028
▁verletz	-14029
▁Aufstieg	-14030
▁Diplomat	-14031
▁Prozesse	-14032
▁Vermögen	-14033
▁aktuelle	-14034
▁darkness	-14035
▁früheren	-14036
▁guarante	-14037
▁minister	-14038
▁nebenbei	-14039
▁provides	-14040
▁stations	-14041
▁verletzt	-14042
▁vertical	-14043
▁Elizabeth	-14044
▁Entschuld	-14045
▁Maßnahmen	-14046
▁colleague	-14047
▁emergency	-14048
▁mittleren	-14049
▁Funktionen	-14050
▁boundaries	-14051
▁historical	-14052
▁protecting	-14053
▁regelmäßig	-14054
▁Katastrophen	-14055
▁Unternehmens	-14056
10	-14057
Ges	-14058
oen	-14059
▁0.	-14060
ault	-14061
lter	-14062
▁Kok	-14063
▁ate	-14064
▁hem	-14065
▁hip	-14066
▁hug	-14067
▁lit	-14068
▁nit	-14069
▁obl	-14070
▁prü	-14071
aches	-14072
erten	-14073
ikely	-14074
liest	-14075
lösen	-14076
▁2003	-14077
▁Brut	-14078
▁Kühl	-14079
▁Mall	-14080
▁Mama	-14081
▁NGOs	-14082
▁Pitt	-14083
▁Real	-14084
▁Sier	-14085
▁cens	-14086
▁golf	-14087
▁toys	-14088
action	-14089
archie	-14090
istern	-14091
wählen	-14092
▁Marke	-14093
▁Prior	-14094
▁Simon	-14095
▁aband	-14096
▁aside	-14097
▁crops	-14098
▁einzu	-14099
▁fluid	-14100
▁geöff	-14101
▁lokal	-14102
▁males	-14103
▁reefs	-14104
▁rocks	-14105
▁skull	-14106
▁womit	-14107
▁übern	-14108
Projekt	-14109
illance	-14110
▁Columb	-14111
▁Fahrer	-14112
▁Kommen	-14113
▁Mozart	-14114
▁Nature	-14115
▁Philip	-14116
▁Ratten	-14117
▁actors	-14118
▁drehte	-14119
▁enthus	-14120
▁keines	-14121
▁powers	-14122
▁umwelt	-14123
▁Blätter	-14124
▁Dadurch	-14125
▁bicycle	-14126
▁cheaper	-14127
▁extract	-14128
▁gewöhnt	-14129
▁initial	-14130
▁instant	-14131
▁jeweils	-14132
▁lebende	-14133
▁lecture	-14134
▁reflect	-14135
▁tragedy	-14136
▁wanting	-14137
▁Diagnose	-14138
▁Fotograf	-14139
▁Symptome	-14140
▁eröffnet	-14141
▁gesunden	-14142
▁hardware	-14143
▁kleinere	-14144
▁organize	-14145
▁symmetry	-14146
▁Architekt	-14147
▁Versuchen	-14148
▁benutzten	-14149
▁continues	-14150
▁gezwungen	-14151
▁infiziert	-14152
▁nationale	-14153
▁neugierig	-14154
▁privilege	-14155
▁searching	-14156
▁virtually	-14157
▁Strategien	-14158
▁Wichtigste	-14159
▁capitalism	-14160
▁functional	-14161
▁inzwischen	-14162
▁nachhaltig	-14163
▁Oberflächen	-14164
▁electronics	-14165
▁grandfather	-14166
▁unternehmen	-14167
▁transparency	-14168
▁Universitäten	-14169
▁communications	-14170
wa	-14171
yo	-14172
üd	-14173
?",	-14174
Gen	-14175
eid	-14176
nik	-14177
oma	-14178
oup	-14179
pox	-14180
öch	-14181
▁48	-14182
akul	-14183
inke	-14184
mass	-14185
oole	-14186
rump	-14187
äher	-14188
öten	-14189
▁190	-14190
▁Bef	-14191
▁Dop	-14192
▁Göt	-14193
▁Lux	-14194
There	-14195
ckets	-14196
eters	-14197
ringe	-14198
rückt	-14199
ttern	-14200
ziell	-14201
▁2001	-14202
▁Abed	-14203
▁Appl	-14204
▁Dick	-14205
▁Ehre	-14206
▁Jord	-14207
▁Konz	-14208
▁Vict	-14209
▁boss	-14210
▁choo	-14211
▁dish	-14212
▁hire	-14213
▁mold	-14214
▁prev	-14215
▁spin	-14216
▁unin	-14217
fahrer	-14218
gänger	-14219
handel	-14220
iellen	-14221
schild	-14222
wellen	-14223
▁Bible	-14224
▁Ernst	-14225
▁Figur	-14226
▁Geoff	-14227
▁Sorge	-14228
▁Waffe	-14229
▁advoc	-14230
▁chief	-14231
▁elder	-14232
▁illeg	-14233
▁islam	-14234
▁pione	-14235
▁posit	-14236
▁stops	-14237
angehen	-14238
projekt	-14239
quellen	-14240
ylinder	-14241
▁Mumbai	-14242
▁Preise	-14243
▁Vortra	-14244
▁beides	-14245
▁feiern	-14246
▁intrig	-14247
▁missed	-14248
▁simult	-14249
▁tenden	-14250
▁transc	-14251
▁verlor	-14252
▁vierte	-14253
American	-14254
▁Beijing	-14255
▁Brother	-14256
▁Erstaun	-14257
▁Handeln	-14258
▁Lehrern	-14259
▁airport	-14260
▁amongst	-14261
▁paradox	-14262
▁suspend	-14263
▁trocken	-14264
▁widersp	-14265
▁Gebäudes	-14266
▁Jonathan	-14267
▁ausmacht	-14268
▁concentr	-14269
▁diabetes	-14270
▁equality	-14271
▁laughter	-14272
▁lighting	-14273
▁northern	-14274
▁produces	-14275
▁sandwich	-14276
▁schickte	-14277
▁unlikely	-14278
▁verzweif	-14279
▁Überwach	-14280
▁Treibhaus	-14281
▁generated	-14282
▁indischen	-14283
▁insgesamt	-14284
▁Organismus	-14285
▁contribute	-14286
▁Shakespeare	-14287
▁chimpanzees	-14288
▁kulturellen	-14289
▁spectacular	-14290
▁Verbesserung	-14291
▁Globalisierung	-14292
▁Geschichtenerzä	-14293
Fi	-14294
Let	-14295
Und	-14296
hew	-14297
top	-14298
urd	-14299
ürt	-14300
▁31	-14301
▁4.	-14302
▁46	-14303
▁Ba	-14304
▁DP	-14305
▁Hu	-14306
▁SP	-14307
▁UC	-14308
beln	-14309
itis	-14310
reme	-14311
rons	-14312
stal	-14313
viet	-14314
▁Oct	-14315
▁Syr	-14316
▁ham	-14317
▁lap	-14318
allow	-14319
athon	-14320
cular	-14321
größe	-14322
iance	-14323
romos	-14324
ruppe	-14325
thiop	-14326
worth	-14327
▁Coca	-14328
▁Fels	-14329
▁Held	-14330
▁Juni	-14331
▁Marg	-14332
▁adop	-14333
▁seek	-14334
▁sink	-14335
Wissen	-14336
ersten	-14337
spanne	-14338
sprach	-14339
vision	-14340
▁Hören	-14341
▁Lewis	-14342
▁dicht	-14343
▁guide	-14344
▁miser	-14345
▁tears	-14346
▁views	-14347
iveness	-14348
▁Anweis	-14349
▁Disney	-14350
▁Gipfel	-14351
▁Metern	-14352
▁Sahara	-14353
▁Tasche	-14354
▁adding	-14355
▁attrib	-14356
▁auszud	-14357
▁borrow	-14358
▁compos	-14359
▁echtes	-14360
▁emphas	-14361
▁hardly	-14362
▁hungry	-14363
▁legend	-14364
▁nahezu	-14365
▁reveal	-14366
▁stable	-14367
▁wartet	-14368
children	-14369
gefallen	-14370
mögliche	-14371
▁Fremden	-14372
▁Seattle	-14373
▁attract	-14374
▁exposed	-14375
▁geraten	-14376
▁graphic	-14377
▁höchste	-14378
▁liberal	-14379
▁stammen	-14380
▁Hinweise	-14381
▁Sensoren	-14382
▁accepted	-14383
▁anbieten	-14384
▁anstelle	-14385
▁contract	-14386
▁dynamics	-14387
▁surfaces	-14388
▁Christian	-14389
▁Höhepunkt	-14390
▁Resultate	-14391
▁nachdenkt	-14392
▁primitive	-14393
▁strangers	-14394
▁weibliche	-14395
▁affordable	-14396
▁earthquake	-14397
▁ecosystems	-14398
▁engagement	-14399
▁übersetzen	-14400
▁Videospiele	-14401
▁analysieren	-14402
▁demonstrate	-14403
▁einzigartig	-14404
OK	-14405
RA	-14406
lem	-14407
pie	-14408
▁72	-14409
▁Bu	-14410
AIDS	-14411
ahar	-14412
baum	-14413
case	-14414
strö	-14415
uana	-14416
uens	-14417
vier	-14418
▁17.	-14419
▁Bez	-14420
▁Tar	-14421
▁liv	-14422
ading	-14423
eiden	-14424
kohol	-14425
▁Symb	-14426
▁Work	-14427
▁ages	-14428
▁anfü	-14429
▁anst	-14430
▁batt	-14431
▁debt	-14432
▁entt	-14433
▁fram	-14434
▁gefr	-14435
▁glad	-14436
▁halt	-14437
▁leap	-14438
▁peer	-14439
▁tech	-14440
ptions	-14441
straße	-14442
tempor	-14443
uklear	-14444
vested	-14445
▁2000,	-14446
▁Katze	-14447
▁Löwen	-14448
▁Never	-14449
▁Risik	-14450
▁Staub	-14451
▁Wärme	-14452
▁anste	-14453
▁conce	-14454
▁fruit	-14455
▁heben	-14456
▁jelly	-14457
▁spots	-14458
▁veter	-14459
▁wirft	-14460
▁yours	-14461
gemeine	-14462
politik	-14463
wandeln	-14464
▁Indeed	-14465
▁Januar	-14466
▁Sektor	-14467
▁Sierra	-14468
▁Vorder	-14469
▁distra	-14470
▁fertil	-14471
▁innere	-14472
▁mochte	-14473
▁output	-14474
▁poison	-14475
▁Sequenz	-14476
▁beträgt	-14477
▁constru	-14478
▁enormen	-14479
▁entfern	-14480
▁indigen	-14481
▁radikal	-14482
▁session	-14483
▁speaker	-14484
▁verließ	-14485
▁änderte	-14486
▁Amerikas	-14487
▁Arbeitsk	-14488
▁Schweine	-14489
▁Umstände	-14490
▁erkunden	-14491
▁hingehen	-14492
▁textbook	-14493
▁Übrigens	-14494
▁antworten	-14495
▁apartment	-14496
▁gegenwärt	-14497
▁physicist	-14498
▁verpflich	-14499
▁Schwestern	-14500
▁Versorgung	-14501
▁apparently	-14502
▁resolution	-14503
▁volunteers	-14504
▁wirklichen	-14505
▁Alternative	-14506
▁diskutieren	-14507
▁zukünftigen	-14508
▁Privatsphäre	-14509
▁universities	-14510
organisationen	-14511
Can	-14512
Reg	-14513
iva	-14514
ozi	-14515
til	-14516
öne	-14517
▁id	-14518
azin	-14519
fäll	-14520
gebä	-14521
keep	-14522
ktar	-14523
pest	-14524
yard	-14525
ästh	-14526
▁Syl	-14527
▁Val	-14528
▁dum	-14529
▁fed	-14530
▁tum	-14531
deten	-14532
embly	-14533
gänge	-14534
keley	-14535
spect	-14536
wohnt	-14537
▁Chip	-14538
▁Fing	-14539
▁Horm	-14540
▁Stil	-14541
▁Sund	-14542
▁bias	-14543
▁brow	-14544
▁dust	-14545
▁häuf	-14546
▁intr	-14547
▁knee	-14548
▁mice	-14549
▁nets	-14550
Mensch	-14551
breite	-14552
iessen	-14553
lessly	-14554
school	-14555
uelles	-14556
zenten	-14557
▁2009,	-14558
▁Links	-14559
▁Louis	-14560
▁Watch	-14561
▁beruh	-14562
▁breit	-14563
▁craft	-14564
▁dient	-14565
▁dirty	-14566
▁exakt	-14567
▁expos	-14568
▁freie	-14569
▁genoc	-14570
▁hydro	-14571
▁pilot	-14572
▁stets	-14573
▁upset	-14574
▁wings	-14575
▁Übung	-14576
bleiben	-14577
cellent	-14578
enhagen	-14579
▁Kredit	-14580
▁Moskit	-14581
▁Social	-14582
▁Varian	-14583
▁Werden	-14584
▁achiev	-14585
▁adoles	-14586
▁aufzus	-14587
▁commod	-14588
▁ehemal	-14589
▁erlaub	-14590
▁evolve	-14591
▁farmer	-14592
▁füllen	-14593
▁locked	-14594
▁poster	-14595
▁verlei	-14596
inkommen	-14597
jähriger	-14598
▁Ehemann	-14599
▁Rosling	-14600
▁Schnell	-14601
▁advance	-14602
▁anfängt	-14603
▁defense	-14604
▁essence	-14605
▁pointed	-14606
▁setzten	-14607
▁wheelch	-14608
▁Überall	-14609
▁Oxytocin	-14610
▁Weibchen	-14611
▁agencies	-14612
▁ausgehen	-14613
▁ausgesch	-14614
▁bewahren	-14615
▁contains	-14616
▁football	-14617
▁geöffnet	-14618
▁globally	-14619
▁includes	-14620
▁pregnant	-14621
▁sinnvoll	-14622
▁smallpox	-14623
▁sozialer	-14624
▁Übergang	-14625
wohnheiten	-14626
▁Ansichten	-14627
▁Nachfrage	-14628
▁Statistik	-14629
▁Symmetrie	-14630
▁accidents	-14631
▁bedeutend	-14632
▁depressed	-14633
▁implement	-14634
▁physische	-14635
▁visuellen	-14636
▁Entstehung	-14637
▁Population	-14638
▁Prototypen	-14639
▁Selbstmord	-14640
▁Verteilung	-14641
▁afterwards	-14642
▁physischen	-14643
▁wiederholt	-14644
▁Flüssigkeit	-14645
▁Komponenten	-14646
▁ingredients	-14647
▁unterhalten	-14648
▁chinesischen	-14649
▁festgestellt	-14650
▁irgendwelche	-14651
▁surveillance	-14652
▁neighborhoods	-14653
',	-14654
isy	-14655
pat	-14656
wan	-14657
▁vo	-14658
agte	-14659
apor	-14660
phan	-14661
ueen	-14662
zone	-14663
▁Cap	-14664
▁Git	-14665
▁ego	-14666
▁hüb	-14667
▁mic	-14668
asien	-14669
entin	-14670
essel	-14671
krise	-14672
oenix	-14673
selbe	-14674
stern	-14675
uppen	-14676
▁Brie	-14677
▁Data	-14678
▁Rein	-14679
▁Urkn	-14680
▁hack	-14681
▁lift	-14682
▁pile	-14683
▁soap	-14684
▁trat	-14685
Global	-14686
fachen	-14687
gested	-14688
othing	-14689
▁Achse	-14690
▁Blase	-14691
▁Keith	-14692
▁Knopf	-14693
▁Künst	-14694
▁Lesen	-14695
▁Nadel	-14696
▁Tauch	-14697
▁Wasch	-14698
▁blank	-14699
▁disag	-14700
▁fifth	-14701
▁opens	-14702
▁realm	-14703
▁seats	-14704
▁selbe	-14705
erkrank	-14706
iminals	-14707
version	-14708
▁Arabic	-14709
▁Jewish	-14710
▁Muskel	-14711
▁Sprung	-14712
▁Trends	-14713
▁Wohlbe	-14714
▁barely	-14715
▁emerge	-14716
▁keinem	-14717
▁neural	-14718
▁rescue	-14719
▁shadow	-14720
▁silent	-14721
▁smooth	-14722
▁verbre	-14723
gleichen	-14724
gression	-14725
leuchten	-14726
▁Anthrop	-14727
▁Digital	-14728
▁Pflanze	-14729
▁circles	-14730
▁disgust	-14731
▁ersetzt	-14732
▁ethical	-14733
▁gesunde	-14734
▁granted	-14735
▁passing	-14736
▁prosper	-14737
▁pyramid	-14738
▁removed	-14739
▁symbols	-14740
▁traject	-14741
▁zuhören	-14742
akthrough	-14743
leuchtung	-14744
▁Baseball	-14745
▁Biologen	-14746
▁Einblick	-14747
▁Gefahren	-14748
▁Konzepte	-14749
▁Schlagze	-14750
▁Schülern	-14751
▁Therapie	-14752
▁aufrecht	-14753
▁gefahren	-14754
▁jenseits	-14755
▁künstler	-14756
▁vorwärts	-14757
▁Fahrzeuge	-14758
▁Techniken	-14759
▁Toiletten	-14760
▁abgesehen	-14761
▁announced	-14762
▁calculate	-14763
▁empfinden	-14764
▁politisch	-14765
▁variation	-14766
▁verrückte	-14767
▁ähnlichen	-14768
▁Ausrüstung	-14769
▁ausgegeben	-14770
▁terrorists	-14771
▁verstecken	-14772
abhängigkeit	-14773
▁consequence	-14774
▁schizophren	-14775
▁underground	-14776
▁Berechnungen	-14777
▁hinsichtlich	-14778
▁intelligente	-14779
▁neuroscience	-14780
▁beeindruckend	-14781
▁globalization	-14782
▁repräsentiert	-14783
Ab	-14784
isa	-14785
pan	-14786
abwe	-14787
blog	-14788
eral	-14789
ffer	-14790
meth	-14791
miss	-14792
tery	-14793
▁'60	-14794
▁130	-14795
▁Fer	-14796
▁Moh	-14797
▁Süß	-14798
▁Tee	-14799
▁Tok	-14800
▁Zie	-14801
▁woo	-14802
gehör	-14803
uldig	-14804
▁Coun	-14805
▁Hind	-14806
▁Love	-14807
▁Musl	-14808
▁Spur	-14809
▁Wäre	-14810
▁biod	-14811
▁cord	-14812
▁decl	-14813
▁dick	-14814
▁flag	-14815
▁mate	-14816
▁quer	-14817
▁vorn	-14818
dliche	-14819
hängen	-14820
▁Appar	-14821
▁Aster	-14822
▁Extra	-14823
▁Frühl	-14824
▁Haare	-14825
▁Kamer	-14826
▁Mathe	-14827
▁Schon	-14828
▁circa	-14829
▁enthü	-14830
▁flour	-14831
▁recru	-14832
▁roots	-14833
▁verbr	-14834
geladen	-14835
legenen	-14836
onderes	-14837
▁Hawaii	-14838
▁Luther	-14839
▁Soviet	-14840
▁Stille	-14841
▁Vagina	-14842
▁Wilson	-14843
▁befest	-14844
▁danken	-14845
▁degrad	-14846
▁höchst	-14847
▁kooper	-14848
▁stores	-14849
▁strand	-14850
▁subtle	-14851
▁werdet	-14852
▁ältere	-14853
beziehen	-14854
ventions	-14855
▁Atlanta	-14856
▁Through	-14857
▁bedroht	-14858
▁briefly	-14859
▁chapter	-14860
▁consume	-14861
▁erfüllt	-14862
▁painted	-14863
▁pulling	-14864
▁shelter	-14865
▁visited	-14866
▁Erschein	-14867
▁Gebrauch	-14868
▁Griechen	-14869
▁Kontroll	-14870
▁McDonald	-14871
▁Mitglied	-14872
▁Schwarze	-14873
▁Stiftung	-14874
▁Toilette	-14875
▁befassen	-14876
▁benutzte	-14877
▁controls	-14878
▁einziges	-14879
▁erlangen	-14880
▁freiwill	-14881
▁geworfen	-14882
▁isolated	-14883
▁privaten	-14884
▁returned	-14885
▁speakers	-14886
▁theories	-14887
▁Abenteuer	-14888
▁Kreislauf	-14889
▁aktuellen	-14890
▁elections	-14891
▁inklusive	-14892
▁separated	-14893
▁uncomfort	-14894
▁Standpunkt	-14895
▁capability	-14896
▁entdeckten	-14897
▁integrated	-14898
▁vermittelt	-14899
▁angetrieben	-14900
▁discoveries	-14901
▁profitieren	-14902
▁vorgestellt	-14903
▁breakthrough	-14904
▁Produktivität	-14905
'.	-14906
40	-14907
Cl	-14908
NC	-14909
aws	-14910
inu	-14911
jet	-14912
lor	-14913
sec	-14914
zne	-14915
▁AK	-14916
[...]
