reation~~21107
▁LS~~20807
▁repräsentieren~~4473
▁Diabetes~~11238
▁erzählen~~85
aturday~~19431
▁embry~~18799
▁Fleisch~~6070
four~~13812
▁Mig~~14572
▁nannte~~13647
▁Gould~~19856
dienste~~14461
physik~~15054
▁bedeutende~~7025
▁Kanäle~~14002
▁Mythos~~14712
▁Nairobi~~14299
▁rebell~~13382
▁Tansania~~14486
ruck~~7732
▁klicken~~14290
▁Chin~~11873
▁suchten~~9699
▁leichten~~9715
▁EDI~~21204
▁Chip~~11930
▁Glenn~~16883
scheiden~~17902
▁1998,~~18654
▁Amazon~~11698
▁spiral~~18381
▁April~~10565
▁Innovationen~~2655
gängig~~11068
zulegen~~11804
▁Träumen~~6437
izophren~~20137
▁Beteiligung~~10322
▁15,000~~21044
üge~~12262
▁Anteil~~2058
▁Gandhi~~3681
▁Geoffrey~~20054
Hier~~6841
▁Acht~~9416
ügt~~4520
iquid~~15687
ütter~~2441
üttet~~6751
▁ultraviolet~~14010
▁Treffen~~2800
▁Navy~~15753
immung~~17847
▁ap~~18151
▁mutig~~7839
▁erfüllen~~8931
▁orient~~2726
▁Zunge~~12295
haber~~8862
schung~~6744
▁Größen~~387
▁Raten~~10712
volutions~~18087
▁techn~~17019
ilzt~~14834
▁Symbol~~10415
▁Million~~3354
▁Kleid~~16848
▁negative~~14239
▁Verlangen~~13661
▁hingehen~~5490
fect~~20940
▁vorbei~~5570
▁diesmal~~8255
▁blau~~14030
quare~~19254
▁elimin~~1956
▁radio~~18752
▁Freunde~~1330
▁Queens~~16257
è~~20446
▁Vorträge~~10942
▁gereist~~3843
▁Coll~~16189
▁intervention~~20833
A~~2904
▁illustr~~16258
▁programm~~16565
▁Deep~~12627
▁entschl~~9283
▁blah~~20347
▁Huhn~~11831
▁Pot~~11730
▁unbekannt~~7196
▁verpasst~~7421
▁Pop~~5311
▁Por~~3952
▁Pos~~16858
▁laun~~19035
otal~~18194
▁OP~~13539
▁infrast~~20364
▁laut~~3627
greif~~1326
▁Pog~~18175
▁Var~~15527
▁Schwier~~6541
punkt~~5783
▁Stimmen~~3661
▁Puppen~~17497
▁kognitiven~~13142
▁wenden~~8833
▁Extra~~12229
▁heroin~~20762
▁Metapher~~10601
▁ähnlich~~5210
▁normalerweise~~2912
ateg~~5972
hern~~10663
▁vorher~~3707
▁verär~~18027
atem~~5397
aten~~2817
▁verhindern~~9055
here~~10224
▁Darwin~~11808
herz~~10372
▁unterst~~4079
▁hypothet~~17797
unde~~10128
▁Pille~~17050
ater~~8748
ates~~8729
hers~~6218
herr~~8153
▁Großeltern~~3373
▁Depression~~1749
ful~~18912
aud~~13952
▁kreativ~~1496
▁filter~~20569
wasserstoff~~16429
▁Frosch~~14542
▁Fremden~~16248
k~~308
▁Chic~~8592
▁Spiel~~1173
▁Ring~~8052
▁Rind~~11826
zial~~8400
▁Lange~~73
▁RS~~19581
iban~~5635
▁Vernetzung~~14415
head~~19493
▁wilden~~3203
▁hear~~19947
ailand~~3159
▁schnitt~~2095
indest~~14642
▁Nick~~8189
▁Case~~18991
▁bestät~~8488
▁Vorteile~~1288
reichen~~4080
▁dabei~~2154
▁maß~~15637
bänder~~17288
▁mischen~~17347
▁zehnt~~18133
teten~~10246
ction~~11865
▁erlauben~~5107
stern~~830
aun~~9817
▁wilder~~18845
▁Rake~~19884
▁Ziemlich~~13881
▁anrufen~~1801
▁Bild~~570
<s>~~2
▁Tragö~~17299
itha~~18280
▁Hälfte~~3941
▁anfü~~15520
▁Bill~~72
isierte~~1481
▁Entwicklungsl~~8954
▁Erlebnisse~~13140
▁SOPA~~20003
usive~~18169
▁unhe~~17955
▁Nagel~~15544
ptions~~18899
musik~~3796
züglich~~2256
▁Schleimpilz~~21186
▁Hinsicht~~5208
▁Gehör~~14459
▁erre~~2878
▁weit~~919
▁Farben~~1639
9.~~5008
▁Schluss~~1107
holt~~4318
▁militär~~15748
▁Kanz~~18209
bringt~~9651
99~~17229
▁Abkürz~~13679
▁gewissermaßen~~4976
▁weib~~12664
▁Götter~~13774
pper~~16201
hole~~16708
hold~~20993
▁weil~~287
▁Schatz~~16718
▁Academy~~16892
▁temper~~20884
▁Einst~~13687
▁Kompl~~15818
▁kart~~7408
▁unser~~382
▁360~~15676
▁erzogen~~1408
▁Mem~~15761
▁intra~~18411
▁Identität~~3170
▁Satell~~18781
ändig~~9171
▁hoffen~~4987
▁inse~~20393
▁Erwärmung~~15216
Le~~6989
▁Toilette~~7579
wand~~4474
▁Verwendung~~8462
ängern~~5336
▁Anton~~7626
▁Schafe~~4226
digit~~11361
geber~~1888
▁Learn~~20676
geben~~2147
▁würden~~2947
▁lea~~20951
umin~~19432
▁Poster~~5519
▁Süd~~3844
▁Kette~~11718
▁yeah~~5310
hof~~2713
amma~~19298
▁isol~~14284
LA~~19530
▁Potential~~2235
hol~~5795
▁Nähe~~4897
Jetzt~~13674
▁ansehen~~517
how~~10615
hot~~10963
hou~~14669
hor~~11976
gebieten~~2824
hop~~19603
amme~~9457
▁Nähr~~15303
▁Streich~~14832
▁Sehr~~1232
▁ökolog~~8815
▁Lehrer~~2329
▁Kreis~~2291
iefer~~11539
▁Einmal~~10573
astic~~19093
▁neue~~264
▁edit~~19837
▁TEDMED~~10938
▁Dreh~~14814
▁erstens~~4130
▁smarter~~20637
eland~~16197
mechanik~~20828
▁Kelly~~14340
iefen~~3616
▁purp~~20728
▁abgelegenen~~5825
▁world~~20052
▁Sehn~~9807
kriegs~~5749
▁Lehren~~18082
▁Broadmoor~~21071
größe~~2363
aving~~11268
▁bedro~~14157
▁Schauspieler~~4417
chern~~1488
▁gingen~~1456
▁Ebene~~2107
▁verwende~~9512
▁orig~~19277
getragen~~11047
▁schien~~5227
▁elabor~~21055
abhäng~~1891
▁kannte~~8299
▁Campus~~13875
wing~~17586
▁paar~~88
▁Sonnt~~6234
▁Verwir~~14927
▁protest~~12779
itative~~20868
▁want~~19846
▁Lügen~~14081
▁Elemente~~11431
▁Rollen~~14138
▁Wikip~~20280
ammern~~924
▁enormen~~5750
vard~~15610
▁wann~~1859
bling~~19210
▁Terroristen~~16148
▁besten~~1885
▁wand~~11542
▁Odys~~19733
wana~~20080
﻿~~20554
▁Haben~~3981
fir~~16867
▁Treat~~19824
fit~~14931
kkoli~~15270
▁Vortrags~~1576
▁hunger~~18359
▁profit~~12386
▁Elektronen~~14032
inas~~16865
▁opp~~20612
▁lernten~~12845
▁archite~~19271
▁Johnny~~7605
inal~~14110
▁Grey~~9053
▁britischen~~9084
▁millimeter~~20422
cipl~~21252
ürger~~16755
fin~~4078
hlung~~959
fil~~11713
▁computer~~15866
▁Beine~~7169
▁Being~~7729
verbindungen~~17798
▁John~~7832
▁angere~~10147
▁Remix~~12470
hängt~~15197
▁Alternativen~~16456
▁chore~~14690
▁Belohn~~14374
gesch~~6114
▁deswegen~~4350
▁Kultur~~1249
via~~17711
▁nahen~~8975
lant~~18291
▁Lehre~~9830
▁nic~~19426
setzung~~2517
▁Sterben~~8178
hänge~~12810
▁bezahlt~~2366
▁stehen~~148
▁Patientin~~6663
▁Weltbank~~8550
wol~~15907
▁..."~~7572
▁Kentucky~~15995
▁nation~~14990
▁kontakt~~15130
▁Dop~~18780
▁eindeut~~8301
abl~~12346
▁Verluste~~8577
▁verurs~~9879
▁verdoppeln~~15296
▁regnet~~18326
ifikation~~10063
▁Brook~~11728
▁durchschnitt~~138
▁br~~5270
Ç~~20601
▁ident~~11898
osit~~16552
▁Staates~~10731
▁raus~~1825
osis~~7616
▁by~~19199
▁Infe~~6650
▁Staaten~~1814
▁be~~944
▁ernähren~~6064
▁Rechnung~~16703
▁rauf~~6733
▁Mittagessen~~1966
▁bl~~2851
▁Verrück~~4703
▁bi~~17685
▁vieles~~6008
ru~~2756
röhren~~11622
▁bestanden~~18207
▁Pred~~12731
aufte~~16253
haben~~10610
▁Mahmoud~~20325
▁Konsumenten~~8486
ussten~~17159
ry~~3911
▁Okt~~434
re~~111
▁Nummern~~15183
▁Affen~~11858
▁bedenken~~6204
ra~~916
▁Schweine~~6247
berecht~~19347
▁Höhepunkt~~7296
ro~~1094
Super~~11759
▁vielen~~1241
▁Dom~~17096
fahrung~~10216
▁Church~~15443
unktion~~11071
▁Weißen~~13377
▁Schwerkraft~~16602
erten~~10172
▁Armen~~11960
What~~17154
▁Mitte~~2891
ndern~~18821
▁Einladung~~6418
▁sicherer~~14003
▁Religionen~~1640
▁not~~10187
ate~~800
▁Verbesserungen~~2386
gewinn~~16477
▁lädt~~4952
ata~~6061
ato~~12518
▁Russell~~17252
emein~~17770
=~~19049
▁Cancer~~19195
ath~~4940
ati~~9753
▁Songs~~5342
att~~7843
adt~~6239
ats~~4421
▁News~~11686
▁Öl~~13542
angehen~~2603
▁crowds~~19445
▁Sendung~~8716
atz~~9242
mutter~~14686
▁Ök~~15891
tö~~19916
ährung~~15305
▁Many~~20723
cup~~20398
▁treibt~~1149
▁aufgebaut~~12888
▁reflektiert~~5449
titude~~20471
▁zutrifft~~14623
▁relativ~~1271
▁Gefäng~~10686
▁paras~~20147
▁Manh~~15440
▁Mann~~3587
▁berüh~~16895
▁Hadron~~20263
force~~14440
▁fangen~~500
▁Mang~~18128
▁Mand~~16587
▁verstehe~~8207
olds~~18197
▁Fischen~~7040
▁saub~~17055
▁Sunday~~20414
fluen~~19321
▁NSA~~16116
lege~~7663
▁retro~~16721
ärt~~6408
▁umfasst~~11405
fassung~~1991
▁Jesus~~16391
phan~~9524
▁Prototypen~~10005
teen~~20979
ärm~~957
iogen~~17435
rons~~19337
orrow~~18369
▁AIDS~~14487
legt~~2114
igenden~~17700
äre~~4697
▁Frankreich~~5678
▁teil~~3848
essp~~20846
LS~~17622
▁enttäuscht~~7884
▁Verhandlungen~~13460
▁frustriert~~13625
▁Architekt~~6036
▁Hät~~17542
▁mögliche~~5494
▁peinlich~~8303
▁daran~~1435
▁nachhalt~~17172
▁Außerdem~~5852
▁Jack~~15820
Stre~~11362
▁großartigen~~10329
▁entwickelten~~8953
▁öffentlich~~10082
osition~~3759
▁frei~~4669
chtest~~12291
▁private~~16307
▁leer~~11274
phal~~19587
▁HIV~~8998
▁wütend~~7599
▁Ordnung~~3598
iar~~10344
▁großartiger~~11630
▁großartiges~~12699
este~~2561
▁Behörden~~12772
▁Barmherz~~20282
▁Fußball~~1714
▁Beschäft~~18738
'000~~7342
▁Monat~~7189
▁schnellsten~~17983
esth~~19089
▁Fellow~~13146
ystemen~~2555
▁Neuseeland~~11040
ests~~10173
▁saubere~~12881
▁Leid~~13209
▁misst~~5152
esty~~19621
‒~~21017
▁Schöpfer~~10774
▁detaill~~3484
▁Andererseits~~4543
▁Mind~~16622
▁Hit~~15381
ennig~~21054
▁Mini~~11458
affe~~17048
▁wovon~~6885
eles~~17532
handlungen~~13459
▁lehrte~~11409
hum~~18040
▁Fabriken~~5854
▁Erleb~~11161
▁Besonderes~~1822
▁städtische~~18219
▁politisch~~13490
▁Darstellung~~12112
▁akzept~~1987
▁berücksicht~~21001
nen~~7909
▁Gewicht~~2835
▁rand~~18921
▁großer~~4187
▁großes~~6092
▁Bret~~18653
▁Mobilfunk~~17257
▁Pitts~~11775
▁basierend~~10293
asil~~21128
▁ließen~~12308
schirme~~17559
letter~~19291
▁großen~~342
zyme~~16464
quar~~15984
summen~~6358
▁Leit~~9652
seil~~18571
▁Säulen~~931
▁Raumes~~11502
▁Wohnzimmer~~5581
irur~~15917
obyl~~17720
▁verwandt~~12428
▁Gründe~~1819
▁Erschein~~3131
arbeitern~~2455
tech~~7923
rays~~20777
▁designed~~19133
▁Söhne~~7692
▁Bonobos~~16484
▁prototyp~~19743
gefangen~~5164
schafter~~5717
issions~~15044
▁qual~~12435
prim~~18564
▁Umständen~~7397
cherch~~20474
▁indische~~8623
▁quad~~13109
▁veröffentlichen~~9566
straßen~~13504
liest~~8757
▁Beweis~~9260
▁depressiv~~18073
▁Wird~~13838
▁Bildern~~494
ökonom~~4069
▁Wollen~~11448
essoren~~17398
▁Wirk~~4868
schaften~~6918
abyrinth~~10974
▁Variante~~15801
isphere~~20144
▁Anrei~~19626
▁dün~~12124
▁wächst~~2205
ment~~4880
uzinationen~~14551
rict~~16680
▁Untersuchung~~1619
▁Kontext~~2211
▁Erwartungen~~8465
▁Vergangenheit~~1113
than~~19921
▁Gebilde~~10693
▁persönliche~~3733
uliert~~1674
rich~~18078
mend~~10605
▁Rep~~19221
uktion~~11640
▁dür~~9018
▁Vide~~9662
prägt~~12818
▁Träger~~10909
entliche~~6065
ultural~~13738
löser~~16362
iate~~3114
▁wiederholt~~4189
‘~~17404
▁Erscheinung~~12144
▁Angiogenese~~20334
▁Album~~14831
▁Aussehen~~11623
X~~8556
▁Koran~~13395
▁illegal~~16001
▁Algen~~6972
▁Raketen~~5552
platz~~3710
ücht~~8963
▁freie~~5173
lebens~~6340
▁batter~~9893
▁Skiz~~14817
▁Einwohner~~1274
▁intelligen~~20321
▁gewöhnt~~5079
ever~~9211
▁Things~~20470
ologisch~~14605
nes~~17500
oke~~14114
▁Bever~~19880
▁micro~~20198
gewicht~~6497
Netz~~15171
▁freis~~3115
▁Entschuld~~16314
ady~~13564
▁grundsätz~~11803
chniken~~15465
▁fundamentale~~6309
▁Ausnahme~~7333
▁freiz~~4671
ated~~18891
▁meiner~~284
Gruppe~~4444
▁adaptive~~19761
bles~~20463
▁Klick~~10263
cles~~20664
▁une~~16760
zahlen~~11737
▁Netzwerk~~4626
etic~~16460
bled~~9780
▁angerufen~~3829
orben~~12826
Afrika~~13989
▁Jahrzehnt~~2480
blem~~20176
schützer~~6912
▁Ländern~~2183
▁Ehem~~3708
▁Oregon~~13503
▁meinem~~3789
▁meinen~~3129
▁Connecticut~~13249
fangen~~11516
▁Tisch~~7127
▁gewö~~12440
▁Leute~~2141
uder~~17777
▁infer~~14564
▁unschuldig~~15890
ringt~~654
weiter~~4457
▁solches~~16493
▁solcher~~4213
weiten~~15261
▁vorgeschlagen~~7072
figur~~4609
▁solchen~~4227
irl~~17494
irm~~7730
irn~~1476
▁designen~~12671
▁Oberfläche~~721
ira~~19334
ringe~~18570
irc~~13693
ird~~9519
ire~~2779
▁Atomb~~15213
side~~10817
▁übersch~~14055
▁zunächst~~2021
rollen~~3416
▁Titus~~19435
▁Risikok~~7248
▁entwarf~~15746
▁evolutionären~~11812
ask~~15103
▁Bananen~~14590
öse~~1441
annung~~8846
▁ausgewählt~~1585
▁Mechanismen~~13021
▁Ideal~~6328
▁Herzens~~18278
▁Galile~~19831
▁frühe~~5379
öst~~12466
ränken~~4357
öss~~18792
▁beschuld~~16161
ë~~19998
enschw~~17896
▁Ingenieure~~9719
▁bewegt~~164
▁Klass~~3378
▁Verbesser~~9544
▁MRT~~13133
▁irgendwelche~~4614
ching~~16374
▁foss~~14741
probiert~~20411
▁dein~~1543
▁Vorurteile~~10770
schuhe~~3973
▁gelähmt~~6685
▁MRI~~2991
▁internationalen~~2699
▁rate~~18691
▁Wachstums~~15589
▁vermute~~9889
esis~~18890
and~~3774
▁center~~19014
▁Balance~~12018
ements~~14187
raits~~15938
▁passierte~~5648
▁verhindert~~9058
igkeiten~~11996
active~~19251
▁Voyager~~10648
ffin~~19473
▁trugen~~9384
ffic~~19821
rene~~19274
▁grossen~~5245
▁jemanden~~4878
zuschauen~~15081
▁jemandem~~4511
▁impl~~17886
▁Try~~20813
fra~~10684
äglich~~9138
▁Paz~~10491
▁irgendeinen~~6481
▁irgendeinem~~5009
▁Pay~~19037
isher~~8720
▁Block~~6565
▁Pat~~13707
schafts~~14951
▁Par~~3186
▁ausser~~7319
kasten~~11046
.~~70
lehnen~~14356
▁schrecklich~~3029
▁Pam~~18098
▁Hölle~~1070
▁immerhin~~4402
stadium~~16071
▁stattgefunden~~9353
ann~~6411
▁sympt~~17960
spir~~15840
life~~10742
▁Anfang~~1996
▁verbringen~~1978
▁Comedy~~16235
▁außer~~835
▁Kick~~7782
▁sodass~~8076
▁gleichzeitig~~2124
athol~~12949
athon~~13532
▁außen~~4010
herapie~~16052
ersp~~6690
onym~~9476
erst~~915
▁Rätsel~~10284
artiges~~8634
▁länd~~8610
▁kosten~~8460
▁graben~~13888
▁überleben~~4044
▁Acker~~14323
▁gemeinsamen~~6306
▁Lebenserwartung~~9115
▁irgendein~~7817
▁schmutz~~15542
▁verpf~~19008
verläss~~14602
gefügt~~17346
▁Verbraucher~~15658
▁begehen~~4274
usion~~8831
▁gemeinsames~~7939
risch~~8864
▁kostet~~2345
▁Bandbreite~~10797
▁Kohlen~~15243
▁Bewohner~~2393
artigen~~938
rent~~8520
▁Northern~~18459
▁Treib~~5803
▁Lassen~~1962
▁Mentor~~16779
▁]~~19975
▁verfügt~~9777
▁Wag~~5174
▁tatsächlich~~437
▁Erinn~~13908
▁leihen~~13833
▁Repl~~12853
▁bemü~~17367
▁falsch~~4487
▁Was~~482
▁War~~3538
▁empf~~8946
anges~~16976
▁Way~~18562
▁Pol~~5856
▁herausgestellt~~4183
▁besorgt~~2472
▁Afr~~8429
wenden~~6916
▁Hiroshima~~16935
▁Films~~3144
▁color~~20871
▁Aff~~17898
▁narrative~~3148
▁stol~~7746
▁SS~~18465
▁Gerät~~9509
▁Filme~~3145
▁roten~~5571
▁Opp~~16639
förmige~~949
inson~~16068
▁staat~~12615
wendet~~2237
neten~~5042
▁Ärztin~~12049
▁technologischen~~5113
▁Alaska~~18690
putation~~17967
▁moderne~~6044
▁Anekd~~13032
▁symbols~~15486
▁Dies~~2129
▁liefert~~12369
ã~~20310
dra~~9336
hör~~7499
▁meistens~~5904
ustom~~18732
▁Laden~~8038
▁Hüfte~~17956
geist~~14282
▁fossilen~~6103
neter~~7259
aufen~~11427
▁solch~~9344
ural~~17083
▁verge~~13558
▁Instrumente~~4755
▁kooper~~7295
▁Vill~~19814
▁taucht~~13797
▁influen~~19547
▁Fallschirm~~5710
ikanische~~4495
▁Pend~~16142
▁Analog~~12872
anim~~20277
ören~~1927
▁Mein~~3778
verstanden~~13215
äuschung~~17819
▁Broadway~~16188
▁begreifen~~4084
▁Zehen~~18449
▁Olymp~~1652
wahl~~1590
▁ursprünglich~~6496
▁8,~~11468
▁merkwürdig~~13513
▁8.~~10945
▁Oxytocin~~4666
ordin~~18509
▁lo~~10556
▁84~~5990
▁überwältigt~~12720
▁86~~14608
▁verstehen~~796
▁80~~2069
▁artist~~19882
▁82~~8559
▁83~~5656
▁Maus~~9225
▁Maur~~10338
wahr~~17583
üpf~~9725
▁89~~14606
sprecher~~13393
▁erzeugt~~4648
▁Gleichheit~~2219
▁zahlreiche~~9013
▁Betroffen~~6862
▁gemein~~9072
hal~~5736
ham~~8010
han~~14419
▁Frühling~~7005
hab~~8495
▁auszusehen~~14096
frage~~8439
haf~~18121
Or~~14206
▁Flagge~~5540
geld~~13895
hythm~~19969
▁ausgere~~13686
▁Ausstellung~~5674
▁Chirur~~19679
▁Gener~~9034
▁laufen~~2870
har~~12528
▁Radio~~5337
▁lap~~20799
▁Koll~~7120
Come~~20130
▁Lauf~~5167
▁ursprüngliche~~9234
▁diagnostiziert~~12050
igungen~~9232
▁Träume~~10538
▁Verteid~~13837
▁Julie~~19724
▁Hennig~~18039
▁Koordin~~10833
▁Laut~~5212
itty~~17389
inosaur~~15828
▁gehabt~~4195
▁Laur~~17568
▁beschrieben~~8631
▁Vertrauens~~18115
▁harten~~7922
hängig~~12204
▁Second~~16673
▁erkennen~~2048
▁Leistung~~2182
▁schlimme~~12256
▁herauskommen~~12432
▁Stufen~~13885
▁Anders~~9186
▁aufregend~~117
imicry~~20513
▁Prüf~~15397
penden~~18944
▁Designer~~6454
▁1990,~~19288
▁bekannten~~10595
agram~~19243
▁phys~~6779
▁Gedichte~~17369
▁pack~~1201
▁Andere~~4243
▁lustige~~985
▁Bre~~539
▁geheime~~9591
old~~12447
ole~~592
olf~~15851
oli~~16497
reicher~~2707
▁spezielle~~2934
System~~4992
lebigkeit~~9196
▁belegt~~10135
▁studierte~~8217
▁Gitter~~12127
▁Aquarium~~5934
▁law~~20897
▁Organismen~~9155
cal~~17509
▁Gegenwart~~7588
▁beantw~~10245
ibel~~11219
▁platziert~~5135
ications~~9687
▁intellekt~~15573
urfing~~16097
ump~~11336
ums~~6853
▁just~~1215
▁machten~~4144
▁Bestes~~5394
▁board~~20259
ume~~18798
▁umstritten~~2172
▁Besten~~3764
umm~~4304
▁Watson~~17335
fon~~9884
▁übermitteln~~5099
▁Bro~~14842
▁gebrauchen~~1373
▁Urs~~20115
aries~~20693
▁Projekt~~4172
annah~~18956
fish~~20415
arbeiten~~3666
▁Profit~~8447
rückt~~1721
binden~~8012
▁Prakt~~10618
ina~~6820
▁Dutzende~~2884
arbeitet~~272
arbeiter~~2456
ierungen~~8479
ustand~~17324
▁andauer~~11814
gefunden~~12998
▁Schnitt~~4935
odies~~17492
▁Verfahren~~2173
▁geöff~~19376
▁Welten~~6825
adet~~16036
▁Bru~~17623
▁Weis~~17974
▁gucken~~440
▁Weit~~11189
ader~~1075
ades~~12657
▁aufbl~~13245
▁zä~~7504
cular~~12131
o~~6
▁endgült~~6264
aded~~21089
▁biolog~~11913
▁zü~~7218
▁Weib~~18161
▁schm~~8079
▁Gesundheitsw~~4502
adem~~7776
aden~~4948
▁komplexes~~16055
▁Weil~~1915
▁Wein~~3815
▁besuchte~~9637
▁umso~~6058
▁Dün~~15912
chte~~1262
▁Arbeitsplatz~~1724
resse~~15178
yen~~17773
▁Helden~~7326
umann~~18306
▁Gedanken~~2994
▁zusehen~~7976
▁Typen~~5624
▁beur~~12263
häng~~18032
lieben~~4818
▁wissenschaft~~486
▁intelligent~~11820
▁Mov~~19526
▁beängstigend~~9354
haupt~~13471
▁hielt~~8020
▁Dür~~11998
▁Whole~~18809
zubereiten~~7095
▁legitim~~9092
▁Year~~12893
lehnt~~11210
▁Szen~~15078
▁physisch~~9204
fabrik~~12832
▁höchst~~10399
Hand~~13708
zusagen~~7876
▁Matth~~18190
▁person~~18504
▁Antibiotika~~9183
▁BBC~~19361
spring~~17098
▁jahre~~6392
▁Yeah~~18474
anch~~17858
▁deutschen~~2431
otten~~7198
schrift~~4844
öglich~~13237
▁Engine~~15322
▁PM~~16773
leiden~~15227
▁unterbrochen~~10176
▁Beide~~8298
▁skal~~16574
ündeten~~13458
leidet~~11009
▁moralische~~12758
▁Chancen~~2224
▁Genen~~9313
ottet~~18833
▁Botschaften~~9051
▁hoffentlich~~6958
esearch~~20389
reu~~16888
▁epile~~20109
otter~~3747
▁Neun~~11972
amerikanischen~~6978
ieten~~3318
▁Good~~10226
▁Antikörper~~15480
reitet~~6696
▁sahen~~764
▁verwendete~~9873
▁nötigen~~6954
aze~~14379
endete~~7950
▁was~~176
▁war~~606
näck~~7368
▁verteilt~~2233
▁grus~~11422
▁Nachmittag~~11548
▁Austral~~13004
üchter~~15273
▁Gerichts~~9796
▁Delph~~1629
abwe~~14452
▁Besprech~~13515
<unk>~~1
esens~~7250
▁Stück~~775
▁benötigten~~9020
elos~~12419
esent~~13916
irst~~6451
▁kosm~~14648
ervative~~12501
▁upper~~19697
ationen~~2881
ortun~~19796
eloc~~15848
sparen~~7509
'.~~13592
▁PC~~8977
▁lächer~~9122
▁Mäuse~~9210
9,~~3371
▁älter~~3372
ichten~~9732
leep~~10512
▁Glas~~4009
ektiven~~20729
▁Mom~~17537
ritte~~4475
▁drückt~~16311
unehmen~~17368
▁Glad~~8759
bewusst~~13328
▁Supermarkt~~5547
▁Verträge~~15819
ichtet~~4011
▁Summe~~8826
wart~~6794
▁regional~~6355
▁Gem~~6347
▁Gel~~12296
▁Geo~~18256
▁Gen~~1411
E~~804
▁Geh~~6557
▁gefährlichen~~14621
▁Ged~~3368
▁probieren~~7423
▁Robot~~15326
▁Erdbeben~~189
▁CERN~~17458
▁Geb~~1299
▁massive~~2385
nel~~18578
modell~~5465
▁Get~~11510
▁Gew~~6370
▁Louis~~3840
▁1918~~13821
▁kürz~~9282
▁Ges~~7458
ßen~~5902
▁Proben~~5964
reicht~~8258
asure~~20099
▁Nad~~10683
▁Kandid~~17198
▁legte~~8774
imming~~19232
▁Hen~~18893
▁Versicherung~~18403
▁Benki~~19746
▁Vielzahl~~2808
pfel~~12272
reiche~~10916
▁angenehm~~2360
▁hilfreich~~3086
▁Büch~~10667
▁gesammelt~~5926
▁Bewertung~~2025
▁Selektion~~9310
▁besaßen~~18880
azines~~18948
Why~~21154
aube~~14538
▁Bindung~~11194
▁rad~~9275
volle~~2720
osp~~18263
oss~~1513
▁Clint~~14294
ost~~9663
▁ran~~10839
▁Ange~~13781
aubt~~14843
osh~~7413
▁Natürlich~~2533
▁ras~~7447
▁rat~~12819
geladen~~10967
oso~~8399
▁typisch~~9179
ople~~17386
osc~~16076
▁sent~~17831
ose~~871
▁sm~~17732
macht~~8594
▁Tricks~~14006
vet~~17184
öpfe~~11634
ver~~580
äuschen~~2398
qualität~~2770
iversity~~19705
▁Christopher~~2979
▁beliebige~~15633
tef~~19726
rel~~11901
▁fung~~3919
▁Beteil~~6900
öpft~~11016
strahlung~~11533
▁Mexico~~11646
▁fotografiert~~6926
▁Fokus~~2407
ven~~6813
▁Umgebungen~~11809
vel~~15460
eseit~~17053
Bahn~~16232
yers~~19622
▁Best~~1156
▁Zustände~~13236
▁Los~~5801
▁Lot~~13182
▁Lou~~16480
▁Faz~~17620
▁Bess~~1327
▁Platz~~1240
▁sprich~~11492
▁Anlage~~12797
▁Force~~7750
▁Far~~8580
▁Fas~~9668
enntnis~~12621
▁Lob~~3486
▁tour~~14100
ective~~20872
▁dringen~~6400
ikh~~16646
▁Log~~13898
▁Haiti~~12910
▁so~~316
▁Mary~~14868
▁Glaube~~13487
▁Fab~~3187
▁präsentiert~~3908
▁Abhäng~~14315
ängt~~11298
ilage~~21251
▁bauten~~6536
tex~~15420
▁befolgen~~18101
▁Angebot~~14358
otransmit~~6725
Tag~~13186
änge~~4601
▁manchmal~~4161
▁sicherstellen~~14483
▁HG~~21144
▁Geschehen~~6925
▁Richard~~12242
tschaft~~8968
▁Toronto~~6369
▁schwarz~~3477
▁egal~~1858
za~~17383
fehlen~~1843
▁Dör~~19029
▁Wünsche~~8300
▁ausgegeben~~2331
▁Michigan~~8565
▁Neut~~16628
sign~~18777
ähmt~~7593
▁seitdem~~3777
▁Cross~~12742
▁emot~~17638
▁Disziplinen~~14313
redict~~21108
anzig~~7182
▁Struktur~~5209
ves~~19633
icro~~15187
▁knapp~~7801
▁way~~20475
▁Schaf~~11882
▁Schad~~5977
mäß~~2254
▁ride~~19949
▁innere~~7560
▁Auftrag~~6564
▁iPh~~13658
▁Dass~~8741
▁Atmosphäre~~2846
▁hand~~6608
▁Schau~~5936
ords~~3405
meld~~10123
Me~~4532
▁Zeichen~~3891
bo~~6592
▁Luxus~~15533
▁fragten~~1463
▁bieten~~3197
▁Rückmeldung~~17951
▁Revolution~~1210
▁Sektor~~15018
▁Leinwand~~3267
▁bietet~~3665
▁remix~~12553
O~~5175
Ms~~8139
Mr~~3365
alone~~16548
zepte~~8541
▁wussten~~642
biet~~13787
My~~5123
▁erstaunlich~~864
Daten~~15036
▁Ew~~13217
▁Innenstadt~~7603
▁diver~~17364
▁beginnen~~797
▁Wen~~8920
▁brut~~7379
▁zurückkehren~~7815
ML~~7010
▁geek~~20279
hältnis~~10790
▁Nam~~18270
▁fire~~14967
koppl~~16945
itäten~~1637
▁durcheinander~~5246
▁Grafik~~5514
▁foundation~~20768
▁Vordergrund~~10982
▁firm~~20177
▁Performance~~13929
▁Züge~~9409
▁Fett~~12073
▁draht~~17606
▁Sean~~19357
▁Kosten~~2337
▁Danach~~4347
Naja~~9079
atürlich~~4510
▁erledigen~~6887
▁Umweltschutz~~11295
bs~~8881
▁Fahrzeug~~13932
▁ökonomische~~17467
umpf~~8091
ips~~11966
ipp~~4988
ibliot~~16397
▁String~~13294
illiarden~~17530
llung~~14277
▁Tasman~~18338
▁wün~~5614
▁Punkte~~5572
▁Baseball~~8247
▁Meiner~~8505
▁los~~840
igerung~~12608
▁chron~~3101
▁Ethik~~5743
▁low~~16645
positive~~16772
La~~14682
▁Real~~15337
opping~~6174
▁Draht~~13870
▁lob~~7591
wood~~8995
▁einerseits~~13354
▁Domin~~16738
▁log~~6543
▁lok~~6894
▁beis~~10262
folger~~12682
▁sou~~20220
▁bew~~1395
opädie~~18800
▁Nazi~~3619
▁Treibhaus~~17246
▁Airb~~18569
▁worum~~5474
afft~~15625
▁Himmel~~3338
okus~~15386
üren~~15030
▁CE~~18267
▁CD~~15788
▁ED~~18506
▁CA~~7009
▁CC~~11886
▁CB~~5165
▁vorschlagen~~7078
▁err~~12706
▁Laura~~10477
ück~~602
folgen~~13013
▁clever~~8231
▁Speed~~8728
▁Tok~~15164
▁kriegen~~1426
▁Tom~~3673
▁Ton~~3883
▁Too~~16909
▁Lebensformen~~1096
▁Tod~~4708
▁Mass~~7179
▁quasi~~9899
▁Toy~~4811
▁Mexican~~20077
▁Top~~8519
▁Cl~~5268
▁analysiert~~5144
▁sexuell~~16709
▁Ch~~1964
▁Kandidaten~~13645
▁FOXO~~20785
▁exquisite~~20540
ünstler~~19278
▁gearbeitet~~5056
▁Naj~~20388
▁Verletzungen~~12298
▁Politiker~~5605
▁Änder~~15629
▁einzelne~~326
▁Dein~~5357
▁Hyp~~4466
▁schwier~~4521
▁Marketing~~9005
▁bestimmte~~5229
ogene~~12842
▁existent~~16155
▁kreieren~~8624
▁stört~~18580
wertung~~1893
▁HA~~19527
▁großem~~16618
örungen~~17595
▁Native~~21242
Who~~8771
▁Brit~~13684
▁bare~~19399
hundert~~9437
▁ere~~14946
▁Nicht~~1071
sst~~10213
▁erb~~9156
▁agnost~~19124
▁Brief~~8917
▁Brie~~9528
▁aussch~~1538
▁Brig~~7826
zwungen~~16846
These~~20027
ähren~~11597
iscovery~~9845
nell~~20072
▁entwick~~15310
▁Rollstuhl~~16609
ipend~~8192
vey~~19786
▁Überzeugung~~2566
spot~~20443
▁neben~~3742
DE~~18522
▁Texas~~6890
tet~~1449
agine~~20508
▁Roosevelt~~12510
atsächlich~~18035
▁bestand~~7924
such~~16529
atar~~17286
oleranz~~17817
▁erl~~13767
sensus~~20363
▁Gestaltung~~5116
▁Atem~~7170
▁gefährliche~~13203
▁individuellen~~1363
ss~~5473
zugeben~~3331
sp~~4151
sw~~8343
▁Sebastian~~17778
▁jetz~~15230
st~~1719
sk~~8172
sh~~6371
so~~6494
▁ausgede~~13118
sm~~15519
sl~~2735
▁Zust~~13216
ervice~~15730
sa~~3493
▁geschrieben~~2789
satz~~7814
se~~861
▁Brother~~18776
essors~~10312
▁terror~~12835
▁integriert~~11963
obby~~16504
▁learn~~19389
elben~~13804
▁Bonob~~20809
▁Wendepunkt~~8423
▁Tell~~16808
konz~~8127
▁fehlte~~16765
▁Kump~~7724
▁Ansätze~~7424
kons~~5820
kont~~19092
▁magnet~~16560
▁Ort~~2047
▁öst~~5920
ved~~20360
▁schlimm~~4267
▁zeigte~~5520
ographic~~14721
▁stir~~19608
▁verschieden~~1818
neh~~7651
▁impression~~19054
ographie~~7353
▁Ord~~6310
▁Falsch~~13275
▁armen~~879
▁stim~~1673
illas~~14740
ilit~~13499
▁angle~~20889
sgeschichte~~12304
style~~20838
▁unheim~~15148
▁treffen~~1805
änden~~4506
gy~~19719
▁super~~3946
okuss~~19480
▁kalten~~7936
▁Scheitern~~7710
▁2.000~~13508
▁Highschool~~16249
▁Warte~~7669
uge~~8078
▁Ähnliches~~12301
▁bestimm~~5232
▁Web~~14220
spruchs~~16932
▁Gedicht~~7985
▁Schlangen~~9482
recken~~3243
▁Kilometer~~142
▁Verfü~~20597
▁Buchst~~15342
änder~~6807
▁Still~~15963
▁also~~638
▁Cent~~12922
▁verab~~7297
stimmung~~12953
▁veran~~2988
▁erkunden~~13001
▁fühlst~~2998
▁erled~~15622
▁Howard~~3687
▁tiger~~20792
▁Doll~~14202
▁gepl~~11709
▁Hintergrund~~911
▁beigebracht~~7529
lets~~17561
▁solar~~19139
outs~~8898
▁Kl~~547
▁pneum~~20268
ium~~8193
▁neun~~535
▁course~~20680
▁38~~17391
▁Religion~~9790
▁Carl~~8694
▁rechnen~~17312
besch~~4014
ästhes~~6631
▁Baker~~5354
▁gründeten~~3253
▁gegründet~~13390
chnologien~~15560
▁Führer~~1951
▁künstliche~~11250
gefühl~~13047
▁Cars~~11260
▁Distanz~~12028
▁offiziell~~8827
▁cor~~20910
wegen~~4194
▁Khmer~~20395
iminelle~~1524
▁spür~~3448
▁Redwood~~20227
▁iP~~19311
zust~~9407
▁schrieben~~2790
▁Cyrus~~21202
▁Analogie~~10831
▁Ehr~~3347
Ab~~10237
illin~~15514
▁shine~~20959
▁Entfern~~20970
▁Segel~~18084
▁Cornell~~15685
ble~~12125
▁administ~~2650
▁1990~~12423
▁Süden~~5869
▁never~~19960
▁Ehe~~8019
hnten~~3699
▁ausgebildet~~13329
▁Kont~~7763
kriege~~13447
▁Morgan~~19504
▁Kons~~9761
▁Krankenhäusern~~4896
▁Mubarak~~13575
million~~3503
▁Stipend~~10927
▁aer~~21097
▁gestorben~~7617
plex~~11064
▁9/11~~15879
▁Jazz~~5312
▁Kond~~8042
▁ih~~16351
▁Relig~~13414
▁bislang~~11243
▁stere~~17263
▁Woher~~12077
▁Maryland~~16759
▁fragen~~2583
▁Luck~~19046
ulse~~13101
▁Schaltkreis~~16027
schatz~~6510
If~~16364
▁im~~194
.'"~~11259
▁Steven~~10500
▁Dawkins~~19549
itage~~13167
▁Frustr~~17980
▁stren~~16783
▁inspir~~10876
▁spazieren~~9597
▁Körp~~20531
ingabe~~11748
wirken~~4784
ova~~17233
allgemein~~16060
Comp~~15058
▁erste~~974
▁wirtschaftlich~~7254
▁Seite~~346
oper~~7734
▁internet~~19373
▁japan~~12991
▁demonstrieren~~12212
▁intelligente~~5060
ona~~17099
ong~~10008
ond~~8198
one~~5334
▁Dauer~~2110
▁Sinnes~~5098
▁Funktion~~289
ony~~1894
zuwerden~~1948
▁snow~~21029
▁vermeid~~12022
▁Schnell~~6502
ons~~6202
open~~8162
iefel~~16666
ont~~6527
▁Alec~~19365
▁eig~~12733
▁eink~~11828
▁Leonardo~~10342
▁Zwischenzeit~~11670
▁tausend~~2791
▁scheitern~~7889
▁untersuchte~~14515
▁heißen~~940
▁ein~~87
▁Umsatz~~11710
▁eing~~5653
▁eind~~10417
▁eine~~321
▁einz~~4139
Hmm~~11679
utsch~~17122
2~~1308
▁schlechte~~1312
▁Prioritäten~~2544
ällt~~16569
▁gre~~15962
▁eins~~1420
▁Myster~~8245
▁pupp~~11891
bits~~18678
reifen~~8164
▁eint~~4377
▁Emb~~19385
romos~~20090
▁Baumwolle~~8046
geschäft~~12402
▁eurem~~5690
ungsvoll~~4892
wirkungen~~14158
All~~12321
▁Stop~~12277
▁Situationen~~2152
forward~~20330
ables~~16158
estens~~15280
cript~~19905
▁eurer~~10581
▁drüber~~8725
▁Treppe~~8989
▁Office~~18418
▁langes~~13397
▁langer~~520
:~~20
bauen~~11513
▁Letztendlich~~14955
▁gewaltigen~~6089
chmal~~16999
▁auszudrücken~~5110
▁field~~14973
▁metaphor~~15100
oenix~~19206
▁Football~~1715
▁TEDster~~16979
ablen~~2877
▁bu~~20965
▁wider~~2572
▁Island~~7577
bauer~~15117
schnitte~~5137
▁geistigen~~4905
▁Ingenieuren~~10474
▁Situation~~2056
verletz~~18301
▁dist~~18157
sam~~2621
sal~~5810
hält~~1823
emed~~18512
▁müh~~12418
▁langsam~~1876
reten~~922
▁schwimmt~~12825
▁dreimal~~6076
▁müs~~3021
▁Krä~~13883
▁Neuer~~11536
▁Elekt~~16042
▁fl~~5359
▁gewöhn~~19514
▁verfolgt~~5153
▁Sang~~19573
▁fa~~5349
▁Positionen~~10639
▁Elite~~8908
werken~~10375
▁fe~~3458
▁gegessen~~5267
gefähr~~15875
sport~~14495
▁Mangel~~8675
zog~~17118
▁leuchtet~~7767
jahr~~2492
▁dicht~~737
▁Watch~~17030
▁Ast~~10706
note~~12571
▁leuchten~~11852
▁Vergnügen~~6419
handlungs~~18116
▁fM~~14553
▁Erne~~12315
▁vernünft~~7141
▁zufälligen~~9795
reiten~~7361
▁Kürz~~13719
▁deprim~~16255
ameras~~1528
▁changing~~19954
▁Städte~~6032
▁Gegenstand~~10889
▁Ka~~15921
ndrome~~14569
▁life~~18416
osaurus~~15823
▁aufzunehmen~~8145
▁Republikaner~~12473
agger~~15738
strahl~~724
▁Miguel~~11947
▁Count~~18822
▁125~~18687
smann~~19734
▁Technologie~~3263
▁Prozentsatz~~1292
phib~~11143
▁Hist~~14253
tte~~16722
▁Gle~~15474
▁Psychologe~~18152
tehen~~4408
▁wert~~8048
▁ziel~~5158
▁ausde~~17528
▁schief~~6488
▁Unbek~~14640
▁General~~14882
▁üblich~~17026
apse~~17786
▁Nest~~15829
♫~~14622
▁Kiste~~7639
▁Aben~~11525
▁tue~~7662
▁Wasserstoff~~10906
atschen~~5302
utzung~~12942
▁tun~~1740
▁Wright~~18384
▁Camp~~12406
illian~~17569
aktion~~9390
arsh~~20733
▁tut~~3382
▁Margaret~~16705
technik~~16537
▁Säug~~11200
▁Aber~~222
setzt~~10064
▁region~~7012
otic~~17803
artment~~18417
▁kontrolliert~~1676
ungssystem~~744
zahl~~10057
▁lehrt~~9583
deck~~12061
▁Ästhetik~~15969
▁alternatives~~16475
▁drei~~640
▁nationalen~~8664
▁einzel~~19751
verschmutzung~~12636
▁Motors~~19138
presse~~9495
üff~~14576
actic~~20636
▁Matthew~~15852
▁erfolgreiche~~2035
▁junge~~2098
▁probiert~~15086
▁temp~~19220
hnung~~14803
▁Mun~~16594
gorith~~16133
▁gaben~~273
▁Veränderungen~~2164
▁Drit~~17811
▁Color~~20044
cia~~11568
▁Durch~~1852
▁Bamb~~6600
ätzung~~16659
▁Mus~~4820
▁Mur~~8009
▁Dinosaur~~15846
platte~~9503
▁Mut~~6789
ühle~~11638
▁schrittweise~~9167
▁Urlaub~~1967
▁übergehen~~6618
llten~~5271
▁herausfanden~~11148
▁seltene~~8241
▁eingesch~~4415
gefü~~11029
▁lingu~~18331
▁Erik~~17354
▁gebra~~13593
▁Aufnahmen~~90
ropy~~20954
ut~~1754
ipfel~~12976
ertain~~21166
where~~16234
onomen~~19799
▁medizin~~10968
▁Kunden~~1800
▁Gewinne~~11506
ragen~~2269
▁irgend~~9069
▁gescheit~~7913
▁Orgas~~8854
▁minimal~~10812
anning~~20250
▁angeneh~~15142
▁stimul~~18253
▁Town~~17646
▁Eingriff~~3037
Produ~~12889
▁gestohlen~~12687
▁Fuss~~14912
▁Ratten~~1606
▁fundamental~~13562
▁Spinne~~19453
▁Sonder~~17090
▁fessel~~11566
▁kost~~16610
üft~~18314
▁Geschäftswelt~~15816
führt~~5388
▁Atom~~13284
ff~~9140
▁Kapital~~7481
▁distingu~~20780
▁Road~~16829
▁schenken~~14070
▁eigentlichen~~15355
▁12,~~13608
Bewegung~~8161
kilometer~~6948
▁sicher~~4633
▁material~~19345
▁Sec~~20498
deckt~~9742
▁Produktion~~3341
spolitik~~12535
inte~~18292
▁richtige~~4111
▁treiben~~5865
▁manipul~~19338
▁Liz~~16425
iller~~16522
▁Seiten~~553
spart~~8762
ibri~~14023
▁Erzählung~~3207
uj~~16640
▁jüd~~13763
▁Arzneimittel~~19056
▁2009,~~7438
▁tiefe~~5237
steroid~~21020
▁Lin~~17209
▁Seb~~14910
▁Lim~~17747
▁Lib~~14298
▁wofür~~5400
▁aktiven~~18401
▁fange~~13159
ug~~6311
▁Lie~~6405
Kann~~7761
oust~~254
▁veh~~20854
▁Kollegen~~1737
cycl~~20779
▁2003,~~11146
▁Statistik~~11128
▁Zusammen~~1990
ouse~~12557
änen~~15722
s~~590
mand~~11100
uc~~14147
ließen~~331
ruppen~~3431
rägen~~7612
▁verbleiben~~9187
▁haben~~86
▁my~~5348
▁quer~~11923
▁ind~~7188
▁Toleranz~~13309
▁Ray~~15745
▁Simulation~~17237
▁inn~~8755
iget~~16853
▁Erinner~~6421
▁obs~~19760
▁inj~~3026
▁Design~~4053
ants~~15697
▁inv~~17208
▁Sed~~1109
▁weitermachen~~4915
▁versch~~1810
▁gemerkt~~10190
▁ins~~466
▁Norden~~7362
▁Missbrauch~~7521
ante~~3427
▁Vielleicht~~3977
▁wodurch~~13889
▁First~~20209
▁geplant~~9678
attoo~~17884
▁emit~~15052
▁Gewichts~~2845
▁entwarfen~~6579
sicht~~1557
▁Südamerika~~11276
▁Franz~~5719
▁Bedürf~~14498
▁tod~~11043
west~~5887
▁Todes~~4610
ühr~~16960
▁Neur~~6724
▁Ku~~14146
iß~~4160
▁Frank~~3375
präsent~~16349
▁dafür~~1771
▁miss~~13214
fig~~11957
formen~~8467
ingham~~18163
▁Darauf~~4129
▁alle~~106
storm~~18547
▁Lebens~~47
▁Glühbirne~~6708
▁Ergeb~~18130
▁komplette~~2862
▁Oper~~4721
▁Helen~~17716
ashy~~19456
▁Innere~~2946
▁Open~~12614
▁toler~~9087
▁Going~~17654
▁Daraus~~2522
▁industrie~~8817
icles~~15720
▁DIY~~20428
▁auszut~~6736
former~~18660
rippe~~19524
▁spielten~~5317
▁Ferr~~18001
▁wichtigsten~~2263
leitet~~4244
leiter~~4373
ived~~20984
▁Fert~~8098
gebildet~~8166
iven~~6383
▁Automobil~~12653
▁anscheinend~~8348
iver~~3172
ives~~6904
sichtig~~1529
▁Geschlechts~~13060
leiten~~6715
isl~~14181
▁entfernten~~4472
▁fanden~~2889
ive~~2082
▁Fing~~6689
▁Beschäftigung~~16523
brot~~15235
brow~~19532
▁Finn~~2194
▁20,000~~18702
▁scratch~~20784
▁Riverside~~10519
teilten~~15566
▁Ehrlich~~12846
▁Griff~~11595
▁the~~3162
▁Zerstörung~~14848
▁Anw~~9118
▁Geschäftsführer~~14863
technology~~19177
▁Landschaft~~939
▁Chor~~4980
ischten~~13378
▁Chop~~16385
▁Fremde~~13220
▁beides~~8965
▁beider~~13017
▁eingeladen~~9860
▁Flukt~~20056
werkraft~~21006
▁frage~~6434
▁format~~20830
▁entscheidende~~6741
ologin~~15635
▁suchen~~891
▁Mögliche~~4525
▁Moral~~4456
▁lim~~20801
▁beiden~~552
otte~~15233
mutlich~~15837
önen~~5218
▁AS~~19835
▁AR~~10931
erence~~8216
▁kollektive~~3465
▁erinnern~~1341
▁AT~~17088
I~~5522
▁Ahmed~~14870
eline~~9446
arden~~17123
▁vernichten~~7219
▁erinnere~~5629
ventions~~16716
▁AB~~10870
▁festhalten~~7696
▁AG~~9295
odka~~19632
was~~18216
▁wiegt~~9630
▁gelang~~5333
▁Verletz~~20062
▁Ideen~~1922
ania~~19226
▁Darin~~15131
ündung~~14448
▁AM~~8143
▁erinnert~~3156
▁As~~11918
▁Ar~~5176
▁Ap~~9030
zellen~~6737
▁Av~~15132
▁wunderbarer~~14082
▁wunderbares~~4859
macher~~11193
▁stärk~~2661
ingung~~19136
▁wenigsten~~15735
▁Hud~~12331
▁spezialisiert~~12117
▁Tib~~9876
▁Ab~~1589
▁geschlafen~~11573
ungskette~~16797
▁Ag~~5693
▁"]~~20629
▁Ad~~8647
▁Ak~~7965
genie~~2588
▁wunderbaren~~10438
▁Ah~~4586
▁Bron~~15155
▁An~~197
▁Am~~4153
▁Al~~246
▁besiegen~~1953
▁anderswo~~2084
schreiten~~11300
▁aussah~~10361
▁Spenden~~9022
▁Oktober~~6568
▁Economist~~1264
▁Feucht~~8081
▁bo~~13651
ress~~7015
resp~~8197
▁leider~~7017
▁küssen~~1658
ogramm~~12054
rest~~12395
▁mot~~6531
▁Per~~6274
▁stunden~~18166
▁Brow~~10212
▁Zukunfts~~15532
▁Pet~~3041
▁Brot~~10562
▁Spender~~11722
uther~~19247
▁berühmte~~6314
▁lass~~5628
▁Geographic~~10946
▁fasst~~7736
▁trafen~~5039
▁heutzutage~~5431
▁tanz~~13457
▁unsichtbare~~15949
▁kontinuier~~9238
▁Alphabet~~13406
▁LEDs~~4998
▁natürlich~~2530
änderung~~14773
▁galax~~21025
▁Kritiker~~2501
urb~~14837
▁tank~~21176
▁Weltkrieg~~15672
▁Empfänger~~15913
▁Zusammenhang~~1622
▁Alph~~18497
▁Älterwerden~~9054
▁feeling~~20877
▁riesig~~7256
▁Creat~~12584
▁Entropie~~15972
abhängigkeit~~10762
ildern~~10165
▁50,~~9666
▁sammelt~~14180
▁befre~~11369
▁50-~~15669
▁sammeln~~4830
ergeb~~15960
▁Ideologie~~18159
Let~~20958
▁Pubertät~~11137
▁Wegen~~9863
▁äußerst~~8242
▁Kampf~~7731
world~~21127
part~~12899
▁1970~~14559
atch~~5734
▁Kongo~~8997
▁landwirtschaft~~8464
▁500~~6296
▁ermöglichte~~14329
▁Jahrhundert~~6159
inten~~5585
maßen~~5195
▁Sahara~~14790
▁Down~~11267
▁Hey~~12801
▁Higgs~~19830
▁global~~6005
▁Schlüsse~~10717
twagen~~15267
▁Schlafzimmer~~8855
wann~~20850
inter~~3545
▁kleinsten~~13198
kennen~~4330
▁Gefä~~13758
▁Rett~~20875
▁Jedenfalls~~6598
▁ist~~63
▁Macht~~3146
ränkungen~~16672
▁tust~~15630
udes~~16220
ährt~~6040
▁emotionale~~1685
riedenheit~~16630
▁Geoff~~19582
▁oxygen~~21066
udem~~17248
uden~~8571
▁powder~~21081
▁Gefü~~10260
diving~~16090
▁außerhalb~~6996
uded~~19403
▁betrachte~~7592
ocal~~18723
äd~~2358
▁hunderte~~2875
▁erhöhen~~9324
sucht~~9811
äl~~51
äm~~6004
än~~632
äh~~3875
▁vielmehr~~4441
▁Abu~~17558
ät~~6539
▁Wohl~~11285
▁Aufgabe~~1706
▁beteiligt~~9861
▁import~~14581
är~~2691
äs~~14671
▁Erst~~8201
▁Colomb~~19807
▁Insekt~~12408
▁unsch~~12153
▁Philosoph~~3222
▁Frühstück~~10115
power~~19169
issen~~4247
▁intrins~~17316
▁Matrix~~3127
▁tor~~13544
Jährigen~~2199
▁ablaufen~~14675
▁bugs~~19111
▁amerikan~~9794
▁Reaktion~~6763
▁hyp~~19126
▁hur~~19643
▁hus~~20418
ättern~~13102
▁Meet~~18144
▁Feind~~1954
▁Ohio~~18066
ffen~~11743
stone~~16205
Revolution~~8013
organisationen~~9001
ace~~12875
ack~~888
▁Sekunden~~4382
bewer~~10029
ach~~2795
▁Yorker~~5291
ativer~~14305
ugt~~9964
▁Pitt~~10420
▁Auch~~2461
▁Ira~~8317
bone~~11490
▁Kleider~~13402
act~~12340
▁aufs~~4603
acy~~18505
▁erfunden~~2168
▁kostete~~5929
▁aufw~~1984
auten~~3675
▁Fahrrad~~3790
wling~~20029
▁nennen~~672
ärten~~15281
▁Eng~~16813
▁End~~7186
esser~~9193
▁Kart~~6532
Na~~1464
▁Cape~~17377
▁Familienmit~~11766
Ne~~5290
▁Erkrankungen~~16031
▁Karl~~13680
▁Bezirk~~12945
▁Tempo~~5398
▁sichern~~15855
But~~18402
▁Ent~~1415
aughing~~20283
▁schließlich~~569
▁Notwendigkeit~~8581
▁Norwegen~~8876
essen~~1534
▁Geben~~1974
▁müsste~~6342
▁Maya~~19388
▁traff~~20123
olekü~~17339
hängen~~9523
hew~~19927
▁Gebiet~~596
her~~5642
elnden~~15587
▁Soll~~4103
NA~~14892
▁zersch~~11151
ND~~18977
NG~~12838
▁complex~~20346
▁unreal~~16800
▁Chromos~~14624
hel~~1879
hem~~8535
▁ermut~~2316
▁Haft~~14332
▁Eg~~11562
▁glücklicher~~1797
▁Fakt~~9010
lang~~7277
ichtbar~~19416
▁Asteroiden~~16963
agn~~12744
▁sapiens~~13085
▁term~~15399
▁veranst~~4523
▁wahre~~259
mögen~~17421
▁Pist~~14829
▁entgegen~~5497
▁MoMA~~18424
wal~~18747
▁Liban~~20182
▁Logo~~5640
▁fein~~14160
▁verrück~~18606
unterschiede~~2673
▁Lachen~~1716
asso~~6966
▁Künste~~17174
▁Bosn~~13441
uminium~~19602
rage~~14783
asse~~8103
sätzlich~~9328
agh~~18932
▁Mün~~5671
jo~~20065
▁stimm~~5101
▁Osten~~5626
reibung~~15348
ragt~~14261
asst~~4125
itativ~~12436
produkt~~6381
azier~~17513
ohl~~18062
ohn~~7253
ab~~2121
ae~~5909
ad~~870
ag~~999
af~~4077
vors~~9105
ah~~3611
ak~~314
aj~~15445
am~~6261
al~~3317
uklear~~17670
▁Atome~~3985
ancen~~2243
ap~~4471
as~~2015
ar~~544
au~~743
at~~1965
aw~~3905
av~~8356
ay~~7756
ax~~9674
anced~~18311
az~~5752
▁Fotografie~~15942
▁Paar~~3972
▁Verhältnis~~6396
▁Schichten~~10345
▁Sad~~17818
▁Sag~~5595
▁Titanic~~91
▁ganzen~~3401
unahme~~8814
holen~~9188
▁Sam~~10674
▁Sal~~5846
▁dank~~798
▁San~~2805
▁nach~~449
fachen~~1999
▁dann~~1087
Spiel~~5323
inke~~18592
▁gehalten~~3546
▁Sav~~5455
▁Sar~~6965
▁ganzes~~1237
▁ganzer~~12728
▁Brun~~10525
▁Say~~17046
▁Objekten~~9132
rt~~9755
▁moder~~5396
▁vieler~~2275
▁Vertreter~~8204
Meine~~5619
▁Unterschieden~~2580
anner~~10432
etwas~~7944
aments~~13802
▁Sprache~~4143
annel~~20368
▁Stil~~10700
ising~~20000
▁witzig~~13724
▁symbol~~9380
▁angest~~704
▁kraft~~7986
▁gib~~15118
▁winzige~~15568
tential~~4816
▁welche~~2757
▁nördlichen~~8603
▁Westen~~6110
▁Drittens~~12194
Wh~~17641
▁Flucht~~3529
ombe~~15214
▁Spielzeug~~5019
Point~~20091
▁innov~~11788
▁Medizin~~1778
mass~~14714
▁uniform~~19283
▁Buen~~19543
▁2050,~~19340
apien~~11198
ienst~~13464
▁logarithm~~19030
▁unfair~~2158
Fir~~12505
▁neuen~~276
▁Fossilien~~13020
▁mangel~~12780
sch~~318
▁berücksichtigen~~10470
▁dürfen~~6889
rieden~~1848
▁Indones~~19727
▁berühmten~~13461
▁Gift~~11139
▁Tochter~~3175
▁Schalt~~11498
▁Verhalten~~1227
▁Armuts~~19354
▁pers~~13779
worm~~20218
▁Netzwerken~~8483
▁invest~~10067
▁neuer~~4498
▁neues~~4393
▁Tät~~21030
▁Korruption~~12967
tz~~1095
▁setze~~17498
▁wundervoll~~12397
▁Tages~~1554
tw~~5084
tt~~1947
tr~~9411
ts~~6883
▁Water~~11509
▁expand~~9371
to~~6644
tail~~18597
rize~~17688
th~~7512
▁Genau~~2500
mechanismus~~14771
▁Geor~~18892
▁Tagen~~5544
te~~595
äufig~~12319
norm~~14557
ta~~16470
▁Üb~~9323
▁intend~~17923
▁Alkohol~~14134
iraffe~~19104
▁Unglaub~~12265
ushing~~20821
▁Blutgefäße~~15845
▁effektive~~15999
hner~~17829
▁Bund~~12189
▁Kooperation~~14314
▁Libellen~~19990
▁liquid~~20803
▁Größe~~2293
pression~~15970
▁machen~~130
▁Kindes~~6662
▁Kinder~~1344
▁Keine~~1816
▁überlassen~~3135
▁kaufen~~1807
▁Bescheid~~14341
▁komme~~5677
▁gewisser~~5432
laub~~13516
rh~~16048
▁neurolog~~14626
lauf~~1409
▁Schale~~6492
▁Interessanter~~4322
ri~~3612
▁3-~~10547
▁Zeile~~7982
▁zufällige~~11810
▁3,~~2201
▁wahr~~2381
▁Teddy~~12509
▁bisschen~~1975
ctures~~20449
▁sad~~19028
▁sag~~5240
▁twe~~9436
▁sam~~18332
▁sal~~12847
▁Era~~8935
▁Report~~18659
▁sah~~3344
itive~~16507
▁two~~19940
▁sau~~13570
▁sat~~17743
▁sounds~~19989
▁express~~5094
pass~~5283
▁Gerechtigkeit~~7479
▁Flücht~~12933
▁Gesundheit~~1252
ji~~16818
karten~~9809
▁überwachen~~11950
ßig~~4625
oton~~18463
▁Klische~~18061
imon~~18757
▁nämlich~~4150
▁Glet~~9348
▁horm~~11168
▁denke~~121
▁notwendigen~~8546
erkennung~~12037
▁Network~~16144
▁momentan~~9706
▁Wissen~~1372
leib~~6117
abytes~~19863
▁Uhr~~1868
otos~~9968
▁Mississippi~~15447
▁Paradox~~15670
▁denkt~~4383
▁Region~~2950
▁beweisen~~1574
▁Gas~~15438
▁Gar~~876
icians~~21047
heben~~6546
▁Haar~~908
▁Gay~~13478
▁Individuen~~9300
▁Same~~20314
▁sort~~5930
▁regenerieren~~17954
sy~~13240
▁Lueckert~~17001
▁Gab~~3539
gebung~~12046
▁Management~~6638
▁Babylon~~13770
▁metabol~~17598
treffen~~3495
methoden~~8263
ühungen~~19047
▁Gam~~18518
▁sorg~~2620
mod~~18604
▁Zweitens~~1828
▁da~~502
▁Säule~~930
▁indischen~~8408
▁de~~1933
▁led~~21224
schuss~~7013
oma~~16952
▁di~~15774
werden~~9248
▁Stellen~~199
▁do~~11203
▁Chinese~~18327
▁dr~~11297
▁Kunstwerke~~17171
▁Deswegen~~5115
▁du~~1535
▁Kontinen~~20745
▁froh~~7672
liegenden~~7201
▁dy~~6686
▁Spur~~16919
▁3:~~9967
▁gesundheit~~15263
▁Finger~~4158
▁ret~~13476
▁Privileg~~7116
wohnen~~13631
▁malte~~10413
▁Fred~~15144
▁brow~~19926
▁Erstaun~~5696
▁verschle~~4310
lichkeiten~~11606
▁Krank~~20187
▁verwir~~11504
vin~~247
aufe~~2543
vir~~7206
vis~~17878
Aus~~7241
▁reg~~3120
Aut~~14562
vit~~412
minder~~16764
▁rel~~12072
▁rem~~17643
▁ren~~1457
▁Früchte~~12392
ating~~8730
rischen~~9144
ingungen~~15561
▁Getre~~6136
▁Musiker~~5375
zykl~~11806
öpfer~~4852
▁Anwesenheit~~10321
▁Mrd~~17592
▁dass~~102
▁Californ~~19605
untu~~18226
hrung~~14952
.“~~8209
▁Bergsteiger~~6594
▁Raum~~409
standen~~6225
6~~2907
peare~~20183
▁Rock~~3590
ierung~~2052
▁Fäl~~18410
▁Raub~~7083
mord~~17142
more~~17136
▁Entw~~1076
▁resol~~19448
▁gleich~~338
eram~~18754
door~~15060
▁189~~16683
▁erwar~~12954
▁allgemein~~13084
▁Version~~11550
▁Rücken~~516
▁186~~18077
▁187~~13742
▁180~~683
▁reson~~18945
gerecht~~15248
▁18,~~13381
▁18-~~18969
▁18.~~13791
▁bezeichnen~~8805
▁FreeSpeech~~21215
▁draußen~~560
▁capture~~20759
▁Biologen~~852
▁Page~~10096
hmen~~6778
▁baute~~9881
▁Bewe~~12513
ology~~18873
▁Enth~~7482
▁new~~19729
▁Beton~~3940
▁Mohammed~~18913
▁Leuten~~4337
undert~~11417
studenten~~4414
~~18233
▁tiefen~~12169
▁Unsere~~1581
▁mochten~~5322
▁brachte~~3519
▁Trans~~7114
ational~~4087
▁Honig~~17267
ollen~~5667
▁tiefer~~568
stisch~~17115
▁Peace~~20397
anw~~13498
male~~619
▁brauchte~~4645
Your~~20275
ürlich~~13222
▁Parkplatz~~13091
▁Notizen~~8200
▁relev~~9330
▁Meditation~~17943
▁Interessant~~17710
abb~~19266
▁brutal~~3421
▁Harvard~~8146
ähig~~1597
▁Pizza~~13195
estyle~~20122
sense~~15411
▁größten~~688
▁Währung~~15538
ist~~2093
mehr~~5558
action~~20663
▁zehn~~1038
low~~19356
information~~8639
▁produzieren~~1298
hent~~20034
▁unst~~15901
▁Prü~~18043
▁Scher~~6326
▁Aktivisten~~16289
▁deuten~~13867
▁evol~~18413
iving~~11266
▁Billionen~~15325
▁aben~~17588
▁abge~~7307
▁Tanzania~~14944
▁Michelangel~~20524
örm~~15796
werfen~~1506
▁Schlussfolger~~9207
▁verbess~~2529
▁Mädchen~~5578
attung~~9569
▁angefangen~~4145
▁ländlichen~~8117
hyth~~18598
▁Aufstieg~~1909
▁kling~~17694
▁umgehen~~7124
brett~~8005
ochter~~19331
▁besseres~~2732
▁besserer~~2131
ochten~~6279
▁Schuhe~~3729
▁besseren~~2133
▁gering~~4134
▁bezeichnet~~5778
▁Begriffe~~10202
zeera~~20880
▁Größ~~13955
▁aktuelle~~13119
▁Daher~~9223
▁Gutes~~3381
▁beziehen~~11605
▁Fehler~~4070
▁Coca~~14920
▁Orange~~16271
ellow~~19157
▁Strecke~~8537
▁Ep~~12338
▁Studien~~2120
mar~~9833
▁Qaeda~~21010
▁amerikanischer~~13705
athons~~19671
▁Nachhalt~~17543
▁2011,~~18467
▁darstellen~~3054
▁Guten~~6395
▁Film~~3224
▁zusammenfassen~~10475
ith~~7754
iti~~3657
bris~~19694
ite~~159
etor~~13839
westen~~6210
ita~~5726
eton~~18495
▁sport~~13597
▁Knie~~7554
itz~~3554
▁übertrieben~~18428
ity~~8617
▁trad~~20337
itt~~2384
▁trotz~~5066
its~~9698
roots~~17220
▁versagt~~9803
▁Tuesday~~13919
öß~~17821
▁Gebäuden~~9639
▁Regierungen~~6931
▁wohl~~3212
▁Zielen~~2725
▁Wettbewerbs~~12677
fü~~1399
▁Char~~14074
▁trinkt~~11209
▁Philosophen~~16971
allt~~7685
alls~~10633
▁Anten~~16103
▁Chad~~18698
▁Substanz~~15082
wass~~9882
ally~~18841
▁Gebäudes~~11609
▁vorgeht~~13093
ijuana~~15971
▁Sammler~~9443
brü~~941
▁Ägypten~~6169
erstörung~~17813
ziplin~~5160
▁par~~13092
▁bomb~~18700
▁Dallas~~17426
▁adjust~~18525
leistung~~1790
▁Bildh~~12648
▁Groß~~1401
▁entschloss~~10694
▁House~~14079
▁Unsicht~~3932
▁Ägypter~~17855
▁eindrucks~~18539
▁Syrien~~19516
hre~~12912
füllt~~8911
▁Pfle~~4206
▁Bar~~5000
▁äußeren~~6491
gestaltung~~6829
▁Street~~6197
erson~~16166
▁Bay~~11696
▁sieht~~621
▁Gr~~7995
reißen~~4104
▁Karriere~~2634
▁schritt~~2070
▁Beschränkungen~~10256
▁Bab~~11115
▁Bad~~12705
▁Gl~~5502
▁enthält~~5958
▁Bag~~17394
▁Bah~~19146
▁fehlende~~16331
aganda~~3621
▁siehe~~4255
▁Ge~~171
▁Ban~~12903
minute~~20571
▁tollen~~13630
▁Nutzen~~6521
▁dement~~9816
▁Nich~~19363
Mails~~7900
▁face~~19912
▁ruhig~~6770
oms~~9694
feller~~19270
▁transpar~~15039
▁Ziele~~2721
▁Pinguine~~19095
▁Nutzer~~10664
▁Stahl~~10873
stoffen~~6105
racy~~17222
▁Ziegen~~17062
▁Tast~~4776
▁Side~~16179
▁Regeln~~1603
▁Action~~14594
▁bestätigt~~9804
▁verbrennen~~3083
ftw~~8327
indung~~12894
▁Gebiete~~4855
iling~~19695
athie~~14426
▁Autounf~~19509
orenen~~4731
▁Geräte~~2893
▁abgest~~17585
▁entschlossen~~8123
▁lock~~7793
fte~~12026
IP~~17422
▁Mörder~~15147
▁Rass~~17225
▁weitere~~1841
▁YouT~~12606
omant~~20953
found~~20445
▁Heutzutage~~8712
▁Riff~~17268
IT~~15918
flaschen~~5815
▁Musikstück~~4772
Now~~20936
zukommen~~2918
heads~~20766
▁Pion~~17957
▁Rift~~16481
wall~~16850
▁Recy~~17981
ktivität~~16752
samkeit~~8696
omp~~12923
▁Your~~12750
▁sense~~21223
▁Europ~~14105
▁Group~~12598
ähigkeit~~11834
w~~768
▁talk~~20790
▁Blasen~~13248
issheit~~13518
fu~~19375
▁stem~~1504
Fra~~17708
stoß~~7779
ersprache~~18210
Fre~~14058
uel~~14167
zure~~6562
▁generell~~13115
▁feuern~~13108
unte~~16306
xim~~19512
▁Myth~~14278
▁derselbe~~16222
uen~~7862
▁right~~19950
▁bös~~10950
▁stet~~17911
▁Klarheit~~11034
▁Genie~~13301
▁mikroskop~~10824
PTCHA~~19897
▁ster~~11797
▁Jerry~~17200
▁Fernseher~~8944
lässt~~8007
jet~~5031
▁pfl~~17496
lieb~~20387
▁Unfälle~~14668
▁wen~~8405
▁stetig~~13076
▁überfl~~8764
▁gefährdet~~11905
illen~~10497
xis~~12611
▁Geschmack~~12379
ifft~~18764
neys~~20262
▁iron~~10001
▁Spanien~~2857
▁Ruanda~~3419
▁Ä~~8284
opy~~15785
▁Fernsehen~~14077
▁Exxon~~18697
opardy~~20832
gnügen~~17289
▁Kohlendioxid~~16925
▁übrigens~~4141
▁Engagement~~3713
▁Bausteine~~15651
▁Voraussetzungen~~2660
▁schmerz~~12151
▁unsichtbar~~9897
▁lernte~~6669
▁aufgeben~~7375
▁Society~~16993
▁ältere~~7943
elling~~18366
rah~~16648
▁arbeiteten~~10733
▁univers~~1204
▁Do~~7286
zeug~~6069
▁abzu~~897
ilität~~12214
sc~~14409
▁Dichter~~8355
▁hörten~~3797
▁suggest~~21230
reut~~3642
▁Verzerr~~16020
▁verme~~14994
video~~16905
rische~~9145
▁Fischer~~6936
▁Himalay~~8392
▁Ell~~4711
▁Golf~~12166
apers~~4825
▁higher~~14971
▁Royal~~14446
▁Robotik~~18550
mensch~~12354
▁Ele~~11013
▁Dus~~11322
▁Spanisch~~11689
▁dest~~13307
▁appl~~13951
▁bilden~~2622
ften~~10353
ägt~~12829
blemen~~15605
▁EB~~16082
▁bildet~~984
▁nicht~~115
▁gerufen~~10506
▁Effizienz~~8629
gten~~10978
▁Reichtum~~14321
▁zurück~~781
▁gedreht~~9992
sell~~17866
seln~~5886
▁boom~~10929
▁days~~21061
▁Gary~~15366
MS~~15408
▁Song~~5124
▁wandern~~7055
aman~~19538
reiber~~15182
aa~~18324
▁wandert~~16486
reiben~~2657
▁DNS~~6747
melzen~~9373
geschichte~~1115
istor~~17178
▁Sony~~249
zeption~~6335
aterial~~14876
▁Magie~~15470
intell~~16482
▁Hawaii~~5956
▁Lass~~9828
play~~9993
▁magische~~14133
▁Last~~4634
▁riecht~~14041
▁Morgen~~5611
▁bloße~~7538
▁Impf~~7266
M~~1549
▁Sek~~10670
Ist~~1986
virus~~7168
plan~~8818
▁Elect~~18730
▁Essens~~15250
▁Gebä~~18224
▁aktuell~~10640
▁Morgens~~14091
ibung~~12140
▁peripher~~17514
▁teilnehmen~~3821
▁erscheinen~~5655
▁Jac~~10545
▁hoch~~934
trächt~~18033
▁Kreation~~12740
▁Slow~~8808
▁verwandeln~~1328
▁Sen~~8410
cover~~18225
▁Kennedy~~15961
▁Indus~~19875
geräte~~10895
▁Mamm~~11771
▁Sea~~9888
▁verwandelt~~767
▁Buck~~18593
▁ble~~15441
▁DI~~17553
▁technologische~~10818
gabe~~2646
▁Formel~~15973
reckt~~7773
▁Erfahrung~~3149
leichen~~16810
▁derer~~8586
ifiziert~~5993
▁Home~~14401
reuen~~7412
▁explod~~4224
lungen~~6142
▁Homo~~13031
▁umsonst~~6636
prä~~3964
▁falls~~1688
▁halben~~12921
Ein~~12107
prü~~6905
ugs~~4828
▁Ganges~~10679
▁cooler~~10014
spitze~~13864
alität~~1900
▁Pack~~6640
▁deren~~5442
anium~~20503
▁Option~~12544
▁100,000~~19386
▁Schön~~212
▁Sch~~669
▁Christen~~13453
▁Medikament~~8274
▁verbrachte~~3392
▁mentale~~17315
▁11,~~19065
▁umgebracht~~18617
ropie~~19181
▁Milo~~20671
▁rasch~~2174
irgend~~11053
▁Empf~~8585
ounded~~20916
▁abgeben~~9033
▁emp~~15299
▁vorlesen~~16582
ernte~~15198
▁Walter~~17486
hafter~~6949
haftes~~8152
▁Bauste~~17358
▁lobby~~14915
▁wertvoll~~3659
▁Robotern~~13944
▁fließen~~11386
▁dog~~20776
▁untersch~~4342
gleicht~~17158
▁Wochen~~1265
▁verknüpft~~2067
verbrauch~~11487
▁Ganzes~~9612
▁besonderes~~18996
irus~~16776
▁mithilfe~~2017
▁komische~~9632
▁blieben~~7585
icult~~18057
▁Nadel~~16518
▁game~~19914
▁Jedoch~~9302
▁Faust~~11455
▁verschmelzen~~9681
▁Astrol~~19015
▁show~~20865
▁gegl~~19463
▁dezent~~15693
▁Ergebnisse~~1856
▁funktion~~11969
▁Irak~~7967
▁Ster~~8281
▁Iran~~5508
leren~~17804
▁bedeutsam~~11527
▁mail~~19198
aurants~~9464
vention~~13600
▁Ägyp~~19470
When~~17659
▁analys~~13074
set~~16535
ses~~11871
ser~~1184
For~~10028
▁cat~~11889
▁gewün~~14629
▁frem~~17294
ikanischen~~8685
gment~~10856
▁erheb~~16662
sey~~4712
sex~~6826
▁account~~19692
see~~30
sec~~18954
▁daß~~4073
sea~~19552
präs~~12969
▁wohin~~1147
sen~~337
sel~~4252
sek~~11351
▁refle~~20592
seh~~1360
▁weitergeben~~4959
#~~18047
▁Fische~~343
▁marsch~~7306
ropfen~~3954
ritt~~5002
struct~~18904
▁Geme~~3177
▁Gravitation~~17238
▁Venice~~17069
▁SETI~~18949
▁Sudan~~14493
▁System~~1325
▁Mul~~18051
▁Such~~10002
▁begrenzten~~9815
▁Ding~~668
▁weitergegeben~~9317
▁subs~~10665
ikas~~8690
do~~8136
▁multipl~~10708
▁Brücken~~15394
stheorie~~4258
▁absch~~2032
▁Weihnachten~~13946
▁Viv~~20573
schaft~~3832
▁aud~~14548
▁Mozart~~5260
▁erledigt~~13052
▁genannt~~6601
ikan~~11283
▁motiviert~~5034
▁Zuschauer~~3457
▁offer~~18119
▁Interviews~~15335
▁fliegen~~512
last~~12612
▁Vir~~13924
▁merkwürd~~943
▁entnehmen~~15847
▁Mutationen~~14778
stä~~5213
▁Chirurgen~~8235
thon~~20014
eping~~18037
▁bildeten~~14941
ämpft~~9299
ämpfen~~9582
▁kombinieren~~11836
load~~18176
lev~~9134
▁origin~~12522
▁Offensichtlich~~1739
ometer~~3994
▁Tiefen~~453
acted~~21194
▁Nachricht~~1747
olle~~11277
▁Komm~~11643
dimensional~~9460
lex~~15826
▁Kilo~~15077
▁amerikanische~~8205
sing~~20507
▁Erste~~691
▁ju~~17941
acter~~15321
ollt~~14454
belt~~10549
▁Szene~~7163
▁Uns~~662
▁can~~19497
▁dran~~994
▁GP~~19867
▁lösen~~856
▁Affe~~11958
▁Massen~~4531
riculum~~19739
▁profession~~12856
▁Felder~~14068
▁regist~~10083
ütteln~~4651
ästina~~5535
▁Alternative~~6333
▁Und~~441
▁Quadrat~~717
▁doch~~211
▁Uni~~11583
▁draw~~21158
▁Betrag~~8656
Mach~~5593
▁Regime~~13749
▁fingen~~3513
sthma~~20856
▁direkte~~8512
ulle~~7281
▁Mix~~12348
▁drehte~~13702
imin~~9067
▁Dank~~1167
▁Mit~~21
▁Mis~~1517
▁Mir~~3837
▁Streit~~15455
▁Kräften~~4297
▁Mio~~17194
▁Min~~13694
fung~~6906
▁Mil~~14162
▁Mik~~14956
▁Hack~~17186
▁Menge~~2117
▁feststellen~~10756
▁perfekten~~13712
▁Mid~~5883
▁Vin~~6522
funk~~19454
▁Künstlerin~~14142
letz~~12972
▁Bauern~~8389
projekt~~4810
▁je~~93
▁absoluten~~13785
histor~~10422
▁ja~~2359
▁Spaghetti~~17788
uldig~~16334
▁Warum~~1290
▁negativen~~13324
Cola~~14921
real~~17541
omer~~16739
▁Pflicht~~11211
▁aufnimmt~~15072
vol~~16750
▁Wagen~~7583
von~~4643
▁Lond~~6201
▁anre~~9554
Amerikaner~~17157
▁Tunis~~19809
▁konkurrieren~~13938
▁aggreg~~17630
vor~~2639
▁fuhr~~6268
▁Wol~~11802
▁installieren~~15723
▁Teilnehmer~~3702
▁parts~~21250
▁Len~~3615
▁Leo~~15652
▁Lem~~16399
▁used~~19957
▁Leg~~12859
netzen~~6833
▁Lee~~7831
▁Leb~~16994
ancement~~16970
▁program~~17890
▁gesteuert~~17574
ama~~10899
▁Romo~~19817
▁abschließen~~10066
▁fehlenden~~12324
▁Lex~~15743
▁anschließen~~4578
▁Rome~~20261
▁Mengen~~1020
▁Parkinson~~4888
▁Les~~8985
cers~~11500
▁Ersparn~~7402
städte~~9737
amb~~11104
▁ausreich~~4848
▁beschleun~~15612
3,~~12860
▁Zusammenbruch~~13993
▁sicheren~~9432
▁Betriebs~~17768
▁Noten~~4843
▁entdecken~~690
▁anzu~~9522
wür~~739
▁Kapitel~~2966
▁stundenlang~~2367
amy~~18748
▁Gleich~~3935
Null~~18583
▁Neurow~~2985
▁allmäh~~20392
▁Hoffnung~~3311
▁phot~~11974
ource~~19249
▁FOX~~18882
elen~~896
▁myst~~13238
person~~1358
eler~~14725
[~~16313
▁Spitzen~~10142
▁2,5~~523
▁breath~~19844
▁dokumentieren~~10392
▁sogen~~17555
▁künstlerische~~3320
▁Organisationen~~7926
ästh~~6772
▁uns~~37
▁letztlich~~14447
▁Bleist~~12266
▁unw~~6093
▁unt~~17009
▁übernommen~~15505
▁gewä~~13172
iosity~~20479
▁Ära~~9471
▁emer~~18783
irds~~19976
▁zent~~14878
▁unb~~6677
▁Ekel~~17060
▁diagnost~~16337
▁unf~~8500
▁Latein~~14761
▁und~~45
▁Lösung~~5070
iop~~19471
abilität~~9377
▁Craig~~11987
</s>~~3
ielten~~3625
▁numer~~14256
▁einbeziehen~~4595
üpft~~11398
▁trägt~~4423
ierendes~~11970
▁Fak~~20361
▁zuverläss~~8480
▁Worüber~~12629
ürz~~18714
▁Today~~18858
jährigen~~3588
▁Zeichnungen~~10465
jähriges~~16250
jähriger~~7045
▁Sobald~~787
▁startete~~14349
▁Ausbreitung~~16769
▁Geschichte~~119
▁Harry~~13192
ierenden~~11092
On~~11791
Ok~~9261
▁Einfl~~12613
Oh~~1736
▁sichtbar~~2350
▁pflegen~~7999
▁diplomat~~18916
▁Terrorismus~~14475
▁Aufmerksamkeit~~5739
▁bringt~~4536
▁Yet~~19606
▁betrügen~~4076
Os~~13534
zub~~6504
▁rechtliche~~16847
▁vierte~~3080
atics~~21120
▁Imm~~10127
OL~~17846
OK~~16906
d~~335
ovae~~18951
erste~~10466
▁Machine~~15318
Show~~18266
▁Medic~~10373
▁Media~~4713
▁Börsen~~4220
▁grave~~19943
informationen~~8478
ery~~18840
ival~~17100
technologie~~5053
ida~~18471
▁Imp~~13100
▁Meine~~3552
▁Sehen~~299
icious~~20295
▁Zwe~~10691
▁leg~~7725
▁function~~18554
▁leb~~14502
▁Rede~~10548
▁Berat~~11438
▁Persönlichkeit~~4884
▁Fire~~5071
methode~~8256
uell~~13239
▁lex~~16521
▁freedom~~14965
▁langweil~~10750
▁let~~5055
▁Truth~~17754
▁les~~4866
stattung~~6597
itäre~~14900
onymous~~18872
▁lyr~~17499
▁offenen~~6899
▁ignoriert~~17302
▁stamp~~19775
▁Dreie~~13129
gnost~~8458
▁verlangsamen~~18010
▁Training~~7857
▁audio~~18390
flächen~~6100
▁Intelligen~~17318
▁something~~19955
▁Glücks~~13288
onscious~~17408
▁hebt~~9585
sträger~~2282
▁bricht~~114
be~~774
▁Ed~~5518
▁Ec~~16815
ba~~8649
▁Onkel~~16332
bl~~5741
▁En~~4221
▁Em~~9546
▁El~~1126
▁Ek~~13338
bi~~13392
▁Ei~~6281
klär~~11599
bt~~3068
bu~~6678
▁beschrieb~~14524
▁Et~~11317
▁Es~~283
▁Er~~1743
br~~2863
▁klassischen~~7863
▁Vinci~~10350
▁irrelevant~~14853
ockt~~13854
▁Finanzierung~~9038
▁Ex~~8618
▁EG~~15339
oids~~16004
ruhe~~9090
▁Cholera~~13224
▁EC~~8555
▁permanent~~7051
▁schreibe~~5230
▁EM~~19601
commun~~19252
▁Diplomat~~18831
▁entfernt~~920
▁geradezu~~12599
▁EU~~2853
▁Vorder~~11608
▁ES~~20538
▁schreibt~~2958
▁angesprochen~~14075
▁überras~~16802
zeugt~~16015
▁Streben~~15088
▁repräsentiert~~13434
▁You~~14975
▁posit~~10424
▁Israelis~~5524
▁Yor~~19391
imulation~~14566
▁effiz~~18825
welle~~10330
▁Vorur~~13412
iesslich~~9227
▁Noch~~2516
ints~~19381
auscht~~4917
▁bek~~9298
▁Space~~11764
atherine~~12727
▁entwickeln~~1684
▁Egal~~7552
▁Kämpfe~~3435
holm~~19714
▁Proton~~17534
▁gründen~~8387
▁Membr~~11220
ruckt~~12110
stritten~~18076
▁OECD~~1281
▁Cochrane~~20760
biot~~6386
▁beschreibt~~1507
spar~~15107
imeters~~18634
▁entwickelt~~250
▁zugeben~~2513
▁verbal~~16531
urcht~~15925
▁OPEC~~16478
▁sank~~9722
onal~~19644
neidet~~2033
▁Momente~~8803
geschlagen~~10966
ator~~1579
▁gewinn~~18124
▁99~~7338
▁weiten~~12997
ibility~~20767
▁zusammenge~~271
▁brechen~~10993
▁weiter~~1437
atom~~18011
ling~~13589
sun~~9850
line~~6029
▁Töne~~3885
▁mussten~~2926
▁illeg~~14614
neiden~~6616
imps~~12601
▁England~~3602
▁Meere~~6022
▁Tageslicht~~10995
ux~~15157
uz~~7246
▁Ware~~7434
utschen~~4023
up~~8844
us~~4672
ur~~1052
um~~2565
ul~~2990
un~~2290
impf~~3462
uh~~6238
uk~~3744
▁erschien~~3595
▁Annahmen~~2429
ud~~3800
▁Vortrag~~1203
uf~~3515
ua~~5968
gesteuer~~9874
ub~~4156
▁Ann~~9929
▁Tradition~~2433
▁formal~~15771
▁Anh~~15713
aked~~19766
▁Anf~~14311
▁Ang~~2108
▁And~~4302
▁dort~~400
▁sowieso~~11607
▁Runde~~17023
▁jene~~6423
▁96~~16127
char~~4956
iminellen~~15546
▁Micro~~13982
▁Gesten~~4994
▁toller~~12289
▁Kurs~~8670
▁Impuls~~13105
bewusstsein~~7784
▁Ant~~333
▁Oxy~~15552
▁Ans~~11815
▁Namen~~3299
ifer~~3746
ulation~~9149
▁delight~~21041
▁anzugehen~~8941
▁dient~~8627
▁jelly~~21261
▁ehemalige~~11725
▁prakt~~5435
▁beobachte~~13407
▁Grippe~~18242
▁klang~~5186
▁Seth~~18478
ferenz~~9690
▁Stift~~4380
▁Haushalts~~14209
▁verletz~~7057
▁Neugier~~10901
ifen~~3751
Hu~~15822
▁grundle~~8404
▁Aufbau~~14414
▁Herde~~14365
kehrt~~13388
▁fantastische~~5043
▁Auge~~4638
ennt~~8340
▁Wohn~~6457
▁Center~~7858
▁ansonsten~~9778
▁Evolutions~~11805
▁meist~~4805
▁Schmerzen~~4181
▁Verschw~~1319
unting~~20607
▁abhängen~~7031
▁dunk~~11312
▁famil~~15644
▁mach~~3853
▁hyd~~3956
▁kritisch~~10233
▁Architekten~~9594
▁Barbie~~19317
ago~~6168
▁genug~~867
land~~2195
ustr~~9251
cling~~17982
rechnung~~9458
age~~348
agd~~9076
▁begannen~~3512
▁fragte~~4126
aga~~13353
▁Biosphäre~~17260
uste~~8294
▁tö~~17482
▁Wettbewerb~~3819
graben~~5279
▁Ivan~~19793
agu~~16175
agt~~8065
ags~~6235
▁identifiziert~~14652
▁Wochenende~~8887
▁Alpha~~15479
▁Zeitpunkt~~6177
▁Organis~~16644
▁schafften~~13611
letzt~~17146
▁gewissen~~5304
▁gewissem~~18258
agers~~19634
▁Erf~~9177
▁gewöhnliche~~2605
▁Erd~~700
aumen~~4544
▁Erb~~13016
œ~~20451
▁Willen~~7380
▁Ern~~7877
▁Schall~~542
▁entscheid~~19584
▁Erk~~13066
pril~~18699
ually~~19635
▁flach~~9406
▁Kreatur~~9937
ziehungen~~18050
but~~20041
▁Sohn~~7587
istik~~15698
▁feel~~14979
▁Toten~~9394
istin~~8289
▁blank~~19623
send~~16899
senz~~8377
▁transplant~~12325
▁feet~~19379
iated~~20242
▁Give~~14968
sens~~7929
ulin~~16394
▁beacht~~14618
▁rie~~17939
▁Nordk~~10493
sent~~15428
ometown~~20713
▁Dritte~~9375
▁schlagen~~6712
probe~~15010
▁Präz~~5064
▁Barn~~14850
▁Verschwendung~~12433
▁Präs~~21235
▁wundervollen~~14917
▁Loch~~6360
▁Lock~~8994
▁artists~~21217
gemein~~11571
▁Gru~~13957
▁Glauben~~7837
▁Bart~~12600
▁ersetzt~~12323
Is~~11692
▁Has~~20188
▁physikalischen~~10794
▁Iron~~16445
▁Hilfs~~8538
tritt~~12926
tra~~5127
▁Schreib~~9531
tre~~12139
odurch~~2368
▁legit~~19034
▁Geschäfts~~11488
▁ehrlich~~3786
▁Hilfe~~22
reich~~628
porter~~16839
▁Mensch~~2099
Plan~~14184
ilos~~17988
▁Eingang~~17116
▁ward~~20208
rach~~12165
▁arbit~~19161
ody~~6700
▁Zweck~~1757
▁Hoch~~7039
▁Risiko~~5259
▁CDs~~5051
▁Andro~~15315
glieder~~11767
alie~~14507
▁Rechner~~16992
▁Transport~~6469
▁unserem~~507
wärmung~~18110
▁atmosp~~20174
▁eingebaut~~10191
▁Whit~~10479
ode~~4340
ues~~10388
uer~~3264
▁Sei~~1386
▁Väter~~9627
▁Anpass~~1493
▁Alters~~3168
▁Sem~~16356
▁Sel~~13002
▁ess~~16791
▁unserer~~431
firma~~6572
▁Project~~13615
inder~~2436
▁See~~3573
indet~~2957
gewinnung~~16468
▁Beachten~~5840
▁Sex~~7540
▁Zähne~~13059
▁Acumen~~17826
oration~~13950
▁Wäre~~2299
inden~~4623
▁offensicht~~7890
▁Ser~~4978
▁Step~~19913
bird~~19893
▁Jobs~~2165
ID~~18334
bsites~~18707
leb~~5275
led~~15089
lef~~14407
leg~~1934
ktur~~14770
lei~~4214
▁geglaubt~~14497
▁umwandeln~~2012
lem~~7415
len~~4021
▁lose~~14986
ibir~~14809
ler~~1654
les~~8992
let~~5860
▁entkommen~~9201
▁Fortschritte~~6946
intuitive~~20178
▁aufzu~~2847
ley~~7886
▁einverstanden~~9628
▁Aimee~~19918
▁widerstehen~~15450
▁you~~14964
▁Wille~~8692
TO~~17039
▁Offenheit~~2043
▁Briefe~~8916
ühen~~7305
technolog~~6500
▁parent~~21208
▁Zeugs~~15833
▁verkauften~~11707
zte~~3626
▁Libanon~~5644
günst~~10844
▁Instit~~17971
▁gemeinschaft~~10626
zeuge~~5903
▁Schaffung~~4497
▁ök~~19510
▁wild~~3720
▁Gewebe~~9337
▁use~~12548
▁British~~14864
▁Expert~~13299
▁Strö~~5866
apping~~19874
▁frü~~17565
▁Amaz~~20146
ugen~~3095
▁Stiftung~~12156
ugel~~15023
▁usw~~2512
▁sensation~~16107
▁Lakota~~20487
▁Körper~~3043
scheidung~~19511
▁1900~~16440
▁Garten~~6304
▁Nebenwirkungen~~9139
throp~~19039
▁zehntausende~~558
▁Strategie~~9150
▁cloud~~20374
▁damals~~2379
zip~~14540
▁Scheiben~~10857
▁Dimit~~19700
▁Schicht~~10430
▁Räder~~12746
apital~~7249
levant~~18884
▁übereinst~~6514
zif~~7082
zig~~3340
▁Umfrage~~13980
zie~~7760
▁200,000~~19769
▁verhe~~13520
zin~~11112
▁Govern~~19447
zil~~19368
wesen~~8477
gue~~18615
▁Elektrizität~~4826
▁Kaliforn~~19498
▁erkannten~~10276
▁came~~19961
▁lieber~~2549
facht~~10316
pfe~~1878
▁zählt~~7558
▁marine~~18980
▁subjekt~~10427
zimmer~~7670
▁Augen~~268
▁blog~~14455
pfl~~4102
▁ausgesprochen~~12581
▁Bereiche~~1349
▁erschrecken~~18143
fache~~13616
▁Kennt~~10125
▁ausmacht~~2037
▁gewaltige~~10487
▁Alask~~19650
▁antiretrovir~~16719
▁Eduardo~~20384
▁Familie~~1331
▁lieben~~4677
▁Gest~~14530
opol~~13894
itung~~8283
▁Poten~~18132
▁Paras~~13860
▁Freien~~14592
▁glor~~8279
▁fur~~19250
▁fus~~14555
▁fut~~6498
▁glow~~21011
▁ausschließlich~~14402
▁gemeinsam~~7032
▁reichen~~12286
▁fun~~5242
of~~12090
imination~~20502
ädchen~~13654
▁Geschäfte~~8451
▁sei~~1035
etti~~6398
▁Verfügung~~8118
▁sem~~19563
▁sel~~19231
▁sen~~2348
lock~~9932
▁Eltern~~2356
▁bezahlen~~2547
▁see~~10214
▁sed~~20085
ette~~9784
zierten~~5985
▁sex~~13620
bene~~3922
stoffe~~2821
etts~~15926
▁ser~~1571
▁betrifft~~11840
▁coch~~20366
▁Mark~~3903
▁magischen~~10550
schriften~~2662
:30~~11612
▁Anwendungen~~4042
isationen~~7035
▁Ult~~14351
▁Schulen~~1208
▁Schnee~~10680
▁fressen~~9913
▁nöt~~15387
▁lediglich~~9019
▁Tenn~~3662
▁verklein~~4317
▁halfen~~9836
▁Gi~~15696
▁beige~~10395
▁Sicht~~1068
▁zentrale~~11180
oping~~10620
stand~~1992
▁Eink~~11719
▁Jahrhunderts~~3214
▁Sänger~~5339
▁anstatt~~3550
▁jegliche~~11878
halter~~5988
stop~~12236
▁Mos~~13829
▁Mor~~10777
▁Eing~~10813
▁Eind~~16104
▁Eine~~751
▁Einz~~8633
▁Moh~~18294
▁Verfüg~~8415
▁Moo~~20004
▁Mon~~4563
▁Eins~~4568
halten~~3709
▁Mob~~15596
ittern~~11367
▁Mod~~10267
▁Wohnung~~13692
isse~~3443
▁erfolgreichen~~16754
onom~~12223
▁verletzt~~7350
hthal~~5845
▁junger~~5180
▁Had~~16365
▁anpassen~~5021
▁Dän~~8878
▁hy~~16761
▁quant~~10703
▁Miller~~11471
isst~~5365
▁unerwartete~~15163
▁ha~~353
allow~~19777
gedacht~~16757
▁typische~~4587
▁jungen~~2140
▁Ford~~14283
▁Beweise~~4289
▁erfolgreicher~~2696
▁Frau~~1421
▁feind~~13023
▁gesunde~~6830
▁Bitte~~6660
▁antw~~21226
▁systematisch~~13926
▁Zitat~~7993
▁aufwachsen~~13577
▁elektrischen~~11734
▁rit~~19024
▁Mexiko~~13543
▁services~~21221
▁nieder~~5553
zufinden~~8952
▁Erzählungen~~13729
entlicht~~19903
▁Aufgrund~~9017
achte~~7979
▁geschw~~9781
legenheiten~~12221
▁Müll~~5735
▁Versuchen~~13116
,000~~16595
▁Anzahl~~6300
uelles~~13126
ueller~~10481
▁sagst~~16830
ET~~19134
▁intellektuelle~~10241
American~~19174
▁Francis~~16982
▁rote~~912
▁Handys~~1957
▁DM~~12594
ürzen~~4585
▁manifest~~15770
▁konnte~~3768
uellen~~10483
üben~~11703
▁Linda~~18964
▁besorg~~12176
▁befassen~~854
▁wortw~~21112
▁ruft~~1192
▁bewe~~5608
arther~~20467
üchte~~16366
▁wachte~~5568
ickte~~15648
▁Vögel~~5440
staat~~12190
▁Führung~~7705
▁einschließlich~~8085
ship~~18946
▁Biologie~~9266
▁Phase~~11033
▁Banken~~14178
auert~~16660
eteria~~17095
▁verwand~~18330
älter~~2330
▁prof~~17464
▁Rö~~13869
windigkeit~~20192
▁Füße~~808
▁getestet~~7435
▁Zweig~~10697
▁springen~~4882
▁1800~~14616
eben~~7239
▁Dolby~~6410
▁spray~~20749
▁Edinburgh~~11884
▁Sonnenlicht~~16446
▁womit~~15346
▁Bösen~~17212
▁Rasse~~9213
▁Libe~~19992
▁mitbringen~~837
▁Minuten~~2743
▁assist~~20819
▁Fabrik~~13675
iete~~11711
▁ihr~~980
▁ult~~19479
▁organisierten~~8602
▁erstmal~~4621
▁Satellit~~2816
▁mechan~~1498
▁durften~~4280
ampagne~~15001
▁Moz~~4728
▁Befreiung~~7695
▁Prä~~8376
▁beseitigt~~17793
▁CP~~18875
▁vul~~53
▁ihn~~3343
▁Brü~~7384
wander~~3605
ppich~~18146
▁Gefängnis~~10682
Vers~~8349
ße~~7689
altungs~~5171
'~~839
▁Schuld~~9770
▁Gumm~~11535
▁niedriger~~10952
bad~~13436
▁Jur~~10113
▁überlegt~~4336
▁Schädel~~9997
cess~~11495
▁Mountains~~20231
▁Naz~~19554
▁statt~~833
ussion~~16884
▁Jud~~3852
▁Steuerung~~16577
genda~~19085
▁paste~~18724
drück~~12775
▁neg~~16734
▁aufwuchs~~10555
▁kennt~~8751
▁Mord~~16008
▁More~~6297
▁Dram~~3645
▁Palästina~~5632
▁Board~~16098
▁schrecklichen~~4447
Teil~~5817
▁Mot~~11932
stände~~10926
ban~~3139
▁kenne~~4545
▁Parlament~~8660
▁Mort~~20322
schichten~~10408
uppe~~5960
▁Doch~~3034
▁religiöse~~13280
▁Genauso~~1667
stab~~14047
▁30,~~16302
▁beseitigen~~9772
▁Clip~~14153
Q~~13678
unruh~~18669
▁Cap~~3376
▁Cas~~15382
▁Car~~6817
put~~10884
▁brill~~612
▁pyram~~18710
▁beruht~~9593
▁Argentin~~18427
▁Caf~~10624
utage~~17188
achtung~~13034
▁Cam~~16461
▁Jahrhunderte~~10352
▁Can~~14038
▁Treibstoff~~16949
▁Zul~~11538
▁akadem~~4171
▁spons~~11695
Menschen~~14130
▁Einzel~~1357
▁Chef~~12374
kohol~~19811
▁Joseph~~9029
küste~~5462
▁Zug~~5273
▁Amsterdam~~19541
▁Chem~~733
▁Chen~~12963
▁Experten~~8292
▁existiert~~275
▁meines~~3035
▁Annahme~~11565
Speech~~21037
▁Zut~~10255
Prof~~15138
leich~~2016
gesagt~~17164
▁Fortune~~20023
▁Zur~~10076
▁Zus~~10161
▁Wolke~~622
▁Kepler~~18017
▁woll~~18036
▁intensive~~15575
▁Ara~~17973
▁unbesch~~6577
▁Milchstraße~~9606
etik~~14729
▁Zeichnung~~10429
system~~2497
▁anbieten~~3285
onent~~17285
▁Doktor~~1776
▁Selbstvertrauen~~3705
▁Six~~20595
ografen~~19369
▁auslöst~~17180
▁Kommentar~~3308
herrschaft~~17203
▁Ethan~~18088
▁Johns~~16465
▁Sechs~~4353
▁Bed~~6902
▁Bee~~2670
▁Bef~~1451
▁Kn~~5141
▁Geldgeber~~8638
▁Kh~~9398
▁Handlungen~~13571
▁Varianten~~10829
▁Bel~~4989
▁Bem~~10069
▁Ben~~3679
▁Belast~~15579
▁Beh~~11416
▁Bei~~1178
▁desp~~13748
▁erforscht~~417
▁Bet~~4215
ehn~~15878
argon~~4361
▁Bew~~5744
▁Ky~~14458
▁Ber~~6682
▁Bes~~2477
▁Kosm~~10628
gung~~8293
brachte~~11602
▁mächt~~4934
gegen~~12638
▁Bez~~11747
▁Kr~~1523
sive~~19704
▁Arg~~12527
ehm~~16629
▁junges~~7810
▁Allein~~13305
▁Einkauf~~8014
▁erzeugen~~4781
▁Kliniken~~14615
▁Naturschutz~~1163
▁erlaubte~~10702
▁KB~~19973
▁skept~~20744
▁Orchester~~4753
▁Harlem~~7527
▁beruhigen~~14544
▁Phasen~~17241
▁Pale~~18609
▁bank~~12755
▁Bakter~~12830
▁win~~18024
bing~~15597
▁KS~~17007
▁grand~~5402
lly~~20230
▁zug~~2266
oßen~~705
▁planet~~16965
▁look~~19934
viewer~~5351
gendorfer~~13733
code~~14269
▁voller~~3441
▁Tatsache~~9267
▁jur~~6850
icht~~281
▁industrial~~8596
▁jun~~21259
▁Improv~~16233
▁begrenz~~12622
▁App~~6181
▁tägliche~~6038
One~~17139
beite~~11870
▁verschiedenen~~1150
▁Ketten~~14492
▁Spektrums~~2471
▁bedeutete~~8334
geiz~~3711
▁he~~5249
▁Business~~13900
gangen~~11524
atik~~9572
ualität~~13432
atin~~17752
▁East~~16202
klasse~~2575
best~~7014
ativ~~4443
▁Kalk~~15053
▁zahl~~4281
▁verschiedener~~13122
▁Okay~~3873
▁Shakespeare~~3694
▁Vorschlag~~8693
▁spots~~20273
▁Ozean~~202
▁geschlossen~~14201
▁Zigaret~~9726
▁Tarahumara~~19670
iry~~17031
▁Initi~~18863
iften~~3724
uations~~21203
▁zut~~16502
achläss~~20141
▁Sterber~~9110
▁visuell~~14007
cke~~8487
▁reine~~13132
fach~~7271
▁ho~~9926
▁Allgemeinen~~16288
▁Basis~~7680
▁einger~~15653
▁einges~~4159
▁einget~~7518
▁hilf~~13018
▁Privatsphäre~~15172
▁März~~5537
ckt~~1059
▁eingel~~15369
con~~12971
cks~~7630
▁photograph~~20030
▁eingeb~~4756
▁Sklaven~~14438
▁verdient~~13199
▁Ever~~11680
▁Intel~~18517
▁stap~~8902
▁Ausnahmen~~13262
▁star~~3896
▁All~~2344
stehen~~1416
ennung~~2864
▁Alb~~5882
▁gradu~~13022
▁Hudson~~9638
▁nachzudenken~~280
kontrolle~~5078
bring~~16842
▁stab~~16801
▁Moderne~~13349
ktar~~14021
▁nochmals~~3093
▁Charles~~5722
▁Als~~1834
▁Alt~~6334
▁IDE~~17822
▁Anzeichen~~3167
▁rede~~7571
▁aufgeteilt~~2317
Vielleicht~~11701
keys~~19219
▁Schatten~~10524
behör~~11626
▁prü~~7735
▁Prozents~~19286
irk~~16687
▁Sprachen~~3220
▁prä~~3425
▁Sü~~11752
▁AO~~18350
Jeopardy~~19619
gewöhn~~7236
izienz~~10129
▁ven~~21188
▁place~~20950
▁Völker~~5621
ierend~~7532
iro~~16101
ässig~~7444
izient~~14017
ations~~413
pertoire~~13426
meter~~18414
▁kann~~436
▁Funktionsweise~~14001
izzy~~20756
▁Jäger~~14275
▁Publikum~~2973
reit~~13438
kreis~~3025
▁Idiot~~1531
übergreif~~14408
▁Clay~~17657
▁kaputt~~1301
reis~~6246
▁moralischen~~3209
h~~1428
▁Kontrast~~12143
▁nichts~~97
reiz~~19418
stufe~~11977
feuer~~7228
reif~~5597
▁Bedarf~~10969
cr~~20204
▁Blick~~3634
reib~~14767
illing~~12283
ühner~~16207
▁Antik~~18462
▁Freiheit~~1976
proben~~12464
ael~~10410
äch~~1314
ition~~1682
äck~~6722
▁Kräfte~~4300
▁Anderen~~12537
▁direkt~~2142
▁Traur~~14238
▁Panik~~7161
▁bedarf~~12239
▁200.000~~6984
bte~~4013
recher~~13365
ftig~~11008
krä~~13718
packen~~6810
▁spl~~18335
Pe~~10027
▁Library~~15980
isy~~19248
Ph~~12683
geführt~~10509
▁anti~~15689
Pl~~10871
▁Dig~~11373
▁einzigen~~4208
zeichnet~~564
▁Bürgerkrieg~~13960
▁Singapur~~2192
PT~~9605
entlichen~~3633
▁arabische~~18864
É~~20216
wirk~~6329
▁Kreuz~~7428
menge~~11402
▁lar~~20656
PA~~10932
▁Tesz~~21090
▁fair~~12597
▁Serie~~4765
zeichnen~~10806
ialog~~7856
▁Test~~2931
▁rig~~6776
▁einziges~~2761
▁einziger~~4368
▁Haare~~13466
eum~~17384
ends~~7302
▁Kalorien~~6106
otton~~19045
▁behalf~~8030
▁erstaunliches~~11052
▁einsetzen~~4033
le~~878
ende~~4849
ansion~~16732
awatt~~18388
▁freue~~12813
▁000~~3504
▁Diagramme~~17547
▁benennen~~6350
▁se~~5984
ets~~9480
▁Berichte~~16827
▁hungrig~~6102
▁sa~~14838
▁etabl~~8557
▁sc~~2982
▁aufhalten~~9103
etz~~7570
zentr~~13954
▁lebendig~~4961
▁Barry~~12219
▁Operation~~6653
▁Luftfahrt~~9174
▁sk~~3753
▁Unterhaltung~~7847
▁su~~14698
▁st~~601
voller~~7987
volles~~9078
▁sp~~2570
tle~~16378
ete~~12121
▁Elektroden~~3053
eth~~5843
heart~~21163
▁sy~~14801
▁zustand~~19535
▁geschaffen~~2631
chest~~19868
ck~~1161
ci~~1832
ch~~2242
co~~10654
Her~~3455
cl~~5775
cc~~14154
▁physische~~4995
ca~~16191
Hex~~19765
Hey~~7625
ce~~3692
scar~~20630
cy~~9565
▁Schokolade~~8053
▁20.000~~10920
carbon~~11196
▁einzu~~8039
▁Beginnen~~6627
li~~15266
▁erläut~~5541
uch~~3297
▁Detektor~~12118
Ger~~10947
gespräch~~15456
▁Jenn~~10124
▁verwirrend~~11020
handlung~~4913
rient~~17201
▁professor~~18934
bru~~19003
räne~~14573
▁häus~~17503
▁Mandel~~18244
Geb~~4453
▁zählen~~2396
▁Potter~~17867
Gen~~4573
antas~~1318
▁hoff~~10050
▁verbringe~~8707
▁merken~~4591
▁West~~5239
▁Photos~~16047
rieren~~11036
ächtnis~~19320
▁Sonntag~~11667
▁Programmier~~10206
▁Solarzelle~~16050
▁Bedürfnisse~~8015
▁council~~18968
Beweg~~16100
▁Gerüst~~11980
▁einzugehen~~3134
▁erlebt~~3528
▁Wege~~3081
ador~~14403
▁durchfü~~2951
educ~~21165
▁2010~~9856
adow~~16904
eums~~13835
▁hingegen~~12639
▁vergeben~~13628
ktischen~~7030
ount~~6846
▁vierten~~10948
▁Phantom~~19218
legenen~~10335
▁Schizophrenie~~4893
ucks~~7794
▁Dienstag~~7711
▁Mais~~8509
uckt~~6228
▁Rebecca~~20008
▁Kate~~18666
▁sorgt~~2221
▁Venezuela~~19517
▁Verletzung~~9769
▁Canadian~~20652
▁Dunk~~18682
▁geste~~14166
ammten~~7208
▁Asian~~20222
archie~~16279
va~~9748
▁akust~~4972
▁aufrecht~~6295
ve~~10141
▁gesund~~7166
▁getroffen~~8272
▁veröffentlichte~~2785
▁split~~19768
▁fallen~~7677
▁Andrew~~9587
▁proportional~~2296
▁wärmer~~16944
▁Tiger~~9969
vo~~15501
rips~~16736
▁TM~~19894
sitz~~13485
▁eigene~~467
▁plötz~~6698
ript~~12186
▁beteiligen~~11576
vy~~12646
▁führt~~36
werker~~11746
▁Spiele~~13194
▁Israeli~~5701
▁gesucht~~8767
▁inspirieren~~3704
isp~~18933
▁Gegend~~677
ER~~18533
Kopf~~16958
▁Hyper~~5017
▁vielerlei~~10253
greifen~~1224
▁Bewert~~10229
flut~~16616
▁Blogger~~14462
▁studiert~~6798
▁verteidigen~~3851
▁Time~~9644
▁erzählten~~3217
▁Weibo~~20901
▁diagn~~20893
ball~~6973
▁Palm~~20153
▁organisiert~~1866
▁Grand~~12696
ikes~~5657
iker~~3379
▁Stärken~~9542
ästhesie~~17051
ieben~~4990
▁beibringen~~2645
ieber~~17929
▁holen~~598
▁Little~~20915
iken~~5148
ikel~~7908
▁herum~~317
füllung~~15987
▁Jes~~18982
▁absolut~~6799
▁offensichtlich~~1522
▁Dra~~7764
▁pump~~19508
off~~3758
▁Marine~~5727
erer~~16727
▁wars~~12498
▁Treibhausgase~~12434
▁Anhänger~~14895
▁CT~~13063
▁Inseln~~17462
▁sandwich~~20426
▁Erstens~~1820
▁Göt~~6153
hirts~~17250
▁warm~~6427
▁Demokratie~~3362
▁künstler~~12536
▁visuelle~~14522
▁Enkel~~9430
▁ware~~19170
▁warf~~9404
▁Karten~~541
kontakt~~9994
bye~~18807
▁Dinge~~1605
less~~15674
▁aufzus~~4407
das~~9802
▁Jersey~~11740
▁schickten~~2443
▁nachd~~17016
llig~~7920
pflanz~~16196
▁erzählte~~3565
▁aufgewachsen~~5405
olph~~3801
▁Skala~~16623
estehen~~4876
▁Initiative~~6990
▁aufzuf~~16348
▁grösser~~1627
▁starkes~~12355
▁starker~~12160
weg~~7580
▁lern~~5476
▁natürlichen~~498
▁Stand~~7337
▁authent~~6519
▁24~~6699
▁Zelle~~10779
wel~~11857
▁durfte~~4706
kunden~~3063
▁25~~3270
▁85~~14787
▁natürlicher~~17962
▁Oxford~~8147
nten~~6151
krut~~4394
▁Stammes~~13903
▁Mahlzeit~~12398
▁starken~~2578
▁beleid~~14796
piel~~8001
iga~~14871
held~~18740
dest~~1092
▁Schriftstell~~11304
haut~~11450
▁erweitern~~7135
haus~~990
▁Frühl~~16383
▁beseit~~12345
▁Stille~~6444
▁ersetzen~~9329
▁erweitert~~15208
▁unzähl~~16691
▁lege~~17575
▁Kilometern~~862
▁Armee~~5709
▁Eames~~18429
osex~~16714
▁greif~~16840
▁zutief~~20725
▁Florida~~11961
▁Cor~~18284
▁nu~~18612
arak~~20435
plet~~21184
oses~~5251
onnect~~17780
liebe~~6440
▁Störung~~15572
▁notwend~~11619
▁Tra~~5086
▁na~~5705
▁28~~9381
▁Tre~~9039
osen~~4718
▁Staats~~13470
▁verschwand~~14539
▁Tri~~4640
onnen~~12410
▁Tro~~1946
osed~~3803
▁verblüffend~~12041
▁beherr~~9691
▁Teen~~4794
▁Verbrauch~~8534
▁1997,~~19885
fluss~~11082
▁Handlungs~~6991
▁Ausdruck~~3384
▁dankbar~~12874
▁kop~~17660
▁Hyun~~20974
▁angehen~~6809
▁Mathemat~~18131
▁Sound~~6586
▁fragile~~6917
▁Lar~~15856
▁Effekte~~4850
▁Cop~~12479
▁Budget~~6015
▁hatte~~1846
▁Lat~~17054
▁Lau~~17329
▁Elektron~~18688
▁jüng~~12499
▁vereinen~~14877
▁Bangladesh~~9378
▁südlichen~~7500
▁viel~~68
▁Kommunikation~~5528
▁Lab~~4714
ragten~~13917
▁niger~~9981
utions~~6149
rüstung~~13372
▁überhaupt~~415
▁entsetz~~7175
reibungen~~10425
▁Lam~~11835
kriegen~~14862
▁erfreut~~13893
▁dra~~11661
ometern~~3988
beziehen~~17075
▁Trade~~15882
▁dre~~4418
ühren~~1300
▁beeinfl~~16897
▁rev~~16430
zeiten~~172
▁gestellt~~6046
▁grade~~16275
▁Symmet~~19560
▁Künstler~~3216
fahren~~582
▁Beispielen~~7835
ometers~~16519
stage~~14693
▁community~~20927
iced~~18729
fre~~5444
▁generieren~~1374
imedia~~16358
▁meinte~~7634
frastruktur~~12092
▁beizubringen~~4542
▁Sicherlich~~4184
edy~~19297
▁änderte~~6242
mü~~3414
▁sogenannte~~4745
frist~~18457
mö~~16056
kra~~16455
▁Cou~~11464
▁mine~~20817
kre~~11118
▁surge~~20797
aters~~14858
▁Schon~~3009
änomen~~17473
▁Viertel~~3502
▁Großteil~~136
▁Bedeut~~13078
▁Schok~~19215
fro~~8215
year~~21129
▁sendet~~4832
läuft~~9393
▁aufbaut~~8506
▁Grön~~19599
ý~~19107
merk~~5767
lung~~6758
▁Beschreibung~~3716
▁Äng~~16869
▁senden~~4654
▁Kommen~~10075
▁kürzlich~~2886
läufe~~8910
▁Pan~~19412
merksam~~18610
▁poly~~11195
▁starb~~3583
▁Werbe~~11559
▁inter~~6182
▁Preise~~8435
▁stark~~2231
▁Pal~~6643
▁kon~~2692
psy~~18719
▁start~~16345
▁schwimmen~~5737
▁veget~~20324
iologie~~10107
▁Nachfrage~~7973
▁dug~~21080
▁Fur~~19455
▁Pak~~16067
▁umgeben~~5979
~~18231
▁bemerken~~5151
interest~~19005
▁ramp~~19153
▁Ernst~~1382
orbenen~~9529
Star~~12575
▁andauernd~~8494
▁flo~~16192
▁Rassismus~~10763
▁wirst~~5122
▁negativ~~14119
~~21233
Welt~~3831
▁irgendeiner~~13475
▁Malcolm~~12103
▁verlegen~~9682
äher~~6259
angiogen~~21018
~~18228
▁rob~~9165
¥~~20562
▁weise~~17366
¡~~21173
▁organs~~20812
£~~20578
▁Bildung~~2373
­~~20551
®~~19234
▁Blut~~3024
©~~18971
▁Eröff~~5672
▁Pac~~7003
ithe~~13005
°~~3963
▁verborgen~~178
▁durchführen~~9387
▁Blue~~9858
▁nirgendwo~~2618
▁Gespräche~~13649
etzte~~6548
fold~~19122
▁Wind~~3965
treten~~4306
▁Küsten~~6968
▁pac~~21088
iny~~19268
inz~~10453
▁lau~~14422
int~~10930
▁lebensl~~7645
▁Weiße~~680
ins~~8852
▁lab~~21078
inn~~701
▁Ellen~~6692
▁lag~~4524
▁ihm~~221
ind~~953
ine~~1630
ing~~363
liegen~~4298
treter~~17985
inc~~10354
▁Akadem~~16389
oppelte~~7441
▁philanthrop~~19333
▁au~~20434
▁versorgen~~496
▁Verstand~~3015
▁Dalai~~13287
▁Monterey~~17293
▁Konfl~~20602
ments~~17119
▁jenseits~~6014
▁berühren~~10840
▁Konferenz~~10941
▁stammt~~10271
▁riskieren~~10131
▁überle~~14802
▁korrig~~2798
CA~~12595
▁21.~~2842
▁Ik~~12573
▁Haupt~~3867
▁Zufriedenheit~~4555
▁In~~179
▁Im~~910
▁Recher~~15939
anschau~~3151
ears~~18069
▁Yale~~17107
▁deut~~2450
plomat~~15966
▁Id~~13552
U~~1258
▁örtliche~~10791
▁Is~~2831
▁Ir~~4086
▁Saul~~17401
▁Rechen~~13998
▁dire~~11374
▁It~~16911
▁IK~~19662
steck~~3594
▁II~~8138
▁beispiel~~15430
▁Schule~~1454
▁herk~~14742
▁here~~16588
▁Schöne~~14867
▁bedroh~~14664
▁part~~14303
▁bringe~~14636
▁40.000~~15810
▁erfassen~~2220
bridge~~21159
▁wahrnehmen~~6556
▁hinterher~~8023
▁IR~~15817
▁IQ~~4732
▁IP~~2781
zugreifen~~15489
tten~~3078
▁ersch~~3104
▁herr~~2247
inning~~19607
▁Gang~~11086
▁Black~~8884
▁tendieren~~12663
▁produziert~~906
cial~~16735
▁gerade~~116
▁befol~~15395
▁glamour~~17881
▁vorherzusagen~~9169
▁graph~~11430
äumen~~15815
ikon~~15160
▁plural~~19275
▁strateg~~8673
▁Collider~~20264
▁Panbanisha~~20990
▁Jul~~16876
400~~10962
ields~~19745
arfen~~12260
▁nehme~~11424
▁tritt~~634
ali~~14963
farben~~15377
▁Explosion~~15884
rors~~19022
▁unteren~~2390
..~~12230
▁enthü~~10435
▁Berechnung~~13690
▁60.000~~11962
▁Parks~~12029
▁eigener~~11025
worth~~16613
▁klop~~4829
▁Zehn~~4320
▁2007,~~9598
▁erwischt~~4264
▁Schwein~~11900
▁wolle~~6578
▁keinerlei~~5374
ösen~~1185
artiger~~15804
▁verpassen~~11308
samer~~16872
▁Kingdom~~16894
▁gedauert~~14441
▁Georget~~20919
▁Robin~~15403
▁Ressourcen~~2678
▁Schweiz~~11547
▁entschuldigen~~7885
▁präz~~16041
uum~~13219
▁Smart~~17671
ynam~~12025
▁Schokol~~17181
▁hint~~8160
▁Gore~~15708
gebra~~11449
▁öffnen~~4392
gesetz~~15808
▁Austausch~~14071
▁red~~13312
▁Dumm~~1569
▁faszinierend~~10022
▁öffnet~~7780
▁hing~~7608
▁Februar~~6983
▁rings~~17808
▁Angelika~~17000
▁züchten~~10744
▁Großen~~11397
▁marriage~~19930
▁hervorra~~2258
▁Interpret~~10414
▁hink~~15140
ikalen~~9276
▁veranl~~13801
▁Zä~~17359
cher~~10949
ches~~11399
igent~~10482
▁Bereich~~1246
phones~~17672
▁Arist~~20168
▁formen~~3152
▁Eden~~18961
een~~20600
horn~~10409
▁bede~~6526
oreal~~19458
▁Widerstands~~13408
▁Brand~~169
igend~~4164
▁Atlantic~~19968
chen~~942
iting~~17926
spect~~10178
chem~~11174
▁Kas~~17784
▁Nullen~~16084
▁Führungsp~~1916
▁Mosche~~13405
▁Cool~~19359
▁Resultate~~7332
▁sichtbaren~~6528
▁Von~~1352
▁okay~~3672
▁Vom~~7644
üp~~18855
▁versetzt~~3242
ür~~8344
üs~~6348
ül~~15621
üm~~9453
ün~~3433
▁zurückgehen~~13905
▁Vor~~2065
▁kalt~~811
üd~~17379
▁Führungsk~~7974
▁Koralle~~11856
üb~~7722
▁Voy~~15473
▁chaot~~15121
▁aufgestellt~~8793
▁Corn~~15264
ikanern~~14779
spunkt~~14855
▁freundlich~~6441
▁verkl~~1014
▁unsere~~1329
▁Gebäude~~3741
▁Kolumb~~10669
▁standard~~10323
▁arbeit~~2118
inie~~8796
▁fertig~~4166
menschen~~17932
▁fühlen~~1734
▁ärm~~13727
▁schoss~~9356
▁Lös~~15407
▁marginal~~20575
▁Europe~~20499
▁studieren~~2826
▁enden~~7077
▁hervor~~2268
▁intro~~15471
gle~~8282
aku~~12981
▁Museen~~5469
▁Energie~~730
▁Mes~~18004
▁Tiefe~~12
▁endet~~5140
▁beiget~~19006
stoff~~2162
aka~~8599
▁sexy~~8928
ake~~1850
▁Abhängigkeit~~6257
frast~~15557
mail~~15451
ican~~18352
instr~~1655
▁heutigen~~2091
vasive~~18797
▁level~~21027
▁wä~~4269
bro~~16517
▁popular~~20937
▁plan~~15073
vö~~13851
▁wü~~4132
▁Alab~~19052
bre~~11144
▁Stör~~12111
bra~~11150
▁Eve~~3683
▁hatten~~648
▁Bangladesch~~14213
▁reb~~21095
▁Fach~~2126
▁akt~~4693
▁komplexe~~794
riffen~~18160
▁Face~~17706
▁Persp~~5104
▁technisch~~15798
▁Past~~16814
▁sollten~~4328
▁gewonnen~~1883
⁄~~8943
▁Ängste~~16627
come~~18551
▁schlimmste~~10937
▁erweit~~16828
plom~~19638
lymp~~17548
▁Tsch~~8169
▁Tonnen~~8523
▁belegen~~10137
▁Einheiten~~7933
▁stieg~~8776
▁Konzentration~~5978
▁Unternehmens~~15724
▁Muster~~12099
▁Cat~~20207
▁Besonder~~13314
▁gemacht~~34
masch~~14932
▁Schlagze~~12200
▁Entfernung~~966
▁Ausgangspunkt~~10542
▁Wal~~16375
▁Visionen~~14534
aufnahme~~10850
yard~~19228
▁eingesetzt~~5301
▁klingen~~3769
ert~~2271
ii~~17597
▁ermö~~12549
ning~~18091
err~~4288
ers~~2629
▁Alf~~19590
▁alltäglichen~~6782
▁Bere~~8422
erd~~6706
ere~~996
erg~~2701
▁Ultraschall~~11253
era~~15020
▁qu~~1359
erc~~18113
stellte~~13174
erm~~6388
ern~~52
▁verknüpfen~~13090
▁dauernd~~11370
▁legen~~1368
▁Wur~~9369
uay~~20892
▁versteckt~~9654
▁ankl~~10450
▁Übersch~~16803
▁finanziellen~~12065
illiard~~3990
▁Schleimp~~21187
▁Schlacht~~7834
ither~~16862
wäsche~~12349
▁verteilen~~6155
▁öfter~~12069
▁Sonnensystem~~10642
▁Werkzeugen~~15398
amous~~20521
▁When~~19091
▁Literatur~~3701
ounds~~19988
ual~~2327
uan~~12965
▁tad~~20371
▁ehemal~~10349
▁Brem~~8700
gede~~17702
▁derjenige~~4580
vert~~10736
▁Fra~~10391
emand~~19279
▁Star~~4615
tät~~16642
▁Fre~~1752
▁Stau~~8942
▁flexible~~11580
▁verschl~~15285
▁Sit~~4649
ische~~972
ötzlich~~17993
▁Fro~~17801
▁Sir~~7972
▁Sim~~14717
▁Sil~~8773
▁Stab~~18808
▁Sin~~1133
▁Stad~~6269
kehren~~15095
▁Zeugen~~16005
▁kostenlose~~13992
▁Sie~~224
▁Sid~~3470
ischt~~10458
▁Dokumente~~16285
▁Stan~~18305
▁entw~~8360
lan~~5950
utzer~~18136
bares~~3933
barer~~6129
ateur~~4719
Schau~~17033
▁wählen~~2619
lag~~2739
▁tödliche~~16003
▁Chris~~4051
iftung~~14823
Will~~7633
▁Thanks~~20274
▁skelet~~21162
▁entt~~2397
▁Kurzem~~14288
▁Cal~~10517
▁bewir~~5192
baren~~2724
arch~~3259
lar~~17756
las~~8901
orden~~13971
▁did~~19555
ures~~13160
▁Schulden~~14326
▁gut~~1047
▁erstellt~~10606
stru~~16887
▁Linie~~5466
▁Könnten~~10516
ical~~7061
▁Schnurr~~17947
▁Portug~~19749
▁religiös~~4324
cur~~20788
vere~~18925
stra~~1518
▁Dialog~~12530
▁Ärger~~4437
stre~~1058
▁Raumfahrt~~18105
▁stammen~~11851
neid~~15002
geschnitten~~5381
▁Arabisch~~17972
ichert~~10095
zed~~20599
▁Zum~~1668
▁Highway~~17842
▁Bush~~10101
nete~~3429
zen~~927
▁betonen~~15663
▁entz~~7229
zer~~6315
zes~~17522
zep~~12741
▁verblüff~~17319
▁Telefone~~17144
netz~~5953
ompl~~15585
▁gewinnen~~352
▁lernt~~7709
▁prob~~15608
ichern~~14389
▁Visualisierung~~13138
ktoren~~2663
▁Premierminister~~12973
▁Fleck~~3046
▁entf~~7451
aktere~~12529
▁schmeckt~~17887
utlich~~16920
▁Genome~~16603
tragen~~10275
orum~~18602
▁Irland~~9675
▁verstecken~~1741
▁analyt~~15518
▁kilometer~~10047
vern~~13573
▁Zuf~~5880
▁Behinderung~~5067
▁äuß~~13818
udenten~~4432
▁auszu~~6861
▁hilft~~6332
verbindung~~15114
▁herrscht~~2640
üllen~~13266
▁Är~~6701
▁kil~~17724
▁Zellen~~6735
▁Ehemann~~5702
▁unvorher~~6018
▁umgibt~~17162
▁meinten~~8906
bane~~6318
band~~968
forscht~~210
verteilung~~8662
▁vergessen~~389
▁Flugzeugen~~13310
▁renov~~11624
ther~~618
bank~~11652
▁wur~~9603
raschall~~20773
yon~~17103
▁position~~15000
▁Viet~~20588
artigkeit~~17949
▁Kent~~18065
▁4,000~~20605
▁fortfahren~~10412
l~~1989
▁Scott~~5314
▁bedecken~~4022
▁Arzt~~7671
▁Schachtel~~11452
usste~~13234
▁Opt~~16054
▁DARPA~~11926
▁Kreaturen~~473
dings~~17666
▁enth~~3624
▁verlangsamt~~12237
▁Saat~~8515
▁McL~~15789
▁Lücke~~2204
▁unerwartet~~10996
wahrscheinlich~~10400
schlossen~~7489
▁sit~~14687
▁McG~~4530
▁har~~18565
▁McC~~7699
▁sir~~21094
▁agieren~~8642
▁sil~~4026
scheid~~19866
▁sin~~20296
▁angewiesen~~8499
▁merkt~~11327
▁sie~~105
▁install~~1525
üte~~1961
by~~13740
nutzung~~13621
▁Plötzlich~~5576
▁femin~~14710
▁Julian~~12516
▁letz~~1255
▁series~~21141
ografische~~6252
▁Jones~~13145
▁Bomb~~5028
▁Jewish~~21024
piece~~20037
ouver~~18453
▁Wissenschaftler~~492
▁anfangen~~826
stellung~~2767
▁Sinne~~3105
ütz~~11142
▁ermöglich~~5335
▁Within~~9444
▁Gefühle~~5483
ublin~~11779
ublik~~5320
▁Gemü~~16795
▁interviewed~~20941
räger~~7419
▁Ökologie~~12507
▁Amerika~~3826
standard~~2090
▁Service~~6639
▁intens~~6783
▁Reich~~6171
arks~~18012
nte~~10688
▁Zer~~11843
▁Hinter~~6180
ange~~5498
▁Exper~~17416
corn~~15646
▁Caltech~~16567
▁anhand~~4775
▁umge~~5477
▁wobei~~9868
ohlen~~15298
▁hinweg~~2689
▁Exped~~9922
▁club~~19732
▁Höhe~~550
▁möchte~~225
▁la~~3762
▁Webseiten~~17636
▁Freundes~~16221
▁le~~6637
upiter~~18952
▁Nährstoffe~~15297
▁qualif~~12066
▁landete~~7803
▁47~~16018
▁langfristige~~15679
▁relatives~~9829
render~~19413
▁Kurzweil~~19287
▁initi~~12855
kil~~10951
▁Telesk~~19762
▁water~~20672
▁Organe~~12420
▁Innov~~11786
▁aufeinander~~7977
ißt~~9321
▁Hausaufgaben~~8893
zess~~16083
▁Abweich~~10184
▁link~~17274
▁Kur~~6570
Aud~~19533
aire~~3355
▁kollabor~~14689
▁Haushalte~~15675
▁Herzinfarkt~~17613
raten~~7581
ingen~~2892
eremon~~15126
airo~~19084
inger~~9370
▁Oprah~~18241
▁Kub~~9851
▁Kug~~7309
▁Veteranen~~18431
▁Spitze~~2921
▁Meinungen~~12692
▁Kul~~5244
▁Verkauf~~6220
▁Schaffen~~11561
▁verring~~20118
▁Angriff~~7861
B~~1180
▁adoles~~16763
▁Umlauf~~10653
▁Reifen~~10574
▁Tasse~~17892
nahm~~6307
▁Komponente~~13139
▁17,~~19067
▁Plattform~~8682
▁Interessantes~~13540
▁ausbilden~~13065
▁Apart~~10039
Inter~~7019
Auf~~8979
▁pandem~~7343
weichen~~7310
▁Ehre~~3389
▁musst~~1537
▁virtual~~20375
▁Unterschiede~~2598
▁spirituellen~~8858
dy~~11782
ators~~10834
▁Romant~~16717
▁betreffen~~13244
▁Pres~~19417
▁UV~~10407
▁LHC~~17456
kte~~5193
▁hij~~20703
▁900~~2839
▁verursachen~~3087
▁10,000~~19767
▁tanzen~~1657
ismen~~9137
▁Kost~~3284
okraten~~18828
▁neugierig~~10476
▁Ko~~12215
▁Olympischen~~16510
fahrts~~14466
arians~~19984
▁folgen~~1536
▁Statist~~17854
▁TEDWomen~~7515
strafe~~15883
▁Veränderung~~1875
▁Afghanistan~~7422
▁wenigstens~~6435
▁Konvers~~16357
▁Jacques~~15654
▁hervorragend~~14828
▁Pferde~~6010
▁Klimaw~~16661
▁angesch~~8391
laden~~1968
ldern~~207
▁Ihrem~~1725
▁Mississipp~~18650
ichteten~~13855
▁irre~~11066
▁Ke~~1170
▁vernachläss~~3408
▁markieren~~7113
▁Ihres~~6661
▁Ihrer~~1923
ype~~19783
gien~~8028
▁Geräusche~~9886
▁speziell~~5377
▁Bevölker~~10832
Wenn~~3818
▁Dezember~~12891
▁Musch~~15555
Qu~~9907
bruch~~692
▁Lern~~2229
▁Roman~~11334
▁Chemie~~2952
▁Hamburger~~15892
▁Errungen~~11530
▁verpflich~~14307
▁dess~~13803
▁Mond~~6838
▁divid~~20985
rator~~11453
Good~~18806
programm~~13945
▁Mäusen~~9214
▁arithmet~~18309
▁Bek~~6156
ological~~18185
▁drucken~~16401
rengung~~20683
ierer~~15850
▁schwer~~2044
▁Anst~~14125
▁passieren~~1429
▁Moder~~5382
▁Nahrungs~~6042
▁United~~16893
▁Mühe~~7429
▁Saturday~~18852
▁Kurven~~16941
▁Qualität~~2302
▁redete~~15512
▁15,~~16442
ative~~2651
▁Neuigkeiten~~4680
▁100~~1443
▁Argument~~4081
ieren~~385
▁Kraft~~3388
ogh~~14627
▁Zip~~19620
▁zu~~38
▁Zit~~9493
▁entsteht~~971
▁Schriftsteller~~11366
mittel~~10725
▁schwierigsten~~7496
▁Blumen~~5707
▁Worte~~4926
▁gespannt~~7090
pielen~~4802
▁kontrollierte~~9402
▁release~~20741
▁Jeff~~15529
▁Zie~~11829
▁angewendet~~7948
▁ungewöhnliche~~5010
▁altmod~~6505
ober~~10891
itten~~6535
▁restlichen~~10739
hry~~7848
▁Thr~~18203
▁gemessen~~3989
hrt~~9789
▁experimentieren~~4921
örter~~13252
aced~~20300
▁Rocke~~20837
version~~12605
oose~~16214
▁woran~~9046
sehen~~2665
▁diverse~~19802
▁Gesichtsaus~~13510
▁Vieh~~12416
eiden~~10523
▁Cloud~~9733
▁Op~~3113
▁Os~~19080
▁Or~~5203
▁Bil~~12794
▁psychologische~~13315
▁Bin~~7855
▁Bio~~707
▁Ox~~19579
▁Oz~~3649
▁Mechan~~17478
risiko~~8504
▁schützt~~7065
▁Ob~~3180
▁Od~~18763
reuung~~10295
▁David~~4
▁wuer~~14743
▁Oh~~784
▁Kreativität~~1362
du~~5363
dr~~8181
ds~~2228
▁großartige~~1777
eme~~9449
▁Night~~6028
▁Unterdrück~~13351
▁beeinflusst~~2815
ema~~12812
▁kommer~~11481
anzt~~6671
▁versus~~16342
ägen~~15272
▁Etik~~6287
▁informieren~~12030
▁Einzelnen~~6950
stead~~20908
anze~~17590
▁Wales~~6212
▁Industrie~~1880
▁kommen~~460
▁OK~~4074
▁hell~~11477
▁integrieren~~10175
▁sinkt~~12075
▁Hero~~4793
innt~~12824
rench~~20631
llekt~~19137
▁Here~~16825
▁horizont~~18491
etics~~11903
icle~~18436
▁Mitgefühls~~9754
linien~~15043
inne~~17910
▁kommt~~732
▁Herz~~3654
▁Portugal~~2495
▁area~~21193
▁Herr~~11292
▁Richtung~~2483
eres~~7130
▁true~~20165
▁einher~~2134
atur~~963
atus~~16788
▁Zens~~8907
lichem~~13560
▁gerichtet~~15968
▁intuit~~15330
▁Bereichen~~844
▁Zent~~457
▁redu~~14791
▁Tahrir~~19078
▁möchten~~10162
▁States~~17959
ered~~19101
▁biom~~17337
ienen~~12816
▁Newton~~12707
erei~~1981
eren~~702
erem~~9065
icer~~14043
we~~3281
wa~~15547
hai~~13444
wo~~5832
wn~~16753
▁Fischerei~~7018
ungsmittel~~17310
▁2005,~~16409
▁belieb~~6251
ffekt~~4730
leute~~16251
▁indigen~~14818
ws~~19058
▁interess~~16889
▁KT~~20720
▁Power~~16408
▁direct~~17820
▁aufstehen~~4630
▁Strasse~~7321
ild~~3689
ile~~290
▁somit~~2658
▁Berge~~551
▁Mädchens~~5610
ill~~5250
ilm~~8253
probleme~~12915
kommen~~696
▁zweif~~6874
ätigkeit~~11648
ilt~~10984
▁Gott~~1394
ils~~4841
erien~~17130
▁Allerdings~~12096
▁Basen~~15370
▁Gilbert~~16426
▁answer~~19928
com~~9622
col~~20904
▁Evan~~6416
bral~~5037
▁Herausforderung~~1942
▁Oft~~4484
▁Hins~~5426
iche~~6683
▁Kuchen~~6282
Par~~16152
mächt~~1932
▁Hind~~15191
▁wirken~~8453
zierte~~2600
▁Off~~7968
▁3000~~14943
▁einnehmen~~8688
▁fas~~16021
▁spaghetti~~17989
▁spend~~19343
▁bewiesen~~10324
▁fal~~10852
▁Enri~~16022
mmer~~10100
▁gese~~13368
▁pun~~12378
▁Formen~~388
identen~~14429
▁fan~~19449
schluss~~4725
▁Schultern~~6694
hagen~~14666
▁glücklich~~1806
▁Ungefähr~~5287
▁Figuren~~10460
▁Schließlich~~7719
▁dahinter~~7405
▁erbl~~11341
▁Bruder~~7575
onieren~~15173
▁ausgestattet~~9765
▁Respekt~~5668
▁instinktiv~~5488
▁assozi~~14960
▁cycle~~21218
baum~~10698
▁Konzept~~1155
▁handle~~20189
▁Recht~~3537
baut~~6373
▁Cole~~17853
fest~~3938
boden~~5448
▁Cola~~4355
▁Beziehung~~5112
baus~~10613
iffern~~15353
▁ter~~19032
istenz~~8271
▁crazy~~19929
▁Schülern~~2418
▁son~~14254
▁vollen~~11744
ident~~12970
▁steckt~~2288
▁erklärte~~5550
▁Flecken~~14792
▁heran~~464
▁komplizierter~~6717
▁investieren~~5927
air~~12547
aim~~16039
ail~~5967
oes~~16912
ain~~10308
▁genossen~~1906
▁ze~~10826
▁Takt~~7430
▁Frauen~~2438
▁Moment~~1470
aid~~19576
▁Schweiß~~17735
reme~~14060
▁Gegensatz~~3468
▁proportion~~18718
izabeth~~20620
▁herab~~9334
cont~~12988
iegt~~8363
▁dagegen~~6657
▁französische~~11379
▁proto~~15269
▁Astronomen~~14065
▁jud~~18761
cond~~20698
acheln~~8909
▁ad~~17040
▁diese~~214
▁Swiss~~20341
▁leid~~3894
wissenschaften~~10219
▁Janu~~16240
▁jug~~20219
▁Modellen~~10097
inging~~20121
▁soz~~18264
▁Werkzeuge~~6603
▁Zykl~~1116
▁Zwei~~860
amerika~~531
▁Nevada~~16174
▁Julia~~15257
▁Jane~~3660
preisträger~~12567
.]~~10526
▁Praxis~~10386
▁buchstäblich~~3042
▁Jahrzehnten~~7367
▁Nachdenken~~14344
▁Schwestern~~3568
▁Applaus~~5025
▁Auffassung~~1286
Zeit~~9478
▁redet~~4644
verkehr~~12645
hang~~11742
▁Philipp~~5874
hand~~2086
▁arro~~13663
▁reden~~2049
▁Babies~~1342
▁Gefahr~~7642
harm~~18353
▁stick~~17757
Y~~4749
nis~~5276
▁nette~~15174
felder~~16458
▁Wellen~~168
▁verfol~~12762
iste~~7524
▁wh~~18488
▁Normalerweise~~779
▁bevor~~1588
kept~~16938
▁wo~~60
▁Materie~~14639
▁Herbst~~13844
▁oder~~149
▁Erkenntnis~~5505
▁we~~5364
eps~~15834
gekommen~~5226
▁Rebe~~17653
▁akademischen~~3706
▁Speicher~~16989
▁ox~~17295
▁1980~~8543
▁Kurse~~10023
the~~11635
▁modular~~18485
▁1984~~8529
▁Innovation~~1247
▁heterosex~~16713
▁höchste~~10965
▁geist~~8342
▁Auswahl~~3417
▁Glühbirnen~~17766
▁Chinas~~8614
▁Skl~~19121
▁überrascht~~3726
▁Ski~~1770
ideos~~17010
▁alternative~~10222
lein~~19002
gebiet~~6974
onse~~19352
▁Sichtweise~~5479
▁loswerden~~11529
▁Über~~2485
▁beschreiben~~3718
anter~~6183
ktop~~17667
▁nachts~~5569
ktor~~2728
▁Liberia~~13366
weist~~11156
▁Miss~~7520
▁Militär~~2930
▁Mist~~12721
▁spaz~~11055
▁Progn~~15295
ists~~13555
board~~14681
▁Viele~~2466
▁gere~~10999
weise~~603
kton~~5951
▁Intellekt~~13291
anten~~2241
▁national~~7070
▁ober~~13841
▁hohes~~14531
▁Asien~~2193
▁Pers~~13489
▁glück~~8177
Tra~~16614
▁determ~~15570
▁innen~~11499
▁Friedman~~10068
cho~~11769
▁Abbild~~9604
▁urban~~13880
▁verzerr~~4462
▁erkannte~~11085
▁zurückzukehren~~8551
cape~~3609
▁Werkstatt~~6478
▁Zentral~~6812
▁hohem~~2319
▁Martin~~6415
▁hohen~~1661
▁GPHIN~~21058
▁muslimischen~~13313
▁Leber~~16210
zel~~18492
▁om~~19442
▁Werden~~13923
▁wuchs~~7525
▁Eth~~12006
▁überwält~~19770
▁ol~~19017
Bü~~13639
▁entde~~19407
quot~~20087
aginas~~20882
night~~15763
▁locker~~16891
▁Mach~~4709
▁heads~~14983
kosten~~7265
oxid~~17729
▁Präsentation~~9626
▁Begle~~12710
▁hät~~8208
bees~~20840
▁Einstein~~10334
Dr~~18321
bors~~18299
▁Vorlesungen~~10317
▁Bericht~~1280
▁dauern~~7331
born~~11262
öglichkeit~~17454
▁Reformen~~8471
▁dauert~~822
borg~~18357
▁Diagram~~17909
inational~~21135
sende~~13820
▁UK~~20358
▁Mücken~~14053
▁Kok~~17880
▁falsche~~7378
▁Provinz~~12964
▁jähr~~2799
ykl~~8783
belie~~15983
asking~~20431
▁wahnsinn~~18548
▁Vorhersagen~~16122
▁Korre~~14769
iguren~~12820
▁Install~~18154
stitution~~1376
ließlich~~20101
▁aktiv~~1062
▁schick~~14164
▁zentralen~~7117
▁Feed~~17924
▁for~~5083
walk~~17871
bricht~~10185
▁Forschern~~12158
▁Demokraten~~12474
andelt~~11177
▁Einfach~~1145
phen~~10300
▁zusätzlich~~15210
andeln~~5015
▁Amanda~~8173
▁Sadd~~10225
phet~~13396
▁fol~~12526
▁Gesellschaft~~1198
bahn~~2333
▁hergestellt~~5855
▁SL~~17734
rote~~16043
▁FO~~21179
▁wette~~3497
ildete~~17448
regung~~3109
▁Wisst~~15673
obe~~14884
▁scheit~~13183
▁Medium~~5420
▁ups~~16418
▁Tieren~~323
▁schein~~17950
etzung~~13959
▁Ego~~15695
▁Denkt~~11975
▁Arts~~16350
obs~~14242
oten~~1645
▁Strand~~147
otel~~3418
▁gött~~13822
▁drif~~18135
ola~~14197
▁1975~~10346
▁suchte~~1453
▁verdoppelt~~8689
▁Präsent~~15733
▁bran~~20199
right~~13912
▁denken~~1228
▁drit~~13350
▁Glob~~16162
▁Leder~~13697
▁wieder~~661
▁Cartoons~~14541
oter~~9656
otes~~14044
wan~~16649
▁Boot~~3534
▁Mat~~3572
▁Mas~~4762
▁Mar~~251
▁Quantenmechanik~~14638
▁zunehmend~~3191
▁lügen~~7841
▁Platt~~19723
▁Kambod~~10672
▁May~~12115
▁Max~~3899
▁Mag~~658
▁Mad~~11324
▁Mac~~11380
▁befand~~2388
ürt~~13739
▁Mao~~18456
▁Man~~418
▁Mal~~975
▁Mak~~16413
war~~11938
▁Molekülen~~9263
▁Mah~~8155
▁Minute~~4547
▁ausger~~11010
▁Re~~1686
▁ausgew~~11825
▁Tausend~~11824
▁Harmonie~~13425
▁Geburtstag~~3313
ocial~~20240
imate~~17554
▁mochte~~2399
iking~~18758
▁Rh~~9931
bereit~~8297
▁Subst~~17309
▁ausgeb~~6695
▁Ru~~13792
rauch~~15502
▁Data~~18708
griffen~~2676
▁ausged~~15070
▁legisl~~17907
artige~~6824
▁Position~~9720
▁Osama~~19639
▁ausgel~~8863
▁RG~~10108
gewalt~~16238
▁transparent~~7959
▁letztes~~6668
▁letzter~~2777
emin~~5942
▁Nächstes~~10994
▁RL~~19073
anen~~16265
▁Belohnung~~8982
▁gebildet~~8167
▁Wiederauf~~13618
aner~~10673
anes~~14421
gemacht~~6609
▁Widerstand~~13358
▁arabischen~~15515
▁Intens~~18628
izers~~20633
▁porn~~18425
▁letzten~~841
cko~~19645
▁schools~~19712
▁Indust~~18182
▁arg~~18297
▁simple~~5527
ansen~~11015
▁geschätzt~~6085
▁Krokod~~18239
ffiti~~17696
▁konstant~~12019
▁Tans~~20516
▁Gespr~~16908
▁ther~~18605
▁nomin~~17905
wohnheiten~~13782
ourse~~20918
▁Gelegenheit~~3693
face~~17753
lucht~~14747
▁große~~965
▁Canada~~15410
dach~~5441
▁Dol~~20001
▁frühen~~9096
▁Stattdessen~~10775
▁passiv~~9903
▁gu~~9599
ramm~~15354
▁neural~~20180
▁teurer~~2383
▁Hätten~~16964
▁schlicht~~15567
▁teuren~~13983
▁Gleichgewicht~~12871
▁port~~19691
wär~~11049
test~~7743
▁spezifische~~14561
▁old~~19730
▁Bond~~19521
▁früher~~6738
▁lachen~~1738
▁Motorrad~~8025
▁akzeptiert~~4240
zeital~~6224
ianische~~13454
▁fluoreszieren~~18461
▁kurzen~~1873
▁kurzem~~3564
▁Taiwan~~12957
▁gesamtes~~17787
▁Insel~~5826
▁Ersten~~14736
▁kurzes~~1782
▁kurzer~~14782
▁Echtzeit~~2984
ktive~~1938
ropolitan~~15449
▁Diagn~~13984
äfte~~20018
▁Heute~~1995
▁durchzuführen~~2929
lleicht~~20842
itude~~18786
for~~15153
▁Zero~~16604
▁Güte~~11249
▁Pinker~~18261
▁unglaubliche~~1112
▁vernetzen~~9697
▁Krist~~6819
spuren~~14228
▁beginnt~~4838
etzt~~1022
▁typ~~7396
▁umgekehrt~~5683
▁Klienten~~15959
back~~16794
▁assoziiert~~13075
ules~~19410
▁export~~16439
▁Cortex~~1678
▁Lokal~~15150
▁hielten~~7578
▁sky~~19756
▁Verständnis~~3245
▁leichte~~16333
0~~8612
▁uner~~209
▁nehmen~~503
iologen~~12045
▁Auf~~675
▁Aud~~16180
▁begeistert~~4032
▁unmittelbar~~5511
▁asymmet~~10781
▁Untergrund~~13394
▁rec~~20024
▁Letzt~~15068
▁patri~~18794
▁unem~~1695
▁Aut~~1509
▁Aus~~1196
▁Aur~~18482
▁Anruf~~9514
▁aufgefallen~~4594
God~~20457
▁Gegen~~8698
zone~~7054
jahre~~2203
▁dialog~~15312
▁stolz~~10559
▁Falls~~1339
▁Algorith~~20690
▁Multivers~~17538
rhythm~~20410
▁Oze~~15442
▁widersprüch~~16432
▁Vereinten~~6928
▁Bezahlung~~4398
▁jetzt~~1193
aland~~20798
▁Geduld~~8746
▁kulturellen~~3736
▁schwieriger~~1164
▁Pick~~17028
▁Pich~~19813
▁Dynam~~18523
▁Letz~~6367
blase~~17400
▁herkommen~~5699
▁vorbereitet~~2210
▁Ale~~20697
fol~~7292
zeichen~~8919
Tech~~15747
▁Epidem~~13991
▁Liebe~~4549
ändler~~16796
▁warum~~1061
▁gold~~18248
▁Stunde~~4121
▁golf~~20421
▁Liebl~~285
hington~~16182
sätz~~11818
▁Isol~~15591
umn~~15211
▁Agency~~11866
Just~~14143
▁schwierigen~~7483
Global~~12752
▁Alz~~17376
▁nochmal~~3855
p~~1466
▁Angesicht~~14635
▁KA~~19972
▁Brut~~17173
orld~~17035
gut~~5804
selben~~16216
ault~~20416
▁ton~~21170
skop~~14015
▁Gesetz~~11207
▁erstaunt~~8892
renzen~~3219
hte~~2414
revolution~~1926
hell~~19310
▁Universen~~17239
▁unterhalb~~5788
▁Streifen~~17027
▁25,~~19068
ekte~~9093
▁beinhal~~18044
schaffung~~19344
▁unterhalt~~12849
▁entfern~~14760
▁ignorieren~~11296
unklen~~16538
▁250~~10086
▁Zoo~~18498
▁befr~~11910
ingenommen~~20339
▁every~~19843
▁Abwasser~~16227
uppen~~17086
öscht~~18876
ereien~~3183
▁traur~~1268
▁Love~~3677
uers~~11526
uert~~2542
▁Teufels~~14011
▁arm~~8446
ov~~11467
▁Forschung~~4058
▁Märkte~~6354
▁befreien~~5766
▁MBA~~8129
▁inne~~12313
andelte~~14390
▁besser~~1515
▁fort~~2076
öch~~3256
▁Schm~~10021
▁Refle~~17882
▁art~~3526
▁Beinen~~4199
▁Bor~~14052
iedeln~~11816
▁Hat~~4687
▁Har~~3684
▁Bow~~13445
▁Bot~~5716
▁Bou~~13495
▁Vö~~7919
gener~~7702
▁Mt~~9341
▁Manager~~11440
▁wechseln~~4512
▁Hay~~10614
▁Bob~~5308
▁zurecht~~5225
▁Atomen~~15035
▁Hab~~15125
riere~~11611
▁Mi~~12987
▁wechselt~~8485
▁Han~~15946
ersterblichkeit~~14953
▁Me~~6645
▁Ham~~11751
▁Mc~~7703
bevölkerung~~9102
▁Bol~~1484
▁Hai~~3523
▁Venter~~11988
▁Jar~~16647
buch~~9541
▁soweit~~6126
▁Durchschnitts~~12382
▁während~~2944
▁Intensiv~~8269
▁che~~10019
▁MS~~17429
▁Profil~~8721
▁MP~~5422
▁MO~~17127
▁hinge~~695
sprechend~~3887
▁verhalten~~1229
möglich~~16632
▁Batterie~~16051
▁America~~17388
ekt~~5105
▁dennoch~~2484
alente~~14930
▁geschl~~6249
▁geschm~~9346
ō~~20342
hnte~~5833
▁anatom~~12175
▁packen~~2971
▁Zell~~8093
▁harm~~6703
▁Großbritann~~13824
▁Mountain~~1912
▁Zelt~~10970
▁Held~~11735
▁hart~~1745
uzz~~15361
▁verschieben~~18927
cies~~20771
▁kompliz~~19313
▁Helm~~16092
▁Hell~~11479
▁Papa~~7557
flüge~~18356
▁Att~~18296
uchten~~5652
leuchten~~3695
bury~~4901
▁ethn~~17148
▁dimension~~20267
▁Betrachter~~15067
▁Betrachten~~13263
▁mix~~19499
▁atmosph~~2745
▁größtenteils~~14474
▁Jemen~~19675
▁bedeutend~~10436
▁umsch~~8383
▁Umwelt~~4946
▁Richtlinien~~10098
reislauf~~18630
▁löschen~~7964
▁trotzdem~~2866
▁Ev~~11674
▁verantwort~~11649
gly~~20775
yrus~~11090
▁mist~~17856
▁zurückge~~13387
▁fasziniert~~9534
▁Brenn~~6104
▁bitte~~3884
▁Brend~~19205
▁essent~~12512
▁Afrikas~~7365
▁erkannt~~6993
▁Ric~~15434
ibl~~11572
▁komplexen~~5241
▁schieben~~12288
cas~~18285
car~~6848
ißen~~1827
decken~~10472
ibe~~3967
abyte~~18784
▁Guinea~~19025
decker~~10898
ished~~20848
zeugen~~13000
can~~11096
cam~~17292
▁plast~~6024
▁Eigentum~~7537
▁Cru~~18874
▁fokussieren~~11093
trans~~5346
ibt~~7866
▁Grüne~~16438
▁Ost~~6216
sichts~~18419
▁invasive~~19055
▁gehörte~~12591
lder~~18771
▁benutz~~18531
aker~~11919
▁Prinzip~~3406
spr~~6079
ione~~10650
▁Place~~18187
▁systemat~~4528
▁erwachsene~~19459
sph~~15258
▁Materialien~~4004
▁historischen~~9855
riert~~11147
▁ankommen~~534
spe~~6876
▁herausstellte~~12171
▁Grupp~~13921
▁Methoden~~2632
▁Gedanke~~4727
▁hat~~95
▁hau~~17740
,"~~4439
▁has~~13430
▁machte~~3239
▁quantitative~~19167
▁Kosov~~18922
▁Proz~~1533
▁make~~14978
▁emotion~~16902
schiff~~16318
▁instr~~20328
▁Hillis~~19179
▁Verwand~~13374
▁had~~21195
▁Middle~~11681
▁hab~~1236
▁Scheiße~~16457
schaut~~13527
▁Christians~~20650
▁Princ~~21140
▁hal~~10986
▁ham~~18180
▁Solarzellen~~15040
▁Sebast~~19264
astroph~~17816
▁Konzert~~12975
▁Gewe~~12082
▁97~~14190
▁Cont~~16798
▁gear~~17506
▁Cons~~7062
▁Dunkeln~~9871
▁gefahren~~8927
adel~~12708
▁able~~13269
▁Griechen~~14276
▁tippen~~5654
▁herbe~~9434
▁überqueren~~532
▁erfand~~15523
▁realistisch~~13180
▁Cond~~18935
▁zweites~~12572
alyst~~18735
?"~~1468
▁Vernunft~~8311
Warum~~4127
▁Def~~8491
▁Deb~~13845
katastrophen~~12930
autos~~18696
▁Den~~898
▁teilt~~2452
▁Del~~12375
▁Dem~~3907
ateral~~19224
▁Dek~~7221
▁Dev~~8657
▁überraschend~~1306
▁Det~~17631
▁Der~~135
▁Des~~1129
▁Dep~~10604
▁th~~17405
lichste~~8756
ores~~15786
▁Dez~~19803
kurs~~7122
▁ergänzen~~8834
▁Rel~~17749
endet~~10825
Druck~~10842
endes~~1410
ender~~1202
itiven~~13086
▁schickt~~12152
▁astrol~~19016
ities~~5532
▁rück~~10723
ssystem~~1253
coln~~18074
Re~~3925
Chr~~14775
▁Fliegen~~2932
▁100.~~14766
▁kombiniert~~14777
▁Klavier~~14094
▁kompe~~13087
onien~~13416
enden~~813
▁grundlegende~~2428
ular~~7940
▁entdeckten~~3292
▁Chile~~2200
▁Child~~13603
▁trium~~21100
enne~~8151
▁Märchen~~1316
▁Wachstum~~8609
rators~~20126
▁toll~~1001
▁Lasst~~11628
▁schauen~~160
▁physikal~~9683
fäll~~3787
▁neck~~20688
▁Bots~~19260
RA~~16946
▁Chines~~13668
▁infiziert~~1190
▁Anblick~~12665
ektive~~17322
RI~~14554
▁food~~20529
▁mathematischen~~14342
▁legal~~13247
tschaften~~8427
▁gekommen~~703
rümm~~10808
halt~~5897
▁Ausgaben~~2297
▁Wund~~15525
▁Ält~~14896
sol~~16247
sproblem~~11644
▁darstellt~~6322
halb~~7320
▁Grenze~~229
half~~18443
▁kritischen~~3509
chnolog~~3943
nov~~14830
▁Anstrengung~~7275
▁Bra~~11447
hall~~14417
▁verwalten~~13780
lier~~12233
▁aggress~~8257
itze~~12916
▁ur~~6317
spielen~~7623
▁zerstören~~1090
▁lokalen~~6771
▁Opfer~~8050
▁einfallen~~11617
▁Rauschen~~10803
▁geschenkt~~14460
kern~~1765
ausbildung~~10059
▁Angeb~~10088
▁Würden~~2548
itzt~~9782
▁Volks~~13764
▁gesendet~~5338
▁Traditionen~~13341
▁un~~1550
▁um~~239
spieler~~4534
▁Angel~~11045
▁Wirtschaft~~1195
em~~629
▁beruf~~2341
en~~905
-4~~19771
eh~~7569
▁vari~~4278
▁drängen~~10302
ee~~6967
ed~~5935
ef~~5768
▁Kabel~~6705
▁beruh~~11087
▁bekämpfen~~9294
▁entsprechen~~3047
ex~~8869
▁gegeben~~4203
▁puff~~17450
eu~~20641
et~~577
ophys~~14373
ep~~6365
es~~674
er~~1078
▁bauen~~6294
▁geworden~~1391
▁prosth~~20561
space~~9539
`~~20615
▁elektr~~5360
▁Ausgabe~~15656
ought~~19483
▁anspruchs~~10380
▁Kle~~880
▁Her~~9306
▁Diagnose~~8179
▁hyperbol~~10109
▁Fahrzeuge~~9875
▁scheinbar~~7357
rete~~19911
zählt~~846
glück~~8401
▁beweg~~10715
▁befreit~~6258
▁zurückzu~~4399
▁aufgere~~17015
▁den~~39
ätze~~2702
▁del~~17087
▁dem~~277
▁Laptop~~1545
▁aufre~~7511
▁radikale~~9428
▁Klassenzimmer~~3788
▁Person~~3107
▁der~~11
▁des~~13
▁dep~~17986
reben~~9060
ätzt~~3467
▁Microsoft~~15706
rein~~1073
problem~~12940
care~~20303
▁ausgeben~~2364
▁Nahrungsmittel~~6276
▁herausfinden~~2643
▁6.000~~13701
▁Stanford~~6642
▁schlag~~10914
▁zuvor~~3051
volution~~16570
▁Status~~9776
▁Küchen~~9497
▁worüber~~9533
▁Spe~~11420
frieden~~10582
▁Kann~~2531
▁schlau~~4984
▁Jahrzehnte~~12311
▁Haken~~9680
essim~~15517
stronom~~18950
blind~~11051
▁Herangehen~~11508
▁Hunde~~6338
▁wahnsinnig~~8511
▁Nationalpark~~13505
▁Nachbarschaft~~7653
▁risk~~2758
▁stellten~~10046
inu~~15792
▁fürchten~~6290
▁hypoth~~10266
xy~~12796
▁Endes~~9123
▁altru~~14375
▁Vaters~~3314
rine~~13834
▁Motivation~~10327
ring~~3685
▁York~~6468
rina~~21002
▁Planeten~~133
xt~~805
ücksicht~~19128
▁versteht~~3732
▁Posit~~9124
▁Untersuchungen~~3124
ünfte~~12782
▁irgendetwas~~5484
▁Bull~~9716
▁stoppen~~6021
▁Station~~4113
▁sä~~3192
▁zwang~~13391
ission~~9857
▁Eigenschaften~~1591
▁Einzelne~~4455
▁gap~~21004
▁sü~~11830
▁würdest~~7595
▁schießen~~763
▁glauben~~1632
▁Nike~~13723
friend~~21168
▁improv~~5326
▁Verzweiflung~~6791
nehmen~~752
▁Comics~~15732
arith~~18052
pect~~21104
▁Leib~~17750
▁flip~~21157
▁Foie~~20383
▁Lein~~17691
zucht~~15218
▁Fäden~~902
▁angetrieben~~8466
▁Ausrüstung~~7812
rechen~~8536
ix~~8224
qual~~1006
▁flie~~2948
ential~~20642
▁Comp~~17341
▁allerdings~~4334
▁interpretieren~~12179
anischen~~515
nehmer~~5818
▁mitnehmen~~6836
thal~~19390
▁160~~3969
Source~~16165
▁antib~~20272
gehe~~4000
ickelt~~7970
aughter~~21214
▁Drogen~~7638
▁Fettleibigkeit~~11135
▁Erfassung~~17665
▁gewachsen~~11668
▁What~~21245
▁Fotograf~~17272
▁Archimedes~~19593
geht~~2135
studien~~16859
▁Teenager~~3325
▁erinner~~13879
▁merk~~20618
▁Invest~~17827
zentren~~6150
angen~~13376
angel~~2128
▁Flughafen~~5684
▁umzusetzen~~14176
▁Hallo~~2999
▁überraschen~~10771
▁DV~~18774
wände~~17692
▁Schü~~18349
anger~~3397
Mail~~4655
ping~~20105
▁1,~~5961
ilet~~17038
▁Anderer~~17275
▁Coach~~13696
inken~~3003
▁Zeilen~~8357
inkel~~14270
iziert~~5157
form~~84
▁Museums~~10463
▁mic~~20839
▁Komplex~~15405
▁beliebt~~2560
ards~~12259
isterung~~20104
▁präsent~~8959
önlichkeit~~18205
▁groß~~866
▁Nair~~19355
▁Winden~~11039
deut~~10077
▁überzeugen~~7911
▁Pl~~1980
▁lauf~~14128
▁Sperm~~11272
▁Po~~3472
▁Ph~~1692
▁Dadurch~~9048
▁Spar~~15671
▁Spielen~~1194
▁eigenen~~1898
▁Pe~~6011
▁Pf~~5814
▁14~~8431
▁dunklen~~6359
▁retten~~6924
▁Abschnitt~~14312
▁dunkler~~14113
▁16.~~6619
wire~~18541
▁Klang~~4774
▁eigenes~~4879
oreingenommen~~13271
▁0~~17679
▁Span~~11391
ford~~14719
]~~2803
▁Pr~~253
▁irgendwie~~478
älfte~~11943
bere~~5776
▁PH~~16566
▁PI~~21051
▁Chaos~~4538
▁Aktien~~4464
▁emotions~~20382
▁begann~~3601
▁lustig~~1726
ance~~9088
▁Luc~~5870
▁Intell~~18527
ancy~~20735
fahrzeug~~17848
▁Heart~~20019
onium~~18208
▁intuitive~~17079
▁Schwimm~~9902
▁metaph~~8930
ordination~~12216
▁PR~~6832
▁annähernd~~8306
▁Archim~~19594
▁blieb~~8525
▁charakter~~13068
▁rund~~3957
▁verbra~~17823
▁steuern~~3012
▁verbre~~17737
▁Tele~~18022
▁jüngere~~7606
Wel~~11854
Wer~~5631
▁Behälter~~14050
▁häss~~12858
ursor~~18685
▁cover~~21201
höhe~~16353
▁Us~~17539
SP~~15659
▁Blatt~~4233
▁farb~~10657
ground~~15351
aint~~20717
mosp~~19557
▁wesentlich~~3734
utes~~5943
▁Protest~~13455
ains~~16955
▁Texte~~5194
▁fantastisch~~1774
▁intelligenter~~7469
▁1,500~~18501
stud~~8064
▁erschein~~20032
▁intelligenten~~7468
gebrochen~~11019
schläge~~4138
▁Lösungen~~1950
▁gefü~~12441
amera~~5072
▁Herrschaft~~13576
sehe~~14222
▁zueinander~~8823
▁verbreiten~~5457
samen~~13906
▁beeindruckt~~17521
▁Kontinent~~6999
▁Post~~5617
▁rettet~~13346
▁ausgekl~~10811
ington~~15744
▁Li~~18788
▁etwa~~140
▁verbreitet~~4212
ynth~~758
▁Ug~~20120
▁Depressionen~~6792
▁Paare~~8865
▁Trib~~17865
leun~~8804
▁Handels~~8492
führungen~~5386
iles~~9104
▁Spieler~~1634
iqu~~9783
▁Tee~~15205
▁Handeln~~14306
▁höheren~~12381
▁wall~~19748
▁leeren~~12716
▁Ash~~19348
▁Ask~~20514
▁Neue~~14435
▁Geschw~~17966
▁irrational~~4083
erechtigkeit~~19346
▁Landes~~2328
▁Monaten~~3269
▁Ladies~~19071
▁Schutz~~6867
▁ungl~~18760
ontrolle~~11246
▁Philanthropie~~18370
▁Asp~~12329
▁Ass~~8270
▁unge~~9488
▁Tel~~9303
▁Alex~~5288
▁widersp~~11021
▁nutzten~~15590
krieg~~12389
▁Informationen~~6723
azz~~10355
▁Guer~~17137
▁192~~14938
▁Chemotherapie~~14702
3~~2797
▁einfü~~7180
wechsel~~5106
▁fürchte~~11313
▁Building~~19269
▁Frü~~8436
▁warst~~13941
pest~~12425
▁Wörterbuch~~15627
▁Frö~~11140
▁sieben~~4256
▁bevorzug~~9481
▁Verpflichtung~~6944
▁sprach~~5630
▁Ice~~19987
▁Google~~5650
erent~~13015
▁dienen~~6068
▁ausreichend~~9099
▁Ich~~74
▁älteste~~12995
teilung~~2457
▁könnten~~3260
▁Musl~~17900
▁übersetzt~~14265
▁Erfol~~14691
▁Meth~~2849
männer~~16667
Team~~9385
▁Pier~~3691
▁öff~~7666
iance~~19482
ischem~~6787
ischen~~55
▁Jemand~~12679
legenheit~~18089
▁Frie~~13450
▁Später~~4360
▁Erlaubnis~~1012
▁Stock~~932
送你葱~~20863
▁tatsächlichen~~8533
▁Archie~~19018
▁Jungfrau~~12267
▁Fibonacci~~19437
▁reason~~14969
▁Everest~~8071
▁Disk~~5369
▁Portland~~13502
▁Cher~~18177
▁sollen~~1407
▁Professor~~10347
ischer~~565
isches~~1698
uring~~17825
▁50%~~7123
ilfe~~11654
▁invent~~20210
teuer~~16550
▁geschah~~1332
vielfalt~~10785
▁50.~~3312
▁Rente~~16336
▁verschaffen~~1289
ältigen~~20603
schrauber~~15425
amine~~12437
▁chromos~~20092
aming~~19281
▁fixiert~~11306
▁verzweifelt~~7401
▁religiösen~~4326
▁Philosophie~~6818
▁schle~~11316
rängen~~8312
▁app~~16792
▁entfernte~~14795
▁Everglades~~21134
▁elegant~~12013
▁aggressive~~8243
zten~~13876
oder~~9852
odes~~365
oden~~1000
▁Absicht~~8850
7.~~16315
▁niemandem~~9274
▁niemanden~~4653
▁IDEO~~18435
▁spricht~~2594
▁nachdem~~3342
▁nachden~~3473
emark~~8879
▁gesehen~~94
▁Front~~11073
achse~~633
▁erneuerbare~~15237
ctive~~19060
▁History~~10609
cra~~21057
▁Liber~~12517
apier~~9559
▁when~~20405
▁passt~~5103
▁mittlerweile~~5406
▁früheren~~11358
▁Singap~~19647
achst~~17609
▁Besser~~10188
▁Mittern~~8268
prah~~20862
▁Miami~~19546
▁realen~~5679
▁ped~~20084
altet~~1442
ett~~6288
▁hinunter~~5798
these~~736
▁Celsius~~636
▁3.~~10983
▁industriellen~~1492
▁35~~2382
▁34~~3783
▁37~~8890
▁36~~6880
▁31~~15677
▁30~~3327
▁33~~16536
▁effizient~~8445
▁Schöpf~~5464
▁Pyramide~~15245
▁39~~16937
▁Drittel~~4372
ein~~3200
ernen~~6476
▁baby~~13793
ströme~~17334
Sie~~12955
▁Irrt~~13521
▁weiß~~426
▁shot~~19077
eral~~14903
▁Versuchs~~3017
▁Part~~5126
ällen~~12698
▁legend~~4696
▁folgende~~9930
▁Park~~9469
▁Verzweif~~19204
vollen~~8370
ym~~13427
▁herauszu~~10841
▁hängen~~11757
▁Versuche~~7439
▁Wiki~~18711
▁under~~18862
▁Selbstmord~~13228
Israel~~5533
▁Bedürfnissen~~11462
sparn~~20376
▁abges~~6198
chi~~18995
▁tats~~20156
▁auftauchte~~6480
ya~~8409
▁Seitdem~~5219
gleichen~~12898
▁Erweiterung~~6170
▁null~~13936
▁Even~~21008
▁abgel~~7790
▁japanischen~~2590
▁Unen~~9607
▁Ansatz~~4112
▁Häusern~~11437
▁Öff~~13890
▁richt~~4283
Č~~21205
▁Poly~~5842
▁Helium~~17472
▁fotograf~~14292
ć~~20849
▁setzen~~2722
L~~3166
▁Poll~~14051
▁Konstru~~5118
▁Flüss~~18811
▁Interaktion~~10320
▁eleph~~21232
▁Pole~~15948
▁Wolken~~10501
▁blind~~8497
▁gemeinnütz~~14822
▁ring~~20534
▁Bonnie~~18594
ī~~21138
▁Köpfe~~810
▁involviert~~7416
▁kompliziert~~3020
▁Essenz~~14089
▁Verteidigungs~~9921
▁Magen~~5896
iding~~16089
▁Eigentums~~12579
▁übereinstimmen~~10235
▁Wussten~~17424
cca~~20011
lösung~~10153
üsse~~8532
▁["'~~20628
▁Puzz~~13553
▁Dunkel~~6863
▁WK~~20454
▁gesagt~~256
▁Wirtschaftsw~~9951
▁Himal~~20425
ommen~~10210
▁Twitter~~4690
▁Dokument~~3480
▁pre~~18031
uct~~20774
ünft~~12868
▁pra~~17149
▁Angenommen~~10449
▁pro~~716
itarian~~20510
speed~~20057
▁cond~~19858
▁geleg~~3632
▁auslö~~13857
▁Erzeug~~8496
▁Karikatur~~15756
utsche~~17017
▁wesentliche~~1760
▁Vis~~15680
prechen~~13318
mitteln~~6285
▁Stärke~~2704
mittelt~~14528
▁Vie~~13856
▁kurz~~4105
▁typischen~~15588
▁anim~~15773
▁offen~~6768
▁drücken~~510
▁Abends~~5383
▁eingenommen~~14370
▁dünn~~10847
iform~~14556
▁Zivilisationen~~15994
ami~~9751
▁wage~~16898
▁ausgesch~~6750
amm~~2962
▁Arbeitskräfte~~12768
isters~~8860
halts~~12031
read~~6196
▁tatsäch~~20370
uild~~12773
▁jedesmal~~7563
ame~~6426
▁sl~~19424
▁prag~~13399
allererst~~10244
▁aufgenommen~~5187
▁Inder~~12765
▁Argumente~~12371
reat~~11853
▁vorkommt~~6303
▁Autobahn~~8926
istern~~11787
▁Kühe~~6361
▁schufen~~11062
▁Damit~~647
▁Urteil~~13335
▁Yes~~19496
▁serv~~6035
▁Röhren~~738
onic~~18354
fällen~~4886
▁situations~~17571
▁Inneren~~9728
▁fluores~~16244
▁Wüsten~~14271
▁Connect~~17791
ynd~~16927
▁Bühne~~3863
▁Tage~~3058
t~~163
▁jahr~~10443
▁seri~~1412
ichter~~7519
▁bestra~~14371
▁Kolonie~~322
▁sand~~8574
▁Leicht~~16472
▁Orient~~14512
▁wunderschönen~~3861
oment~~18542
▁Anthony~~7628
ivid~~20064
Mart~~14563
▁Indep~~18923
edom~~19276
utzen~~4260
▁Designern~~11726
▁Corpor~~19580
räumen~~48
gerissen~~4116
acey~~17969
pidem~~18877
▁Gro~~17140
freiheit~~14155
▁Hard~~14363
▁circa~~15586
uck~~7382
agert~~4795
▁Infrarot~~960
▁Harm~~18034
▁Gra~~2460
▁erlangen~~2649
▁Seide~~16586
agern~~10692
▁protein~~19366
▁könntest~~7789
▁unc~~20381
▁Hart~~17390
▁else~~19848
▁Wesentlichen~~9066
▁Marc~~19646
▁Lage~~1230
▁Story~~15467
▁2020.~~18705
▁MR~~19314
Ges~~14560
▁Thun~~19491
▁Stamm~~10690
▁weitgehend~~16124
▁verloren~~1438
ibles~~17361
▁Dampf~~15448
▁herein~~7766
▁JL~~21093
unktions~~20215
▁listen~~17904
▁zugrunde~~2538
fragen~~1896
▁Vorstand~~12673
artig~~4639
nisse~~2378
raum~~414
▁Ecke~~7501
▁robust~~11528
▁2010.~~17669
▁Labor~~597
▁Orten~~5387
▁bewegenden~~12626
▁JH~~18112
▁bene~~6845
sterdam~~19176
▁jede~~2116
▁Later~~18992
itte~~16914
▁Crow~~9623
▁1940~~18430
▁Geburts~~1699
osph~~18626
intens~~10861
offen~~16393
▁gesam~~18508
▁versorgt~~11241
▁Obs~~14036
öp~~18947
▁Homosex~~13431
erget~~20810
▁entstehen~~5963
▁Ingenieur~~10340
▁innovativ~~1497
▁getötet~~6020
idden~~15604
▁Rä~~3562
▁Währ~~15665
▁Son~~543
▁Som~~13148
▁Sol~~3898
▁Soc~~13473
idd~~15692
▁Etwa~~12990
▁Geschäftsm~~16081
ahrer~~13356
▁JC~~16110
▁Zweif~~10053
▁Soz~~10106
▁Expedition~~9847
▁Sergio~~20306
▁Sor~~14172
▁Sow~~12309
your~~16620
▁Led~~18529
▁beschaffen~~7506
▁Überraschung~~4550
▁respekt~~13482
▁Minen~~14593
ederal~~17204
▁spring~~18579
aren~~423
▁definieren~~1221
▁Flu~~19425
umenten~~4767
lon~~13794
▁Wildnis~~5998
lor~~19053
los~~1162
aret~~17719
cats~~20196
ares~~9669
▁Ener~~20967
enschaf~~18749
▁Fle~~8367
▁Ger~~6267
▁digit~~18985
▁Frieden~~3430
▁Gates~~7495
cus~~13006
▁soziale~~1243
quate~~17041
▁wirtschaftliche~~8680
▁Gewehr~~1214
J~~3651
▁Betrü~~4218
acon~~13536
▁Trinkwasser~~11145
▁Hütte~~15203
iologist~~18997
etische~~11105
▁würde~~1010
rechnen~~10709
▁gest~~4054
▁vorbereiten~~16421
uzin~~14514
▁gesp~~16025
igel~~13155
▁Überlebens~~9763
hirn~~11076
▁erstaunlichen~~11212
ikationen~~9327
▁Exx~~20238
hirt~~4422
▁Freunden~~1729
▁Exp~~15109
älte~~15079
▁Ext~~13278
ifik~~5879
▁finanziell~~12188
▁Index~~15945
▁kleinen~~1004
▁derart~~18493
600~~13734
▁Bahamas~~17291
▁gegenwärtigen~~15175
gewiesen~~12181
ners~~7226
▁Ire~~19223
▁aufta~~5651
▁Händler~~8468
▁Südpol~~15062
▁Si~~20930
▁Muhammad~~20447
▁Kapitän~~5725
nern~~9042
▁Yellow~~16204
▁DD~~20194
▁extra~~10393
▁kleines~~340
▁kleiner~~433
rect~~19678
waschen~~12351
▁comics~~17489
▁unk~~16061
sorge~~9154
▁meiste~~208
▁Herzschlag~~11079
radle~~12892
▁Union~~11206
▁Masch~~11171
▁amateur~~14108
▁Kathed~~5253
▁austr~~18376
▁hierbei~~11293
you~~19999
▁Mitgefühl~~5669
▁Stillstand~~7148
▁wuchsen~~8611
▁kor~~10133
Great~~5731
▁perman~~7232
phys~~2802
fehle~~17903
▁materie~~9592
▁held~~20707
▁Katastrophen~~9209
▁käme~~7071
drücken~~15314
▁angebracht~~16652
▁CNN~~8715
▁Publik~~15982
▁Verlauf~~6487
▁kod~~16553
▁Aristoteles~~16615
▁Güter~~12540
▁Befehl~~13809
▁Sensoren~~609
▁kom~~2039
▁kol~~15914
▁verbringt~~13069
▁Bosnien~~13417
▁Merkmale~~10149
zettel~~8922
bären~~16208
▁trug~~8024
brochen~~3274
▁Detro~~18744
affen~~5190
▁astronom~~17301
▁Weisheit~~7665
▁winter~~6429
▁unn~~15236
▁Zentren~~11773
▁kleben~~10752
otyp~~16325
▁around~~14988
▁Genetik~~11847
▁adapt~~16063
Amerikan~~16380
drücke~~14259
▁denen~~836
▁rab~~20811
ikro~~9883
▁Fläche~~10782
rahmen~~6330
drückt~~7740
▁lebende~~9315
▁drum~~18902
▁Rohstoff~~8385
▁Ballon~~16106
▁Zumindest~~4539
▁Wurz~~20536
▁Mex~~11281
▁While~~21115
▁benutzten~~10872
▁Mer~~10987
▁unterschied~~301
ünf~~17589
üne~~10837
ünd~~3544
▁Men~~12076
▁Korallen~~6919
▁Mel~~4778
▁unl~~18042
▁Meg~~13652
ochond~~9258
▁Med~~9900
mpf~~952
ucky~~20721
vers~~3296
▁—~~13700
▁verfügbar~~9166
▁hel~~3383
verw~~2709
künd~~14904
very~~19716
▁schrieb~~5223
▁epip~~20006
▁hem~~16028
▁Kath~~11099
▁Ve~~15292
ziele~~18515
verb~~9192
mechan~~9136
▁Wall~~12504
▁beliebigen~~6223
▁Chance~~1817
verk~~8482
▁Besitz~~11519
verl~~9063
▁Rwanda~~20138
▁beurteilen~~13173
▁Dire~~16284
▁rap~~18558
▁arbeiten~~1430
anas~~15843
▁biologische~~9218
--~~12388
-,~~9653
oberfläche~~4777
▁Aust~~17453
▁Wesen~~291
▁Austin~~11777
-1~~3970
-3~~19392
-2~~16326
▁arbeitet~~5058
osm~~17244
holfen~~7143
▁leisten~~2115
▁Sometimes~~19959
▁Barbara~~15059
▁Bertie~~20472
▁zerstört~~6009
etzten~~7910
reck~~18063
▁Links~~12841
immte~~6515
▁reflekt~~18670
▁Kunstwerk~~10401
reci~~20947
▁zuerst~~3531
atory~~15320
▁Geste~~17124
grupp~~19295
▁Telescope~~20287
▁Flügel~~15431
▁Versch~~16267
▁hässlich~~17353
ails~~10017
▁voran~~11299
▁Notiz~~9540
▁institution~~18122
defin~~14300
▁grob~~3643
▁einfach~~1098
ound~~15022
▁Jarrett~~20761
onna~~10406
ützer~~18563
onne~~16820
▁think~~21247
▁Artenvielfalt~~11822
▁Einblick~~2747
uchen~~7038
itasking~~17330
▁sequen~~15371
▁Karen~~15650
asy~~16668
spra~~17844
ienten~~3103
▁völlig~~1089
▁gelebt~~9424
▁Deshalb~~5197
▁Mathematik~~2584
azin~~15110
stitut~~19374
störungen~~15571
seiten~~5645
ießt~~15159
▁Stickstoff~~17800
Lasst~~9245
gnung~~17593
▁Autounfall~~16863
▁forever~~20232
▁10.000~~5551
irat~~8057
thiop~~8518
▁Subtitles~~17
▁verboten~~8041
▁Flug~~2759
▁ehren~~8339
▁som~~11907
▁sol~~16330
▁aufsch~~11672
▁Grafiken~~4604
▁sod~~18502
▁Hot~~11789
illed~~19306
lossen~~10016
▁Flut~~3543
awi~~16491
▁sor~~13448
Unternehmen~~15545
▁tem~~20885
▁erfuhr~~8202
tellte~~17253
arios~~19236
▁pig~~16073
▁pie~~18943
▁extremes~~16086
▁Aqu~~10675
hrer~~7377
▁pin~~12405
schaffen~~14433
▁pil~~20055
▁Pyram~~16030
▁beachten~~13279
▁Schwe~~1016
▁extremen~~13411
▁unab~~13965
hren~~7355
hlst~~12269
▁pix~~20453
oko~~16584
▁Hol~~10336
▁psychische~~17781
▁Liste~~1884
▁leistungs~~2103
▁lernen~~1137
▁beitragen~~2029
anners~~18986
▁nennt~~616
▁Oberflächen~~12332
▁Finden~~11368
▁fund~~18020
▁erwähnte~~9228
gebiete~~7104
▁maps~~19952
▁riechen~~6284
▁kooperieren~~10732
▁begriffen~~13070
nütz~~14919
▁normal~~3235
▁führe~~15497
▁nenne~~6160
▁Verbrechen~~1474
▁schöne~~6666
▁Tour~~4786
▁steigern~~14617
▁westliche~~6123
▁Atlanta~~16415
Sp~~5414
▁begleitet~~9758
▁Vors~~6871
ständige~~9254
St~~4431
Sk~~17176
▁Hod~~9438
Sh~~3610
So~~16555
▁redeten~~5634
▁zusätzlichen~~12195
Sc~~10169
▁veränderten~~2432
▁Democ~~17221
▁them~~12533
Se~~10980
▁benutzte~~12913
prob~~17615
▁Melodie~~17488
▁Reihe~~1030
aupt~~16151
▁kleinere~~11348
▁semi~~17689
firmen~~16580
▁character~~19899
▁Mikro~~410
▁diskutieren~~8957
▁kämpf~~19059
▁Australia~~19197
▁beigetragen~~15668
ripp~~17505
▁Hob~~8894
▁Tunes~~13522
SA~~8613
▁Eindruck~~6963
▁Lampe~~11475
aschen~~11001
▁Freud~~9923
▁Spielern~~1993
ions~~4039
▁unterstützt~~9826
▁Path~~8237
▁Lebanon~~21068
▁comedy~~20968
▁Blutgef~~15821
▁betrachtet~~5073
idges~~19362
zwingen~~14473
bus~~18756
▁betrachten~~2257
▁Uruguay~~11540
▁Philadelph~~20945
▁Company~~16317
▁Ozeanen~~180
▁Betracht~~6378
▁Schätz~~19649
▁Wilder~~19575
▁romant~~5480
▁Perspektiven~~3294
▁optical~~19898
▁Anspruch~~10087
▁Gerade~~2885
▁Rick~~17077
▁Dollars~~4376
▁Elektro~~4177
▁Fragen~~2554
▁gründete~~11456
▁Quell~~15031
▁Lord~~17619
▁Scot~~15091
▁Spiels~~4683
▁auszusch~~6754
▁anbauen~~8668
Entwick~~11819
▁erstmals~~9455
ourcing~~18223
▁kannst~~1882
▁schre~~10006
▁spezial~~14800
▁Programme~~5471
fr~~7723
fs~~9730
ft~~1390
▁verschiedene~~983
▁Schreiben~~11587
▁2004~~3847
▁2005~~3854
▁2006~~3254
▁2007~~7990
▁2000~~2389
▁2001~~4496
▁2002~~6453
▁2003~~6934
▁Märkten~~8450
fa~~3073
▁Freitag~~6231
▁schlecht~~1231
fe~~1547
▁Hel~~7493
▁Hem~~14535
▁Heb~~4142
▁mitmachen~~13636
fl~~3201
ignt~~11503
▁Gemeinschaften~~7398
a~~1502
▁Fal~~13304
▁Umgebung~~499
▁entmut~~13190
▁Fan~~13298
▁Who~~14193
ospiele~~18908
heber~~12585
▁Graham~~14141
▁Wunden~~16841
ï~~19706
▁ausgehend~~8589
▁1-~~18635
▁Wä~~3279
▁13~~967
▁12~~7602
▁11~~2796
▁10~~1460
▁17~~5261
▁16~~6667
▁15~~2804
▁Wunder~~3143
▁1:~~11650
▁19~~6095
▁18~~3273
▁Lithium~~17634
Film~~15989
keit~~4263
▁RSW~~20928
▁sämt~~15302
▁einig~~11214
quellen~~834
ielle~~4041
▁pf~~18731
▁Gef~~17600
▁have~~19460
▁Punkten~~15490
▁Horm~~11226
örung~~1320
wohnt~~945
▁Pilze~~16070
ettbewer~~8880
flanzen~~18633
ffe~~4017
▁Bestra~~3039
▁Tausende~~3501
▁singen~~1216
▁post~~14751
▁Charakter~~4983
systeme~~2036
Schrift~~19876
▁wichtig~~858
▁rent~~16479
üstet~~11011
▁Futter~~11875
▁ethischen~~12002
▁Ungl~~3350
▁bewer~~12157
systems~~2019
odelle~~10203
▁Eva~~14780
▁Akzept~~20305
ündete~~5763
▁Natur~~1598
▁markiert~~2292
▁Kopien~~12851
ced~~18556
▁afrikanische~~8428
yl~~5844
yo~~14722
yn~~735
▁Wert~~1369
cen~~16301
▁einzig~~15392
cel~~252
ye~~14103
lektion~~10718
▁überaus~~13370
ces~~4764
cer~~13474
▁Werk~~10439
foot~~19629
yp~~5857
ys~~3663
yr~~5162
ikatur~~18856
ift~~1009
verständnis~~10277
tausend~~2895
inent~~19145
elson~~14471
▁interessierte~~4149
▁staatliche~~18129
▁web~~19261
▁simpler~~20887
ify~~21053
▁erschwing~~9496
▁senken~~14598
ife~~1687
iff~~8296
unklar~~12290
▁Teilchen~~14678
▁Erklärung~~5495
▁Zukunft~~1311
▁Senioren~~17616
▁füllen~~10319
▁Physik~~12036
▁lohnt~~4273
î~~20610
dig~~8366
ifiz~~5997
heiten~~213
▁Gesetze~~6821
asion~~13746
▁erhe~~7744
eldet~~11677
▁nimmt~~345
▁Standard~~1447
▁recherch~~6486
▁klare~~2641
Ent~~17437
▁Kaffee~~1432
▁Galois~~20519
adays~~20108
▁Miner~~15749
▁abends~~8772
▁Studio~~8708
▁überein~~10848
▁traditionell~~16793
▁Age~~12484
▁hey~~17446
idimension~~10274
▁Buches~~6298
▁her~~2917
▁konkur~~12185
▁Ausb~~10164
▁Tief~~6937
▁Umstände~~5178
▁Misser~~15617
▁erfährt~~16868
▁Wass~~7804
▁zusammengefasst~~11258
planes~~20639
▁Schwarz~~11860
▁salt~~18645
7~~2180
▁gefüllt~~4016
▁verst~~3599
▁doc~~19659
▁fokussiert~~1857
Komm~~16278
▁versp~~6801
▁list~~12833
rott~~12756
ass~~1397
▁behaup~~11894
rech~~9320
iot~~5604
▁who~~20151
ast~~9461
BC~~13979
▁abgeschnitten~~2491
▁ausgestellt~~8652
team~~8248
dung~~10264
story~~17913
dit~~19457
asa~~9026
ighters~~20611
ützen~~4266
▁ineff~~14016
ase~~10661
▁Ernähr~~6124
▁Sonne~~947
▁verein~~2498
asi~~20169
ash~~8967
▁epis~~19624
igmen~~18838
pus~~15564
▁Pur~~3639
▁Arme~~3094
probieren~~10804
▁Dan~~4064
oppt~~7156
▁Dal~~8615
▁Dam~~9024
▁lack~~20560
▁Beleuchtung~~9895
▁tolles~~4865
▁Daf~~19978
▁Dad~~15740
round~~15021
▁Filmemacher~~3644
▁Day~~5932
kung~~5247
kund~~7470
aschinen~~18316
▁Dar~~11244
▁Das~~71
▁favor~~19713
▁Dav~~5437
▁Army~~7720
▁Dat~~14883
▁Rückseite~~6289
äuben~~12391
▁Wilson~~6459
▁only~~19838
▁Serv~~11629
▁relax~~19673
▁verdienen~~7403
▁give~~14966
▁tak~~21000
▁Konserv~~11114
▁Zuhör~~10084
▁param~~20217
▁Serb~~13418
▁wander~~13974
▁erhielten~~5598
▁Jahr~~1081
▁gelassen~~2637
▁Individuum~~11784
▁Steve~~1169
miss~~16367
ulen~~7556
äuber~~5917
räume~~2688
▁Chips~~13985
▁drive~~20485
▁symp~~20365
▁reduzieren~~9237
▁kleineren~~5327
▁gesamte~~2668
▁Mobiltelef~~13667
räumt~~10539
▁Stämme~~10759
station~~4094
▁Pfeil~~11354
▁Systemen~~2537
▁Skelettmus~~20333
▁Knopf~~4842
▁Qatar~~18860
▁Gesichter~~3346
▁herunter~~4947
ücken~~1122
▁repräsent~~15790
▁Klim~~2737
▁vermittelt~~2744
▁Himm~~19414
▁dreck~~8939
▁Bein~~7151
▁Neuron~~16053
▁Lager~~8641
▁verlaufen~~6549
asch~~2738
läss~~10796
▁Vermut~~13117
zahlt~~4241
▁Cold~~19367
▁vermitteln~~4975
ste~~118
▁Institute~~12519
▁Personen~~2915
▁Dre~~7799
▁understand~~21191
lament~~16154
▁finanziert~~9983
▁Rory~~18813
▁Old~~14746
▁interessante~~4508
sth~~12811
▁Thunfische~~19488
aver~~20327
▁Larry~~12468
greg~~10099
▁Theoret~~6854
▁March~~18450
str~~6844
gren~~9114
üchtig~~8061
▁Sky~~16088
▁Ungleich~~2392
▁erwartet~~7648
Qa~~19572
▁Jede~~2675
▁Rezero~~12007
▁hinweisen~~15112
▁nachzu~~7020
▁klettern~~11005
ungslos~~10636
fehler~~10182
▁Hilfsmittel~~14221
▁Seh~~14517
▁vorhersagen~~17259
äß~~7797
▁erwarten~~2582
▁Entwurf~~8632
▁ast~~17523
iben~~14199
lie~~5641
▁Engl~~3698
▁Klin~~15559
itness~~8731
▁gerissen~~14845
▁können~~772
▁unterstützen~~710
▁nör~~537
athed~~19908
▁reagiert~~2410
▁entdeckte~~5730
farkt~~20106
▁Pillen~~5983
dichte~~12084
▁ideal~~6483
▁sparen~~7269
▁unabhäng~~12711
▁äußere~~15551
▁Häuser~~9649
▁Druck~~712
iber~~15300
▁Chirurgie~~17052
▁Beitrag~~8714
▁Main~~9277
asha~~14152
haltung~~1646
▁umzugehen~~1154
fühl~~9774
▁dam~~18722
sektor~~8677
ügeln~~11929
elescope~~20933
▁Autismus~~11129
kan~~54
kam~~8568
kal~~421
kas~~6617
kar~~15602
kap~~2967
▁beraten~~1405
▁Carne~~18915
▁oberen~~396
▁dar~~2113
▁das~~8
The~~3607
▁UCLA~~17774
▁Fülle~~6971
ience~~10170
▁dat~~14748
mach~~12264
▁speziellen~~236
▁überflüss~~19098
ining~~19370
▁Artikel~~2960
▁Weltall~~10890
▁Fein~~10860
▁Stimmt~~8305
▁geliebt~~5038
itial~~14874
▁darzustellen~~2993
ständigen~~2883
▁Gemeinsamkeiten~~11331
▁Herkunft~~13019
▁patent~~17664
▁Lebenszeit~~16034
▁Meetings~~11439
▁Stimme~~4760
hips~~19710
▁Null~~4922
▁beschäd~~12326
▁starben~~7204
▁Garage~~17074
▁gespielt~~1607
aves~~18383
▁Nordpol~~9342
▁Journal~~8288
wehr~~9910
▁director~~19731
▁testoster~~21083
▁angewandt~~2532
▁Teile~~303
▁Interface~~4798
dimension~~14647
▁empir~~16799
▁fig~~19094
▁Sand~~9741
▁Dorf~~3265
nehme~~16638
uhen~~9418
▁wahrzunehmen~~4463
ournal~~18386
▁danke~~2977
verse~~15134
▁symptom~~6765
quen~~15694
▁fit~~13191
▁Graph~~5147
▁Sant~~12978
abend~~13178
▁Delfine~~19763
ckte~~3411
rochem~~17343
▁verstärkt~~1751
▁17.~~6186
▁eigentlich~~3776
ymn~~18103
?'~~19627
ela~~17325
▁Wettbewer~~14383
▁freund~~11554
▁kat~~11061
▁fängt~~6748
▁ähnliche~~5200
▁kap~~9504
▁chemischen~~608
▁kam~~3287
ikeln~~4015
▁tradition~~9080
▁Schrift~~13509
▁Rohstoffe~~8686
spersonen~~16147
▁Interview~~8709
▁fiel~~6673
▁Nuklear~~12116
▁religions~~20659
▁verrückten~~10020
ausende~~14954
ureau~~17012
gelt~~3830
▁Kong~~15457
▁Wür~~741
▁Urkn~~10632
zulassen~~8548
▁1.2~~19805
▁wahren~~6520
▁Anne~~18973
▁DDT~~11237
▁stellte~~4367
▁annehmen~~4284
▁Vielfalt~~200
x~~4341
▁Wün~~9806
▁hipp~~20245
▁investig~~15367
geln~~12852
▁Plat~~17025
▁Werte~~3731
emat~~14645
▁Konkurrenz~~11376
▁anzufangen~~4198
▁ment~~12719
▁Boote~~15393
▁jan~~19387
▁Buddh~~17934
▁epidem~~15012
▁Obama~~13920
▁Cost~~8290
▁Juan~~13619
▁Aufregung~~4553
utreten~~13840
▁ausgehen~~6236
▁SR~~18676
▁Fenster~~465
kunft~~9433
▁üben~~3882
▁energet~~18218
▁Jess~~19674
▁konvention~~18458
wirtschaft~~2459
akrebs~~19200
▁Name~~5036
üll~~5738
icit~~20678
Part~~15645
6.~~10713
aktivität~~2992
▁Würde~~10013
ächtigen~~8780
▁Minder~~15577
▁über~~7
▁Tätigkeit~~3048
▁Atomenergie~~18657
▁Tr~~5294
▁interaktiv~~15359
▁Ital~~20549
▁♪~~15554
▁allein~~2011
▁Giussani~~12465
▁Sper~~12610
▁Gehen~~1350
▁rhetor~~18772
ison~~3361
▁Ta~~14661
Sand~~19238
▁Te~~4899
▁Spen~~8553
▁Th~~9977
ranken~~12201
▁Wired~~15327
▁Prozesses~~4182
This~~13563
▁To~~14069
▁TR~~19011
wertet~~16676
▁vollkommen~~9766
▁TV~~11753
▁atom~~15034
glied~~3178
▁last~~19956
▁zeichnet~~5134
nimmt~~4152
anor~~16572
anol~~19883
▁TB~~17047
▁entschuld~~7589
▁TD~~20394
▁zeichnen~~8262
▁kompletten~~17080
▁speichern~~12500
▁Wonder~~19707
▁teste~~17351
▁sonder~~1105
▁hierfür~~9268
▁Erklärungen~~12192
▁pret~~10743
▁Demokratien~~14331
▁mur~~19753
▁Wicht~~19257
▁inspirierend~~11584
▁Anatom~~20533
▁Saur~~15862
▁neutral~~16625
▁Nation~~1270
wen~~18232
▁Garden~~16681
utzende~~14362
städ~~8781
zusammen~~7854
utzutage~~8723
schle~~6625
▁Hügel~~6449
Was~~5573
▁McDonald~~16372
wes~~13610
▁Polizisten~~13467
wer~~6417
▁sucht~~266
▁Überzeug~~18472
gner~~12477
inct~~18313
gnet~~13369
▁Besitzer~~5548
▁Bakterien~~681
▁Kamer~~799
▁rest~~10468
▁Kamel~~11832
mentation~~17727
▁Mutter~~3174
▁resp~~20818
stamm~~11077
▁Columbia~~16185
▁antworten~~2585
forder~~2685
▁suche~~8252
Theorie~~13297
Gott~~17085
Women~~19611
packt~~6428
imal~~16700
NC~~19397
▁Joshua~~13147
ruf~~8740
boy~~15978
mäßigen~~5184
kolle~~9619
▁inert~~20557
Ihr~~15615
N~~4259
▁kämpft~~1183
▁erstaunliche~~9701
▁englischen~~9718
▁Deutsch~~17520
▁Cassini~~10655
▁Medikamenten~~6767
▁versichern~~15136
inity~~18304
▁Boom~~15383
Software~~17677
richten~~11381
▁fassen~~776
▁trock~~14699
▁Vere~~3271
▁bur~~21152
▁bus~~18636
▁'60~~17076
Nach~~7874
▁Verd~~742
▁Kühlschrank~~4364
▁Republicans~~12487
▁Bruchteil~~9948
▁künft~~17938
MM~~21145
▁springt~~7769
▁Afghan~~2092
▁Türkei~~12960
▁lächerlich~~17940
abet~~10139
roph~~3948
pack~~4354
▁Alan~~15807
ifth~~18568
aufnahmen~~12197
stunde~~8566
bewegen~~11951
agte~~5521
▁Silicon~~11433
▁Studium~~13617
▁vorherigen~~7263
imit~~15813
▁Frustration~~7372
▁wüssten~~13270
▁Stunden~~4128
bow~~13581
▁voy~~20939
▁Internet~~1548
▁Apparat~~16032
steht~~11065
▁norm~~4442
▁mark~~7110
▁aussergewöhn~~7178
Mein~~7573
▁Feier~~13177
▁nord~~6977
▁visueller~~14516
▁750~~7507
bindung~~15166
▁visuellen~~13135
otograf~~18340
ester~~3900
bol~~15444
entle~~18438
einhalb~~14235
▁mars~~20922
estet~~19613
uationen~~18206
▁rud~~15184
temporary~~18432
Preis~~11564
olitan~~20627
culus~~20481
▁Leah~~13421
▁rum~~7611
▁run~~10455
▁ruh~~10495
▁Terror~~5666
▁rut~~3960
▁werfen~~8579
000~~12895
uses~~20483
▁Blog~~9435
▁Exempl~~13083
onstr~~17279
▁irgendeine~~11879
▁ökonom~~13725
▁Gemeinsamkeit~~17432
▁komm~~4577
▁ermutigen~~13977
▁Anstatt~~6718
gst~~6432
▁brave~~21084
▁Rose~~11340
▁wüsste~~8032
▁bezahl~~11715
▁Win~~17355
▁lächeln~~14701
▁Ross~~5289
ahnen~~10647
▁Sache~~3098
lim~~9059
▁Dankeschön~~10554
olden~~19110
aß~~12032
lin~~5316
aterie~~16459
▁komp~~5047
▁Stein~~3670
hingegen~~16712
▁roll~~18125
atoren~~11217
▁Pingu~~20734
rechts~~3454
iert~~2445
▁gebrochen~~7808
vollziehen~~5863
icip~~19044
umpt~~14489
▁worin~~14696
iers~~4966
▁Aussage~~9131
rechte~~12763
iern~~5468
▁Wale~~9839
▁Fußgänger~~18222
▁weinte~~7553
iere~~350
▁Zutaten~~7543
▁Collins~~15642
▁anhören~~5410
umps~~17065
▁Regierung~~3363
▁Partnern~~587
märkte~~4499
ricul~~19820
▁wür~~8365
▁Variationen~~10787
▁pick~~20193
▁Weibchen~~819
▁zusätzliche~~9163
▁ausdrück~~13250
▁Solar~~13150
▁Dennett~~17397
▁magazine~~21102
▁security~~20714
agiert~~14549
grenzen~~15943
▁entsprechend~~9097
▁jahrelang~~12244
afeln~~15620
unes~~17374
▁erlaubt~~3065
▁Behandlungs~~7264
▁Kogn~~1681
...~~4140
▁unglaubliches~~7392
ight~~8191
▁Brücke~~9973
stein~~2731
▁veröff~~18250
kläss~~18097
▁hop~~16710
▁Amerikanern~~10925
rufe~~8918
▁überwältigen~~8375
▁padd~~19747
▁Lächeln~~13940
▁gesprochen~~1027
▁hor~~8199
▁fier~~21043
▁liegt~~2705
▁geschlagen~~6208
▁Ruhe~~8747
ruft~~9819
▁pale~~19901
▁öffnete~~7632
iant~~14525
▁träumen~~10537
▁Original~~10362
▁statement~~19013
▁7,~~19441
▁Schul~~1465
▁7.~~11028
▁vorbe~~9208
▁hochwert~~10042
unft~~16223
▁78~~10922
umpe~~18599
▁dynamisch~~11080
▁europäischen~~14357
▁70~~645
▁Folie~~6337
▁72~~13231
▁75~~131
▁74~~2178
▁Nine~~11645
▁76~~9016
▁Gamma~~12119
schlägen~~14715
ungsfäh~~14811
älen~~4167
▁erreichte~~10279
ians~~16242
furcht~~3348
zimmern~~8867
▁Death~~18058
▁hundert~~397
▁klar~~1324
ulose~~8094
▁euren~~10588
▁machst~~7775
▁Bedauern~~11343
▁erfü~~8463
auspiel~~14120
▁tenden~~18586
▁Hope~~8291
▁Kreuzung~~7488
▁schwul~~13336
▁Kosovo~~18279
▁abstrakt~~11328
▁auslösen~~10331
▁unvermeid~~9120
▁Überfluss~~15688
▁Deutschland~~2031
faktoren~~17687
▁inclusive~~20786
schiebung~~13778
▁gewinnt~~4579
▁leitete~~12551
▁Every~~14989
▁2020~~12456
quote~~14189
▁Infektionen~~14603
wohnern~~8830
▁Diplomatie~~18917
straße~~6503
▁Detail~~2326
▁gesch~~3049
ruh~~3261
▁Vorführung~~3739
run~~19965
▁Pest~~11390
▁gelernt~~1617
rum~~5415
acht~~2890
▁ne~~7024
sten~~41
rug~~4216
stel~~3991
achs~~11872
ster~~4238
stes~~6775
▁Pik~~11350
ocks~~4178
iful~~12745
stet~~5539
▁gefühlt~~18937
ache~~1511
rup~~16159
athy~~18243
▁merkte~~7673
ateful~~20694
shine~~20132
führer~~1920
Vie~~20252
▁simult~~11385
▁Anreize~~4294
idt~~17893
ization~~20800
▁puber~~19001
ids~~9040
▁Nun~~2325
▁no~~12481
▁Nur~~1568
▁geistige~~6146
idi~~18981
▁Manche~~1901
ide~~6191
▁Gold~~11896
▁woher~~3246
block~~9650
führen~~5024
▁offic~~20905
two~~21240
rats~~17362
ftware~~16138
ourced~~20173
▁Lippen~~14240
öt~~10074
▁Rahmen~~3765
ör~~479
ös~~1413
ourcen~~6860
Ele~~3755
ön~~12222
führ~~5407
öl~~10575
öm~~10385
▁Grund~~2703
öh~~13969
▁offiz~~4681
öd~~12245
▁erneuer~~8961
▁traurige~~1979
▁wurde~~1621
▁liebte~~8353
▁Frequenz~~5413
.,~~1259
.-~~15934
▁beinhalten~~10822
▁Code~~3210
."~~269
▁läch~~13404
ildeten~~8168
▁benötigt~~6107
enkt~~5661
.:~~13322
▁differen~~2599
▁Vel~~16528
reprene~~18398
▁Ven~~16924
▁vermeiden~~5714
▁verständlich~~9121
▁konzentriert~~2482
▁beinhaltet~~7542
▁vol~~18153
▁Alexander~~13784
▁wack~~442
▁wach~~10250
▁jugend~~1647
▁mapping~~20710
▁pres~~18006
strukturen~~750
▁Konkur~~14348
pert~~12588
▁Form~~3173
▁Denkens~~17795
▁Bert~~17251
▁trennen~~9629
▁adul~~18796
▁Material~~3918
▁Verwandten~~10560
▁Jahren~~1044
▁nirgend~~19303
reen~~5150
▁pred~~16819
..."~~8993
▁Sweeney~~20674
▁Eigenschaft~~9073
▁Scham~~13274
▁Meeren~~9942
ute~~4636
▁bang~~17536
▁allzu~~8701
infe~~14600
▁band~~8075
▁angekommen~~12789
▁From~~20899
~~18234
▁imper~~13814
uts~~7119
gerät~~10992
izierte~~7464
▁Himmels~~7600
utz~~5986
politik~~4501
▁Afrika~~5235
▁Meeres~~14
▁örtlichen~~10486
▁mask~~18966
▁begonnen~~7272
▁Kopie~~14762
uber~~3563
ubes~~12607
Ich~~1423
▁nachhaltige~~7144
▁tödlich~~12427
▁Durchfall~~17043
züg~~7510
▁Africa~~20049
▁Gesundheits~~7686
▁Stephen~~9743
To~~17914
▁Bürgermeister~~11688
opft~~11883
asters~~17647
Th~~9448
enke~~12312
Te~~12353
▁ausgestorben~~13028
▁Darwinian~~20401
▁Cura~~21124
▁bereit~~2163
▁verhaf~~16702
▁Weihnacht~~16832
▁Tesla~~18941
▁Architektur~~5163
TV~~17430
▁design~~9500
nah~~7008
water~~21036
▁mass~~12122
nal~~10093
nam~~18960
▁Have~~20708
▁Bord~~2945
▁konstru~~1937
▁Regulierung~~6742
haft~~1593
annte~~7748
hältnisse~~863
▁mast~~20583
AA~~2909
AC~~9709
▁vermutlich~~1025
▁gestalten~~2607
▁ritual~~20751
möglichkeiten~~2608
wohn~~5837
▁Kartoff~~4831
▁Verschmutzung~~5877
▁Galvao~~20888
äure~~1019
▁transformieren~~1580
▁nun~~2137
▁lebenden~~9190
rück~~10989
▁nur~~274
est~~958
▁TEDTalk~~13609
asen~~2852
▁Diagramm~~9235
▁Guardian~~16692
▁furcht~~9760
▁verlässt~~15876
▁gestaltet~~4771
▁Dutzend~~2959
▁Berührung~~3846
▁beru~~15922
▁eigen~~2647
e~~706
▁Kurve~~10301
geschrieben~~10034
oot~~11801
Ah~~10705
iefern~~8095
Am~~15352
Al~~5894
An~~3606
▁Bit~~14397
iefert~~7791
▁bere~~6962
Ar~~11914
▁realisieren~~13526
▁Chinesisch~~8218
aign~~20972
lösen~~15592
▁Heimat~~2387
▁garantiert~~13241
▁histor~~16509
▁Rettung~~10374
▁anziehen~~16562
▁erhö~~2413
▁PIPA~~19570
gu~~13676
gt~~756
gs~~184
gr~~5794
▁verstand~~5647
▁seiner~~885
▁seines~~2844
▁atmen~~7167
▁Raubt~~9916
izza~~18362
▁Vertrauen~~6908
▁Schätzungen~~16354
ge~~1124
ränk~~1541
▁seinen~~1056
▁Wang~~18741
ga~~12754
▁seinem~~5061
▁diskutiert~~6037
gn~~3426
nung~~5673
▁Rand~~9410
▁CO~~12880
▁Facebook~~4691
gh~~10343
*~~20096
ziale~~15379
▁rosa~~11995
ario~~6580
▁Minister~~12460
▁Komponenten~~11877
▁ABC~~19797
▁Ente~~19588
▁Vollzeit~~15345
▁aufbew~~11075
bum~~20891
▁Vulkan~~190
lichkeit~~3198
Not~~17042
▁doppelt~~4385
▁terr~~19327
▁bereits~~643
▁Geschäft~~1294
Regierung~~15886
▁Forbes~~16823
▁damit~~2045
▁Lad~~5594
ahnsinn~~20584
▁got~~5252
▁inneren~~8969
▁Euro~~12413
▁teilweise~~4883
▁sowie~~6943
▁'80~~20763
▁Studierende~~10065
hü~~6525
▁gewe~~4099
▁Lak~~9525
▁schwierige~~12207
▁god~~20619
▁Sympt~~6646
roke~~20731
sych~~19031
gendes~~2949
▁schätzt~~1250
▁Cr~~17916
▁berühm~~14109
š~~20213
ziger~~4316
akul~~14508
▁vier~~641
olas~~18293
▁Able~~9199
▁moralisch~~14659
genden~~6840
uls~~16058
▁schätze~~8983
▁Univers~~17476
▁terrible~~20075
▁Freundin~~10564
▁Behauptung~~13211
▁eBay~~15115
▁sagten~~1471
▁trivial~~19890
▁lot~~20450
zi~~14889
▁Vater~~3319
▁Männer~~6344
ze~~514
▁Lebensraum~~853
▁pflanz~~12356
ventionen~~15274
▁Löcher~~11270
▁ref~~20343
▁Ostküste~~5460
▁Wissenschafts~~4618
▁allgegenwärt~~12098
zy~~13736
go~~13557
zt~~6716
zu~~1199
▁Beutelw~~18887
zw~~5847
▁fragment~~2496
▁klin~~12362
▁Vict~~19779
schieden~~13290
▁flog~~12977
▁Photoshop~~11844
fahrer~~8221
Qaida~~19227
▁sollst~~1539
There~~20992
▁wertsch~~3466
▁wachsende~~5740
▁Indonesien~~16499
▁Wurzeln~~5238
▁150~~3290
cell~~5018
▁15.~~15009
▁15-~~2198
ierender~~10249
▁2030~~17763
then~~18814
antom~~20012
;~~1694
ömm~~17877
▁übersehen~~7491
▁Cra~~15085
▁ausgeführt~~15492
etzen~~3992
▁dro~~6921
▁Sozial~~1275
▁vorzustellen~~1709
▁Foot~~19478
ozi~~14641
▁absolute~~14679
ständen~~2874
rovir~~19171
▁aufweisen~~10159
▁Symb~~11658
▁ästh~~12631
papier~~8055
▁vermischt~~11546
▁Co~~8131
▁Food~~8924
▁170~~11700
usammen~~17888
astrophe~~20898
▁stoßen~~13891
▁funny~~20195
fle~~3226
▁Entstehung~~11992
▁Fledermaus~~17579
▁Logik~~2160
▁Britann~~6178
▁fil~~5959
▁Michael~~10764
stücke~~4740
▁Bible~~18959
▁glaub~~7953
füllen~~17360
gend~~5609
▁Flüsse~~5797
▁puls~~15050
▁fin~~15231
▁PRI~~16120
▁dreidimension~~407
▁verank~~17169
wie~~5913
wid~~19545
▁schaut~~5088
▁gleichermaßen~~9217
▁globale~~2071
opath~~18762
win~~7859
▁mehr~~1355
▁Taucher~~19568
▁Jo~~15019
▁underst~~19656
Nullsummen~~18582
adium~~17549
▁Tut~~10193
ätsel~~15343
wir~~319
frame~~19925
▁NGO~~20172
▁Source~~14376
spüren~~14577
▁domin~~7531
▁Gehir~~19116
örtlich~~14398
oskop~~16896
▁falschen~~10273
▁Dist~~14200
ötz~~19026
personen~~4277
▁Waren~~4230
▁überprü~~6947
▁Erdöl~~16655
ött~~18107
▁student~~16981
▁Nase~~1234
▁Christian~~14145
fare~~20035
▁point~~17402
▁raffin~~3490
orf~~13695
öte~~8971
▁zentral~~6147
▁Nash~~5205
stärke~~5430
▁drastisch~~2416
isan~~18810
▁anzuschauen~~3934
ogens~~15906
▁Experte~~5052
▁attra~~16749
▁unsichtbaren~~14424
▁häufigsten~~5980
▁Zu~~6176
weeney~~11603
▁gross~~5434
▁Notfall~~14948
▁Tit~~14813
▁Mahatma~~16879
agent~~17889
▁zuhause~~7086
ymmet~~18817
▁schlägt~~884
▁Offen~~10444
▁Billion~~15678
▁Ze~~7753
Sch~~3437
▁perfe~~12001
glich~~10722
quez~~16023
▁zufällig~~2822
▁zukünft~~10102
▁Krankenschw~~4096
▁fix~~17348
▁Merkmal~~10166
▁Jonas~~18345
▁bemerkte~~3440
▁besch~~1388
▁folgendermaßen~~14085
▁beein~~18664
▁zoom~~17357
▁ZK~~17005
▁Vergessen~~12793
ief~~16168
ector~~19778
meer~~6998
▁schönsten~~46
▁Welche~~3206
etze~~7601
▁umgeht~~12299
▁Hum~~6364
Vortrag~~16419
▁Platten~~6582
▁Unser~~1251
▁Handlung~~4981
▁Böse~~11731
▁Institutionen~~8547
▁Entwickler~~14388
▁becomes~~20794
zwischen~~697
▁Hannah~~20298
▁Informatik~~10208
▁Vorles~~10156
▁planen~~6346
▁therap~~20136
zeitig~~7718
▁sogar~~454
▁through~~19963
▁tauchen~~566
geord~~7258
▁Mannes~~7541
▁darunter~~10296
▁Wohlbefinden~~1254
▁singt~~5356
▁Emmanuel~~19451
▁Tie~~19242
▁Datenbank~~14233
hafte~~6140
▁Lake~~8578
▁verdreif~~9216
HIN~~20076
▁Chap~~18396
▁CL~~18520
▁töteten~~15491
▁Rover~~14820
nachrichten~~12688
▁tier~~6077
▁überall~~3791
▁nutze~~17092
iret~~19172
▁Stick~~15781
ires~~11496
▁elekt~~17342
▁unterbrechen~~6559
▁tief~~393
▁Motoren~~9892
▁Übersetz~~18358
▁Tropfen~~7298
▁nutzt~~8788
▁Laufen~~1703
ired~~20289
▁verbundenen~~15613
▁nä~~11706
▁stattfand~~9848
ller~~4481
▁tax~~20249
▁information~~20593
▁Materials~~12126
▁gerecht~~11517
▁tar~~20489
▁buch~~17350
▁tap~~8232
▁ohne~~579
streifen~~14267
▁tat~~7807
▁plant~~16427
▁begren~~8785
▁Flie~~9507
▁Reden~~4927
temp~~18671
isierungs~~17449
▁einander~~3878
llen~~6185
▁historisch~~12929
▁Irgendwie~~11026
antor~~17834
▁philosoph~~8828
▁Zwill~~17794
fälle~~9545
▁stelle~~7660
▁hervorbringen~~5146
opäd~~12306
▁Zusammenspiel~~17091
▁Mechanismus~~11964
▁viral~~12521
ährend~~5085
▁body~~19945
eins~~6727
▁Versionen~~14763
▁stellt~~1074
fällt~~9700
▁vital~~19284
assung~~11973
▁mund~~20060
▁Children~~14443
▁Merk~~1648
▁Geist~~4808
▁Abholz~~21153
▁billige~~15741
▁Tasche~~4253
▁than~~20782
▁Dabei~~4507
▁fühlte~~7675
zehn~~13446
ackt~~7655
▁Tony~~7513
▁note~~5347
▁Chicago~~8567
▁lä~~14098
▁Marcus~~8358
▁Daw~~11302
▁bom~~21149
▁minim~~1845
▁bewusst~~663
▁geflogen~~2919
▁verg~~14824
▁verf~~6074
▁vere~~16308
▁verd~~770
▁verk~~5762
auto~~16918
▁verh~~5211
▁vern~~7868
▁irgendjemand~~4688
▁verl~~8371
▁vers~~3581
▁verr~~16653
▁Untersuch~~12202
▁verw~~6897
▁Con~~12191
▁Com~~9642
▁Col~~869
front~~16276
▁verz~~9142
▁Vagina~~18288
▁veröffentlich~~11163
▁denselben~~8570
ifest~~15628
▁Marathon~~13257
▁seit~~1041
▁lung~~20555
ylac~~19596
rennen~~7289
▁Rosling~~15493
▁active~~20312
▁kümmer~~11037
▁Innen~~6472
ästinens~~16636
▁Flüchtlings~~12934
▁seid~~10544
▁Heilung~~7176
▁Parasiten~~18343
▁Inner~~981
▁Folge~~9708
sper~~19302
▁sein~~1188
▁aufzubauen~~7330
▁Mario~~19792
▁Mehrheit~~7290
gegeben~~3813
▁durchlaufen~~15842
▁least~~20221
▁cym~~20841
▁Captain~~15090
illy~~14377
▁Simon~~4977
ergebnisse~~2303
verständlich~~125
▁Will~~3614
gerechtigkeit~~20140
ußt~~4325
▁TED~~15
designer~~5515
illi~~18836
lettern~~13067
▁dachten~~4114
hle~~4210
▁22~~7902
illa~~14386
mat~~13400
▁Hin~~11239
▁Hil~~9920
ießen~~4012
▁schönen~~6951
▁stabil~~1045
▁Hig~~18196
▁zuletzt~~11986
▁sinken~~9360
▁wahres~~7128
ktions~~5119
▁TEDGlobal~~12008
▁mü~~4169
▁Farm~~12577
▁Cous~~11765
▁Urheberrecht~~12534
▁langweilig~~8115
illionen~~2841
▁23~~8124
▁schöner~~5220
▁schönes~~9557
▁Hir~~11070
▁formt~~2964
▁Hip~~5380
▁Broad~~19523
▁solid~~19825
▁aktiviert~~6746
bilder~~3088
acken~~8018
▁verwendet~~2362
▁Supp~~19377
▁Akteur~~14353
ech~~15101
▁verwenden~~2167
▁Austr~~20682
bilden~~2340
inea~~14724
acker~~16139
▁Aktiv~~1501
zugehen~~9391
▁57~~12385
▁56~~15424
▁55~~10055
▁54~~14880
▁53~~13750
▁52~~11683
▁50~~296
▁auszuprobieren~~4783
▁Sorry~~14135
▁stra~~11666
▁Beschleunigung~~17572
▁59~~19862
▁58~~10511
itor~~7280
▁Fass~~16245
▁erkennt~~7067
▁Orleans~~5912
▁Kondome~~8996
▁5.~~10961
iko~~15893
▁zustimmen~~11483
eters~~12454
▁Autorität~~15641
▁Ere~~16696
▁hinterfragen~~4503
▁einer~~230
▁eines~~429
räum~~15013
mag~~15357
yond~~18252
▁ausmachen~~2181
kehrte~~5478
▁generations~~19282
leitung~~11678
▁Reisen~~6511
▁Poesie~~14227
▁zusätz~~4388
▁Diskuss~~13986
▁herkömm~~12039
▁fällt~~11007
betrieben~~9894
▁bezüglich~~1303
▁tausenden~~2753
▁Themen~~2809
▁Gesichts~~15306
▁einem~~406
▁einen~~328
bart~~14116
folge~~10238
britann~~7486
rebs~~14700
cean~~20444
▁insbesondere~~7539
▁künd~~14583
▁korrekt~~3833
▁Knochenmark~~18795
▁theoretisch~~7824
folgt~~2458
▁Umfang~~8687
ößt~~11560
▁Dunkelheit~~11314
▁Henry~~7576
▁starr~~8873
utzt~~14257
▁Notwend~~19536
▁supermass~~19758
▁Norm~~15194
▁Gewäss~~9580
▁einzus~~1152
oice~~10199
▁Nord~~5878
▁interessanter~~4515
▁interessantes~~11912
utze~~14993
▁interessanten~~610
▁aufge~~5367
▁dies~~2136
liste~~8981
▁manche~~2573
▁einzub~~12247
▁grundlegend~~8650
▁genetische~~7132
bewegungen~~4773
länder~~3835
▁erzählt~~3188
bei~~12302
▁Zucker~~766
bel~~7359
▁Patricia~~18211
▁Wahlen~~13643
▁kennen~~395
wirkung~~9129
beg~~14076
bed~~10943
bee~~18962
bez~~14916
▁erzähle~~3864
ber~~755
ard~~5029
gase~~16114
bew~~1158
bet~~6474
▁hin~~459
▁hil~~9759
weiser~~8637
üpfen~~9721
▁zweitens~~8778
▁Washington~~3367
▁dorthin~~2680
▁Sä~~5284
▁versteckte~~3540
▁Sund~~17484
Mama~~14083
▁Präsidenten~~8679
▁Hubschrauber~~11097
▁erle~~11231
▁Misch~~6584
▁Sö~~18096
▁allgegenwärtig~~14923
▁Nelson~~14468
fordern~~10577
▁hip~~20081
weisen~~2604
▁wir~~96
ainer~~12989
glie~~17231
able~~16262
▁Barack~~14295
▁beloh~~17841
▁outs~~17425
▁mehrere~~392
▁Letzte~~4871
sequen~~15368
aro~~18479
orgung~~6254
fliegen~~11931
ained~~17409
▁geschnitten~~10859
▁Foto~~6665
adies~~18652
Well~~19476
ugend~~9161
jemand~~12275
stuhl~~16972
▁möglichst~~16359
äbe~~14873
iscover~~15340
▁Hypoth~~15831
awa~~12986
▁Mumb~~20276
urd~~12604
ure~~4986
▁jedenfalls~~5188
▁Dias~~15358
▁genial~~18215
ura~~4780
etball~~5391
insky~~15598
urm~~769
urn~~8743
▁Sprich~~13251
▁Arie~~4065
ümer~~6964
▁Schrö~~13732
inde~~3804
▁mittleren~~5838
▁selbe~~12439
▁nied~~9108
urr~~11309
ült~~1780
gest~~4469
gesp~~8121
urz~~9200
▁wiederbe~~2003
▁gäng~~8800
▁Rauchen~~17502
▁Brille~~16115
ulator~~8658
ausend~~3496
passt~~6614
▁nützlich~~4002
ladung~~18683
schein~~4369
▁Lama~~11833
▁eingehen~~12769
controll~~20590
▁komplett~~4657
▁starteten~~5687
Stud~~2023
▁frank~~21085
sta~~17170
▁Team~~2752
▁gänz~~18990
▁Kanal~~9671
▁Asteroid~~17895
▁inzwischen~~6414
▁Baby~~1424
▁City~~7526
▁moving~~19962
▁Spann~~8859
(~~10714
▁Website~~8895
▁Bereitschaft~~18815
▁bestimmt~~4030
entzündung~~18202
▁Wahrheiten~~3185
rast~~15861
achstum~~9952
rass~~17219
▁besteht~~263
ayer~~18824
▁Unterwasser~~475
▁Level~~4605
iana~~17156
bürger~~17455
▁physischen~~12532
▁mich~~1003
▁Geschichten~~81
▁Gemeinden~~11663
▁öffentlicher~~12539
reibt~~8384
isha~~15151
▁Maßnahmen~~14436
ädt~~14260
forsch~~594
kopf~~13073
▁einfache~~765
▁ausdenken~~15526
Haben~~16699
▁Bünd~~13486
▁Georg~~13819
ingu~~9570
▁öffentlichen~~2408
leben~~1200
▁intim~~9648
▁photos~~20464
▁Technology~~18894
▁Ohr~~5358
setzungen~~18847
▁Blätter~~4236
▁My~~17245
immel~~12644
▁Personal~~10282
seit~~13081
grat~~10988
▁Grundschule~~13530
▁pein~~13559
▁Paulo~~18447
▁Fahrt~~11095
eremonie~~14673
▁atemberauben~~9939
▁Conne~~19349
gram~~18451
ocke~~17032
Maschine~~10078
▁Gordon~~14412
▁evolution~~5475
▁sitze~~10015
▁erforschen~~8195
urch~~2185
▁selbst~~124
kten~~5761
▁instrument~~18907
▁Darüber~~7643
▁Sus~~16686
▁Sur~~6593
▁entlassen~~2518
▁besitzen~~5841
▁Bewegungen~~4887
▁ansah~~9368
▁Messer~~3079
▁5,~~19440
▁Hafen~~6207
▁Sum~~4285
ctions~~17215
▁Sun~~4566
kter~~11375
▁Jord~~20149
▁stattfinden~~1997
▁Sue~~16386
▁befäh~~11347
▁Sug~~20266
▁Suf~~18837
zufügen~~12372
▁getragen~~8072
statt~~18421
arot~~20748
▁Katzen~~14510
▁Brooklyn~~11577
arin~~17864
▁Tw~~10307
▁halte~~9116
tend~~12678
state~~11940
▁weist~~13124
alteten~~9521
▁ganze~~729
▁Ty~~12800
tens~~6368
▁weiss~~1514
▁Maßstä~~10681
cul~~14046
fügt~~15372
erne~~2589
aron~~11739
tent~~8666
ken~~4468
▁bemüht~~17073
kel~~7796
▁rot~~9633
▁Vorteil~~1666
avig~~16561
▁Movember~~19190
rock~~13741
▁Begegnung~~3700
▁Völk~~14825
day~~18496
▁Kurz~~3390
▁technolog~~16544
versicherung~~11057
▁Kälte~~6430
kes~~13415
ker~~9655
▁Traum~~3872
▁Pantheon~~14707
äus~~6610
▁vertrieben~~12909
kr~~6960
▁Panthe~~21212
▁Adv~~16969
äut~~19681
aque~~20548
▁Überblick~~8807
▁Like~~12647
▁betrü~~4445
▁vornehmen~~12208
▁North~~3841
▁Fabr~~13688
äub~~3351
▁Nanote~~3975
äuf~~15714
▁verschwenden~~9098
▁Pran~~19330
▁regul~~10294
»~~7755
äum~~9389
▁schäd~~6811
▁Bedrohung~~16156
länd~~12457
▁biologischer~~12317
▁las~~5583
▁pet~~18787
▁konserv~~16492
▁gefilmt~~16236
▁Tam~~20046
▁Spuren~~6226
▁Frage~~2524
keiten~~13410
gewebe~~12038
ty~~13868
gänge~~843
orie~~6109
▁anfühlen~~13519
onomie~~4483
▁Cyber~~9538
▁überraschende~~10854
▁Kleine~~5974
▁lat~~13097
quis~~12234
ördern~~14004
▁flag~~17814
▁130~~2914
▁Kleink~~2435
▁fed~~19764
▁chirurg~~12154
cent~~13948
quent~~5445
yal~~17628
▁Ras~~12210
ulate~~17061
▁13,~~13633
▁trend~~15249
▁13.~~2079
▁Add~~18308
▁stehlen~~4075
▁angelegt~~8821
quenz~~15783
▁Rau~~12377
oth~~11968
▁immer~~567
▁Entwür~~11705
▁Wars~~11442
ierte~~1459
▁erneut~~7449
ammelt~~6152
oto~~15388
▁Favor~~14054
ota~~13507
▁Nicole~~11948
ote~~1479
▁Betrachtung~~14781
▁1.3~~16986
▁billiger~~12390
▁mus~~4920
▁TS~~18473
▁Kerl~~4950
zumachen~~6932
▁Kern~~4739
▁Act~~12562
ots~~4982
ott~~6211
▁immen~~6377
And~~17948
ördert~~16299
Bomben~~16936
rence~~21249
▁leist~~1595
▁Wohlt~~19983
▁ange~~2493
▁dazu~~2754
▁Brazilian~~20881
ino~~8562
▁inher~~19666
▁gesetzt~~2730
reaktion~~15481
▁lief~~7443
zusehen~~4505
enken~~10662
▁leise~~5293
ini~~10339
enschaft~~18259
▁soft~~20357
▁spannend~~7354
strahlen~~12086
▁versetzen~~7907
▁XL~~19069
▁exquis~~20662
ink~~7759
flügel~~6215
ziehen~~1086
▁UF~~18955
▁Adopt~~15595
▁hump~~21123
▁veränderte~~7440
geschwindigkeit~~9197
bucks~~17167
You~~13612
ibr~~14022
▁Zunächst~~2380
▁Genauigkeit~~7891
▁Rechte~~12563
▁sick~~11199
▁eventuell~~9125
asant~~19307
▁sich~~165
uru~~18339
▁Zusätzlich~~10196
▁bedeut~~9814
▁Liefer~~5924
▁defe~~21146
▁irgendwas~~6262
▁Lautsprecher~~18441
▁Rechts~~6907
▁lives~~19953
ünen~~16095
vitation~~20730
▁schicken~~5592
edeutend~~8940
ahren~~9885
▁eröffnet~~9919
anke~~9831
▁Leser~~13569
▁Saturn~~11396
▁bike~~20460
▁polio~~7233
▁Snowden~~16118
▁Schreibtisch~~14532
▁Teleskop~~16542
▁infl~~18878
▁Lesen~~1282
▁Details~~3133
isch~~646
▁eröffnen~~10384
▁großzügig~~13550
schw~~2307
scht~~3961
eling~~17578
▁res~~9279
i~~685
▁Killer~~7028
zym~~11170
well~~12104
▁progress~~15064
Vort~~16224
ifizieren~~10704
▁Galileo~~17515
sche~~2451
welt~~1784
scha~~2989
schn~~3555
grammen~~16789
schl~~5861
schm~~5784
ified~~18553
▁Kolonien~~711
/1~~14354
▁reserv~~14328
weil~~16856
▁benutze~~1542
▁triple~~21216
▁grab~~20681
athemat~~16324
▁Pakistan~~7503
▁ego~~17876
BM~~18320
beis~~15863
▁beängst~~6873
chnen~~2879
dose~~4381
onds~~14151
▁Times~~10072
▁Winkel~~14730
▁benutzt~~339
▁Einrichtungen~~10596
▁gras~~21113
möglichkeit~~9918
chnet~~10148
▁berechnen~~10863
▁Hinblick~~12656
▁Ehrlichkeit~~4450
▁inside~~17693
ening~~20515
Be~~7635
▁Grösse~~1623
kelett~~15111
▁Brutto~~8402
▁Reed~~17540
▁2011~~10387
Bl~~3230
▁zugleich~~11355
▁Dec~~19300
▁gerettet~~12043
\~~20058
▁sauber~~5786
▁bedeckt~~3923
Br~~8329
seus~~10419
▁Kreislauf~~6241
▁Benzin~~12896
▁blickt~~14317
▁Nachbar~~7604
imes~~14450
imer~~11288
imet~~458
▁drittens~~7129
▁gefähr~~2924
ect~~16190
▁sound~~18611
okrat~~1510
▁30.000~~16500
▁finanzielle~~9553
▁Isaac~~16607
▁Instrument~~4757
▁zust~~4400
Programm~~14480
▁fatal~~18310
▁Modelle~~2869
▁Milliarde~~4575
rät~~15251
imen~~1110
loss~~18601
▁Witze~~15220
▁Röntgen~~10849
▁Shir~~13494
▁Democratic~~18940
▁sur~~1546
▁museums~~20413
ässe~~5416
▁Fettleib~~20350
▁spezif~~12862
▁Übungen~~10168
▁Algorithmus~~10786
sagen~~10251
▁sum~~5451
▁motivieren~~11088
lose~~1477
▁Congress~~15981
▁Shin~~18746
▁sub~~14391
▁Problem~~122
page~~18257
▁ander~~13704
▁Liebling~~11842
lager~~10960
▁Leucht~~11466
▁pop~~17591
▁sagte~~1066
▁por~~3950
▁gestern~~5811
▁Israel~~3569
▁Fähigkeiten~~1610
▁identifizieren~~4449
atische~~11908
▁modern~~8514
▁Schmerz~~2995
▁Irgend~~9670
▁ähnlichen~~2314
▁Ih~~15069
ortis~~19245
▁pol~~13706
▁jüngsten~~10071
▁Glass~~9957
lagen~~10746
▁inspiriert~~9556
▁schweben~~3333
▁immigr~~20971
▁fün~~14586
▁Kriege~~6166
prozent~~7339
War~~17927
▁autonom~~19159
▁Buchstaben~~15341
▁Mell~~4428
▁Beg~~2586
Krie~~19450
▁Susie~~20814
?~~304
▁Kriegs~~11937
▁ewig~~4951
Ach~~14132
▁abnormal~~21019
glicher~~4109
▁zahlt~~14179
▁Spaß~~1561
▁Störungen~~11131
journal~~13939
▁engag~~6911
▁Standards~~2613
rasch~~20998
▁If~~18926
Um~~3328
Un~~5664
▁liebsten~~18235
▁Verbindung~~4664
▁heisst~~6222
glichen~~3464
schütter~~16890
▁Staat~~1354
▁Kongress~~7257
▁Beweg~~11353
▁schreck~~16433
▁Gesichtern~~14543
pt~~9081
▁inade~~20661
ube~~16907
▁separate~~16338
▁ack~~20448
▁Samen~~11278
▁allem~~4349
▁scheinen~~8868
US~~13901
▁allen~~452
onder~~7115
▁alles~~325
▁aller~~1635
▁Bewer~~10143
ervat~~12476
▁mathematisch~~18681
oring~~18725
▁Jackson~~14168
▁Hoff~~7100
▁abspielen~~10599
▁Seit~~2279
py~~20949
größ~~10446
▁schlechtes~~14808
▁schlage~~10773
ertigt~~11631
ulierung~~16347
▁Kennen~~8359
▁Rating~~14214
▁Tests~~10396
▁Koch~~15283
▁rüber~~5708
▁Maler~~14140
▁griech~~4979
▁nett~~16344
▁Presse~~12044
▁Designs~~9468
▁Seil~~9901
▁Sein~~7385
▁liebten~~12956
▁Tennesse~~20944
▁wurden~~35
▁arab~~16000
gruppe~~1865
andelten~~11173
▁lokal~~6357
▁Rule~~20304
▁jung~~7925
museum~~13051
▁partner~~11507
fense~~20455
▁dasselbe~~7658
▁Genoms~~13226
▁testen~~4314
▁Kamen~~15755
afrika~~13468
▁2002,~~8527
gessen~~18059
ählen~~4699
▁Ursachen~~9152
▁wiederher~~4889
▁Wichtige~~8661
ütte~~6507
▁keine~~174
hy~~8027
▁Channel~~9846
▁on~~17652
▁Galerie~~17698
▁Interesse~~2144
hr~~4533
▁Glaubens~~3385
▁hero~~8338
▁Langzeit~~4809
▁einschl~~9501
hh~~14536
hi~~17044
hn~~12984
ho~~14104
klich~~2007
hm~~17697
▁argumentieren~~6308
alyse~~18818
ear~~6611
▁dachte~~3781
▁mitteilen~~1808
he~~5850
▁Cart~~19995
▁kan~~12359
▁Honey~~18499
▁IM~~18526
▁versagen~~7472
▁Bion~~5799
▁nötig~~2617
▁Verbunden~~15207
▁Out~~13435
▁Malt~~15124
▁dignity~~21076
istisches~~18200
istischer~~6851
▁Our~~17242
▁sprachen~~5549
onanz~~19420
itis~~7225
▁Sach~~17190
itiv~~12777
‚~~17143
▁dieser~~425
▁drauf~~4584
▁tötete~~3532
▁mächtige~~13771
▁Stre~~15485
▁innerhalb~~2479
▁inkl~~19667
▁nutz~~12365
▁Zufall~~5248
zubere~~20530
erin~~11305
▁Satz~~7887
▁einge~~3436
▁Windenergie~~18656
▁Meeresboden~~196
▁herausra~~12062
▁diesen~~495
▁diesem~~279
now~~20752
Hallo~~18537
▁Völkermord~~3420
arre~~14861
▁Geheim~~7646
▁stehe~~3860
nehm~~15350
ermaßen~~3814
▁essen~~1970
abad~~18483
▁Drohnen~~19892
▁park~~20309
▁Konzepte~~12546
▁Werke~~12545
arrt~~6684
▁möchtest~~5411
▁steht~~2250
▁Folgendes~~12681
▁Vertrag~~16597
▁Eisen~~6244
bestand~~4907
▁Wett~~8719
▁knock~~19551
▁richtigen~~2659
▁Gaza~~14826
stat~~4692
star~~7328
▁Demut~~9421
▁gespeichert~~5793
▁begangen~~4419
▁gehe~~5574
▁Auseinanders~~13958
▁absichtlich~~6325
▁vergrößert~~5280
▁frontal~~17120
▁Schweigen~~3604
▁geringer~~4201
▁vergrößern~~4351
▁Note~~1141
▁Maps~~17861
iente~~7846
▁Beispiele~~4933
▁geht~~838
brid~~18528
ikale~~11460
▁Tote~~18365
▁Ther~~3074
hne~~8573
▁Sowjet~~20665
amp~~6363
▁abgesch~~13136
iode~~8031
insel~~10696
▁unterr~~5703
▁unters~~16002
jekte~~4944
▁IV~~15433
▁untern~~9349
look~~19501
portion~~16770
▁unterm~~7882
hnt~~5102
▁schütteln~~9785
zyklopädie~~14393
▁IT~~8640
▁Them~~6187
▁Wahrheit~~101
▁designt~~12011
▁Val~~11553
▁Allgemein~~4034
▁Van~~13292
ams~~9664
▁Research~~5728
▁Schwangerschaft~~11111
ausenden~~3016
▁Millenn~~19081
▁Cartoon~~12109
▁vollständige~~13003
▁verviel~~12642
▁2010,~~15508
▁müsst~~7697
▁Wahrneh~~15324
▁Netze~~16212
▁erne~~7917
▁Williams~~16013
ategien~~10269
▁Pestiz~~11141
▁Lewis~~9338
▁tatsächliche~~4646
▁geniale~~15275
▁prim~~9898
aub~~5503
aue~~886
ppen~~7344
aug~~13607
auf~~1054
▁flat~~14255
aum~~3591
▁Tinte~~16585
▁Repar~~9135
▁experimen~~3121
aup~~15453
aus~~191
aur~~10404
aut~~4823
▁Millimeter~~10864
▁jeweil~~2298
▁priv~~15889
gesehen~~9986
▁verlie~~8412
▁Gehry~~15416
▁but~~20073
▁ignor~~14570
▁brauchten~~5068
▁Schätzung~~12383
▁bereitet~~7864
▁erholen~~4204
esa~~13683
▁bereiten~~12467
▁email~~20246
▁Sicher~~12250
▁'50~~20747
▁Teilen~~2901
▁Interessen~~11600
▁Geschlechter~~13385
amt~~11570
▁schuldig~~1735
▁Comic~~15751
▁änder~~13077
▁pessim~~13640
▁head~~20757
▁Wurzel~~6808
velas~~3357
▁Abschluss~~2112
▁Dor~~10535
▁trauen~~13796
▁verarbeiten~~8101
▁reisen~~5670
▁Obdach~~11558
▁Tatsachen~~1315
▁Dok~~9844
▁Schlecht~~2096
äume~~12867
▁Don~~10502
oldaten~~18621
▁Konsequenzen~~5908
▁vielleicht~~1037
upt~~13588
▁Dod~~15102
▁unterdrücken~~13660
upp~~10617
▁Dog~~19214
▁Country~~18300
feren~~13472
▁fest~~4582
▁With~~19156
ängst~~6910
▁Treasure~~18716
▁Filter~~14059
▁Kilogramm~~12430
ents~~5923
Version~~16355
▁nein~~1573
▁Tech~~13925
cence~~21012
enty~~20806
ples~~19909
▁konst~~12027
▁rauchen~~10012
dere~~12238
pler~~17627
▁Quelle~~620
▁bud~~19383
oll~~9909
▁aufgegeben~~3871
▁Biolumineszenz~~367
▁Einkommen~~16617
nee~~4787
▁unterscheiden~~9812
vest~~16756
opes~~20433
▁Gil~~20190
▁Lebensqualität~~4526
▁unterscheidet~~11224
ney~~3471
▁Eier~~11154
net~~6939
▁Physiker~~12108
ner~~1972
▁Walker~~10935
chtern~~4311
med~~14318
▁angeboten~~3730
▁angesichts~~7674
aria~~20079
▁persönlich~~4932
▁cr~~21182
▁Stoffe~~14061
mel~~5782
▁Prostatakrebs~~19191
men~~749
izont~~9221
otion~~15307
met~~4715
▁ca~~3881
orp~~9631
mer~~740
▁cm~~5989
▁cl~~11887
100~~16774
▁womöglich~~18346
▁ch~~5424
▁attack~~9917
ocent~~21148
spiel~~4541
grenze~~4305
▁Komprom~~15797
▁welchen~~3208
▁welchem~~1278
maschinen~~8104
▁Präsident~~5969
oman~~12520
▁Dien~~7473
▁Akte~~11741
▁transit~~19485
▁Pent~~18083
▁Bronx~~7528
▁Eric~~4576
▁gemeinnützige~~11723
omat~~11172
omas~~20128
▁antwortete~~8022
▁erscheint~~8676
▁Lebewesen~~327
▁welches~~2766
▁welcher~~3978
▁Pittsburgh~~4426
dre~~17566
▁Inst~~9376
▁Bell~~17413
unden~~8871
▁Smartphone~~10298
▁physiolog~~11821
▁Ausbildung~~1277
▁gestartet~~7089
▁Fantasie~~10428
▁entwickelte~~6550
igens~~19332
Also~~8309
ippe~~548
moral~~9117
▁Schnittstelle~~11717
▁ansch~~10207
▁Atlant~~15976
rodu~~15282
▁nutzte~~6324
▁irgendwo~~976
▁sche~~9834
▁verlang~~3439
▁blicken~~16768
telt~~5948
▁schl~~2481
▁Viren~~7207
▁schn~~6534
▁Gefangen~~14338
▁erstes~~4581
▁erster~~2062
antage~~20696
ili~~12350
▁ersten~~493
Moment~~18546
▁schw~~1313
▁Lev~~17717
ellos~~17199
hieren~~2151
wohner~~19023
▁heben~~3002
▁Brown~~14413
rit~~6994
teln~~9041
Ste~~11027
▁wüs~~19382
▁flies~~15048
lungs~~3283
▁Gesch~~357
▁intensiv~~4106
▁vorzubereiten~~7792
▁dot~~11639
▁dou~~20948
▁Komment~~19312
▁Rights~~20962
▁Soldaten~~5663
ivation~~19272
▁dom~~17741
▁don~~17908
V~~2700
warf~~7931
ward~~7146
ästin~~16635
▁interpret~~15528
▁Augenblick~~970
▁Auflösung~~10846
▁amüs~~8735
▁Hülle~~6495
▁Anweisungen~~9736
oler~~17049
oles~~1769
▁eingeführt~~7106
▁Städ~~8560
ilosoph~~15259
▁dreif~~16953
äss~~1077
äst~~883
▁Manip~~19105
adows~~19292
▁Stär~~14308
ols~~19640
▁ma~~13064
▁Gefahren~~12248
▁light~~18789
olen~~11263
▁wirksam~~8275
rik~~14243
ikaner~~11282
@~~15494
▁manipulieren~~11993
▁11.~~7818
▁11-~~16016
▁forts~~13878
ready~~19502
▁110~~3968
▁freier~~16164
▁Prozesse~~2829
▁beeindrucken~~3915
▁Reserv~~7369
aging~~12132
agement~~12670
▁Primaten~~11959
▁Sep~~14607
agina~~18271
endent~~18924
▁insgesamt~~10054
▁weltweiten~~6071
▁Leider~~7066
▁Feyn~~19241
schten~~15076
ric~~11555
▁Thomas~~5493
▁kurze~~9530
▁Vorbe~~16720
▁Leiden~~13282
strom~~6893
▁Manhatt~~16178
stron~~3674
▁Wichtiges~~10018
rochen~~10158
▁glaubten~~8230
polit~~16282
ForShe~~21139
▁Strukturen~~5111
▁auswählen~~1219
▁individuelle~~2633
amment~~7094
schlä~~13009
▁fühlten~~12737
▁warten~~4583
ternet~~18713
▁demonstr~~18998
▁wartet~~1055
▁analysieren~~7547
▁transfer~~14481
▁wäre~~3028
ove~~17412
esten~~2097
▁Andy~~11102
▁simulieren~~10448
▁potent~~7285
▁rechten~~9253
▁reproduzieren~~12649
▁Beziehungen~~6266
▁funktionieren~~1815
▁kompl~~21073
gelassen~~9727
▁offensichtliche~~13253
isc~~20574
vermögen~~10603
▁Cricket~~19687
▁Kulturen~~3169
ferenzen~~7898
stitute~~18171
ählt~~12445
▁Stuhl~~4881
▁verantwortlich~~2309
▁wollt~~10579
▁Universität~~2394
▁Patri~~17650
öpf~~9810
▁gelben~~9646
▁Hospital~~4902
▁worden~~1406
▁Zwecke~~10843
▁eröff~~10037
▁psycholog~~8791
▁Dazu~~6901
▁Gehirn~~1628
ested~~19201
äuscht~~15877
▁Phoenix~~16744
igungs~~8099
ructure~~15558
omos~~14776
▁Armut~~3310
▁trainiert~~8246
▁BP~~18694
personal~~10747
ools~~2075
übt~~9775
,~~27
plantation~~15916
▁Nervenzelle~~13104
▁gehören~~6133
▁Dikt~~12735
bettet~~6869
▁französischen~~19411
ricane~~20206
▁Element~~4389
oole~~15860
ises~~2295
iser~~8691
ologie~~6517
▁erectus~~14749
olz~~18426
▁kümmert~~6397
ätzen~~6232
▁Aktion~~5928
school~~19529
ounted~~20653
ölz~~16917
▁digital~~11307
rift~~11610
▁Zone~~16520
▁Börse~~4386
▁Planung~~16312
ised~~20715
▁Motto~~1788
owers~~4941
isen~~3488
Gr~~15141
▁Let~~11182
▁vereinfach~~11072
▁festge~~4115
▁Prad~~7453
▁Tatsächlich~~1347
Seite~~5660
wend~~3944
▁folgte~~5090
▁wund~~6987
zwe~~489
omed~~17612
▁zieht~~7400
▁Digital~~10597
▁Republic~~17224
▁Zehntel~~17264
break~~21164
ormen~~10792
▁Republik~~9000
▁tötet~~9074
▁ziehe~~9075
▁BC~~20329
▁phänomen~~11790
▁These~~1032
afel~~11470
▁bearbeiten~~8106
erte~~3278
Wow~~13580
behalten~~17207
annter~~6157
▁beeinflussen~~3072
annten~~12060
▁ökologischen~~11484
▁Stefan~~16578
▁Fertigkeiten~~7941
▁Batman~~13196
▁Joe~~15521
▁bearbeitet~~10521
▁hine~~10452
▁Nennen~~9239
▁BM~~19836
▁Disziplin~~10473
▁Aufzeichnungen~~14325
stunden~~13655
gelder~~12093
▁Abendessen~~3806
nahmen~~12141
▁Mön~~14456
▁Gericht~~12565
▁Lande~~13439
ilz~~18056
▁Hunger~~8420
▁Arctic~~20399
aling~~20625
▁Desp~~13768
▁organische~~5976
körper~~3033
umul~~18337
isiert~~3276
oen~~19186
Feld~~16014
city~~20171
▁Gipfel~~522
utch~~19154
▁Babbage~~15758
örder~~11188
▁Beijing~~18623
▁bemerkenswerte~~12180
▁Bu~~13717
▁Alber~~16469
▁Transition~~16650
▁passen~~4701
▁ärmsten~~7268
▁Danny~~19178
▁amerikanischen~~6456
Gl~~9961
▁Friedens~~5755
▁klinische~~8267
▁Rather~~20097
iss~~2041
älle~~14676
▁Achse~~652
isk~~5720
▁100.000~~8809
ish~~5392
▁Gemüse~~5995
ism~~14875
▁Zeitra~~9184
▁detailliert~~5822
isa~~19142
isf~~20258
ise~~3062
▁Penn~~8047
▁Ushah~~20712
andid~~12493
▁beiseite~~8775
▁tag~~18342
▁nack~~10533
▁unvor~~9946
grade~~13128
▁einf~~16172
▁pat~~19009
▁alte~~6041
eitern~~10977
zell~~11920
▁pan~~8683
▁ginge~~11848
▁pal~~13027
▁Kortex~~13056
▁modell~~11657
preis~~8510
▁kriegt~~9625
▁frisch~~3958
▁erst~~795
▁By~~8318
▁Nahrungskette~~5982
▁bicycle~~19938
agra~~15196
ipe~~11557
▁verfl~~13469
▁dram~~20789
Jähr~~3647
▁Rod~~11781
▁effektiv~~6769
▁Rückmeld~~18155
▁Ment~~1899
▁Hill~~6404
▁Modern~~6512
▁ermöglicht~~10261
ärzte~~7299
schlagen~~7786
▁Läh~~20063
▁eis~~7164
▁Stammzellen~~12316
▁Symptome~~6621
▁Polit~~19677
▁Nobelpreis~~8411
▁fördert~~1680
▁Außenwelt~~4937
▁Method~~16985
▁erklären~~1060
pflanzen~~9301
▁Sich~~12261
▁diam~~19182
▁kommenden~~15624
ronym~~18318
▁minus~~9355
▁stimmt~~6648
▁nachher~~11406
▁zuhören~~1138
▁gelehrt~~1381
▁auch~~278
▁Sever~~19904
gyp~~17925
▁entscheidend~~2301
usch~~12376
▁fördern~~1431
▁stimme~~9106
abyrin~~16078
wärt~~12788
schirm~~3926
uries~~20874
▁Brasilien~~6063
▁aneinander~~14764
etter~~17067
▁ausführen~~3099
▁Tats~~19240
▁Chirurg~~8234
orientiert~~16678
ettet~~18276
▁variables~~15701
▁bedient~~16922
▁gewisse~~4303
etten~~12393
▁Toyota~~14382
ettel~~4348
▁present~~19519
▁lautete~~7996
▁Ireland~~11780
▁Perfe~~4596
ikerin~~2746
▁afr~~13622
▁Pflanze~~6374
ständlich~~15809
▁Komb~~12723
▁Kanzi~~20989
▁nerd~~13578
▁aff~~17321
gingen~~12974
▁Metaphern~~14650
▁AV~~19503
▁Gletscher~~1125
▁betra~~2941
tellt~~18422
▁Steck~~11323
▁nerv~~10010
▁opt~~9867
▁Komp~~3402
▁Stress~~5686
▁arch~~11359
▁Roy~~18092
▁Tafel~~3559
▁abzusch~~9729
▁Drohne~~19506
▁unendliche~~9575
▁Interviewer~~18835
▁Verarbeitung~~10814
▁Diff~~17570
▁Herrn~~14099
ürliche~~15271
▁statistisch~~16854
▁lapar~~17968
▁definition~~18929
▁sondern~~267
▁Oakland~~11290
▁unges~~14345
▁over~~18140
▁Große~~5014
▁Hmm~~9970
abelle~~1248
eman~~17345
▁existential~~20894
▁Damals~~3315
▁Nerven~~1669
▁trocken~~3906
▁Kommun~~1353
▁Diego~~10383
örper~~11911
▁hum~~18972
▁Kenya~~18289
▁Rest~~6154
▁Seiden~~16304
▁Kateg~~16327
▁hohe~~2667
▁NASA~~9949
▁Ress~~17764
▁aufnehmen~~9995
▁offener~~15636
gemeine~~17518
ocortex~~20344
▁Schweden~~8877
▁radikal~~1223
zieren~~11997
▁Produktivität~~2008
▁98~~10297
▁Morton~~20591
dom~~20658
▁93~~18018
etenz~~3403
▁91~~19736
▁90~~2078
▁behind~~1336
dog~~3353
▁95~~7462
▁zerstörte~~17524
üt~~5947
usters~~16231
▁normales~~12170
▁bemühen~~15080
▁9.~~7436
▁Bridge~~18193
▁humor~~15212
▁Vol~~10788
▁unin~~20119
▁spra~~20750
▁verkauft~~6051
▁Ehren~~4339
▁Prote~~9265
sterreich~~14445
▁Entdeckungen~~9944
▁genetischen~~11165
▁Proto~~9618
▁Öls~~16451
ending~~15188
▁exponentiell~~12415
laubnis~~20852
▁vergewalt~~18277
▁Dienste~~17922
hören~~5161
▁beispielsweise~~4459
sprodu~~8403
▁Lebensstil~~8738
▁verglichen~~11575
mengen~~11349
Achse~~10231
▁will~~1220
▁jem~~20068
dessen~~8250
▁gelingt~~5243
▁Japan~~2581
▁Secret~~20643
▁funktioniert~~1046
▁Rituale~~14672
aos~~12443
ahara~~13988
▁übernimmt~~6122
▁enem~~20576
▁afford~~19931
▁seltsamen~~14078
indungen~~14425
▁Äthiop~~8381
▁Insekten~~11924
ctors~~17011
üh~~10070
erung~~10447
▁betrachtete~~14272
▁voraus~~6345
▁absurd~~1144
▁RISD~~20154
▁entscheidet~~4272
sammeln~~7813
▁auszus~~9491
▁Marg~~18689
▁erstellen~~540
▁Produkt~~2505
▁gene~~14758
▁ermordet~~13223
▁Skelett~~12996
▁Hubble~~17531
ston~~6687
▁Minderheit~~10041
▁est~~18029
iolet~~15363
▁Marx~~13479
▁leben~~188
15~~16824
▁langfristigen~~17297
▁bevorzugen~~15003
▁sorry~~18503
▁Mars~~10954
▁bleibt~~4029
▁entscheiden~~2372
▁orbit~~20480
child~~17519
bau~~5771
bar~~3249
bas~~4003
▁300~~635
▁Allt~~12310
▁Galaxien~~10629
▁Sprecher~~6013
▁Krebs~~8227
▁Sprechen~~1704
▁vollständig~~2942
▁Außer~~11432
▁virt~~13125
▁faszinierenden~~3766
▁Great~~3608
▁pharm~~14378
bal~~14212
▁30-~~11121
▁bombard~~13243
lad~~18312
▁kämpfen~~825
▁Banker~~7809
▁glaubte~~4516
▁mixt~~18393
▁once~~21192
▁like~~5659
▁Lyn~~16870
‟~~20335
▁Probleme~~851
zonen~~7133
▁Blinden~~14219
▁beträgt~~713
▁Apple~~13726
▁stri~~16728
venten~~10062
▁50,000~~18701
▁anschauen~~5156
▁Problems~~145
▁Technik~~237
▁fortgeschritten~~4872
ichtete~~5590
▁rief~~7624
00~~5925
▁länger~~1616
▁Arbeitsk~~1482
üssen~~5862
▁zweiter~~4803
üssel~~14027
▁Ren~~18049
▁müde~~13041
▁Investoren~~10933
▁Nieder~~3834
▁Wann~~4660
rufen~~4656
▁zweiten~~7107
▁Ökos~~17582
▁Wand~~3671
▁Absch~~14062
▁Netz~~501
0.~~6245
0,~~5262
omb~~9738
C~~2782
artikel~~3993
▁verwirklichen~~14434
▁Universums~~10591
ome~~7044
▁Die~~100
sterblichkeit~~9304
Gesch~~8210
▁personal~~10280
▁süchtig~~11754
anche~~8330
omm~~1458
▁Alice~~17873
▁Dir~~5362
▁Dis~~2245
▁Colle~~6796
▁Div~~15718
▁Wolf~~12085
▁Serge~~19075
omy~~7224
▁Faden~~14793
▁Klassen~~2347
▁bewegten~~14887
▁medizinische~~8847
$~~15537
dro~~19505
uns~~11221
unt~~11543
▁Bundes~~2411
▁adult~~21132
▁Einschränkungen~~1955
▁universal~~1821
▁noble~~18247
▁Anfangs~~18014
▁ultim~~11675
▁langen~~901
una~~17933
▁bahn~~12177
▁Immunsystem~~9297
une~~10105
▁Schmetter~~14056
ung~~170
teigen~~3136
unk~~15232
▁bedienen~~238
▁industrielle~~11904
▁Zweiten~~15682
▁Batter~~13268
▁Bank~~14177
cyclop~~17850
▁umsetzen~~16320
▁Bang~~12624
▁Band~~5313
▁stre~~4598
▁Landwir~~14360
▁unschuld~~14849
▁bewerkstell~~17165
▁wollen~~1140
▁gäbe~~3820
ruct~~18905
▁legs~~19129
heric~~19558
▁erwecken~~12807
▁Inspiration~~14625
▁legt~~349
aller~~20301
itions~~5133
▁India~~16316
basis~~18649
▁Schwellen~~8607
▁Forum~~15154
▁Nutz~~10140
▁obwohl~~104
ting~~15953
▁fr~~1767
▁Klar~~12503
▁Klav~~4965
▁zwingen~~7349
▁Animationen~~17485
▁supern~~20179
▁2012,~~20048
▁Partikel~~14236
schutz~~3966
▁as~~5045
▁ar~~13994
üler~~4404
aufgabe~~11755
▁av~~18002
oppelt~~11981
▁at~~7174
sag~~4082
▁Jungs~~7614
ckend~~16514
iathan~~19033
CE~~14890
iminalität~~18559
▁ac~~20670
▁ab~~195
▁Monster~~6842
▁ag~~11971
▁af~~17151
▁Abed~~18911
▁betr~~16852
▁ak~~5389
▁Avel~~19828
▁medit~~13179
▁ah~~3893
▁Junge~~2208
▁an~~228
▁am~~146
▁al~~9205
figuration~~4612
Ch~~2980
sprobleme~~7690
▁Dichte~~201
Cl~~10488
inchen~~14320
▁USB~~19465
Dollar~~4366
wandeln~~20563
aks~~9383
▁County~~15149
▁Europä~~11205
Cs~~11501
utical~~19784
gründe~~14503
▁hören~~4647
▁fo~~20161
▁unp~~17372
▁Räumen~~5012
iz~~5003
▁Illusionen~~11384
▁Five~~18567
▁Sollte~~14854
ip~~4251
is~~831
ir~~6760
isierung~~1448
it~~2060
▁spot~~13185
iv~~1768
▁Berg~~6506
ih~~13832
ik~~529
ij~~12394
im~~1753
il~~1171
io~~3303
in~~108
ia~~1182
▁plat~~12660
ic~~3322
ib~~528
ie~~748
id~~627
ig~~448
if~~3498
▁gem~~4434
▁gel~~4237
zenten~~8137
▁gen~~3337
▁privat~~17071
▁geh~~4124
▁gek~~777
▁die~~28
▁gee~~15185
▁schwachen~~2422
▁gef~~5296
▁schließe~~7659
aki~~6571
▁geb~~3890
▁dir~~1931
▁dis~~5159
▁vertreten~~1033
emes~~18868
▁gez~~2623
▁vorsichtig~~15087
▁get~~8588
▁gew~~3959
▁Instr~~4766
▁ges~~2961
▁ger~~2448
ternal~~19663
elli~~17110
ello~~4759
▁stärker~~4451
▁schlug~~9890
Do~~18588
▁Privat~~1958
▁trennt~~16864
elle~~3763
▁GPS~~16489
elly~~19040
keley~~19859
kin~~15553
▁einzufangen~~8441
▁gewöhnlichen~~13672
kreise~~14934
▁Lernens~~10265
kelet~~15104
▁Krisen~~17990
aßen~~18086
▁leiten~~4486
▁Berater~~18736
ssinn~~14589
▁ine~~18375
▁Pret~~20002
▁Anstrengungen~~2765
▁ansieht~~6195
▁Schwimmen~~9340
▁Prem~~5005
▁Erfahr~~13213
esehen~~9954
800~~19472
▁leitet~~10389
▁vertraut~~402
▁Technolog~~18667
tocin~~21072
agon~~10462
▁Fir~~15709
aktions~~8473
isses~~13806
agog~~2602
▁FG~~20535
▁Nichts~~1091
▁Viel~~2234
▁Toiletten~~6757
▁Vier~~7701
lassen~~8350
psych~~15634
▁erinnerte~~7574
human~~17296
anders~~18803
▁egg~~21092
▁seine~~2514
▁Lähmung~~15005
yer~~10766
▁befür~~9101
agos~~8593
▁detail~~20116
amour~~20526
▁durchgehen~~13171
▁Repräsent~~14293
like~~20281
illt~~12827
▁wiederum~~8651
▁fat~~19319
▁flex~~13666
▁Flächen~~6319
▁far~~13375
▁brach~~6628
mungen~~6970
▁fam~~21091
▁shop~~17433
▁Nein~~1104
▁volle~~10234
▁Neil~~11574
▁höchsten~~1936
▁George~~6816
▁Helik~~17838
▁Save~~14442
▁allmählich~~16171
opt~~4465
▁God~~17527
opp~~7561
▁Angriffe~~18149
assic~~15836
ops~~7098
▁vorhanden~~6606
▁Schuh~~15454
rengungen~~21026
▁Sandwich~~15461
▁Serg~~20396
ope~~10390
opf~~2270
▁Dünger~~8430
▁Cairo~~20386
antwortet~~17438
ETI~~20778
oph~~4861
▁Sym~~4812
▁Syl~~19571
▁Syn~~9475
▁Erwart~~12714
▁much~~19853
▁Pic~~18865
▁anzubieten~~4723
▁chemische~~11117
▁gedacht~~5463
▁Square~~16167
Hall~~14550
usty~~18793
▁Magnet~~17004
uage~~20896
▁Kat~~1577
▁tausende~~13961
▁oben~~450
Arm~~11953
▁Syr~~20359
▁Zugriff~~13549
201~~9962
▁Abenteuer~~9955
▁halt~~12252
ueck~~20163
▁Date~~16134
öre~~10033
▁gesteckt~~7261
▁Kap~~14268
▁beteil~~14891
▁sobald~~782
▁Moon~~20580
▁stimmen~~2539
örp~~10689
▁schweren~~14163
▁Evolution~~1584
ört~~4095
▁torn~~21248
▁car~~19932
▁Qual~~2489
Are~~20608
▁Rap~~18265
▁Larven~~17495
▁Quad~~2239
▁glaubt~~6886
sichtlich~~7287
track~~16619
▁Kan~~12411
▁Wissenschaft~~859
▁Bunker~~15616
genöss~~14107
▁irgendwel~~18420
▁glaube~~1322
▁sign~~10423
▁Sche~~17078
burg~~2311
▁verbrachten~~7173
▁Village~~16184
▁Schl~~4705
spanne~~8493
▁Schn~~4250
burn~~19971
▁Niger~~7364
▁warmer~~19539
ierende~~1762
unst~~5821
▁degrad~~18385
istische~~6499
▁Schw~~3808
abteilung~~9688
bewohner~~3335
▁Erzä~~13641
▁Verst~~6679
▁Teller~~4365
▁73~~10514
▁Montana~~15824
zur~~8112
zus~~4801
oren~~3018
igste~~1269
▁wieviel~~4279
zut~~9568
▁Voice~~19910
ored~~16140
aliforn~~5828
▁Look~~6477
orea~~11893
▁Tür~~7631
▁Ironie~~3247
sprü~~7002
▁Netzwerke~~6353
zuf~~1847
zug~~521
zud~~242
oret~~13295
▁Kühl~~16679
▁kidn~~20764
zul~~370
zum~~12781
agramm~~18750
▁Älter~~16833
▁Weile~~1904
lief~~5109
▁Botschaft~~3541
lied~~13429
ploy~~20203
▁betrachteten~~15607
opters~~17839
▁Innerhalb~~2741
rinde~~13134
▁stecken~~4249
lies~~6380
▁kommun~~9689
▁anlegen~~17261
wendung~~16040
rant~~17218
ception~~15319
hnen~~2170
▁grass~~19757
▁beschleunigt~~4914
▁kreiert~~4821
ihad~~20067
▁tick~~15667
▁reagieren~~4420
erman~~18145
▁unbekannte~~240
▁Kombination~~7467
▁programmieren~~3008
▁Montag~~10905
unters~~12055
▁Social~~14907
▁Short~~20452
▁Zivilisation~~16804
▁Hunderten~~17998
empl~~20572
▁slope~~21125
▁appet~~12370
▁sym~~6385
bert~~9915
▁syn~~13859
DNA~~12831
fahr~~12168
uten~~3076
ekten~~13493
gin~~18195
zeigt~~7282
kop~~18680
▁enthüllt~~9470
▁tox~~1069
ctus~~17187
berg~~3560
arett~~17718
▁ergreifen~~14437
▁fantast~~7391
▁Flor~~17745
▁top~~18737
uter~~219
Z~~4055
▁tot~~8244
zeige~~13711
fort~~7806
ique~~19429
▁Bud~~11389
▁path~~15482
sparungen~~7508
▁Füßen~~11050
▁Mount~~8070
▁sh~~19902
▁Population~~10291
▁wollten~~2149
▁konsumieren~~6111
heimer~~17375
▁transformative~~19353
▁Kriminalität~~16268
inary~~20843
▁begegnet~~4093
3.~~16254
rüst~~18440
▁Ohne~~4043
scheidungen~~8667
▁Bul~~19794
▁städtischen~~7301
▁Stimm~~3453
▁Techn~~12857
▁wenn~~223
▁Lungen~~15229
▁fuer~~20158
zens~~3485
▁begegnen~~15662
▁Spielzeuge~~11999
zent~~718
iment~~7981
▁schläft~~17113
▁wunderbar~~11615
handel~~4863
▁unabhängige~~13398
▁40,000~~18773
▁primitive~~15859
▁Mehr~~8259
▁Antw~~20666
legung~~6940
▁verlieren~~7492
rechner~~14399
▁Modell~~2903
ā~~20185
▁regener~~17953
▁Regierungs~~11862
▁lesen~~1462
dienst~~11729
▁Negrop~~21014
▁charm~~15466
onnected~~20518
▁Michel~~14097
▁Gemein~~12035
änzer~~19208
▁SARS~~7345
legte~~7080
dies~~18302
▁sech~~7938
zuführen~~2674
▁experiment~~11946
▁spiel~~7597
phony~~4813
▁seltsame~~8229
ralen~~17722
▁heilen~~8347
▁Babys~~12205
▁sofort~~3288
▁lange~~823
asste~~13871
▁Marshall~~11691
▁laden~~4782
änzen~~14034
feld~~4047
fter~~17556
räften~~7975
▁cre~~18914
Wie~~1881
▁besond~~19408
abdruck~~12034
▁Debatte~~2251
▁baue~~15309
▁Kosmos~~16973
▁zeich~~9965
ried~~8724
▁definiert~~8302
oie~~20299
Wir~~3444
▁spezifischen~~10368
▁Journalisten~~2974
erven~~3807
▁baut~~8249
▁analog~~13264
▁Pilot~~3295
▁tast~~21105
▁fand~~7850
▁identisch~~10780
▁„~~8021
▁globalen~~2100
▁“~~4860
▁Platte~~986
▁schaute~~9035
lecht~~13283
cking~~5087
▁–~~103
▁Benjamin~~8789
irdischen~~16747
▁ord~~9467
▁add~~7963
▁ade~~20083
▁orb~~19305
▁Seen~~9401
mill~~20456
▁basiert~~9272
▁globaler~~3228
▁globales~~6855
ologischen~~9143
▁Lunge~~7165
▁November~~15888
▁Antar~~15061
▁links~~3117
▁zeigten~~3364
begriff~~14709
▁How~~19158
▁Hop~~19087
▁Baltimore~~19595
▁Hor~~12822
▁Hos~~8157
markt~~6192
▁Hom~~2510
▁Hon~~3757
öcke~~11155
wed~~21007
kun~~19273
meister~~3749
▁Waffen~~7311
▁Hof~~3740
▁sterben~~5691
▁islam~~13827
▁ADH~~15606
▁poten~~9987
▁Konz~~16809
minist~~20278
▁Objekt~~4960
▁Katastrophe~~13554
erv~~15951
▁Bomben~~17141
scheinlich~~14909
▁deb~~16452
fassen~~10325
▁Solaren~~20021
▁Nummer~~6576
▁Philip~~15332
▁problem~~16532
▁Jason~~575
▁Stell~~17984
▁seltsam~~893
▁4.000~~6852
▁Gemeinde~~11601
▁Tier~~404
▁Agr~~20377
itet~~7154
die~~3329
▁gelangen~~2679
▁Energy~~15038
▁recht~~964
iter~~2066
▁Zauber~~3648
itel~~2968
mm~~9979
iten~~4967
▁Behaupt~~17799
anna~~14302
▁steigen~~979
führung~~4785
ited~~18415
▁tur~~20224
▁Agn~~18109
▁Jew~~21045
hler~~3190
dis~~8648
riest~~16977
ville~~5206
▁treu~~7840
work~~15594
▁distrib~~20879
▁älteren~~12095
▁Bären~~1615
▁bra~~10434
omben~~10907
ächer~~3251
▁result~~16740
▁SB~~19325
Epidem~~18344
ächen~~9543
▁treffe~~14171
▁Außen~~10851
omatic~~20482
Gro~~10073
verhalten~~10024
▁Sure~~20577
▁gal~~15993
▁Femin~~13383
öntgen~~20547
▁mim~~20701
heres~~15349
▁Tibet~~10677
ampus~~18268
▁Wandel~~1225
addy~~9363
lieder~~7395
▁stell~~12249
▁Wander~~12757
▁unterschiedlich~~386
▁Symmetrie~~13130
wort~~12906
▁Gando~~19774
▁Math~~19244
▁Landschaften~~5454
▁Cameron~~7485
ummer~~10761
erb~~15286
▁Nächst~~19565
akuum~~20870
stät~~8733
bringen~~2576
stär~~2104
▁gelb~~2187
▁That~~16706
▁Matz~~4063
▁Entfernungen~~8590
▁Cass~~17872
rud~~9584
▁schmerzhaft~~4168
▁Wut~~7533
▁erhöht~~3664
▁dich~~1516
rue~~16589
▁Matt~~16612
kommun~~16128
box~~2873
▁Verb~~4098
▁grundsätzlich~~13168
▁erzielen~~2315
▁arbeite~~1746
▁Verk~~7026
bor~~5438
bot~~9036
▁Vern~~6922
▁Verm~~11613
▁Verl~~8604
▁gefallen~~5662
▁verbr~~10531
▁normale~~11846
▁Verw~~4554
springen~~7802
bon~~5721
▁Vert~~11459
▁schnell~~2439
▁Verz~~11451
erk~~9647
bod~~20114
▁jünger~~9203
▁ted~~20565
▁Nano~~17262
▁Wald~~5447
▁eingestellt~~4676
elect~~21167
▁France~~15452
ufact~~17824
▁Hu~~12449
▁Skept~~12138
▁funding~~20736
▁unglaublicher~~2923
iano~~6409
fältig~~69
▁Walk~~8727
▁lieb~~5643
▁Höhlen~~3181
▁hol~~2068
▁Mü~~5765
▁Alles~~827
▁Aller~~15897
lesen~~3092
▁brasil~~16160
▁unglaublichen~~936
rus~~9494
ailing~~16243
▁Mö~~4616
▁hob~~11444
▁lies~~12091
zusetzen~~7079
▁Sterne~~10540
▁fehlt~~5114
▁schmelzen~~5789
arien~~15437
▁verfolgen~~7111
steigt~~12071
pern~~4943
staaten~~6302
pers~~18204
▁erweiter~~12837
▁Leistungen~~2260
ologische~~9153
▁ausge~~4245
▁Abschied~~8352
▁grad~~18184
▁Aufnahme~~10602
elzen~~5785
▁Nerv~~6719
ays~~2888
▁Neues~~8558
ood~~3163
▁Begeisterung~~11567
▁kostengünst~~8141
fällig~~10171
▁aufbauen~~3244
oom~~10286
ool~~12843
▁frustr~~13042
oon~~14755
▁analysis~~21220
apper~~16215
ook~~11874
appen~~1015
▁versuchten~~4275
▁Bedenken~~16780
oop~~5949
▁Dollar~~2896
Ber~~12193
▁Philadelphia~~15478
▁says~~20380
▁Beach~~5809
▁Panz~~16495
fly~~6403
▁feiern~~1781
▁Gouver~~5937
unkten~~13127
▁beat~~18842
▁sorgen~~907
▁Notaufnahme~~15903
▁Vanc~~20654
▁Techniker~~3888
▁Taliban~~7930
ällig~~5297
flu~~11247
▁liter~~16978
ult~~2335
ulu~~15702
ulk~~19604
▁Mahlzeiten~~6034
▁Banjo~~19864
▁zufrieden~~1837
ull~~14529
ippen~~12603
athan~~17373
ula~~17326
ulf~~626
uld~~12786
▁pass~~10278
▁Bali~~16697
mented~~15871
▁Balk~~13440
▁Intuition~~4485
▁Ball~~5395
▁gewaltig~~7252
▁zuständig~~7016
menten~~11014
▁Bald~~13386
▁angeblich~~9838
▁gefällt~~818
▁beheben~~10270
essions~~20644
▁Muh~~17381
▁tele~~20869
aurus~~19140
▁reiste~~11393
▁Kommunikations~~3782
▁Spra~~3924
merz~~20167
▁alter~~7432
▁Glied~~17961
▁ermutigt~~8822
▁interessiere~~11330
▁Franklin~~8790
▁gezeigt~~5016
▁Just~~17928
▁Bezieh~~19020
▁1960~~14364
▁Lebenserwart~~19394
▁wieviele~~17987
▁hätte~~3445
▁interessiert~~4800
▁Nä~~10652
▁Förder~~10724
über~~5075
▁guter~~1642
▁gutes~~4371
anzug~~4179
aurant~~12396
▁wus~~16259
▁Wild~~10741
▁gr~~8295
▁zukünftige~~9111
▁Obwohl~~1036
ioxid~~16559
öße~~18363
▁ende~~19690
▁gh~~13638
▁schwache~~17349
pruch~~17423
▁gl~~6538
entwick~~10600
▁Stat~~13255
▁ge~~845
mal~~3182
▁guten~~2527
man~~3901
▁Galax~~17525
asien~~14735
room~~18055
▁handelte~~6513
kular~~3193
▁Diam~~3589
zne~~13995
▁Galap~~20512
▁Säuget~~11849
aking~~19477
▁Ereignissen~~9141
rics~~17469
▁entwir~~6542
q~~12968
ergie~~16665
▁Wahrnehmung~~10823
▁verschm~~5875
omes~~17792
▁gelie~~8307
▁miracles~~21210
▁exter~~13541
▁ueber~~19130
▁angem~~13184
omet~~17686
uchte~~5639
▁Benutzer~~11476
▁gehen~~1123
▁Bruch~~6265
▁erziehen~~16225
gewinnen~~15757
▁Put~~19534
▁Sylvia~~6952
▁Stere~~12101
ichtern~~18668
▁Bruce~~7145
immer~~162
ßt~~8950
immen~~9420
enn~~5589
ärer~~4698
▁gestoßen~~2159
gliedern~~8810
hoben~~2494
▁missbra~~11902
▁bewegen~~312
estern~~4097
▁amb~~20473
▁Süß~~15569
▁Rad~~9822
▁mum~~11054
▁Stockholm~~6980
▁Horizont~~8264
antasie~~1693
spro~~15026
▁Körpers~~4118
▁Ram~~13339
▁dargestellt~~2552
▁Sign~~15045
gebracht~~3945
▁Körpern~~11122
▁verschw~~10209
▁Rat~~4137
▁greifen~~4020
▁Sauerstoff~~753
▁kannten~~7927
▁richtig~~615
landschaft~~16505
▁mut~~5711
tellen~~1153
rolle~~13743
werkstell~~18123
▁Ebenso~~9182
▁Regenwald~~1097
▁Während~~3116
bein~~7772
▁Toilet~~17036
▁Aufgaben~~1609
beit~~6612
anson~~18675
angers~~20545
She~~9853
▁wunder~~6272
iments~~12358
▁Aufklärung~~18769
▁dad~~18025
arbeitung~~6455
▁Arten~~747
isions~~7121
▁Orig~~10366
▁Trick~~12024
iertem~~13769
▁Artef~~15782
ierten~~3459
▁Geistes~~10218
▁für~~123
olit~~15930
rogen~~666
ources~~19891
▁fliegt~~2911
iertes~~6585
ierter~~3491
tauchen~~7304
▁elektronischen~~7912
▁lustigen~~13319
▁Arter~~3030
sweise~~10403
ök~~4482
▁Lü~~13943
▁werde~~1572
▁40-~~7852
agin~~15919
▁DNA~~8378
lam~~11319
▁Jün~~11387
▁Lö~~1487
ennen~~8113
plätzen~~13902
▁Gute~~2610
▁Imper~~13823
ruppe~~7893
▁weder~~3719
▁Organisation~~3255
▁Wandels~~8591
teilungen~~2969
angible~~18988
▁öl~~5791
▁400~~2793
▁Brian~~6026
oiden~~11032
▁Rechten~~12240
▁sweet~~19935
hrte~~3257
▁Hühner~~14998
eltern~~17064
▁Lego~~14118
▁Stimmung~~5404
▁Entscheidung~~2281
▁Päd~~2216
▁talent~~7138
▁Bauchspeicheld~~15084
▁schlimmsten~~8278
▁bekannte~~1029
ließ~~7052
▁eigentliche~~8782
▁transport~~15423
▁Keith~~17003
▁fish~~18646
▁heiraten~~8214
auce~~20316
▁Verpfl~~13205
idmet~~19980
ollywood~~19688
G~~1181
ory~~10179
▁Hände~~4674
▁basis~~19439
ort~~2278
▁nachhaltig~~14585
▁electronics~~20964
ors~~9486
▁anfühlt~~4458
auch~~6680
orn~~670
orm~~10152
ork~~7770
icherung~~17684
mögliche~~10089
org~~3582
ord~~7833
ore~~8133
orb~~7739
onome~~12014
mittag~~16260
ora~~3756
▁Animation~~15548
▁Mich~~4148
▁dazwischen~~5418
weich~~7785
▁Court~~18573
App~~17678
▁begeister~~3456
▁teilhaben~~14852
frequenz~~17680
thing~~17640
▁Weiter~~2342
adic~~21260
vision~~13259
▁Tempest~~15463
äter~~13230
▁bewaff~~14718
▁Ver~~376
hrough~~17166
sters~~19823
▁sold~~20626
▁Eigen~~9071
▁BR~~19132
MA~~10634
▁dele~~5353
punkte~~3071
rüsen~~11153
▁notwendig~~6909
▁Dave~~76
▁Amerikanischen~~16187
▁BF~~12227
▁Konstruktion~~5089
afen~~6633
▁wär~~10571
▁letzte~~1618
▁löst~~13082
▁existierenden~~5472
▁BL~~679
waffen~~13285
ölk~~16995
▁abschneiden~~2207
pfern~~5318
▁koennen~~20159
▁Unmögliche~~7446
▁subst~~20853
schulen~~344
▁Br~~8397
estand~~6464
▁gebeten~~3810
▁Fundament~~12952
apses~~19597
▁brauch~~5096
▁Sport~~1651
▁Be~~989
▁Ba~~13670
▁Kriterien~~17128
▁Bo~~9693
▁Bl~~9588
▁internationale~~6881
▁Bh~~19676
▁Bi~~2820
anus~~17479
▁Waffe~~17436
▁solo~~19515
▁hinzu~~6280
akten~~10200
▁Elektr~~15047
▁bewundern~~14207
oppel~~17396
▁Tiefsee~~832
▁normalen~~4622
▁1995,~~12944
▁normaler~~11084
amin~~6462
akter~~4040
▁Ebenen~~7946
▁wünschte~~13623
▁faszin~~10772
ighter~~20855
▁Tamiflu~~20292
etch~~14095
aktoren~~15920
▁anfängt~~8111
▁auszur~~7197
10~~5556
Leute~~11537
12~~16966
unsch~~4679
▁ries~~16811
wert~~4363
steller~~14117
▁Fusion~~17235
▁abh~~7820
▁hunderttausende~~2871
orge~~6872
▁auszub~~7360
amie~~16857
branche~~17206
werf~~5760
▁süß~~14841
▁auszud~~19486
▁Erkrank~~19790
werk~~4695
1,~~10243
orgt~~6053
1.~~7819
lich~~391
▁Juwel~~9731
enten~~7234
▁Küste~~5827
▁Projektes~~11515
▁Korean~~16412
mitte~~470
▁Faszin~~12836
▁Fremd~~15660
▁September~~5007
DA~~19421
▁wahrhaftig~~17475
▁sorgfältig~~7728
▁Analy~~18513
▁Projekten~~7085
▁Hur~~18993
quem~~10004
▁Perspektive~~6482
kreisen~~11837
DP~~20302
▁Jahres~~5538
▁Ärzte~~8314
▁Vorbereitung~~10972
▁Licht~~341
Di~~15247
▁infant~~14088
De~~4939
▁absen~~16915
▁20-~~15222
▁profitable~~19222
▁Inside~~20486
▁imitieren~~4833
▁Einnahmen~~14945
▁Ignoranz~~13303
▁dauerhaft~~4788
ilemma~~14339
Du~~3824
mlich~~480
umer~~14597
▁ausl~~13931
▁Ruder~~13170
▁bekamen~~8228
200~~10918
▁wenige~~2272
▁streets~~14981
anfall~~14505
▁tit~~19795
bett~~8769
▁Flag~~14962
erkrank~~11230
▁verschwanden~~11216
Emissionen~~16454
rade~~19562
▁unnöt~~9095
▁Arzne~~18230
▁körperliche~~4663
▁Feinde~~5622
▁Show~~12226
▁Hacker~~13849
skrise~~5747
▁Sergey~~9956
▁Kontakt~~10259
ering~~15391
▁emotionalen~~8857
unsten~~2267
▁spenden~~12333
▁interview~~8469
▁2008.~~13907
▁Gewinner~~13584
liche~~139
▁River~~16009
order~~17739
▁Schwer~~14655
▁dring~~17068
▁Johanna~~17226
▁zumindest~~3866
decke~~14786
▁grosse~~1631
▁Woch~~20581
licht~~2499
lernen~~1446
▁Fort~~4606
▁kaum~~5836
▁Bestandteil~~3735
zept~~2018
ünde~~4401
▁öffentliches~~17034
▁Gegenden~~7315
▁waren~~848
▁brand~~17596
▁gang~~16643
obel~~13981
▁Meisten~~5565
▁Angestellten~~1297
▁hervorrufen~~13327
▁Meister~~1758
▁Effekt~~5361
▁Yemen~~19187
▁ganz~~793
▁erwe~~9233
Test~~16778
▁Hotels~~13720
▁konsum~~6087
We~~366
itete~~6553
▁Blau~~5606
Wo~~4642
▁russischen~~10897
▁Atmen~~5062
schmerzen~~18614
▁2008,~~14901
▁this~~21062
▁Methode~~3013
istan~~14827
▁Athe~~4331
▁imit~~13511
krebs~~8240
umen~~10789
▁verbl~~10964
verarbeitung~~15336
▁billion~~1587
▁Partei~~12478
▁Voraus~~4396
leuchtung~~15323
ges~~4173
ger~~3070
▁netter~~16860
gew~~6097
ären~~3715
▁optim~~13277
get~~4197
▁Montere~~20716
▁entstanden~~1034
mung~~5867
▁Global~~13598
“,~~13523
self~~12751
geb~~1485
▁versehen~~14476
irt~~10505
▁Tob~~18938
gef~~2716
ged~~727
äres~~12958
wasser~~817
▁Wörtern~~15127
▁Schizophren~~18851
gen~~708
gem~~6856
gel~~791
▁Shang~~20113
▁bask~~20093
▁Hitler~~18624
▁gefunden~~3714
▁Portrait~~15331
▁Transcript~~19
▁Plattformen~~9872
▁Übertragung~~3508
▁Large~~20020
▁vertra~~218
▁Lehrerin~~11582
sum~~18584
▁event~~19682
ould~~19293
▁winzigen~~5991
ichere~~17789
rupp~~8991
▁membr~~20826
▁benutzen~~244
▁Apoll~~20522
ützt~~13072
ence~~15256
▁ergab~~15373
▁Sorge~~12550
oven~~18843
lösungen~~8539
▁soll~~1323
▁abs~~13176
▁Quallen~~9912
▁abw~~16113
▁Sekunde~~1707
▁Indian~~16010
▁Besch~~3913
ütze~~10612
▁Angeles~~5802
▁bisher~~600
▁eas~~21099
▁fehl~~13514
▁langsamer~~8713
▁Jungen~~3525
ency~~20987
▁jün~~20228
▁hole~~9551
▁hold~~19944
▁Grad~~536
▁verwirrt~~14245
▁Grab~~15389
▁Flugzeuge~~15894
▁Überall~~1600
▁kommst~~1861
▁Talks~~19162
▁Chinesen~~5637
▁stink~~6206
▁holt~~13760
▁wiederhol~~5446
▁Gras~~5450
ju~~10869
▁Wänden~~5185
▁erschafft~~15580
▁empfind~~1101
rupt~~17217
▁Schlamm~~1398
flation~~18009
▁Journalist~~8697
▁irr~~12618
▁fried~~9412
▁Orbit~~14289
▁Nigerian~~20957
utt~~8398
▁Indiens~~7363
▁Festival~~18867
▁verbraucht~~15632
▁Sequenz~~7205
▁ging~~2427
▁Bestech~~16286
leitungen~~15734
osphere~~15027
je~~14198
▁Eigentlich~~4514
ja~~6060
▁Kaffe~~16695
▁inklusive~~14396
▁Liebes~~5509
▁Dschungel~~18846
uty~~20430
▁weiterhin~~3507
▁happy~~20831
ivity~~19873
▁stand~~2406
▁gemäß~~12081
▁pen~~12373
▁Aer~~17845
▁Kindheit~~8891
▁Rivers~~21015
▁per~~1273
▁turb~~17465
▁Telefon~~7901
▁welt~~2574
gemäß~~6864
holders~~1851
▁größere~~875
▁Resp~~19351
▁Lieben~~3828
daten~~14929
▁drast~~16724
bedarf~~6992
izer~~4930
▁wortwörtlich~~17440
▁informiert~~8665
▁biologisch~~5770
▁transform~~2444
▁unmittel~~7641
▁Appl~~17611
fä~~14997
▁Herzkrankheiten~~16731
ized~~19693
▁Denker~~18104
wissenschaft~~2972
▁weisen~~11280
izen~~10310
▁Dafür~~10009
ittle~~19641
▁geo~~17992
ision~~5065
mare~~9911
arts~~14991
hea~~21151
▁unglaub~~17504
olitik~~12623
▁standen~~5638
artz~~19625
▁Apps~~11392
▁Zuhören~~7700
mart~~10590
▁aufgehört~~4329
ungskraft~~7952
zustellen~~4890
arte~~4729
Lie~~12732
▁Wenn~~127
acre~~10480
arth~~6167
industrie~~6184
▁ziemlich~~3004
▁weiterentwick~~11225
▁Dean~~15754
kultur~~12538
viele~~7274
▁beeindruckend~~2521
▁Schlimm~~12087
▁näch~~3395
▁Ein~~143
▁sogenannten~~5871
▁Erfindungen~~6131
▁Schach~~4686
ocampus~~13095
▁ängst~~12052
igkeit~~2255
▁Sudhir~~21042
▁Eis~~816
▁Transparenz~~1853
▁beschlossen~~8396
▁Linux~~14385
▁mögen~~4592
▁million~~1586
gelenk~~19685
ftigen~~8188
▁stat~~10716
^~~18470
zä~~13062
▁wort~~8861
▁dringend~~17833
▁weiteres~~8254
▁weiterer~~8934
▁Jugendlichen~~3577
▁Büchern~~4949
▁Sech~~3339
▁hind~~18861
▁done~~20815
▁Gross~~6062
▁Hindern~~14716
▁schlimmer~~7647
▁Environ~~11863
▁Galapagos~~7060
zü~~11823
▁weiteren~~2792
krank~~4903
iolog~~12047
▁sug~~19372
▁bekannter~~14568
▁Organization~~17037
iale~~13585
▁verbinden~~2261
▁Möbel~~6467
▁erfolg~~18662
stal~~7849
ials~~19082
▁verbindet~~6720
▁network~~18778
▁Figur~~12574
▁nütz~~3628
heitlich~~5198
ikator~~18408
▁RB~~20635
▁verlor~~10052
▁Weltraum~~7108
▁fantastischen~~4761
par~~2246
pat~~3102
▁menschlicher~~1067
samm~~16943
uben~~15192
▁prov~~3422
▁Innovations~~1918
same~~14336
ammad~~18377
▁Türen~~6759
▁fantas~~20686
ächern~~14369
▁alive~~19740
▁Schulbildung~~2038
▁relevant~~9147
ased~~20606
▁proj~~3268
▁Wohin~~3137
▁menschlichen~~3014
▁Ausland~~7691
pal~~17704
▁Republican~~12485
pan~~10051
samt~~15262
▁Dschung~~20423
▁Arab~~14872
▁Freundschaft~~15880
▁Dur~~14706
▁Rennen~~8794
imeter~~719
▁Teams~~10991
▁Tauch~~842
▁individual~~10163
hrase~~13964
oid~~18805
▁gebaut~~4790
affte~~12951
▁stellen~~1722
▁parallel~~9756
▁Doha~~17544
olith~~14812
▁Dub~~20271
▁trainieren~~4919
▁Dun~~13149
ois~~16291
oir~~7370
▁Brad~~17417
▁enc~~18596
▁älterer~~14523
▁eng~~7425
▁end~~3112
▁Familien~~2423
▁Susan~~12155
▁enh~~16534
▁PowerPoint~~16146
▁Fiktion~~1691
▁enl~~20952
▁Indians~~20409
▁Senior~~8549
▁Music~~4824
▁habe~~1338
mann~~14186
▁ent~~1998
▁Defense~~11927
▁Musik~~1135
▁Hong~~16579
stellungen~~11245
ably~~21109
▁Kra~~9837
▁inf~~7463
▁Mittelklasse~~13731
▁fällen~~12938
▁Fliege~~8190
▁eB~~16540
▁ing~~19301
▁Verkehr~~8824
▁unbelie~~16626
▁Absol~~15703
▁praktische~~4559
▁Säugetiere~~11222
bou~~13496
▁Webseite~~5676
▁Wy~~19296
▁Erkenntnisse~~16112
▁tend~~16006
▁Number~~21065
▁genannten~~13055
▁erreicht~~2677
▁Joey~~18466
prüch~~19253
▁Dienst~~1789
▁prüfen~~6286
▁CEOs~~15534
▁ground~~19951
quelle~~6138
▁Übr~~13567
▁Tun~~7816
▁en~~5900
▁em~~14211
▁el~~3696
▁produkt~~6382
▁voneinander~~1120
▁Bir~~14418
▁Zeitspanne~~4556
▁ew~~16508
▁gewohnt~~3895
▁hält~~1897
▁et~~10304
▁es~~166
▁er~~444
ordnen~~3359
▁ep~~16611
▁Hauptstadt~~13024
▁Bade~~8472
rän~~8669
antw~~14087
▁Indem~~7707
▁ex~~10281
▁elektrische~~6563
▁Zeitschriften~~13010
äten~~8034
▁Grundlagen~~2695
▁Lehrern~~2625
▁keines~~16866
avi~~13826
▁auftritt~~14504
▁Industrien~~16287
▁geograph~~9702
▁derzeitigen~~10060
▁Kreise~~2305
▁ink~~11056
▁niedr~~16368
▁Denis~~18275
temperatur~~16554
mon~~14753
▁vergleicht~~13054
▁kü~~6997
▁BG~~7505
▁Lesters~~17196
▁Hipp~~13094
▁Joel~~17751
▁Männern~~7679
nost~~15409
▁Sufi~~18839
▁Ameisen~~1602
▁bloß~~4736
▁int~~7007
itable~~20917
▁Grenzen~~2698
▁aufzeigen~~4938
▁investiert~~2332
▁Republ~~17161
▁Briten~~3461
▁Western~~6243
▁Dick~~15333
▁Dich~~9417
▁aktivieren~~6755
▁klassische~~12424
anth~~13045
▁Karte~~562
▁Szenario~~6915
▁Erwachsenen~~1649
▁nachahmen~~3006
korn~~11339
zahlung~~16596
▁fordert~~2274
ct~~11248
atible~~17731
▁60,000~~20039
▁kreative~~1949
▁Krankenhaus~~4090
▁Erwachsener~~11671
emble~~17805
▁Dro~~15535
▁Dopamin~~16059
▁rechtfert~~14092
Med~~13997
▁gas~~19328
▁gar~~900
igten~~3409
▁Ocean~~19556
behörde~~7687
▁Lied~~6412
▁kostenlos~~9032
▁herstellen~~6387
▁Kenn~~11880
▁Lieb~~5665
kord~~12294
▁erwartete~~7598
▁gab~~1836
▁demokratischen~~19000
▁Anwalt~~2550
ieden~~5366
aser~~17014
nehmern~~1293
▁But~~17058
▁dum~~15830
ände~~2595
förm~~9172
▁Verfassung~~12330
▁Prin~~4763
▁Prim~~14599
ministerium~~17138
▁online~~5011
▁illegale~~15540
iversen~~20699
▁Pepsi~~20053
▁jährlich~~7383
▁finde~~687
asis~~14797
▁Großbritannien~~3272
market~~20966
issenschaft~~3984
▁Call~~13947
▁Netra~~19004
▁Priv~~11435
▁Mauern~~10753
▁Operations~~12368
▁Teil~~144
kä~~11956
▁thing~~19839
▁Pennsylvania~~12495
▁folgt~~8984
othe~~4467
▁willst~~5035
ibiot~~20494
▁Teig~~20294
agell~~17280
AS~~18532
▁schaff~~8745
▁Schwierigkeiten~~13528
▁bul~~21229
AR~~7011
ouble~~16130
▁Soph~~16931
kü~~8223
▁Fang~~19194
▁eingerichtet~~8125
road~~15364
umb~~9399
▁Inse~~20906
▁Unterstützung~~7096
▁Laser~~10855
nitten~~11152
▁erwähnen~~6175
▁Stücke~~4847
▁Hass~~18829
▁psych~~6784
▁anerkennen~~15217
äsent~~19878
▁Auslöser~~10912
usalem~~9287
▁Mittelpunkt~~6273
▁nachdenken~~3939
▁Inf~~8645
▁Bal~~11761
▁Einer~~3974
▁Eines~~850
▁kreativer~~5108
▁McK~~16363
▁Inn~~11642
▁gleichen~~2223
unterricht~~8900
achten~~6529
erspektive~~9933
▁jüngeren~~7609
▁kontroll~~17714
▁Santa~~10378
achtet~~6250
▁Int~~4490
▁Zuhörer~~6635
▁Ins~~8768
achter~~12184
swerte~~11579
▁Talente~~10332
▁günstig~~9031
▁Histor~~10910
▁Wasch~~8004
▁Beute~~372
▁woo~~20542
▁interakt~~10622
ianischen~~9982
▁Anwend~~17008
unts~~16105
▁boy~~17327
▁Khal~~20604
▁Jimmy~~3412
▁jemals~~725
wired~~20969
▁verhält~~16049
▁---~~16516
▁neulich~~12461
▁Onk~~8315
▁wohlhaben~~15186
ultiv~~10830
▁Recycling~~9558
einander~~4270
▁Anliegen~~8659
▁Pandem~~19755
▁Derek~~18347
▁action~~20429
Ad~~17202
▁Human~~11480
▁sim~~15316
▁klappt~~4061
▁Lanka~~12962
▁bedroht~~8507
▁Wend~~15800
▁sing~~13437
▁umzu~~13162
ember~~19193
umpen~~8119
▁Statistiken~~11120
▁Rate~~16730
▁kürzer~~4162
▁Rum~~11625
manuel~~10094
▁Robo~~572
▁darf~~8406
▁Kabul~~14902
▁behaupten~~2502
▁denn~~432
ugier~~20660
▁denk~~3668
▁tät~~8672
önt~~5303
▁beschäftigte~~4175
▁ursprünglichen~~12911
▁intern~~17761
▁Budd~~19384
▁separ~~16988
▁One~~17147
▁Expansion~~15536
ätter~~17387
▁jederzeit~~7041
öne~~17185
▁Spannung~~12651
▁Mineralien~~16675
▁behauptet~~9056
film~~10883
▁Quer~~18000
▁Winter~~7047
▁ausget~~14451
▁Go~~12712
jektion~~12142
uador~~16816
richtung~~6493
gewe~~13897
As~~11906
irurg~~19683
▁beeinträcht~~6986
▁billig~~12334
field~~6213
▁Philanthrop~~21147
▁Leidenschaft~~3656
quality~~20484
▁Australien~~8261
At~~15042
▁Community~~10520
▁Schimp~~17862
unkte~~14406
ada~~18557
▁dahin~~2434
▁Propaganda~~17063
aster~~1130
gesetzt~~611
▁erheblich~~11279
asten~~8726
▁Willkommen~~10092
▁geteilt~~9600
▁Italien~~8260
Zahl~~19230
▁erschreckend~~67
asted~~19680
gesetze~~13601
anse~~17863
sequent~~2693
▁angeschaut~~9573
klav~~13773
▁Mikrofon~~5355
▁AI~~20100
▁Kontro~~12943
▁Boliv~~18367
zieh~~10469
nitt~~17885
▁versucht~~1829
▁Schweizer~~11425
▁Ansammlung~~5876
▁unre~~5183
▁objekt~~10426
u~~1519
▁rice~~18644
▁poet~~14064
▁Haie~~19490
▁Meinung~~1222
▁benöt~~9423
▁kommunizieren~~4807
▁verleihen~~13481
▁neugier~~3476
▁versuche~~3799
anach~~13036
▁ged~~9415
▁Verlust~~3452
▁quickly~~21197
▁augen~~14908
▁Ergebnis~~1683
dollar~~21237
▁Jerusalem~~13756
▁Vertra~~14552
▁cocktail~~18965
▁herausge~~2464
▁Behör~~12059
zing~~8069
▁Jordan~~5819
▁gebe~~3979
▁Wunsch~~6953
▁Christ~~7704
▁wohnen~~13080
children~~20858
▁Sixt~~21116
▁Herren~~7466
ochem~~17748
ochen~~9999
▁polit~~16270
▁Elektronik~~13715
▁genetisch~~11166
▁signal~~17256
imme~~9308
▁Dutch~~21009
▁Meinungs~~10923
immy~~21257
▁riesiger~~15380
▁polic~~21181
▁Strang~~14656
▁skeptisch~~17407
pless~~21200
▁Extrem~~4837
stück~~8542
immt~~8280
ihen~~1490
▁Hund~~11310
riage~~19933
▁Kombin~~5298
▁bas~~14335
▁bat~~5579
▁gegenwärt~~4219
▁your~~19849
▁bay~~20564
▁orange~~11855
▁Passag~~17290
richtig~~5499
▁Sollten~~6336
falt~~7778
▁interessieren~~4851
▁horizontal~~6730
asche~~8158
▁bad~~19668
▁inflation~~18019
fall~~7460
▁Council~~19481
gence~~18249
ius~~4617
▁Diskussionen~~13166
▁bal~~12009
▁außerdem~~5773
▁ban~~15201
regierung~~2412
▁Fünftel~~12173
▁Berlin~~17129
▁ooh~~20537
▁digitales~~11329
hyd~~3947
ieht~~12709
▁krit~~10217
▁fundamentalen~~9180
▁Bangalore~~8049
▁chem~~757
▁endlich~~7433
▁Jamie~~17621
zentrum~~2563
atories~~20903
▁bilde~~16272
obi~~18303
jenigen~~11031
ogn~~20709
▁krie~~997
▁Mike~~9537
gor~~17313
üttern~~1402
▁digitalen~~10464
▁europä~~16149
▁Daten~~487
▁galt~~2145
▁ziehen~~780
▁motiv~~1761
▁Piloten~~17837
▁immense~~19259
▁unternommen~~2417
▁Bäume~~10685
ritten~~8752
▁Rang~~7989
▁leere~~868
▁Input~~5082
▁Medikamen~~18514
▁desert~~20150
▁Gelder~~2708
▁Charlie~~16229
▁gall~~14258
▁kollekt~~12524
▁entscheidenden~~2553
ended~~21222
aba~~15666
▁ausländ~~8540
gl~~10631
▁Ist~~1100
▁Cyberkr~~19696
▁Blitz~~18095
▁Spring~~11261
ützte~~4470
▁Cour~~10090
▁ausgest~~6674
▁Isa~~18883
▁Coun~~20390
abr~~5933
abs~~10061
abt~~2684
▁reflektieren~~13276
▁doing~~19742
▁Kohlend~~20737
▁Milch~~6086
klässler~~12869
▁Konsum~~3204
▁Charl~~18201
▁Demokrat~~8999
ordnung~~7726
underte~~9602
▁Besucher~~15619
▁Beobacht~~14644
▁sensit~~21039
▁nachdenkt~~129
▁Wirkung~~2682
▁fusion~~19966
izieren~~3027
gemeinschaft~~15015
▁Sier~~16173
▁manipuliert~~16571
illions~~21246
▁Chromosomen~~9257
▁South~~13506
▁Überwachung~~11935
▁Slum~~3334
▁Sieg~~8337
▁Lu~~13008
▁LOL~~18802
▁Universum~~9799
▁Stellt~~15726
iums~~6995
stellt~~4799
▁sle~~19810
▁zeigt~~918
▁Mr~~10754
▁Gruppe~~3738
▁Berkeley~~6479
embly~~20439
▁Fern~~8644
▁historische~~13777
stelle~~1924
▁zeige~~4049
▁Phänomene~~10760
▁lobe~~20980
enschaften~~14578
▁Fahr~~12634
▁direkten~~11333
ührt~~14144
▁übertragen~~14029
▁anfangs~~10000
▁Luft~~2769
▁sond~~17283
▁Aufruf~~12523
▁Psych~~14547
▁degrees~~20963
akt~~6144
ography~~19772
▁Agent~~18165
oux~~19578
ineering~~17919
▁Direktor~~8319
▁demograph~~16737
▁test~~18016
▁Behind~~13605
groß~~12840
iva~~17134
obile~~12633
umble~~18423
absichtig~~16998
▁Bihar~~7455
schicht~~4027
▁wundervolle~~4185
barung~~10445
▁entspricht~~2848
aste~~11445
▁Reflex~~5586
▁unangen~~6777
▁riesige~~156
▁gebunden~~6219
▁Programm~~6788
▁liest~~9527
▁autobi~~13137
▁Zuerst~~1903
raft~~1483
▁athle~~19152
▁still~~5427
▁Pentagon~~18251
▁derzeit~~4856
komp~~11590
▁bon~~20181
▁Zeitung~~2768
▁gilt~~2669
▁CAPTCHA~~19895
ital~~11303
▁Flugzeug~~2902
plant~~15911
▁Wechsel~~10719
itat~~14033
▁Trend~~8842
▁recycling~~12919
▁durchd~~7140
▁Kind~~1455
uation~~14935
osn~~13428
komm~~7844
▁Absichten~~4186
▁Immer~~3410
▁Ghana~~9711
▁chinesische~~8203
▁Princeton~~10242
▁Shirky~~18120
der~~310
des~~6081
det~~11785
üsseln~~9284
▁little~~20816
▁Ach~~12343
▁Dasselbe~~14768
▁effekt~~6903
▁natürliches~~17965
dem~~2338
▁Überwach~~1526
üsselt~~16135
kette~~17767
▁Acc~~19615
▁Überrasch~~15623
▁alphabet~~14286
National~~13413
▁Sammlung~~15106
▁Mother~~20623
▁Nachkommen~~9316
▁einbauen~~11936
▁Nicholas~~11520
▁inst~~12016
produ~~3238
▁Well~~14720
▁trat~~5292
▁Khan~~19294
▁Fähigkeit~~1495
rise~~16373
▁bemerkten~~13913
▁Welt~~232
▁fac~~19409
▁hoffnungs~~10728
▁trag~~6914
▁traf~~5675
▁Elisabeth~~18717
!~~484
angt~~15253
stil~~11234
▁Sätze~~7564
▁li~~12586
ous~~14688
arzt~~6630
▁Abfall~~15543
ilosop~~16967
▁Euch~~9422
▁Recherche~~11620
bekämpfung~~18560
▁Magazin~~1263
▁reich~~664
▁President~~14430
▁Wieder~~2146
iessen~~7158
Typ~~13286
ague~~19299
▁Ameise~~17266
▁Three~~12619
▁Lisa~~18490
Don~~17655
onte~~9870
teils~~7294
▁Make~~13456
▁Gabr~~4751
angs~~7022
▁Medical~~8322
▁Ähnlichkeit~~9611
teilt~~4246
odell~~17633
▁bloss~~14695
▁Herzin~~20094
▁June~~16108
▁fashion~~19012
▁dominant~~19487
▁menschliches~~3241
teile~~4908
▁komplexer~~11859
▁50.000~~3996
indern~~10821
▁Vent~~9877
▁Könnte~~9620
▁Leads~~20009
▁Macher~~15066
▁Schöpfung~~10441
iens~~5839
ient~~4136
▁kick~~20755
▁oftmals~~6656
▁Vene~~17891
▁Virgin~~19967
uzen~~7555
▁aufgezeichnet~~10623
▁prot~~20640
indert~~14410
▁Machen~~4627
alph~~11885
▁trage~~8976
iene~~3865
▁Installation~~15032
▁power~~20355
▁Wort~~5649
cken~~490
▁befest~~9490
▁Wahl~~1594
inzip~~6312
▁Nature~~16211
▁Selbst~~1364
▁love~~18238
▁prop~~12455
Danke~~16241
▁Word~~11774
▁Virt~~4717
wä~~206
▁Waschmaschine~~18468
▁Wahr~~11365
iße~~12814
▁such~~13037
▁Work~~7097
▁Zeitschrift~~18591
cker~~5128
▁prom~~12861
▁Vitamin~~7346
20~~2787
▁Software~~4834
holz~~8096
▁möglichen~~288
▁Abraham~~15793
rigen~~11158
▁spät~~5560
▁einfacher~~6293
▁einfaches~~1787
maßnahmen~~10174
▁einfachen~~4231
▁Fels~~925
▁Kollision~~17278
▁Third~~16213
messer~~14713
2,~~9975
2-~~10287
2.~~12279
▁Alfred~~13852
▁zerst~~3195
▁Ufer~~9586
▁Arch~~6516
fält~~12643
▁Vorgang~~3056
▁Holl~~3773
öcken~~11653
bage~~5733
gelöst~~15657
▁check~~20417
▁Spezialisten~~8251
▁method~~18494
uhr~~7562
Å~~17265
malen~~673
▁Definition~~9127
▁Guard~~19986
▁schließt~~11800
▁Epidemie~~13635
Ä~~14086
▁Over~~13531
▁verwendeten~~9037
▁Holz~~10315
▁erstaun~~5181
▁relative~~2503
▁Free~~16093
Aber~~10530
▁anderen~~1279
▁Veranstaltung~~6567
▁ele~~17782
▁elf~~13373
▁klug~~7838
▁Girl~~13614
▁fantastisches~~14040
isation~~7682
inding~~21101
▁berühmt~~8569
Projekt~~13331
▁Übersetzung~~8373
▁PCB~~11236
▁lie~~6431
▁Hosen~~7667
ragenden~~17247
▁langfrist~~19400
griff~~13389
idel~~15721
▁Dame~~12704
iden~~667
▁Maschinen~~8107
blicken~~11401
▁Paten~~7992
ided~~20326
▁ihren~~1723
▁ihrem~~2591
wandlung~~12429
▁Schildkr~~8970
appar~~18460
▁bessere~~1689
▁Bahn~~10656
▁ihres~~3547
▁ihrer~~497
▁kit~~17371
AIDS~~13990
cture~~19782
orient~~13131
ider~~5525
ides~~6137
▁km~~7087
▁kl~~923
▁ko~~12506
▁kn~~4822
▁Twe~~9707
▁ke~~14156
▁Fehlern~~15304
▁kg~~715
▁Sender~~11922
▁wachsen~~1063
▁niedrige~~16715
perrt~~12592
Ö~~16961
äufe~~15683
▁Lebensmittel~~6113
▁voranz~~7102
▁Kunst~~1711
▁absorb~~3951
print~~15719
▁dauerte~~4119
▁vorant~~2656
▁Sagen~~7535
arez~~20488
▁kr~~12328
▁ausges~~11232
▁Gesetzen~~12148
▁Farbe~~4006
▁größeren~~1809
▁Hirn~~10939
ED~~12471
EG~~19942
▁Südafrika~~10038
uteilen~~10132
▁Interpretation~~4758
▁unber~~14663
▁Theorie~~10836
▁Bruno~~12463
Und~~13699
▁aktive~~11676
▁unbek~~19168
auben~~15728
▁größeres~~5277
mma~~11556
▁bezogen~~6508
ES~~11242
▁Davon~~15120
▁lassen~~583
En~~12798
▁Rechenleistung~~18540
▁Händen~~6688
▁Restaurant~~6047
▁bewerten~~10192
chnology~~19887
▁Gene~~9314
▁Gleiche~~3877
Spe~~18189
▁bewertet~~1560
omin~~8606
▁überze~~9160
▁anschaut~~5136
Ex~~1786
▁festgestellt~~5222
â~~18816
▁terrorist~~15885
—~~19617
allappen~~11074
▁analy~~21198
á~~11591
Es~~7487
Er~~1472
eding~~20541
▁Audio~~16065
▁andererseits~~13892
wagen~~6458
▁Universal~~17213
nach~~7336
▁AD~~19787
▁Umgang~~14604
▁mehreren~~2894
ulture~~10257
▁AK~~17573
▁Kindergarten~~2442
sterben~~11213
ografie~~10364
künstler~~17690
▁Ansichten~~5492
▁Rakete~~10892
stronomen~~19500
▁Ret~~11994
▁Erziehung~~10726
▁Irgendwann~~5562
Okay~~5627
kol~~5835
forschung~~1450
kon~~3158
▁Tendenz~~10180
chan~~13089
▁mit~~220
▁mis~~1732
▁mir~~1491
▁Rez~~18879
▁durch~~438
▁Red~~3802
▁min~~17849
▁helfen~~5718
▁Reg~~3154
▁Antrieb~~2648
ordnungen~~10646
▁Aluminium~~6524
▁Rem~~13752
▁Geheimnisse~~14285
kor~~112
odox~~18622
▁Rei~~19160
lease~~20931
▁Biene~~14037
lehrer~~12802
▁erfüllt~~4413
▁gekl~~10220
llte~~8073
zesse~~18172
▁Altru~~18199
▁geöffnet~~9027
▁Vorbild~~13783
park~~8646
▁Reichweite~~9241
▁Diät~~3234
ó~~16873
stätte~~15584
▁wunderbare~~3553
▁Denkweise~~5612
▁Kuh~~11909
▁starten~~1211
ylinder~~7881
Problem~~10289
akat~~8732
▁enger~~15601
▁habt~~10587
▁Schirm~~16111
▁penet~~21185
▁theoret~~16102
b~~31
▁Online~~7899
▁gemalt~~10381
▁Werbung~~13914
▁Individ~~13058
▁Versorg~~17771
orgen~~7712
▁At~~2858
seen~~20726
▁breit~~4853
▁Auswirkung~~7962
▁Hub~~18262
▁pay~~20679
▁böse~~14121
▁Diskussion~~2409
▁miteinander~~4537
laufen~~9985
▁Büros~~12925
ichtung~~3914
ufen~~5216
▁hör~~14521
▁199~~7334
▁198~~847
zz~~18936
ypoth~~20117
▁193~~3370
▁komplex~~5263
▁191~~13810
▁190~~9170
▁197~~8444
ager~~5742
▁195~~3300
▁194~~3566
▁Neigung~~2955
agen~~2125
▁Masse~~13714
▁verbrannt~~11058
▁Erfahrungen~~3132
▁ökologische~~11813
▁Minnes~~20071
▁Auswirkungen~~4478
gehörigkeit~~7988
aged~~20787
▁Viol~~18026
▁Herausforder~~4593
▁Akt~~4741
▁Ac~~11494
▁Ausschau~~15511
ukle~~11915
▁Finan~~14218
ation~~6271
▁Ill~~8561
▁spreche~~11594
Arab~~19655
jenige~~13937
▁Einge~~4517
▁Angiogen~~21021
▁Desert~~19985
▁Bälle~~12404
machen~~8308
gress~~5694
▁anfingen~~4527
▁Archite~~19561
▁mobil~~13644
▁digitale~~7942
▁vergleichen~~12690
aring~~16685
▁honor~~3655
▁State~~5807
▁Jahrhunderten~~16294
▁Essen~~3580
▁blut~~17830
▁better~~20804
most~~17726
molekü~~2763
▁Fund~~13011
esse~~6465
▁Statt~~9419
owntown~~17072
▁Hus~~17946
▁blue~~18179
▁jemand~~1340
▁Funk~~10894
reden~~2718
▁Sturm~~10998
ka~~9640
▁transportiert~~6049
▁muslim~~18445
ke~~5214
kd~~16547
kk~~18543
ki~~18643
orning~~14216
ko~~10341
kn~~9998
▁konzentrieren~~2289
ks~~4900
▁englische~~3393
▁Renn~~13525
▁Roll~~13422
▁Hut~~8749
kt~~2349
ky~~16091
▁politischen~~2975
▁enorm~~2323
▁Ober~~3394
oots~~5202
illance~~20861
▁besonderen~~6865
▁herzlichen~~3902
rechend~~20102
▁Neuronen~~9331
▁Darm~~17057
zeichnete~~5368
▁FI~~3165
▁Ergebnissen~~2528
ulare~~10157
andert~~14794
schäd~~9483
▁University~~4429
ooth~~18566
▁programmiert~~1583
▁Oben~~1072
find~~12088
▁Salz~~16404
▁besitzt~~6573
▁Plan~~7155
▁sowohl~~4492
▁London~~3597
▁Fr~~9914
▁fame~~20345
▁Intern~~12134
▁forder~~17705
▁beobachtete~~10290
▁Woche~~1065
▁künst~~11989
▁Fi~~16057
▁Play~~5423
▁Cambridge~~2811
▁Fl~~3629
usions~~17214
▁American~~10607
8~~3567
▁Tja~~5274
▁Fa~~3356
▁Bhutan~~8395
passung~~18507
▁Fe~~2541
▁flock~~16558
▁publ~~16996
▁imm~~11673
▁entstand~~7905
▁kind~~12602
▁beunruh~~12162
▁90-~~17769
▁heut~~15097
▁Pen~~11109
▁zeit~~3930
▁fluid~~20827
meid~~9119
▁Biom~~12135
▁Sally~~19653
▁25,000~~20040
utzend~~16044
▁Äqu~~10801
shore~~19717
▁angemessen~~4446
oster~~11169
attle~~19513
▁imp~~7288
▁Lektionen~~2264
stronaut~~7109
▁vernünftige~~7105
▁herz~~16323
▁athe~~20617
▁süd~~7074
▁überraschenden~~9703
▁arbeitete~~9685
▁2.0~~10510
▁traditions~~14225
▁64~~518
▁teilten~~5658
▁90%~~9293
▁aufhören~~1664
▁offene~~11799
outhern~~17915
▁effizienter~~6080
▁Kids~~4817
▁Größenordnung~~10815
fgh~~19574
▁begrü~~8949
mind~~21059
▁leiden~~12983
▁vertrauen~~1929
ving~~20517
▁Schritt~~1419
▁Freit~~19801
▁Flederm~~17581
▁konfrontiert~~4060
▁extrem~~4620
▁prote~~20622
▁treten~~8915
ortet~~20103
▁unabhängig~~7352
▁kombin~~17661
▁versteckten~~4071
fang~~3603
mine~~13642
▁Kontrolle~~2653
▁Käse~~15289
▁Hü~~12273
▁Shr~~15008
▁Health~~18333
▁spielt~~193
bücher~~11708
▁existierte~~6203
sonst~~7947
Gemein~~10252
▁Konzer~~5166
▁anzusehen~~12761
▁Papier~~2836
hritis~~12297
atures~~20412
▁spiele~~8966
isseur~~3155
▁eg~~20647
▁Betrieb~~1084
iest~~12105
mäßige~~17333
▁Trust~~19267
▁6,000~~20719
ikt~~5945
▁narrat~~3171
▁Walmart~~16669
▁Flex~~5030
▁einzigartige~~11473
▁mobile~~14537
reitung~~17744
▁Mart~~18437
ika~~6773
▁ed~~8346
▁Vermögen~~13627
otherap~~19395
ike~~1913
rieben~~5179
▁Barrel~~15664
▁ec~~20424
iki~~19419
▁Cro~~15915
äser~~14020
▁freiwillig~~13273
▁weinen~~5582
spunkte~~10146
ming~~13673
▁Reihenfolge~~14244
jährige~~7613
▁Diplom~~16400
▁gele~~16950
▁ausgerottet~~7150
▁involv~~13962
▁Schwar~~16746
▁Billy~~17483
▁Rückenmark~~6714
sted~~20340
▁Edu~~20385
cyclopedia~~19660
Yes~~20110
▁Kohlenstoff~~6875
▁Pandemie~~18041
▁isst~~12401
▁dump~~20036
▁Tum~~11187
▁komple~~8838
point~~19428
▁wirkt~~5299
ordnet~~10382
▁schwarzen~~14031
▁größer~~555
▁saßen~~10499
andal~~14477
▁viele~~982
▁Econom~~17468
▁Balken~~2352
▁Internationale~~16283
▁dumm~~1599
▁außergewöhnlich~~3506
anting~~20332
▁beschränkt~~13079
▁Moskiton~~17815
Wide~~20932
▁Denn~~599
▁Denk~~2462
▁ev~~12980
▁verfolg~~7969
▁Leon~~17002
▁zwischen~~399
▁Schwarzen~~5939
▁ungewöhn~~4869
▁Muslims~~20546
▁vill~~18477
ibly~~20197
▁Bilder~~150
arbeit~~1887
▁wegen~~1567
▁verdeutlichen~~8554
▁veröffentlicht~~1620
▁Tur~~16592
▁Inhalts~~14039
▁eintreten~~15581
▁Hungers~~8413
4~~2906
gebungen~~18770
▁willkommen~~16295
▁Pfl~~16441
ason~~18849
gas~~15699
gar~~5780
▁Pfe~~3750
sprache~~9047
▁Hersteller~~11463
gan~~7034
gal~~5467
missionen~~17617
▁furch~~9413
perte~~15123
▁ungehe~~12005
▁Talk~~16
gab~~12327
▁bring~~10563
izes~~19041
lings~~11201
bild~~1197
▁King~~13910
▁NGOs~~14860
▁zwe~~1160
▁go~~16954
chten~~8437
▁trifft~~657
▁ignorant~~13548
chtet~~9841
linge~~10755
▁dieselben~~5698
▁Zuhause~~1189
chter~~4796
zubringen~~7139
▁Natasha~~20977
▁Geräus~~4176
gent~~14215
▁effiziente~~16807
▁Ähn~~11125
▁Möglichkeit~~1944
▁Plankton~~5957
▁Ethanol~~16431
▁Decke~~6707
▁Anführer~~13449
pret~~18273
▁persönlichen~~4312
▁übersetzen~~16310
▁Minnesota~~17108
▁Mitteln~~14310
▁mole~~20613
▁Abkommen~~12617
▁messen~~2020
▁Tower~~18409
▁Stunt~~18561
▁Idee~~1566
▁persönliches~~5020
▁persönlicher~~9757
fuß~~3558
▁korre~~18469
zieht~~5962
▁beschäftigt~~3721
allas~~17512
▁wozu~~9958
engu~~11760
▁sun~~20131
acher~~6407
aches~~9990
recht~~1700
▁Gren~~3745
▁Ple~~12790
▁ermöglichen~~5057
forderungen~~15133
itors~~20202
away~~19131
▁Alarm~~16136
▁Greg~~14090
itals~~5033
▁ide~~13158
▁Mütter~~10585
reche~~18364
▁2050~~6082
▁1.~~10917
iends~~21052
reibe~~5228
mor~~18378
▁Anwesen~~13568
rechn~~8653
▁good~~21189
achen~~1985
▁Seattle~~14785
achel~~9441
▁5000~~9672
▁Landung~~7795
▁schützen~~6835
▁Aw~~20468
itch~~13853
▁Kleidung~~11035
reisen~~11770
▁Sutherland~~15609
▁saß~~8187
▁Nag~~12946
▁Bier~~1969
duate~~20256
▁Up~~11792
Kön~~17920
mot~~13953
▁Flow~~17323
▁Luke~~11443
▁längere~~17305
▁körperlich~~4659
▁Trocken~~12877
▁Cohen~~16109
▁Anwendung~~4036
▁Hindernis~~12336
ampf~~4570
▁respektieren~~12583
▁prolifer~~21253
stellen~~4936
ppe~~14807
▁Ukra~~20706
▁Ihren~~814
y~~3482
amps~~17699
▁leidet~~15887
▁anzunehmen~~13547
▁Also~~1305
▁fell~~20886
▁spektakul~~14217
struktur~~12531
▁glau~~14264
▁Nah~~4875
izip~~14304
▁Löwen~~13040
▁bemer~~13492
izit~~10151
▁Anges~~13343
pling~~19229
▁limb~~19117
izin~~12136
▁Saf~~18229
tendlich~~21244
▁scannen~~13332
▁girlfriend~~21155
▁bit~~20532
▁Projekts~~14723
ultur~~6389
uchs~~909
ucht~~4658
▁gefe~~6341
ownt~~20286
▁erhalten~~6006
▁Rabb~~16835
krat~~16903
▁geleistet~~16346
▁gefl~~8973
▁Ladung~~18246
▁Medicine~~20166
▁Erwachsene~~1345
source~~20170
▁gefr~~9357
▁Duke~~11949
uche~~4025
▁Projekte~~6376
voll~~2882
▁Sicherheits~~10979
tell~~8266
▁drinnen~~1048
▁schizophren~~17105
▁Sterblichkeit~~12199
gieb~~3280
bin~~5919
atural~~21046
ield~~18094
iele~~12023
▁Beethoven~~17175
ößen~~15146
sprojekt~~14411
Did~~21239
Die~~258
iell~~8795
bie~~11364
▁Transpar~~20924
▁Mrs~~15458
ielt~~2624
äft~~8211
▁staatlichen~~12147
aptops~~17576
▁Dynamik~~1604
▁Emp~~11133
bir~~18766
▁Sommer~~6439
schlüsse~~5853
▁ann~~16844
fron~~13930
▁Änderungen~~7828
▁danach~~6670
▁Norweg~~19096
▁ank~~12717
▁anh~~4435
▁anf~~8140
▁ang~~6752
▁and~~18
▁anb~~6099
flug~~7215
▁1996~~12684
ety~~20214
▁anz~~4985
▁benötigen~~10457
▁Bedürfnis~~14224
▁Pinguin~~11763
▁ant~~7029
▁Sup~~20353
▁address~~20727
▁ans~~461
▁schaue~~9511
▁Mont~~14241
aution~~20005
brenn~~4092
motor~~17056
▁fünfte~~16608
ächlich~~14726
▁Erweiter~~15464
▁Sack~~8102
▁biolumines~~9908
▁erschaffen~~3556
▁Bedrohungen~~17894
▁stattf~~14804
▁Ziel~~7915
▁Event~~16821
▁Experimenten~~14587
▁Relativität~~17249
erken~~18942
obert~~13755
rimin~~14467
amerikanische~~12384
gypt~~19468
rypt~~17875
▁Barmherzigkeit~~13326
▁formuliert~~6313
pet~~16506
lichsten~~7058
▁Mons~~16297
▁einführen~~2215
per~~4746
[...]
