▁LS~~15876
▁component~~2964
▁metabol~~10449
▁embry~~6993
▁Van~~12657
▁current~~4451
▁Fleisch~~15769
four~~10268
▁embra~~6688
ruct~~13081
▁boxes~~2264
▁Kle~~7572
educ~~1840
▁Talk~~14
▁Chin~~8851
▁laptop~~1214
▁proof~~3700
▁contract~~11197
▁Glenn~~12623
▁1998,~~13206
▁refused~~6018
▁meet~~1570
▁spell~~8631
▁construction~~9516
▁pity~~13376
▁cells~~2372
▁ampl~~4010
▁Dass~~16233
stell~~10631
▁carry~~4637
▁reasons~~1460
▁Gandhi~~2917
▁cell~~3673
▁distances~~761
iquid~~14168
▁cele~~14677
▁ultraviolet~~10423
▁treating~~7904
▁struct~~6292
▁aftern~~15605
▁agencies~~6720
▁brow~~13354
▁techn~~3074
▁thought~~1531
▁background~~1764
▁Million~~2640
▁negative~~9927
▁dire~~12233
fect~~3525
▁whose~~2930
quare~~12642
▁elimin~~6883
▁Queens~~12112
second~~6727
▁techniques~~5883
▁detector~~9042
▁controvers~~14929
▁dec~~5659
Huong~~3210
▁Bret~~15476
▁Everybody~~1987
▁Pop~~4060
▁Por~~7962
▁Pos~~14593
▁shots~~5517
▁laun~~11569
▁infrast~~14658
▁fake~~4181
▁Pog~~13637
▁Var~~14126
▁Pol~~1952
▁yours~~9562
▁respected~~10250
▁alongside~~9974
ated~~1138
▁There~~638
▁adds~~10008
▁designed~~1327
hern~~13258
avery~~14390
aten~~7868
▁possible~~1679
here~~5157
▁Arg~~13326
herz~~15712
ching~~10492
▁Nairobi~~10651
▁designer~~4195
ements~~5235
ates~~316
hers~~5222
athan~~14590
▁Depression~~4341
theless~~7385
ppen~~13775
▁artifact~~1967
k~~4387
auf~~14475
▁det~~9202
▁Spiel~~7848
▁Ring~~14249
ouds~~12140
▁Lange~~62
▁donors~~6365
▁Laden~~13978
▁influen~~9419
▁partic~~13199
▁Sobule~~15089
▁hear~~352
▁trunk~~7990
▁heat~~5193
▁pounds~~579
▁heav~~13682
▁Nick~~7583
▁Case~~13678
▁really~~348
sters~~4702
▁measurements~~2307
▁manner~~2767
▁ubiquitous~~9021
▁Baum~~11213
▁head~~369
stern~~13774
aun~~12312
▁heal~~6191
▁regular~~8876
▁Bang~~7440
▁Tipp~~13765
▁flows~~9326
<s>~~2
itha~~13745
▁methods~~11511
▁Bill~~61
▁intelligent~~2060
▁Res~~12441
▁person~~2427
▁unhe~~10558
▁Wagen~~9298
▁Chip~~11287
▁Nagel~~11979
▁nowhere~~2051
▁technique~~7823
9,~~2654
▁rather~~676
9.~~3849
▁empowered~~11091
▁luck~~5631
▁modest~~3933
holm~~14989
▁Pac~~14318
▁calc~~11823
▁essentially~~6768
▁wonder~~567
hole~~4820
hold~~11660
gencies~~13756
▁stack~~1628
▁prevent~~5246
▁Pink~~14213
▁helpless~~7308
▁agents~~11180
berecht~~15654
income~~11681
▁spinal~~5069
▁Satell~~15251
▁capt~~178
▁caps~~4426
otherap~~13867
▁produced~~4439
Le~~4263
▁Tasman~~13815
▁year~~840
wand~~14027
▁claim~~6901
▁manufact~~8565
▁Liter~~7080
▁beating~~5543
▁Mass~~3478
uary~~13801
▁producer~~6451
▁produces~~2430
umin~~13121
▁visitors~~11639
▁yeah~~4059
▁insights~~10033
▁systems~~1629
LA~~14818
▁psychiat~~13645
▁Fang~~15776
hol~~4556
▁nonviolent~~12406
how~~10332
hot~~8183
hou~~10907
ilit~~10046
▁Jimmy~~2687
hop~~4102
amme~~13659
▁grassroots~~14119
traum~~11988
A~~2293
▁own~~1509
▁tough~~2094
▁owe~~7394
▁neue~~15950
▁TEDMED~~11874
▁puberty~~8318
▁Steven~~7847
▁Lem~~12214
▁Kelly~~10678
iefen~~2855
▁purp~~13727
▁neut~~13499
▁world~~194
▁neur~~5077
▁woman~~1117
▁mentor~~12537
aving~~6504
▁bedro~~11656
▁guards~~8024
▁Situation~~15867
▁Ebene~~4793
▁Geoffrey~~15233
▁soil~~10844
▁elabor~~11845
▁presents~~10619
wing~~307
wind~~5275
▁Dom~~15071
▁surface~~584
▁Rass~~15988
▁protest~~10022
▁want~~187
▁today~~766
▁Wikip~~15449
gar~~11341
vard~~15781
▁wann~~14543
▁matters~~1777
▁conserv~~9312
▁wand~~14366
▁technically~~3381
▁movie~~7944
▁Kor~~14374
▁Higgs~~15078
fir~~12604
▁stimulation~~10830
▁Treat~~13217
fit~~5000
▁hunger~~6299
▁profit~~1443
izophren~~15330
▁architects~~7196
▁authenticity~~7787
▁diversity~~2037
▁instantly~~7141
inal~~6413
▁puts~~2543
fig~~11413
cipl~~10723
▁crucial~~9855
fin~~5662
▁participate~~3051
fil~~13420
esity~~15278
▁Being~~6160
There~~5612
▁John~~5839
▁legisl~~13408
▁neither~~2950
▁Navy~~11745
tenance~~11293
▁Lev~~13256
▁monit~~13202
▁smarter~~11405
▁bibl~~12587
▁Let~~991
▁skeleton~~9701
▁fires~~7979
▁property~~5651
▁somebody~~3431
▁suggests~~2482
▁..."~~3473
▁Kentucky~~11946
▁nation~~7342
▁celebration~~9367
▁continuing~~6931
▁fired~~6107
▁regnet~~13809
▁lesson~~1803
▁Dor~~13548
▁Brook~~11532
▁bu~~4143
▁br~~5131
Ç~~15701
osit~~4401
▁final~~1291
▁chang~~14669
osis~~10478
▁by~~24
▁emotions~~1345
▁downtown~~8744
▁be~~247
▁expertise~~5927
▁forests~~4152
▁actions~~8531
▁bo~~649
▁harvest~~714
▁rating~~10565
▁bi~~9016
rt~~10465
ru~~4382
▁cross~~5613
▁explode~~5454
▁Diff~~10947
▁weeks~~984
▁10.~~13265
ry~~2825
▁invest~~1849
re~~68
▁generated~~768
ra~~2660
volutions~~15212
ro~~2021
Super~~8773
ri~~2851
▁instructions~~9566
▁Church~~10009
▁curious~~2740
▁Panbanisha~~16052
▁Posit~~16081
▁transcend~~11297
▁Knie~~16197
▁decade~~1945
▁exhibition~~4900
▁dawn~~5857
▁detailed~~2749
upt~~14721
▁paying~~1844
ate~~682
hmen~~6645
eared~~11047
ata~~7264
ato~~3719
▁Russell~~12898
ath~~4507
ati~~7301
▁Songs~~13930
att~~7366
ats~~1269
▁News~~8480
▁ill~~5730
▁Coca~~11122
▁2011,~~7765
▁initial~~6892
▁Many~~5347
▁patient~~2426
▁lever~~1191
titude~~13845
Please~~3023
▁stairs~~6709
▁relativ~~13125
▁2020~~14993
▁apes~~8845
▁description~~2948
▁Mann~~12064
▁level~~1542
▁traits~~1254
▁Mang~~15789
▁stomach~~4476
olds~~1640
buch~~10225
▁scroll~~7815
▁incentives~~3341
▁NSA~~12024
▁trained~~10325
lege~~10230
▁constra~~4756
▁activist~~10018
xis~~14805
master~~3600
▁primate~~8911
▁Treasure~~14130
rons~~13313
orrow~~12969
▁agree~~6808
izen~~15608
▁Fischer~~8283
▁trends~~9938
LS~~13204
intell~~12283
▁keys~~4021
▁frame~~2059
▁suits~~11461
▁Robin~~11451
▁move~~841
Stra~~8724
▁Jack~~11797
▁aluminum~~4934
▁installed~~8621
Stre~~14123
uations~~11677
▁brought~~2289
▁free~~3556
osition~~4292
▁determine~~8388
friend~~9225
▁HIV~~6718
▁class~~1866
▁truth~~90
este~~11664
▁hardware~~3269
▁democrat~~13516
PTCHA~~15127
esth~~5112
▁Fellow~~9801
cking~~7874
▁Deep~~9427
width~~14521
▁buried~~8168
pect~~5522
▁misst~~15912
▁killing~~9467
▁caring~~7311
▁blah~~15074
enness~~9423
ource~~13685
▁strategy~~6840
▁Mini~~8562
▁merely~~6758
eler~~5983
▁algorithms~~8042
▁dough~~10128
▁distinct~~8050
hum~~13146
▁details~~3746
▁threaten~~7145
erana~~15922
▁Pot~~8748
▁comput~~11977
estock~~11318
seh~~16254
▁north~~446
▁recogn~~12197
▁Prophe~~15544
letter~~14574
▁away~~703
zyme~~8339
—~~14885
▁scanner~~2400
▁sketch~~8585
▁Hir~~15872
▁supermarket~~8825
▁tape~~9049
qual~~12184
▁injury~~9171
▁Telescope~~14093
▁limits~~2106
▁inventions~~4667
▁legitimate~~5932
▁freedom~~1578
▁Bonobos~~16051
▁qual~~11057
prim~~15495
▁quad~~1780
unts~~13382
liest~~8163
▁corre~~10737
antly~~9271
▁arbit~~6432
▁Differen~~15587
▁dismiss~~10985
lethal~~15506
▁deployed~~11613
▁Wirk~~15951
▁quar~~6498
isphere~~11009
▁giant~~353
capes~~5227
▁pione~~5179
ment~~1607
rict~~12444
▁coverage~~8992
rics~~6836
▁Lakota~~15593
▁Kauf~~15165
onanz~~15280
rick~~14332
rich~~509
mend~~5356
▁Rep~~15545
▁chromosome~~10880
▁underm~~9886
wide~~5183
▁underg~~6948
▁helped~~1954
iate~~8055
▁analogy~~8090
▁sales~~8754
▁gathering~~2193
▁Album~~13220
▁warrior~~9819
▁innocent~~5060
X~~6368
▁Every~~2048
▁criminal~~1203
▁livestock~~9260
▁film~~2453
▁fill~~6659
▁batter~~15632
▁spaces~~2365
▁wrap~~11606
▁actively~~7652
▁direction~~1948
▁2010,~~7397
▁Things~~12127
nes~~12363
reate~~6979
▁micro~~344
▁2010.~~11545
unte~~15224
▁ignorance~~9915
▁drugs~~5107
▁incident~~6528
▁success~~1600
▁adaptive~~4157
bles~~6450
▁predictions~~13085
cles~~5392
▁Behind~~3458
▁regions~~6261
▁maint~~12147
etic~~608
bled~~7331
▁banks~~2312
▁covered~~9737
blem~~10069
John~~5942
▁Oregon~~8019
▁East~~4150
best~~8384
▁spots~~5383
iry~~4628
▁organism~~8939
▁relate~~7364
▁governments~~5237
▁distra~~6660
irt~~2831
ibles~~14160
agine~~13397
▁eventually~~465
irl~~7185
irm~~10378
▁place~~770
iro~~12012
ations~~2271
ira~~14659
ringe~~10847
irc~~8035
ird~~1537
ire~~3899
▁journalists~~2338
▁Which~~4717
▁African~~4123
▁worse~~1100
ilibrium~~15693
cut~~6168
▁Ideal~~15316
▁displays~~11784
ishment~~12893
heads~~12470
carbon~~8353
▁worst~~983
izont~~15768
affe~~12955
▁Potter~~13368
cur~~6617
▁ce~~5487
minder~~13160
▁erectus~~10974
▁tempt~~3312
▁dein~~14832
▁Blogger~~14983
▁MRI~~2381
erst~~13185
▁ca~~10927
esis~~573
pre~~6468
▁Balance~~15995
ater~~7096
raits~~13935
▁Stand~~3553
▁possibly~~7454
▁accountability~~2077
igkeiten~~15947
▁shoulders~~5789
▁Voyager~~7956
▁sedu~~5536
ffic~~12169
pra~~14908
100~~4510
▁talking~~802
▁impl~~7316
▁grade~~5922
▁Paz~~7841
fre~~13965
▁Pay~~12405
isher~~6481
▁Block~~4965
▁Pat~~11718
▁external~~10078
▁fair~~4038
▁Pas~~11104
▁choir~~7832
.~~59
▁Pan~~2172
▁jazz~~4062
▁Pal~~5018
▁Pam~~13579
▁batt~~5848
è~~15658
▁storage~~5192
▁laws~~5196
ished~~7785
spir~~13608
▁welcome~~9217
life~~6157
ano~~8394
▁tooth~~5319
▁Comedy~~14251
▁Kick~~11645
▁healthier~~6696
athon~~10072
▁allowing~~7821
ersp~~15574
onym~~15470
arians~~11361
iologists~~8977
▁Erik~~12985
▁depth~~118
igan~~15828
aman~~12643
inch~~13509
usion~~6564
▁marginal~~1471
▁heter~~9005
▁Northern~~5272
▁empt~~5689
▁Wag~~3964
On~~7383
▁besides~~1463
▁Repl~~11279
▁historical~~10994
▁theories~~10167
▁Was~~2788
▁War~~4342
Mail~~16203
▁Way~~7203
▁jellyfish~~7428
▁flour~~7184
▁Afr~~15614
ogether~~9103
▁Hiroshima~~12669
▁Really~~1308
▁expectation~~12525
▁arrested~~6356
▁stop~~1333
▁Aff~~12828
▁narrative~~2456
▁stom~~4481
▁recip~~6237
▁Explosion~~15714
▁physical~~3571
▁Opp~~1769
▁position~~5810
iell~~15786
▁Opt~~15464
▁offering~~5735
bie~~13654
▁closing~~7981
▁pract~~13643
putation~~13461
▁Baltimore~~14876
▁symbols~~11765
▁Penn~~11421
▁inher~~11595
ã~~15477
▁Islamic~~9672
ustom~~13747
geist~~10637
▁always~~1549
▁perhaps~~3791
▁motion~~3912
▁surprisingly~~7234
▁school~~291
▁divor~~9837
▁difficult~~677
▁advert~~10530
▁cave~~2493
eliness~~4886
▁chase~~4963
▁Broadway~~12080
▁Olymp~~1319
Thank~~7896
▁harmful~~9568
▁Bell~~13036
▁8,~~14804
▁8.~~12188
▁Oxytocin~~15882
ordin~~5479
▁Chinese~~4265
▁85~~11011
▁86~~10865
▁80~~3068
▁82~~6369
etics~~5113
▁caught~~1661
▁Maur~~7713
ctic~~5329
▁States~~1459
hai~~10013
▁Power~~10954
ham~~5971
han~~7807
hab~~4421
▁thylac~~14287
▁calcul~~12696
▁phase~~7968
prison~~11563
▁silence~~2842
har~~12134
▁Radio~~10088
▁Koll~~7513
▁tremendous~~5741
inging~~730
▁astronomy~~12713
▁Julia~~11344
▁Julie~~14998
▁age~~1331
inosaur~~15258
▁Laur~~13164
uminium~~16107
▁ago~~985
▁campus~~10308
▁nest~~4463
▁research~~2107
▁Second~~1516
▁priest~~9500
▁Arist~~15425
▁Russ~~11102
▁Anders~~15437
▁recall~~3349
▁ambit~~14650
imicry~~14941
▁pace~~6548
▁Designer~~8535
▁ang~~12911
ction~~1480
▁phys~~8933
▁failures~~11452
▁household~~7908
▁pack~~4574
▁ambig~~10895
▁entirely~~5615
▁Bre~~5642
right~~9574
old~~1092
ole~~479
olf~~9006
▁boss~~1198
oli~~14692
oll~~4031
System~~10980
▁improved~~6877
▁cloud~~502
▁eating~~4048
ols~~8395
▁Tennessee~~12224
▁Aquarium~~4514
▁dying~~4480
▁German~~1915
ibel~~15504
▁fails~~8962
ump~~3130
ums~~4840
▁catastroph~~6902
▁just~~633
▁board~~2316
▁wilder~~14649
ume~~12936
▁Koran~~9970
▁standpoint~~11707
umb~~838
▁chance~~3368
▁Kosovo~~13744
▁Instead~~3320
▁suffer~~9689
▁Urs~~15926
annah~~4141
▁Rein~~12126
post~~12786
▁Profit~~15022
▁enthusiasm~~5605
▁fixed~~8194
▁practical~~4146
▁targets~~2127
riers~~5574
falls~~14699
▁disease~~3765
▁learned~~1712
▁plankton~~4530
▁lifetime~~6072
ader~~4854
ades~~6790
▁response~~5104
cular~~9051
▁Vert~~16268
o~~6
aded~~6780
▁biolog~~9184
▁schm~~14577
▁Alarm~~15638
▁creator~~9382
aden~~13421
▁Py~~9465
▁interests~~4176
▁consum~~11324
rators~~10662
▁aircraft~~2290
umann~~13768
▁Gedanken~~15400
sol~~7704
son~~4023
▁laboratory~~485
▁encourag~~9815
ithe~~9706
▁portraits~~7802
▁Span~~15221
▁inexp~~12739
▁Whole~~13387
▁legitim~~14550
▁apparent~~4763
▁Zwe~~15547
▁Marc~~14923
▁Matth~~13647
▁producing~~2419
▁BBC~~14682
spring~~14459
▁led~~3696
▁Yeah~~3953
▁economists~~5208
otten~~13993
▁Gener~~14214
▁Genes~~15217
▁Engine~~7716
forming~~1958
▁accompl~~14212
▁critical~~684
▁biolumines~~309
▁boring~~9553
ieber~~13427
▁Indians~~13901
▁Genen~~15457
offen~~11581
▁abnormal~~10823
▁epile~~9773
▁Harris~~8285
▁subject~~2322
▁corners~~5629
▁parks~~8967
▁sector~~6438
▁begun~~8022
aza~~13148
▁wall~~2907
uer~~12819
▁walk~~1865
▁monkey~~8906
krieg~~15173
▁Could~~3449
▁was~~520
▁war~~3508
pest~~14286
▁way~~338
▁subjects~~3408
▁Neur~~2343
▁compounds~~7456
▁absen~~14038
<unk>~~1
▁technological~~3922
▁ancestor~~9739
esent~~12359
irst~~4890
ervative~~8298
feld~~14511
▁upper~~1779
ü~~15364
▁fossils~~9755
eloc~~15261
'.~~13191
▁slowly~~3242
▁PC~~11298
▁ambition~~2943
ichten~~12380
leep~~7860
▁Glas~~14999
▁Jong~~13884
▁confronted~~11448
▁folds~~8060
obal~~14419
ritte~~15004
ó~~12608
▁Glad~~9027
▁vill~~8751
▁goodbye~~6159
▁iss~~6382
▁Connect~~13322
▁philanthropy~~6045
roll~~7553
▁continues~~8008
▁Gift~~15533
▁Gel~~12717
▁Geo~~13721
▁Gen~~5875
E~~2246
▁Robot~~11391
▁listen~~887
▁CERN~~13074
▁robust~~6907
▁massive~~2150
▁crystal~~7113
▁Get~~3608
▁Louis~~3038
▁sufficient~~5382
▁penguin~~8777
Afr~~6445
▁Ger~~10642
▁Trends~~15180
99~~12881
ederal~~12863
imming~~13869
▁bacterial~~9567
cycl~~15839
▁elementary~~10068
▁acceptance~~13351
aders~~15015
pet~~14142
▁illusion~~8114
▁traged~~12947
time~~2683
▁rescued~~10733
▁lawyers~~5149
▁Clay~~13226
▁rab~~10657
▁rac~~8036
▁rad~~8073
▁Lex~~11736
▁proposition~~6453
oss~~4051
▁Clint~~10647
ost~~10786
▁ran~~2554
▁gallon~~12503
▁rap~~9158
▁voters~~4174
▁ras~~10493
▁rat~~8063
oso~~3855
▁raw~~4813
osc~~2344
ose~~6010
▁Jarrett~~15842
▁candidate~~10341
vet~~12851
▁doc~~12381
ver~~1071
▁history~~862
▁interpret~~8457
▁Christopher~~2340
▁Gestalt~~15857
▁license~~8392
worth~~12385
vey~~2120
▁fung~~13728
ved~~4955
▁fund~~9664
▁Mexico~~8699
ven~~3970
vel~~6111
▁laboratories~~10411
▁Australia~~6139
yers~~8290
▁Best~~11869
▁comedy~~11269
▁Los~~7089
▁Lot~~15318
icing~~3190
▁taste~~11865
▁Bess~~13517
▁cues~~9791
▁bound~~4670
▁unusual~~3749
▁delivery~~11147
▁Far~~8479
▁Fas~~10821
▁Fal~~11249
▁Fan~~15019
▁roll~~5823
ective~~12228
▁Log~~10327
iraffe~~14467
▁role~~5089
minute~~3107
room~~11610
▁incentive~~6968
▁widely~~9017
zym~~12271
▁farm~~4677
▁thinkers~~9036
otransmit~~5078
iko~~15353
▁contain~~4538
▁Barry~~9114
▁lag~~12672
▁assoc~~10466
▁Richard~~9131
▁Toronto~~4825
▁collapsed~~2395
▁relax~~6499
▁increase~~1417
▁modeling~~8708
▁Michigan~~6372
olly~~8854
sign~~15185
▁Cross~~5581
▁emot~~14435
redict~~16158
▁existence~~9818
▁winners~~9378
▁Schaf~~14132
▁profoundly~~9069
▁Garage~~15987
▁ride~~5687
300~~7012
▁paralyzed~~5045
▁radically~~9847
▁protected~~4733
▁jumping~~5825
▁analy~~13632
ground~~7029
ords~~2678
▁characteristics~~6789
Mein~~15397
Me~~13277
▁point~~2684
▁charming~~11509
▁El~~875
Ma~~14481
▁Saul~~13032
▁Revolution~~1181
▁catalog~~7085
olen~~7327
▁temperatures~~8174
▁smoke~~6493
▁cheat~~3221
Ms~~6061
Mr~~2648
alone~~12322
My~~3926
▁Ew~~14693
▁importantly~~2384
▁diver~~4091
MA~~7953
▁plastics~~4359
▁know~~964
MM~~16195
ML~~5312
▁none~~10699
▁fire~~1534
▁hiding~~2832
MS~~11457
▁ourselves~~1043
▁Left~~3457
▁firm~~6221
▁Performance~~10355
▁leave~~1487
▁suggest~~3252
▁Sean~~14673
▁cooperate~~10279
umpt~~14065
▁grie~~13557
umps~~12480
ipe~~5459
▁climbing~~8193
ips~~5047
ipp~~8131
wana~~15262
▁differ~~6859
▁purpose~~1412
▁Baseball~~15731
Bot~~15502
▁meas~~2128
▁los~~13996
▁lot~~776
▁chron~~10592
▁simult~~8500
▁low~~3345
positive~~12529
La~~10916
opping~~8528
▁lob~~8264
▁loc~~9223
▁Domin~~13225
▁log~~5570
▁ging~~14630
▁quick~~3532
▁lok~~1101
▁mean~~951
▁lon~~4885
▁meal~~6677
▁CT~~9744
▁bew~~9959
▁CP~~14269
▁Nazi~~2858
▁enforcement~~5215
▁Airb~~13631
▁Nah~~16276
▁Himmel~~14842
▁CE~~13736
▁CD~~11773
▁Cholera~~16006
▁CA~~6989
▁CC~~8858
▁CB~~3957
▁compan~~10105
▁Laura~~7887
▁meetings~~8026
▁remotely~~4787
▁abandoned~~9540
▁approach~~3238
▁PowerPoint~~12047
▁Tom~~2909
▁Ton~~14150
▁Too~~9162
▁Tob~~14334
▁Tod~~3623
▁quasi~~14412
▁Toy~~3705
▁Mexican~~7854
▁jour~~9084
▁shelves~~8762
▁Top~~12656
▁Cl~~6009
▁Co~~6054
▁Ch~~2175
▁occurring~~10305
▁gifts~~10185
▁insects~~8897
ogens~~11873
▁Arctic~~9613
▁basement~~7207
outs~~10539
▁Marketing~~14595
ogene~~1969
▁Emmanuel~~14756
▁gases~~9278
ople~~10513
▁shops~~8451
▁HA~~14816
▁survive~~1288
▁Native~~12082
Who~~4258
▁Brit~~2727
▁bare~~2800
Produ~~15531
▁computation~~11794
▁signature~~757
▁tale~~1033
idepress~~15216
sst~~14810
▁pollut~~4547
▁tall~~774
▁talk~~934
▁social~~969
▁Brig~~5874
▁strict~~11415
iscovery~~7386
▁Nat~~13249
coming~~10955
ipend~~14987
▁drama~~2879
▁recognizing~~4830
▁Texas~~10132
tet~~15290
▁isol~~7497
▁Michelangelo~~9431
such~~6175
atar~~12932
▁Giardino~~16210
▁2009,~~1732
▁till~~696
▁style~~3729
conscious~~11291
ss~~8760
sp~~5384
sw~~13101
▁Sebastian~~12620
st~~710
sk~~4767
sh~~3132
so~~1743
▁consciously~~5071
sl~~6670
sc~~2210
ervice~~15266
sa~~11080
se~~1616
▁generate~~1081
inte~~680
▁terror~~12050
▁mem~~13564
find~~15670
▁prefrontal~~8261
▁hook~~5801
▁viewing~~2607
▁pyramid~~11330
▁Argent~~14943
▁magnet~~12332
avig~~15409
▁load~~5791
▁Adv~~11386
ographic~~5340
▁stir~~9814
▁matrix~~10564
▁tribal~~10330
▁forget~~332
▁attack~~5136
▁recon~~9925
▁attach~~7123
▁Add~~8769
▁Sahara~~11015
▁identical~~8049
hor~~12107
▁armed~~10958
▁screening~~2966
▁super~~2259
▁Report~~13779
▁suspend~~11834
▁artwork~~12849
▁breaks~~3277
▁ADH~~11622
▁Port~~14465
▁knees~~12655
▁Still~~9146
▁also~~235
▁Cent~~10450
▁cats~~10796
▁haven~~349
jected~~9878
▁Howard~~2921
▁tiger~~7480
▁distance~~3438
▁glacier~~7028
▁scaffold~~8931
▁using~~2380
▁solar~~7954
astrop~~16180
ann~~7606
▁Religion~~15704
▁Carl~~6455
iring~~9394
▁Baker~~4087
▁infections~~10861
▁Cart~~10287
▁bucks~~4511
▁Cars~~8401
▁dign~~12520
▁graphics~~8551
▁Khmer~~15528
▁direct~~4344
▁intric~~4005
bly~~14258
▁trade~~4658
▁intrig~~8047
▁extraord~~9366
▁volunteers~~3494
augen~~16198
▁60-~~10514
▁instinct~~4167
▁undert~~11177
▁Helium~~14821
ble~~4641
▁administ~~2075
ustice~~14667
▁trucks~~11347
▁dispos~~6264
▁some~~31
▁shepherd~~10260
ples~~4684
pler~~14177
▁Mubarak~~10092
gere~~15600
▁summar~~10764
▁Konz~~15686
▁aer~~12008
plex~~12986
▁9/11~~5873
▁Jazz~~11051
▁HC~~14518
▁Relig~~15674
▁convers~~9272
▁defense~~7430
▁medium~~4111
▁introducing~~12810
▁siblings~~10112
.'"~~4275
rael~~14484
itage~~5351
▁Frustr~~13476
▁stren~~11641
▁inspir~~9119
▁remain~~7345
▁Proton~~13130
ova~~12883
▁forth~~5098
gern~~14414
onents~~13030
▁Jewish~~10234
▁guilty~~1397
oper~~5772
▁internet~~7189
▁disc~~4093
▁choice~~2576
ona~~12779
ong~~4561
ond~~3582
owers~~3794
ooled~~11846
ony~~10064
bral~~15053
▁Schnell~~16289
ons~~2728
open~~15276
ont~~6834
▁interested~~1707
▁Leonardo~~7717
▁Diam~~12374
▁boat~~2783
▁destination~~11541
Hmm~~14350
▁Large~~13403
2~~1025
▁disk~~13781
▁Myster~~6132
uries~~7728
▁behavior~~2023
▁therap~~15241
▁making~~1818
romos~~11005
▁Landes~~16194
▁confront~~5195
▁existential~~12051
▁judges~~13571
▁Stop~~12565
▁trouble~~1693
forward~~6478
▁Gottes~~16030
▁psychology~~9870
▁service~~1442
▁relief~~3488
▁facult~~7655
▁appearance~~9001
▁interrupt~~14023
▁Naz~~14841
▁yield~~9349
▁Leone~~10774
▁exploded~~3302
▁disp~~4611
▁Daniel~~9121
▁Football~~15697
▁TEDster~~8158
▁wider~~7411
▁Island~~5683
▁halt~~7737
▁understands~~2962
▁uncomfortable~~5115
▁Wiki~~14124
emen~~8413
▁increasingly~~2503
sam~~4390
▁subjective~~7795
▁fr~~1419
emed~~1929
▁streams~~7251
alley~~16163
▁arguments~~6797
alled~~9499
▁plastic~~4320
▁fl~~371
abled~~12662
▁expos~~12547
▁fa~~2642
▁bes~~14712
▁honestly~~9473
▁complicated~~5072
▁fe~~4402
▁shifted~~9783
▁makers~~2339
▁Watch~~1626
note~~9381
▁struggled~~6150
imately~~11118
▁somehow~~1218
anging~~7581
▁fM~~2348
▁resilience~~10957
▁Celsius~~12661
ameras~~15767
▁printed~~8665
▁captured~~23
▁decor~~7735
▁suff~~7182
ndrome~~15426
▁life~~52
opters~~14513
▁economically~~5609
▁lift~~8753
▁Count~~10117
smann~~16264
▁conventional~~6534
phib~~8325
▁entire~~2047
▁watts~~13091
▁Gle~~13803
▁greatly~~8652
▁protocell~~15692
alog~~10990
▁blogs~~10524
archy~~12121
▁indust~~11380
▁systemat~~15105
▁General~~11084
▁unseen~~4819
▁walls~~3835
♫~~11156
▁syndrome~~10790
▁persuade~~9910
▁relates~~9864
▁tun~~12630
▁civilizations~~10660
itzer~~11818
▁molecules~~2227
▁Camp~~8181
illian~~13165
▁related~~7729
▁tut~~6615
▁tur~~4979
▁distrib~~8619
▁1950~~5429
▁Aber~~15483
▁Camb~~12329
▁region~~483
otic~~10220
▁Country~~13106
▁picking~~3947
▁more~~1273
▁marketplace~~10568
▁owner~~4212
deck~~14356
▁alternatives~~12259
▁crossing~~6805
▁drew~~4937
▁licens~~6114
▁Motors~~14795
going~~14936
▁mort~~3445
▁illeg~~14472
▁Hass~~14809
actic~~9104
▁says~~1118
▁formula~~8357
▁owned~~9384
▁dogs~~8802
▁temp~~11230
▁Muh~~13009
▁Mun~~4290
imps~~9285
▁Just~~1233
▁fragments~~4539
cia~~8634
▁evidence~~3336
▁Bamb~~4992
▁cousin~~13383
▁sister~~3022
▁Mur~~5969
▁Dinosaur~~15257
platte~~14247
▁Mut~~13874
▁cockro~~8881
▁onto~~2566
▁Gordon~~10726
rogen~~8301
▁Live~~4104
▁lingu~~7178
▁frag~~1962
▁transport~~4691
▁interactions~~9350
▁nuclear~~8143
▁fram~~3160
ounds~~8067
where~~8733
vision~~9884
▁costs~~1852
▁practicing~~12634
▁Orgas~~16128
▁minimal~~8075
anning~~6628
▁stimul~~1408
▁Japanese~~2029
▁government~~1900
▁collective~~2730
ricted~~1227
▁computers~~7470
▁collaborate~~3689
▁illumin~~2928
That~~1230
ff~~8893
▁Kapital~~16150
▁seventh~~6051
▁metabolism~~6823
▁Road~~6270
▁imit~~3721
▁material~~555
▁category~~9003
▁fulf~~1445
▁full~~2254
▁manipul~~14072
▁Liz~~12241
▁suffered~~11858
▁aus~~14695
ibri~~14010
▁preparing~~5684
▁attached~~7423
steroid~~16079
▁Lin~~10977
▁arise~~6809
▁Lib~~10650
umber~~5379
▁responses~~10613
oust~~212
▁circum~~9599
erb~~14425
▁donor~~6407
▁2003,~~8326
ousy~~6026
▁Scotland~~4723
ouse~~6638
▁rhythms~~865
mand~~8277
▁measured~~1733
▁seals~~14792
▁sells~~8347
▁Geographic~~8172
mann~~14606
▁inf~~7309
▁memorial~~8278
▁ind~~9860
▁ine~~6295
▁inc~~2305
▁citizen~~11911
▁inn~~10686
Team~~15845
▁inj~~4164
▁ink~~12360
ants~~4378
▁correl~~11903
▁inv~~2463
▁int~~11710
▁fraction~~4383
▁ins~~2393
▁Norden~~15633
▁technologies~~1722
▁crude~~2875
ocortex~~15214
▁presented~~7614
▁emit~~2236
plantation~~8935
▁dancer~~5034
▁Fortunately~~8984
▁tod~~13477
west~~4465
▁entropy~~11927
▁Lond~~13689
▁Frank~~2658
▁quietly~~8243
▁brut~~12055
▁And~~66
▁recru~~12423
▁Dallas~~13047
▁miracle~~4596
▁stunt~~11274
▁alle~~4851
▁voice~~3674
▁statements~~10596
▁heating~~13145
formed~~6724
▁Oper~~3680
▁circulation~~10543
▁Open~~10701
▁toler~~6787
▁calculations~~10175
▁Going~~12785
▁horses~~4570
icles~~3169
▁bones~~7501
▁DIY~~11715
▁boats~~11446
▁Ferr~~13000
▁purchase~~10150
▁sites~~675
leiter~~16136
ived~~812
▁Fert~~4664
▁guns~~9759
iven~~2560
▁Automobil~~9434
iver~~11597
ives~~558
▁thus~~10930
▁sides~~5438
▁brand~~5933
▁parach~~13350
▁Fern~~13890
ive~~599
▁pervasive~~7140
▁thr~~282
▁Fing~~14542
iva~~8945
▁backs~~713
▁wear~~6701
brow~~13488
▁location~~7791
▁Finn~~13272
▁audiences~~4046
▁scratch~~3593
▁None~~4657
▁Ehrlich~~15204
▁proceed~~7271
▁explanation~~4173
▁encoun~~7965
▁Anw~~14955
technology~~8879
▁edge~~188
▁tox~~13532
▁Chop~~14306
▁quiet~~4047
▁increases~~1409
▁cope~~9749
▁Leads~~15188
▁According~~3596
▁Material~~15314
▁liv~~6275
▁attitudes~~6924
▁lit~~6698
▁perceptions~~12410
▁lik~~12843
▁increased~~4034
▁retail~~8666
▁Moral~~10896
▁smoking~~790
▁reason~~3248
▁managed~~620
abeled~~13602
▁lif~~5695
▁lie~~2880
▁AS~~15083
▁AR~~8154
erence~~6112
▁AV~~14796
▁AT~~11304
I~~1119
▁Ahmed~~11079
▁excitement~~3491
arden~~15535
ilation~~2215
▁demo~~3088
ventions~~11558
▁AB~~3952
▁offspring~~8389
wired~~1245
odka~~14917
▁AD~~13870
▁AK~~13171
▁AI~~15075
▁AO~~13820
▁AM~~6065
▁agreed~~10908
▁As~~1352
▁Ar~~5967
▁Ap~~10836
▁Aw~~3606
▁Av~~11255
▁Tit~~15401
▁At~~2251
▁Hub~~13732
▁scanned~~12762
▁clips~~22
▁Tib~~7412
▁Ab~~6417
▁Ag~~2898
▁"]~~15734
▁Ad~~6415
▁Ak~~7600
▁Hus~~13445
▁Ah~~3518
▁An~~1264
▁friends~~1044
▁Al~~201
▁action~~3825
▁proposal~~6970
▁Economist~~986
▁fame~~5979
▁shore~~5200
ress~~7367
resp~~6919
▁astronom~~12879
▁Pen~~4503
▁Bron~~15379
rest~~3481
▁Per~~3524
▁scholars~~8152
▁Pet~~12327
▁creating~~1168
▁short~~810
▁calculus~~14585
▁proposed~~7422
▁posed~~7668
▁heard~~2230
▁activated~~5093
▁last~~665
▁artist~~3918
▁political~~2669
▁forming~~9204
▁LEDs~~3838
▁murder~~9859
▁youth~~6896
▁heart~~2888
▁Broadmoor~~16123
▁tank~~8682
▁involv~~8322
▁Alph~~15362
▁Creat~~3470
▁collected~~411
▁hind~~13440
por~~3123
ademy~~15736
▁hardly~~5457
▁hoping~~7539
▁include~~1754
pop~~6804
▁reass~~9412
▁digging~~9712
world~~10913
part~~12324
▁Integr~~13788
atch~~4329
▁Kongo~~15363
▁coff~~1127
▁tink~~11444
▁mob~~14319
▁bills~~3387
inten~~15819
inted~~3162
▁tiny~~735
▁global~~1622
▁Sep~~15901
inter~~2571
eshold~~16115
▁territ~~5303
▁whisper~~4089
▁ist~~11556
▁Namib~~15577
udes~~11455
▁applying~~7404
▁Geoff~~14865
▁puzz~~13510
uden~~15382
▁powder~~12919
diving~~7420
koll~~15431
▁performed~~3968
uded~~6215
▁laughter~~1381
▁isn~~1032
▁confidence~~2935
▁memories~~2459
▁which~~541
▁report~~994
▁Digital~~7922
▁supported~~7932
▁NATO~~11100
▁Republic~~6726
▁Abu~~13147
erving~~5315
▁morality~~3437
▁stamp~~7540
▁soph~~13913
▁Colomb~~12815
▁unsch~~15510
▁Philosoph~~12683
power~~6391
▁hum~~4823
▁hub~~11492
▁Matrix~~2444
▁game~~1528
▁valley~~456
▁forever~~3798
▁hormone~~3585
▁hur~~2824
▁hus~~6048
▁religious~~3359
▁Meet~~8949
▁storytell~~2502
▁hut~~13365
▁Ohio~~13543
ffen~~13681
stone~~9738
▁machinery~~8340
ools~~14986
ace~~9606
ack~~707
ushi~~9617
ach~~3559
aco~~3847
▁Samuel~~11836
▁Pitt~~7789
▁People~~229
▁Ira~~6179
▁millennia~~13068
act~~4674
acy~~1036
▁inspiration~~11228
▁incorpor~~9135
▁Eng~~8951
▁End~~4283
No~~5953
▁Kart~~15336
▁passage~~4127
▁Cape~~13003
▁implications~~6324
▁Karl~~10164
essed~~2315
▁hypothesis~~5813
▁cycl~~6518
▁Ent~~5899
essel~~15738
▁Capt~~4321
essen~~11868
acular~~14697
▁dung~~9232
▁Maya~~14703
▁Sold~~12415
oden~~10448
▁allies~~10039
hew~~8615
her~~908
hes~~4534
▁unem~~14608
NA~~11095
▁Margaret~~12475
ND~~14362
▁households~~8650
NG~~14114
▁Because~~486
hea~~14657
▁Chromos~~15272
▁finan~~9090
▁thereby~~7431
hem~~10453
hen~~4989
▁Boot~~12433
▁apart~~867
isa~~14501
hek~~13932
lang~~10437
verb~~7369
▁genug~~11557
▁sapiens~~9730
▁term~~1310
▁act~~4202
tended~~12110
▁soon~~628
▁ack~~15564
▁adult~~7322
▁MoMA~~13877
wal~~15538
▁regulations~~9533
▁Logo~~15907
veled~~13694
▁ecological~~8807
allas~~13112
asso~~5264
▁whom~~5030
▁extinction~~8365
▁assume~~4177
▁home~~924
asse~~8190
▁coast~~4415
▁improb~~13636
▁window~~382
▁Fro~~8321
▁cried~~11859
▁nervous~~3788
▁asteroids~~13298
care~~9830
▁page~~4268
aa~~13840
engine~~7733
ac~~873
ab~~4454
ae~~7764
ad~~1070
ag~~785
af~~5862
ai~~7487
▁potential~~966
ak~~1383
aj~~11036
▁impro~~1406
ances~~2056
ao~~12221
an~~2470
ulpt~~15186
ap~~1367
as~~1106
ar~~450
ument~~4469
at~~2280
aw~~705
▁entity~~6082
ay~~4071
ax~~3166
anced~~4781
az~~6669
▁bl~~4124
▁irrig~~6266
▁Sad~~4487
▁laying~~8242
▁Titanic~~80
urity~~12149
▁purs~~11292
uste~~15088
▁waiting~~824
▁350~~9396
▁dank~~15993
▁San~~2198
▁nach~~10340
▁Sah~~14325
▁pure~~8878
▁principal~~2131
▁Sav~~4140
▁viewed~~7599
▁barely~~7048
▁calculation~~10173
▁Sar~~5263
▁Say~~10384
▁mund~~15730
▁scores~~5547
Wide~~15338
▁symmetries~~15080
▁practices~~2041
▁moder~~6875
anw~~15376
Meine~~13714
▁operation~~5022
▁dispers~~5882
ituation~~16121
▁navig~~12333
▁norms~~3430
▁generates~~8374
ising~~1593
▁island~~4412
▁model~~1980
anned~~14083
tential~~16231
▁hist~~2496
▁complexity~~9856
▁Bobby~~12580
Wh~~10366
ombe~~14184
▁exerc~~9355
▁outrage~~8043
▁often~~2064
▁hairs~~12909
▁innov~~4019
fluen~~11933
mass~~3484
▁anywhere~~4132
▁2050,~~4624
▁steal~~3222
▁steam~~10588
▁grandchildren~~7070
▁resolution~~8096
▁unfair~~1719
retch~~5037
▁courts~~11160
▁Lerner~~15762
sch~~9487
▁perm~~4838
▁monitoring~~5214
▁findings~~1838
▁vast~~2530
▁Aimee~~15140
▁jewe~~13441
▁pers~~4545
▁muscle~~12432
resol~~7447
▁juvenile~~1315
etz~~9645
▁bombs~~8136
▁anyone~~3755
tz~~13796
ty~~297
tw~~8681
tt~~3463
tr~~1200
▁despair~~5125
▁Water~~8590
▁quote~~5961
▁teach~~1855
to~~1441
tail~~14012
▁disgust~~10938
th~~1671
▁raise~~1959
▁Geor~~15732
▁nerves~~5068
▁Sudhir~~16102
norm~~15108
orous~~3120
▁dictators~~10507
esign~~15040
▁Bund~~9906
▁liquid~~3091
utzen~~15348
▁sharks~~14789
▁Wait~~3200
▁round~~3126
▁extrem~~14476
▁mayor~~9682
▁skeptical~~14143
▁occasionally~~7138
▁neurolog~~15335
ading~~6624
▁sandwich~~8691
▁Brut~~14492
these~~15758
▁frames~~6860
▁Jazeera~~10649
ifying~~5106
▁3,~~7861
▁generating~~8373
▁Teddy~~9339
▁embarrass~~13573
ctures~~14719
▁destiny~~14641
▁sad~~961
▁sag~~13570
▁saf~~13348
▁twe~~7075
▁sac~~14385
▁banjo~~15095
▁sam~~5259
▁trains~~4758
▁san~~5972
itive~~3340
▁two~~119
▁sau~~15150
▁sat~~6094
▁saw~~610
▁sav~~4148
▁express~~3887
▁Thanks~~5943
▁say~~891
▁ancest~~9716
▁regime~~5243
▁Das~~15522
▁does~~1249
oton~~14815
clock~~1491
section~~2326
▁horm~~15468
▁obstacle~~13603
▁actors~~6298
▁Network~~12045
zig~~15572
otor~~15240
otos~~7479
▁Mississippi~~11493
▁Paradox~~13531
▁Region~~14599
▁Gap~~13159
▁Gas~~12260
▁Gar~~4327
▁Hem~~11008
▁Gay~~15048
▁32~~7834
▁sort~~1740
sy~~6700
▁Gab~~6232
▁Management~~14105
▁Babylon~~10228
▁Gam~~11756
▁Gal~~9209
▁da~~4627
▁lines~~1934
▁de~~1540
orben~~13267
▁founder~~8602
▁di~~11763
▁do~~476
otive~~11467
▁from~~73
▁du~~4237
▁nevertheless~~3285
action~~6311
▁dy~~1107
▁3:~~7478
▁founded~~9967
▁Finger~~15817
▁ret~~4490
▁Libya~~14546
▁rev~~927
via~~13252
▁rep~~4413
▁Fred~~11266
▁res~~5937
▁Frei~~14844
pling~~5260
▁reaction~~6509
vin~~202
▁heads~~6516
▁red~~724
vis~~11244
▁ref~~8996
▁reg~~4470
Aut~~13318
▁reb~~7933
▁rec~~3291
▁rel~~8017
▁rem~~3462
▁ren~~4338
ating~~1604
▁executive~~8700
▁altruism~~10700
▁writers~~8645
▁neighborhood~~5727
▁flowing~~5804
▁Despite~~847
▁tropical~~10451
ichen~~14402
▁published~~6956
▁Di~~12679
▁Wa~~14217
▁passen~~4749
6~~8633
peare~~15359
▁Rock~~9439
▁Ev~~2480
more~~9277
teen~~4639
▁resol~~9472
door~~9685
▁expanded~~7025
▁Kyoto~~12200
▁remove~~3442
▁186~~13559
▁187~~10218
▁180~~559
▁reson~~8399
▁18,~~9962
▁18-~~10877
▁remains~~9722
ocent~~13513
▁3,000~~8185
ulin~~15804
▁investors~~8157
▁Mohammed~~15300
▁iPh~~10174
▁infected~~923
▁Life~~8
▁scar~~6284
ational~~1416
▁scan~~8248
▁Manhattan~~7946
▁rebuild~~5897
▁Peace~~10101
male~~14358
▁lea~~15984
Your~~9402
▁Scot~~11732
▁relev~~11315
▁Meditation~~16234
▁write~~2321
▁brutal~~2694
▁Harvard~~6067
▁ELAM~~16229
▁hobby~~9297
▁glamorous~~13127
▁Humor~~14398
auer~~13670
▁capita~~990
▁Pizza~~15229
estyle~~15313
sense~~10818
scar~~13349
▁democracies~~10666
axis~~7658
information~~13588
hent~~15210
▁storm~~5592
▁unst~~8960
▁pneum~~13836
▁store~~3270
iving~~799
▁story~~102
▁Picasso~~7998
jud~~9892
cling~~6023
▁agent~~6580
riage~~12753
▁dramat~~15620
▁Coch~~9254
plant~~9945
▁studied~~7691
▁realized~~5141
▁Astrol~~14383
▁incl~~2319
▁studies~~2201
▁playground~~2941
▁central~~3777
▁uncom~~10036
▁nitrogen~~13286
▁crowds~~13684
▁passionate~~2753
▁3000~~16171
▁match~~2635
▁thank~~3199
atz~~12999
▁strike~~9376
▁Ep~~11241
▁orig~~15748
▁having~~226
▁Pic~~14262
athons~~14953
abeth~~15998
▁language~~3258
▁five~~843
▁fresh~~3128
▁Film~~8118
ith~~4312
iti~~2891
▁sizes~~329
▁similar~~1836
ite~~1533
etor~~15332
▁angle~~1705
ita~~4323
▁1990,~~10521
▁sport~~9834
▁subtle~~12367
itz~~11478
ozi~~13690
ity~~165
itt~~2592
its~~5333
▁wheel~~10803
brid~~15460
▁Tuesday~~5766
alle~~44
▁corn~~8296
▁injured~~7541
▁NGOs~~10712
▁Chap~~13022
▁cord~~5070
▁core~~4769
▁pav~~6728
▁concentr~~12256
alls~~9152
▁eternal~~5828
▁Chad~~14112
▁volcan~~46
▁pat~~9824
ally~~1773
angered~~15850
ijuana~~16101
inosaurs~~14867
▁toile~~14782
▁membr~~8369
▁classic~~2661
▁Eight~~11617
▁recovered~~4366
▁chocolate~~6006
▁phenomen~~13010
▁House~~2677
▁Bein~~16125
▁dozen~~2323
▁groups~~807
▁Bar~~11754
▁Bas~~10500
▁Bat~~8790
▁Street~~4712
ft~~8045
ector~~11983
▁Gr~~5963
▁Gu~~7738
▁presence~~6228
▁Gi~~11699
▁existing~~1910
▁Bab~~14638
▁Bad~~13458
▁Gl~~872
▁Go~~3429
▁Bag~~15432
▁Bah~~14614
found~~7556
aganda~~16246
irling~~14236
▁Ge~~2973
▁Ban~~9636
▁electrons~~11176
▁Hacker~~10292
▁Kon~~16036
▁dement~~14135
▁veter~~11791
▁face~~404
▁mechanics~~10890
▁reject~~6810
▁silent~~6920
▁fact~~333
operation~~13804
▁erst~~16300
▁Side~~7945
▁ads~~9409
▁Action~~10849
▁Favor~~10781
▁favorites~~242
▁loses~~13457
▁Emma~~13174
atoes~~9246
▁prevention~~6841
athie~~13893
▁lecture~~7619
▁likes~~9717
▁lock~~5808
▁prisoners~~8025
▁Mand~~13806
▁prison~~7984
▁production~~4345
viol~~7319
▁known~~1271
▁budgets~~12746
▁cred~~5930
▁cree~~4879
▁allowed~~6781
▁square~~581
▁violence~~2778
▁geometry~~4957
▁virtue~~7685
▁switch~~5064
▁crew~~2820
▁knows~~1013
ologists~~6126
▁Civil~~8146
▁empath~~7330
imet~~15831
▁Your~~1302
▁safety~~8191
w~~3187
▁spatial~~9767
▁realistic~~9835
▁EG~~11407
▁stem~~8255
Fra~~16104
▁intellect~~9907
▁already~~832
▁early~~1924
uel~~14391
▁reprodu~~8938
▁eleph~~16275
▁swim~~7004
xim~~12946
IA~~13642
uen~~11098
uating~~9597
▁right~~380
▁rules~~3598
▁step~~1125
▁totally~~3579
▁Jerry~~12860
▁weak~~3620
▁commitment~~5576
aven~~1095
▁cardboard~~4939
jet~~3864
Je~~15871
illes~~14056
▁explanations~~3343
▁radiation~~755
▁tribes~~9650
▁impress~~3346
ographer~~7377
▁CDs~~3881
▁iron~~4777
▁communicating~~318
ibilities~~1920
jen~~15417
▁height~~453
elling~~4050
▁nan~~3112
▁univers~~6130
▁shouting~~3991
stairs~~5717
▁Bosnia~~9995
▁precise~~3948
▁constru~~14783
▁transc~~7212
▁subway~~12102
▁William~~10743
▁transl~~10084
▁medicines~~10415
▁Amazon~~8730
▁Develop~~11540
▁readers~~10089
video~~15303
▁assess~~1731
▁plur~~14293
▁Jar~~12426
▁reflection~~11265
▁Ell~~3628
apers~~3711
▁higher~~166
▁Royal~~10749
mensch~~15777
▁Iranian~~2771
▁dest~~9178
▁infrared~~3900
▁occur~~10580
▁permission~~9389
▁apps~~8510
▁EB~~11999
▁symmet~~15079
▁Gupta~~14964
▁spiritual~~4681
▁parties~~10337
▁earning~~14716
▁decide~~3329
▁village~~7236
▁limbs~~11578
▁Song~~3927
▁command~~5892
oices~~10620
▁book~~1527
▁Kol~~15539
ocial~~10676
sely~~504
istor~~13090
▁Sony~~208
iding~~11424
CO~~5783
aterial~~12264
▁valid~~12114
▁Hawaii~~4529
passen~~13346
▁counting~~9502
play~~1052
▁minus~~7015
▁opposite~~1395
▁Last~~996
▁summer~~4868
▁Morgen~~13773
▁Authent~~15579
▁trauma~~10884
M~~1217
▁20-~~13987
virus~~15598
opf~~15723
plan~~13028
▁laptops~~6608
▁primarily~~4154
▁dancing~~1378
▁gentleman~~7895
pherd~~13038
▁Sel~~6064
▁wed~~10623
artet~~11043
udge~~3347
▁statistics~~8303
▁discoveries~~5160
▁Sen~~6247
▁analyt~~11551
▁shower~~8447
itous~~9037
giving~~11032
▁cym~~15893
▁herself~~10032
▁extraordinary~~2044
▁famous~~4726
▁Project~~7493
▁Seb~~11116
ugo~~14433
▁Home~~6630
▁failing~~5602
▁explod~~12668
▁comparison~~1799
rait~~13936
▁Homo~~9729
▁bomb~~4032
▁economic~~1655
Ein~~15430
▁left~~2065
ugs~~3715
▁Ganges~~7980
▁cooler~~5298
▁explor~~8126
▁Pack~~5015
▁curator~~13250
▁DP~~13821
▁Option~~14637
▁100,000~~6544
▁Sch~~1613
▁emb~~11208
writer~~4858
▁Embry~~14962
▁wooden~~8670
▁Milo~~15765
▁hundreds~~2262
ounded~~7925
▁30.~~9882
▁zu~~15953
▁emp~~10257
antor~~10274
▁husband~~2826
▁conce~~4917
rehen~~9583
▁concl~~10575
▁Hypoth~~15809
▁firms~~9334
▁instin~~11565
▁intu~~3454
▁into~~198
▁instit~~11309
▁girls~~5705
▁enthusi~~12678
iol~~14512
▁everything~~863
icult~~7675
atively~~4020
▁accelerate~~3601
allen~~13972
▁Iraq~~5939
▁ending~~6090
cra~~5544
▁Altern~~14452
▁Iran~~4190
etter~~13555
▁daylight~~8202
cri~~10229
cro~~4553
vention~~5353
▁selfish~~9501
set~~471
ses~~6558
ser~~919
For~~10077
▁optimal~~9897
▁Reform~~16071
▁Meanwhile~~8646
sey~~3629
sex~~12454
▁pro~~2755
see~~7755
▁cav~~12293
sec~~10621
sea~~395
▁hopeless~~6192
▁govern~~5251
▁difficulty~~3460
▁brainstorm~~12724
▁refle~~2014
eman~~10028
▁variables~~2266
#~~14022
▁broccoli~~11351
lef~~10952
▁close~~1372
▁involving~~11393
▁passport~~9525
▁Gravitation~~15565
▁corpor~~9829
▁Venice~~12754
▁Sudan~~10735
▁System~~3834
▁Mul~~14866
▁Such~~11006
▁translator~~12868
▁subs~~10554
▁subt~~13066
▁Delph~~16278
▁order~~842
▁Mozart~~3645
▁linking~~12501
otherapy~~5121
ikal~~14159
▁196~~7098
▁upside~~8596
struct~~5660
▁weakness~~7163
▁virus~~1133
▁fiction~~1358
▁microbes~~11872
▁internal~~6703
▁wave~~2354
thon~~15195
eping~~10241
rose~~10457
▁float~~2626
load~~6692
▁tracking~~3907
lev~~12519
▁origin~~5443
bell~~8254
ometer~~3144
acted~~11253
olle~~7698
dimensional~~342
sing~~750
▁afr~~15823
▁Microsoft~~11708
acter~~3195
▁scr~~5877
▁competition~~8490
belt~~13790
▁Uns~~15213
▁roughly~~4669
▁advice~~8225
▁dram~~15056
▁mons~~12145
▁newspaper~~5991
▁drag~~10025
▁folded~~8062
▁regist~~7537
▁register~~7557
▁accidents~~10905
▁Und~~12239
hing~~6145
▁draw~~7131
▁Tell~~4241
ulle~~11443
▁Mix~~15244
fire~~11069
▁Mit~~11000
▁Mis~~14259
▁Mir~~2467
mine~~10857
▁profits~~1472
fund~~8651
fung~~16076
▁Mil~~2469
▁awesome~~3581
▁Hack~~13702
▁Mig~~14151
▁Dubai~~13673
▁Mid~~4464
▁finger~~3276
▁jo~~8524
▁geek~~12300
▁consider~~759
▁absoluten~~15386
histor~~7396
▁ja~~9981
▁Spaghetti~~15858
▁nodes~~3616
▁ju~~4096
▁celebrate~~2615
Cola~~11123
real~~7307
pound~~9066
▁illustrate~~12411
vol~~5061
ould~~8705
von~~15914
ests~~9235
▁enterprise~~11030
▁print~~2609
▁Tunis~~14770
vor~~6646
ower~~2282
▁renewables~~14068
▁spine~~11243
▁Lim~~7362
▁craft~~2993
▁Len~~2854
▁Leo~~11668
▁Jews~~10227
▁pile~~4812
▁Leg~~10505
▁Led~~15102
▁Lee~~5838
ancement~~8836
aughing~~15452
▁pizza~~9841
read~~4711
▁Romo~~15070
▁computer~~424
▁dollar~~3309
▁elder~~14753
▁chore~~9800
▁Rome~~4688
▁stretch~~3915
▁Parkinson~~3764
▁Les~~9984
3.~~11692
▁ident~~8853
▁explained~~6912
idents~~7167
▁Instit~~13596
▁fancy~~11342
▁accuracy~~11245
▁incred~~2634
▁returned~~9040
▁Net~~13425
uilding~~7934
▁exercises~~11427
▁Sunday~~4743
▁AIDS~~10776
amy~~12485
▁activities~~3734
▁Mind~~10324
▁black~~663
▁planned~~11210
▁phot~~8924
▁comparing~~8637
▁directions~~7294
maker~~8119
person~~3503
de~~2699
eles~~14965
ipment~~15357
▁sophistic~~6984
irus~~14893
▁embar~~15550
▁sacrific~~14268
▁uns~~4662
▁unp~~6204
▁country~~1627
untu~~13688
▁unw~~7274
▁unt~~1393
▁principles~~3767
ultural~~10215
▁mistakes~~3294
▁persu~~6779
inations~~11445
▁unb~~7924
▁unc~~6818
▁diagnost~~13417
▁unf~~191
▁und~~8084
▁une~~1771
▁unk~~15207
▁unh~~6519
▁Craig~~8936
</s>~~3
▁unl~~10736
▁suspended~~11174
istern~~13218
▁automatically~~1700
▁Nin~~9093
▁Today~~1596
▁anonymous~~1506
▁similarly~~7065
▁mastery~~1413
▁Sam~~8747
parents~~13675
Talk~~13664
▁masters~~8429
▁noble~~6205
▁gave~~2860
iency~~14180
▁globalized~~1644
uition~~7543
▁Does~~3960
▁node~~3521
Oh~~1398
▁acoust~~4106
▁diplomat~~12215
▁stopping~~6930
▁foreign~~5497
▁transmit~~4147
▁ancestors~~4614
▁fits~~4025
▁diction~~16241
▁classrooms~~2066
Os~~14343
Or~~14981
▁except~~664
▁Imm~~15312
OL~~11052
OK~~6947
d~~1342
▁shining~~7779
penden~~10655
▁equity~~1760
▁Machine~~7554
▁Medic~~7752
▁Media~~3632
▁capital~~5462
▁continuous~~3906
ival~~324
▁Hmm~~7481
▁Imp~~9147
▁handy~~13618
▁dictionary~~12297
icious~~5137
▁Know~~10872
▁leg~~5542
▁function~~4962
▁representing~~7453
▁alphabet~~10640
▁recl~~14009
▁Fire~~3898
▁Festival~~14264
▁lex~~11463
▁let~~1109
▁manager~~11282
▁Truth~~10374
▁les~~10925
onymous~~6673
ength~~7250
▁contag~~12599
gnost~~16151
▁Training~~5855
▁audio~~9404
get~~10538
▁cold~~1360
▁Intelligen~~13967
▁department~~3234
▁Reserv~~15981
onscious~~13035
▁Defin~~14886
▁coll~~9197
▁pitch~~662
▁Eg~~8627
be~~2999
▁Ed~~4189
▁Ec~~12558
Look~~8941
▁During~~2529
bl~~835
▁En~~3300
▁Em~~7914
bo~~4067
▁Ek~~15840
bi~~9968
bt~~13818
bu~~4997
▁Eu~~15421
▁Et~~10926
▁Es~~2846
▁Er~~9329
br~~4284
bs~~716
▁irrelevant~~11064
▁equally~~1783
by~~2995
▁enjoy~~1520
▁Ex~~3562
▁components~~6817
▁mixt~~14016
▁ED~~13945
▁EC~~6367
▁permanent~~4671
▁replacement~~7104
▁laser~~726
▁bec~~15676
▁Diplomat~~14322
▁Hyp~~3724
▁Asteroid~~13411
▁remark~~2708
▁EU~~2242
▁ES~~15706
▁substantial~~12262
▁feather~~5025
▁diagnostic~~10401
▁You~~351
▁slice~~12556
▁posit~~11966
▁troops~~6224
▁primates~~9742
▁Israelis~~4199
▁Yor~~13389
▁loan~~10280
intu~~15380
welle~~14860
▁ideology~~13622
ints~~6016
▁suggestion~~11860
▁LHC~~13072
▁Space~~8778
atherine~~9498
▁objects~~5652
▁speeds~~10674
▁Tun~~14787
▁surprised~~2957
▁sang~~6588
▁months~~1523
▁expense~~9281
▁OECD~~995
▁Cochrane~~15841
biot~~4837
spar~~12915
cht~~2281
:~~7
▁verbal~~13098
▁introduction~~4350
▁OPEC~~12279
▁institute~~6971
▁sank~~13568
▁ber~~15279
▁DL~~15492
ator~~3879
▁fields~~3736
▁fibers~~7252
▁diagnosed~~8981
▁month~~5433
atom~~11321
ling~~271
line~~2306
▁4,000~~578
▁demograph~~12388
▁Kraft~~14190
▁mindset~~6530
▁England~~2839
▁pestic~~8320
ux~~11283
uz~~12654
ut~~5545
up~~2490
us~~3823
ur~~796
um~~1385
ul~~1951
un~~5968
uh~~3064
uk~~8286
uj~~6511
ue~~1060
ud~~3016
ug~~5970
uf~~5840
ua~~4536
▁bless~~4866
uc~~5378
ub~~2327
▁Ann~~7884
powered~~7425
▁Tradition~~14517
▁formal~~401
▁behind~~1814
▁miss~~4216
ilosoph~~11202
chan~~13964
▁mist~~5639
▁cartoons~~10811
char~~1568
▁Micro~~4078
▁Any~~3539
▁sounds~~1493
▁forgot~~1054
▁Ant~~14055
▁Oxy~~11192
▁format~~7617
▁paths~~7304
▁stair~~11782
ulation~~4385
wick~~14125
▁stranger~~11268
▁prolifer~~4576
▁jelly~~239
▁Miguel~~8904
▁doing~~413
▁multiverse~~13134
▁150,000~~8812
tech~~4919
▁intimacy~~9463
▁mechanism~~8918
▁proportion~~1650
titles~~15500
▁warn~~12944
▁Center~~5856
▁talents~~2045
▁hyp~~6541
ipher~~13854
▁shall~~7053
rise~~12791
▁gain~~3326
▁dunk~~12741
worm~~12294
▁mach~~11220
▁hyd~~3127
▁Mean~~16140
▁civilian~~10932
ago~~6188
agn~~9508
land~~4704
ustr~~15643
▁election~~9414
▁capabilities~~12326
age~~218
adium~~14108
▁processing~~6035
aga~~15009
ported~~9513
▁imagining~~8983
▁improv~~9806
agu~~12069
ags~~8289
shine~~13686
▁Alpha~~14339
code~~14720
▁nothing~~1461
▁thoughts~~2350
ds~~3380
agers~~12422
▁maintenance~~8256
▁resur~~9212
▁Ere~~15416
▁pointed~~5944
▁speak~~767
▁Ern~~13553
▁physically~~3580
▁joint~~9169
istic~~4912
▁feed~~4601
▁lightning~~13794
▁feel~~1396
▁Toten~~16040
istin~~14074
send~~13920
▁cable~~6115
▁transplant~~9194
▁feet~~252
▁realities~~6400
▁Tunnel~~15724
▁passenger~~9616
sens~~3339
▁diarrhea~~11159
sent~~11948
ilage~~9175
▁Humans~~1317
▁garage~~12756
▁Barn~~11061
▁malaria~~5519
▁Lock~~6715
▁gor~~10965
▁nurt~~8657
▁arts~~1377
▁Lou~~12280
▁Bart~~9410
utsche~~16038
▁Has~~13912
inarily~~9029
▁Climate~~2174
▁Ital~~6594
▁Hum~~7373
tra~~626
▁achie~~10416
▁Hirosh~~14367
tre~~14157
racy~~12874
▁legit~~14551
▁approximately~~355
▁diagn~~13455
omant~~16024
▁illness~~6189
rach~~15982
ody~~5051
▁fus~~8559
ued~~1228
▁drawn~~4698
▁Qaeda~~14315
▁glow~~3565
▁Transport~~14115
▁Level~~15203
▁established~~4721
▁prototypes~~7505
assembly~~12984
▁boom~~5668
▁Whit~~7827
ode~~3287
ues~~1146
▁focus~~1790
▁est~~8300
▁Sek~~12733
▁reference~~6392
▁peripher~~4770
▁ess~~8718
▁photos~~4281
▁Sea~~5265
▁awful~~5431
inder~~3111
▁See~~5654
▁Sed~~14468
▁replacing~~6997
abyrinth~~12637
▁Sex~~6577
▁process~~2394
sensus~~13831
oration~~1147
▁Where~~992
inden~~11474
▁prop~~2663
▁expression~~2667
▁Ser~~1594
▁Step~~1116
bird~~7873
▁Jobs~~7712
▁staircase~~7748
leb~~14819
led~~2743
▁degrees~~445
leg~~1541
lei~~12887
▁shooting~~533
▁steel~~8111
▁steer~~5819
ler~~2705
les~~4428
let~~2563
▁Place~~9772
lex~~11059
ley~~2914
▁dread~~6705
uther~~14902
▁Oprah~~13700
▁you~~71
▁uses~~1624
▁user~~2073
▁dr~~953
▁toxic~~40
▁processor~~8927
▁demonstr~~6251
▁used~~1519
▁yog~~6485
▁helicopter~~8275
▁okay~~2908
ankind~~7374
▁vital~~5088
▁use~~199
▁Expert~~15331
▁houses~~607
apping~~372
ugen~~13545
▁because~~243
▁sensation~~2537
▁invention~~6037
istics~~5571
▁Garten~~13865
▁interfaces~~3793
▁sources~~9614
standing~~1658
▁Vinci~~7718
▁recording~~9768
commun~~6314
▁Dimit~~14972
▁Photoshop~~13487
apital~~10695
levant~~12875
▁fever~~9268
process~~13078
▁breakthrough~~6857
zie~~14632
zin~~15128
▁Govern~~4515
zil~~14688
▁fasc~~10760
▁louder~~4126
▁National~~4468
▁counsel~~6917
▁marine~~5317
▁vaccine~~5421
▁sample~~3357
▁flesh~~11881
▁lonely~~10608
▁disag~~8917
▁deforestation~~9654
▁survival~~8170
▁indicate~~7772
opol~~13611
▁bunch~~5847
▁enrich~~7625
▁glor~~13238
▁fur~~2507
▁thumb~~3480
▁fut~~904
▁reporting~~5324
▁Acumen~~13337
▁fun~~1229
▁glob~~15209
▁writes~~4043
▁writer~~4171
▁British~~2461
etti~~4847
▁sem~~9048
▁sel~~10497
▁suggested~~11837
▁sen~~5898
▁sea~~74
lock~~10100
▁sec~~3448
▁see~~126
▁sed~~858
ette~~7334
▁sex~~5716
▁electromagnetic~~13780
bene~~16094
▁biologically~~6895
▁ser~~5812
rodu~~14588
▁set~~2068
▁sew~~12495
▁diam~~6004
▁intent~~12378
▁biological~~6946
:30~~8710
▁pick~~947
▁Parad~~14487
▁Ult~~9015
▁hinge~~15773
▁contrary~~10842
▁passive~~7818
Reg~~15047
▁toys~~11410
▁Tenn~~2901
▁letter~~6643
▁independ~~15513
▁initiative~~5289
zone~~5833
oping~~7941
oz~~14458
▁acc~~10029
▁mechan~~1187
▁Moz~~10703
▁vul~~14751
▁parking~~7107
▁Mos~~13835
▁Mor~~10989
▁Mot~~15520
▁Eind~~14300
▁Mov~~2454
Q~~10163
▁Moh~~13758
▁bringing~~4824
▁Mom~~10468
▁Moo~~15737
▁Mon~~3499
uous~~7260
▁mapped~~462
▁Fortune~~12199
▁Mob~~13327
▁Mod~~7571
▁teaches~~5820
▁teacher~~1998
▁coral~~5228
▁universities~~3427
onom~~8954
▁Lob~~15031
hthal~~4433
▁series~~667
▁skept~~9055
▁hy~~6872
▁quant~~6323
▁Miller~~8569
▁he~~370
writ~~7149
▁ha~~3076
allow~~15034
▁posture~~14188
▁Ark~~15497
▁ho~~6622
▁aston~~10095
▁Philipp~~4458
▁ants~~1263
▁Cuba~~12992
▁popular~~4002
fa~~13020
Jeopardy~~14903
▁needs~~4186
▁services~~5520
▁origami~~12983
▁soldiers~~5834
▁fascinating~~2988
▁grocer~~14225
▁rib~~764
▁shoes~~2960
▁rid~~48
▁losing~~4642
▁fault~~9587
▁rig~~5114
▁channel~~11559
▁pair~~3137
▁meaningful~~2126
ifting~~6681
▁Mars~~8175
▁Soc~~7667
▁rote~~1142
▁unlike~~2731
zip~~14509
▁gender~~7344
obyl~~13259
▁Linda~~14351
▁Main~~9522
▁specific~~4000
fected~~5493
▁scen~~11217
▁Phase~~15720
▁rehabilitation~~8006
cuse~~9133
eteria~~12772
▁engineered~~8841
▁Initiative~~10134
▁mold~~4994
▁repeat~~6154
▁mole~~15325
▁improvements~~1881
▁blame~~7321
▁1800~~12203
▁Dolby~~4860
▁Hyun~~16041
▁familiar~~182
▁coca~~15062
▁peoples~~3748
▁chickens~~11334
▁heading~~4449
stock~~10669
▁researchers~~1813
▁Everyone~~3183
osity~~11385
▁kiss~~1324
▁ult~~9014
usty~~13666
▁estimate~~9747
ampagne~~14747
▁reported~~10242
▁enjoyed~~1521
wander~~12391
▁community~~781
▁state~~1067
'~~34
▁Bever~~15113
▁Gumm~~16168
▁Sow~~14569
anted~~8932
▁YR~~16088
▁Jur~~7589
▁Found~~10255
▁Jul~~14723
cess~~6800
▁Mountains~~871
▁never~~493
ussion~~12624
▁Jud~~10244
▁racing~~6697
▁nonsense~~6918
▁therapist~~2406
▁Palest~~4262
▁against~~442
▁appears~~8156
▁Mord~~15415
▁More~~3450
▁shapes~~330
▁fisher~~12304
▁Board~~6374
▁yard~~7208
▁Great~~2845
▁Abend~~15630
▁Mort~~15181
uppe~~14462
▁Hal~~12812
▁Nich~~14686
▁dust~~6049
▁30,~~10988
log~~13983
▁Cat~~6495
▁30-~~5824
▁Cap~~2659
▁Cas~~13624
▁Car~~5140
▁Sandwich~~11503
ameter~~3914
▁biologists~~674
▁bypass~~13332
▁hel~~10452
▁pyram~~12276
▁dynam~~11173
▁Cam~~12269
▁Cal~~7564
▁problems~~673
▁Can~~3065
intens~~12284
▁dem~~7340
▁Zul~~16206
▁Zum~~14032
▁spons~~6408
▁identified~~1986
▁spont~~15832
▁Chef~~12232
▁needles~~12471
▁propos~~808
▁Chem~~12734
▁analys~~9279
▁Innovations~~16299
▁Cher~~13639
▁pron~~14073
ties~~10603
Prof~~12876
leich~~1614
ying~~2756
▁refugee~~9653
halten~~14109
▁Zur~~7147
▁abilities~~11616
▁mysterious~~9400
▁Ara~~13471
▁conv~~10829
▁cont~~1727
etik~~16292
▁initi~~9585
▁cons~~1961
onent~~9416
▁ubiqu~~14538
▁retreat~~6194
▁opening~~5814
▁conf~~4008
▁cond~~5994
▁Ethan~~13572
▁conc~~1971
low~~6647
▁Bed~~6507
▁Bee~~2448
▁Ko~~9658
▁Kn~~11251
▁Kh~~7045
▁Ke~~911
▁Bem~~15058
▁sisters~~2811
gence~~9457
▁Beh~~3215
▁dess~~11355
▁desp~~5123
▁Bek~~16035
▁Bet~~9447
▁cocktail~~10295
argon~~9546
▁Bew~~13419
▁Ky~~10757
▁desk~~13482
▁Ber~~9678
gency~~9637
▁Ku~~13676
▁demand~~2706
▁innovation~~972
oose~~4479
▁Kr~~5002
sive~~11108
▁advance~~6164
▁artic~~2775
▁limestone~~12801
▁KA~~15155
▁artif~~11698
▁KB~~15156
▁chains~~9236
▁cultures~~2483
▁Harlem~~5643
▁Zipcar~~13856
ightly~~10586
▁KS~~12720
▁grand~~3599
▁inevitable~~4311
▁Turkey~~9668
▁look~~130
▁utterly~~10496
▁documents~~4409
▁jur~~5292
▁both~~2165
icht~~16027
▁industrial~~4737
▁plants~~8016
▁lays~~5419
▁jud~~3046
idespread~~13527
▁jug~~9109
ocracy~~1483
▁inevitably~~4836
atic~~8874
▁spray~~3100
▁Someone~~9468
▁shape~~2458
▁bears~~1287
vested~~11867
▁quantum~~9453
atin~~10607
▁prevalence~~6729
▁Brief~~14799
▁Mathemat~~13786
ativ~~14958
▁Kalk~~14280
▁unemploy~~1696
onnected~~10966
▁Shakespeare~~2927
▁Connecticut~~9095
▁crap~~1149
▁Tarahumara~~14951
▁effectively~~4680
▁crab~~617
viously~~12700
▁cram~~11366
▁Evel~~12622
▁variety~~2203
▁Even~~697
▁treatment~~3778
▁juven~~11808
▁hours~~1870
▁hill~~7060
cko~~14921
face~~9213
ckt~~14727
cks~~5821
▁awareness~~3434
▁2001,~~9669
▁Ever~~8721
▁Computer~~7647
▁stap~~6710
▁Ali~~14856
▁star~~4247
▁All~~587
▁stay~~5361
▁Alb~~4474
▁fail~~5872
▁Hudson~~7228
▁Epidem~~15965
bring~~11652
▁predictable~~3229
▁Bask~~16142
▁publishing~~6470
▁Charles~~4317
▁Alt~~15014
▁calculate~~8003
ache~~10042
erer~~15027
▁saved~~7753
▁church~~7756
figur~~15647
▁inkl~~15206
irk~~10881
▁week~~831
▁energet~~11055
▁bedroom~~6584
hless~~8458
▁bureau~~10329
▁beetle~~13357
▁rit~~15846
▁painted~~4850
▁wanting~~10233
▁vessels~~5393
▁communities~~4204
▁chain~~4550
▁iPhone~~7134
▁dedicated~~4272
▁painter~~10519
reit~~16089
▁Idiot~~15396
Because~~9734
▁alt~~9102
▁Snowden~~12026
▁clues~~4738
▁puzzles~~11406
▁lifted~~5871
▁solid~~8178
▁Blick~~14694
▁bored~~6044
▁sailing~~12266
rein~~16258
▁researching~~6652
ael~~7783
Pr~~14670
ition~~1351
▁inspiring~~8647
▁magnitude~~7955
▁sustain~~6052
oma~~10934
▁Guatem~~16211
▁responding~~5797
▁everyday~~5118
▁cylinder~~10208
isy~~14253
Ph~~11201
▁anti~~3186
Pl~~4070
▁walks~~1619
wire~~4959
▁mustache~~13447
ome~~5337
▁twist~~5822
▁Batman~~9843
▁foie~~15514
▁safe~~7071
ursor~~10589
PA~~8155
▁likely~~6770
▁amb~~4315
usten~~16067
▁Test~~10262
omi~~14924
ends~~4948
▁frequency~~4116
anche~~14863
▁truck~~11139
▁text~~3029
▁literal~~3942
▁mush~~15271
▁Fibonacci~~14742
ende~~14717
awatt~~13850
▁access~~2550
▁Alice~~13375
▁000~~15256
ociation~~15891
▁casual~~11433
▁se~~2011
ets~~513
grass~~14764
▁sa~~6015
▁sc~~1091
apted~~10300
▁sm~~2163
▁title~~3045
▁so~~220
▁sn~~3830
▁Operation~~9625
▁sh~~137
▁sk~~2830
▁limited~~6431
▁su~~3999
▁st~~3761
▁sw~~4506
▁amount~~1820
▁sp~~3839
tle~~12195
lo~~3801
▁personally~~3857
eth~~4430
▁sy~~1572
▁shirt~~7337
ck~~5561
ci~~1466
ch~~3983
co~~3119
Would~~7901
cl~~3362
cc~~8673
▁anim~~10956
ca~~12258
▁birds~~4135
Hex~~15029
Hey~~1535
ce~~869
▁documented~~7638
cy~~5391
▁therapy~~5116
▁acqu~~2961
cr~~9861
▁behaviors~~2958
▁posters~~4200
uck~~5904
▁hair~~722
ct~~627
▁accommod~~6187
▁Jenn~~7146
Get~~5799
rient~~14564
▁equ~~6855
▁texture~~11768
▁Mandel~~14428
▁accounting~~6231
▁respect~~4287
gue~~10960
antas~~15283
▁tuned~~5373
▁mushrooms~~10971
▁Mission~~7398
▁Photos~~13536
▁tasks~~1275
▁cartoon~~9033
▁Sign~~10184
▁overt~~6398
azine~~16033
▁added~~6869
ador~~10719
▁2010~~9683
adow~~12068
anas~~15255
▁atmosphere~~2238
ount~~5169
▁animation~~11583
▁Luther~~10388
ucks~~5782
▁Game~~11630
▁hier~~15112
▁Rebecca~~15187
▁Kate~~13704
Gro~~13878
▁relatively~~6763
ound~~7174
▁Canadian~~8307
▁piles~~4822
▁Hitler~~14037
▁Amazonas~~15523
▁candid~~10612
▁predict~~3225
▁Asian~~8872
va~~6784
▁regardless~~7197
ve~~77
▁fallen~~1673
▁Andrew~~7187
▁Atlanta~~12229
arther~~15853
▁Tiger~~12775
vo~~7280
rips~~10422
▁Ivan~~15045
ripp~~5447
▁complain~~1966
▁crying~~4229
vy~~5165
▁improving~~1476
▁mutation~~8810
▁genomes~~8860
▁Israeli~~4194
▁kilometers~~5369
▁parenting~~6627
▁supportive~~14187
▁latest~~1730
▁clear~~1038
▁Schul~~10051
▁infect~~9563
▁post~~4220
▁discovery~~219
▁wis~~10289
▁Time~~6527
▁older~~2655
bery~~11959
▁assistance~~9377
▁Weibo~~15966
▁Copenhagen~~10768
ball~~10368
▁paras~~10302
▁squeeze~~12156
ikes~~7611
iker~~14163
bald~~14309
▁Seven~~9168
▁holes~~1178
▁Sever~~10123
▁parad~~1805
▁wishes~~6167
▁introduce~~1756
iken~~11633
▁param~~15069
▁absolut~~16283
▁delicious~~9302
▁moves~~2385
▁Dra~~14092
off~~2983
▁Marine~~4324
▁wars~~9961
phas~~8279
phan~~14611
▁Clinton~~10343
ollar~~9631
▁whatsoever~~3374
▁warm~~8238
▁control~~2078
▁ward~~6143
▁ware~~6383
▁expectancy~~6889
▁doesn~~656
▁justice~~5604
▁organization~~2079
less~~1170
▁instant~~1561
das~~9932
▁Jersey~~8759
▁depos~~12157
llig~~16146
▁footage~~410
olph~~1297
▁84~~4559
▁kicked~~12564
▁Bank~~6364
▁1998~~10098
▁presentation~~7224
▁town~~4498
▁retirement~~13526
wed~~5852
▁robotic~~1171
▁authent~~16139
▁Buddhist~~10897
wes~~12452
wer~~4864
▁experts~~6163
▁meth~~14197
▁Oxford~~6068
nten~~15594
▁22~~6267
arta~~12476
▁distributed~~1774
▁abundance~~12100
▁repeated~~11953
iga~~16022
dest~~12865
▁neighborhoods~~11705
haus~~8948
five~~4364
▁converted~~11998
rize~~15664
▁Eames~~13881
▁Florida~~8915
▁nu~~3892
▁rays~~9045
▁Try~~3560
onnect~~4828
atorium~~15197
▁Tra~~4533
▁na~~13724
▁Famil~~11548
▁questioning~~1148
▁Tre~~7988
▁ne~~1311
▁Tri~~8199
▁29~~7018
▁Tro~~14474
osed~~2916
▁misund~~10056
▁criteria~~12806
▁Leban~~14978
▁Dir~~14755
▁watch~~655
▁dropped~~6040
▁From~~2485
▁injustice~~10151
▁Ac~~8630
▁Also~~4438
▁Edinburgh~~8856
▁shred~~3313
▁Sound~~11866
▁statistic~~8306
▁Lar~~10379
▁Las~~9474
▁adul~~11941
▁Budget~~13401
▁Law~~10354
▁Paulo~~13889
▁Lau~~12970
aign~~14147
▁Bangladesh~~7031
▁Enri~~11968
▁Inspiration~~15865
▁Lab~~3633
ollow~~13519
utions~~7793
▁Lad~~14162
▁imag~~4406
▁company~~4898
▁screaming~~7506
▁Prob~~11891
▁connected~~3528
▁Lam~~14421
▁lawn~~12458
▁dra~~5553
▁deserves~~12251
▁wheelchair~~12383
▁Trade~~6375
▁dre~~12994
▁dri~~11261
▁dro~~4054
▁score~~3928
▁Symmet~~14743
▁dru~~4354
▁ugly~~9589
▁NGO~~11137
▁dry~~3087
ometers~~3143
stage~~7467
▁points~~2403
▁commodities~~2703
Sch~~2704
▁presenting~~10871
▁83~~9074
imedia~~12177
▁update~~3610
▁Pav~~11989
▁salary~~11655
▁entw~~14305
▁hump~~14758
▁preserve~~9756
▁bath~~9842
▁uncomfort~~13138
▁contest~~3027
▁proven~~8362
pox~~15970
▁Chicago~~6373
▁proved~~5207
three~~11628
lung~~15904
▁Pap~~14640
▁TEDGlobal~~9511
▁denn~~15642
▁stare~~4811
▁poly~~4429
▁and~~16
▁radical~~6961
▁colors~~7253
▁1997~~15343
▁stark~~5601
▁heavy~~5781
▁poll~~4554
▁start~~659
▁stars~~7875
▁kom~~13260
▁veget~~9262
▁pole~~9429
▁stuff~~260
▁Termin~~14397
▁Fur~~9276
▁operations~~5784
lant~~11332
function~~5731
▁Ernst~~14369
elescope~~16003
Well~~1159
▁mountains~~454
▁Malcolm~~9026
▁brave~~5845
▁rob~~2806
▁pollution~~5204
¡~~16222
▁organs~~9264
£~~15679
▁nature~~1328
▁blessed~~9952
▁finish~~1513
▁consuming~~12277
itory~~11972
▁row~~7641
▁rot~~6349
▁university~~3261
▁Blue~~7399
▁mines~~10834
▁blocking~~7900
▁lar~~13939
▁Wind~~2967
▁favorite~~948
▁microphone~~4086
▁law~~5146
▁lat~~4452
▁fundamentally~~6427
int~~6712
▁12,000~~8210
▁lay~~5286
▁Cricket~~15537
ins~~1298
▁lab~~3275
inn~~7739
ino~~877
▁contempl~~11203
▁shell~~632
ink~~5108
ind~~1584
ine~~200
ing~~139
▁89~~10864
ina~~5144
▁Five~~10349
inc~~4178
▁washed~~10480
▁drops~~5482
fortunate~~15586
▁Dalai~~9902
▁grad~~14288
▁emotionally~~10059
forests~~15461
▁panels~~4954
▁twins~~13317
seus~~7788
▁locally~~3882
▁technical~~2549
▁experimental~~3262
▁wom~~9013
▁In~~388
▁Im~~7006
eking~~6093
▁gear~~13875
ears~~6137
▁Ig~~13813
▁If~~289
▁Id~~11620
ba~~13963
▁minerals~~12440
U~~981
▁genetically~~8840
▁Rating~~16263
▁Is~~851
▁circular~~9777
▁migr~~4987
▁pulse~~11196
ibliot~~15481
▁It~~170
▁strand~~9517
tter~~15324
▁II~~4343
▁strang~~3787
▁lim~~5688
▁filter~~10459
▁ab~~7400
▁here~~75
▁wealthy~~11305
▁growing~~830
▁investment~~1903
▁part~~1238
▁Traum~~14556
▁park~~1093
bridge~~15132
▁Cleveland~~12784
▁reco~~11601
▁IR~~756
▁IQ~~3650
▁IP~~2177
▁reaches~~6313
▁IV~~11479
▁hers~~10876
▁IT~~7218
▁outcome~~2580
▁Gang~~13981
▁Black~~6606
▁Probably~~5910
▁worry~~6803
cial~~9237
all~~5664
▁Us~~8086
▁circ~~12732
▁establish~~6366
▁graph~~7610
▁Office~~13402
▁fusion~~12869
▁qualities~~1193
▁doctors~~6190
▁plural~~14610
reu~~15103
▁convincing~~6847
▁fishing~~262
▁lic~~15754
▁ah~~11440
ields~~13104
opard~~8331
▁browser~~7649
▁propaganda~~2859
sper~~14662
ergy~~12244
▁tendency~~10189
▁driving~~1859
▁rare~~6128
▁carpet~~13347
▁gradu~~9718
ald~~8921
▁vaccines~~5458
▁2007,~~5958
▁philanthrop~~6972
▁2007.~~11277
▁disgusting~~12750
stud~~13515
ashy~~14760
▁refr~~5775
ously~~4687
▁crop~~4621
▁Kingdom~~5611
▁determ~~8087
▁demographic~~12504
▁Africans~~6263
▁carried~~7054
▁sheets~~3308
▁conclusion~~6786
▁hint~~524
▁relationships~~5945
▁elections~~10139
▁dysfunction~~12866
gebra~~12168
▁hurt~~2862
▁particip~~10652
Cl~~7837
▁behavioral~~3452
▁FOX~~14277
▁Austral~~9705
▁devastating~~5448
vented~~9918
▁rings~~4492
▁obvious~~5876
▁marriage~~5955
▁formed~~7027
▁explain~~827
ches~~1565
ashing~~1069
▁Hill~~4856
phones~~4079
aly~~12342
▁Eden~~14349
horn~~12014
▁bede~~10950
▁wow~~7437
ched~~8982
▁Something~~4266
▁Brand~~11694
▁peer~~7518
▁former~~7727
chen~~14559
iting~~4865
spect~~7635
▁workforce~~9820
▁those~~254
▁Adams~~13546
▁Dram~~10508
▁engine~~1016
▁impression~~7408
▁Von~~13769
+~~3627
▁magn~~10347
▁Mitch~~14675
▁wor~~9075
ahara~~14897
▁President~~9624
▁south~~4708
politik~~14326
▁checked~~8771
▁Voy~~15889
▁chaot~~13131
▁gate~~7538
▁Corn~~14985
▁chaos~~8223
▁chocol~~14579
▁Wolf~~10487
▁sustainability~~8012
▁Jennifer~~12187
▁CO~~9615
▁fertil~~6339
reation~~6987
▁administration~~2118
▁ended~~4105
▁Europe~~971
▁shaped~~4162
aks~~5440
gle~~4274
▁Desp~~15231
akt~~10953
gly~~3172
aki~~4970
aka~~14963
▁sexy~~6656
▁creative~~1185
ake~~4239
▁chemicals~~8293
▁rever~~3979
▁wondering~~7190
mail~~11302
ican~~6446
instr~~3658
▁shadows~~11839
▁commer~~10667
▁defined~~6831
Where~~5918
▁Doch~~15913
iz~~2883
▁mycel~~13534
bre~~3103
▁Eva~~13999
▁satellite~~2216
▁reven~~11469
bra~~8847
▁Eve~~2918
Star~~8555
▁Look~~1646
▁causes~~5460
▁Face~~8200
ativen~~13236
ploy~~10369
▁Past~~12541
▁Kamer~~16293
▁babies~~8319
▁demands~~10154
▁fear~~1554
lymp~~15308
▁Tsch~~16025
▁Russian~~8124
▁rooms~~3981
▁wheelch~~15322
▁players~~1301
▁homework~~6614
▁Pra~~14122
▁distress~~10019
▁restrict~~1211
▁chamber~~11172
▁intelligen~~15810
it~~1278
▁Paras~~16256
▁explains~~1828
▁Palestinian~~11916
▁accepting~~10014
yard~~14573
osphorus~~14046
ert~~2974
▁edit~~12240
erv~~8014
word~~6668
▁Voice~~14192
err~~12814
ers~~1683
work~~4958
ery~~4423
erd~~14627
ere~~3254
▁ships~~5232
erg~~9203
era~~11171
▁qu~~7165
erc~~7967
im~~544
ern~~636
▁spinning~~10618
▁Saur~~16019
erk~~5591
uay~~15959
▁particles~~10583
▁empowerment~~9935
illiard~~13367
▁concerned~~1940
ither~~11328
▁coordination~~8229
▁wound~~7893
▁Philadelphia~~11524
amous~~11050
▁When~~109
▁Academy~~11879
▁another~~361
ual~~2575
▁plat~~5912
▁Brem~~15824
▁progress~~5249
▁Fra~~14069
▁Lincoln~~11778
▁Star~~3536
▁imagination~~6867
▁Fre~~10399
▁Six~~547
▁Virus~~14651
▁flexible~~8642
▁Sit~~4807
▁percent~~113
ische~~15928
▁Brilliant~~6981
▁Sir~~2720
▁Sim~~9411
▁Sil~~11740
▁Sin~~4083
▁question~~1979
▁instrument~~3671
▁Sie~~11787
▁Sid~~2732
▁breeding~~8092
▁Stan~~13767
▁Röntgen~~15924
lam~~13619
lan~~4526
▁inspire~~2933
lad~~13771
▁recommend~~11377
▁sensible~~6546
▁Chris~~3201
Will~~14353
▁skelet~~11233
adic~~10395
▁ends~~7261
▁anyway~~3973
▁Iron~~13662
law~~3014
arch~~6424
▁compound~~4950
lar~~11680
▁courses~~7515
orden~~14633
▁yourselves~~11870
▁guy~~398
▁debris~~4336
▁Similarly~~6394
▁gut~~4179
▁tremend~~10296
stru~~9096
▁frighten~~14581
▁gee~~12913
ical~~1634
▁dive~~666
▁Portug~~15018
▁manufacturers~~8609
stra~~12392
▁Except~~10073
▁Dialog~~9491
order~~13169
▁Perhaps~~6148
plicity~~14522
▁tenth~~12910
▁gef~~12763
zed~~8640
▁Highway~~12073
zen~~2892
▁plays~~10169
▁professors~~8656
zer~~4794
zes~~7024
▁privilege~~5399
▁among~~1830
▁Films~~16093
ompl~~15583
▁steady~~6863
▁dir~~14754
venth~~13644
▁expand~~7709
▁survived~~8167
▁Appl~~10705
orum~~14014
▁Apps~~16280
▁elected~~9318
▁incub~~11454
▁Joseph~~6739
▁kilometer~~7021
▁kid~~1153
▁dance~~1323
▁nearest~~6332
▁kil~~13795
▁kin~~13956
▁personalized~~7627
▁kit~~1280
▁guys~~300
▁Chen~~9673
▁arena~~3966
▁Diplom~~14862
▁render~~8103
▁altitude~~7011
ther~~498
bank~~12122
▁strengthen~~12804
yon~~12780
▁Meer~~12060
▁Git~~15390
▁Kent~~13542
l~~811
▁Scott~~4063
▁hostile~~9719
isms~~9454
▁Kenn~~11940
▁skull~~7114
▁marketing~~6325
▁elite~~6636
▁enth~~10216
▁90-~~11549
▁McL~~11774
▁contin~~9771
film~~11753
▁six~~1522
▁McK~~12178
▁sit~~423
▁McG~~3477
▁Stock~~15037
▁telev~~12646
▁McC~~5756
▁sir~~12728
▁sim~~7810
▁sil~~9569
arios~~13832
▁sin~~4182
▁identity~~2484
▁inde~~6812
▁where~~51
▁diplom~~14314
▁sie~~13183
▁install~~1204
▁throw~~1192
▁minute~~2267
▁developing~~3890
▁tour~~4977
▁lou~~15563
▁femin~~8343
▁Julian~~9341
▁drop~~3125
▁magic~~6297
▁Jones~~9798
▁Bomb~~3862
▁disappoint~~1888
▁pige~~14284
fficient~~6296
▁beliefs~~1913
▁millions~~819
▁intend~~6992
ublin~~8791
▁composer~~3641
-3~~14773
-2~~15571
ublic~~12460
standard~~14939
▁Service~~12093
▁composed~~3929
▁intens~~7445
▁Reich~~14041
▁Herz~~15135
▁autobi~~9792
ange~~2176
▁males~~8332
▁Exper~~14047
▁endless~~4330
National~~16216
▁respir~~8259
▁reclaim~~12856
▁cheating~~3295
▁chimps~~9748
▁lo~~5006
▁la~~2986
▁Democrats~~9309
▁colorful~~8612
▁le~~6059
▁qualif~~5354
▁love~~258
▁genome~~6964
▁relatives~~9954
▁remained~~10253
render~~7315
▁Kurzweil~~14616
▁France~~4293
ightenment~~13437
▁reserve~~5780
▁water~~116
system~~15234
▁Innov~~15521
▁Bertie~~15580
▁Ukraine~~14044
AIDS~~10404
iots~~12579
oline~~14113
▁Kur~~4969
▁priorities~~1992
aire~~2641
▁conflicts~~13829
▁galaxy~~12884
▁Kosov~~14320
▁planting~~6430
ingen~~9299
airo~~14767
inger~~8862
▁vulnerability~~11929
▁Kub~~7391
▁reproduction~~9234
▁conj~~11843
▁Kul~~14516
▁rope~~8526
▁gathered~~4685
hirts~~14365
B~~2477
▁restaurant~~4605
▁scope~~8068
▁elaborate~~5138
▁clay~~9445
▁Transpar~~14946
▁verge~~4252
▁families~~5555
▁cortex~~1348
▁learn~~896
tex~~10941
last~~11728
▁virtual~~482
▁90%~~13474
▁consumed~~4629
▁embarrassing~~10062
▁Johns~~12769
▁governance~~5180
▁mature~~13234
▁consumer~~2508
▁categ~~10979
▁900~~2233
▁convince~~5893
▁10,000~~4215
▁earlier~~4745
▁pleas~~12393
▁Kl~~15340
▁solution~~3897
▁Beg~~13011
▁TEDWomen~~5634
▁reinvent~~940
▁Afghanistan~~1681
▁ide~~8078
osphere~~12658
▁comprehen~~8475
▁Sutherland~~11626
▁import~~4690
▁energ~~11771
▁study~~1156
▁irre~~8246
▁Bel~~10525
▁logical~~4943
▁reasoning~~12170
gien~~5985
▁interviewed~~6309
▁Ben~~2913
▁entering~~8814
mmer~~7573
▁Court~~9375
Qu~~14619
▁burst~~5691
▁Mons~~14562
▁Roman~~9803
▁Ka~~13404
▁Herr~~15722
▁Mond~~14553
▁divid~~1927
▁Mong~~8611
▁emergency~~11143
iquely~~15784
▁burning~~5057
▁arithmet~~12958
ogr~~13016
ological~~6825
▁consensus~~5909
▁unlikely~~4638
▁Moder~~14005
▁United~~1458
▁miser~~14439
▁landing~~7086
igmat~~12483
▁Ign~~14260
▁seriously~~4233
ative~~2076
gung~~10491
▁Model~~14496
▁editor~~10574
sum~~4817
▁triangle~~11188
ogh~~10882
▁Zip~~14905
▁galleries~~10499
▁broad~~5403
▁wonderful~~2798
▁operates~~12841
▁Bes~~10489
▁younger~~5709
▁pregnant~~8232
▁rescue~~8221
▁Jeff~~11561
▁Davis~~11893
▁Administ~~14991
itten~~9912
hry~~5757
▁ate~~4791
yen~~13297
▁desc~~9955
▁milk~~5987
▁att~~7305
▁books~~3350
hre~~15248
▁diverse~~3638
pted~~3355
▁viscer~~13810
itter~~4457
▁Cloud~~15355
do~~6704
▁minutes~~2145
▁Or~~1388
▁Bil~~12424
▁Bin~~13977
di~~4853
▁bullet~~10021
▁Ox~~14861
▁weapons~~5907
▁Oz~~2885
▁Mechan~~13962
▁incon~~7242
▁Big~~7221
▁Ob~~12457
▁Od~~13620
▁condoms~~6716
▁Of~~1063
▁Oh~~630
▁Bir~~10732
du~~6644
dr~~1176
▁army~~3819
▁installation~~11182
▁On~~550
eme~~6406
▁Night~~4587
lement~~13400
ema~~2513
▁help~~207
▁versus~~7679
▁expansion~~1663
▁held~~2769
stead~~15976
anze~~14183
▁Wales~~4724
ording~~13640
▁OK~~3220
▁hell~~791
▁several~~737
▁biod~~14291
▁Hero~~3698
▁pouring~~9547
▁Viet~~15691
▁Here~~238
▁horizont~~11426
▁1,500~~3527
▁lying~~9160
icle~~3147
▁Maus~~15835
▁slime~~9581
▁heaven~~1560
uously~~7243
▁Portugal~~1960
▁slept~~8635
▁piano~~3812
▁true~~216
▁happily~~8855
atur~~1355
atus~~13156
away~~4358
▁intuit~~4168
▁revolutions~~7215
▁redu~~11162
▁feminist~~9963
▁Tahrir~~14441
ered~~8097
ernal~~10109
▁Newton~~9452
eren~~8033
▁freely~~9395
icer~~7126
▁fles~~14205
we~~6596
aneously~~10741
alin~~13014
▁nonviol~~11090
wo~~3205
wn~~2828
wl~~4528
▁optimism~~6957
▁2005,~~3049
wh~~2726
▁robots~~3820
ws~~4695
wr~~9890
▁infinite~~2956
▁KT~~16155
hal~~13242
▁length~~7237
ild~~2922
ile~~905
▁Would~~1996
▁drones~~14711
▁gained~~6583
ila~~5728
ill~~603
ilm~~7452
▁frozen~~5044
ili~~9210
▁Yale~~12782
ilt~~2632
▁Gott~~15467
ils~~8766
▁freezing~~651
▁Turn~~11004
com~~6683
col~~11629
▁Evan~~4863
ily~~4376
▁errors~~12988
▁undergraduate~~7843
erman~~12583
▁Thank~~909
▁raising~~9877
Par~~15160
▁basking~~3564
▁Pyram~~16226
▁Hind~~11307
▁middle~~2283
▁Off~~7588
▁banana~~10846
▁brach~~15198
▁spaghetti~~13312
▁main~~3654
▁corporate~~1436
▁scientific~~407
▁manip~~3782
▁Wo~~14360
▁field~~1636
▁pun~~6578
▁Formen~~15949
▁fan~~1597
schluss~~16135
▁physicians~~9010
kon~~15242
viewer~~13061
gendorfer~~11554
▁lately~~13189
▁champ~~15109
▁rainfall~~12139
▁guid~~5673
▁perpet~~8495
▁arrived~~6377
▁ob~~11642
baum~~15879
▁critically~~7660
▁investments~~5565
▁French~~9155
▁Cole~~14583
fest~~15847
▁spectacular~~10559
istent~~4546
▁educate~~9979
▁wisdom~~2072
▁crazy~~3621
ureau~~12721
opardy~~5722
▁options~~3328
ait~~7442
▁sol~~8032
▁jun~~8280
air~~6829
aim~~12511
ail~~4535
▁information~~2422
▁fab~~13863
▁cookie~~6359
▁decision~~1356
aid~~3415
reme~~12005
izabeth~~15726
cons~~11284
cont~~12963
▁Betti~~12621
isse~~11678
atible~~9825
cond~~2398
▁frontier~~11025
conf~~11665
▁expressions~~7644
istan~~11037
▁sympt~~12481
chi~~13508
▁Swiss~~12356
▁tong~~15063
▁tone~~3070
▁shocked~~5988
▁morning~~1486
▁associated~~8345
▁Tel~~13018
▁air~~2162
▁matter~~91
Stop~~892
▁simulation~~11183
▁China~~6092
▁Nevada~~12065
plic~~8865
ulated~~4424
▁Jane~~2895
▁soap~~8520
▁tons~~6348
▁ain~~5725
▁aim~~7811
▁need~~745
▁functions~~8257
▁aid~~5498
nik~~8133
▁Bleau~~16237
▁tea~~11896
hang~~13335
rain~~11179
hand~~6177
▁arro~~14186
▁Wide~~9827
▁what~~150
▁stick~~825
Y~~3661
▁prepared~~1721
felder~~14706
▁Internationale~~14738
▁wh~~1983
kept~~16048
▁privacy~~9688
▁wo~~10048
▁district~~9661
rors~~14061
▁new~~223
▁we~~67
eps~~11809
▁Oben~~16290
oning~~6833
▁deception~~11833
▁urge~~5358
▁1980~~1662
the~~5359
▁modular~~7620
▁1984~~6353
▁Innovation~~7458
▁mouth~~601
▁heterosex~~12484
▁discussing~~12031
▁Chinas~~15494
ucked~~7241
▁persons~~13431
▁Ski~~13201
▁habitat~~775
▁photographs~~490
▁pie~~6405
▁alternative~~2411
▁betra~~12025
▁photography~~11909
onse~~14139
▁cooling~~13142
▁Sky~~12035
▁extremes~~9898
▁spat~~11662
aub~~15166
anter~~13735
ktor~~14310
▁Liberia~~9950
▁Hotel~~13069
▁promoting~~1478
▁spaz~~16112
▁recover~~7041
▁plot~~7681
▁stupid~~1234
▁bacter~~12340
▁IKEA~~11536
▁Dop~~14176
▁span~~3493
▁od~~12737
▁national~~1305
▁leaving~~4565
▁Syl~~15488
Tra~~6110
▁neg~~10506
▁Friedman~~7548
▁processed~~7522
▁fewer~~6605
izing~~1909
▁urban~~4630
▁inner~~5707
▁processes~~1209
cape~~2847
▁shifts~~5341
▁Martin~~4862
▁sentences~~10473
▁GPHIN~~16117
▁quality~~1823
mir~~11416
▁Schwe~~11817
▁atomic~~11184
▁Eth~~11044
▁ol~~8125
▁gigantic~~3809
▁gle~~11449
night~~2675
▁Mach~~3624
▁arguing~~9871
▁dolphin~~13464
oxid~~15967
▁negotiate~~6333
▁Einstein~~7711
bors~~13129
born~~8403
itorium~~8109
borg~~13827
▁autonom~~13969
inational~~16182
omics~~13307
▁UK~~10728
▁straight~~4450
hren~~13328
▁Kok~~16100
▁disability~~3894
/~~4303
▁replic~~9089
asking~~15141
Let~~6108
▁trying~~475
▁secrets~~10639
▁happiness~~6242
▁astrol~~14384
stitution~~9461
esearch~~15973
▁Feed~~15808
▁for~~107
▁aband~~5535
chs~~14570
▁Millennium~~10118
phen~~8351
▁Compassion~~7343
▁literally~~2383
pher~~10264
▁Amanda~~6087
▁someday~~8824
▁future~~1028
▁Sadd~~7656
phet~~9972
▁microbial~~11882
▁fol~~4136
illions~~10715
▁exponential~~10306
▁mosqu~~11949
obi~~15524
obe~~11089
▁strings~~3813
▁describe~~2949
▁jump~~3756
▁understanding~~2179
▁Manifest~~11647
▁microscope~~9557
▁feeds~~8709
▁Arts~~15002
obs~~4797
oten~~1312
▁quite~~3655
otel~~2691
▁drif~~11216
▁described~~3391
ola~~11364
Mon~~10984
▁colleague~~2375
icians~~3075
▁carrying~~5905
▁bran~~16021
▁describes~~8803
▁Strang~~14634
▁Glob~~10115
▁perceive~~4956
oter~~8346
otes~~1605
wan~~12427
▁Mau~~8442
▁toss~~4489
▁Mas~~3677
▁Mar~~209
▁Map~~11040
▁highl~~11632
▁May~~8725
▁Max~~3080
▁Mag~~7797
▁Mad~~7777
▁Mac~~9122
way~~4250
▁Mao~~13899
▁Man~~7472
▁Mal~~2277
was~~5028
war~~8516
▁Mai~~16287
▁Mah~~6076
▁Minute~~11358
cke~~14057
▁Re~~3018
▁phantom~~15199
▁Ra~~13048
▁Ro~~4419
▁nucleus~~13083
imate~~6827
▁links~~10911
iking~~1526
▁Rh~~8971
▁intell~~11790
▁Ru~~13584
▁Data~~14120
isons~~1643
▁effective~~5110
▁Position~~15546
▁RG~~7580
▁transparent~~5935
isis~~11671
ilder~~9960
▁leverage~~5254
▁fundamental~~4792
▁RL~~14436
osing~~11519
▁Parallel~~11783
▁Notice~~4425
anes~~8370
▁overnight~~10486
▁Intens~~14049
izers~~6340
▁porn~~11574
ilden~~15220
▁again~~723
▁aspect~~3908
▁schools~~942
▁Indust~~13641
▁orient~~9787
▁after~~562
▁simple~~613
▁jumped~~7289
▁dig~~8536
▁Down~~6648
ffiti~~15291
▁2,000~~5947
▁shock~~56
▁lots~~4244
▁nomin~~13407
ourse~~9916
▁influenced~~3227
▁simply~~1710
▁stronger~~2081
▁Maybe~~1265
▁jokes~~11317
▁seven~~1753
▁sever~~8241
▁cracked~~10312
test~~13135
▁headed~~5348
▁applications~~3182
▁habit~~7510
▁chosen~~3836
abling~~10671
▁telescopes~~13114
▁Taiwan~~9667
▁Insel~~15709
▁assist~~8655
▁tickets~~9538
▁Billy~~13094
▁forgotten~~12119
▁attracted~~10445
St~~5869
attered~~9004
ropolitan~~4798
▁Diagn~~14344
Sk~~14644
itude~~4453
for~~8701
▁obsess~~11231
▁bugs~~3219
▁nutri~~8923
▁ski~~1425
▁observation~~6467
▁doubled~~3409
▁Apollo~~7205
▁typ~~4277
▁Germany~~1882
▁export~~12252
▁nick~~14243
▁sky~~2133
▁hop~~10321
▁chips~~8920
▁fluorescent~~8669
▁uner~~15345
▁Aug~~11506
▁Aud~~12074
▁unex~~172
▁aquatic~~4494
▁award~~6248
▁aware~~536
▁apolog~~5694
▁stat~~9881
▁worker~~9519
▁Aut~~1195
▁Aus~~2896
▁Aur~~10634
Inter~~16190
▁handful~~7533
▁followed~~2556
▁psychiatric~~15215
▁dialog~~9486
▁Falls~~9478
▁Algorith~~16232
rhythm~~16261
obody~~14240
▁isolated~~11592
▁doses~~5475
▁drilling~~12680
▁invited~~7403
ivil~~16039
▁Pick~~3617
▁Dynam~~13955
ivid~~12515
▁opinion~~2739
▁Ale~~15788
umm~~3963
▁agriculture~~4668
▁Korean~~1685
▁Alf~~16297
▁Mole~~9050
▁provides~~1411
fon~~14021
▁golf~~9076
hington~~15900
▁error~~7683
▁multiply~~8653
umn~~8077
▁Agency~~8887
Just~~5676
Global~~15825
▁spike~~9770
▁WK~~15566
p~~1590
gut~~15884
ault~~8752
▁inevit~~6815
▁multiple~~5480
▁catch~~419
revolution~~15042
▁beings~~2495
▁Gord~~16253
▁Sche~~15125
▁25,~~13649
▁code~~2510
▁particularly~~1835
cost~~6063
▁250~~7558
▁answering~~4227
▁befr~~11281
▁somewhat~~6362
▁Love~~2721
▁forb~~1096
▁fore~~5161
▁forg~~11852
▁arm~~2359
▁Alabama~~10648
▁arc~~8460
▁form~~804
▁arg~~2514
▁are~~111
▁fort~~12086
▁Schm~~13424
▁arr~~4297
▁art~~2519
▁Bor~~10550
▁Haw~~11250
▁Hat~~6496
aling~~2700
▁Tunes~~10065
▁My~~2823
▁Bou~~14345
gener~~2074
▁Boy~~2471
▁Haz~~14483
▁Mr~~8031
▁Hay~~7935
▁Mo~~3156
ivate~~179
▁sunlight~~8605
riere~~16126
▁Mi~~9691
▁Han~~10523
▁Me~~4722
▁Ham~~8768
▁Mc~~8660
eder~~10320
▁Ma~~3662
▁Venter~~8937
▁approaching~~12248
▁complaining~~7700
▁tube~~596
▁accessible~~7524
▁degrad~~9201
▁che~~3319
▁MS~~13050
▁MR~~14642
acious~~5530
▁MP~~4120
▁MO~~12805
▁MM~~15228
▁wanted~~1713
▁reef~~14052
▁Institution~~15439
▁business~~1015
▁MA~~14330
▁hard~~1244
ctions~~2331
▁complete~~5450
▁packed~~505
rovir~~14748
▁Mountain~~2803
▁stimulate~~1337
uzz~~13857
cies~~6977
▁basketball~~4108
▁Helm~~15381
▁born~~1778
▁regulate~~8360
market~~13056
▁copyright~~9310
▁horrible~~9560
▁danger~~8266
▁ethn~~14956
▁dimension~~1757
▁messages~~3576
▁Blogs~~15450
▁pathway~~2429
▁writ~~11401
Ach~~15384
▁integration~~2531
▁bulbs~~13292
F~~2984
▁apples~~3304
▁bite~~6474
yrus~~8269
▁brilliant~~9889
▁Brenn~~13592
▁Nothing~~9482
acles~~268
▁satisfaction~~10166
▁Brend~~14557
▁unve~~11523
▁bits~~487
▁outside~~3159
▁courage~~4310
ibl~~14388
▁expect~~2018
cas~~13562
car~~5167
▁broadcast~~10533
umbs~~3513
ibe~~13615
abyte~~15073
▁diameter~~9643
▁embedded~~8468
▁regenerate~~13451
can~~9809
cam~~12940
cal~~10494
▁Eigentum~~15931
▁Company~~8746
▁instruction~~7692
trans~~7883
heart~~4198
▁peak~~5481
▁pean~~9242
spr~~15582
▁grandfather~~2833
▁usage~~7609
▁novel~~1715
▁optimistic~~1027
spe~~11910
zeera~~15915
chie~~8577
,'~~12338
▁hat~~4520
▁har~~699
▁has~~205
▁quantitative~~13240
▁make~~180
▁views~~4170
▁romant~~15008
▁Hillis~~14536
▁cities~~4591
▁had~~523
▁Middle~~4253
▁hab~~10297
▁Prot~~12416
▁Princ~~13593
▁hal~~11990
▁ham~~2562
▁Sebast~~15433
▁establ~~8074
astroph~~15230
areness~~13244
ttern~~15289
uing~~1066
▁chair~~3757
wling~~783
▁Cons~~906
▁terrific~~13163
adel~~16267
▁able~~758
aos~~9282
adem~~14781
▁goodness~~12561
ogenic~~6938
▁Cond~~5213
alyst~~1241
?"~~1161
▁Def~~13709
▁sett~~8813
▁Deb~~13653
▁sets~~5763
▁Den~~12518
▁touching~~3180
▁Del~~12353
▁Dem~~9362
ftware~~16058
▁tra~~3930
▁Dev~~10515
▁addressing~~5764
▁Det~~13209
▁inspired~~4203
▁Des~~9182
▁Dep~~12647
▁puzzle~~9947
pertoire~~10006
▁affect~~8294
▁wilde~~15707
▁rocket~~5397
uzzy~~14185
▁Stere~~15501
▁plates~~3388
▁Walker~~8159
▁convention~~9317
▁prosthetic~~8907
ities~~849
▁complic~~9541
▁essential~~2963
coln~~13552
▁vice~~3274
Chr~~13194
▁symptoms~~11975
▁taboo~~6664
▁censors~~12117
enden~~10386
▁tri~~10394
ular~~4061
▁harsh~~13120
▁Chile~~1751
▁Child~~3456
▁dilemma~~4996
▁constit~~9851
▁told~~1086
▁hooked~~5363
▁migra~~10833
▁angiogen~~15491
viron~~13479
▁dots~~4225
▁roles~~10517
▁toll~~6490
▁foot~~647
▁Both~~6166
▁neck~~12852
▁Bots~~14601
▁First~~1514
▁fool~~4872
▁risks~~5463
RI~~2349
▁food~~709
▁legal~~5171
halt~~12506
▁cultural~~2551
▁morally~~10899
▁ones~~1290
half~~4558
not~~5928
▁jumps~~10148
nov~~14003
▁enemy~~1556
▁Bra~~11119
hall~~10730
down~~9823
▁ut~~4930
▁us~~29
ontroll~~1205
▁up~~250
▁briefly~~4878
▁configuration~~11195
▁Rauschen~~12768
▁Nollywood~~15649
▁rank~~993
▁McDonald~~12189
h~~1123
▁suffering~~9662
▁un~~1219
▁um~~3102
ination~~2320
▁Angel~~12321
▁storyteller~~2491
▁uh~~14201
em~~1832
el~~2173
en~~2715
eh~~10263
ek~~384
▁object~~3439
ee~~1457
ed~~231
▁integrity~~6402
ef~~3324
▁surgeries~~10367
ec~~7731
▁Hey~~9543
ey~~7870
ex~~1076
ulsion~~7415
year~~890
eu~~11502
et~~2234
ophys~~10693
▁unknown~~5408
ep~~4786
es~~688
er~~1502
▁America~~440
space~~7159
▁accurate~~9081
estone~~6906
▁temper~~9464
ception~~7222
looking~~788
▁2004~~10108
inz~~15581
▁revolutionary~~6676
▁politicians~~6662
▁humor~~7155
▁def~~2681
▁deg~~6998
▁deb~~2795
▁street~~5575
▁den~~503
▁del~~9929
▁collision~~5402
▁Laptop~~8597
▁dev~~1058
▁dirt~~1098
▁females~~8335
▁Person~~8755
▁der~~3443
▁des~~6218
▁dep~~4400
▁2003~~5239
problem~~15739
▁Year~~9630
▁Franz~~10476
▁200-~~6884
ilen~~14133
▁ignore~~10832
▁Status~~14321
▁times~~1090
▁corresponds~~10585
▁daughters~~3699
blind~~11748
bling~~6104
▁rise~~6390
▁myths~~5175
▁risk~~4022
▁empathy~~7329
▁explore~~7822
▁infant~~10470
▁hypoth~~11807
▁Achilles~~9196
▁waste~~4332
asive~~14094
rine~~11246
ring~~1495
rina~~16065
xt~~8706
size~~6475
▁pour~~3161
▁address~~5122
▁stopped~~3361
▁demos~~3089
▁Titus~~14741
▁orphan~~10777
imit~~14200
▁revol~~7102
fl~~5742
ission~~11189
▁agenda~~9488
▁selves~~8523
▁orchest~~3666
▁yeast~~13262
frame~~8465
▁powerful~~2111
▁Comics~~11769
arith~~13529
▁exceed~~2052
▁Leib~~13770
▁flip~~5128
ceptable~~1588
▁Foie~~15516
▁contrib~~7312
▁reduced~~9872
▁Saint~~13435
uper~~3292
quar~~15909
▁aesthetic~~9430
▁attacking~~9417
prü~~15932
than~~13040
▁biggest~~1300
thal~~15267
▁160~~358
▁invested~~1867
▁program~~2357
▁exhibit~~7949
▁defect~~8313
▁Cancer~~9179
▁Protein~~15411
▁What~~403
▁movement~~3763
▁glass~~3158
▁Williams~~11961
▁seeds~~6338
▁destroy~~5703
angen~~13891
angel~~6821
Pe~~10512
▁foster~~7313
▁mere~~10944
▁passions~~10410
▁Library~~11932
▁mode~~6611
engths~~2240
anger~~3860
anges~~155
▁judge~~8738
▁shaking~~13561
▁Coach~~10177
inkel~~16245
bers~~2807
▁Museums~~16166
shore~~5310
▁10~~815
▁passing~~390
▁smell~~4719
▁Pl~~4370
▁Sperm~~16131
▁Po~~2734
▁Ph~~2223
▁electronic~~5894
▁silen~~9405
▁Pe~~8219
▁Bro~~12201
▁planetary~~11354
▁Pa~~13046
▁sequence~~6865
▁Bru~~15956
▁Luf~~7591
▁satellites~~7930
▁pulls~~12934
▁document~~8797
▁lifestyle~~11323
▁Invest~~9933
]~~3000
▁Pr~~211
▁earned~~13343
anch~~2717
▁PM~~12535
▁PH~~12336
PT~~14973
▁Chaos~~3483
▁lifespan~~6911
▁headline~~2143
▁Mario~~15892
ance~~2311
▁Henry~~5679
▁Intell~~12960
ancy~~7310
▁Eventually~~10023
orth~~13102
onium~~13663
▁intuitive~~11394
▁metaph~~6658
▁perfectly~~4007
▁PR~~5153
▁rund~~14873
▁releases~~2431
Wel~~12204
▁runs~~6041
▁crashes~~12973
▁dependent~~4613
▁emerging~~4459
▁cover~~1735
▁power~~2455
▁systematic~~3476
uter~~13942
▁released~~5279
aint~~9926
Z~~7799
▁Protest~~10664
ains~~7078
ratic~~2063
utet~~16177
▁grid~~2263
▁Up~~8628
▁fu~~15406
▁vessel~~4163
▁adoption~~9092
▁prepar~~7624
▁operator~~6116
otter~~13635
▁canvas~~4734
▁summit~~7035
▁figuring~~1638
▁pressing~~3730
▁telescope~~12319
▁Post~~4240
▁Tex~~16061
▁alien~~738
▁Li~~14182
▁Kump~~15812
▁minister~~9680
ynth~~593
▁Motor~~10358
ammen~~16220
▁motivated~~3868
held~~11286
▁prove~~1236
▁Ted~~9905
▁naturally~~8502
▁kindergarten~~1922
▁borrow~~6183
▁Ash~~14847
▁Ask~~7371
▁Alec~~16189
▁irrational~~3226
▁stone~~7715
▁helmet~~12010
aze~~2969
▁Ladies~~5597
▁ungl~~15622
▁original~~6926
hell~~8368
▁Asp~~9188
▁Ass~~9180
▁Ast~~12523
▁Alex~~4041
▁intended~~6579
▁gone~~4567
▁contributing~~4499
reten~~16119
▁penet~~5411
▁Guer~~15650
▁192~~11138
3~~2191
▁habitats~~42
▁were~~672
▁fortune~~8129
▁Town~~13222
▁Ice~~12675
▁Google~~4276
▁teachers~~1845
▁mosquitos~~11814
iminals~~14970
▁Archiv~~16269
▁ceiling~~4944
▁Meth~~6966
▁wax~~3129
▁Pier~~2923
▁copied~~10883
▁everyone~~1653
mond~~10375
▁adapt~~1182
▁nerd~~12461
▁transforming~~12116
aurs~~11821
▁ethics~~11704
▁behalf~~6663
S~~1668
送你葱~~15905
▁Archie~~14386
▁package~~3723
▁large~~1786
▁surprising~~3569
▁Everest~~6020
▁copies~~9584
▁Portland~~10054
▁Professor~~7766
ischer~~14011
▁197~~6288
▁50,~~6894
▁50-~~5583
▁50.~~8421
▁500~~4782
▁pictures~~4238
amine~~13361
▁chromos~~15273
aming~~4821
▁oxygen~~606
olden~~15727
▁schle~~13107
▁app~~8481
▁glamour~~15200
▁Everglades~~16178
▁elegant~~2857
▁aggressive~~6129
▁security~~6341
odes~~6462
▁protecting~~3179
▁fossil~~4647
▁prototype~~3811
▁feedback~~5005
▁bias~~7637
▁Stern~~13518
▁inventor~~2346
oded~~10827
emark~~16129
angt~~15525
▁Front~~12414
systems~~15232
▁stayed~~3853
▁slums~~2598
▁force~~2671
▁Starbucks~~12230
▁animal~~276
▁History~~7929
▁Liber~~7651
▁insert~~9206
▁Besser~~12526
▁intellectual~~7664
▁healthcare~~6158
▁Miami~~14828
ett~~5842
▁3-~~7888
▁regional~~5313
▁3.~~7068
▁hors~~7119
▁horr~~5528
7,~~6612
▁living~~965
▁35~~1876
▁34~~3871
▁37~~7776
▁36~~5194
▁31~~11684
▁30~~2618
▁33~~12315
▁sl~~2841
▁Ver~~13937
▁39~~12670
▁38~~13303
ization~~1144
▁nurse~~3061
▁baby~~1120
▁city~~3057
▁grades~~6319
▁returns~~6442
eral~~2951
eram~~14000
▁Part~~121
▁hate~~9140
▁legend~~3615
▁100%~~15174
▁Park~~8643
▁stagger~~15440
▁disagree~~10080
▁mathematics~~2025
▁incre~~6858
zens~~9891
▁under~~394
▁tends~~6750
Israel~~4205
',~~12765
▁inch~~582
ramm~~6480
ulted~~11627
▁rehe~~5035
▁when~~185
zent~~13646
ya~~6246
▁return~~926
▁null~~15159
▁Unen~~15190
▁serving~~6473
▁crit~~10653
▁ability~~1184
iment~~5946
Č~~16250
▁Poly~~13281
▁ve~~9895
▁hide~~1402
ć~~15729
ete~~13276
Gott~~16221
ā~~15365
▁Poll~~8150
▁bird~~4422
▁Pole~~7005
▁rotate~~13153
ē~~14486
ruption~~11594
ī~~16185
▁punch~~12707
▁Himalay~~6239
imens~~9757
▁presum~~12935
▁Shir~~10043
▁Gary~~11958
▁Palestin~~12408
▁blo~~10110
▁Paris~~8493
▁attractive~~2006
▁instr~~15771
cca~~13405
▁ble~~1382
▁comfort~~9116
▁Jo~~11170
▁lobby~~7120
▁statistical~~10597
▁Ariana~~16236
angs~~10353
▁support~~589
▁entrance~~12796
▁pre~~1175
uct~~2940
▁maneu~~12009
▁pra~~6457
yp~~4443
▁tears~~2695
▁improvise~~4073
speed~~4112
▁answer~~1856
▁Wein~~13726
▁Viv~~15672
▁immune~~6978
▁offer~~2505
▁Vir~~12950
▁Vis~~7758
▁rejected~~9083
▁YouTube~~7855
▁functional~~8913
▁acceptable~~12115
▁Vie~~10917
verse~~7623
▁susp~~7416
▁offen~~10096
▁Vin~~15097
▁tension~~9441
▁amazed~~6613
▁electro~~12318
▁mamm~~8381
ami~~7303
▁night~~4222
▁wage~~11303
amm~~5021
▁parts~~245
isters~~6586
▁ours~~3880
▁colonies~~576
uild~~9529
amb~~8287
ame~~5062
▁pray~~4882
▁party~~3013
▁prag~~9976
▁strange~~712
psy~~9774
▁19,~~14239
▁Kansas~~12257
reat~~5640
amp~~3034
ams~~8474
▁tragedy~~5401
▁filters~~10454
▁hands~~302
▁founding~~13399
▁Yet~~4602
▁Yes~~853
▁serv~~13569
Show~~15637
▁Spain~~2250
▁situations~~1716
▁fluores~~14877
▁spite~~4399
ynd~~12660
▁something~~204
▁Troy~~11964
t~~320
ie~~3464
▁IDE~~13334
▁brief~~7278
▁occ~~8678
▁Gem~~15719
▁sand~~7297
▁tattoo~~2867
▁yellow~~2386
▁screen~~2555
▁Anthony~~5718
▁uncover~~7108
▁near~~3769
edom~~13966
▁neat~~787
▁oct~~362
▁invol~~12952
▁econom~~13887
andid~~12861
▁Seth~~13921
▁programmers~~7918
▁Gro~~13413
▁Hard~~10689
▁lower~~1885
▁engagement~~2945
▁Harm~~15728
▁Gra~~4889
agern~~8632
▁Angiogen~~16080
▁Hart~~13019
dies~~15007
▁Gru~~14172
▁Page~~7570
▁methane~~2239
▁tumors~~8302
▁once~~1726
▁dream~~3062
▁section~~4072
▁herein~~15373
▁robotics~~11389
▁concept~~901
▁strug~~8648
▁assignment~~7520
▁spiel~~14992
artig~~16001
▁Vagina~~13738
throp~~15779
▁meets~~7551
▁Labor~~8956
▁fixing~~10545
▁patri~~13739
▁JH~~13590
▁bene~~15021
▁bend~~7926
▁Mess~~14988
itte~~15991
▁Crow~~7219
▁1940~~12514
▁lived~~5681
▁sports~~1318
osph~~14048
▁Boys~~10392
itty~~8537
▁Obs~~14892
▁Homosex~~15668
▁Islam~~13998
idden~~10782
rifice~~15752
▁interacting~~5082
▁Son~~9370
▁Som~~9804
▁Sol~~11186
▁comple~~6565
▁levels~~1942
▁Christmas~~3012
▁name~~3870
▁anal~~14221
▁eye~~4952
▁supposed~~1581
▁Expedition~~14830
▁Sor~~10536
▁Indones~~12467
your~~11369
▁Sure~~9139
▁congestion~~9436
ared~~3363
▁appro~~6572
Mus~~3739
▁Americans~~8151
▁spring~~740
aren~~12592
▁Flu~~14735
Eng~~15444
lon~~6885
ician~~12628
icial~~12555
lor~~8418
los~~8978
aret~~13257
cats~~9603
ares~~4640
▁Fle~~13088
▁spec~~6916
▁digit~~8439
▁cocaine~~14645
▁Gates~~5621
achers~~14668
▁yet~~175
▁yes~~4306
▁cosmos~~12687
quate~~9535
▁summarize~~7706
▁Okay~~3063
J~~2772
▁Initi~~3348
▁curriculum~~7628
acon~~10074
▁efficient~~4145
▁targeted~~5585
▁gest~~8875
▁Ess~~15827
▁these~~261
igel~~9813
▁commod~~14560
illing~~1224
▁manufacture~~13198
▁pharmaceutical~~10697
▁barrier~~9192
cript~~13381
▁common~~2539
hirt~~3422
▁Sn~~8859
They~~12209
▁Exp~~13429
▁Ext~~12004
▁telesc~~16097
▁teams~~9157
▁bere~~15983
600~~11164
▁Bahamas~~12939
ners~~5453
▁ratings~~11679
▁Muhammad~~14403
▁confined~~7181
nern~~15463
▁extra~~605
▁Grand~~7750
▁comics~~11729
radle~~9627
▁Union~~8121
▁Inv~~15138
▁Sudden~~16153
▁amateur~~7867
▁staggering~~11128
▁austr~~10975
▁parliament~~6425
esterday~~8783
you~~6046
▁offers~~2902
▁worldview~~2460
▁kor~~16202
Great~~10784
▁perman~~3691
phys~~14772
icient~~7604
▁proud~~7894
▁auth~~12040
▁Through~~1260
iogen~~13059
▁CNN~~6477
▁shut~~8892
▁consciousness~~2707
pool~~7186
building~~12714
▁acid~~797
▁graduated~~9575
▁accurately~~12705
▁suspect~~6032
▁custom~~13858
▁knocked~~5966
▁scheme~~7346
▁richer~~2712
▁graduates~~1697
▁mentioned~~2822
▁winter~~4876
▁unn~~11326
▁melt~~4375
otyp~~13800
▁around~~273
▁Sty~~11373
month~~4473
▁drug~~6147
▁“~~7720
▁lapar~~13467
▁drum~~5635
▁negoti~~2955
▁folding~~8056
berry~~6607
▁While~~3496
▁adv~~9214
airs~~12688
▁Mes~~14457
▁Mer~~11785
▁Met~~10477
▁equation~~5746
nal~~14448
▁spe~~11404
▁Men~~8416
▁Mem~~11752
▁Mel~~11121
izt~~14206
▁Italian~~6654
▁Meg~~11553
ochond~~6945
▁Med~~7427
ucky~~12968
vers~~6982
▁Vi~~3693
vert~~5400
▁newborn~~8358
▁visible~~4935
very~~13617
▁epis~~10066
▁epip~~7806
▁pregn~~12534
▁fertilizer~~6269
▁grown~~4816
▁Ve~~14906
▁Que~~11907
▁Robert~~5837
▁grows~~721
vere~~14643
minded~~6289
▁great~~132
▁Gulf~~10079
▁Ange~~14942
izz~~7596
vern~~2170
▁Dire~~10217
▁anatom~~9080
▁Phantom~~14567
osh~~5567
--~~7906
-,~~14080
▁Western~~2701
▁Other~~3311
▁beyond~~917
▁Austin~~8789
-1~~4714
▁ingen~~7964
▁pressures~~8808
▁advertis~~6484
osm~~13740
▁gorge~~15518
rench~~4888
still~~13193
▁Sometimes~~4883
▁shoot~~4234
▁graphs~~12553
▁density~~6271
▁rule~~3519
▁vulner~~15041
osn~~10091
▁crime~~1167
ators~~1759
reci~~12924
▁breakdown~~10598
atory~~6423
▁deciding~~12303
mill~~6626
▁Era~~7101
ails~~637
rator~~8093
▁lux~~10187
▁follows~~11423
onna~~7778
inery~~12247
onne~~9795
itasking~~12972
▁sequen~~14413
▁Karen~~11667
▁grou~~14058
▁technology~~196
▁grow~~848
wning~~5270
▁Anyone~~10334
▁pleased~~14270
▁spacecraft~~7958
▁analyze~~3939
▁frogs~~7846
▁Immun~~15388
▁biom~~12263
▁perspectives~~2585
▁align~~2097
▁Netherlands~~9266
strong~~5501
▁Buff~~11619
▁nine~~444
ves~~1407
▁Subtitles~~15
▁cycle~~4746
▁assumed~~12738
▁attitude~~2724
▁son~~449
▁som~~8873
▁prote~~6951
▁soc~~7578
▁solving~~7687
▁radio~~4082
▁proto~~11349
▁sod~~8594
▁midst~~9183
▁ted~~12173
▁equipment~~2287
▁Nobody~~1784
▁altru~~10694
▁ten~~2330
▁sor~~12635
▁tem~~3354
▁sow~~12606
▁sou~~11356
ocaust~~11316
▁pig~~7773
▁conference~~8169
▁located~~4727
ase~~5488
▁Aqu~~7976
▁pin~~3515
▁Hop~~9145
▁pil~~14156
▁benefit~~1335
ask~~8989
▁pit~~4035
▁pir~~8674
▁pip~~12152
▁unab~~14416
▁unac~~12562
▁lud~~13073
▁pix~~7586
▁mating~~12844
▁employment~~6073
▁Hom~~9760
ifications~~9059
▁bonus~~9275
▁remix~~9306
anners~~2392
iverse~~7923
iathan~~14395
▁Cairo~~14446
▁disappointed~~9594
▁maps~~447
▁Osama~~14920
pus~~16098
▁normal~~3549
uting~~8397
▁ther~~14017
▁Tour~~10484
▁they~~311
▁charges~~11528
Sp~~13268
▁deaf~~10560
▁tight~~5809
▁implement~~6954
▁people~~937
Sh~~2848
So~~9753
▁depths~~50
ForShe~~16186
Sc~~12699
▁them~~293
▁charged~~10136
Se~~12938
▁then~~402
▁Anybody~~11442
▁Dal~~6396
▁semi~~4785
▁character~~3806
SP~~13006
▁publish~~7175
▁real~~334
▁apply~~1080
▁closest~~5199
▁apple~~12196
ning~~6799
SA~~6395
▁prize~~6250
▁elev~~8085
▁Congo~~6717
▁surve~~13707
▁above~~1496
ions~~1558
▁Lebanon~~4271
idges~~14684
bus~~14051
▁colle~~6576
▁Uruguay~~8610
▁poten~~16034
▁shipping~~5197
▁spread~~3163
ione~~7957
▁decline~~5325
▁loans~~10535
▁Rwanda~~2692
▁Conference~~13729
▁Dollars~~15243
▁Platt~~14997
▁family~~1045
anting~~9964
▁Lord~~10243
▁redesign~~9618
▁Basically~~1492
fro~~16026
▁temperature~~644
▁happy~~1448
fr~~2716
fs~~7290
▁2008~~3052
fu~~2220
▁giving~~1815
▁pose~~4632
▁Her~~5350
▁2005~~4502
▁2006~~2553
▁2007~~7139
▁2000~~7100
▁2001~~6342
▁2002~~13331
odies~~3686
▁Stanford~~5017
▁Hen~~14289
fe~~1450
▁Hel~~5619
velop~~5744
▁Heb~~3256
▁weren~~535
ignt~~13898
a~~786
▁Potential~~16130
▁looks~~399
▁Who~~2785
aughter~~14006
fallen~~15986
▁Graham~~10522
ï~~14977
▁1.~~7016
▁1-~~15319
▁1,~~4509
▁13~~1670
▁12~~3397
▁11~~2190
▁Why~~1005
▁17~~3134
▁16~~5032
▁15~~5503
▁14~~356
▁1:~~12235
▁19~~10113
▁18~~2570
▁hope~~2622
▁Lithium~~13215
Film~~16092
▁RSW~~15997
▁displaced~~8494
ielle~~13711
▁Fak~~16133
uring~~1763
▁rapid~~11314
▁have~~147
▁bicy~~11140
▁consult~~4988
▁rituals~~10910
▁aesth~~11924
▁clean~~2840
▁rent~~8737
fined~~3154
▁inex~~12174
▁Fab~~13566
▁rene~~6521
▁singer~~3803
▁Natur~~10981
▁interviews~~11402
ced~~4922
ym~~1810
yl~~4431
yo~~14934
yn~~4589
▁customers~~1446
cen~~13940
cel~~210
ye~~9252
▁composition~~3934
ces~~3106
cer~~4183
▁hearing~~3951
foot~~2801
▁selling~~4773
ys~~45
yr~~3954
ift~~8499
▁diabetes~~8317
▁pa~~4694
▁cows~~11335
elson~~10763
fully~~375
▁proper~~7931
▁discuss~~4519
▁simpler~~12776
ify~~5217
▁involved~~3523
ife~~4353
iff~~10504
▁nett~~16152
▁involves~~10326
▁Atom~~11185
▁someone~~3516
▁Geb~~14389
asion~~10219
▁whist~~2979
▁IBM~~8137
▁television~~7083
▁considering~~9914
Ent~~15775
keepers~~13428
▁hospitals~~3768
adays~~13356
▁Miner~~14104
ific~~2336
▁hey~~11365
idimension~~10893
▁beautiful~~41
▁her~~2153
miss~~11730
Aud~~14820
▁reducing~~9634
planes~~14081
▁Schwarz~~13115
7~~1737
▁hem~~2829
ibrary~~15829
▁Aust~~8592
▁list~~1860
▁expedition~~7388
ass~~700
reck~~13200
iot~~1207
▁who~~939
ast~~4033
BC~~10397
asy~~9930
team~~14166
dung~~16116
story~~7451
▁accounts~~7216
▁breathing~~3888
dit~~14757
asa~~6738
▁why~~828
▁ineff~~13523
dire~~1479
put~~8132
▁fabric~~10049
ash~~5476
rect~~7648
▁symp~~6778
▁Pur~~2871
▁shrimp~~698
▁Agn~~13587
▁Dan~~3212
▁Put~~3314
▁Dam~~6735
▁fourth~~2410
▁lack~~3921
▁Path~~14478
▁Daf~~16271
▁Dad~~11734
hler~~14461
▁Pin~~13067
▁Day~~4501
▁brick~~2906
▁deals~~9853
▁Dar~~10248
▁Little~~1369
▁favor~~2752
▁Dav~~13093
▁Army~~5774
▁Dat~~16095
▁electromagnet~~12722
ules~~8409
▁Wilson~~4895
▁Serv~~8988
▁egal~~14224
▁anymore~~3122
▁sale~~3742
▁Serb~~9996
▁wander~~4718
▁belong~~417
▁kept~~3259
▁Steve~~910
▁concrete~~3151
▁bottle~~4447
▁salt~~12219
▁practiced~~14029
▁Chips~~16301
ighters~~4486
▁coach~~5698
▁cinema~~2608
▁jar~~11126
▁swallow~~7176
rus~~7125
▁react~~9796
▁reach~~3175
Land~~15801
▁prospect~~7613
station~~9846
▁Knopf~~16066
▁Qatar~~13141
▁Rede~~15958
▁intervene~~6838
▁Pip~~13370
▁Klin~~11589
▁mount~~7043
▁graffiti~~13245
▁lottery~~12225
asch~~14834
▁1960~~1648
▁Marco~~11504
▁lighting~~8262
▁pandemic~~5513
ste~~7878
▁Institute~~8869
▁intuition~~3401
▁Dre~~11399
▁understand~~2273
▁0,~~15708
▁construct~~1544
▁petition~~11115
▁Old~~8393
sth~~14028
▁cents~~3332
▁female~~653
▁Larry~~9308
greg~~2012
▁Asia~~1747
▁Pix~~15010
str~~5164
▁belt~~7272
orthern~~13372
▁tiles~~7135
▁education~~931
▁ye~~12295
▁member~~8740
rified~~5737
God~~5704
▁equal~~1765
▁police~~8361
▁entities~~7992
▁configur~~3534
▁sixth~~5921
▁entrepreneurial~~11129
▁pieces~~488
▁Klim~~16154
▁stream~~4367
culus~~7565
▁Engl~~7270
▁phrase~~6184
lim~~5332
lin~~4065
▁ideas~~1575
▁spreads~~5990
phal~~13610
▁ideal~~4802
iber~~6639
arks~~12823
▁feeling~~1432
aired~~13556
digit~~13530
▁moved~~1802
▁diseases~~5461
quote~~12824
▁barriers~~13154
▁commons~~5172
▁Interviewer~~15133
kam~~1121
kal~~14348
kas~~14308
kar~~13432
▁day~~1158
▁showing~~3786
▁Carne~~14311
kat~~16169
▁dar~~5186
▁das~~6487
The~~215
▁UCLA~~13299
▁pilot~~2586
▁dat~~10606
▁supplies~~8186
▁beauty~~6043
▁indire~~8459
ining~~1795
clear~~9165
▁Abra~~15669
asters~~11272
▁debate~~1788
astern~~9710
▁playing~~1266
▁patent~~6038
▁Meeting~~16014
▁Meetings~~16083
hips~~7938
▁grocery~~4211
▁SW~~15107
▁Journal~~10168
▁strikes~~5551
▁Others~~7674
▁prices~~6279
▁fragment~~8532
dimension~~14840
▁empir~~12548
▁fig~~10826
▁tales~~1359
▁170~~8731
▁Statist~~13358
▁fil~~717
▁fin~~6522
rypt~~12038
▁symptom~~5004
quen~~11770
▁fit~~3916
▁Graph~~12349
▁Sant~~9684
abend~~15790
▁fis~~5242
▁annual~~2192
quez~~11969
▁fix~~4569
▁managers~~8554
ymn~~9687
▁fier~~8211
ela~~12965
ikely~~16183
▁addict~~3707
▁kat~~16187
▁kap~~15306
▁vor~~10940
▁acoustic~~3817
▁currently~~4654
▁smells~~10439
▁competing~~6066
▁guarante~~9874
▁crank~~12811
▁Tony~~5632
sta~~12836
▁Rory~~14211
▁terrified~~5422
▁publ~~9579
▁Anne~~14359
▁DDT~~8387
▁explicit~~7616
▁halfway~~7851
x~~4232
▁investig~~2437
▁small~~1014
rooms~~6593
▁organize~~6556
▁cricket~~14967
▁ment~~1510
▁menu~~9293
▁Cameron~~5610
▁films~~2479
▁conferences~~11099
▁Buddh~~13443
▁chip~~8891
▁agency~~9247
▁appropri~~6420
▁Juan~~10127
▁before~~657
▁rolling~~5589
▁endangered~~8015
ipped~~9058
ictions~~13558
▁Pause~~14558
▁booth~~4899
Part~~13797
▁boots~~12435
▁debt~~11676
▁Theoret~~14424
▁Those~~729
▁Wilder~~14858
▁poverty~~2599
▁disco~~8080
itely~~9019
▁Tr~~7441
▁♪~~11584
▁Tw~~7697
▁Giussani~~9301
▁remembered~~3360
▁rhetor~~8976
ison~~8452
▁Ta~~10901
Sand~~8436
▁Te~~3771
▁group~~2200
▁Th~~4707
▁Wired~~11392
▁To~~1087
▁northern~~5524
▁TR~~14379
▁TS~~13916
▁TV~~6678
▁atom~~11175
▁reactors~~14455
▁tests~~7631
anor~~12368
▁estim~~9228
▁priority~~1991
▁Cast~~14001
vitation~~13304
▁Wonder~~11516
▁reactions~~8145
▁TM~~3925
ifully~~6842
▁Anatom~~15711
ordination~~15532
▁neutral~~12394
▁Nation~~15017
wen~~14945
▁Congress~~8141
▁barrel~~11675
Was~~14584
War~~10996
▁flights~~13824
▁resc~~14039
▁squee~~3709
▁Jackson~~10534
inct~~13013
▁ape~~9754
▁Origami~~15747
▁rest~~1226
▁cooking~~6552
mentation~~13263
▁Kamen~~11747
▁sacred~~12613
▁Columbia~~7972
▁Rezero~~8950
▁Dere~~15114
▁randomly~~10903
▁beach~~124
Women~~13254
▁introdu~~9609
imal~~8870
▁huge~~1334
▁Joshua~~9802
▁clothes~~8230
▁1918~~10270
▁inert~~13054
√±~~15100
▁compared~~3403
akthrough~~14775
▁photographer~~13547
▁Deutsch~~15791
▁Sem~~14857
▁correspond~~6102
▁games~~3640
▁animals~~157
▁but~~146
▁Orte~~15086
look~~12231
▁bur~~5682
▁bus~~6531
▁'60~~521
▁desire~~7358
▁Verd~~13885
ropy~~14537
▁buy~~1452
▁obviously~~1202
▁bud~~5776
while~~3330
▁bug~~3214
▁Afghan~~5920
▁bub~~12343
▁bul~~6329
▁signals~~3818
roph~~3117
pack~~3316
▁Alan~~11786
ifth~~9079
▁museums~~7819
ifte~~12404
▁Silicon~~8552
▁voluntary~~9894
▁Vern~~13943
▁wondered~~3237
ifty~~13859
▁ancient~~4598
ready~~6070
▁illustrates~~10317
▁oceans~~12
▁writing~~2748
▁transfer~~10427
▁norm~~5241
▁mark~~748
ently~~3692
▁marg~~14505
▁psycholog~~6526
ested~~1728
▁Temperatur~~16273
▁tum~~12921
▁presen~~15785
▁collapse~~6344
grand~~13674
ester~~3082
bol~~11490
▁record~~861
▁Gegen~~12002
▁nort~~4731
▁photographed~~5233
▁rud~~10205
▁leadership~~5762
used~~8545
temporary~~4901
▁Group~~9407
▁rub~~4483
lie~~10142
▁rul~~10040
▁rum~~12181
▁run~~2114
▁foundation~~5748
▁Terror~~14582
▁rut~~1551
000~~14495
uses~~2124
▁Blog~~7074
onstr~~14982
▁Very~~1887
▁alcohol~~10516
▁minor~~7082
▁visualize~~8391
strö~~16173
▁Ross~~4042
arke~~15122
▁Armen~~14229
▁defining~~5675
▁afterward~~9656
▁means~~3644
▁Stein~~13033
▁deploy~~11936
▁housing~~9536
▁Consider~~2890
▁trash~~4333
iolet~~14714
iers~~874
▁champion~~2978
iere~~15919
▁Bohr~~14739
▁gentle~~7164
ricul~~6618
$~~8538
▁leather~~10178
▁forecast~~12028
▁generosity~~5630
▁Skept~~13828
▁famine~~6252
▁Dennett~~13025
▁magazine~~6581
▁psychological~~6585
▁distinction~~8484
...~~3206
iano~~12600
ight~~1364
▁dozens~~2272
stein~~8940
▁artificial~~8396
▁genetics~~8838
▁aren~~958
▁herd~~13698
▁palm~~12078
▁area~~846
▁lowest~~1000
▁retire~~9836
▁hol~~6566
▁Wir~~9398
▁statement~~6826
▁trillion~~11673
▁blocks~~8344
▁Global~~9936
▁wheat~~10661
ees~~1128
▁78~~8148
▁channels~~2412
▁populations~~7690
▁indigenous~~11027
▁70~~3245
▁73~~7862
▁72~~9868
▁75~~112
▁74~~1734
▁Nine~~2028
▁encouraging~~1482
▁Gamma~~15377
▁factories~~4441
▁proportional~~1819
▁Ha~~3211
▁tribe~~10344
economic~~1933
▁judgments~~12310
▁tenden~~10331
▁Hope~~6162
▁occurred~~3141
▁Michel~~10483
▁zones~~5343
▁rely~~2122
▁Magnet~~14870
▁speakers~~10160
▁quest~~2874
ushing~~12398
▁dam~~10444
▁launching~~10284
▁knowing~~2105
▁grandparents~~2657
▁printing~~8094
▁Bunker~~15281
▁clinics~~8624
▁rele~~10946
▁staring~~8910
▁consideration~~3465
▁constraints~~7673
▁Detail~~15154
▁keeping~~6079
ocke~~14655
▁failed~~5895
run~~6489
▁Pest~~8506
sted~~7939
rum~~12419
acht~~11591
osen~~8925
sten~~14539
rug~~11522
▁winds~~6439
achs~~4482
ster~~8713
step~~9832
ockt~~15459
ocks~~5316
▁dad~~3002
stet~~14793
▁covering~~4933
▁humanitarian~~5464
rup~~14565
ateful~~15558
▁sorts~~97
▁publicly~~10520
▁strategies~~6965
▁waters~~857
idt~~13393
▁meat~~4619
ids~~7106
▁Nun~~15556
▁no~~148
▁Nur~~15815
kap~~14235
idi~~10082
idd~~8928
ide~~508
▁Gold~~9387
block~~12091
ida~~13914
▁offic~~5940
rats~~14219
▁recovery~~10076
ourced~~14410
▁cycles~~864
▁Benki~~15016
Ele~~2980
ön~~15055
öl~~16167
ources~~14418
ök~~16056
icans~~12355
▁Supp~~8153
kay~~16219
▁guess~~1022
▁Meyer~~12164
.,~~982
.-~~12048
..~~15085
▁inches~~379
▁Code~~3373
."~~228
ience~~3140
.:~~14460
▁Vel~~14922
reprene~~11148
▁limb~~12290
▁empty~~694
mach~~14098
▁Ho~~14523
▁vol~~6335
▁ordered~~11034
▁wack~~13974
▁distribution~~4682
▁prey~~317
rees~~1989
▁Ford~~10638
▁unfortunately~~4445
▁pres~~902
▁prep~~3414
▁Form~~12959
▁prev~~13495
▁Bert~~12896
▁Sergey~~7461
▁clusters~~10828
▁decided~~3305
▁prem~~3846
▁prec~~5184
reen~~9024
▁pred~~6277
▁substant~~12396
▁Sweeney~~15772
▁bank~~10518
intuitive~~10385
ute~~2736
▁bang~~3937
uth~~13384
▁band~~279
▁imper~~6880
uts~~9652
▁architectural~~8046
utt~~13302
utz~~13027
▁horizontal~~8563
▁Afrika~~12967
▁loo~~11161
▁layer~~3176
▁annivers~~12594
uber~~10839
ubes~~3832
Ich~~13023
▁emphas~~6461
▁static~~5802
zure~~15194
To~~2719
▁done~~1550
▁scream~~7432
Th~~8182
▁entertainment~~9713
Te~~14534
uben~~15615
▁ooh~~13196
▁missing~~5562
▁airplanes~~9920
▁Tesla~~14283
TV~~14529
▁includes~~8315
▁extract~~11428
▁leap~~6686
▁lear~~9595
nam~~13565
▁Have~~4881
▁disturb~~10813
▁lean~~6283
▁leak~~8363
▁lead~~5638
▁leaf~~6047
▁utter~~7056
▁included~~9406
▁Remember~~1874
▁although~~2328
▁Human~~10987
AC~~7279
▁nuc~~12886
▁ritual~~12569
weise~~15937
ases~~1455
aser~~14679
▁surprise~~1023
▁Pepsi~~695
▁nun~~13378
▁1900~~12254
▁nur~~5548
est~~37
▁TEDTalk~~10122
asen~~15651
▁finds~~7347
ased~~6075
▁convert~~6039
Ab~~15333
e~~2817
Ad~~15311
▁superior~~5649
▁unfortunate~~9869
quently~~6587
▁fog~~10595
▁One~~474
An~~2843
▁Bit~~10713
As~~6219
Ar~~9123
▁washing~~11890
▁histor~~7790
▁algorithm~~8057
cribe~~11308
oop~~4525
▁spin~~8964
gt~~16057
gs~~5554
gr~~681
▁figures~~3799
▁Joe~~11552
gy~~1574
▁whis~~13491
ge~~1569
▁Mike~~7157
ga~~9940
▁mapping~~5563
go~~2169
gn~~15327
▁cult~~6547
gl~~4730
▁figured~~3938
▁Facebook~~3612
▁explaining~~2680
▁solved~~3318
▁neighbor~~9462
ario~~14324
aria~~14060
▁Ente~~15391
▁Station~~12217
▁impaired~~8380
umble~~7209
▁pushing~~9130
▁resident~~3865
▁ru~~7816
▁mathematical~~7643
▁CAPTCHA~~15126
▁paintings~~2494
▁recycling~~12451
▁terr~~8130
Now~~10159
friendly~~9607
fly~~4855
▁increasing~~3376
▁got~~78
▁Make~~3552
▁Speed~~7037
▁goo~~1326
▁opera~~3639
▁Virgin~~15151
▁Lak~~7148
▁god~~5960
▁sculptures~~12839
▁authoritarian~~14146
▁planning~~6794
▁kilogram~~6268
▁articles~~10170
sych~~14508
gender~~12493
▁mesh~~12926
▁Cr~~11727
▁engag~~15222
▁slower~~6554
olar~~12339
olas~~15677
▁Able~~12964
▁view~~416
▁reliable~~6320
▁Univers~~13679
urch~~9694
Spe~~13667
▁anten~~7759
▁trivial~~5038
▁emphasize~~8763
zi~~11093
▁celebrity~~11648
▁triumph~~6151
za~~11934
▁connections~~9765
▁liter~~10663
▁Amt~~15929
zy~~3710
zz~~6691
oder~~7392
zt~~9343
▁outcomes~~1717
▁leading~~4403
▁Interface~~10707
oking~~4335
▁Vict~~15035
▁flog~~14880
▁exhib~~8966
▁ears~~373
aining~~7306
▁150~~251
cell~~3851
▁15.~~11621
▁15-~~1639
▁15,~~10885
then~~12691
▁democratic~~12820
▁earn~~3059
;~~959
▁electric~~4090
▁joining~~11312
▁director~~2462
▁shit~~6760
▁Cra~~4249
▁subsid~~2113
▁ship~~4972
▁Reporter~~10145
▁energy~~588
▁Foot~~11719
▁Cro~~9949
▁absolute~~10914
▁shif~~16204
▁Cru~~11862
▁academ~~7523
iable~~9504
▁Sand~~8405
▁Sec~~14731
▁Leon~~14282
▁Tor~~14470
▁Food~~6543
▁obese~~4656
▁seats~~5792
▁pull~~2417
▁pretend~~5818
fle~~12962
gent~~10964
▁Sang~~14854
▁messen~~1562
▁Britann~~13353
▁collaborative~~7947
▁Michael~~8037
▁Bible~~3367
gend~~9799
ule~~10614
▁puls~~9764
istence~~11430
▁agric~~15339
▁threw~~11653
wid~~15117
▁extremely~~4829
▁globale~~16302
win~~10986
▁embrace~~2036
▁Balk~~10011
ithmet~~13784
▁floating~~4331
▁tubes~~9044
▁three~~341
wis~~15059
▁larger~~3795
▁Having~~9142
▁Source~~15798
▁organizing~~11723
▁lands~~10430
▁waited~~7994
ötz~~15933
▁consistent~~4927
▁student~~1827
▁Christian~~4122
▁embracing~~4661
▁significance~~9711
▁Nash~~3985
▁Before~~6848
ithium~~13214
isan~~11720
▁dragon~~12928
▁attra~~313
▁However~~6953
▁Zw~~13772
ien~~6736
weeney~~8661
▁separated~~4512
▁gross~~6241
▁codes~~10717
▁Mahatma~~12614
▁autonomous~~13848
▁17,~~8179
▁Billion~~15428
▁Ze~~10629
boards~~12373
▁perfe~~13278
▁17.~~12987
▁excer~~9127
▁borders~~10856
▁Jonas~~13816
▁biodiversity~~162
▁elephant~~7805
▁zoom~~7814
▁others~~1632
▁magnific~~15153
▁intention~~8816
ricane~~8441
meer~~14238
▁Send~~8719
▁Environ~~11863
▁planet~~114
▁Ethiop~~6343
▁sole~~8425
▁general~~1579
▁interconnected~~9766
hir~~14602
▁icon~~466
▁becomes~~3805
▁Hannah~~15466
▁Solar~~13075
▁clue~~11289
▁motor~~9190
▁deficit~~10561
▁granted~~108
▁kindness~~11336
▁through~~367
▁Brasil~~15549
eit~~10679
anthrop~~9699
▁existent~~15960
▁Allan~~15134
▁argued~~10502
▁creativity~~1074
▁Lake~~6371
▁obstacles~~5413
HIN~~15254
▁places~~167
▁Spra~~15028
▁poems~~10573
▁detect~~10874
▁tier~~7235
▁ties~~10200
▁Stick~~14871
▁characters~~3827
▁bike~~3011
▁tied~~5753
▁music~~886
rays~~9046
▁Talent~~14530
▁connecting~~7231
▁placed~~8028
▁adolescence~~13108
ired~~2996
▁approached~~8323
uelle~~16175
▁thinks~~5466
▁plane~~2291
▁tax~~1893
▁Materials~~9611
▁toilet~~5099
▁tap~~3716
▁tat~~10683
▁Hopkins~~12272
▁plant~~4396
▁tak~~4508
▁tal~~15561
▁plans~~9548
▁tab~~13211
▁tag~~2333
▁tad~~14198
▁charity~~10537
▁diagnosis~~6091
▁improve~~1625
▁Franklin~~6525
▁while~~1699
▁child~~1997
▁approx~~12550
▁narratives~~2546
▁distort~~5091
▁HG~~16192
eins~~13388
▁overhead~~10627
▁tracks~~6357
▁constitution~~10286
▁staff~~6604
▁Children~~5016
▁math~~998
ahen~~12845
▁case~~389
▁gods~~4686
▁singular~~13070
▁than~~168
alence~~15104
▁mate~~8336
▁cash~~3405
▁that~~81
▁cast~~5174
▁educated~~6084
▁driven~~6545
▁note~~894
▁Stage~~9351
▁predicting~~6959
▁Marcus~~12059
▁Daw~~8434
▁minim~~3250
▁700~~515
ically~~2665
▁ultra~~10070
frontal~~1347
▁typically~~2026
▁events~~4966
▁whale~~12978
▁vern~~14696
▁Cou~~9507
▁vers~~5888
▁bars~~4099
▁weigh~~1990
▁Con~~3537
▁Com~~5579
▁vert~~5081
front~~11993
▁Hud~~9189
▁very~~190
▁rewards~~8589
ifest~~14800
▁Cod~~12270
▁lung~~5424
▁logo~~4270
▁Rosling~~11534
▁active~~829
▁fate~~5231
▁surgical~~9070
▁realizing~~6603
Why~~3249
gely~~10380
▁canopy~~2303
▁beginning~~642
▁poison~~4552
▁Captain~~11223
illy~~4024
map~~6754
▁wrote~~2183
mas~~3603
iology~~7579
▁TED~~13
mar~~10071
▁works~~822
illi~~14506
ateboard~~15366
ille~~11237
▁Again~~3338
▁Green~~9628
▁corner~~5622
▁Hil~~10342
▁panc~~11221
▁stabil~~8224
▁Hig~~11181
▁triple~~11263
▁chromosomes~~6943
▁Rockefeller~~13452
▁empower~~1539
▁Farm~~12736
▁evolved~~801
wich~~12076
▁forms~~590
cause~~13718
▁His~~5541
▁Hip~~15744
▁crocod~~12288
acken~~13873
▁horror~~8492
spot~~11980
▁disappears~~3804
▁molecular~~9062
▁Designs~~15803
▁professionals~~1320
▁examine~~3266
▁Wort~~14070
ect~~6387
▁Austr~~3497
▁curt~~8683
acker~~6671
umented~~14256
▁57~~9230
▁56~~11475
▁55~~7545
▁54~~11086
▁stri~~4932
▁Death~~3535
Ja~~16279
▁50~~2603
▁stadium~~4107
▁stra~~3867
▁59~~15404
keep~~2698
itor~~13753
▁friendly~~8620
▁Orleans~~4497
▁overl~~11429
▁give~~727
▁5-~~13237
▁5,~~7038
eters~~9288
▁architecture~~3955
▁challenges~~1804
mag~~11507
▁wearing~~3423
▁certain~~3854
▁offered~~2535
▁generations~~1680
▁macro~~11178
▁Venezu~~15830
▁challenged~~1936
▁Ang~~10129
quality~~7601
▁element~~3410
asi~~16181
▁appreciation~~10058
▁fascinated~~7151
grow~~9745
▁heck~~10878
▁schedule~~1165
▁musicians~~3732
olitan~~12207
▁died~~2821
▁Norm~~7220
▁spiders~~14736
▁wie~~7326
gment~~9893
oice~~8488
▁Nord~~6598
▁diet~~2536
▁testing~~3461
!~~405
▁dies~~4395
urfing~~8546
▁pigeon~~11830
▁Hamburger~~13486
▁Number~~9388
▁broke~~7206
bek~~15036
beh~~14605
bei~~15161
ben~~3323
bel~~11835
▁Patricia~~13672
▁completed~~1651
▁transformation~~6389
▁Listen~~5759
bed~~2954
bee~~13271
eting~~7277
▁Suddenly~~10258
ber~~2249
ard~~2884
▁Ear~~5410
bet~~10599
▁hin~~15129
▁filmmaker~~2541
▁him~~2992
▁hij~~9942
otonin~~13907
▁Washington~~2650
▁respond~~1898
▁resem~~9763
▁Sund~~8717
Mama~~14629
▁wip~~845
▁hit~~4735
omed~~12298
▁respons~~1919
▁hip~~4101
▁facility~~4995
▁footprint~~8970
▁wir~~13319
▁painting~~7774
ainer~~4491
▁youngest~~9316
▁weighs~~8106
▁collaboration~~1481
▁Barack~~10646
▁enterpr~~11579
ably~~2515
▁himself~~3745
▁cand~~13892
sequen~~11313
▁farther~~5445
▁rough~~3170
Der~~12835
▁cann~~8529
▁reinfor~~11598
sm~~9442
▁shoulder~~3910
ocratic~~1196
aws~~2773
▁promote~~1346
ingo~~9359
iscover~~1517
▁aggregate~~13207
▁regrets~~10102
▁specialized~~7285
urd~~15013
ure~~2861
urf~~8066
▁Dias~~14701
ura~~3687
urb~~12497
insky~~11618
urm~~10590
urn~~4902
▁superher~~8750
▁Arie~~3213
▁secure~~7072
inde~~3019
uru~~14683
▁deeper~~3792
▁exhaus~~8215
urr~~9539
urs~~3637
gest~~4551
▁Brother~~12056
ury~~6568
urz~~14572
ulator~~8919
▁Somebody~~9154
▁unexpected~~7507
▁bats~~13167
▁Lama~~9903
▁flash~~9143
▁Emotion~~13748
Stud~~15158
▁frank~~13052
▁Team~~15250
▁Name~~14376
▁oil~~3155
▁illustr~~5053
▁hardest~~3548
▁Baby~~7605
▁City~~4796
based~~3097
▁moving~~140
(~~14780
lings~~9817
rast~~7612
rass~~10061
ayer~~9012
▁Armstrong~~6019
▁Hut~~9651
ylac~~16075
▁poss~~11529
▁opened~~6441
▁protocol~~7213
▁outl~~11997
▁odor~~11889
▁mice~~6904
ingt~~15806
▁possibilities~~8089
▁Georg~~15994
ingu~~13805
▁intim~~12176
▁mathematician~~13162
▁Technology~~2605
▁slight~~10265
▁symbolic~~7033
immel~~16217
▁turned~~3875
gras~~14846
grat~~3594
ught~~13699
gram~~13505
itra~~14824
ification~~4011
▁continuously~~1332
▁bankers~~10540
▁evolution~~6934
▁engineer~~7293
▁output~~6312
▁vagina~~13752
▁according~~3614
▁Benj~~12609
▁Sus~~12453
▁Sur~~6086
▁Benn~~6088
▁facial~~11381
▁Messer~~11487
▁looking~~409
computer~~7465
▁Sum~~9671
▁Sun~~3504
▁Jord~~15542
▁connects~~5074
▁metric~~7705
▁Sud~~11435
▁Sug~~15064
▁Suf~~14234
▁faster~~1675
▁generous~~10199
▁sleeping~~12474
▁Katzen~~16145
▁Brooklyn~~8639
tend~~11434
Ok~~16205
state~~8900
▁Urban~~11495
tte~~13908
▁wise~~5844
▁hated~~3247
tens~~1279
▁wish~~5253
▁eco~~9224
aron~~8756
tent~~1072
ken~~3396
▁aggreg~~5268
kei~~15688
▁Movember~~14549
▁Mama~~12966
key~~4891
▁nasty~~5980
▁impressed~~10202
kes~~6464
ker~~5187
▁Mamm~~8782
▁gif~~8707
abetes~~15274
erin~~15442
▁probability~~3325
▁trapped~~8400
▁commit~~3331
▁serves~~6401
▁anxiety~~10894
▁Like~~5677
ternet~~14604
▁North~~1750
ihad~~15246
▁Prad~~5593
▁geometric~~8069
▁perform~~1682
▁tissues~~7002
▁Pran~~14653
▁regul~~6422
▁served~~4593
▁welche~~15940
▁breathe~~5425
▁appear~~6974
▁Spen~~10961
▁las~~7504
▁simultaneously~~10810
▁lap~~9958
▁issues~~1895
▁challenge~~1546
untary~~12953
aur~~11822
▁evolve~~3956
onomic~~14066
▁mud~~3153
orie~~4651
▁effort~~2031
iny~~5878
▁Barbie~~14646
▁Ord~~13868
▁Richter~~14848
▁eats~~9226
▁fem~~14347
quis~~5210
▁flag~~4210
▁130~~2300
▁loop~~4103
▁lau~~10124
▁fed~~2819
▁fee~~6631
cent~~4665
quent~~10600
yal~~2355
▁purch~~10191
ulate~~2776
▁13,~~6632
▁trend~~3290
▁headquarters~~11922
▁smallpox~~5435
▁fer~~8205
▁flat~~4017
esents~~16294
▁few~~2226
oth~~6637
▁immer~~12372
▁Lass~~12570
▁1.5~~7595
▁collection~~10186
ickets~~7845
oto~~11438
ota~~10055
▁Nicole~~8905
ote~~3113
▁creation~~4130
pie~~7754
▁branch~~8002
▁engage~~2932
▁theoret~~8846
▁Kern~~15969
▁tomorrow~~893
▁reduction~~5511
▁destro~~13409
ots~~3826
ott~~4427
▁immen~~9975
And~~4260
▁firing~~7471
▁January~~7530
▁Once~~2938
rence~~13591
▁clar~~9552
▁Ug~~15725
▁bloss~~13110
ownt~~15356
▁input~~3905
▁doubt~~5656
▁Bonnie~~14007
▁cement~~9622
▁geschützt~~15939
▁triang~~9782
ini~~7714
▁corals~~14064
▁Virtual~~7829
▁exquis~~9018
▁piss~~10310
▁deck~~12507
▁memes~~13733
You~~3030
ibr~~12948
▁Spin~~14603
▁sick~~962
oment~~12389
▁Georgetown~~11884
pit~~11236
adows~~12083
etball~~16143
▁TB~~13944
oons~~9132
▁defe~~6196
▁slow~~1494
urable~~2129
▁TD~~15527
▁shelf~~8734
▁inmates~~7987
bein~~11886
▁Spir~~13757
ahren~~15811
▁helic~~10440
▁Guatemala~~14548
▁camera~~643
▁Saturn~~8514
▁drinking~~4049
fol~~10085
▁gotta~~8667
ieties~~12397
▁patterns~~9784
▁concentrate~~4544
],~~3649
isco~~9346
▁degree~~549
isch~~5202
rift~~15259
▁chick~~4475
▁cul~~5371
▁penal~~14208
i~~1103
▁piece~~2905
▁cub~~8527
well~~2625
sche~~15678
welt~~15323
▁cup~~9128
▁cur~~2574
ified~~2540
▁cut~~4940
/1~~10685
▁reserv~~5531
pense~~12536
▁partnership~~5436
erve~~11142
▁advances~~6868
▁grab~~621
BA~~14245
▁Pakistan~~5624
▁select~~2055
BM~~13791
▁gram~~9241
BI~~9052
▁cards~~6711
dose~~5713
onds~~12162
▁Times~~7549
▁harder~~4779
▁advanced~~3533
aning~~3198
ensive~~12740
▁narrat~~16159
ocative~~6748
▁gray~~12097
eline~~8990
Be~~8774
▁Reed~~13137
▁2011~~14932
Bl~~7872
\~~15721
▁circuit~~11971
▁Without~~3196
Br~~12243
▁col~~11897
▁facilities~~7921
▁squid~~354
imes~~5023
imer~~15419
ledge~~11131
▁capable~~2010
▁bump~~3829
▁Puber~~16063
▁spoken~~8601
imee~~15657
▁dick~~12494
▁Instrument~~14250
▁charge~~5314
▁empowering~~10875
▁smartphone~~7694
▁veh~~14626
alysis~~11165
▁engaged~~3656
▁serious~~1088
▁Democratic~~6725
▁sus~~9086
▁sur~~7314
rott~~6625
▁orders~~5908
sized~~4039
▁battery~~5938
▁capture~~6448
▁sum~~6560
▁21.~~11054
▁sun~~585
▁suc~~13762
▁sub~~386
rote~~8772
page~~11500
▁sug~~614
▁pot~~3718
▁Ik~~15652
▁pop~~4128
▁Columb~~8128
▁breath~~7039
▁pos~~12617
▁Israel~~2813
▁pedest~~12764
▁effect~~3646
▁quer~~15106
▁modern~~4600
▁successes~~9101
▁calculated~~6346
▁traces~~9703
▁pol~~4442
▁Glass~~7463
▁differently~~1872
▁immigr~~1904
▁disapp~~15511
ubs~~11348
▁wires~~5063
▁CEOs~~11567
▁Ele~~9435
▁duck~~14488
▁Mell~~3425
▁wired~~7299
▁Animation~~15057
▁thor~~14341
?~~257
▁Genome~~11028
▁cotton~~5997
▁hidden~~2789
journal~~15405
rock~~8305
Up~~4500
Um~~10469
▁Rel~~14090
▁astonishing~~3095
Un~~9164
▁observing~~3747
▁alarm~~7429
▁crushed~~5788
▁Vol~~11539
▁surpr~~12473
▁patents~~8979
▁particular~~3293
▁late~~4218
▁Its~~2520
▁separate~~4440
▁grace~~374
▁shout~~11439
US~~12650
▁Together~~10196
onder~~12278
▁thinking~~1390
▁bott~~11357
ervat~~14960
oring~~6616
uba~~14850
py~~13175
▁ignored~~12253
▁clothing~~9007
▁Tests~~15277
IDS~~14916
▁worms~~597
▁cyber~~7158
▁nets~~5518
▁factors~~970
▁Ir~~10285
▁prepare~~5816
▁seemed~~4191
▁Sein~~16188
▁interesting~~494
▁arab~~4644
▁Rule~~13995
museum~~15263
▁letting~~1094
pa~~9633
inner~~7898
▁7,000~~2761
▁Bruno~~9300
▁tested~~10848
Plan~~11780
hy~~5984
▁finished~~2587
▁Elizabeth~~2929
hr~~1363
▁running~~1112
▁hero~~2664
ht~~7449
hu~~15066
hh~~11441
▁expectations~~6305
hn~~11887
ho~~10495
▁discovering~~5177
▁bridge~~7485
itable~~11031
ha~~1950
▁cellular~~11290
▁Pear~~15745
cting~~314
▁Grow~~5645
▁Honey~~13706
▁IM~~13957
▁join~~2590
▁therefore~~6274
▁designing~~4942
▁Bion~~4386
▁agricultural~~6308
’~~7719
owing~~8570
▁random~~8809
▁Our~~1431
piece~~4783
itiv~~14290
▁nuts~~9303
▁reached~~8176
▁Stre~~14791
▁Shr~~10933
▁perspect~~13288
▁Stra~~4578
▁Nigerian~~7491
▁CL~~13953
▁excited~~3185
▁consc~~12855
▁slave~~10742
▁asthma~~8308
erie~~13583
▁overcome~~3989
▁reforms~~6306
▁astronomers~~10460
▁wind~~3131
▁wine~~3024
arre~~15687
▁Brian~~4585
acle~~2468
▁celebrating~~1433
▁strengths~~7162
▁standing~~186
▁mult~~6034
heric~~2147
▁Wor~~15225
▁wins~~7332
▁Eisen~~11871
▁environmentally~~12328
▁knock~~8868
edian~~7077
▁Gaza~~11035
▁College~~7866
▁belly~~5866
star~~5761
ocol~~14031
▁clients~~4213
ients~~11612
▁frontal~~8249
stag~~15178
▁Note~~15410
▁Maps~~11238
iente~~3987
▁Brazilian~~12407
stal~~5758
N~~3017
▁communications~~7266
▁Ther~~14405
hne~~7512
ieve~~10942
using~~5986
▁They~~265
iode~~15964
▁decades~~5529
▁biases~~13235
▁critic~~1545
▁Zer~~9696
tten~~15374
portion~~12533
▁editors~~8654
▁designs~~7195
formance~~13947
▁Them~~7091
▁Then~~3050
▁Val~~8617
▁Diabetes~~13449
▁threats~~10529
▁Research~~4325
▁share~~1599
inning~~5296
▁shark~~11685
▁Millenn~~14749
asure~~11646
▁enable~~2069
▁conduct~~3873
▁sharp~~11566
gested~~15310
ansion~~15826
▁outdoor~~3962
▁Lewis~~7003
▁morph~~5103
▁prin~~13911
▁prim~~3590
▁hypothet~~10557
aud~~10371
aug~~12250
▁exponentially~~9257
▁argues~~6757
aum~~12830
▁Sergio~~15471
pped~~4583
▁experimen~~12632
aup~~16164
aus~~7023
usive~~7375
aut~~6824
▁call~~542
▁calm~~8034
pper~~9385
uity~~8641
▁Gehry~~11462
▁squ~~1068
▁larvae~~13285
▁email~~3578
cepted~~9208
▁'50~~10845
▁Matthew~~11826
▁7,~~14442
▁approaches~~5577
▁Comic~~13855
▁whoever~~12054
▁ghost~~10900
▁pessim~~10135
▁Wurzel~~15631
velas~~2643
▁shap~~9850
▁camps~~8188
▁happened~~3054
▁body~~754
▁income~~11546
▁laid~~2135
technolog~~8805
▁Don~~3555
▁studio~~6471
▁young~~1684
▁Dod~~13574
ups~~8379
upp~~5976
▁Dog~~8821
▁libr~~13599
▁soul~~7172
force~~5387
▁breat~~7448
enth~~10978
▁students~~1709
▁Republicans~~9315
▁bubbles~~1824
ents~~546
plet~~10690
▁nein~~14195
▁bread~~7897
▁Tech~~10351
cence~~310
enty~~13629
▁Morgan~~14798
▁break~~945
▁save~~5230
▁soup~~4532
nen~~14257
nel~~5800
asil~~16218
▁trust~~1536
ned~~1890
nee~~9186
▁absence~~6316
▁expressed~~10288
▁useless~~10481
▁Collider~~14096
ney~~2733
▁zer~~12000
net~~10789
ner~~1573
▁hopes~~6226
▁sections~~3936
▁collect~~678
med~~5636
▁rats~~1272
million~~11819
▁cr~~692
mel~~5827
men~~3048
▁cy~~6022
▁catching~~6881
▁surge~~12442
otion~~1525
met~~12510
▁rate~~6730
mer~~8930
▁counts~~2024
▁cl~~704
▁co~~2098
auch~~15996
▁ch~~543
▁Galileo~~13113
▁yesterday~~4398
▁Story~~6508
▁Kong~~11499
artment~~12807
oman~~9344
▁Pent~~13968
▁Bronx~~5644
▁Eric~~3514
▁happier~~1444
omat~~8341
omas~~15887
dro~~12007
▁stands~~8364
dra~~6355
▁Natalie~~9632
▁Pittsburgh~~3426
▁traject~~6888
▁Pend~~14489
▁messy~~6025
▁concentration~~8251
▁altern~~12976
▁proced~~15296
▁physiolog~~8818
▁road~~5494
▁Francis~~9347
ippe~~7118
moral~~14910
▁tempor~~10194
org~~12390
▁Caribbean~~438
▁dialogue~~9352
tels~~10195
▁batteries~~8446
▁rebell~~10001
▁schn~~15877
antage~~1906
▁Luck~~10553
ellow~~15552
▁equals~~5747
▁infer~~5650
tell~~11666
▁whenever~~9571
▁fabulous~~10436
Ste~~9363
▁flies~~2298
lungs~~16028
▁pursuing~~8582
▁dop~~13390
wart~~14869
▁dot~~725
▁dou~~6449
▁cause~~3413
▁intentions~~3283
ivation~~4801
osp~~12585
▁dom~~11113
▁don~~418
V~~6640
warf~~8184
ward~~2627
ware~~12039
▁burden~~8433
▁dog~~4809
▁Force~~5794
rochem~~13480
oler~~14980
oles~~1984
▁delivers~~3919
äss~~15946
actly~~4316
spec~~10983
▁Dawkins~~14831
▁networks~~4815
▁beige~~7770
▁Date~~15238
▁light~~288
▁doors~~5100
▁seek~~13321
▁mixing~~8614
ikaner~~12151
neum~~15602
▁talks~~2991
▁11.~~9953
▁11-~~11963
▁11,~~11853
▁reflects~~12998
▁110~~3133
▁wort~~10183
rid~~11902
▁caves~~11555
aging~~4575
agement~~14620
▁resistance~~9944
▁indicates~~12980
quot~~15462
endent~~1504
▁dealing~~1447
▁coined~~10982
▁marvel~~5405
▁neuroscient~~8270
▁Thomas~~4172
strom~~5209
▁Doll~~16068
▁saying~~856
▁Gig~~14364
▁crow~~10307
▁Internet~~1216
ologist~~6178
▁item~~5993
▁skip~~8525
▁skin~~4961
▁toilets~~8498
▁cases~~459
▁accumulate~~6832
ove~~1427
▁Andy~~8284
▁applic~~9458
▁potent~~5474
▁crops~~2218
All~~9459
▁trials~~2439
▁Bez~~14086
ativity~~15895
third~~4541
▁interactive~~7943
▁date~~5396
▁escap~~10691
▁data~~408
think~~6532
▁conspir~~1035
▁Griff~~13844
▁escal~~4623
osaurus~~11803
▁fingers~~3713
▁closely~~5578
iences~~11880
apse~~12900
▁chop~~12198
▁Patri~~13224
opes~~9211
▁Hospital~~3774
▁convin~~15293
▁cous~~8779
▁cour~~12144
▁refuge~~14855
▁promised~~4778
▁coun~~10338
▁vivid~~7796
▁mutual~~14019
▁promises~~5952
▁luxury~~11564
ructure~~7747
▁choo~~12421
▁heritage~~7763
▁squared~~14494
▁BP~~14110
personal~~14784
▁Smart~~14566
▁assumption~~10081
,~~27
▁slip~~5807
▁Extra~~14430
▁squares~~10797
▁Vill~~15067
▁avail~~6253
pass~~10610
▁Element~~15309
oole~~14265
ises~~6029
iser~~13512
anim~~11088
▁teeth~~7370
▁speaks~~2645
▁marathon~~9883
▁Nik~~10551
▁chapters~~2329
school~~13585
ania~~14571
▁digital~~5924
▁Gore~~11709
▁Zone~~15435
crib~~13076
▁ironic~~8497
ised~~7663
one~~3840
isen~~1674
▁fatal~~6131
▁pedestrian~~13683
▁religions~~10249
▁content~~3492
bons~~10969
wend~~16018
▁counter~~7130
▁towel~~6492
▁mars~~12087
▁tower~~2288
▁cannot~~826
▁anatomy~~2382
▁Abst~~16157
▁Anyway~~4732
break~~8463
▁counted~~668
uated~~9686
side~~6798
bone~~8575
▁predator~~7376
▁slowing~~6533
▁These~~277
afel~~15639
Wow~~10099
▁operated~~14181
▁Tasmanian~~13814
▁certainly~~3189
▁Stefan~~12346
▁faint~~9068
▁pointing~~8478
▁example~~968
urers~~13861
▁achieved~~1941
▁BM~~15084
▁productive~~4676
▁chaotic~~13132
▁logarithm~~14392
▁curiosity~~3490
Ge~~15030
▁restaurants~~7103
▁assign~~7607
▁since~~1808
▁refugees~~9510
plete~~6939
umul~~5936
▁passes~~1132
▁swe~~3365
city~~7529
utch~~8519
▁things~~256
▁Babbage~~11750
▁Beijing~~9965
▁boards~~8027
▁passed~~3393
▁IDEO~~13883
▁Transition~~12428
▁users~~8573
ightened~~2903
▁unlock~~3631
▁Danny~~14535
▁identify~~5344
▁Stress~~16266
▁divided~~1839
▁Rather~~9028
iss~~10383
isp~~2865
▁colleagues~~1399
▁fellow~~5989
ist~~2345
isk~~11458
▁evol~~5880
ish~~4484
▁neural~~1338
ism~~528
isl~~10541
isc~~10238
▁wasted~~1776
▁gold~~9256
isf~~6955
ise~~2397
▁Ushah~~15799
▁Rob~~8197
syche~~14665
▁strangers~~9858
▁partly~~8715
▁pay~~1993
grade~~4360
▁models~~2258
▁par~~2499
▁adjust~~5786
▁pan~~6444
▁pal~~2548
▁daily~~4595
cher~~11701
▁pad~~5978
iling~~650
▁pac~~5374
hood~~5663
agra~~6497
▁transmitted~~8272
▁flourish~~9863
▁damaged~~9187
▁Ment~~4357
▁Modern~~10632
▁reflective~~3178
▁planted~~11207
▁smooth~~3173
▁prosper~~14154
▁edges~~8071
▁ambitious~~2046
▁accompan~~5126
▁vent~~500
▁Sich~~9674
uable~~15899
ronym~~13785
▁Ba~~4416
▁surviving~~10298
▁exposure~~8349
▁enhance~~13655
▁Slow~~6539
▁concent~~13919
▁Bo~~8757
ference~~6845
▁neuroscience~~9797
▁chemist~~2148
▁pupp~~7784
▁version~~8616
▁advoc~~9100
▁Georget~~15990
bits~~10658
▁sees~~3184
▁musical~~1321
▁shows~~1678
▁shown~~1079
▁couch~~2407
▁upset~~10131
▁seem~~3998
etten~~15750
▁seen~~84
▁guide~~5564
▁seed~~11390
▁children~~1775
▁Ireland~~7257
▁Exxon~~14111
▁symmetry~~9786
▁2012~~11117
▁textbooks~~9577
▁crowd~~10348
▁Rou~~14497
mind~~9369
▁fell~~5036
▁Kanzi~~16050
▁keen~~9336
▁aff~~8784
▁keep~~3561
▁felt~~3472
▁train~~1110
▁opp~~9415
▁nerv~~13825
▁opt~~7233
▁oven~~12568
inie~~15082
▁arch~~323
chem~~10004
▁fence~~11604
▁noticed~~3752
ighten~~12182
▁mammals~~8371
▁invented~~1723
chest~~13971
▁upward~~10207
▁definition~~773
▁Oakland~~8427
▁dinosaur~~11799
▁over~~435
▁axis~~510
▁brings~~3780
abelle~~7885
▁tune~~8533
▁Diego~~7762
▁girl~~4228
▁15,000~~2197
▁Kenya~~10720
▁Rest~~12223
▁ban~~8849
▁Resp~~10909
▁NASA~~7457
iterate~~10204
▁stroke~~3816
▁99~~5510
▁98~~7693
▁unit~~7247
▁Morton~~2137
dom~~10498
▁angles~~6680
▁ensure~~2102
▁90~~2573
m~~64
dog~~2639
▁95~~5596
▁prosec~~14230
usters~~283
▁9.~~11713
▁joke~~4800
nder~~15753
▁unim~~5084
▁unin~~4420
▁spra~~5009
▁escape~~4926
▁Prote~~11918
▁senior~~5925
▁draws~~1656
▁scal~~12629
▁Proto~~14540
ending~~1826
▁opposition~~9983
▁focusing~~8267
▁feature~~1884
thirds~~8999
▁cameras~~203
bsites~~15465
▁will~~658
▁Marathon~~14950
▁Japan~~2017
▁Fil~~10034
▁recess~~1160
▁wild~~4563
ama~~8127
▁afford~~1785
athemat~~15253
▁observations~~9821
ctors~~6272
▁Alask~~15755
▁absurd~~895
▁dial~~6414
▁Mark~~3085
wers~~12098
▁Marg~~14101
▁Amsterdam~~14823
stop~~9129
▁gene~~1113
▁transported~~4607
▁Hubble~~13128
ston~~5046
▁stressed~~9484
▁Marx~~10038
▁Mary~~11076
▁highly~~1994
▁Mart~~8781
quarters~~11285
▁sorry~~1179
▁genu~~6765
▁profession~~1848
▁relativity~~12894
▁speaker~~9331
▁soccer~~1379
child~~12538
bar~~10060
bas~~5182
▁300~~337
▁exceptions~~9887
bad~~6674
▁virt~~3636
▁Inf~~15554
▁versions~~3278
▁volume~~3988
iety~~12755
ban~~2449
▁pharm~~6741
bal~~8337
▁remind~~3436
▁bombard~~12920
▁brown~~5076
▁suic~~13551
▁like~~128
▁Indonesia~~12291
▁puber~~16064
▁bodies~~7042
▁suit~~3282
▁Apple~~10201
▁50,000~~3149
▁Problems~~11453
▁Prize~~6967
▁Business~~999
▁observe~~3824
▁FOXO~~15856
00~~8105
▁floors~~8668
▁reflect~~5881
▁renew~~13359
▁je~~5721
▁Wann~~16047
▁desperate~~6551
▁villages~~8428
▁supports~~575
▁Wang~~14145
0.~~4747
0,~~357
▁ing~~14628
omb~~7295
C~~2178
▁death~~308
▁Did~~3139
▁Die~~13793
▁personal~~1559
▁secular~~2504
omm~~14449
▁richest~~2579
oms~~2629
▁Dis~~8461
omp~~6307
adian~~10209
▁romantic~~11340
▁Neanderthals~~11016
omy~~5451
▁professor~~6057
ometown~~15802
▁spreading~~8273
uns~~11688
unt~~2797
▁myst~~9873
▁Each~~2904
▁universal~~935
▁principle~~2685
▁ultim~~10684
▁mistake~~4488
▁needle~~12301
una~~13433
ulous~~12854
und~~7350
une~~7576
▁Palm~~14427
ung~~8579
unk~~7880
▁stepped~~4911
▁encountered~~11970
▁Pale~~9698
▁lake~~7026
▁Remix~~13219
▁humble~~8561
▁Batter~~12084
▁disappearing~~7168
▁exquisite~~6223
cyclop~~13352
▁entered~~1498
▁employ~~1501
▁Band~~3236
▁poetry~~6208
▁Teen~~9314
▁rural~~2561
▁legs~~3289
▁FO~~16170
ether~~13917
▁reveals~~7359
itions~~1975
▁India~~5525
▁politically~~12477
▁contribute~~7323
sal~~13197
▁inten~~7262
ting~~3188
▁inter~~2989
▁lanes~~13124
interest~~8994
▁dolphins~~14925
▁violin~~13498
▁supern~~12882
▁2012,~~14898
▁traff~~12602
▁as~~225
▁ar~~2373
▁Ellen~~10031
▁aw~~3570
▁av~~7084
▁au~~8688
▁at~~123
CA~~5311
▁ax~~9785
▁medic~~10407
CE~~5039
▁media~~2000
▁ac~~6574
▁exactly~~1861
▁Monster~~13188
▁ag~~1988
▁af~~13582
▁Abed~~14304
▁ad~~5754
▁ak~~11363
▁Avel~~15077
▁medit~~9904
▁helps~~5778
▁an~~393
▁am~~1340
▁al~~4461
figuration~~3538
▁blown~~8196
Ch~~2341
▁Unfortunately~~5352
▁USB~~14763
Dollar~~15282
▁damage~~6488
▁argue~~2115
▁County~~11271
▁tangible~~13658
Cs~~8584
utical~~15043
▁implic~~11956
▁fo~~7365
▁marry~~10093
ix~~6119
▁plan~~4810
ustain~~13289
ip~~2873
is~~2696
ir~~2595
▁innovations~~2080
▁spot~~2387
iv~~1420
ii~~13186
ih~~11944
ik~~9323
ij~~9238
▁play~~914
il~~912
io~~2593
in~~2377
ia~~916
▁rock~~731
ic~~47
ib~~2676
▁careers~~1931
id~~1097
ig~~1155
if~~3382
▁gem~~9166
▁gel~~10373
▁geo~~12246
▁gen~~2524
▁entr~~8450
▁did~~568
▁die~~4301
▁candy~~11602
▁delighted~~10729
▁Bush~~7574
▁dil~~5205
▁Colle~~14676
▁dis~~679
▁div~~10271
emes~~12448
▁get~~197
▁crows~~10291
▁stepping~~8677
▁Instr~~3669
▁ger~~6837
ternal~~12712
▁butt~~12308
elli~~12788
ello~~13695
▁constant~~3877
▁fruit~~11049
elle~~2987
▁sque~~9221
▁GPS~~12285
elly~~4874
keley~~15295
▁presidential~~9413
kin~~5975
kil~~5250
▁drivers~~12971
▁discussed~~7542
kelet~~14097
aneous~~8501
▁investigation~~11288
▁message~~936
▁Pres~~4121
▁Pret~~15179
verage~~4404
rome~~12917
▁Prem~~11895
▁baseline~~12862
programm~~12956
800~~10870
▁viol~~7318
▁rises~~13395
▁Pred~~5366
▁electron~~10425
agon~~5867
▁parameters~~12641
▁Teszler~~16134
frast~~11587
isses~~7336
agog~~2040
▁compos~~1974
▁capability~~10405
▁Clearly~~12682
psych~~14164
human~~9173
▁claims~~5305
▁figure~~2070
▁seine~~15705
ikan~~15361
yer~~8039
▁Jeep~~12159
agos~~14851
▁detail~~1842
amour~~10924
ortun~~1770
▁builds~~2325
▁flew~~2791
▁activ~~2404
▁shoe~~11498
▁fat~~8997
▁influence~~7121
▁flex~~2423
condu~~12731
▁far~~728
▁fas~~12787
▁fal~~11252
▁fam~~11408
▁shop~~4604
▁demonstrate~~7629
▁show~~86
▁shot~~2623
▁ABC~~15049
antom~~16162
▁George~~5139
▁Save~~10747
▁advent~~11209
▁fac~~8044
opt~~10709
▁circuits~~2418
opp~~8834
▁angiogenesis~~15489
assic~~11811
ops~~2805
▁goods~~9356
opy~~7768
unting~~6776
▁airport~~4388
ope~~6182
▁club~~9159
▁Original~~15735
▁flower~~10420
▁diving~~7022
ETI~~15851
▁homes~~779
oph~~3740
▁designers~~4243
▁Sym~~3706
bro~~14702
▁Syn~~13315
▁much~~221
▁bigger~~1274
▁maneuver~~2310
▁Square~~10734
Are~~12472
uage~~9922
▁glory~~10931
Arm~~15675
▁patience~~6494
▁projected~~6303
▁underneath~~7034
▁chap~~11096
▁benef~~9078
▁char~~6695
▁cham~~14447
▁abuse~~5641
▁tagged~~5390
▁believe~~1515
▁epidemics~~10406
▁Evolution~~1246
▁carefully~~10800
▁exec~~12977
▁Qual~~13941
▁gravit~~11301
▁Rap~~14042
▁gonna~~4259
▁Absol~~15350
▁Quad~~10562
▁translate~~1701
▁prescription~~2067
▁Flag~~11152
▁beam~~7273
een~~15699
▁Another~~6286
▁approved~~9011
genöss~~15927
▁hammer~~5067
▁revel~~10063
▁sign~~3369
▁Obama~~10345
burg~~3039
▁Village~~12077
▁Schl~~16032
astic~~954
▁Schn~~15820
burn~~10688
▁Niger~~15162
apan~~14976
▁Ans~~14087
▁manifest~~913
▁pays~~5467
▁cables~~7191
▁Schw~~14346
▁traveled~~2812
▁amongst~~2091
▁disappeared~~3390
obiles~~9433
bury~~3773
▁hierarchy~~11295
▁Montana~~11804
zur~~14307
▁kids~~1056
oren~~4846
▁Cambodia~~7973
ored~~174
▁Nic~~13062
▁tuberculosis~~10778
zub~~15358
▁emotion~~3591
▁14.~~10886
oret~~14786
▁76~~6732
▁kidn~~11103
ores~~4635
▁blindness~~10067
lief~~11772
lied~~12364
▁Photosh~~8833
▁irony~~2547
ustrial~~4705
▁inside~~385
lies~~5977
stall~~14252
▁grew~~2577
▁hyperbol~~7582
▁perceived~~12210
agger~~11733
esty~~12502
imic~~16274
▁banned~~5992
▁tick~~2959
wa~~11582
imin~~2714
▁computational~~7238
▁York~~4905
▁Bull~~12598
unters~~10656
▁loads~~8112
▁Short~~2673
▁experiments~~8411
▁slope~~12143
▁appet~~2944
▁sym~~884
bert~~12903
periment~~13581
▁syn~~4920
DNA~~11003
▁tom~~9245
form~~1631
▁too~~823
▁apartments~~9479
▁Denmark~~6601
uted~~4555
kop~~15861
iture~~4903
ford~~11915
▁expert~~3883
▁toy~~3852
berg~~7849
▁agreement~~10769
▁fantast~~12640
▁Flor~~15205
▁top~~432
▁tor~~5029
▁fantasy~~2747
▁tot~~7204
▁tou~~3690
fort~~9989
ique~~10852
▁sometimes~~3996
▁attrib~~7792
▁dense~~594
iqu~~1137
▁Mount~~8164
▁nin~~5587
▁Population~~15559
ulose~~6033
▁evil~~9849
▁gab~~15680
heimer~~13776
▁transformative~~2583
▁drill~~11813
▁percentage~~1008
▁resolve~~5614
liche~~15003
▁went~~1152
▁shake~~3572
▁Techn~~11473
▁domestic~~6447
ship~~9337
▁Medicine~~10363
▁butter~~9243
▁analyzing~~13144
▁covers~~3101
▁pleasure~~4158
▁caus~~11904
▁chart~~1738
▁40,000~~429
▁primitive~~9758
▁Mehr~~15849
▁Blind~~13973
handed~~9418
▁drought~~12155
▁responsible~~8995
▁magnetic~~12723
▁whales~~5327
▁regener~~9205
▁sing~~1325
▁charm~~10463
▁harmony~~10005
▁witnessed~~2946
▁langu~~13761
▁SARS~~5515
▁protein~~6950
▁else~~1654
▁experiment~~3306
▁financial~~2112
sterdam~~16156
▁instruments~~1322
▁painful~~3243
itative~~13031
▁unpredict~~13594
▁Marshall~~8728
aware~~4742
▁cre~~5949
▁task~~3310
erves~~10611
▁fans~~3541
▁Nest~~15782
▁experiences~~2446
▁Suppose~~12945
erved~~9392
▁suburban~~12499
▁descend~~11800
▁pulled~~5830
▁idea~~149
▁experienced~~2777
▁Patent~~14525
▁airline~~14089
▁analog~~9601
▁Pilot~~15383
▁tast~~11218
▁dressed~~8212
iously~~1595
▁structure~~2058
▁bottles~~4405
▁Antarctica~~11012
▁might~~1270
▁—~~3530
▁–~~14774
▁ord~~8896
mile~~430
▁add~~3652
▁ade~~10301
▁orb~~8965
▁Seen~~10526
▁fights~~918
▁adj~~5083
seller~~11254
▁wrong~~2786
▁adm~~7535
▁journalist~~4256
▁Antar~~5328
▁Hot~~8795
▁doctor~~1429
▁How~~1046
father~~5162
▁hired~~1538
▁Hor~~11798
▁Hos~~8586
▁Hol~~7483
0~~5779
▁Hon~~2982
▁countries~~1623
▁padd~~3181
▁Hod~~7076
▁relie~~10801
▁phenomena~~11775
▁precious~~8598
▁Hob~~8758
▁practice~~1976
▁private~~3455
▁gang~~8882
▁relig~~9991
▁account~~9425
onie~~15349
▁dioxide~~12344
▁bother~~3233
uminum~~14883
▁SOPA~~15182
icted~~5743
prof~~1220
▁Philip~~11396
▁,~~7517
▁its~~1657
▁problem~~103
▁conservation~~4339
▁Jason~~468
▁4.000~~9456
▁monkeys~~8843
▁precip~~11013
▁Tier~~14281
▁Agr~~9292
itet~~15567
die~~15626
dig~~8435
▁Energy~~11187
▁Standard~~7761
iter~~10236
ites~~5211
▁Age~~6684
iten~~15090
anna~~12848
▁distant~~1635
ited~~743
▁embed~~12735
▁fastest~~13503
round~~5339
dis~~6416
riest~~12693
ville~~3986
▁academic~~2936
▁abstract~~3265
▁mammoth~~14297
▁bra~~6198
▁Harry~~9840
Test~~15352
▁tree~~8000
▁Pitts~~8786
▁Give~~1577
▁wherever~~4267
▁vacc~~5469
▁Femin~~12179
heres~~8901
▁Tibet~~7978
addy~~5670
▁stell~~15026
▁Wander~~15170
▁careful~~2053
▁mixed~~11367
▁hipp~~9761
▁Math~~12165
▁extension~~6764
▁adapted~~3856
ummer~~9025
▁convinced~~2002
▁dict~~9505
▁supercondu~~15718
▁250,000~~14672
▁sacrifice~~9112
▁openness~~1410
▁30,000~~11145
▁That~~652
apeut~~14018
▁cheese~~11371
▁Cass~~13374
rud~~6746
erm~~5290
▁mortality~~9098
▁dich~~11204
rue~~1151
▁Matt~~12384
▁detection~~8973
▁fully~~7450
box~~4098
boy~~11931
▁sensing~~8173
▁military~~2308
▁procedure~~9207
▁alert~~6491
▁Argentin~~15923
alth~~11795
my~~3010
bor~~4133
ein~~13392
bot~~8885
bou~~10044
▁Verm~~10625
bow~~10015
▁Vers~~14275
▁phone~~1213
▁specifically~~4100
bon~~765
▁unreal~~12551
▁asleep~~4877
▁Wur~~9138
bod~~13229
▁sta~~11460
▁Wald~~14729
▁lunch~~4744
elect~~12446
iana~~12825
ufact~~11403
▁Hu~~9287
▁hot~~534
▁humility~~7064
▁Wall~~9333
▁how~~236
When~~4861
▁Walk~~9833
▁hor~~9549
▁Allen~~8727
iant~~3009
▁hom~~1968
▁everywhere~~938
ians~~1026
ailing~~13496
▁Mö~~3542
▁hob~~8711
▁lies~~151
▁mentally~~5729
▁Jew~~13005
▁wake~~1586
▁diamonds~~2827
▁Lippen~~13715
pers~~9521
▁trusted~~7317
▁thin~~7259
▁Alexander~~10252
aries~~8330
▁EEG~~14302
▁Jes~~15816
▁Nerv~~16017
ays~~2278
ood~~836
▁Africa~~4001
▁flavor~~5261
oom~~5219
ool~~8566
▁frustr~~15163
oon~~5913
▁analysis~~1505
apper~~14785
ook~~4524
▁Hy~~7001
▁holding~~1051
oot~~8800
▁pleasant~~1864
▁nobody~~3358
▁Dollar~~14762
Ber~~14768
▁previously~~5407
apped~~7820
▁altered~~8471
▁Beach~~4394
▁suppress~~9358
▁teenagers~~2818
▁enabled~~4080
▁photograp~~5221
▁southern~~5590
▁thoughtful~~2738
uls~~9775
▁Taliban~~5915
▁mention~~4700
flu~~14733
▁initially~~6410
ult~~6287
ulu~~11703
ulk~~14889
▁enables~~6404
ull~~8672
making~~1357
▁1997,~~15121
ula~~4504
ulf~~507
uld~~16042
▁pass~~2620
▁Bali~~12469
mented~~1963
▁underst~~9057
▁Intuition~~15193
▁Ball~~8958
▁seal~~14296
▁exciting~~101
▁frightening~~7014
uan~~9675
▁Bald~~12793
agent~~15599
▁found~~805
▁image~~4209
▁tele~~5884
aurus~~14498
▁selected~~1247
▁tell~~70
▁rape~~10140
▁size~~1295
▁college~~5129
▁alter~~8817
▁discovered~~2584
▁policies~~1911
▁philosoph~~2526
ping~~733
▁affected~~1083
▁architect~~7194
▁Simon~~3821
▁Will~~2853
▁shift~~3917
mat~~15065
ena~~11114
▁interact~~1283
▁Wild~~8018
▁gr~~1583
▁gu~~6058
ioxid~~15795
▁desert~~9726
▁gh~~6816
▁societal~~11605
▁gl~~1384
▁go~~377
▁fantastic~~3676
▁pants~~5739
▁environment~~347
▁ge~~3546
mal~~499
▁guten~~15629
man~~3083
▁Galax~~13123
omen~~9073
▁Georgia~~11758
geb~~12808
▁Nelson~~10761
q~~9924
▁fuzzy~~12302
▁Golf~~15486
▁Alright~~6903
onders~~5395
omes~~7969
omer~~5806
▁exter~~4914
▁territory~~10724
omet~~6144
esters~~10745
▁releasing~~5075
▁Sylvia~~5252
▁Bruce~~5415
immer~~138
▁Mus~~4110
▁units~~7621
ockey~~4109
▁tracked~~12021
designer~~14829
▁target~~10843
estern~~8922
rh~~11982
▁Rad~~1633
▁mum~~11211
▁Stockholm~~5276
▁jewelry~~8581
▁vertical~~8564
▁Ram~~9931
gen~~572
▁Cyber~~12033
▁Government~~4849
ollywood~~14968
▁Ras~~9107
▁Rat~~14745
gem~~11472
▁sexual~~5653
▁mus~~7889
▁mur~~7093
▁visually~~6385
▁mut~~2816
▁organisms~~6843
▁praying~~13208
▁taught~~2033
▁skills~~1276
▁Toilet~~12742
▁coffee~~4294
beit~~12907
anson~~14085
▁larv~~15740
She~~7393
▁vacuum~~13778
iments~~859
enz~~13986
inity~~13605
▁13.~~13506
isions~~11762
▁activity~~574
▁Trick~~15698
▁breed~~7826
▁für~~15682
olit~~11894
▁acknowled~~6195
beg~~15860
ibly~~8065
ually~~4184
▁most~~38
▁EDI~~16249
▁reduce~~1955
nick~~13002
▁crossed~~11832
▁40-~~9065
agin~~8040
▁DNA~~5094
▁partner~~230
▁ende~~10783
▁Imper~~14895
▁motors~~7424
▁addition~~7496
angible~~14368
▁400~~2188
▁pushed~~1923
▁bonds~~5957
▁restore~~3760
▁talent~~1664
▁Strat~~14613
haps~~10269
ateur~~15770
▁punish~~10692
▁Keith~~12716
▁fish~~290
▁shar~~13600
▁number~~806
auce~~16069
atics~~10509
▁FreeSpeech~~16262
▁clos~~11608
G~~1456
ory~~4414
▁basis~~5342
ort~~5863
▁electronics~~10190
ors~~2815
orp~~11764
▁hometown~~10094
orn~~5724
▁metabolic~~8268
orm~~8986
ork~~10485
orf~~14802
▁basic~~1475
ord~~5841
ore~~3743
orb~~6991
▁hoped~~10162
ora~~2981
▁obsessed~~6479
▁Mich~~4255
ertain~~11749
▁sequences~~12334
▁Lugo~~16238
▁millenn~~6440
▁consent~~13521
thing~~8947
▁relation~~11120
▁Tempest~~11505
▁sadness~~10617
▁dancers~~4069
igers~~11938
▁grateful~~10261
▁genocide~~2693
▁conver~~611
▁BR~~14690
▁dele~~10921
ence~~6796
▁convey~~3913
▁maintaining~~8375
▁Dave~~65
▁everybody~~1012
▁mammal~~8839
▁worth~~2286
▁BF~~9120
▁BG~~5626
▁Somet~~15961
afen~~15116
▁BC~~10222
▁imagined~~5238
▁frequencies~~10455
▁BL~~553
.'~~9503
▁BJ~~14464
▁streets~~1698
▁profile~~8195
▁conven~~8491
▁corporations~~4660
▁Br~~7462
estand~~15167
▁replaced~~11687
▁guitar~~10503
▁By~~952
▁Sport~~12799
▁Be~~1089
▁disorder~~11590
▁coordin~~5349
▁Britain~~6774
▁slum~~2624
▁Bl~~7188
las~~7916
▁Bh~~14957
▁Bi~~8110
▁regulation~~8852
anus~~13092
▁Ven~~12659
▁commercial~~5444
ented~~8659
▁Pentagon~~13719
ighted~~9393
▁1995,~~9657
▁cruel~~4871
▁airplane~~12160
eyed~~5902
▁sensitive~~852
ighter~~5132
▁useful~~2864
▁submers~~7409
10~~11041
▁wrist~~2870
12~~12694
15~~12567
▁Hyper~~11489
▁toast~~14063
▁Fusion~~13324
▁abh~~14947
orge~~5147
▁calendar~~11087
lag~~15219
▁chief~~10103
1,~~4279
1.~~5832
lich~~14445
iform~~10210
▁Secondly~~6914
mitte~~5580
DE~~13954
▁decides~~4296
▁September~~3848
DA~~14728
▁ordinary~~2043
▁bought~~3271
▁Analy~~15412
▁collaps~~13990
DP~~14420
Do~~5720
▁Licht~~13310
agina~~15590
able~~760
▁reflected~~12486
▁time~~473
ouses~~6418
De~~9469
imon~~7669
▁profitable~~11575
▁essence~~9030
▁Inside~~8749
▁magical~~7508
▁elect~~11978
▁alike~~6206
▁Imagine~~1375
▁psychologists~~12420
Dr~~13798
▁properly~~4655
▁proteins~~5096
201~~7468
200~~8142
▁tip~~622
▁surgeon~~6122
▁tit~~8207
▁recept~~11838
track~~4381
▁Grad~~14116
▁Show~~12205
▁tid~~12703
▁tie~~6097
▁typical~~3520
▁pret~~15517
▁tin~~12591
▁apartment~~10176
ering~~6213
▁tim~~6553
▁friendship~~7890
▁interview~~6472
▁2008.~~10333
▁sheet~~3307
▁sheer~~8208
▁River~~5568
▁sheep~~4751
▁advertising~~11468
▁Johanna~~15671
stre~~11310
▁delivered~~2071
▁hybrid~~8113
▁drink~~4030
▁donated~~12748
▁Fort~~5769
▁cracks~~529
▁Benjamin~~6524
▁distingu~~13323
▁Archimedes~~14875
▁demonstrates~~2347
▁seawater~~4436
▁über~~13692
▁Barbara~~11199
▁alph~~11525
▁Banglades~~13833
▁nightmare~~5010
▁Hotels~~15918
▁demonstrated~~7552
▁stink~~12581
We~~2709
▁predators~~5375
▁peaceful~~7055
▁Pist~~11038
▁2008,~~9531
▁this~~129
▁repair~~6935
former~~12636
kilometer~~5282
raising~~9665
▁billion~~3145
▁seam~~5168
ger~~4517
▁starts~~4246
▁dictionaries~~12299
▁optim~~1908
▁concert~~9681
▁fall~~3708
▁trading~~6409
▁seaf~~14891
▁acting~~3418
▁decl~~3506
imul~~11593
▁activists~~8407
zel~~13342
ged~~4092
▁tightly~~11372
▁seat~~5027
▁Foss~~12287
▁Schizophren~~15329
▁concern~~2621
▁seas~~4337
gel~~11788
▁Shang~~15868
▁bask~~6238
▁allow~~3891
▁themes~~10616
▁Portrait~~14241
▁Transcript~~17
▁valuable~~2894
▁base~~4549
▁generic~~10866
▁Bau~~15360
decker~~16055
▁event~~4771
▁variation~~1829
▁managing~~3207
▁Jess~~14954
▁grain~~4620
▁sold~~4608
▁cattle~~6118
▁destroying~~5226
▁dece~~10433
oven~~14301
fghan~~14532
▁fried~~11368
▁abs~~5964
▁solo~~3078
uana~~15627
▁Norway~~6599
▁accomp~~14227
▁Angeles~~7090
▁legally~~13369
ency~~5124
▁hole~~7292
▁hold~~1368
rade~~5950
▁Organization~~10396
▁Grab~~3558
▁learning~~882
oved~~10188
▁including~~6030
▁commodity~~4818
gage~~3446
▁Gras~~13305
▁Lanka~~9670
rupt~~12071
▁holy~~8282
flation~~15592
▁Journalist~~6459
ima~~11101
▁cage~~8909
▁carbon~~5191
▁turt~~5258
▁ter~~8512
ju~~6854
▁curves~~12671
▁turb~~6795
▁listened~~7046
ji~~12560
tun~~12449
▁envision~~2364
je~~11411
▁generally~~3451
ja~~4417
▁turn~~1957
uty~~13754
▁ped~~2039
▁stand~~122
▁lamp~~8568
▁cathedral~~4015
▁pen~~7150
▁evolving~~9342
▁well~~820
▁per~~580
▁revenue~~11726
▁turns~~246
▁patch~~5203
▁pet~~3404
▁slaughter~~4752
holders~~1474
ignant~~13842
▁Greece~~10785
▁colony~~13181
▁conversations~~11651
▁drast~~9727
reatic~~11222
izer~~8352
izes~~6290
▁Evergl~~16179
▁conne~~15759
▁transform~~1041
▁Joel~~13280
ized~~1188
▁foundations~~2136
▁queen~~12701
▁Bridge~~12075
ately~~6421
▁spoke~~6113
▁marks~~4762
ision~~2089
▁checking~~3577
▁encounter~~10902
▁assum~~9136
▁individuals~~5220
criptions~~6361
ocal~~13524
▁garden~~5229
▁hire~~1018
ueller~~16005
mark~~1689
mart~~7915
▁Three~~7258
arte~~14913
acre~~7828
arth~~3866
▁Derek~~13817
▁recruit~~2054
▁Wend~~12191
▁Dean~~11746
▁computing~~11984
▁surgery~~6124
▁measures~~8260
▁manipulate~~8844
▁Ein~~15553
,000.~~13279
▁literature~~2931
ocampus~~9762
▁expanding~~13494
▁Eis~~12794
iversity~~15346
▁circumst~~11670
▁million~~2760
▁vehicle~~11955
^~~15792
▁Some~~2765
ivity~~3567
▁Forbes~~12566
▁cabin~~4923
▁rational~~3342
▁Ost~~14596
ilty~~10601
▁Gross~~4617
▁word~~3251
▁wore~~6021
▁showed~~4219
ifer~~14067
▁Galapagos~~5346
▁worm~~616
▁work~~898
iolog~~9064
▁getting~~463
▁Switzerland~~8548
▁ethnic~~10570
▁examples~~3412
▁eradic~~1553
▁Aer~~14203
ials~~7670
▁network~~3551
▁categories~~6940
▁RB~~15743
par~~10991
pat~~9216
▁kitchen~~7129
▁singers~~4081
▁prot~~7817
▁prov~~2088
s~~35
▁reminds~~6745
▁prom~~1524
▁prol~~10602
▁fundament~~12092
▁recognize~~3754
▁relevant~~9593
bage~~4328
▁wait~~3517
▁prof~~11259
pal~~14887
▁Republican~~9307
pan~~13410
▁prob~~7734
▁Arab~~11081
▁Dur~~10948
▁Dus~~14801
imeter~~9047
▁individual~~278
hrase~~9592
oid~~4764
appen~~15098
▁parallel~~6871
▁biology~~6915
▁Doha~~13139
olith~~7618
▁Dub~~15441
▁Dun~~9808
aughters~~9106
ois~~12132
oir~~5532
▁mother~~2486
▁mainstream~~6571
▁anecd~~9731
▁eng~~11669
▁end~~441
band~~10675
▁Susan~~9072
▁damn~~6960
▁universes~~12885
▁pursue~~1930
▁features~~7132
▁ens~~1762
▁Music~~3702
▁habe~~13024
▁ent~~3843
▁measure~~1618
▁regret~~8470
▁exercise~~1370
▁operate~~5486
▁hing~~15389
▁wouldn~~1576
▁eB~~12317
▁inqu~~12530
▁tent~~267
▁individually~~7626
▁confirm~~7351
▁tens~~460
backs~~9144
stronaut~~15971
▁terrifying~~5007
▁admit~~3025
▁wedding~~9793
▁Wy~~14621
▁participants~~12113
▁tend~~331
▁Joey~~13909
▁eg~~14137
▁Indep~~1503
▁ec~~6782
▁hundred~~548
▁injuries~~9181
▁Whereas~~6428
▁en~~3416
▁em~~752
▁el~~6214
▁ground~~744
▁neuron~~9769
▁ev~~6820
▁Tut~~8693
▁et~~7333
▁es~~8547
▁er~~563
▁ep~~7836
▁display~~2434
elihood~~6276
▁ey~~8675
▁ex~~1796
▁routine~~5770
▁reasonable~~5386
▁geograph~~7672
▁equality~~5752
mot~~10203
▁Denis~~12832
mon~~8850
▁mitt~~15370
▁Lesters~~12859
▁wished~~2589
mod~~5105
nost~~11459
▁Sufi~~14237
▁infrastructure~~5502
▁silicon~~12330
▁instance~~3750
▁comprom~~11781
▁switched~~6679
▁Republ~~15394
▁asked~~1470
▁Dick~~11397
ructive~~9917
anth~~14155
AA~~2297
▁pattern~~2405
korn~~14826
▁flowers~~4309
ingly~~57
ante~~7585
▁60,000~~8916
▁possibility~~2363
▁countryside~~4754
icism~~9056
▁Dro~~10898
▁lions~~9735
▁centers~~4683
▁Stat~~13612
▁gap~~1752
▁gas~~7049
▁gar~~5055
▁alive~~3808
▁Ocean~~5300
alem~~13394
▁sidewalk~~8692
Men~~14724
▁Schachtel~~15869
▁dug~~7509
▁due~~6328
▁cooperative~~10668
▁gad~~10155
▁cups~~8359
outh~~6180
▁dum~~10935
▁gam~~3511
▁gal~~9193
▁gan~~15685
▁Prin~~3678
▁Prim~~14204
cellen~~1797
▁Bis~~13533
▁online~~3850
olog~~10299
▁DARPA~~8886
arts~~11141
quem~~16011
▁Sydney~~13178
▁Call~~11586
▁Priv~~12057
dings~~10624
▁Operations~~11947
▁Lyn~~14843
▁Pennsylvania~~9330
▁lessons~~1798
othe~~4094
agell~~12927
AS~~12013
▁acceler~~6514
▁balance~~8515
AR~~10409
ouble~~12034
▁Soph~~12667
▁nut~~10313
▁criminals~~11954
road~~11425
▁stab~~14222
lands~~8021
▁century~~2516
▁thorough~~6882
▁psych~~5120
▁collectively~~5745
▁hills~~11805
▁excit~~10808
▁copper~~12773
▁polar~~9939
ultiv~~14173
▁integrate~~9779
ortis~~14587
▁Bal~~8776
▁Ind~~14053
▁Guardian~~12464
▁Fest~~14246
▁Inc~~9149
▁truths~~2498
▁connectome~~13306
▁Inn~~8690
▁furniture~~4907
▁clinical~~2438
▁["'~~15733
▁Santa~~7757
▁official~~3597
▁Int~~14930
▁monster~~14062
▁Ins~~11132
▁Coast~~4151
▁pairs~~7680
▁welt~~15885
▁Using~~11508
▁Histor~~12603
▁excellent~~7459
▁clip~~2232
▁litt~~14868
itation~~4471
▁Khal~~15703
▁Khan~~14817
▁insurance~~6229
▁---~~13391
▁Egyptian~~14766
▁anything~~1871
▁eigen~~15713
lder~~12574
▁weapon~~11937
▁Recycling~~14450
▁exponent~~15235
▁Pandem~~16118
▁clim~~8165
▁clin~~11166
▁swarm~~10582
▁roof~~7909
▁flexibility~~9117
▁cube~~8059
asant~~12395
ctive~~4834
▁fight~~660
▁room~~470
ember~~12413
▁root~~5135
▁dark~~36
Ah~~13172
manuel~~7567
▁mechanisms~~6830
▁Franc~~14737
▁Run~~11796
▁Kabul~~11106
▁stops~~3165
▁Charlie~~12101
▁interf~~3253
▁Julius~~13563
▁Recy~~14451
Am~~14396
▁intern~~1691
▁separ~~8372
Al~~10805
▁manage~~900
velope~~3417
▁dent~~9743
▁pound~~11378
▁dens~~5484
▁definitely~~5648
▁Quer~~15838
▁following~~3400
▁Thr~~15092
▁Thu~~3209
▁Cassini~~7963
▁unintended~~12498
▁copying~~10995
▁buttons~~12307
▁navigate~~10045
field~~4725
▁The~~89
▁insight~~7378
At~~14568
▁Community~~7865
▁lets~~3726
▁cluster~~13065
▁authority~~1547
▁NO~~14493
▁pigs~~4750
▁phones~~6609
aster~~11227
verted~~6759
▁destroyed~~6949
▁socio~~1932
asted~~4125
itches~~7193
anse~~136
▁Scient~~7438
▁corruption~~9676
tete~~15315
nitt~~12991
Yeah~~4308
▁budd~~15529
▁poem~~5951
▁unre~~9512
▁deter~~5471
▁worrying~~11661
u~~564
▁rice~~10035
▁poet~~6209
▁easiest~~3618
▁rich~~538
▁evening~~4884
▁Spirit~~15427
oral~~3217
▁antib~~11526
dollar~~3386
gu~~10161
€~~16282
zing~~4144
amera~~15284
▁Jordan~~4408
▁evaluate~~8324
▁Christ~~6740
children~~14152
▁items~~9250
ochem~~14937
ochen~~15526
▁ethanol~~12245
▁polit~~12689
▁satisf~~10158
▁amazing~~4305
▁Dutch~~3037
▁compassion~~4288
▁player~~3486
immy~~16295
▁polic~~1809
▁ecosystem~~817
▁eBay~~10708
pless~~13012
▁Extrem~~3727
▁conflict~~4169
▁played~~641
uits~~12020
▁polio~~5416
emat~~12899
▁bar~~1858
▁bas~~5234
▁bat~~702
▁your~~634
glie~~16078
▁bay~~5301
▁orange~~8842
▁seems~~3779
▁amounts~~4580
▁Secretary~~13586
▁victim~~6001
▁bab~~1105
▁bad~~1030
▁inflation~~13493
fall~~8189
▁Council~~13296
ius~~3543
▁bal~~8953
▁ever~~82
▁prisons~~7985
▁cosm~~7950
▁lists~~10556
hyd~~3116
▁chef~~1197
▁disasters~~9648
▁Bangalore~~6000
▁chem~~591
▁Jamie~~13203
iban~~16106
▁cher~~6707
▁Victor~~12305
▁cost~~3322
gor~~13626
unes~~12142
▁frequently~~12539
izzy~~14510
▁motiv~~1415
▁Within~~5505
▁immense~~9988
▁controls~~1344
▁Master~~7695
▁spectrum~~1939
ritten~~10993
burger~~11861
zero~~11264
▁controll~~3903
aque~~12902
▁genial~~7804
▁guarantee~~9576
▁gall~~8443
▁leaves~~5552
aba~~1114
abb~~11345
▁experiencing~~8265
abe~~10752
▁values~~1141
inos~~13500
abl~~13625
▁Cour~~7516
▁Isa~~14279
▁Coun~~15448
abr~~4513
abs~~2953
▁spir~~10725
▁understood~~359
▁clubs~~2568
aby~~11062
gh~~7722
▁Isn~~8804
▁arrow~~8477
itarian~~13275
K~~2569
▁negot~~7223
▁grass~~9280
▁exagger~~11491
▁South~~5362
free~~5455
▁naked~~7877
arin~~13364
▁Sieg~~13931
▁greatest~~376
▁LOL~~9602
▁taxes~~1020
▁preventing~~8348
▁venture~~2108
▁sle~~5054
▁billions~~821
▁backwards~~1404
▁Berkeley~~4910
aku~~15305
▁Improv~~12103
▁congest~~15299
stelle~~15910
▁either~~455
▁adop~~9422
▁putting~~4286
▁gestures~~7143
▁Dumm~~15813
▁stereotyp~~12167
▁threshold~~6937
▁competitive~~1258
▁song~~946
oux~~14859
ineering~~8952
armen~~14625
rical~~10820
▁fishermen~~7444
▁test~~1621
▁sons~~5751
obile~~4119
▁Bihar~~5595
nte~~15648
▁electricity~~3712
iale~~11105
aste~~9105
▁disappear~~8521
asty~~10273
▁Programm~~10706
▁Organ~~13416
brot~~14429
▁applies~~10114
ickr~~14408
▁still~~1285
▁Almost~~5418
▁Mill~~15612
▁preced~~13634
▁rigid~~6597
▁failure~~5765
ital~~928
Not~~4300
American~~8417
▁relations~~6100
▁20,000~~8144
▁ultimate~~5603
▁Fifty~~7568
uation~~11136
▁Riverside~~7864
▁Ghana~~7281
fore~~13783
▁Princeton~~7666
hour~~6595
▁Shirky~~13595
der~~4557
des~~13221
ility~~4931
▁Act~~9373
▁beaten~~8135
odox~~14034
dem~~9951
den~~164
▁Caltech~~12337
▁the~~10
▁Acc~~13173
▁emails~~6619
ded~~3335
▁Zeit~~13722
▁elderly~~10802
▁Mother~~12527
▁swimming~~7013
▁Nicholas~~8599
▁inst~~7030
▁trap~~8550
produ~~4833
▁Well~~1235
▁hugely~~9901
▁datab~~12265
▁infection~~5020
▁operating~~1039
▁inse~~7902
▁trag~~5680
▁bom~~9867
▁trad~~6388
▁hits~~3164
▁purple~~12993
stil~~8383
▁juice~~7288
▁li~~10670
ilosop~~12690
▁archite~~15962
▁burn~~2416
▁wife~~4230
stit~~3174
▁Happy~~11484
Typ~~16124
▁diox~~14995
▁Jesus~~9137
▁Lisa~~13933
Don~~9483
▁materials~~3098
▁exper~~15589
▁database~~10581
▁Gabr~~3663
▁Garden~~4795
▁Medical~~8162
▁focused~~7740
▁aging~~6755
▁talked~~5917
▁represents~~7622
▁360~~11683
▁Hang~~13190
▁fashion~~4913
â~~14193
▁athletes~~14387
▁ridic~~13320
▁European~~5273
▁Vent~~7413
▁stigma~~8626
▁create~~1019
▁Browne~~11514
iens~~14652
ient~~2335
▁vulnerable~~5345
▁telephone~~12158
indert~~15628
▁Smith~~2649
alph~~8857
iend~~13187
iene~~15873
What~~3566
cken~~15475
▁Californ~~15012
▁tuber~~15609
cked~~4938
▁slightly~~1947
▁Grace~~15247
▁philosopher~~12686
▁standards~~1672
▁hatred~~14220
▁throwing~~5914
▁Virt~~13929
▁lungs~~8274
▁suck~~7124
cket~~7684
▁such~~1637
▁Work~~8011
cker~~3931
▁RISD~~11419
▁audience~~2337
▁rockets~~11497
ement~~2718
▁Software~~14839
arian~~9263
▁fantas~~11849
▁Abraham~~11777
illin~~11547
▁each~~2222
▁neighbors~~4226
pend~~12803
▁Third~~9097
▁generation~~2362
2,~~7486
2-~~5887
2.~~6350
▁migration~~10197
▁Alfred~~10293
▁Arch~~11828
▁phenomenal~~8796
▁deliberately~~4799
roke~~7063
gthen~~14210
▁Holl~~2997
▁adoles~~6621
▁bold~~2151
▁check~~3474
▁reality~~3440
▁measuring~~1694
oke~~2799
Å~~16215
▁copy~~1981
▁Guard~~13541
▁Over~~2196
oko~~12358
▁lucky~~5456
▁relative~~988
▁mosquit~~15505
▁smaller~~782
ashed~~4236
▁Orig~~11414
▁eld~~14033
▁losses~~6378
▁shopping~~2007
▁teaching~~1847
▁Girl~~10120
▁calculating~~2265
inding~~6278
▁hadn~~5437
▁digest~~598
▁push~~5330
önen~~13975
▁continents~~866
idel~~6743
▁Dame~~13760
iden~~2869
ideo~~15541
▁fascin~~11409
mental~~2171
arded~~8382
ided~~9621
house~~6135
fish~~5320
▁glorious~~6156
▁destruction~~10090
▁brilli~~9492
▁liberty~~13897
aller~~13876
cture~~6575
orient~~14209
ider~~6081
ides~~145
▁km~~13122
▁kl~~15130
▁ko~~16077
▁binary~~2947
▁Twe~~8487
▁ke~~12455
▁kg~~9274
▁inclusive~~12757
▁Two~~686
eling~~1451
▁magnificent~~7803
▁nose~~8122
▁Kunst~~15659
▁absorb~~10456
print~~10615
pping~~1050
▁kr~~5308
▁second~~1371
ë~~15175
▁biosphere~~12908
▁desktop~~10672
ED~~12314
EG~~15145
▁comments~~4245
▁Ground~~13720
EC~~8247
▁songs~~3977
rated~~8342
▁physician~~9031
ET~~4434
holt~~16239
mma~~15543
ES~~8390
▁Charl~~13660
▁terrorism~~10766
En~~13701
▁economist~~3218
▁shipped~~13379
chnology~~3114
▁creatures~~305
omin~~10138
Ex~~1438
â~~16008
▁AG~~6975
▁extr~~7095
á~~12612
Es~~15408
Er~~16059
..."~~15716
▁Universal~~12053
ç~~12131
▁grabbed~~7057
ulture~~4839
▁Kindergarten~~16072
▁elevator~~10361
▁forgive~~12767
▁members~~2656
▁Ret~~10546
▁socially~~1284
▁excuse~~10593
Okay~~4254
kol~~15434
▁mix~~1695
▁Transformation~~16207
▁sleep~~4221
▁mit~~6944
▁mis~~5058
▁mir~~2020
▁Rez~~16298
▁durch~~15941
▁Red~~1529
▁min~~9294
▁mim~~8299
▁mil~~6905
▁interest~~3230
▁controversy~~11256
ze~~7566
▁mig~~13697
▁Rem~~10223
▁Ren~~10928
▁mid~~391
▁mic~~4085
lease~~15418
▁enc~~3286
▁dimensions~~4949
park~~14909
▁answered~~8291
▁though~~94
▁started~~566
▁properties~~11767
▁multinational~~4659
▁Trans~~10125
▁inade~~9534
ylinder~~10213
Problem~~16086
b~~888
▁noises~~8576
▁institutional~~1084
▁straightforward~~12626
orgen~~13808
▁funds~~6028
seen~~15641
▁mood~~8571
▁moon~~5154
▁enh~~8835
▁states~~5223
▁clock~~5671
▁199~~5508
▁198~~671
▁keyboard~~8606
▁193~~2653
▁associate~~2638
▁191~~10267
▁190~~6862
cept~~4842
ager~~4149
▁195~~2591
▁194~~2809
▁actor~~3420
▁accident~~4013
▁Masse~~13910
▁nonverb~~13063
▁enl~~8658
▁millimeter~~4542
zu~~13589
▁instead~~1078
▁Viol~~12418
▁documenting~~7769
zw~~9638
▁excess~~11607
▁numerous~~13497
▁divide~~2768
▁dominant~~9364
ation~~2211
▁purely~~11001
▁Ill~~6370
▁exploration~~5159
acing~~2008
Arab~~14979
▁leader~~5929
▁shed~~3642
▁farmer~~6273
▁drunk~~12491
▁shel~~5566
▁Archite~~4594
▁mobil~~10030
essp~~15836
▁prime~~9679
▁honor~~2672
▁State~~4392
▁gratitude~~12154
▁Tie~~14687
▁blur~~7642
▁sauce~~13918
▁Hur~~8440
▁based~~6225
▁Fund~~8005
esse~~14617
mosp~~2252
▁Defense~~8147
▁Sixt~~2630
▁Carter~~7913
▁Funk~~16247
▁afternoon~~6708
▁partnerships~~8793
ka~~9053
▁developed~~206
▁6,~~14822
ke~~4097
kk~~15562
▁Hong~~12350
ki~~14323
ko~~1129
kn~~11634
kl~~12676
ks~~3772
▁Bett~~12597
▁kinds~~1894
▁solutions~~1552
▁Am~~6245
kt~~10673
▁unique~~5285
ky~~7094
▁side~~294
▁enorm~~10939
▁chose~~2614
▁Ober~~12571
oots~~3982
▁dreamed~~4765
▁safer~~10417
▁depr~~1281
▁website~~6620
▁cream~~11360
▁forts~~15479
▁FI~~2475
▁bench~~1688
▁University~~3428
ooth~~11262
fine~~6185
▁FG~~15625
▁Plan~~11779
▁explosions~~2253
▁London~~2835
▁Fr~~9345
▁Intern~~14586
▁flow~~1428
▁surely~~5584
▁Apart~~12800
being~~979
▁sought~~10146
▁Fi~~11985
▁Play~~1242
▁Cambridge~~2205
▁Fl~~7725
▁unbelie~~9612
▁American~~4893
8~~4278
▁Kiribati~~14361
▁Fa~~8406
▁depression~~1405
▁Fe~~10577
▁flock~~6592
▁imm~~6813
▁kind~~259
▁king~~2538
▁küssen~~13716
▁zeit~~10636
▁fluid~~609
▁programming~~7645
▁Biom~~14940
▁anticipate~~1725
▁Sally~~14931
▁challenging~~1548
oster~~397
attle~~7721
▁imp~~2511
▁Although~~809
▁Greenland~~12674
▁informed~~9746
▁athe~~3364
▁stuck~~4117
▁volle~~15011
▁2.0~~9218
▁traditions~~9937
▁career~~1126
▁organized~~1489
▁blend~~10000
▁Kids~~1304
▁defen~~10282
▁leads~~1453
▁pumps~~10413
▁newspapers~~12313
ving~~3157
▁Freit~~15715
▁circles~~6321
▁Foundation~~4326
▁Argentina~~13880
▁theory~~3321
▁meters~~2302
fang~~13230
oreal~~10635
▁Health~~8618
▁summary~~1592
vascular~~14355
▁machines~~8946
hritis~~9170
atures~~7997
▁enemies~~4251
▁Netra~~14375
▁philosophy~~5142
▁Trust~~6744
▁urgent~~4852
▁spect~~11190
▁Walmart~~12436
▁Flex~~3863
▁mobile~~1212
ika~~9709
▁ed~~8685
▁displ~~13015
ike~~2141
▁Barrel~~14406
▁raped~~5734
iki~~14726
ikh~~12425
▁Yemen~~14547
▁compete~~6069
▁yards~~8029
▁opportunity~~2924
▁woke~~4223
▁miracles~~10887
▁honesty~~3435
anders~~5849
tempor~~13934
▁endeavor~~7665
▁come~~328
cyclopedia~~14411
▁comb~~1794
▁ages~~2013
Yes~~5385
▁Snow~~12631
▁dump~~794
▁Index~~11913
point~~4368
▁Symb~~15236
rad~~5846
▁equations~~13117
▁button~~3731
andal~~10767
▁dumb~~1232
▁topics~~2204
▁volunteer~~5999
▁Alphabet~~14545
▁dumm~~13989
▁shame~~7708
▁couple~~378
▁Denn~~15862
▁paradigm~~1935
rete~~8462
▁exists~~234
▁Similar~~14708
▁Schwarzen~~4516
▁necess~~9865
▁mining~~10851
▁submit~~7597
▁Bilder~~16054
perto~~14835
rett~~7726
▁Tur~~12365
▁pocket~~3315
▁sket~~9490
▁scared~~5188
ral~~11801
4~~2295
▁available~~3108
▁slide~~4808
▁acids~~12335
ason~~12211
gas~~6582
▁mobility~~4941
▁Wen~~15304
gan~~12546
gal~~4322
▁present~~4407
▁voices~~5534
▁spontaneous~~5049
▁bring~~481
▁tumor~~5019
▁physiology~~12842
chten~~16046
▁ignorant~~8432
▁condition~~6186
▁Sympt~~15298
▁recycled~~4446
▁tail~~6399
▁heroin~~5712
fense~~12922
▁heroic~~5499
▁Natasha~~13853
ful~~1222
▁Sag~~12347
▁Philanthrop~~15023
▁Ethanol~~15456
▁collabor~~3878
▁Whether~~2492
century~~2616
▁Minnesota~~12783
▁roofs~~12099
▁Adopt~~16113
▁Tower~~12016
▁Idee~~4971
▁Anton~~6211
▁imagine~~1373
▁imaging~~2391
▁Haiti~~9641
engu~~8775
acher~~2488
aches~~8356
eland~~10283
▁Gren~~14740
▁objective~~7794
▁revealed~~8398
itors~~10682
isted~~5658
▁Greg~~10474
itals~~8504
▁Odys~~14434
▁Grey~~6753
iends~~11163
ached~~10389
▁dangerous~~2304
▁only~~233
issance~~13300
▁Seattle~~11010
achel~~7079
▁assure~~6419
▁hopeful~~10137
itch~~4137
keys~~13282
arrhea~~12744
▁steep~~8201
esch~~12577
▁motivate~~8271
▁80%~~16270
▁replace~~6995
▁Flow~~15536
▁integrated~~4984
stel~~14352
▁surveillance~~8895
▁Cohen~~12018
laden~~15793
▁communication~~3004
ppe~~11022
▁PRI~~12027
▁Nam~~6767
y~~1313
amps~~11071
▁advers~~11229
▁joined~~2275
▁wide~~2202
▁unhappy~~1029
▁glau~~14380
▁native~~12206
▁necessary~~6317
▁trips~~11127
▁illegal~~11573
▁Kampf~~15398
izations~~11146
▁without~~1374
▁contemporary~~4909
▁controversial~~11257
▁girlfriend~~13071
ultur~~11066
▁deserve~~5560
cus~~9174
iation~~5864
cup~~8448
▁Rabb~~12576
▁center~~1896
▁Rus~~16043
source~~11512
▁Duke~~7751
uche~~16230
▁Amer~~11024
▁flight~~2157
cul~~10442
▁schizophren~~12781
app~~5732
izational~~5956
bin~~13377
ield~~3096
iele~~16212
▁harvesting~~12135
Did~~10362
▁Emb~~14700
inson~~13100
ype~~12957
▁angry~~5701
▁genius~~2027
▁ridge~~428
▁photo~~8102
bit~~8237
▁Emp~~7338
bir~~8333
▁preserved~~8104
▁ann~~2559
fron~~10356
▁Norweg~~11224
▁ank~~13577
▁photograph~~5031
▁realization~~7360
▁intensive~~5119
▁anc~~15906
▁Pollen~~16000
▁constructed~~7525
api~~14623
▁Watson~~12979
inction~~14285
▁anx~~10475
▁any~~87
▁ant~~1136
▁oxy~~15890
▁arbitrary~~12309
wir~~272
▁globalization~~10143
▁Mont~~10591
aution~~5185
▁maybe~~1389
▁gaps~~10569
▁glac~~7009
▁Sack~~15269
back~~3447
▁Sach~~14966
▁prototyp~~13657
▁announced~~6352
▁insect~~8883
rimin~~10867
gypt~~13423
scale~~5404
▁leopard~~13693
▁attempts~~14082
per~~1630
pes~~8192
pel~~14134
pen~~11150
Her~~15148
ped~~4269
▁natur~~14248
▁Dig~~10972
▁disabilities~~3776
▁arrive~~6856
ively~~2379
icro~~13266
▁realize~~2042
oes~~160
▁infra~~8023
▁cheap~~6722
▁phenomenon~~5052
▁bone~~9732
▁bond~~3588
O~~3466
▁Wright~~13847
▁acts~~3094
▁mensch~~15778
▁terms~~1649
uft~~16284
▁PISA~~1620
uff~~711
Qa~~14853
okus~~12834
▁searching~~5557
▁err~~10086
▁clever~~6828
▁senten~~13044
&~~9619
ications~~6315
▁checks~~5785
▁erg~~9115
▁ere~~6665
▁Passage~~12663
▁era~~7109
▁compar~~1642
▁Minister~~9291
▁treated~~5306
omatic~~12482
▁sometime~~6142
inea~~13949
▁fortunately~~5380
▁fisheries~~5321
al~~1059
▁despite~~1011
▁conditions~~2787
▁creature~~248
idge~~4983
gments~~14024
Speech~~16060
▁incons~~12462
▁iP~~14639
▁Carolina~~3040
▁Cornell~~11691
▁Quite~~2808
▁dress~~9822
▁in~~9
▁im~~4192
▁scale~~295
▁ic~~9420
essions~~11625
▁if~~527
▁travels~~9980
▁id~~1206
▁boys~~5637
eten~~10372
▁is~~53
▁ir~~5521
Come~~10510
▁correlation~~1292
▁camel~~8829
▁it~~88
gert~~15239
aner~~16248
▁Peps~~16109
▁changing~~2116
▁SETI~~14336
▁platform~~6443
ccoli~~12202
emin~~6426
▁travel~~4289
▁Parliament~~6785
ines~~26
▁famously~~4713
▁printer~~13415
▁columns~~8079
▁enfor~~9831
chron~~12351
neys~~545
▁anthrop~~10687
▁Geld~~13925
▁pride~~3489
▁authorities~~9527
▁laughed~~6589
▁Design~~3204
▁predicted~~11375
▁Parks~~15763
▁fluct~~13525
▁Diana~~10840
ationally~~1692
engineering~~6932
cure~~7903
▁vision~~2613
MED~~16277
▁division~~8041
▁Pharm~~14837
lyn~~13755
ateral~~13839
▁investigate~~6512
ansen~~8214
Mar~~8914
%~~13473
▁download~~3800
▁reconstru~~9649
eller~~14541
▁mos~~9978
▁mor~~9848
▁mot~~1440
▁mov~~13703
irty~~13713
▁Saudi~~14399
▁mom~~8540
▁mol~~11686
Mag~~15814
▁mon~~5158
▁accomplished~~10377
irts~~4768
▁spends~~1862
▁mod~~5090
Man~~7489
▁Zu~~15189
▁equilibrium~~9600
Med~~14765
▁600~~514
▁intrins~~12387
▁shifting~~6685
ervation~~903
ynam~~8963
fraid~~15640
▁press~~425
▁Insulin~~13456
▁dur~~3240
▁sake~~8489
▁Kepler~~13501
▁moms~~11339
▁widespread~~9728
▁Titan~~7966
▁corrid~~11092
wards~~2090
▁noise~~7417
▁gay~~9900
▁upon~~4985
heim~~12795
▁Hybrid~~15484
▁important~~977
▁Abs~~15665
▁intense~~4242
igur~~13882
▁determined~~8998
▁Mosk~~16108
▁practically~~10889
▁iPods~~9022
▁season~~2646
▁sooner~~5690
▁achieve~~1801
ado~~14575
▁determines~~9751
▁Most~~115
▁guar~~8871
▁ultimately~~1608
▁theater~~1376
mitten~~15147
▁Khalid~~16191
▁our~~322
▁culturally~~12524
▁Tattoo~~12161
igens~~9200
▁scientists~~415
atsch~~15414
▁dependence~~9750
▁champions~~3042
vasive~~14705
▁allows~~2399
oute~~15702
▁Atlantic~~436
▁1,3~~12704
▁Judith~~13606
moud~~15870
sage~~15342
▁prior~~5244
▁Start~~5008
▁Farmer~~15201
▁Full~~7863
▁receptor~~14013
▁devil~~10511
lter~~15896
▁transpar~~13386
▁coastal~~11017
▁rains~~6354
▁experience~~2457
▁sense~~978
▁Da~~12183
▁upload~~9399
▁De~~2594
ilde~~15859
▁economy~~930
▁schaden~~15585
▁Do~~3239
▁Dr~~7389
▁Du~~14431
vely~~9839
▁attempt~~7044
velt~~11560
▁sched~~11654
▁DD~~15371
▁DG~~360
▁DH~~9118
▁DI~~13340
▁DJ~~4975
▁correctly~~3317
▁DM~~9403
ening~~11631
▁DR~~6719
▁orientation~~11387
▁Walter~~13097
▁DV~~14170
▁phen~~13360
▁organ~~751
▁scientist~~8295
igent~~11901
▁ZK~~12719
body~~4261
▁cat~~1240
ration~~6172
▁mostly~~171
▁cap~~8503
▁kill~~1104
▁car~~2256
▁visiting~~6056
▁hug~~7170
▁cheaper~~9480
▁video~~21
▁caf~~12771
▁anonym~~12105
▁sharing~~3790
▁cam~~11847
▁cal~~4650
▁can~~365
▁obesity~~8316
▁aliens~~12904
▁Namibia~~11133
▁Alle~~13507
▁disabled~~11603
30~~4741
▁trium~~15211
cers~~8583
3,~~7469
▁breakfast~~7592
▁deadly~~9270
▁rect~~10572
▁synchron~~10915
▁archive~~8518
▁planes~~10552
▁colored~~1816
▁recy~~9610
▁rece~~6380
▁diagnose~~10414
▁first~~335
▁curren~~11722
▁combat~~5831
▁rain~~7853
▁communic~~7267
▁denial~~6173
▁reck~~13345
▁bed~~2682
▁bee~~9240
▁bef~~14578
▁beg~~7699
che~~4522
acement~~8355
▁attraction~~11097
▁bel~~5189
osion~~4646
▁ben~~8449
▁beh~~12833
chn~~15690
cho~~8780
▁bet~~5420
▁abund~~9283
imeters~~4540
▁depressed~~12954
▁comment~~2597
▁house~~3003
Fi~~8604
Fl~~10472
▁bez~~14371
▁human~~833
▁back~~484
kun~~15710
▁narrow~~2225
▁delight~~2679
▁period~~3469
▁knife~~2409
▁verse~~12589
▁miner~~11742
▁Intel~~13951
▁smiling~~3573
▁Inter~~2168
▁spider~~12725
▁disciplines~~7561
▁lens~~9311
▁wealth~~1843
▁premise~~5538
▁feeding~~4597
▁eval~~11135
▁testoster~~8338
▁Amate~~14417
weil~~15473
oses~~10426
▁rolled~~6008
f~~1223
alia~~14710
alie~~10794
alif~~7116
▁aside~~11343
ognitive~~14479
▁cook~~4609
▁cool~~1309
▁Pacific~~443
▁paint~~3152
unate~~14788
▁Op~~7201
▁Yorker~~4045
▁analyzed~~3945
▁Eduardo~~15515
▁Institut~~15916
▁vort~~16122
bere~~15844
▁overwhelming~~6227
afi~~11850
▁Heil~~15393
▁abroad~~5750
afe~~6412
aff~~7546
holds~~5523
,000~~2402
▁picture~~495
▁begin~~321
forest~~13274
aft~~11219
▁Maryland~~12522
afr~~14752
▁2002,~~4892
klav~~16012
▁funny~~777
▁take~~105
▁long~~253
▁Tanz~~10853
▁pricing~~11700
▁introduced~~9038
▁meals~~4592
▁authors~~7173
▁sensit~~15764
agh~~14331
▁Tank~~15852
▁Point~~9360
ressed~~9941
ression~~9067
▁randomness~~8088
bing~~7498
lines~~2161
ffer~~15447
▁beast~~7380
▁thing~~561
▁Thirty~~3550
▁Handel~~16228
▁think~~104
igarette~~4485
▁becoming~~6080
▁Bombe~~16251
ature~~7081
▁arms~~944
▁Base~~11533
meter~~7443
▁Adam~~3858
ality~~1511
▁feelings~~5692
▁Rog~~15265
▁Supern~~16196
▁Bass~~14008
▁Bast~~2138
▁Ok~~13465
▁swamp~~12089
▁catastrophe~~10083
▁Bern~~14118
▁supply~~6254
ld~~6537
le~~1253
▁overwhel~~12951
la~~4418
▁personality~~3833
ll~~285
esser~~15395
itar~~16023
▁appreciate~~11214
▁cliff~~452
▁philosophical~~6562
lt~~4729
▁surplus~~6085
ls~~11515
Na~~11154
▁council~~12456
ly~~1073
▁'9~~9720
▁'8~~12792
▁habits~~7169
▁funded~~7492
dam~~3056
Ne~~8702
▁vegetables~~4789
▁Darwinian~~8806
▁chemotherapy~~10943
hlen~~15934
▁positive~~1048
▁beat~~9876
▁bear~~6336
day~~9723
▁Isaac~~12382
▁requ~~9085
▁Ens~~13737
ulating~~3783
▁Keller~~14926
▁father~~2602
▁pretty~~1299
▁library~~8722
▁calend~~12847
▁impulse~~9896
▁federal~~1899
aters~~5368
fare~~13398
▁strateg~~6434
▁uncle~~13105
▁condu~~7499
▁Fut~~8404
▁EM~~14882
▁Rover~~11029
▁outer~~5388
▁CPU~~15208
▁Absolutely~~14271
▁underest~~6921
▁whatever~~3992
rey~~6752
▁hotel~~6737
▁Gand~~12615
res~~2525
rep~~3092
▁virtually~~5309
▁Zucker~~13422
rew~~3257
ret~~7256
▁highlight~~4947
▁wives~~6014
mate~~11572
ren~~5916
cious~~13621
rel~~2939
rem~~13470
reg~~8327
red~~2022
ree~~2899
▁Carol~~4588
▁Est~~10750
▁vocabulary~~4925
▁Neu~~15347
▁Nev~~15453
▁New~~4044
▁demonstration~~3136
▁standard~~1145
▁This~~60
ires~~5489
▁criter~~15667
▁brush~~12933
que~~4095
▁Neg~~14635
iper~~8281
▁successfully~~7066
▁all~~96
NN~~15902
esented~~12172
▁literacy~~9971
bern~~15573
▁Term~~9372
▁sage~~13866
▁trace~~4448
▁Terr~~11267
▁societies~~1970
▁next~~1237
▁journalism~~13607
▁intensity~~3241
▁track~~3067
▁split~~9485
▁shelter~~8456
▁holds~~5133
▁Watt~~13490
▁Sioux~~15980
▁industries~~14140
▁renov~~8671
▁tricks~~10419
▁Fundament~~6861
▁Laufen~~15588
▁mouths~~2792
itively~~13504
▁tricky~~13151
▁talented~~2095
▁accelerating~~12974
▁rising~~4631
▁Club~~7477
▁complex~~2876
▁frustrated~~10130
▁iconic~~2465
▁Mrs~~10281
▁winner~~7335
▁thick~~3148
▁wash~~5965
▁wasn~~1907
▁adding~~9220
▁util~~11111
▁Romant~~4160
▁hungry~~4633
▁attacked~~2371
ller~~14354
▁Learning~~7555
▁Si~~15999
achter~~15321
▁hyper~~3657
hel~~11431
▁AIMS~~15596
ogn~~14040
▁Sk~~10319
udd~~11876
ude~~2990
oge~~15020
ammad~~13838
▁false~~5537
▁delivering~~11899
mechan~~15264
▁Su~~10756
▁TEDTalks~~11535
NS~~15302
▁lawyer~~1999
▁Berg~~15624
▁automobile~~4115
izon~~15326
▁exploring~~7402
▁tar~~10862
▁octopus~~12930
▁encourage~~1543
▁CEO~~8587
▁Turk~~8539
▁dates~~7099
augh~~14255
▁Sp~~1825
▁looked~~1647
Pat~~13948
iday~~8689
▁represent~~3837
▁happ~~10482
▁Autom~~4118
rache~~15603
▁dreams~~4880
▁frustrating~~9736
ovae~~14337
▁roads~~4692
▁drawing~~4334
▁op~~2433
▁ner~~8578
▁or~~125
▁net~~420
iste~~15101
▁ow~~6095
min~~4193
▁oy~~4701
▁ox~~7137
▁Tanzania~~10775
▁Young~~9313
▁Peru~~9255
ists~~1316
▁Oliver~~3737
▁Pers~~10231
▁of~~32
▁oh~~4993
▁shine~~496
▁across~~437
▁om~~11379
mit~~793
▁on~~156
▁rede~~5661
utan~~14079
▁upd~~7961
omme~~16160
▁revenues~~14381
▁Mahmoud~~15485
▁expected~~5699
▁hackers~~13777
▁ups~~13609
▁exploit~~5173
witz~~13538
▁amput~~15498
ommy~~11725
▁deaths~~12531
▁Ethiopia~~6235
▁Vul~~15696
▁SC~~7942
▁sudden~~3303
gather~~12840
▁Jim~~2912
▁cloth~~5981
▁expl~~13087
ossible~~9148
▁port~~4720
▁Astronom~~12949
▁strategic~~10531
▁stress~~4299
antast~~14901
text~~11776
▁anesthesia~~12745
▁tuna~~7244
▁ELA~~16044
▁rhythm~~881
▁Greeks~~10630
▁entreprene~~16165
▁longevity~~6913
▁genuine~~6899
▁front~~284
▁meditation~~13430
▁Wolfram~~13799
▁minority~~7527
▁Rit~~13223
▁blank~~4973
▁controlled~~1225
▁circle~~7905
controll~~13988
▁Vision~~11759
▁maintain~~4568
▁Rio~~2644
▁tips~~6505
▁keeps~~5625
▁Ric~~11480
isha~~11276
akes~~159
aker~~2552
▁reform~~6310
▁tru~~5490
▁Proz~~15039
beat~~8258
▁bush~~12255
▁try~~771
▁Prov~~10053
▁Prop~~14933
▁Prom~~12450
bean~~4615
▁Guinea~~10962
▁risky~~2156
▁tre~~5370
aked~~6634
▁recorded~~3971
▁Prof~~8794
▁tro~~10434
aken~~7381
▁broken~~1021
▁immers~~8467
▁contrast~~3385
organ~~10721
▁homeless~~8623
rage~~6433
▁gras~~14357
▁discussion~~3886
▁commonly~~8297
▁simpl~~8052
oliath~~8888
esthesia~~14725
erem~~11053
▁Learn~~899
▁greater~~457
▁along~~526
▁alone~~1611
▁brain~~1294
▁duty~~5245
▁masses~~3683
▁Galvao~~15957
▁DVD~~2565
▁Boliv~~13834
▁partners~~480
▁weird~~1462
vania~~15749
▁actually~~366
ammer~~14927
▁notes~~4016
▁Maria~~4518
blatt~~12895
▁genoc~~12747
▁prostate~~8378
▁1930~~11045
ammed~~6641
yright~~9354
apor~~12275
anium~~7502
vation~~6260
ington~~11737
▁string~~3814
▁type~~556
▁obst~~15606
▁belief~~2009
▁antibiotics~~6874
▁secondary~~5600
▁engineering~~3896
belie~~1034
▁moments~~6535
อร่อย~~7488
▁mutations~~6942
▁dare~~11844
▁absolutely~~5130
▁Geist~~15930
▁Archim~~14609
▁nonprofit~~9390
▁Robo~~13970
isible~~10772
▁rout~~4599
▁court~~10906
▁Ryan~~7603
enaissance~~6550
▁Kra~~7379
▁saving~~8222
▁Tam~~15227
▁buying~~4772
▁Kre~~14794
ationale~~9879
▁purposes~~412
▁artifacts~~2796
▁indigen~~14503
Design~~14761
▁blink~~5617
▁automat~~12752
▁blind~~6330
▁gentlemen~~5598
vent~~3630
▁independently~~8745
▁Jh~~11169
▁interc~~9794
▁tonight~~6146
▁Je~~10479
antages~~9215
ohn~~12789
▁Ja~~12146
▁Bio~~10400
▁option~~7640
▁]~~15157
▁Kore~~1854
▁deta~~16193
▁Ju~~12619
▁Korn~~15487
▁dete~~9043
▁JL~~16138
iges~~11875
iger~~8831
▁Lesterland~~12857
ounted~~7464
▁JC~~12019
▁JA~~15287
vors~~13051
▁Mode~~15978
▁collaborators~~3884
▁retina~~11994
▁vegetable~~4814
ah~~2849
rump~~15894
igen~~12128
▁conversation~~5850
▁JP~~13959
▁erzielen~~15954
▁rates~~798
rition~~6302
▁Yellow~~1742
▁default~~6693
▁humanity~~6259
▁ums~~16240
am~~2248
▁metal~~4373
▁design~~3904
▁earth~~4612
▁range~~431
▁chimp~~9752
cor~~3192
▁metap~~15601
▁cybercr~~13985
▁pict~~14624
▁became~~2674
▁argument~~6802
▁unconscious~~13034
▁poor~~701
▁Monterey~~12941
▁friend~~4273
▁orchestra~~3675
How~~5697
▁contents~~10622
imination~~6769
agan~~12130
▁positions~~7534
defin~~2942
▁informal~~14174
ograph~~7171
▁arrest~~11957
au~~6536
IT~~11888
▁pool~~1665
▁expecting~~9489
uit~~3697
▁single~~1164
eries~~14994
▁movements~~3940
▁aspir~~2600
▁verb~~7368
unction~~5065
av~~6210
▁impacts~~12664
▁Rica~~5336
▁survey~~3370
▁Freud~~10812
▁Poet~~13096
▁defin~~9555
▁Rich~~12088
▁reag~~15597
▁read~~3351
▁Rick~~12758
entle~~12711
ilities~~11112
)~~3974
▁reveal~~7800
▁helping~~2420
▁Image~~15226
▁companies~~6230
▁Costa~~5335
▁distinguish~~9008
oint~~13554
▁Cor~~8010
▁desperately~~5556
▁chimpanzee~~9741
atural~~11327
▁Cop~~9353
▁conferen~~15503
▁apparently~~8244
iox~~15886
▁vehicles~~7410
▁MIT~~3372
ios~~4986
ior~~4915
▁Pant~~14849
iop~~14771
ion~~2255
▁Saf~~11110
aking~~4224
▁leaders~~1530
elos~~15751
▁drive~~472
▁finally~~5178
▁snow~~7982
ferences~~5885
▁consequence~~7528
▁melting~~4369
▁Sac~~12770
▁facts~~1031
▁traum~~12905
:"~~14121
ious~~920
▁bele~~15569
▁wood~~7703
▁refriger~~3378
▁coin~~7594
▁Sal~~10718
position~~11194
con~~4841
usual~~12588
▁believes~~6460
▁2000,~~1883
abad~~13927
▁2000.~~1873
▁preparation~~8187
▁Col~~8076
▁nutrients~~11376
▁Pretty~~8908
▁believed~~6121
▁route~~6653
▁Cost~~6161
▁made~~304
▁remember~~1130
adv~~1905
▁Sau~~11200
adt~~16244
▁multi~~3479
ads~~3802
▁Sat~~14432
▁IMF~~13900
▁glue~~8574
ady~~7782
add~~987
ade~~2652
▁protect~~5150
ada~~5043
▁Rights~~10116
▁towards~~2725
ought~~11359
▁hack~~14266
▁even~~93
▁speech~~1239
▁attend~~7511
▁boun~~3105
▁skilled~~1995
▁meant~~2606
icit~~6435
▁serve~~2878
icip~~12120
▁autistic~~8311
▁Engel~~15874
▁personalities~~3759
▁heroes~~5500
like~~7144
▁beaut~~14273
▁LED~~12341
▁Holocaust~~13539
iesen~~15741
▁nam~~14656
bane~~14598
iza~~14050
athy~~7339
▁illnesses~~13205
soft~~14329
ulse~~15780
▁worried~~2542
▁Mitchell~~7575
▁Got~~8770
▁willingness~~9111
▁voc~~10919
▁performing~~1690
▁von~~10976
▁turning~~6262
▁vom~~7050
ivals~~12616
▁Gor~~15344
▁attacks~~10275
▁Pinker~~13730
▁warming~~8430
▁man~~3796
▁staying~~6878
▁Desert~~12137
ogram~~8974
▁voy~~217
▁re~~625
ess~~6458
▁ra~~2558
▁ro~~396
▁rh~~5549
▁characteristic~~6772
ese~~1252
▁platforms~~7407
esc~~10365
esa~~14129
▁gift~~6101
▁multipl~~8001
ogen~~2432
active~~7455
esh~~5594
leton~~14002
▁Propaganda~~14036
▁libraries~~7971
▁Ushahidi~~14750
annes~~7532
ident~~6839
ashion~~12982
▁Audio~~15183
▁Amy~~6714
anner~~9099
▁mail~~7133
▁shouldn~~1108
▁Amb~~4844
worthy~~10710
▁musician~~12369
▁autonomy~~8903
▁appeared~~2834
▁review~~2187
asten~~15695
▁legacy~~3807
ateg~~12961
▁cleaning~~4577
andem~~13872
andel~~3810
▁received~~3028
▁taking~~2155
▁expose~~9740
ander~~5854
stitute~~10998
▁space~~343
▁segment~~8101
▁dramatic~~552
▁Internets~~9322
!"~~6649
▁intersection~~12095
▁officials~~9526
▁Zimmer~~16255
App~~13961
▁Inform~~16103
▁symbol~~7786
▁Thanksgiving~~11638
eing~~13849
▁march~~5851
▁importance~~2612
▁resilient~~55
▁opposed~~6994
▁Science~~7630
bees~~13270
sequent~~9885
▁myth~~5155
▁Gall~~5
raft~~14961
annel~~14303
▁fruits~~6280
▁confused~~10594
imony~~10111
bur~~7839
ills~~7577
brand~~10224
▁other~~299
but~~13192
▁pause~~7812
▁helpful~~2926
▁hunting~~11019
▁collecting~~10311
bul~~13293
▁viruses~~5442
▁spirit~~7550
▁pencil~~3402
▁Finland~~1748
ially~~6561
▁names~~2588
wise~~7328
▁Long~~4393
j~~5145
▁Synth~~12267
▁odd~~11350
▁Sher~~5962
▁named~~3498
▁August~~9530
sein~~13446
seil~~13991
▁fra~~6791
▁fre~~6633
▁software~~3722
▁Div~~12584
▁Lego~~12649
▁Wars~~3540
pid~~12916
▁1.3~~6731
▁fro~~8236
▁treat~~1189
▁transparency~~1477
▁snake~~5865
vable~~6201
▁Warn~~15989
▁celebr~~10272
▁Next~~9134
▁Plast~~4362
▁Ware~~8664
eper~~4496
▁utop~~15060
▁providing~~414
▁responsibility~~3889
▁Greek~~3822
oac~~11877
▁penalty~~11855
▁swing~~13086
▁Lawrence~~9304
40~~4264
▁Syria~~14806
4.~~9195
4,~~3005
4-~~14691
▁homosex~~9986
illa~~9909
▁wrest~~3509
umbled~~8240
▁uniform~~6864
▁institutions~~6318
otrans~~8934
▁shared~~2452
aginas~~15917
▁Susie~~15883
▁thanks~~3861
▁transit~~12513
▁distorted~~3441
▁shares~~2478
ube~~8507
▁Hoff~~8116
▁StoryCorps~~16200
ubl~~13179
▁teenager~~8543
▁jung~~14896
▁interface~~2388
▁intact~~3980
▁thousands~~461
▁catastrophic~~13329
▁motivation~~7495
▁Jonathan~~10418
▁Somalia~~5492
▁highway~~6655
‘~~15834
”~~7723
“~~16242
▁Albert~~7710
▁species~~669
▁compet~~10681
iddle~~13472
erne~~14718
▁trop~~5472
▁She~~1131
▁trou~~10010
▁Cola~~14919
▁encouraged~~6557
▁adults~~1057
inary~~4803
▁produce~~2219
▁contributed~~2154
▁Feynman~~12989
ders~~4990
▁contem~~14471
▁dimin~~8735
dern~~6466
▁vocab~~15660
▁Turns~~3356
▁product~~720
usted~~6294
embererana~~15920
▁vocal~~10816
▁Bonobo~~16049
▁my~~241
▁Inst~~14030
▁spending~~1837
▁mo~~1659
under~~7852
▁transition~~12261
▁me~~689
▁Inse~~9227
▁Trag~~12709
▁ma~~2868
@~~10716
▁worlds~~5148
▁hemisphere~~11806
▁rarely~~4603
▁Teller~~11422
omon~~13426
▁implant~~13210
▁climbers~~4991
▁Jerusalem~~10226
▁DAR~~13952
▁president~~4537
▁Guten~~14948
rist~~12403
▁Hit~~14071
neur~~15881
▁terrorists~~12049
▁Joh~~7531
▁unbe~~9993
▁Jon~~5434
▁discipl~~3949
▁Optim~~15423
▁continent~~5302
▁Job~~13665
embly~~11085
▁Take~~7061
venue~~11996
atlant~~11928
▁couldn~~319
▁cle~~13439
▁pops~~9572
▁Joy~~12892
uten~~14827
▁growth~~1339
Go~~5805
▁Alber~~12273
Gl~~14077
oming~~5334
▁effects~~3733
▁major~~1949
▁itself~~237
▁Brun~~15192
▁least~~1853
▁domin~~5646
▁Rod~~8792
▁Roh~~16070
▁1960,~~11537
▁Ron~~4187
▁oldest~~9700
▁Ros~~10793
▁linear~~5079
▁origins~~10963
▁Row~~13628
▁Rot~~3055
▁credit~~7354
▁Roy~~13575
▁participation~~7395
▁gallery~~4155
ustainable~~4663
▁manual~~10855
▁Cold~~11930
▁hung~~2284
▁memor~~1143
apses~~13311
▁Str~~11048
ain~~5559
esome~~3607
▁hunt~~1286
▁Stef~~14813
ograp~~12079
▁theme~~9644
▁obsession~~9578
▁Hindu~~10949
▁abst~~15005
lers~~12409
▁calories~~4649
▁shy~~3876
▁Kibera~~13253
stitu~~12052
▁arose~~13514
▁shr~~8473
▁filling~~7702
▁football~~1380
▁documentary~~2744
▁Magazine~~4348
ften~~14131
▁galaxies~~7952
▁she~~2474
▁Forum~~11280
▁Fried~~12190
▁USA~~4653
▁less~~1706
▁religion~~1307
Ze~~16114
▁benefits~~1004
iminal~~14971
▁torn~~10016
▁topic~~2186
▁lesb~~9948
▁Nobel~~6249
▁gradually~~10992
▁sequencing~~5441
ointed~~11418
▁Venezuela~~14807
offs~~7355
▁emerged~~6123
imme~~14808
▁fought~~6149
ts~~612
▁emerges~~8894
▁earthquake~~9659
▁Moon~~7960
▁Fahren~~7019
▁upright~~9702
▁dispar~~1787
▁warmer~~12665
▁banking~~5829
▁Conne~~14340
▁Marke~~16227
▁price~~1789
▁interpretation~~3672
assen~~15880
asses~~12399
asser~~14313
▁sanitation~~11124
▁extreme~~645
▁minds~~2413
▁accepted~~7349
▁sticking~~11242
ifically~~7653
▁succeeded~~5428
▁iceberg~~3701
▁cognitive~~6999
▁job~~1251
phony~~885
▁method~~3263
phone~~7418
▁lust~~9923
▁joy~~421
▁workplace~~1386
▁53~~10221
▁fuel~~9437
▁52~~8723
me~~6469
▁succeed~~2019
te~~1423
ma~~532
onia~~9994
onic~~2415
mm~~7490
▁profound~~2582
mo~~6465
mi~~6077
▁plug~~7255
▁anniversary~~13860
▁stre~~11530
▁insist~~6176
mp~~10825
ms~~1806
▁choices~~2004
▁plus~~4302
ta~~12274
▁enormous~~2257
▁8,000~~8209
▁recht~~15938
▁drawings~~9496
▁genetic~~1361
▁oppos~~10024
▁elsewhere~~1676
▁speed~~2637
▁He~~619
▁past~~2032
▁international~~1641
▁drove~~4766
ium~~6429
▁58~~7859
▁Hi~~2353
▁capitalism~~10165
▁suicide~~9866
end~~4036
ene~~4432
eng~~10912
iance~~2084
enk~~14377
▁birthday~~2604
enn~~3694
▁ceremony~~9626
gets~~10156
ens~~5367
ent~~3093
▁phil~~10447
aching~~955
▁insulin~~11878
ocken~~13915
▁shorter~~6980
▁combined~~4052
▁HI~~14415
aments~~718
▁ridiculous~~1231
▁Solly~~13691
▁chicken~~8334
▁Schne~~14527
▁prosth~~11967
▁convicted~~11854
▁ign~~1532
▁campaign~~2276
▁honest~~3008
▁5.~~9156
rians~~10278
▁languages~~2523
▁filmed~~12104
▁balanced~~9397
▁countless~~8115
amil~~192
amin~~4897
▁Computers~~6870
amie~~13216
▁Aristotle~~12386
▁observed~~7689
▁Partner~~12234
▁203~~13290
▁202~~9289
▁201~~9812
▁200~~336
▁biochem~~3589
▁20.~~13466
▁electrical~~3281
▁20,~~3651
▁recyc~~13478
enter~~3273
▁finishing~~5606
▁Spanish~~8508
▁healing~~6567
▁observer~~10892
▁cas~~12046
vity~~346
▁maximum~~11007
▁interpre~~10831
▁Athe~~15855
over~~3625
oves~~3138
▁nicely~~10318
▁delicate~~12853
▁Apoll~~15621
▁Development~~10119
pression~~1077
▁skill~~3592
▁Symbol~~15985
▁molecule~~2159
▁working~~244
▁dorm~~7857
acities~~10147
imb~~6055
ime~~3383
▁hormones~~8377
▁bin~~12545
▁bio~~163
imi~~9251
cle~~3197
▁chances~~1766
▁Fall~~11585
imm~~6155
▁cancers~~6136
Here~~9733
▁big~~133
imp~~2915
▁Programme~~15807
▁shocking~~12543
issions~~7536
400~~8712
▁bip~~11382
▁Linux~~10702
▁bir~~1362
▁bis~~8350
▁bit~~3228
▁riding~~8509
CHA~~15136
▁anger~~5647
▁Orient~~14485
▁Rift~~12281
▁lights~~312
▁eff~~15436
▁farmers~~6236
▁Jill~~12238
▁microb~~11743
▁lectures~~8013
▁angel~~14698
▁Social~~1061
▁awe~~2633
utely~~12376
▁amaz~~687
aler~~15493
ales~~2269
▁compassionate~~7324
alen~~3842
▁dirty~~6667
▁Fantast~~13823
aled~~8767
▁occupy~~9987
▁Goliath~~12778
▁workers~~1172
▁bubble~~1817
▁2006,~~5240
▁domain~~6083
▁Tal~~8898
▁Comp~~4945
▁bell~~10920
▁divorce~~6031
▁nat~~14944
▁ought~~6793
▁Wood~~477
▁Come~~8696
zte~~14952
▁Comm~~3353
▁Winter~~14194
▁encry~~12036
▁graduate~~7547
▁voted~~11068
atories~~14100
ancers~~15137
▁assets~~1190
",~~14075
▁cardiac~~9039
▁sectors~~11063
▁device~~7136
▁Dete~~13041
▁Building~~7092
▁English~~2994
▁bowl~~3337
▁tags~~12108
▁Spring~~8402
icke~~9219
▁voting~~12826
ied~~2207
▁grasp~~2545
▁scary~~8541
ever~~8720
▁pregnancy~~8376
formation~~10665
W~~2882
▁secondly~~8704
▁Agent~~14563
nie~~15196
▁intriguing~~7514
icks~~4472
▁athle~~1422
▁equipped~~8213
▁behav~~1040
▁Kind~~12797
▁King~~10336
▁scenario~~4974
utes~~9714
▁samples~~4531
onte~~16161
▁skeletal~~14207
▁Babies~~1055
onto~~15378
▁necessarily~~6936
rane~~10237
rand~~12897
É~~15385
▁sending~~3575
▁Gut~~13228
▁Ane~~14959
rank~~14426
▁Gur~~4298
▁geomet~~10819
rant~~1781
▁accept~~1791
rans~~11900
nis~~12759
▁Premier~~10754
▁microsc~~10869
▁achiev~~13723
▁eastern~~4736
▁Virginia~~10350
▁pl~~837
ê~~2985
é~~6456
▁po~~3901
▁ph~~5307
í~~12610
▁during~~3020
▁odds~~9151
▁pe~~383
top~~4784
à~~14671
▁namely~~6762
▁race~~1306
▁matched~~9401
ä~~15897
ú~~15921
▁Psych~~10815
ø~~14938
ton~~2920
▁comfortable~~6363
▁sal~~4645
auber~~10471
▁independence~~2662
ñ~~2209
▁pr~~1154
ô~~15818
▁beer~~1571
▁bees~~10428
▁beet~~15142
▁contra~~9537
▁climbed~~10765
▁studying~~3260
▁pressure~~577
▁beef~~8822
▁93~~13502
▁asks~~3959
▁been~~83
▁islands~~14054
▁captain~~5322
▁acknowledge~~10814
essor~~12877
▁farming~~4788
▁choosing~~2689
▁wa~~13283
▁Input~~13782
▁BMW~~9426
ology~~4928
▁compare~~9470
opolit~~14107
▁incent~~7661
▁sap~~11812
rag~~3171
▁tragic~~5224
fashion~~11576
rab~~11825
▁neurons~~6996
▁angels~~13180
ran~~4197
▁enem~~6570
▁halluc~~10787
ram~~10467
▁aerodynam~~14480
rah~~10259
▁91~~12109
rat~~8798
ible~~5931
ras~~3667
▁Small~~4543
ray~~4908
▁Nad~~7983
▁products~~4347
▁Nag~~9660
▁significant~~5247
▁Association~~6106
▁Nan~~14499
-~~296
▁Naj~~15519
oriented~~12981
▁individ~~15367
▁1999~~11075
▁significantly~~8414
▁Nar~~13239
▁1993~~11815
▁Chor~~15144
▁1991~~7842
▁1990~~1667
▁epidemic~~5749
▁1996~~8166
▁1995~~11258
▁1994~~14363
▁magazines~~8663
▁Yves~~8534
though~~15623
bst~~10936
▁Egypt~~4693
▁97~~10547
äum~~15944
▁different~~255
▁phosphorus~~14045
▁inherently~~8959
illance~~15903
▁bizarre~~54
▁stones~~12289
▁local~~5111
▁Ist~~13886
▁noisy~~4068
ully~~11706
▁wr~~12878
▁achievement~~2937
▁Noah~~14872
▁96~~12030
flow~~13604
▁fract~~13158
▁infectious~~9450
▁soft~~10126
R~~2245
▁recession~~11693
▁off~~734
▁fold~~8053
▁folk~~9997
▁prefer~~7112
rupted~~2572
▁boundaries~~2522
▁biomed~~9054
▁investing~~1846
▁gains~~12500
▁Cous~~15843
▁1,2~~15925
▁scenes~~2466
▁CIA~~11920
▁health~~975
▁invitation~~8486
▁formation~~12011
asis~~7989
▁seemingly~~6165
▁Tai~~14975
▁Soviet~~8120
▁assembly~~10152
▁knowledge~~1082
och~~3500
ock~~2713
▁Vancouver~~9811
oca~~15168
▁crash~~6990
▁Cartoons~~14888
▁Kö~~15797
▁networking~~10393
opter~~11829
habilitation~~16235
▁Right~~6170
▁Should~~7494
▁businesses~~1010
▁Polit~~12129
▁etc~~4012
▁fathers~~13746
▁Shin~~14153
uate~~8496
▁eth~~13029
fluid~~10412
▁Democ~~9368
▁half~~434
▁Only~~4361
aught~~4564
▁patients~~2443
▁Polio~~5417
▁hall~~6036
▁Kid~~2450
angers~~11466
▁trip~~7122
▁triv~~13362
▁considered~~5163
▁Botswana~~14915
▁Kim~~10462
▁Kil~~13922
▁inform~~8968
▁Beck~~8216
▁trib~~12901
titudes~~11205
▁trig~~11883
▁Kir~~9666
▁diagram~~6927
▁engines~~11482
oenix~~15783
▁popul~~11338
▁historic~~10246
▁Se~~4319
ducing~~12431
▁Sa~~13888
▁Sc~~4027
▁sustained~~2100
▁Sm~~2247
▁Sl~~8644
▁So~~518
▁inject~~2368
▁nah~~15123
▁Sh~~3086
Per~~2770
▁finance~~10548
resist~~10408
▁St~~3544
▁Sw~~7302
▁nap~~5974
▁stealing~~3334
▁nar~~10888
inu~~14648
▁devoted~~3634
▁Sy~~15403
▁disrupt~~13182
habil~~6690
mut~~8091
▁Lagos~~14900
▁SA~~14597
mus~~6699
▁SB~~14298
▁SM~~14263
▁SL~~13269
▁SO~~12320
▁SI~~12331
▁Stephen~~7298
▁SJ~~12730
▁SU~~8899
▁ST~~12487
▁attract~~2093
▁matches~~9790
▁SP~~7633
▁SS~~13308
▁SR~~14088
ishn~~13434
mun~~14715
▁pale~~9704
▁recognizes~~10824
▁procedures~~13522
▁toward~~3288
▁Definition~~14884
▁situation~~3299
▁usual~~6515
eli~~12001
▁recognized~~5291
bes~~13613
istine~~10904
▁Sier~~15551
▁Normal~~14299
▁Norman~~12249
umen~~11898
▁pandem~~14647
Gay~~15051
▁Phoenix~~12509
▁scientifically~~13150
▁actual~~3568
▁Redwood~~15399
▁logging~~13295
▁200,000~~5281
orte~~15661
▁Miss~~11568
▁viewer~~11437
▁41~~13454
▁clouds~~7850
▁mat~~11002
▁mas~~14226
▁mar~~6326
▁map~~4706
▁Zealand~~5323
▁woods~~13017
▁may~~814
▁mag~~531
▁mad~~5700
▁consumption~~2005
stens~~14591
▁translation~~12627
▁setting~~551
▁mam~~15068
▁mal~~6300
▁mak~~14790
▁thermal~~4380
▁nerve~~5073
▁inequality~~12466
▁chunk~~6476
cohol~~14169
▁observ~~13133
▁completely~~844
▁rubber~~8607
▁NA~~12044
▁dating~~7214
▁balloon~~12017
▁backyard~~7910
▁buff~~8823
board~~2782
▁parasite~~13837
▁prediction~~10432
▁microscopic~~8083
appiness~~6243
▁laund~~11577
iums~~14102
hythm~~13841
▁together~~280
▁Route~~11739
craft~~13652
▁constantly~~5389
▁reputation~~11741
▁democ~~15294
▁gasoline~~12975
kton~~4527
▁senses~~10817
▁agre~~9421
▁NI~~11995
▁Bono~~9371
▁tort~~3471
▁Volk~~14779
▁Detroit~~11470
▁Bond~~14812
n~~2745
▁migrate~~10144
▁forest~~4139
▁gorgeous~~11042
anten~~14292
▁Jung~~11761
▁elements~~5087
▁June~~5586
▁stored~~8522
▁Less~~9305
▁Suther~~11637
▁Misch~~15472
▁twin~~9161
▁enough~~691
▁explosion~~6549
▁stores~~8444
▁conclude~~10381
▁Hipp~~10863
▁skys~~9520
▁dropping~~11014
▁Hund~~4477
▁honored~~8736
▁legislation~~9424
▁symmetrical~~8595
▁Stone~~7105
▁locations~~5890
▁awkward~~2666
▁believing~~4953
▁his~~368
▁outbreak~~9269
"]~~11588
▁Anti~~12870
▁Anth~~15286
▁opportun~~15046
▁Ide~~11974
▁sculpt~~8064
▁Spiegel~~12042
▁Arthur~~12590
▁outc~~6411
▁bathroom~~5685
"-~~14528
".~~3741
erneath~~14482
▁Clear~~10835
schen~~9125
▁called~~469
legen~~13734
▁frog~~8020
scher~~11412
▁nonetheless~~6529
"?~~8944
▁meaning~~1610
▁Manipulation~~16257
":~~12434
cycle~~5257
▁simulate~~11917
▁bitten~~15548
▁kidding~~7435
▁Method~~13442
▁pollen~~10421
▁lobe~~8250
▁organic~~2229
mother~~12528
▁bitter~~1879
▁orth~~9176
iche~~8811
▁graphic~~3944
▁interior~~4916
▁Nu~~14454
▁whereas~~10868
▁weight~~2231
▁involve~~6933
▁Ny~~14026
▁1500~~13184
▁launch~~5288
▁Cambod~~7974
▁Italy~~6138
▁Na~~12186
▁repet~~4138
▁Ne~~1589
ption~~565
▁Free~~8697
▁appe~~10153
▁Ni~~2208
▁No~~855
▁chemical~~491
▁Lester~~12858
▁NR~~14404
▁lion~~8832
▁Negroponte~~8600
ell~~326
▁outs~~11912
▁NY~~12831
elf~~6257
eld~~8863
ele~~11157
rien~~15285
ely~~3728
▁NG~~11026
els~~2221
▁vitamin~~5516
▁acres~~13287
elt~~4372
▁NM~~15507
▁meter~~3146
D~~2224
▁Hung~~1964
unter~~10626
▁Ath~~8220
bands~~7911
fast~~12684
unted~~13549
owntown~~15143
▁Att~~14911
▁western~~7995
▁engaging~~9580
▁paraly~~13007
ige~~12644
vir~~7831
herent~~2099
▁emotional~~1354
▁comes~~878
▁eure~~13819
▁naive~~4307
▁summ~~8171
50~~4843
specific~~13459
5,~~6675
▁Russia~~5446
▁Johnson~~7419
ained~~12148
hung~~16265
▁ste~~5901
ushed~~2837
▁politics~~7198
vit~~11636
▁Catholic~~9663
▁Server~~13980
▁efficiency~~6403
▁stim~~11658
▁participating~~2934
▁powered~~6393
▁opportunities~~1782
▁surviv~~2866
▁December~~9623
HO~~2244
▁returning~~14515
HC~~16096
▁shortly~~10357
adies~~14615
ick~~1435
▁Heads~~3972
ich~~4291
▁execut~~11624
▁bow~~6024
▁bot~~8884
imulation~~15301
▁box~~98
▁boy~~2774
ice~~2424
umer~~13787
▁violent~~39
icy~~7115
5.~~6852
▁particle~~10584
ics~~3976
▁invisible~~7426
Ha~~1162
cially~~9091
▁boo~~12180
▁landscapes~~224
He~~1166
iled~~2729
core~~3725
-4~~14520
corn~~11659
▁Olympic~~13143
ilet~~15446
▁population~~595
▁Arkansas~~12821
iler~~4894
iles~~4217
rent~~10714
ths~~10304
▁Whenever~~9153
▁schol~~6098
▁Ident~~14231
▁golden~~11226
▁aug~~7808
▁Wikipedia~~9327
▁aud~~8108
ights~~177
▁inhabit~~8819
▁Lust~~16132
plus~~2189
▁value~~974
▁medicine~~1430
▁aut~~1391
▁undergra~~3379
abet~~13460
aha~~12226
▁nucle~~8877
▁Vietnam~~5843
▁Southern~~5299
▁viral~~9586
▁irrit~~3007
▁2004,~~6397
ianist~~3744
▁2004.~~3043
ahn~~14215
▁glasses~~6096
ahl~~2856
two~~11550
ahr~~13623
▁Francisco~~2199
fers~~10854
fert~~13705
aben~~15445
abel~~8726
▁live~~340
▁Cool~~12212
▁depend~~6751
▁Murray~~12090
▁master~~7602
▁beloved~~9642
▁oblig~~9444
▁sticks~~5693
▁appl~~10370
▁Taylor~~9481
▁Therefore~~7320
▁sticky~~10446
▁Avenue~~8453
▁Jacqu~~12708
gie~~7110
uador~~12559
awa~~9690
▁double~~1943
lage~~2737
Amer~~14117
▁correct~~3036
head~~5295
▁sensor~~8961
▁bags~~4523
otal~~13567
▁hunter~~10659
▁launched~~5372
▁adopted~~7142
hear~~3069
inas~~12601
▁imple~~15689
▁Stewart~~2688
▁Katrina~~13544
▁ball~~4113
atts~~12237
▁Vegas~~9475
osystem~~13710
▁Panz~~13742
▁Andre~~1612
▁quo~~7636
▁Ministry~~14312
atte~~11260
▁zoo~~4495
union~~14191
▁silk~~12153
▁percept~~14099
▁cutting~~3203
▁que~~9998
▁reactor~~13469
Com~~15499
▁Rivers~~15096
▁unbelievable~~795
▁concepts~~9497
▁peers~~10316
▁bald~~7356
▁wants~~3797
▁188~~12208
▁realm~~7951
▁Schrö~~11193
▁heavily~~11325
ni~~3505
▁vi~~14836
▁vo~~10922
▁tackle~~2528
no~~9380
tit~~2742
na~~10641
nd~~8591
ne~~2844
whel~~14161
ng~~8437
▁glimpse~~2149
ny~~4188
▁International~~4896
▁185~~7856
▁wheels~~7907
▁elbow~~5048
techn~~14423
nt~~4980
–~~13149
tic~~9573
iction~~5293
▁bor~~8764
▁Air~~5793
▁adopt~~5357
▁Check~~9582
▁panel~~7760
aceutical~~14838
▁sensors~~492
▁ton~~12563
ico~~13008
▁candidates~~10645
▁sensory~~5092
▁surfaces~~8054
▁Prime~~9677
▁democracy~~2647
▁chalk~~12325
▁Kevin~~4827
▁intervention~~6846
▁Moore~~4318
▁18.~~14746
▁overall~~8082
▁Ray~~11738
▁Channel~~7387
itat~~13938
cellent~~3563
ica~~1049
lly~~10748
rok~~3762
rol~~8385
rom~~3501
ron~~2451
▁station~~7240
rob~~6853
roc~~10376
▁journey~~2784
▁wireless~~13195
rog~~4845
Mart~~14500
lli~~14084
▁arrang~~6012
umes~~10438
▁reconstruct~~7741
rop~~4444
▁waves~~142
lla~~3104
ros~~3193
rot~~8742
rou~~2975
lle~~4848
row~~4142
▁Non~~11070
▁settle~~4672
▁Eur~~10967
Hi~~7156
▁client~~4214
▁Jacques~~14370
▁Nov~~11731
▁Now~~623
▁Not~~571
▁Nor~~13414
▁depart~~5858
Saharan~~7970
▁recommen~~8991
▁stages~~5284
kle~~13453
▁illusions~~11831
pected~~9087
▁refrigerator~~13851
▁label~~4776
▁limit~~2134
▁promising~~3073
fahr~~15936
li~~14473
▁Canada~~1749
▁CRISPR~~16174
▁safely~~12702
▁technolog~~11476
▁Stanley~~5755
level~~10172
▁tool~~4805
▁bon~~10435
▁Text~~13336
▁Lady~~7650
▁took~~1704
▁eaten~~4610
▁Beethoven~~12838
▁down~~266
▁sail~~2814
▁Sarah~~13550
ict~~7180
▁said~~213
▁reviews~~2750
▁representative~~6105
▁trees~~1135
▁freed~~9391
det~~13251
ymph~~9077
▁autom~~9432
▁Pearl~~8139
▁thousand~~2184
▁Rang~~14144
prom~~10037
▁propose~~3079
port~~5085
▁autism~~8310
▁Dys~~13766
▁loose~~8138
▁Ach~~15076
erstand~~10057
▁narr~~8466
▁Bergen~~16087
▁autor~~15908
▁doll~~10106
ollen~~11333
▁fighting~~6207
▁concerns~~12067
▁special~~195
yond~~11215
▁simplicity~~11792
▁nano~~3099
▁deepest~~8517
water~~5376
lu~~13057
▁classroom~~2096
▁earthqu~~158
ply~~10740
▁hand~~648
▁hang~~7475
tention~~1314
▁Nacht~~14401
▁vote~~4175
▁Fot~~16225
pecially~~10858
▁For~~1336
▁Produ~~9629
ivalent~~6922
▁consumers~~11682
ple~~7999
▁Fox~~12790
▁Rand~~13764
▁activate~~5097
▁gotten~~586
▁implemented~~2104
▁Beat~~3714
▁non~~2334
▁follow~~1210
hst~~14333
▁exclusive~~4185
▁nob~~12710
▁jihad~~15245
▁site~~813
▁Tyr~~8292
▁hanging~~5710
▁Typ~~12540
▁Qu~~1434
iveness~~7275
▁now~~489
▁not~~85
▁nor~~2952
urally~~6293
▁nowadays~~11225
ande~~12133
anda~~7300
celand~~14020
▁worldwide~~5509
iley~~14594
▁Christop~~16223
▁Industrial~~1180
▁Langley~~11921
▁management~~5014
abbat~~14316
pret~~5059
▁Asthma~~14576
▁Merk~~15863
ands~~3668
▁Until~~10309
rior~~14502
▁decrease~~2442
These~~6482
▁electrodes~~2390
erson~~12062
▁connectivity~~8455
▁handed~~6002
▁synth~~3789
▁gravity~~11300
enten~~14004
▁insp~~6386
▁Seine~~12798
matic~~9977
▁assuming~~9946
▁coming~~451
ceed~~13213
▁myself~~3077
▁rainforests~~169
▁Zimb~~15044
irable~~6513
▁depends~~2030
▁years~~816
▁burned~~3232
▁v~~43
▁u~~3648
▁t~~144
▁s~~176
▁r~~154
stream~~2370
▁p~~784
illed~~1177
▁article~~6503
▁Demonstr~~15509
▁z~~1208
▁compromise~~1800
▁x~~7659
▁g~~602
▁f~~2500
<pad>~~0
▁d~~269
▁c~~2804
▁b~~1173
▁a~~189
▁o~~1490
▁n~~2473
▁m~~315
▁l~~263
▁k~~1099
▁j~~325
▁starting~~1009
▁h~~2836
▁W~~3081
▁V~~746
▁U~~1615
▁T~~1150
▁S~~1465
▁R~~1268
▁Q~~9518
▁their~~381
▁bro~~2628
▁pathways~~2061
▁[~~2998
▁Z~~9985
▁Y~~3660
▁X~~306
▁G~~512
▁F~~516
▁E~~980
▁D~~1296
▁C~~560
▁B~~2292
▁A~~583
▁cares~~9554
▁O~~868
▁N~~876
▁M~~2651
▁L~~1566
▁K~~1277
▁J~~4064
▁I~~63
▁H~~478
▁7~~7484
▁6~~1024
▁5~~6851
▁4~~2144
▁3~~2421
▁2~~5886
▁folks~~5686
▁0~~13763
▁contrad~~13233
▁recognition~~7361
▁stunning~~7920
▁:~~4573
▁9~~6733
▁8~~1736
▁'~~2711
▁"~~214
▁lyr~~3975
▁.~~3223
▁-~~10837
▁performance~~1739
▁July~~6351
▁mess~~4014
▁circumstances~~5550
cod~~13484
inners~~9332
▁buildings~~5706
▁White~~8072
uters~~2261
kel~~15800
opic~~8419
▁passion~~2889
▁Half~~4379
▁Hall~~3958
▁sexually~~12479
▁disaster~~880
esen~~7269
▁simul~~15006
▁unten~~8799
▁Che~~4709
orter~~5633
orten~~14272
▁system~~600
aber~~16010
orted~~10838
▁Chr~~2414
ech~~9598
▁nearby~~8445
aper~~10501
▁9/1~~8140
▁conscience~~10731
▁blow~~2241
▁fand~~15992
ahe~~14654
▁tongue~~9167
▁revolution~~943
▁occurs~~12925
▁Survey~~12827
▁USDA~~11329
▁little~~287
▁blog~~9605
▁'90~~1669
▁sculpture~~9440
apel~~15422
oted~~5181
▁Peter~~2376
▁please~~7073
▁surrounding~~4548
▁Hollywood~~2532
▁must~~1401
▁loud~~2863
aro~~13923
▁globe~~5439
▁Enceladus~~13077
▁hydro~~497
▁disor~~11926
fern~~15081
▁deliver~~1761
tern~~6538
term~~3704
name~~14244
▁structures~~604
ahs~~8679
▁impact~~1767
▁oxytocin~~3586
▁Kath~~8276
▁Methan~~14833
▁mushroom~~13492
tery~~11060
▁strength~~2110
▁hallucinations~~10791
tert~~14622
ters~~3604
▁Personal~~7686
▁Ly~~13371
▁disorders~~8312
▁currency~~10182
▁Lu~~9708
▁Shanghai~~1745
▁couples~~6591
▁Interestingly~~8314
▁Lo~~9838
▁La~~4026
▁Le~~6133
▁slides~~3531
▁click~~7676
▁cin~~15653
▁ice~~3191
profit~~6345
▁employees~~1507
▁cig~~11486
▁Eleanor~~10041
▁corrupt~~12058
ruck~~9640
▁ingenuity~~11562
▁sitting~~789
▁array~~9780
▁Schach~~13598
▁civ~~13412
unch~~1567
▁recycle~~4363
▁LG~~10003
▁beautifully~~11322
▁Arm~~11935
▁soldier~~4285
▁Darwin~~10431
▁stood~~3419
▁Are~~6661
▁Papa~~16137
▁Mat~~4616
erent~~13879
One~~10180
ension~~11840
▁chasing~~6078
▁institution~~7615
▁Art~~7152
ptions~~741
▁good~~1250
▁producers~~11353
▁exped~~7433
grad~~7519
ancer~~14777
▁west~~4153
amma~~9041
plane~~14797
place~~5297
▁manufacturing~~8613
▁inhib~~6929
▁scri~~14254
▁Singer~~4857
▁causing~~5527
▁Cont~~11570
▁conqu~~6212
mor~~13535
▁Talks~~12438
▁Johnny~~5708
iffen~~14175
▁notions~~9919
acity~~14179
▁chimpanzees~~9715
▁choose~~2578
▁Pool~~14524
▁smile~~9982
▁Cy~~13483
ial~~275
ian~~1194
▁layers~~7724
iac~~10937
oids~~8228
Lie~~16099
▁devast~~9544
▁educational~~2117
mosph~~15025
cted~~6666
▁Sup~~16199
iat~~6835
ias~~11074
iar~~193
▁lady~~7781
▁cogn~~1350
▁6,000~~10181
iose~~12697
▁color~~949
▁colon~~274
▁bridges~~11447
gin~~6327
▁about~~110
▁lovely~~8880
▁landed~~5826
▁Elisabeth~~15176
▁protection~~5198
▁ask~~1877
▁Boom~~5815
▁labeled~~12316
▁Under~~12357
▁textbook~~9545
▁Mak~~13846
▁Book~~8716
▁finding~~6454
r~~1394
▁asp~~5033
▁ass~~2214
▁efforts~~7917
▁ast~~7211
and~~1953
ane~~2893
▁strands~~12575
ang~~270
rene~~2228
ana~~7414
reng~~15576
anc~~4689
▁newsp~~12582
▁mirrors~~13243
pro~~5040
▁nearly~~2758
▁began~~1897
ani~~9957
ank~~2910
ant~~20
▁scales~~897
▁harbor~~12063
▁culture~~973
▁depending~~7283
▁combine~~9265
ans~~870
▁antibiot~~13089
▁Nathan~~13485
▁Mutter~~14078
any~~6017
anz~~5948
▁November~~11857
▁Sub~~10398
▁annoy~~3006
▁Sue~~14372
quarium~~14059
druck~~15975
▁mysteries~~12213
▁memory~~3784
▁parachute~~5768
▁hasn~~1973
▁Singapore~~1746
▁deeply~~6563
▁would~~537
▁RNG~~16260
▁brothers~~5540
▁paper~~2160
▁tact~~5582
▁seeing~~501
ming~~10157
▁tack~~2741
Good~~9845
▁prohib~~11580
arot~~15833
▁hast~~10266
▁milit~~4699
icon~~11464
▁continued~~1666
▁trigger~~7434
▁tries~~6928
▁merit~~14531
▁Prest~~13136
▁rivers~~5274
▁Press~~14393
▁projects~~3279
▁attributes~~13176
▁wavel~~7249
▁divers~~11724
▁authentic~~4180
▁tried~~769
▁gives~~3946
▁intra~~11614
▁bacterium~~9558
▁vir~~9150
▁vis~~8081
▁mouse~~6908
▁vacation~~2317
▁training~~5771
▁intro~~11510
arez~~14990
▁Whatever~~1518
▁vie~~10923
▁via~~7268
▁PIPA~~14852
▁given~~232
umines~~12929
▁tr~~4936
▁accum~~4384
▁tw~~5657
▁Tes~~12437
▁Philosop~~13026
gevity~~6886
▁ta~~14171
▁Real~~9446
wood~~1134
▁te~~7436
▁Peer~~13864
▁Nature~~1259
▁th~~3512
osse~~15177
▁records~~100
▁metals~~13475
▁Regel~~15945
▁delay~~5817
▁to~~30
▁Malaria~~13614
heast~~3041
▁trajectory~~5225
▁lifel~~7707
▁enjoying~~9239
H~~2690
▁machine~~2670
nell~~15252
▁Oak~~13111
nels~~13246
▁regularly~~11125
pendence~~13997
▁Tim~~11962
▁file~~12037
▁lifes~~6988
brit~~14680
▁lifet~~13976
▁Ronald~~9319
▁Andro~~11398
▁contained~~4566
▁engineers~~7287
▁course~~1978
▁Word~~8785
▁curve~~4951
▁Prior~~12692
▁lips~~10587
▁emergent~~13157
▁container~~9693
▁RO~~7421
▁optical~~7406
schatz~~12003
▁dishes~~4356
▁blogging~~10755
▁Ultra~~3090
▁gro~~1426
▁disg~~12607
▁dise~~15878
▁gre~~11520
▁dish~~5101
▁gra~~2119
ables~~4981
▁application~~7809
▁diss~~2872
▁metaphor~~3902
ablen~~14440
▁dist~~4780
▁Mandela~~10762
▁occasion~~2601
▁there~~141
▁pills~~2408
▁advantage~~1255
ways~~4351
▁therm~~7745
amen~~12222
▁hierarch~~11383
▁table~~3333
▁likelihood~~12417
roots~~12873
▁consequences~~4493
▁bag~~10179
▁teenage~~2617
▁compelling~~10052
▁RS~~14864
▁renewable~~12439
▁obe~~15111
▁Cong~~10364
▁public~~1891
▁closed~~3526
▁obl~~10799
comp~~2260
▁suggesting~~5355
▁obt~~11247
▁reading~~997
▁closer~~780
▁obs~~9009
▁moment~~286
20~~2181
come~~7563
istry~~9295
▁Feld~~15292
▁largest~~2194
▁String~~15616
▁estimates~~12402
▁Video~~3781
▁manuscript~~9082
▁green~~1744
▁Swedish~~10739
▁ahead~~1652
▁estimated~~4625
▁artific~~13314
▁communicate~~3703
▁Jama~~12220
▁fly~~427
▁marijuana~~11527
▁flu~~5514
6,~~2296
pos~~4114
6.~~4028
▁flo~~7286
▁kne~~13380
pol~~1714
awi~~12286
▁Char~~11388
ambia~~14507
▁fle~~7276
▁wra~~11905
▁Think~~3399
▁accountable~~9528
▁gib~~10968
▁Keep~~13616
ivers~~11600
▁agnost~~14223
▁judgment~~9928
But~~7876
▁gig~~11239
▁nutrition~~6117
▁Bulgar~~915
▁Ty~~9542
▁Pantheon~~16074
500~~8180
▁exh~~6152
▁25,000~~11033
▁astronaut~~2911
▁Jean~~11842
▁coordinate~~5889
▁exc~~2123
▁signed~~8233
▁impossible~~2965
opoly~~10323
iders~~11436
▁Department~~8009
▁adaptation~~4131
▁Mitt~~14904
minister~~11319
▁exp~~135
▁quarter~~2759
▁lethal~~11951
▁ext~~12891
ogenesis~~8048
case~~12996
▁conceptual~~4804
▁mathematicians~~13168
▁stories~~72
▁lighter~~11942
cast~~7229
abytes~~11240
▁server~~12727
ament~~6358
▁poorest~~5470
▁Dylan~~4058
▁helium~~13084
▁Wi~~8603
▁Wh~~706
vest~~6199
meister~~12348
▁deliber~~10027
▁markers~~10999
▁We~~76
▁replicate~~10873
▁expensive~~1834
uch~~9561
▁jungle~~12292
▁humans~~1248
▁marked~~5156
▁incredible~~79
▁Geomet~~14730
▁marker~~9778
▁Nanote~~15613
▁market~~3298
▁Mumbai~~7296
▁chairs~~8687
▁GP~~15099
▁incredibly~~400
▁feels~~4929
uhl~~15888
elesc~~15746
ween~~9448
▁combination~~5599
IP~~13045
IS~~5573
orph~~7226
▁speaking~~1366
ness~~1111
driven~~7678
eless~~6792
▁towns~~6555
oston~~15368
IN~~14504
▁Myth~~10633
changing~~10360
▁childhood~~1925
arb~~15866
ID~~13811
▁whe~~14681
▁eliminate~~1557
▁frankly~~5109
▁Jay~~5665
▁Society~~11906
▁witness~~9805
▁sustainable~~5414
Is~~1587
▁Train~~11757
▁liked~~3467
It~~5702
▁behold~~5740
▁psycho~~13650
▁treatments~~6140
Im~~13396
▁areas~~670
▁Jan~~8867
In~~2619
uhr~~16252
▁Jac~~7886
If~~3026
▁bind~~5212
▁Pope~~12478
▁striking~~5504
▁mer~~6331
odie~~14456
▁tomato~~9244
▁met~~3874
unclear~~12141
▁planets~~11945
▁men~~4571
▁suddenly~~3622
▁mel~~3685
▁linked~~2016
▁meg~~9515
▁med~~1792
til~~13677
▁being~~640
▁forces~~2313
▁Certain~~9460
▁sne~~3844
vious~~9063
▁discipline~~7825
blog~~13725
▁educ~~8698
lets~~8454
▁forced~~5934
▁princip~~2085
lett~~10458
▁priv~~15223
▁Holz~~9113
▁Women~~5726
▁challen~~15478
ross~~4462
▁average~~117
▁uniquely~~4999
ogan~~11149
▁pill~~736
▁meme~~921
▁develop~~1353
iosity~~9992
walk~~12282
▁consists~~9259
Mann~~12997
▁visited~~4397
▁boson~~15455
▁1.2~~14552
dete~~9789
▁Hans~~8038
▁Bay~~8729
▁Hand~~6771
▁boost~~5798
▁blowing~~8198
▁Os~~14444
▁Gil~~15684
▁klug~~15443
▁dollars~~2285
▁elders~~7225
▁project~~2564
▁entry~~10171
▁clinic~~5042
ibility~~6761
ulary~~15774
▁grains~~11331
ologically~~6783
Listen~~9556
▁send~~3720
isation~~13511
▁Brown~~10727
aust~~14463
▁dreaming~~7879
▁Tokyo~~3053
▁189~~12445
▁Gh~~13540
▁calls~~925
redit~~14317
▁bloody~~6074
▁sent~~1921
▁loving~~12459
ause~~9000
▁sens~~8476
orig~~8558
porter~~5491
▁cuts~~12639
▁pollin~~9233
▁Rose~~10918
▁fast~~3932
▁discussions~~2557
▁lose~~5618
ocation~~13177
▁jaw~~12006
▁Siber~~11023
iatric~~5011
▁cute~~8827
▁fash~~14015
▁jan~~14845
▁horizon~~6141
▁Tum~~14149
▁loss~~6941
▁lost~~3035
▁PCB~~8386
_~~15375
▁brother~~5678
oo~~1124
on~~2360
om~~5218
ol~~1174
ok~~3047
▁46~~5836
▁Please~~5026
oh~~11155
og~~2164
of~~3084
oe~~6197
od~~364
oc~~1793
ob~~4759
▁beans~~12094
idence~~2481
▁fifth~~6910
owder~~15508
stand~~6893
oy~~2900
ox~~6775
ow~~2968
ov~~6099
ou~~4728
ot~~4389
os~~592
or~~1603
op~~363
▁announ~~4349
▁provide~~1003
▁Orang~~16281
▁hearts~~10746
harm~~13822
igma~~7688
▁repar~~15429
▁paid~~1868
▁strip~~9199
itreya~~13438
▁programmed~~13316
▁pain~~2351
▁Plut~~7701
▁Ble~~12370
▁Woo~~1122
▁sugar~~13261
▁Wol~~8801
▁host~~5696
▁heir~~14242
▁flood~~6721
▁hosp~~6202
▁assumptions~~5176
▁Nike~~13241
yan~~13680
▁uncertain~~14618
▁Wow~~9141
▁facilit~~12829
▁Wass~~16085
▁floor~~511
▁comic~~11744
▁App~~12822
▁issue~~8304
▁punishment~~3327
ilien~~15794
▁clarity~~11793
▁discover~~2925
▁stup~~12850
▁key~~1414
▁stun~~1889
ended~~9956
▁evolutionary~~4156
▁goals~~2130
▁stud~~8864
▁jewel~~7291
▁nights~~4869
▁goal~~2082
▁contribution~~9231
uster~~2534
▁missed~~6749
▁Experiment~~3394
▁miserable~~1582
▁Hab~~14811
▁interestingly~~9408
▁blueprint~~9564
▁tissue~~8975
▁Theater~~12106
▁goat~~8826
▁sound~~448
▁membrane~~11981
▁rhin~~9725
▁const~~13212
▁Veter~~15560
▁bist~~14276
irn~~15540
▁West~~4004
▁created~~719
liches~~13537
aced~~9002
acey~~13468
▁disturbing~~9035
▁Krist~~5143
▁wings~~8890
aces~~941
controlled~~12595
▁creates~~1609
▁monitor~~5102
azz~~7730
▁tyr~~9588
igs~~7991
igr~~11020
▁sulfide~~15093
▁2.~~8004
▁2,~~7858
▁reader~~6713
▁26~~5468
▁27~~5773
▁24~~5050
▁25~~2567
5~~3135
▁23~~6050
▁20~~1585
▁21~~2235
ign~~7325
igm~~13871
▁2:~~7474
▁28~~7036
igh~~5170
▁dinosaurs~~8366
▁fragile~~854
▁Eben~~14136
▁coat~~11465
▁Woody~~13227
▁Inner~~16148
▁Rom~~11517
▁Taschen~~14685
▁kn~~5903
ilot~~15341
ilar~~6153
▁'80~~13232
▁coal~~11206
▁words~~2352
ftw~~13601
▁aqu~~12138
▁interventions~~7632
▁environmental~~8426
Comp~~14689
▁innovative~~1186
ments~~2332
▁portion~~8263
▁largely~~5478
▁Leah~~9999
▁four~~3001
ories~~2497
▁woo~~14106
▁won~~1163
aring~~3366
▁wol~~8866
alk~~7767
ali~~11153
▁weekend~~6610
ale~~1985
▁Amaz~~14544
ala~~1343
▁TEDsters~~12379
▁onstage~~3495
▁representation~~10644
abin~~12652
abil~~12194
▁willing~~3475
▁carries~~6986
alt~~10532
pts~~6384
als~~2086
▁Freedom~~9361
▁Europa~~13079
▁algae~~11991
atives~~3444
▁traditional~~3502
▁sequ~~11270
lining~~8007
obel~~16015
▁jail~~12468
▁Serge~~14437
▁fairy~~7382
▁temptation~~14394
▁Pre~~8987
▁Pass~~12638
▁labs~~2361
▁sciences~~7654
▁Pro~~7634
▁bribe~~12124
▁smart~~3828
▁Pri~~11320
▁ambul~~13338
esthes~~5012
▁anybody~~3574
▁tolerance~~10214
ured~~7569
▁Renaissance~~7824
far~~9707
▁worked~~1601
▁consume~~4652
uren~~15451
▁privileged~~9646
▁Boeing~~13042
ouch~~12872
urer~~6060
ures~~264
▁sphere~~3923
▁Phil~~7117
▁Veget~~15796
▁nectar~~10429
opath~~14165
heid~~7526
▁balls~~9248
▁playful~~1387
▁indo~~7341
▁asymmet~~8051
icking~~10424
list~~11640
▁resource~~6523
▁achieving~~1944
▁themselves~~2793
eration~~10254
▁rein~~1602
akers~~1811
▁transformed~~1912
▁indu~~12698
▁visit~~4248
▁movies~~8739
tel~~8676
tem~~9428
ten~~2897
iances~~13489
▁stere~~9023
▁centuries~~7801
ted~~2237
▁Agnes~~13751
tef~~15000
▁rethink~~3109
rate~~5412
design~~8820
▁ramp~~11531
▁traveling~~4976
ter~~2374
tes~~11501
▁owners~~11716
ror~~11417
flict~~9990
what~~11663
▁slavery~~10758
▁worthy~~6220
▁Saturday~~7975
sun~~7390
▁panic~~5423
▁Brain~~3679
▁applied~~3115
acent~~2125
version~~5926
▁mill~~2396
▁breaking~~95
▁underground~~8149
▁Oct~~7840
lier~~13807
▁David~~4
▁ze~~7087
▁mild~~13140
▁mile~~433
▁beds~~11643
▁pur~~4371
odynam~~15334
▁Metall~~12906
▁Genom~~12268
▁put~~292
EA~~15249
▁Gilbert~~12242
▁sentence~~5870
▁Thailand~~6687
▁white~~554
▁suppose~~6849
▁enter~~2447
▁Coke~~3384
▁sure~~3557
▁surf~~143
▁surg~~14890
▁Krab~~16144
▁cake~~4775
▁surround~~7199
▁Maslow~~11294
▁Moment~~14678
▁male~~654
▁surv~~12648
graph~~13896
▁mall~~12508
▁intimate~~6011
ough~~4134
▁fears~~12032
▁statist~~12593
▁Feder~~15372
▁contact~~530
▁asset~~10609
▁negle~~1918
▁confident~~6958
▁entit~~6256
▁Alexand~~6216
avy~~12521
illion~~889
▁advocate~~9969
▁1970~~1660
▁mainly~~1807
▁built~~3670
▁1975~~12517
aver~~12096
▁XL~~15320
▁--~~92
▁candle~~14158
▁ecology~~9338
▁tired~~963
▁build~~1617
▁iPod~~1875
tember~~15288
▁magician~~11420
▁dose~~5152
▁same~~708
▁old~~1330
Das~~16149
aves~~5790
▁controlling~~1392
▁resp~~13339
stick~~422
known~~8100
▁functioning~~2389
▁spiral~~13843
▁powers~~11362
▁threat~~8530
▁mankind~~7775
▁tear~~4960
▁selection~~6983
▁hospital~~3231
▁victory~~6193
▁Earth~~33
▁thread~~10047
ense~~10704
▁truly~~1303
▁Metap~~14722
v~~1102
Ind~~13894
▁team~~1488
▁column~~5377
edes~~11538
▁Jake~~12677
▁Nair~~15604
▁Coll~~12081
▁priorit~~8485
▁underlying~~1914
▁ways~~2034
▁warning~~5796
▁freak~~7503
▁scans~~10578
▁vibr~~19
▁Around~~4040
▁picked~~3296
ū~~16184
▁Olympics~~9163
breaking~~12323
▁privat~~14660
▁minimum~~9532
genda~~15837
▁interven~~13903
▁Jun~~13301
▁threatened~~8367
▁easier~~3554
▁Spr~~11134
▁customer~~1468
▁visualization~~7919
▁7.~~14335
▁interaction~~5853
volution~~8815
▁Spe~~6334
▁narc~~10382
▁Madag~~5166
▁terrorist~~9570
▁unfold~~5495
▁ingredient~~11346
▁Spl~~14759
▁repeatedly~~3468
▁Kos~~15766
▁medication~~10959
▁Cartoon~~14261
▁Kop~~16007
ential~~2518
▁Lux~~1831
ges~~49
▁journal~~9088
▁Panthe~~16259
ardo~~11481
▁Carnegie~~3424
ards~~2121
▁encou~~13058
ari~~7736
▁16.~~5001
Tech~~12718
▁16,~~8544
▁16-~~5711
▁Luc~~4455
▁Kom~~16031
▁nations~~6602
▁ingredients~~5655
▁Ter~~4968
▁Ur~~4679
culosis~~15407
▁dramatically~~1901
▁remote~~4411
mission~~7677
▁markets~~3459
▁progression~~6866
▁Trib~~10328
▁provided~~2766
▁remaining~~6879
Gen~~11107
▁Ten~~3352
▁Un~~1199
▁Um~~5539
▁Tem~~11496
▁weather~~2213
▁möglich~~15955
▁pockets~~4831
▁UV~~7780
style~~9934
▁quit~~3060
▁US~~10346
Fre~~15805
▁physicist~~9032
▁plenty~~3284
▁verd~~15963
▁invent~~2087
▁perce~~4282
▁UF~~14342
▁UC~~11892
▁Type~~11167
▁Dist~~12443
▁UN~~11094
▁identif~~11672
bour~~1833
alter~~10097
schild~~13116
▁Multi~~13231
▁officer~~10026
▁depress~~10198
▁landscape~~739
L~~2476
▁ring~~6005
icher~~11543
▁Public~~10087
wege~~13743
▁surrounded~~4675
▁immediately~~3031
▁makes~~960
▁honey~~12596
▁Doug~~7996
▁maker~~9290
cean~~392
▁Hawking~~12375
▁psychologist~~11650
▁lives~~618
▁liver~~13462
▁ticket~~6651
▁circa~~13924
▁perspective~~834
▁2020.~~12400
▁traumat~~15072
▁Milch~~12171
▁improvement~~1687
▁Nancy~~12371
weight~~4918
generation~~6900
▁sophisticated~~2754
▁laugh~~6486
▁bill~~3389
iologist~~5013
unker~~11635
▁surgeons~~6125
▁Information~~14035
▁immun~~8929
▁visions~~10804
▁Spar~~15218
mates~~14914
anke~~13576
▁devices~~5572
▁sperm~~8408
▁bananas~~12557
▁spr~~11711
ize~~929
gur~~12760
ingham~~13627
▁branches~~2166
▁laughing~~1400
▁images~~127
▁tells~~1686
▁Zero~~12150
▁jobs~~1702
▁transportation~~4906
▁spa~~5269
▁appropriate~~3433
▁spo~~9559
▁spl~~4760
▁subur~~10315
▁Nations~~5236
▁Interpretation~~15787
pert~~14969
▁cere~~8253
▁pink~~8943
impse~~15821
uality~~9449
▁lun~~1564
▁welfare~~10759
▁cert~~4560
▁border~~5623
▁opens~~5719
▁release~~3587
▁Sweden~~6600
▁fuck~~9493
▁sweat~~5860
▁dead~~7608
▁Dach~~8942
▁Jacqueline~~13325
illas~~10970
▁deal~~3643
▁warfare~~10951
▁author~~5318
eday~~11856
▁Indus~~15110
▁prosperity~~10771
▁dear~~5723
▁Neanderthal~~14278
▁verm~~14803
▁funding~~3280
▁integr~~2270
ding~~3395
▁farms~~6379
icked~~8765
atson~~16208
▁Tumor~~14704
iller~~8226
inent~~8993
▁SMS~~10722
TO~~12743
icket~~13284
▁variations~~8058
▁Cle~~3224
▁bombsight~~15634
▁Studio~~8788
▁until~~2757
▁sell~~4562
"~~922
▁gener~~5911
▁genes~~6985
▁self~~1075
▁Pil~~16090
▁sele~~1257
▁dynamic~~3653
▁throughout~~5278
▁Reg~~12236
▁Pir~~8680
storm~~10604
▁Diesen~~15974
▁wildlife~~8422
▁sequenced~~13950
weiser~~10339
▁March~~4206
▁curr~~5266
▁Marbou~~16272
▁dinner~~3021
▁structural~~5086
▁singing~~3758
▁Rec~~12761
60~~7749
▁could~~792
▁rainforest~~850
▁cure~~5426
▁stake~~1473
▁kle~~13708
▁policy~~1926
▁search~~1215
king~~5024
kind~~13448
▁tradition~~1916
▁decisions~~1449
▁epidem~~12465
onal~~14666
▁originally~~3268
?",~~14935
▁halls~~3997
kins~~6062
▁tools~~2972
▁residents~~10792
▁consistently~~2103
ifies~~11311
▁tanks~~8206
▁October~~4967
ptic~~11083
▁innovate~~6969
▁paste~~1982
▁variable~~11702
▁stable~~818
▁should~~1037
▁750~~5627
▁gardens~~4790
▁factory~~9565
▁removed~~3406
▁Wik~~15392
▁grave~~11735
▁context~~1085
▁Wil~~10744
▁Win~~3605
ungs~~11296
▁Wie~~16176
▁Wid~~7372
▁Collins~~11657
▁Phys~~14091
▁ster~~8227
▁receiving~~6734
▁chapter~~5616
▁Wis~~11827
ety~~9094
unge~~12943
eff~~12227
gill~~12942
▁blocked~~13979
▁volunte~~13366
▁Anderson~~3202
7.~~9591
▁especially~~4314
▁stock~~3297
iful~~9191
▁notice~~3522
▁stays~~9466
uers~~15911
adder~~12726
amas~~9844
70~~7732
▁Chance~~13669
uert~~8622
▁cockt~~13247
orage~~15146
▁unable~~1282
stands~~13717
▁remarkable~~2596
▁stability~~10251
schm~~11488
▁Flickr~~13597
eed~~14769
▁Bauer~~13731
▁mask~~5134
▁Poster~~15760
▁mass~~4410
▁disruptive~~9020
▁mast~~8549
▁Anim~~10795
gramm~~16213
▁remarkably~~3969
▁Geruch~~15120
lying~~7476
▁high~~772
▁indic~~6952
▁2030~~14443
▁Euro~~12802
▁resources~~2092
▁ecosystems~~12070
▁synthetic~~8354
▁MBA~~6053
umor~~7010
▁parent~~2132
▁rocks~~860
▁0.~~8329
▁loved~~3753
▁marrow~~14167
▁liber~~4352
ies~~327
ier~~2735
ieu~~13648
iet~~4053
▁amazingly~~9781
▁incor~~14996
▁hitting~~7040
▁loves~~1424
iel~~3664
▁plate~~778
ymmet~~15091
ieb~~15570
▁Hawai~~4466
ieg~~15683
ief~~10391
hip~~2366
▁civilization~~4437
▁driver~~6517
▁drives~~1851
▁cathed~~14607
rian~~8593
▁effic~~12345
▁difference~~1755
▁telling~~2109
▁happening~~762
▁begins~~4374
▁Audience~~6973
hib~~6689
▁beginn~~10654
▁coch~~9253
▁cock~~11235
▁Sens~~14477
▁Arabic~~11950
▁Arabia~~14400
▁viable~~11275
hil~~14589
▁Narrator~~4572
hin~~6233
▁Online~~12306
▁conscious~~9854
nut~~6301
▁grat~~6483
▁Individ~~15387
▁synthes~~5095
▁mimic~~2356
▁cosmic~~12880
▁Iceland~~10770
▁frustration~~5533
▁third~~3392
▁Sorry~~3071
▁drone~~14713
▁globally~~4622
▁convenient~~11299
iness~~8830
arr~~2746
ars~~615
art~~2512
bart~~15875
uments~~3659
▁win~~301
ary~~1965
▁Corpor~~14707
allel~~6510
▁wid~~3150
bara~~14466
ara~~9477
▁solve~~1724
▁♫~~4867
▁struggling~~2057
are~~3507
arf~~9943
arg~~5267
▁Har~~2919
arily~~6801
ark~~7405
arm~~2342
arn~~4634
▁Bow~~10335
▁results~~1484
▁Bot~~13001
▁affordable~~7128
▁faith~~2668
▁Java~~14879
inge~~12490
▁Paul~~7587
ution~~5206
▁garbage~~5201
▁Phot~~11908
▁ownership~~9386
▁antiretrovir~~12488
▁Box~~14592
ER~~13984
ings~~1499
atra~~4084
▁Mt~~7032
▁Regen~~13450
▁Manager~~15275
▁happens~~1007
▁Hosp~~6203
uum~~9857
fgh~~14555
▁miles~~120
▁universe~~7348
▁happen~~1047
▁Cooper~~7263
▁Bob~~4057
c~~2268
immers~~15171
▁Had~~9973
▁development~~1349
▁Stud~~1869
▁infl~~2517
▁trial~~5588
▁Inspir~~15655
flies~~10441
▁budget~~4579
▁reward~~6706
▁mind~~1169
▁mine~~2636
▁limitations~~7352
▁ver~~5216
▁mini~~10403
▁battle~~5861
▁ethic~~4340
▁addiction~~7892
▁flying~~2301
▁Hof~~14907
▁ven~~3961
▁conductor~~7830
▁tunnel~~13126
[~~7882
pr~~5409
ps~~458
pp~~7088
▁Broad~~14814
▁guard~~12777
pt~~6381
▁Canyon~~9476
▁Bon~~10788
duc~~7657
▁fuels~~4648
▁temporary~~9639
ishing~~5608
▁secret~~7192
▁Hier~~15469
▁scene~~3301
pf~~11848
▁Bol~~11755
pe~~298
ph~~2852
▁Juli~~12611
po~~6702
pl~~173
▁harness~~6285
▁exchange~~6234
▁organizations~~5331
▁exch~~3398
ages~~3267
▁Radi~~16141
▁excl~~6650
asing~~3375
▁describing~~13043
▁occup~~5117
▁Experimen~~12633
▁Beam~~13418
▁penn~~5998
▁luckily~~7052
▁Roosevelt~~9340
geted~~12890
▁inherent~~13741
▁immediate~~2581
▁crack~~10314
▁guerr~~12816
▁many~~967
▁junk~~9325
▁Delhi~~8482
▁Feuer~~14912
agen~~9198
feren~~4921
abol~~12377
▁Valley~~8553
▁enormously~~9261
abor~~14928
fter~~14382
▁videos~~7598
ahar~~14533
▁impressive~~1880
▁supp~~8608
▁mand~~5398
▁19.~~11352
▁Mahl~~4056
City~~14881
▁precision~~3893
▁School~~8629
▁Version~~15307
rix~~14199
uffle~~11432
rit~~8694
▁Renn~~13802
ris~~6542
rip~~3545
rin~~8420
▁educators~~1812
rik~~16285
rif~~9550
rig~~11851
▁resist~~10464
rie~~1591
rib~~4998
ric~~6590
▁paradox~~3785
ria~~6217
▁neuroscientist~~13902
ermann~~13958
ancing~~6742
aged~~4584
▁sexuality~~10571
▁Scratch~~15854
▁differences~~9060
▁beside~~8511
▁accompanied~~9034
▁reports~~9328
▁Later~~10192
▁fairly~~7646
9~~4715
▁Nie~~13712
▁historically~~9647
▁primary~~4077
▁block~~2533
▁labor~~6281
ctus~~14734
▁badly~~1841
iated~~2038
sell~~13060
Cor~~12871
obil~~15595
▁simplest~~803
obic~~3118
▁Security~~11109
▁one~~240
cement~~8625
▁bacteria~~557
ession~~1221
▁bicycle~~11544
.]~~7871
▁Fol~~5736
▁MT~~11841
▁separation~~9852
▁liberal~~6291
▁roots~~4003
▁surveys~~1508
eks~~3547
▁thro~~13119
▁friction~~13992
forestation~~13385
▁path~~3924
edge~~11623
▁tech~~13638
▁Finan~~10567
▁Alaska~~14103
▁previous~~4740
▁Heart~~14076
▁Haus~~13812
▁Haut~~16073
self~~11370
itary~~5973
know~~11760
▁Uganda~~8423
abilities~~10973
precedented~~15474
▁Wert~~15420
▁boundary~~9776
▁defend~~3044
[...]
