<unk>	0
<s>	0
</s>	0
en	-0
er	-1
in	-2
▁t	-3
ch	-4
▁a	-5
▁d	-6
▁w	-7
▁s	-8
▁th	-9
nd	-10
ie	-11
es	-12
is	-13
at	-14
on	-15
it	-16
▁m	-17
as	-18
an	-19
re	-20
▁the	-21
▁b	-22
▁h	-23
ich	-24
▁o	-25
▁e	-26
ll	-27
▁u	-28
▁g	-29
ou	-30
or	-31
ar	-32
▁f	-33
▁in	-34
te	-35
ing	-36
▁I	-37
▁n	-38
▁S	-39
le	-40
▁c	-41
▁p	-42
▁die	-43
▁A	-44
▁to	-45
ir	-46
▁v	-47
al	-48
▁is	-49
▁ein	-50
▁of	-51
▁and	-52
us	-53
om	-54
ig	-55
▁l	-56
▁W	-57
ed	-58
▁k	-59
▁T	-60
▁und	-61
un	-62
▁z	-63
▁be	-64
ut	-65
ur	-66
el	-67
▁das	-68
ten	-69
ion	-70
▁D	-71
▁y	-72
▁M	-73
▁that	-74
et	-75
ro	-76
ent	-77
▁ha	-78
im	-79
ic	-80
ere	-81
▁we	-82
ra	-83
▁B	-84
st	-85
▁E	-86
▁you	-87
em	-88
▁der	-89
▁wh	-90
hr	-91
ter	-92
ve	-93
ow	-94
▁zu	-95
il	-96
▁wir	-97
▁G	-98
▁ist	-99
▁it	-100
▁se	-101
▁an	-102
am	-103
icht	-104
ot	-105
ber	-106
gen	-107
id	-108
ach	-109
se	-110
ier	-111
ind	-112
lich	-113
ge	-114
ben	-115
ol	-116
sch	-117
uf	-118
▁U	-119
▁K	-120
▁re	-121
▁F	-122
ke	-123
all	-124
▁un	-125
▁P	-126
▁ver	-127
▁so	-128
▁on	-129
▁ich	-130
▁L	-131
▁es	-132
ct	-133
he	-134
▁was	-135
ay	-136
▁H	-137
▁me	-138
ung	-139
▁And	-140
▁st	-141
▁er	-142
ver	-143
▁N	-144
▁al	-145
de	-146
if	-147
▁this	-148
▁den	-149
▁sie	-150
▁-	-151
um	-152
and	-153
den	-154
▁Sie	-155
▁j	-156
ck	-157
ür	-158
nen	-159
uch	-160
sen	-161
▁all	-162
op	-163
ld	-164
be	-165
▁nicht	-166
ation	-167
▁von	-168
▁--	-169
▁"	-170
▁for	-171
ce	-172
▁dass	-173
▁R	-174
ht	-175
ine	-176
▁eine	-177
ann	-178
▁ab	-179
▁V	-180
▁auf	-181
▁r	-182
▁als	-183
▁Und	-184
ill	-185
▁im	-186
est	-187
▁do	-188
der	-189
hen	-190
ag	-191
her	-192
▁mit	-193
▁ne	-194
▁ge	-195
ess	-196
ly	-197
▁J	-198
ith	-199
ste	-200
▁are	-201
ally	-202
▁wie	-203
isch	-204
▁sch	-205
ul	-206
▁man	-207
▁uns	-208
aus	-209
▁C	-210
enn	-211
▁war	-212
▁with	-213
oo	-214
▁le	-215
▁have	-216
▁So	-217
kt	-218
men	-219
▁he	-220
au	-221
▁they	-222
▁sich	-223
os	-224
out	-225
▁Th	-226
ers	-227
▁mo	-228
we	-229
▁can	-230
▁Z	-231
▁as	-232
▁O	-233
▁wor	-234
ab	-235
über	-236
ad	-237
iv	-238
ant	-239
▁Ich	-240
▁pro	-241
ort	-242
ell	-243
ib	-244
▁i	-245
ern	-246
ust	-247
▁what	-248
ön	-249
▁sind	-250
und	-251
▁In	-252
▁com	-253
▁1	-254
▁dies	-255
▁go	-256
ies	-257
▁at	-258
▁sp	-259
af	-260
pp	-261
▁für	-262
▁St	-263
ould	-264
▁haben	-265
ik	-266
▁about	-267
ien	-268
▁ex	-269
art	-270
▁fr	-271
ist	-272
▁hat	-273
▁not	-274
▁aus	-275
ze	-276
▁The	-277
iel	-278
▁We	-279
▁um	-280
ese	-281
▁ch	-282
og	-283
▁über	-284
ive	-285
ahr	-286
ne	-287
▁Le	-288
oll	-289
▁des	-290
hl	-291
▁de	-292
▁som	-293
▁or	-294
▁kön	-295
ight	-296
▁wer	-297
end	-298
▁dem	-299
▁Das	-300
ein	-301
▁Sch	-302
qu	-303
▁Es	-304
mer	-305
▁there	-306
ike	-307
▁pe	-308
▁my	-309
▁sa	-310
ink	-311
▁Wir	-312
ate	-313
▁ma	-314
igen	-315
▁sh	-316
ople	-317
."	-318
▁con	-319
▁It	-320
▁Er	-321
th	-322
och	-323
ity	-324
▁diese	-325
▁one	-326
pt	-327
▁people	-328
ff	-329
ide	-330
elt	-331
▁like	-332
▁from	-333
tw	-334
esch	-335
ure	-336
▁Be	-337
ute	-338
▁tr	-339
▁ar	-340
ang	-341
ass	-342
ast	-343
ans	-344
ause	-345
▁da	-346
00	-347
▁also	-348
now	-349
▁wenn	-350
▁us	-351
▁einen	-352
ensch	-353
▁our	-354
ook	-355
▁bec	-356
▁but	-357
zen	-358
▁out	-359
▁Ge	-360
▁Die	-361
▁ih	-362
▁get	-363
ap	-364
ieren	-365
▁know	-366
▁Ar	-367
ted	-368
▁just	-369
▁Pro	-370
▁können	-371
▁2	-372
▁An	-373
▁thing	-374
ear	-375
▁pl	-376
▁werden	-377
ick	-378
iert	-379
▁Y	-380
ungen	-381
ild	-382
▁them	-383
oug	-384
▁her	-385
▁sein	-386
▁vor	-387
▁oder	-388
▁ent	-389
▁But	-390
▁these	-391
per	-392
ite	-393
▁very	-394
alk	-395
▁if	-396
▁up	-397
▁think	-398
ub	-399
orm	-400
▁who	-401
ah	-402
ige	-403
▁mach	-404
ank	-405
one	-406
ound	-407
our	-408
▁Ver	-409
ru	-410
iz	-411
▁kann	-412
ain	-413
▁Al	-414
▁by	-415
▁aber	-416
▁einer	-417
▁going	-418
od	-419
▁auch	-420
▁Mensch	-421
ack	-422
▁einem	-423
▁act	-424
▁gen	-425
ät	-426
▁see	-427
▁some	-428
ud	-429
pl	-430
▁dar	-431
eren	-432
ial	-433
zt	-434
ibt	-435
olog	-436
▁Aber	-437
ard	-438
▁nach	-439
▁when	-440
age	-441
▁Un	-442
▁te	-443
ak	-444
▁your	-445
ob	-446
nt	-447
▁en	-448
schaf	-449
änd	-450
ame	-451
ft	-452
▁more	-453
ert	-454
▁nur	-455
▁because	-456
▁Re	-457
▁year	-458
▁had	-459
▁mein	-460
reat	-461
ischen	-462
▁wird	-463
▁hier	-464
▁sehr	-465
▁etw	-466
ble	-467
to	-468
▁will	-469
ug	-470
ect	-471
ime	-472
urch	-473
▁Menschen	-474
ise	-475
ör	-476
▁which	-477
▁–	-478
ück	-479
▁ever	-480
itt	-481
▁how	-482
fen	-483
äch	-484
▁would	-485
ple	-486
▁look	-487
ond	-488
ood	-489
ose	-490
ous	-491
▁their	-492
▁am	-493
are	-494
keit	-495
▁really	-496
▁work	-497
▁were	-498
▁Te	-499
issen	-500
ually	-501
hal	-502
▁mich	-503
ther	-504
hing	-505
▁inter	-506
▁gibt	-507
ign	-508
chen	-509
ong	-510
▁way	-511
▁dann	-512
▁gro	-513
▁Jahr	-514
▁wur	-515
ue	-516
▁gl	-517
heit	-518
lle	-519
▁per	-520
du	-521
me	-522
chn	-523
▁vie	-524
▁here	-525
ven	-526
▁world	-527
▁Ih	-528
iff	-529
▁has	-530
sten	-531
ia	-532
▁qu	-533
▁ste	-534
▁Sp	-535
ken	-536
▁ihr	-537
lie	-538
ater	-539
▁You	-540
ions	-541
wo	-542
▁noch	-543
ment	-544
ri	-545
▁time	-546
ommen	-547
llen	-548
ough	-549
▁etwas	-550
▁then	-551
▁fa	-552
ore	-553
▁This	-554
schaft	-555
▁other	-556
▁Welt	-557
▁Ein	-558
▁fe	-559
eit	-560
▁into	-561
sp	-562
▁sehen	-563
än	-564
▁mir	-565
▁say	-566
rie	-567
▁habe	-568
▁every	-569
▁Als	-570
▁don	-571
▁actually	-572
tern	-573
▁dieser	-574
ip	-575
ren	-576
▁mus	-577
auf	-578
beit	-579
sel	-580
▁durch	-581
▁mehr	-582
▁zur	-583
▁bet	-584
▁could	-585
ische	-586
ens	-587
▁pr	-588
▁ke	-589
ult	-590
▁want	-591
▁sag	-592
lichen	-593
ner	-594
▁gr	-595
▁now	-596
▁things	-597
▁where	-598
▁bra	-599
yste	-600
▁jed	-601
▁years	-602
ring	-603
▁Wh	-604
▁ag	-605
▁Se	-606
▁♫	-607
▁Now	-608
les	-609
▁did	-610
ace	-611
▁Leben	-612
cht	-613
▁viel	-614
etzt	-615
liche	-616
ac	-617
ical	-618
▁somet	-619
form	-620
▁Fra	-621
▁alle	-622
▁Wenn	-623
ED	-624
▁sc	-625
▁been	-626
▁ro	-627
▁find	-628
zu	-629
ice	-630
▁They	-631
blem	-632
ry	-633
▁bei	-634
▁cl	-635
▁make	-636
▁any	-637
üs	-638
ome	-639
iver	-640
▁Ch	-641
▁TED	-642
▁comp	-643
▁diff	-644
▁happ	-645
ile	-646
hn	-647
▁beg	-648
▁no	-649
▁Zeit	-650
ystem	-651
▁ob	-652
▁po	-653
ire	-654
fach	-655
▁let	-656
▁tra	-657
ory	-658
klich	-659
rei	-660
▁zum	-661
▁gan	-662
fl	-663
ph	-664
ake	-665
▁He	-666
▁mö	-667
inge	-668
▁unsere	-669
▁wurde	-670
▁need	-671
▁said	-672
ähr	-673
mt	-674
irst	-675
ßen	-676
▁sel	-677
gt	-678
ree	-679
▁part	-680
ife	-681
wer	-682
▁wür	-683
▁bl	-684
▁Ihnen	-685
▁right	-686
▁over	-687
▁unter	-688
chte	-689
▁Gesch	-690
che	-691
▁something	-692
chnolog	-693
▁machen	-694
▁ihre	-695
assen	-696
▁lo	-697
▁zwe	-698
▁back	-699
ys	-700
illion	-701
able	-702
ange	-703
ungs	-704
fü	-705
▁Tr	-706
▁wo	-707
ount	-708
als	-709
▁wirklich	-710
ger	-711
▁kind	-712
iter	-713
pr	-714
000	-715
▁3	-716
▁Kind	-717
▁bu	-718
▁einfach	-719
▁two	-720
ark	-721
▁than	-722
▁tun	-723
▁much	-724
▁immer	-725
acht	-726
▁got	-727
▁call	-728
ents	-729
bst	-730
▁new	-731
fr	-732
aten	-733
▁talk	-734
ations	-735
▁first	-736
▁Ne	-737
ittle	-738
erson	-739
▁meine	-740
▁those	-741
▁little	-742
▁weil	-743
▁ze	-744
▁kon	-745
▁bes	-746
▁Also	-747
erst	-748
▁fü	-749
own	-750
cent	-751
isten	-752
▁imp	-753
▁Gr	-754
▁Or	-755
▁lot	-756
▁woll	-757
?"	-758
ord	-759
iger	-760
▁his	-761
▁she	-762
rit	-763
▁bis	-764
ats	-765
ale	-766
eln	-767
▁ra	-768
way	-769
gan	-770
▁ph	-771
ath	-772
hmen	-773
▁res	-774
▁ges	-775
▁dis	-776
▁kom	-777
▁dieses	-778
aut	-779
▁hatte	-780
▁ac	-781
vel	-782
▁unser	-783
ase	-784
▁spe	-785
▁Was	-786
▁That	-787
▁kle	-788
▁co	-789
▁müs	-790
▁Man	-791
▁pre	-792
nte	-793
▁most	-794
uchen	-795
leich	-796
är	-797
ody	-798
▁dam	-799
▁life	-800
uen	-801
▁only	-802
hlen	-803
ance	-804
▁diesem	-805
ition	-806
ated	-807
▁real	-808
▁keine	-809
glich	-810
▁hum	-811
ied	-812
ktion	-813
▁Leute	-814
▁Art	-815
▁ad	-816
▁wissen	-817
av	-818
ram	-819
ely	-820
ichte	-821
mal	-822
inn	-823
▁even	-824
▁thr	-825
ish	-826
bar	-827
▁day	-828
ges	-829
xt	-830
▁soll	-831
▁Ges	-832
▁19	-833
▁vers	-834
▁müssen	-835
igkeit	-836
▁gut	-837
▁sol	-838
ok	-839
other	-840
ons	-841
▁star	-842
erent	-843
▁ide	-844
▁Dinge	-845
iß	-846
gr	-847
▁Vor	-848
fe	-849
▁viele	-850
▁lie	-851
▁take	-852
▁sagen	-853
▁waren	-854
▁different	-855
▁diesen	-856
int	-857
▁groß	-858
wn	-859
▁sagte	-860
▁many	-861
▁su	-862
▁andere	-863
▁hel	-864
▁good	-865
gl	-866
unden	-867
▁ind	-868
▁pass	-869
▁Jahren	-870
▁fl	-871
ict	-872
▁bef	-873
gend	-874
off	-875
ont	-876
▁20	-877
▁nat	-878
▁bin	-879
▁through	-880
▁eines	-881
▁show	-882
▁down	-883
▁Trans	-884
▁does	-885
get	-886
ammen	-887
▁There	-888
▁hin	-889
ds	-890
▁around	-891
▁Aus	-892
ors	-893
ution	-894
▁put	-895
▁cont	-896
▁5	-897
urn	-898
cri	-899
▁zwei	-900
▁What	-901
act	-902
▁jetzt	-903
igt	-904
ian	-905
iss	-906
▁gew	-907
ty	-908
▁bek	-909
▁wieder	-910
▁Auf	-911
ient	-912
▁verb	-913
ience	-914
▁Wie	-915
ität	-916
tel	-917
usammen	-918
▁anderen	-919
▁kein	-920
ary	-921
▁em	-922
cess	-923
ahre	-924
▁10	-925
ible	-926
▁tell	-927
▁Me	-928
lleicht	-929
vol	-930
ichtig	-931
▁use	-932
▁off	-933
▁En	-934
ought	-935
▁Der	-936
▁glau	-937
▁being	-938
ious	-939
auen	-940
oc	-941
▁selbst	-942
tit	-943
▁alles	-944
▁Sub	-945
cript	-946
ual	-947
▁Unter	-948
▁würde	-949
▁problem	-950
arn	-951
ss	-952
igh	-953
oss	-954
▁bring	-955
▁Dies	-956
ekt	-957
ede	-958
▁damit	-959
ower	-960
▁comm	-961
▁Ind	-962
ces	-963
▁Talk	-964
ful	-965
ars	-966
▁inc	-967
▁happen	-968
▁same	-969
▁fun	-970
att	-971
▁gem	-972
▁du	-973
ün	-974
▁4	-975
▁ins	-976
▁try	-977
ject	-978
▁wen	-979
▁sm	-980
vor	-981
llt	-982
geb	-983
▁best	-984
▁fact	-985
omen	-986
▁come	-987
tra	-988
▁Mit	-989
▁stud	-990
▁Pl	-991
halten	-992
tet	-993
nis	-994
yp	-995
▁geht	-996
amil	-997
hren	-998
titles	-999
▁may	-1000
ep	-1001
day	-1002
iden	-1003
▁Jahre	-1004
▁Subtitles	-1005
▁Transcript	-1006
▁big	-1007
▁doing	-1008
▁human	-1009
formation	-1010
ost	-1011
▁great	-1012
old	-1013
ism	-1014
▁sur	-1015
▁count	-1016
▁lang	-1017
ting	-1018
äl	-1019
uss	-1020
ically	-1021
▁zurück	-1022
▁three	-1023
▁gesch	-1024
▁start	-1025
▁system	-1026
ade	-1027
▁end	-1028
▁hal	-1029
▁dr	-1030
▁bit	-1031
▁versch	-1032
fter	-1033
ics	-1034
▁denn	-1035
ivers	-1036
▁nie	-1037
ction	-1038
▁sim	-1039
▁muss	-1040
piel	-1041
▁Um	-1042
▁Her	-1043
▁weiter	-1044
▁produ	-1045
▁wä	-1046
▁If	-1047
ucht	-1048
▁well	-1049
ives	-1050
io	-1051
ves	-1052
▁ask	-1053
▁exper	-1054
▁build	-1055
▁dec	-1056
▁Well	-1057
öß	-1058
▁Bl	-1059
▁gu	-1060
▁percent	-1061
ating	-1062
ächlich	-1063
▁schon	-1064
▁ger	-1065
▁ir	-1066
▁zw	-1067
▁klein	-1068
▁heraus	-1069
▁app	-1070
thing	-1071
ler	-1072
▁ben	-1073
▁bas	-1074
▁hand	-1075
▁called	-1076
▁pol	-1077
ving	-1078
üt	-1079
▁technolog	-1080
▁pa	-1081
▁gra	-1082
▁Afr	-1083
▁Arbeit	-1084
von	-1085
ock	-1086
▁Ide	-1087
nten	-1088
gel	-1089
▁Amer	-1090
▁child	-1091
ool	-1092
self	-1093
▁again	-1094
agen	-1095
zent	-1096
kl	-1097
▁quest	-1098
ork	-1099
ize	-1100
ull	-1101
ins	-1102
▁Fl	-1103
teil	-1104
▁ele	-1105
its	-1106
▁möchte	-1107
red	-1108
▁ganz	-1109
imes	-1110
▁ihnen	-1111
▁made	-1112
▁vielleicht	-1113
ek	-1114
az	-1115
ates	-1116
▁mak	-1117
▁learn	-1118
▁Teil	-1119
alt	-1120
etz	-1121
ahl	-1122
▁trans	-1123
bt	-1124
▁zusammen	-1125
▁Kinder	-1126
▁long	-1127
fahr	-1128
▁einz	-1129
cial	-1130
▁Mus	-1131
▁rem	-1132
▁rel	-1133
hne	-1134
▁beh	-1135
▁For	-1136
▁own	-1137
atsächlich	-1138
▁why	-1139
▁Land	-1140
inden	-1141
▁should	-1142
▁Ab	-1143
esen	-1144
▁import	-1145
▁davon	-1146
▁Geschichte	-1147
▁Ste	-1148
▁fra	-1149
sam	-1150
▁Gen	-1151
▁design	-1152
▁sec	-1153
▁Nun	-1154
entlich	-1155
zä	-1156
▁wel	-1157
▁dort	-1158
angen	-1159
for	-1160
eld	-1161
sche	-1162
ierte	-1163
uter	-1164
ational	-1165
▁Wissen	-1166
ichten	-1167
▁person	-1168
pro	-1169
ities	-1170
rank	-1171
▁entw	-1172
▁underst	-1173
▁creat	-1174
aum	-1175
pf	-1176
ved	-1177
▁Beis	-1178
▁Im	-1179
onom	-1180
uß	-1181
uten	-1182
ubl	-1183
oment	-1184
▁gleich	-1185
▁mean	-1186
▁Tag	-1187
▁turn	-1188
▁rec	-1189
▁car	-1190
▁thought	-1191
zie	-1192
▁idea	-1193
ail	-1194
weise	-1195
▁Grund	-1196
▁heute	-1197
▁change	-1198
▁Hier	-1199
▁after	-1200
ane	-1201
▁play	-1202
▁Bild	-1203
halb	-1204
rä	-1205
▁cour	-1206
▁genau	-1207
ica	-1208
hir	-1209
▁hatten	-1210
ope	-1211
▁its	-1212
ielen	-1213
▁letz	-1214
rechen	-1215
▁Nach	-1216
▁200	-1217
▁feel	-1218
▁didn	-1219
▁today	-1220
omp	-1221
,000	-1222
atz	-1223
▁belie	-1224
▁Zu	-1225
▁Fre	-1226
ular	-1227
erg	-1228
▁einige	-1229
▁important	-1230
chten	-1231
erm	-1232
hör	-1233
▁him	-1234
▁drei	-1235
▁ihn	-1236
▁könnte	-1237
anden	-1238
ix	-1239
▁All	-1240
▁jem	-1241
..	-1242
body	-1243
vent	-1244
▁started	-1245
▁last	-1246
aw	-1247
▁Thank	-1248
ings	-1249
olle	-1250
ändern	-1251
äd	-1252
oren	-1253
▁help	-1254
▁Diese	-1255
▁exam	-1256
gar	-1257
mlich	-1258
br	-1259
ogra	-1260
pen	-1261
atur	-1262
iving	-1263
orn	-1264
stehen	-1265
▁darüber	-1266
▁paar	-1267
▁story	-1268
nde	-1269
▁kl	-1270
reich	-1271
imm	-1272
gram	-1273
stell	-1274
bei	-1275
tent	-1276
▁seine	-1277
▁went	-1278
▁before	-1279
▁understand	-1280
anz	-1281
▁Kl	-1282
▁wollen	-1283
asser	-1284
▁sond	-1285
▁course	-1286
▁nun	-1287
▁Gl	-1288
▁power	-1289
▁might	-1290
▁eff	-1291
▁wurden	-1292
ave	-1293
erv	-1294
▁give	-1295
bs	-1296
▁gehen	-1297
ility	-1298
▁still	-1299
▁med	-1300
ather	-1301
ache	-1302
▁werde	-1303
▁better	-1304
ts	-1305
ists	-1306
▁meiner	-1307
▁tak	-1308
▁verw	-1309
▁able	-1310
▁schw	-1311
utzen	-1312
ov	-1313
▁Problem	-1314
▁tatsächlich	-1315
▁another	-1316
utz	-1317
▁never	-1318
ieden	-1319
iten	-1320
ährend	-1321
▁Beispiel	-1322
ital	-1323
äh	-1324
▁brain	-1325
▁point	-1326
▁sl	-1327
ina	-1328
ennen	-1329
amm	-1330
▁cons	-1331
▁Ph	-1332
▁sondern	-1333
▁bess	-1334
▁Geb	-1335
schein	-1336
▁str	-1337
▁found	-1338
...	-1339
▁kid	-1340
▁besch	-1341
▁Ü	-1342
▁Des	-1343
ürlich	-1344
änder	-1345
▁eigen	-1346
▁sort	-1347
oy	-1348
uff	-1349
ues	-1350
▁br	-1351
▁zie	-1352
▁Ihre	-1353
▁wahr	-1354
iven	-1355
,"	-1356
arch	-1357
▁Gehir	-1358
fol	-1359
nehmen	-1360
▁Aut	-1361
▁unserer	-1362
▁Reg	-1363
▁weiß	-1364
amen	-1365
▁fin	-1366
enden	-1367
umber	-1368
▁ec	-1369
ugen	-1370
volution	-1371
ward	-1372
ander	-1373
▁bede	-1374
ata	-1375
▁next	-1376
ellen	-1377
ott	-1378
▁Intern	-1379
▁exp	-1380
land	-1381
▁dazu	-1382
▁gel	-1383
▁neue	-1384
▁mal	-1385
▁gab	-1386
▁school	-1387
▁ago	-1388
▁leben	-1389
ative	-1390
▁Kon	-1391
▁water	-1392
▁New	-1393
▁erzä	-1394
▁vom	-1395
allen	-1396
▁imag	-1397
▁How	-1398
gether	-1399
▁together	-1400
▁mon	-1401
ode	-1402
ym	-1403
▁6	-1404
atch	-1405
▁größ	-1406
ines	-1407
kay	-1408
alth	-1409
▁erst	-1410
cken	-1411
▁comple	-1412
schen	-1413
cted	-1414
stellen	-1415
▁came	-1416
▁wäre	-1417
bl	-1418
▁few	-1419
▁macht	-1420
ween	-1421
▁place	-1422
▁denke	-1423
▁technology	-1424
velop	-1425
ited	-1426
achen	-1427
gef	-1428
▁glob	-1429
▁Million	-1430
▁expl	-1431
▁verl	-1432
▁commun	-1433
▁Hand	-1434
▁Lebens	-1435
öglich	-1436
▁entwick	-1437
▁denken	-1438
▁finden	-1439
▁Technolog	-1440
▁gegen	-1441
read	-1442
▁each	-1443
▁denen	-1444
▁gef	-1445
▁high	-1446
eter	-1447
▁kommen	-1448
▁sogar	-1449
▁Br	-1450
▁Mal	-1451
iness	-1452
▁De	-1453
▁Wer	-1454
aufen	-1455
▁pat	-1456
▁art	-1457
▁used	-1458
▁number	-1459
▁hät	-1460
ingen	-1461
▁inst	-1462
arm	-1463
anted	-1464
oth	-1465
▁gemacht	-1466
ika	-1467
afür	-1468
▁einmal	-1469
hrt	-1470
ident	-1471
ters	-1472
▁wichtig	-1473
▁When	-1474
els	-1475
ized	-1476
ced	-1477
zus	-1478
▁between	-1479
co	-1480
▁sen	-1481
ets	-1482
▁question	-1483
▁zwischen	-1484
▁Ent	-1485
▁gerade	-1486
▁geb	-1487
öff	-1488
▁min	-1489
▁Med	-1490
arbeit	-1491
▁develop	-1492
▁vis	-1493
▁arbeit	-1494
mit	-1495
▁15	-1496
ierung	-1497
▁Frauen	-1498
affen	-1499
ule	-1500
▁Gehirn	-1501
gs	-1502
cause	-1503
▁small	-1504
▁interess	-1505
gest	-1506
▁glaube	-1507
▁plan	-1508
ps	-1509
ific	-1510
ster	-1511
▁geben	-1512
▁funktion	-1513
▁kommt	-1514
cy	-1515
▁looking	-1516
▁weit	-1517
▁30	-1518
▁50	-1519
aterial	-1520
geben	-1521
▁ohne	-1522
▁too	-1523
▁cre	-1524
▁Ihr	-1525
▁par	-1526
▁data	-1527
kommen	-1528
uge	-1529
ways	-1530
▁At	-1531
▁Frage	-1532
▁done	-1533
▁näch	-1534
▁organ	-1535
▁Wasser	-1536
▁100	-1537
ationen	-1538
ium	-1539
▁Is	-1540
ember	-1541
▁interest	-1542
uer	-1543
▁zeigen	-1544
▁schn	-1545
▁four	-1546
▁Über	-1547
▁example	-1548
▁form	-1549
▁el	-1550
▁women	-1551
ilm	-1552
▁Because	-1553
gew	-1554
▁Ex	-1555
▁bere	-1556
▁dafür	-1557
▁light	-1558
▁old	-1559
▁Internet	-1560
▁ans	-1561
▁ihren	-1562
▁wr	-1563
▁run	-1564
▁partic	-1565
▁letzten	-1566
▁erste	-1567
pe	-1568
alen	-1569
▁grow	-1570
▁love	-1571
▁8	-1572
unkt	-1573
▁irgend	-1574
▁9	-1575
dem	-1576
▁met	-1577
▁live	-1578
▁Fr	-1579
▁doesn	-1580
ably	-1581
immt	-1582
▁set	-1583
▁Eine	-1584
▁würden	-1585
tschaft	-1586
▁cell	-1587
rat	-1588
tz	-1589
▁sk	-1590
▁sieht	-1591
▁ersten	-1592
▁nichts	-1593
▁passiert	-1594
ffen	-1595
zeit	-1596
▁cent	-1597
ös	-1598
aub	-1599
▁Da	-1600
ures	-1601
▁verschieden	-1602
tell	-1603
▁Univers	-1604
▁bo	-1605
ikan	-1606
▁sit	-1607
▁War	-1608
▁inv	-1609
▁gener	-1610
▁jeder	-1611
▁7	-1612
gie	-1613
ält	-1614
ement	-1615
yn	-1616
elle	-1617
▁Prozent	-1618
▁Pr	-1619
▁wanted	-1620
▁während	-1621
under	-1622
▁eng	-1623
▁whole	-1624
▁konnte	-1625
▁second	-1626
▁care	-1627
cept	-1628
▁famil	-1629
ross	-1630
ernen	-1631
iolog	-1632
▁meisten	-1633
led	-1634
▁daran	-1635
▁warum	-1636
here	-1637
▁dra	-1638
▁verstehen	-1639
▁lar	-1640
▁mag	-1641
ideo	-1642
oney	-1643
▁Millionen	-1644
▁tre	-1645
▁million	-1646
ands	-1647
ness	-1648
rop	-1649
▁Fe	-1650
▁poss	-1651
unde	-1652
selves	-1653
▁Daten	-1654
▁As	-1655
▁working	-1656
▁[	-1657
achte	-1658
esehen	-1659
▁Mar	-1660
anke	-1661
▁Q	-1662
▁Comp	-1663
rupp	-1664
iele	-1665
ift	-1666
ider	-1667
▁lassen	-1668
▁My	-1669
fin	-1670
▁trying	-1671
▁sub	-1672
▁begin	-1673
▁chang	-1674
▁book	-1675
ogen	-1676
ma	-1677
▁always	-1678
▁bus	-1679
▁less	-1680
▁econom	-1681
▁polit	-1682
▁Idee	-1683
▁mind	-1684
▁mensch	-1685
schl	-1686
▁reg	-1687
▁Schl	-1688
ude	-1689
▁children	-1690
ett	-1691
jekt	-1692
▁reas	-1693
cher	-1694
▁read	-1695
▁sagt	-1696
zeug	-1697
▁besser	-1698
sy	-1699
▁dire	-1700
▁sollte	-1701
illi	-1702
▁phys	-1703
▁anim	-1704
▁etwa	-1705
ischer	-1706
▁natürlich	-1707
amer	-1708
▁schl	-1709
▁fast	-1710
alls	-1711
essen	-1712
▁Geld	-1713
▁away	-1714
str	-1715
▁sollten	-1716
gehen	-1717
▁norm	-1718
▁believe	-1719
weg	-1720
tre	-1721
▁acc	-1722
atter	-1723
▁Person	-1724
hlt	-1725
amp	-1726
äng	-1727
▁prob	-1728
ural	-1729
▁resp	-1730
agt	-1731
▁stand	-1732
unk	-1733
▁aut	-1734
ollar	-1735
▁dre	-1736
wir	-1737
ivid	-1738
▁country	-1739
▁Mon	-1740
▁Weg	-1741
isen	-1742
richt	-1743
▁könnten	-1744
akt	-1745
▁using	-1746
dern	-1747
▁große	-1748
▁supp	-1749
app	-1750
ilt	-1751
▁Raum	-1752
asch	-1753
ußer	-1754
▁schnell	-1755
.000	-1756
▁pict	-1757
▁ihrer	-1758
ruck	-1759
schied	-1760
▁cor	-1761
▁ja	-1762
▁dabei	-1763
▁ganze	-1764
▁health	-1765
▁kids	-1766
▁meinen	-1767
row	-1768
licher	-1769
hip	-1770
ister	-1771
▁wollte	-1772
lung	-1773
ries	-1774
ric	-1775
▁fre	-1776
fer	-1777
arth	-1778
▁abs	-1779
▁meinem	-1780
raft	-1781
▁...	-1782
▁ziemlich	-1783
vern	-1784
▁sprechen	-1785
uft	-1786
▁sicher	-1787
▁means	-1788
vers	-1789
err	-1790
hin	-1791
kun	-1792
▁bekommen	-1793
▁project	-1794
utet	-1795
öglichkeit	-1796
▁five	-1797
▁teach	-1798
▁information	-1799
▁Ä	-1800
▁frien	-1801
▁US	-1802
los	-1803
▁space	-1804
ci	-1805
▁jemand	-1806
net	-1807
▁Verb	-1808
▁hard	-1809
▁Wissenschaft	-1810
▁eig	-1811
▁maybe	-1812
▁thinking	-1813
▁mark	-1814
ession	-1815
▁create	-1816
▁darauf	-1817
▁cou	-1818
▁took	-1819
▁Min	-1820
▁sing	-1821
ierten	-1822
aben	-1823
▁mod	-1824
▁money	-1825
▁Am	-1826
▁ging	-1827
▁'	-1828
urs	-1829
▁hör	-1830
▁arbeiten	-1831
▁One	-1832
▁fut	-1833
▁under	-1834
legen	-1835
▁open	-1836
ories	-1837
▁food	-1838
▁home	-1839
▁everything	-1840
gh	-1841
onder	-1842
▁such	-1843
▁nehmen	-1844
örper	-1845
▁Schw	-1846
▁kam	-1847
▁spec	-1848
▁Ger	-1849
gesch	-1850
▁energ	-1851
utter	-1852
▁doll	-1853
▁ander	-1854
ald	-1855
sehen	-1856
▁process	-1857
nov	-1858
ünd	-1859
up	-1860
urz	-1861
▁Men	-1862
▁become	-1863
▁Ende	-1864
▁Ener	-1865
man	-1866
annt	-1867
lear	-1868
▁Dank	-1869
ringen	-1870
▁Ö	-1871
ograph	-1872
ird	-1873
kunft	-1874
scheinlich	-1875
reen	-1876
ständ	-1877
ouse	-1878
adt	-1879
vir	-1880
▁nam	-1881
▁left	-1882
reiben	-1883
sych	-1884
ktur	-1885
▁fas	-1886
▁hist	-1887
▁Gem	-1888
▁Mann	-1889
▁publ	-1890
▁compan	-1891
äs	-1892
▁Inter	-1893
▁future	-1894
ax	-1895
fühl	-1896
ilen	-1897
▁These	-1898
▁weniger	-1899
ruct	-1900
▁She	-1901
▁coll	-1902
▁doch	-1903
▁enough	-1904
▁moment	-1905
▁quite	-1906
▁kleinen	-1907
▁walk	-1908
▁Entw	-1909
▁sense	-1910
▁head	-1911
abor	-1912
▁El	-1913
▁Kom	-1914
ohn	-1915
oot	-1916
icher	-1917
▁interesting	-1918
rag	-1919
cer	-1920
▁Technologie	-1921
▁Dann	-1922
▁bre	-1923
".	-1924
duc	-1925
▁comes	-1926
▁unseren	-1927
▁bedeutet	-1928
▁Wor	-1929
▁cr	-1930
▁Vers	-1931
äter	-1932
▁prof	-1933
▁vier	-1934
▁Chr	-1935
▁York	-1936
ole	-1937
▁Pol	-1938
▁Design	-1939
line	-1940
▁half	-1941
▁energy	-1942
▁Denn	-1943
ennt	-1944
▁bewe	-1945
▁says	-1946
▁global	-1947
▁welche	-1948
▁Information	-1949
▁ass	-1950
▁getting	-1951
ron	-1952
ließ	-1953
▁govern	-1954
▁Famil	-1955
nah	-1956
usst	-1957
äus	-1958
▁typ	-1959
ustr	-1960
▁Kre	-1961
aupt	-1962
▁Dollar	-1963
uck	-1964
ican	-1965
orgen	-1966
▁Mein	-1967
iet	-1968
▁times	-1969
▁ser	-1970
▁Sache	-1971
cke	-1972
iere	-1973
▁making	-1974
▁bringen	-1975
▁sign	-1976
▁ihm	-1977
▁stop	-1978
▁contro	-1979
fte	-1980
▁Krank	-1981
ertain	-1982
▁pop	-1983
ret	-1984
port	-1985
ments	-1986
▁stuff	-1987
▁happened	-1988
▁probably	-1989
▁erw	-1990
▁building	-1991
ulation	-1992
hol	-1993
halt	-1994
▁beste	-1995
▁China	-1996
▁conne	-1997
▁talking	-1998
▁♪	-1999
esten	-2000
▁social	-2001
äft	-2002
▁pie	-2003
▁Möglichkeit	-2004
ices	-2005
inen	-2006
chite	-2007
▁beaut	-2008
par	-2009
▁Eur	-2010
▁seit	-2011
aces	-2012
▁gesehen	-2013
▁grou	-2014
rad	-2015
▁eigentlich	-2016
▁heiß	-2017
sicht	-2018
▁dachte	-2019
▁möglich	-2020
▁elect	-2021
aps	-2022
hand	-2023
▁Ob	-2024
▁cur	-2025
ng	-2026
",	-2027
▁dist	-2028
▁month	-2029
▁room	-2030
▁kleine	-2031
▁makes	-2032
▁Energie	-2033
▁„	-2034
▁Here	-2035
▁brauchen	-2036
viron	-2037
very	-2038
▁add	-2039
▁zeigt	-2040
▁ber	-2041
▁18	-2042
▁Stud	-2043
▁Stra	-2044
esent	-2045
▁ungl	-2046
achsen	-2047
▁without	-2048
iment	-2049
▁else	-2050
iges	-2051
▁business	-2052
▁Bü	-2053
gle	-2054
▁body	-2055
ying	-2056
▁Africa	-2057
▁fol	-2058
▁Sh	-2059
▁Weise	-2060
▁großen	-2061
ever	-2062
▁Seite	-2063
eder	-2064
▁Gro	-2065
aun	-2066
fort	-2067
▁far	-2068
▁Proble	-2069
▁Ze	-2070
▁voll	-2071
▁jeden	-2072
▁pos	-2073
▁pra	-2074
undert	-2075
eth	-2076
ument	-2077
▁told	-2078
▁job	-2079
▁top	-2080
etzen	-2081
▁keep	-2082
▁lives	-2083
▁Okay	-2084
esearch	-2085
▁wonder	-2086
▁Kar	-2087
▁sound	-2088
aden	-2089
▁Spiel	-2090
ately	-2091
▁wenig	-2092
emat	-2093
▁Gew	-2094
▁coming	-2095
▁Zukunft	-2096
quen	-2097
mp	-2098
▁gar	-2099
▁dollars	-2100
▁12	-2101
▁allow	-2102
▁seem	-2103
▁simple	-2104
▁week	-2105
hle	-2106
▁environ	-2107
▁Computer	-2108
▁Män	-2109
▁bad	-2110
▁side	-2111
▁anything	-2112
▁countries	-2113
▁ganzen	-2114
▁opp	-2115
itive	-2116
▁phot	-2117
▁reason	-2118
▁science	-2119
▁pret	-2120
▁40	-2121
▁Engl	-2122
ief	-2123
▁int	-2124
▁Den	-2125
▁pretty	-2126
ismus	-2127
▁No	-2128
▁Ele	-2129
▁across	-2130
nf	-2131
▁Frau	-2132
opf	-2133
▁ret	-2134
isk	-2135
▁soc	-2136
ether	-2137
ernt	-2138
▁Pat	-2139
▁Str	-2140
▁außer	-2141
▁Menge	-2142
▁OK	-2143
vie	-2144
▁Let	-2145
schaften	-2146
▁Buch	-2147
▁keinen	-2148
▁air	-2149
ches	-2150
▁cult	-2151
ator	-2152
▁je	-2153
erne	-2154
▁versuchen	-2155
▁ey	-2156
▁educ	-2157
▁schle	-2158
utes	-2159
▁ear	-2160
irl	-2161
ince	-2162
▁hoch	-2163
▁men	-2164
erence	-2165
athemat	-2166
uring	-2167
▁val	-2168
▁rest	-2169
rieben	-2170
oral	-2171
▁On	-2172
ders	-2173
▁hope	-2174
▁Entwick	-2175
▁Natur	-2176
ash	-2177
mun	-2178
ende	-2179
▁ways	-2180
ision	-2181
leben	-2182
▁Fall	-2183
▁Woch	-2184
▁goes	-2185
▁program	-2186
work	-2187
▁ä	-2188
▁gesagt	-2189
▁scient	-2190
aft	-2191
▁saw	-2192
▁lernen	-2193
▁col	-2194
▁experience	-2195
ckt	-2196
gal	-2197
▁absol	-2198
▁indem	-2199
Ich	-2200
▁Grupp	-2201
▁living	-2202
ape	-2203
▁Rob	-2204
otion	-2205
zial	-2206
▁gest	-2207
▁niem	-2208
▁seen	-2209
iverse	-2210
stoff	-2211
kte	-2212
▁Stadt	-2213
ots	-2214
where	-2215
stellung	-2216
▁glauben	-2217
air	-2218
▁unglaub	-2219
▁char	-2220
▁music	-2221
▁seiner	-2222
▁fig	-2223
▁hätte	-2224
▁eas	-2225
▁vir	-2226
▁vielen	-2227
apt	-2228
rib	-2229
▁System	-2230
ged	-2231
▁Augen	-2232
ization	-2233
▁particular	-2234
▁Spra	-2235
▁happens	-2236
most	-2237
▁später	-2238
▁Ged	-2239
▁rob	-2240
▁Licht	-2241
▁Lie	-2242
▁Haus	-2243
ipp	-2244
iker	-2245
▁cap	-2246
ähigkeit	-2247
hrer	-2248
▁Ort	-2249
▁case	-2250
▁pers	-2251
▁eigenen	-2252
▁research	-2253
undheit	-2254
▁Körper	-2255
einander	-2256
NA	-2257
öl	-2258
▁Antw	-2259
▁fünf	-2260
▁fal	-2261
▁problems	-2262
▁asked	-2263
▁later	-2264
ants	-2265
▁answer	-2266
▁fest	-2267
racht	-2268
▁gehör	-2269
▁offen	-2270
▁computer	-2271
▁hour	-2272
▁move	-2273
▁picture	-2274
▁Ber	-2275
illiar	-2276
mittel	-2277
ker	-2278
iety	-2279
▁beim	-2280
achten	-2281
▁Warum	-2282
▁langu	-2283
tellt	-2284
folg	-2285
ilder	-2286
▁effect	-2287
ote	-2288
▁stre	-2289
▁having	-2290
▁stellen	-2291
ily	-2292
▁nä	-2293
onnen	-2294
▁planet	-2295
ume	-2296
▁bro	-2297
▁six	-2298
▁share	-2299
▁funktioniert	-2300
▁mil	-2301
▁individ	-2302
▁complete	-2303
scheid	-2304
▁family	-2305
▁Dar	-2306
▁Groß	-2307
▁days	-2308
▁Sel	-2309
▁konnten	-2310
▁environment	-2311
▁land	-2312
▁Vielen	-2313
▁25	-2314
oman	-2315
unst	-2316
▁dig	-2317
▁Produ	-2318
iol	-2319
ality	-2320
▁irgendw	-2321
▁schaffen	-2322
zeich	-2323
let	-2324
▁heißt	-2325
stand	-2326
▁oft	-2327
itz	-2328
nung	-2329
▁Earth	-2330
▁unt	-2331
▁thous	-2332
▁young	-2333
unter	-2334
▁single	-2335
▁Jetzt	-2336
▁Erde	-2337
▁Danke	-2338
▁jedes	-2339
ändert	-2340
▁Moment	-2341
▁inside	-2342
▁ev	-2343
▁Milliar	-2344
ellschaft	-2345
▁loc	-2346
reichen	-2347
▁Mutter	-2348
▁Qu	-2349
▁komple	-2350
▁Probleme	-2351
ktiv	-2352
ünst	-2353
▁equ	-2354
tem	-2355
▁Why	-2356
▁pain	-2357
▁bew	-2358
▁öff	-2359
▁Do	-2360
▁ideas	-2361
▁level	-2362
ritt	-2363
▁ble	-2364
asse	-2365
▁Kont	-2366
▁helfen	-2367
▁Zwe	-2368
▁amaz	-2369
isches	-2370
▁basically	-2371
cl	-2372
erein	-2373
▁Wahr	-2374
▁remember	-2375
iti	-2376
zuf	-2377
▁while	-2378
▁prote	-2379
▁neuen	-2380
▁yet	-2381
▁gute	-2382
anc	-2383
rück	-2384
fahren	-2385
ruktur	-2386
▁Kunst	-2387
▁disco	-2388
▁nutzen	-2389
umen	-2390
▁watch	-2391
▁hear	-2392
▁besond	-2393
bo	-2394
zahl	-2395
▁verk	-2396
gefähr	-2397
▁saying	-2398
uche	-2399
▁self	-2400
ready	-2401
▁extre	-2402
ided	-2403
▁suc	-2404
▁Organ	-2405
ament	-2406
▁Form	-2407
▁once	-2408
ury	-2409
idd	-2410
ield	-2411
▁possible	-2412
▁began	-2413
▁betra	-2414
üh	-2415
▁Par	-2416
▁che	-2417
▁invest	-2418
▁almost	-2419
▁certain	-2420
abe	-2421
chs	-2422
uation	-2423
▁aller	-2424
▁wrong	-2425
▁looks	-2426
▁net	-2427
▁both	-2428
▁Gesundheit	-2429
▁insp	-2430
▁normal	-2431
so	-2432
▁biolog	-2433
auer	-2434
▁billion	-2435
▁guy	-2436
▁allen	-2437
▁Wo	-2438
▁contin	-2439
▁Bo	-2440
▁sure	-2441
▁anders	-2442
▁product	-2443
iful	-2444
welt	-2445
▁wahrscheinlich	-2446
▁USA	-2447
▁tot	-2448
osten	-2449
▁line	-2450
denken	-2451
▁bed	-2452
ahlen	-2453
inter	-2454
▁dise	-2455
▁erzählen	-2456
heiten	-2457
▁matter	-2458
▁city	-2459
ogn	-2460
▁true	-2461
glichen	-2462
▁unserem	-2463
arten	-2464
▁Schul	-2465
▁genug	-2466
▁schön	-2467
▁treat	-2468
lichkeit	-2469
ums	-2470
ages	-2471
▁Musik	-2472
ush	-2473
▁incred	-2474
▁public	-2475
▁history	-2476
▁sah	-2477
▁fund	-2478
▁universe	-2479
▁speak	-2480
▁within	-2481
▁whether	-2482
aur	-2483
▁DNA	-2484
▁dev	-2485
▁control	-2486
▁Tod	-2487
▁Fot	-2488
▁herum	-2489
▁nächsten	-2490
inz	-2491
wend	-2492
▁already	-2493
▁ur	-2494
side	-2495
▁erkl	-2496
▁Gegen	-2497
▁begann	-2498
▁amazing	-2499
▁exact	-2500
▁Ideen	-2501
imate	-2502
ivity	-2503
▁kennen	-2504
oice	-2505
ived	-2506
▁someone	-2507
▁—	-2508
ösen	-2509
chmal	-2510
▁Not	-2511
▁looked	-2512
▁Bed	-2513
▁kill	-2514
▁heart	-2515
öt	-2516
osed	-2517
▁erf	-2518
▁lange	-2519
▁works	-2520
▁nothing	-2521
▁often	-2522
▁seinen	-2523
gem	-2524
▁cost	-2525
▁heard	-2526
ären	-2527
▁mass	-2528
ases	-2529
ones	-2530
▁weg	-2531
gleich	-2532
liches	-2533
▁Selbst	-2534
gte	-2535
▁class	-2536
▁gemein	-2537
▁erinn	-2538
▁extra	-2539
ior	-2540
▁richtig	-2541
stead	-2542
▁term	-2543
▁exist	-2544
ollow	-2545
▁challen	-2546
innen	-2547
▁girl	-2548
▁verd	-2549
▁recht	-2550
▁ungefähr	-2551
ption	-2552
aneten	-2553
▁ü	-2554
ton	-2555
▁psych	-2556
▁Ja	-2557
▁Uns	-2558
▁To	-2559
▁Bere	-2560
▁beautiful	-2561
iddle	-2562
▁bauen	-2563
▁words	-2564
▁bisschen	-2565
▁myself	-2566
gangen	-2567
▁cond	-2568
▁trad	-2569
ination	-2570
▁Ma	-2571
▁bevor	-2572
▁train	-2573
▁cancer	-2574
▁mar	-2575
▁test	-2576
▁Forsch	-2577
▁mother	-2578
▁community	-2579
▁ill	-2580
▁Projekt	-2581
▁Sta	-2582
▁kne	-2583
▁video	-2584
▁iss	-2585
▁language	-2586
▁Geschichten	-2587
forder	-2588
▁Du	-2589
less	-2590
▁jede	-2591
▁result	-2592
▁di	-2593
▁built	-2594
▁cells	-2595
▁imagine	-2596
aper	-2597
▁figure	-2598
▁Fähigkeit	-2599
fä	-2600
▁Planeten	-2601
zieh	-2602
ultur	-2603
vious	-2604
rum	-2605
ians	-2606
aby	-2607
▁aff	-2608
▁rad	-2609
▁full	-2610
▁Informationen	-2611
fra	-2612
▁piece	-2613
The	-2614
utzt	-2615
uchte	-2616
▁eing	-2617
▁CA	-2618
fect	-2619
kennen	-2620
▁liegt	-2621
▁Schule	-2622
fle	-2623
▁age	-2624
▁erl	-2625
▁order	-2626
▁couple	-2627
▁wus	-2628
▁stories	-2629
ße	-2630
▁United	-2631
▁intell	-2632
▁Erfahr	-2633
lt	-2634
▁kurz	-2635
▁link	-2636
mö	-2637
ftw	-2638
▁wicht	-2639
▁Arten	-2640
▁material	-2641
▁exc	-2642
▁ihrem	-2643
iqu	-2644
äre	-2645
outh	-2646
▁Exper	-2647
satz	-2648
▁hund	-2649
iting	-2650
▁Gra	-2651
anken	-2652
ädchen	-2653
▁nah	-2654
imens	-2655
▁face	-2656
▁night	-2657
▁species	-2658
▁front	-2659
▁follow	-2660
▁verändern	-2661
Wh	-2662
ieht	-2663
ired	-2664
cc	-2665
une	-2666
ress	-2667
stit	-2668
zess	-2669
▁hoff	-2670
▁behav	-2671
▁defin	-2672
▁inner	-2673
▁months	-2674
▁sei	-2675
▁Leuten	-2676
▁seinem	-2677
▁pay	-2678
ivil	-2679
llig	-2680
▁Film	-2681
ission	-2682
▁neur	-2683
▁gehört	-2684
nisse	-2685
▁Nicht	-2686
▁nature	-2687
▁Dem	-2688
anzen	-2689
▁government	-2690
▁Für	-2691
▁Krie	-2692
▁klar	-2693
▁Punkt	-2694
▁group	-2695
▁entire	-2696
▁incre	-2697
▁innov	-2698
äche	-2699
▁überall	-2700
▁hö	-2701
asst	-2702
▁friends	-2703
▁darum	-2704
inner	-2705
▁market	-2706
▁Antwort	-2707
ilfe	-2708
voll	-2709
▁los	-2710
▁Ang	-2711
▁Fragen	-2712
▁education	-2713
▁stehen	-2714
mut	-2715
icro	-2716
▁must	-2717
▁everybody	-2718
▁Gebä	-2719
▁Afrika	-2720
▁hinter	-2721
▁sex	-2722
▁Ha	-2723
antw	-2724
▁until	-2725
▁Milliarden	-2726
▁Di	-2727
▁sw	-2728
ctor	-2729
omet	-2730
ienen	-2731
▁60	-2732
▁India	-2733
ering	-2734
▁Kopf	-2735
▁ident	-2736
▁anf	-2737
▁isn	-2738
▁dich	-2739
▁nennen	-2740
▁Unternehmen	-2741
eah	-2742
ames	-2743
plic	-2744
▁object	-2745
▁schwer	-2746
ußen	-2747
reif	-2748
▁alt	-2749
gende	-2750
▁tool	-2751
▁Glück	-2752
▁model	-2753
▁places	-2754
▁sagten	-2755
▁Can	-2756
▁ant	-2757
▁word	-2758
▁wasn	-2759
▁Männer	-2760
ielt	-2761
kten	-2762
nitt	-2763
▁Bet	-2764
▁quick	-2765
▁engine	-2766
▁Mädchen	-2767
▁entwickelt	-2768
irc	-2769
izin	-2770
▁Wirtschaft	-2771
▁completely	-2772
heim	-2773
immen	-2774
▁schwier	-2775
raum	-2776
beite	-2777
ateg	-2778
ested	-2779
omes	-2780
▁Goo	-2781
▁taking	-2782
▁anderes	-2783
▁chem	-2784
▁writ	-2785
▁reden	-2786
▁großart	-2787
▁Vort	-2788
▁eben	-2789
▁euch	-2790
▁wunder	-2791
chan	-2792
osph	-2793
▁large	-2794
▁Dieses	-2795
ene	-2796
▁Lös	-2797
▁terr	-2798
▁entde	-2799
ides	-2800
▁erh	-2801
▁mess	-2802
▁decided	-2803
▁spend	-2804
▁musste	-2805
▁Pe	-2806
▁Vie	-2807
▁dest	-2808
▁prov	-2809
▁view	-2810
▁exactly	-2811
▁discover	-2812
▁199	-2813
alten	-2814
▁repr	-2815
▁Jahrh	-2816
▁Zusammen	-2817
▁oce	-2818
▁Gener	-2819
▁itself	-2820
▁Ur	-2821
▁America	-2822
▁animals	-2823
▁spielen	-2824
ortun	-2825
wohl	-2826
acter	-2827
iber	-2828
ibly	-2829
▁adv	-2830
▁son	-2831
▁Mode	-2832
▁Meine	-2833
▁intern	-2834
zept	-2835
▁game	-2836
ienten	-2837
▁complex	-2838
ared	-2839
▁det	-2840
▁bereits	-2841
▁happening	-2842
bare	-2843
▁Every	-2844
▁success	-2845
ging	-2846
▁Spe	-2847
▁techn	-2848
werk	-2849
ftware	-2850
ability	-2851
▁Indien	-2852
▁became	-2853
▁students	-2854
sh	-2855
rieb	-2856
▁Netz	-2857
▁Minuten	-2858
▁kinds	-2859
▁ourselves	-2860
▁law	-2861
▁ment	-2862
▁stat	-2863
bra	-2864
▁sow	-2865
▁learned	-2866
▁cool	-2867
ütz	-2868
▁Flug	-2869
▁Gott	-2870
▁oben	-2871
▁past	-2872
▁halten	-2873
rug	-2874
▁deal	-2875
indung	-2876
▁States	-2877
▁though	-2878
▁society	-2879
▁themselves	-2880
▁Gesellschaft	-2881
▁schein	-2882
▁minutes	-2883
bed	-2884
▁wind	-2885
▁house	-2886
▁Bes	-2887
ively	-2888
▁since	-2889
▁80	-2890
▁mem	-2891
▁sens	-2892
▁benutzen	-2893
▁besonders	-2894
face	-2895
▁av	-2896
ommt	-2897
igten	-2898
▁gets	-2899
▁steht	-2900
oh	-2901
▁Ir	-2902
istan	-2903
▁John	-2904
▁questions	-2905
▁Dav	-2906
▁ones	-2907
ructure	-2908
▁Bilder	-2909
met	-2910
inning	-2911
▁study	-2912
▁fragen	-2913
▁conf	-2914
▁erreichen	-2915
med	-2916
▁Sc	-2917
▁God	-2918
▁hören	-2919
▁woman	-2920
▁Verhalten	-2921
ral	-2922
ocus	-2923
▁namens	-2924
▁erkennen	-2925
gung	-2926
ature	-2927
▁against	-2928
inal	-2929
▁verschiedene	-2930
ey	-2931
reis	-2932
▁del	-2933
▁dir	-2934
▁fly	-2935
icken	-2936
▁gerne	-2937
▁Ad	-2938
stra	-2939
▁knew	-2940
▁tradition	-2941
▁Wort	-2942
▁Kön	-2943
▁dep	-2944
igung	-2945
▁rather	-2946
▁huge	-2947
▁darin	-2948
fang	-2949
icult	-2950
ising	-2951
▁oper	-2952
liegen	-2953
▁Google	-2954
▁machte	-2955
▁company	-2956
reit	-2957
▁aud	-2958
▁sym	-2959
▁tro	-2960
▁Char	-2961
▁Familie	-2962
▁meet	-2963
▁along	-2964
▁Entscheid	-2965
uden	-2966
richten	-2967
grund	-2968
▁Them	-2969
▁somebody	-2970
ahn	-2971
ager	-2972
▁circ	-2973
▁arbeite	-2974
por	-2975
ichen	-2976
press	-2977
▁clear	-2978
neh	-2979
▁var	-2980
▁won	-2981
▁hätten	-2982
▁Fü	-2983
▁na	-2984
▁free	-2985
▁Bro	-2986
gramm	-2987
uchten	-2988
ef	-2989
uc	-2990
äuf	-2991
onne	-2992
oter	-2993
immer	-2994
▁aw	-2995
▁Bei	-2996
▁red	-2997
bild	-2998
unge	-2999
▁created	-3000
▁Far	-3001
▁Sprache	-3002
▁opportun	-3003
▁cra	-3004
▁focus	-3005
erk	-3006
iste	-3007
▁opt	-3008
wards	-3009
▁lead	-3010
▁priv	-3011
▁colle	-3012
▁turns	-3013
▁relations	-3014
zug	-3015
50	-3016
haps	-3017
▁arg	-3018
endet	-3019
▁Ergeb	-3020
▁Sü	-3021
▁Fol	-3022
▁Lin	-3023
▁ähn	-3024
▁Auto	-3025
▁name	-3026
itting	-3027
ächt	-3028
▁lea	-3029
▁eins	-3030
▁Macht	-3031
▁hours	-3032
iken	-3033
roll	-3034
▁mov	-3035
ished	-3036
▁bott	-3037
▁shows	-3038
öhn	-3039
▁Oder	-3040
▁Beweg	-3041
ource	-3042
▁film	-3043
tellen	-3044
▁jedem	-3045
▁American	-3046
▁guys	-3047
▁pred	-3048
ließlich	-3049
ai	-3050
ump	-3051
sk	-3052
ekte	-3053
▁att	-3054
änger	-3055
▁Then	-3056
▁sechs	-3057
▁Gefühl	-3058
inger	-3059
▁Doch	-3060
▁Gruppe	-3061
▁Eltern	-3062
istic	-3063
▁extrem	-3064
▁statt	-3065
▁worked	-3066
▁Cl	-3067
asure	-3068
▁news	-3069
tend	-3070
andel	-3071
▁Herz	-3072
▁gesam	-3073
▁non	-3074
ples	-3075
▁mot	-3076
haupt	-3077
orden	-3078
▁sometimes	-3079
of	-3080
▁wa	-3081
ützen	-3082
▁deep	-3083
rü	-3084
sent	-3085
annte	-3086
aster	-3087
▁Weil	-3088
▁team	-3089
▁Kn	-3090
▁least	-3091
▁braucht	-3092
▁disease	-3093
▁risk	-3094
▁Kultur	-3095
▁couldn	-3096
▁others	-3097
gestellt	-3098
▁explain	-3099
▁systems	-3100
view	-3101
▁ries	-3102
▁Angst	-3103
▁everyone	-3104
▁neu	-3105
▁welt	-3106
▁11	-3107
osp	-3108
▁ange	-3109
▁network	-3110
fall	-3111
▁HI	-3112
esse	-3113
weit	-3114
▁entf	-3115
▁Durch	-3116
▁Richt	-3117
▁Em	-3118
indet	-3119
▁Some	-3120
onen	-3121
▁Car	-3122
▁Kor	-3123
▁liter	-3124
ässt	-3125
▁Jahrhundert	-3126
hler	-3127
ublik	-3128
▁learning	-3129
▁difficult	-3130
ison	-3131
anger	-3132
▁gave	-3133
▁behind	-3134
▁listen	-3135
▁Vielleicht	-3136
punkt	-3137
▁bewegen	-3138
aly	-3139
▁redu	-3140
antast	-3141
ling	-3142
amera	-3143
führt	-3144
▁Gemein	-3145
aug	-3146
ätz	-3147
▁state	-3148
ined	-3149
▁Fir	-3150
▁glück	-3151
▁happy	-3152
▁vorstellen	-3153
▁amount	-3154
icherheit	-3155
▁führen	-3156
akter	-3157
anten	-3158
▁poor	-3159
▁early	-3160
▁einge	-3161
imension	-3162
▁thousands	-3163
▁HIV	-3164
▁death	-3165
▁moral	-3166
▁irgendwie	-3167
ask	-3168
cing	-3169
ning	-3170
▁arm	-3171
▁sug	-3172
▁mult	-3173
utions	-3174
▁natural	-3175
imp	-3176
▁Luft	-3177
zeugen	-3178
▁appro	-3179
▁wohl	-3180
▁richt	-3181
▁third	-3182
tens	-3183
▁short	-3184
▁entwickeln	-3185
▁verschiedenen	-3186
uz	-3187
apan	-3188
▁erhalten	-3189
ried	-3190
▁lik	-3191
▁Vater	-3192
▁invol	-3193
▁Stunden	-3194
▁oil	-3195
illions	-3196
ence	-3197
▁Video	-3198
▁Chris	-3199
rew	-3200
ules	-3201
▁bemer	-3202
▁super	-3203
▁instead	-3204
▁Krebs	-3205
▁auss	-3206
▁Masch	-3207
▁field	-3208
▁einzel	-3209
▁Veränder	-3210
▁connect	-3211
▁interact	-3212
▁ho	-3213
▁lots	-3214
▁einigen	-3215
ante	-3216
▁manchmal	-3217
▁Ke	-3218
häng	-3219
pect	-3220
▁erk	-3221
▁vorher	-3222
▁Ko	-3223
▁Sinn	-3224
▁Techn	-3225
▁surpr	-3226
▁Freund	-3227
ney	-3228
▁16	-3229
▁impro	-3230
schnitt	-3231
▁moving	-3232
▁Kindern	-3233
alax	-3234
▁disc	-3235
itions	-3236
▁einzige	-3237
äten	-3238
▁Werk	-3239
▁seven	-3240
▁machine	-3241
uh	-3242
ana	-3243
ony	-3244
▁Oh	-3245
▁Har	-3246
ients	-3247
▁takes	-3248
▁outside	-3249
▁bel	-3250
▁cut	-3251
▁difference	-3252
St	-3253
uren	-3254
▁frü	-3255
▁stell	-3256
▁beiden	-3257
min	-3258
iben	-3259
Oh	-3260
▁wollten	-3261
▁Material	-3262
▁menschlichen	-3263
▁collect	-3264
▁14	-3265
▁Sachen	-3266
▁relationship	-3267
▁Pa	-3268
haus	-3269
igte	-3270
▁David	-3271
auben	-3272
ölker	-3273
▁Patienten	-3274
▁verwenden	-3275
▁Hause	-3276
▁Stück	-3277
▁black	-3278
▁common	-3279
▁personal	-3280
▁experiment	-3281
bes	-3282
rif	-3283
▁close	-3284
▁green	-3285
▁recent	-3286
▁ändern	-3287
▁archite	-3288
▁powerful	-3289
oph	-3290
hlte	-3291
ither	-3292
▁eher	-3293
▁taken	-3294
▁emotion	-3295
▁Hö	-3296
▁Sk	-3297
ully	-3298
▁bestimm	-3299
tt	-3300
orth	-3301
▁relig	-3302
▁Europe	-3303
▁record	-3304
▁pattern	-3305
vention	-3306
▁nämlich	-3307
▁sage	-3308
tention	-3309
▁besten	-3310
▁changed	-3311
▁innerhalb	-3312
wand	-3313
▁digital	-3314
bere	-3315
ände	-3316
▁incl	-3317
erweise	-3318
▁Gebäude	-3319
zustellen	-3320
▁Regierung	-3321
ester	-3322
▁area	-3323
▁break	-3324
▁middle	-3325
▁Roboter	-3326
▁eyes	-3327
▁jour	-3328
▁pick	-3329
▁genet	-3330
▁Organis	-3331
▁unterschied	-3332
opp	-3333
▁tem	-3334
▁comput	-3335
▁online	-3336
rab	-3337
▁201	-3338
▁century	-3339
▁beginnen	-3340
eh	-3341
ards	-3342
ahren	-3343
okrat	-3344
▁Aufg	-3345
▁indust	-3346
▁culture	-3347
ober	-3348
zieren	-3349
▁verändert	-3350
▁cann	-3351
alität	-3352
▁unglaublich	-3353
▁fort	-3354
▁Bezieh	-3355
ased	-3356
augh	-3357
▁Rück	-3358
▁hands	-3359
▁Heraus	-3360
ehen	-3361
gang	-3362
▁serv	-3363
▁local	-3364
▁World	-3365
▁getan	-3366
▁pract	-3367
▁wonderful	-3368
!"	-3369
oms	-3370
hor	-3371
▁17	-3372
unch	-3373
▁90	-3374
ließen	-3375
▁eight	-3376
▁paper	-3377
lev	-3378
oud	-3379
▁ern	-3380
▁Meer	-3381
aktion	-3382
▁Umwelt	-3383
ummer	-3384
▁event	-3385
▁evolution	-3386
▁Sit	-3387
▁given	-3388
▁fantast	-3389
uld	-3390
ikro	-3391
▁Publik	-3392
genommen	-3393
jor	-3394
urt	-3395
oten	-3396
tete	-3397
▁turned	-3398
ove	-3399
▁hol	-3400
▁squ	-3401
▁fand	-3402
▁ansch	-3403
▁needs	-3404
▁Gleich	-3405
scheiden	-3406
zy	-3407
▁Ben	-3408
isieren	-3409
▁perhaps	-3410
▁Universum	-3411
sw	-3412
▁easy	-3413
▁inspir	-3414
inder	-3415
▁leave	-3416
▁ocean	-3417
▁perform	-3418
▁communic	-3419
▁mathemat	-3420
▁versucht	-3421
▁yourself	-3422
ams	-3423
ufen	-3424
▁Mil	-3425
▁zwar	-3426
▁terms	-3427
▁interessant	-3428
▁Kle	-3429
▁lim	-3430
▁hold	-3431
▁const	-3432
▁wegen	-3433
▁absolute	-3434
▁überhaupt	-3435
▁population	-3436
spr	-3437
▁Su	-3438
▁tut	-3439
▁Ziel	-3440
▁stra	-3441
▁parts	-3442
▁seeing	-3443
▁obvious	-3444
▁Je	-3445
▁Res	-3446
▁Länder	-3447
ply	-3448
verage	-3449
▁Dieser	-3450
pression	-3451
▁occ	-3452
▁Lehrer	-3453
▁potent	-3454
▁Vortrag	-3455
▁beginning	-3456
orie	-3457
▁inde	-3458
▁image	-3459
▁micro	-3460
▁schauen	-3461
omat	-3462
text	-3463
▁low	-3464
▁gleichen	-3465
▁Entwicklung	-3466
hnt	-3467
year	-3468
▁zer	-3469
▁Lage	-3470
▁stellt	-3471
▁Rest	-3472
▁Anfang	-3473
▁finally	-3474
by	-3475
ängt	-3476
▁Städ	-3477
▁miss	-3478
▁reach	-3479
▁father	-3480
▁Nat	-3481
▁beob	-3482
haft	-3483
▁cal	-3484
▁treffen	-3485
iale	-3486
▁blue	-3487
▁robot	-3488
▁architect	-3489
aren	-3490
baren	-3491
völker	-3492
▁Ober	-3493
▁ang	-3494
▁sat	-3495
▁Just	-3496
▁ster	-3497
▁Essen	-3498
▁Erfahrung	-3499
ales	-3500
▁obs	-3501
▁allem	-3502
▁during	-3503
▁nächste	-3504
▁Herausforder	-3505
zin	-3506
book	-3507
ills	-3508
▁cle	-3509
▁viol	-3510
yl	-3511
iziert	-3512
system	-3513
▁Prä	-3514
▁bir	-3515
▁cannot	-3516
▁Stellen	-3517
Well	-3518
▁Part	-3519
idence	-3520
▁friend	-3521
▁Prozess	-3522
▁present	-3523
▁%	-3524
enne	-3525
▁Tier	-3526
▁spra	-3527
▁Wochen	-3528
▁erstaun	-3529
usion	-3530
▁orig	-3531
▁expect	-3532
▁needed	-3533
▁realized	-3534
▁Vir	-3535
ledge	-3536
alif	-3537
▁niemand	-3538
▁whatever	-3539
umm	-3540
wär	-3541
▁saf	-3542
ially	-3543
▁Japan	-3544
kü	-3545
▁Pap	-3546
ziehen	-3547
▁198	-3548
▁Chin	-3549
▁major	-3550
▁Job	-3551
▁May	-3552
▁Klim	-3553
▁grand	-3554
▁access	-3555
icks	-3556
nahme	-3557
▁Fahr	-3558
▁thank	-3559
bel	-3560
bte	-3561
zub	-3562
aring	-3563
▁mole	-3564
▁longer	-3565
▁simply	-3566
▁sozial	-3567
lam	-3568
orten	-3569
▁Hilfe	-3570
▁Mittel	-3571
▁bereit	-3572
schaffen	-3573
▁perfect	-3574
ele	-3575
pid	-3576
son	-3577
▁Zum	-3578
▁ple	-3579
▁sun	-3580
ograf	-3581
▁Kap	-3582
inary	-3583
▁scale	-3584
oon	-3585
osen	-3586
▁Typ	-3587
▁enc	-3588
▁lässt	-3589
▁vö	-3590
▁size	-3591
▁Tages	-3592
▁Tiere	-3593
▁behavior	-3594
▁Neur	-3595
▁mussten	-3596
▁parents	-3597
agn	-3598
▁hy	-3599
isse	-3600
▁leg	-3601
ources	-3602
▁Archite	-3603
▁Publikum	-3604
▁Zug	-3605
elten	-3606
fully	-3607
▁weitere	-3608
▁interested	-3609
▁economic	-3610
mm	-3611
oun	-3612
▁fore	-3613
▁Polit	-3614
▁Dingen	-3615
▁fühlen	-3616
▁companies	-3617
bor	-3618
▁Geschäft	-3619
reg	-3620
ötz	-3621
▁Rei	-3622
▁buy	-3623
cious	-3624
▁near	-3625
▁media	-3626
▁humans	-3627
ban	-3628
ritte	-3629
▁falsch	-3630
▁verste	-3631
▁Sicherheit	-3632
ilos	-3633
part	-3634
itter	-3635
▁surv	-3636
▁verst	-3637
▁bringt	-3638
▁ground	-3639
ama	-3640
▁21	-3641
auso	-3642
chter	-3643
udden	-3644
▁eigene	-3645
▁Kr	-3646
hood	-3647
▁Web	-3648
statt	-3649
anach	-3650
▁stay	-3651
▁Freunde	-3652
▁13	-3653
▁Dr	-3654
▁key	-3655
▁conc	-3656
merikan	-3657
▁Denken	-3658
▁menschliche	-3659
▁hab	-3660
fläche	-3661
▁tried	-3662
mus	-3663
ilar	-3664
ingt	-3665
achst	-3666
rieden	-3667
▁deren	-3668
ünde	-3669
lungs	-3670
zentr	-3671
▁Mich	-3672
▁erre	-3673
▁kamen	-3674
▁Grunde	-3675
▁People	-3676
▁meines	-3677
▁quickly	-3678
▁okay	-3679
▁bi	-3680
▁unters	-3681
lex	-3682
ails	-3683
▁value	-3684
▁Verein	-3685
▁cities	-3686
▁fundament	-3687
nal	-3688
ächst	-3689
iction	-3690
▁press	-3691
▁leaders	-3692
sein	-3693
▁pres	-3694
▁Möglichkeiten	-3695
ellow	-3696
▁Tage	-3697
▁gone	-3698
cially	-3699
▁spent	-3700
ibility	-3701
▁approach	-3702
cle	-3703
fgh	-3704
ouch	-3705
▁Mars	-3706
▁Seit	-3707
antwort	-3708
▁dessen	-3709
orge	-3710
▁feed	-3711
▁Unterschied	-3712
omin	-3713
annten	-3714
▁recogn	-3715
▁Gedanken	-3716
▁Per	-3717
▁dark	-3718
▁felt	-3719
▁worden	-3720
▁support	-3721
cin	-3722
ites	-3723
▁Meth	-3724
isiert	-3725
▁Haupt	-3726
▁Lassen	-3727
▁reality	-3728
iny	-3729
▁Met	-3730
fluss	-3731
▁persön	-3732
▁special	-3733
com	-3734
ised	-3735
izing	-3736
▁Gren	-3737
▁kont	-3738
▁virt	-3739
▁essen	-3740
▁grund	-3741
izieren	-3742
▁hervor	-3743
▁Struktur	-3744
nahmen	-3745
▁Markt	-3746
▁wusste	-3747
äume	-3748
falls	-3749
▁Boden	-3750
▁enorm	-3751
▁lösen	-3752
▁unten	-3753
▁völlig	-3754
▁schlecht	-3755
▁jo	-3756
▁Sek	-3757
▁ged	-3758
▁Fort	-3759
ysteme	-3760
▁führt	-3761
▁jedoch	-3762
▁ability	-3763
acy	-3764
uth	-3765
äss	-3766
▁Öl	-3767
ains	-3768
imme	-3769
▁Ant	-3770
▁Elekt	-3771
▁Right	-3772
▁weeks	-3773
ops	-3774
elte	-3775
▁Oze	-3776
▁lab	-3777
fghan	-3778
▁App	-3779
▁Tre	-3780
▁draw	-3781
▁feet	-3782
flanzen	-3783
lin	-3784
edeut	-3785
▁send	-3786
▁solche	-3787
▁strong	-3788
hrte	-3789
▁democ	-3790
▁schreiben	-3791
▁70	-3792
inde	-3793
▁phone	-3794
ras	-3795
▁Bew	-3796
▁neg	-3797
▁fu	-3798
▁lost	-3799
▁requ	-3800
▁direkt	-3801
▁growth	-3802
▁obwohl	-3803
▁opportunity	-3804
bon	-3805
▁Bar	-3806
rogen	-3807
▁known	-3808
▁Staaten	-3809
▁gleiche	-3810
go	-3811
▁foot	-3812
▁Thema	-3813
▁photograph	-3814
ötzlich	-3815
▁Kü	-3816
▁Nein	-3817
▁fish	-3818
▁Stand	-3819
▁National	-3820
▁damals	-3821
hrung	-3822
samkeit	-3823
▁Bereich	-3824
▁economy	-3825
▁gemeinsam	-3826
uelle	-3827
▁wären	-3828
▁teilen	-3829
▁sitting	-3830
You	-3831
hält	-3832
ators	-3833
aught	-3834
▁slow	-3835
▁Lösung	-3836
▁instit	-3837
▁modern	-3838
ades	-3839
▁Instit	-3840
▁direct	-3841
lef	-3842
▁sollen	-3843
abil	-3844
ierend	-3845
▁areas	-3846
▁fight	-3847
▁letzte	-3848
▁betrachten	-3849
irm	-3850
▁ed	-3851
▁Rich	-3852
▁either	-3853
▁Bra	-3854
lossen	-3855
ämp	-3856
What	-3857
uell	-3858
▁Red	-3859
▁Nacht	-3860
▁Schwe	-3861
▁political	-3862
rote	-3863
▁ermö	-3864
▁step	-3865
zellen	-3866
▁fragte	-3867
▁structure	-3868
▁dad	-3869
▁hor	-3870
hören	-3871
ürger	-3872
ustain	-3873
ünstler	-3874
▁bleiben	-3875
▁measure	-3876
Was	-3877
▁fear	-3878
▁Woche	-3879
▁stark	-3880
▁animal	-3881
▁suchen	-3882
▁Gesicht	-3883
▁besteht	-3884
ball	-3885
zeuge	-3886
▁write	-3887
▁incredible	-3888
▁Mc	-3889
hnen	-3890
spro	-3891
▁eat	-3892
ently	-3893
▁Lond	-3894
▁Nahr	-3895
▁beein	-3896
▁Mo	-3897
este	-3898
wirk	-3899
▁Ist	-3900
ollen	-3901
▁anderer	-3902
▁box	-3903
▁har	-3904
▁caus	-3905
▁main	-3906
▁Innov	-3907
arbeitet	-3908
▁changes	-3909
▁attention	-3910
▁schwierig	-3911
ha	-3912
sc	-3913
oid	-3914
jekte	-3915
▁West	-3916
▁based	-3917
▁sudden	-3918
▁English	-3919
▁individual	-3920
ja	-3921
zogen	-3922
▁brought	-3923
▁teil	-3924
assion	-3925
▁Viele	-3926
▁zuvor	-3927
udenten	-3928
▁consider	-3929
öße	-3930
▁log	-3931
druck	-3932
ology	-3933
▁Hoff	-3934
gebung	-3935
gefühl	-3936
▁Ländern	-3937
▁amerikan	-3938
lang	-3939
▁bar	-3940
gress	-3941
▁clos	-3942
▁images	-3943
▁komplex	-3944
▁verbess	-3945
▁challenge	-3946
▁funktionieren	-3947
oes	-3948
ilden	-3949
eum	-3950
chie	-3951
elbe	-3952
▁Tra	-3953
▁Plan	-3954
▁books	-3955
▁Monate	-3956
▁wouldn	-3957
▁emp	-3958
▁gives	-3959
▁bottom	-3960
bene	-3961
itze	-3962
ances	-3963
▁Fern	-3964
▁Park	-3965
▁essent	-3966
▁sieben	-3967
▁numbers	-3968
merk	-3969
▁Mot	-3970
▁Ster	-3971
ustrie	-3972
▁univers	-3973
ikal	-3974
▁Bau	-3975
▁Tats	-3976
▁prim	-3977
orning	-3978
▁genauso	-3979
▁realize	-3980
▁Familien	-3981
▁gefunden	-3982
▁transform	-3983
vest	-3984
▁Sym	-3985
stein	-3986
▁fail	-3987
▁pull	-3988
erstör	-3989
▁Afghan	-3990
▁consum	-3991
▁größten	-3992
▁respons	-3993
▁surface	-3994
▁knowledge	-3995
gn	-3996
▁Ihren	-3997
▁Liebe	-3998
▁Bedeut	-3999
äm	-4000
▁kn	-4001
ores	-4002
ieten	-4003
ausende	-4004
▁unseres	-4005
▁international	-4006
▁comb	-4007
▁crit	-4008
▁inte	-4009
▁London	-4010
▁technologies	-4011
ex	-4012
ube	-4013
ival	-4014
frast	-4015
▁Namen	-4016
osition	-4017
rän	-4018
oper	-4019
▁born	-4020
▁mechan	-4021
▁Arbeits	-4022
▁meaning	-4023
cks	-4024
eng	-4025
organ	-4026
▁Kraft	-4027
▁impact	-4028
▁visual	-4029
igkeiten	-4030
▁verbunden	-4031
kre	-4032
ests	-4033
▁Dam	-4034
finden	-4035
forsch	-4036
▁force	-4037
▁neues	-4038
ynam	-4039
ouble	-4040
zeigt	-4041
▁emer	-4042
▁benöt	-4043
▁molec	-4044
▁schre	-4045
▁kaufen	-4046
▁theory	-4047
▁zweite	-4048
▁sterben	-4049
▁Wissenschaftler	-4050
bol	-4051
isst	-4052
gegen	-4053
▁fall	-4054
▁Autos	-4055
▁giving	-4056
▁climate	-4057
▁growing	-4058
▁audience	-4059
▁physical	-4060
In	-4061
zw	-4062
haf	-4063
ips	-4064
▁tw	-4065
ored	-4066
wart	-4067
▁Sol	-4068
atten	-4069
▁blood	-4070
▁trotz	-4071
▁Modell	-4072
▁größte	-4073
▁national	-4074
▁developed	-4075
▁vill	-4076
reifen	-4077
▁Mikro	-4078
▁electric	-4079
We	-4080
ox	-4081
▁Fin	-4082
▁Wert	-4083
▁flow	-4084
▁Krieg	-4085
unehmen	-4086
iot	-4087
ücke	-4088
itzen	-4089
▁feeling	-4090
▁forward	-4091
res	-4092
▁lesen	-4093
▁spread	-4094
▁welches	-4095
▁prop	-4096
gewöhn	-4097
ikaner	-4098
▁Europ	-4099
▁nimmt	-4100
▁wrote	-4101
▁langsam	-4102
▁revolution	-4103
▁X	-4104
▁deg	-4105
▁Best	-4106
▁Frei	-4107
jähr	-4108
▁tief	-4109
▁Sehen	-4110
▁average	-4111
▁erzählt	-4112
▁gelernt	-4113
ieg	-4114
uit	-4115
idge	-4116
reds	-4117
▁Kat	-4118
▁liebe	-4119
▁Zellen	-4120
▁Mathemat	-4121
▁understanding	-4122
▁map	-4123
blick	-4124
▁stage	-4125
▁tools	-4126
▁Revolution	-4127
inos	-4128
▁500	-4129
▁Mag	-4130
▁ign	-4131
▁farm	-4132
▁Bewegung	-4133
▁scientists	-4134
Das	-4135
bre	-4136
ersp	-4137
weis	-4138
inzip	-4139
prochen	-4140
▁erschaffen	-4141
ks	-4142
bau	-4143
▁Tem	-4144
▁Brit	-4145
▁bitte	-4146
▁24	-4147
head	-4148
ktor	-4149
▁vol	-4150
produ	-4151
▁morning	-4152
▁CO	-4153
▁led	-4154
▁With	-4155
▁hine	-4156
▁seems	-4157
▁Programm	-4158
▁starting	-4159
chsel	-4160
▁South	-4161
▁ersch	-4162
▁draußen	-4163
▁scheint	-4164
▁serious	-4165
yr	-4166
▁arr	-4167
▁syn	-4168
mosph	-4169
▁civil	-4170
▁erinnern	-4171
.,	-4172
ID	-4173
jen	-4174
mar	-4175
▁Jed	-4176
▁fair	-4177
▁hast	-4178
▁color	-4179
aliforn	-4180
▁Medien	-4181
▁center	-4182
völkerung	-4183
▁patients	-4184
▁Technologien	-4185
lauf	-4186
licht	-4187
▁nice	-4188
▁path	-4189
▁Reihe	-4190
▁verschw	-4191
▁gegenüber	-4192
äß	-4193
put	-4194
lagen	-4195
▁Labor	-4196
▁Technik	-4197
▁running	-4198
▁Gemeinschaft	-4199
▁Heute	-4200
▁anyone	-4201
▁beeinfl	-4202
▁wissenschaft	-4203
▁Tw	-4204
äuft	-4205
▁ice	-4206
ochen	-4207
onstr	-4208
▁miles	-4209
▁Schritt	-4210
▁bewusst	-4211
▁creating	-4212
▁schließlich	-4213
iod	-4214
▁Ök	-4215
rift	-4216
▁197	-4217
alter	-4218
ziale	-4219
▁anal	-4220
▁rein	-4221
estern	-4222
▁favor	-4223
▁white	-4224
ends	-4225
ätze	-4226
igent	-4227
gliche	-4228
▁erfolg	-4229
▁erklären	-4230
▁Verbindung	-4231
ploy	-4232
▁Kam	-4233
▁Cent	-4234
▁dead	-4235
▁jemals	-4236
▁literally	-4237
olz	-4238
▁flo	-4239
▁includ	-4240
hy	-4241
▁Zahl	-4242
▁fert	-4243
▁ausge	-4244
agieren	-4245
▁hinaus	-4246
▁Eis	-4247
feren	-4248
äsent	-4249
zeitig	-4250
▁Blick	-4251
omm	-4252
▁et	-4253
bten	-4254
▁eye	-4255
▁Alle	-4256
▁hosp	-4257
▁optim	-4258
▁playing	-4259
▁wachsen	-4260
▁flu	-4261
obody	-4262
▁Phys	-4263
▁nahm	-4264
▁prom	-4265
▁Muster	-4266
▁folgen	-4267
▁gewesen	-4268
▁telling	-4269
▁Natürlich	-4270
ped	-4271
rael	-4272
▁prin	-4273
ulture	-4274
▁avail	-4275
▁worth	-4276
▁gebaut	-4277
▁Wahrheit	-4278
▁passieren	-4279
cond	-4280
usch	-4281
▁196	-4282
▁Gef	-4283
aking	-4284
▁road	-4285
entlichen	-4286
▁Our	-4287
▁bist	-4288
▁text	-4289
▁hundreds	-4290
▁discovered	-4291
Th	-4292
aged	-4293
ativ	-4294
▁Erk	-4295
▁Süd	-4296
▁Unsere	-4297
▁fanden	-4298
▁sustain	-4299
▁geworden	-4300
use	-4301
▁Tit	-4302
▁lif	-4303
asing	-4304
rolle	-4305
▁Wahl	-4306
▁guess	-4307
▁beginnt	-4308
▁protect	-4309
▁millions	-4310
afft	-4311
▁Team	-4312
▁aren	-4313
▁bege	-4314
▁proper	-4315
▁Tatsache	-4316
▁anfangen	-4317
▁glücklich	-4318
▁miteinander	-4319
▁eth	-4320
▁sehe	-4321
gessen	-4322
▁post	-4323
andeln	-4324
ichtet	-4325
▁medic	-4326
▁neigh	-4327
▁Gewalt	-4328
▁similar	-4329
rig	-4330
▁Rad	-4331
▁San	-4332
▁übr	-4333
▁leicht	-4334
▁unterst	-4335
▁aussehen	-4336
gor	-4337
umb	-4338
urity	-4339
▁Recht	-4340
▁finan	-4341
▁bekannt	-4342
▁kleines	-4343
▁Är	-4344
uals	-4345
▁Yeah	-4346
▁mache	-4347
▁daraus	-4348
▁concept	-4349
wirtschaft	-4350
aff	-4351
▁ko	-4352
▁Stre	-4353
▁wert	-4354
▁deshalb	-4355
▁nachdem	-4356
▁Studenten	-4357
zens	-4358
▁Jeder	-4359
▁Bildung	-4360
aß	-4361
aves	-4362
zeugt	-4363
▁größer	-4364
▁solution	-4365
cker	-4366
fern	-4367
▁300	-4368
▁hon	-4369
älfte	-4370
▁Anzahl	-4371
▁travel	-4372
▁Kranken	-4373
▁möchten	-4374
▁Richtung	-4375
bew	-4376
ibr	-4377
ungsk	-4378
wegen	-4379
ändig	-4380
▁Face	-4381
▁curr	-4382
▁sell	-4383
▁soon	-4384
▁zehn	-4385
▁neben	-4386
▁perfe	-4387
▁polic	-4388
▁Christ	-4389
▁suggest	-4390
▁verloren	-4391
ille	-4392
wind	-4393
▁mom	-4394
▁raus	-4395
▁Platz	-4396
▁Bürger	-4397
▁movement	-4398
▁positive	-4399
▁iP	-4400
uellen	-4401
▁Sicht	-4402
▁moder	-4403
▁konzentr	-4404
cul	-4405
▁1,	-4406
▁dro	-4407
gorith	-4408
▁benef	-4409
▁blind	-4410
0,	-4411
ragen	-4412
▁issue	-4413
▁danach	-4414
▁development	-4415
olf	-4416
öst	-4417
iled	-4418
icans	-4419
▁cars	-4420
▁Ihrem	-4421
▁truth	-4422
▁schwar	-4423
otyp	-4424
▁Stat	-4425
▁spir	-4426
iation	-4427
▁Alles	-4428
▁alone	-4429
▁block	-4430
▁Afghanistan	-4431
▁Tatsächlich	-4432
ley	-4433
▁cop	-4434
▁lay	-4435
▁mob	-4436
itäten	-4437
▁Super	-4438
▁smart	-4439
▁Stimme	-4440
▁faszin	-4441
▁experien	-4442
▁Krankheit	-4443
▁verwendet	-4444
▁absolutely	-4445
ideos	-4446
▁Aben	-4447
▁acht	-4448
▁Medik	-4449
▁falls	-4450
▁developing	-4451
▁By	-4452
anze	-4453
▁est	-4454
▁hil	-4455
▁mer	-4456
▁gele	-4457
▁verm	-4458
▁Teile	-4459
▁sever	-4460
▁shape	-4461
▁solve	-4462
▁Produkt	-4463
▁Während	-4464
▁Bedeutung	-4465
▁tö	-4466
aubt	-4467
ered	-4468
▁Ken	-4469
▁fur	-4470
▁pack	-4471
setzen	-4472
▁Reise	-4473
▁showed	-4474
sichtlich	-4475
▁compassion	-4476
▁Bas	-4477
▁toll	-4478
▁Ihrer	-4479
pecially	-4480
▁plötzlich	-4481
▁innovation	-4482
Sch	-4483
des	-4484
iko	-4485
oose	-4486
▁Arm	-4487
▁Hel	-4488
griff	-4489
ining	-4490
▁suff	-4491
▁Besch	-4492
▁elekt	-4493
▁talked	-4494
▁Aufgabe	-4495
▁entfernt	-4496
omb	-4497
uchs	-4498
teilt	-4499
▁among	-4500
▁knows	-4501
▁solar	-4502
▁schrieb	-4503
yond	-4504
▁Ris	-4505
ionen	-4506
▁type	-4507
▁Eigen	-4508
▁achie	-4509
▁cover	-4510
▁bekommt	-4511
▁Situation	-4512
ny	-4513
▁Fuß	-4514
▁dein	-4515
▁Einige	-4516
▁findet	-4517
▁stellte	-4518
▁Umgebung	-4519
▁available	-4520
▁incredibly	-4521
ügen	-4522
▁voice	-4523
▁genannt	-4524
▁designed	-4525
▁Vorstellung	-4526
SA	-4527
imen	-4528
recht	-4529
▁rate	-4530
▁Aktiv	-4531
▁benutzt	-4532
▁patient	-4533
how	-4534
▁pur	-4535
▁guten	-4536
▁attack	-4537
▁gezeigt	-4538
▁produce	-4539
▁industry	-4540
▁Forschung	-4541
▁Ira	-4542
▁Iran	-4543
▁Viel	-4544
▁milit	-4545
▁kleiner	-4546
▁beschäft	-4547
▁recently	-4548
▁resources	-4549
▁sea	-4550
▁fing	-4551
▁infl	-4552
▁tiny	-4553
▁aufge	-4554
▁Erfolg	-4555
▁Deshalb	-4556
▁entscheiden	-4557
xy	-4558
rel	-4559
▁cy	-4560
ique	-4561
▁Mark	-4562
▁Nord	-4563
ichter	-4564
ritten	-4565
sequen	-4566
▁chance	-4567
▁vision	-4568
IDS	-4569
▁Sat	-4570
▁jen	-4571
bringen	-4572
▁period	-4573
▁sofort	-4574
▁Facebook	-4575
Pro	-4576
auft	-4577
▁Mex	-4578
roffen	-4579
▁touch	-4580
▁situation	-4581
▁Na	-4582
umor	-4583
▁Bel	-4584
ussen	-4585
▁fire	-4586
itation	-4587
▁Sonnen	-4588
▁asking	-4589
ierungen	-4590
▁Veränderung	-4591
ms	-4592
▁Don	-4593
▁hig	-4594
bsite	-4595
▁Prof	-4596
▁sold	-4597
ishing	-4598
▁drive	-4599
▁Wirklich	-4600
▁kü	-4601
▁Paul	-4602
▁Rolle	-4603
▁street	-4604
▁convers	-4605
▁Demokrat	-4606
▁changing	-4607
▁erfolgreich	-4608
ärt	-4609
▁Dor	-4610
▁Zent	-4611
gemein	-4612
▁Straßen	-4613
▁niemals	-4614
racy	-4615
setz	-4616
oring	-4617
▁samm	-4618
▁save	-4619
▁beyond	-4620
▁bigger	-4621
▁gefähr	-4622
▁weltweit	-4623
lage	-4624
wood	-4625
▁tat	-4626
▁Blut	-4627
▁Wind	-4628
▁camp	-4629
▁issues	-4630
▁Chinese	-4631
▁generation	-4632
org	-4633
itch	-4634
▁Beg	-4635
▁egal	-4636
andelt	-4637
▁refle	-4638
▁search	-4639
▁pictures	-4640
▁nachdenken	-4641
▁anc	-4642
▁nuc	-4643
utage	-4644
▁wall	-4645
▁Psych	-4646
isierung	-4647
▁Generation	-4648
roh	-4649
▁Fä	-4650
inne	-4651
▁Som	-4652
▁def	-4653
▁ref	-4654
▁ult	-4655
▁City	-4656
indern	-4657
▁Fisch	-4658
▁beide	-4659
▁subject	-4660
▁evidence	-4661
▁komplett	-4662
▁computers	-4663
gra	-4664
▁sonst	-4665
zufinden	-4666
▁becomes	-4667
▁hundred	-4668
▁message	-4669
▁soziale	-4670
▁Sau	-4671
▁yes	-4672
ünden	-4673
▁Schü	-4674
▁conv	-4675
▁dream	-4676
▁react	-4677
unktion	-4678
wachsen	-4679
▁Hälfte	-4680
▁putting	-4681
anda	-4682
▁hoffe	-4683
▁carbon	-4684
▁reasons	-4685
▁intelligen	-4686
▁Herausforderung	-4687
▁Rel	-4688
iesen	-4689
▁Foto	-4690
▁peace	-4691
▁tells	-4692
▁predict	-4693
▁Entwicklungs	-4694
hern	-4695
esser	-4696
ified	-4697
unkte	-4698
▁Chem	-4699
▁haven	-4700
▁rules	-4701
▁Amerika	-4702
▁erreicht	-4703
▁especially	-4704
.“	-4705
fore	-4706
ctors	-4707
ologie	-4708
▁Größe	-4709
▁allein	-4710
▁Medizin	-4711
▁Meinung	-4712
▁verrück	-4713
▁writing	-4714
▁betrachte	-4715
▁profession	-4716
▁Of	-4717
iers	-4718
mung	-4719
änge	-4720
▁Tat	-4721
▁Tür	-4722
▁geh	-4723
essor	-4724
oices	-4725
utzutage	-4726
▁medical	-4727
▁Mitgefühl	-4728
enk	-4729
▁ak	-4730
back	-4731
pfer	-4732
▁Erd	-4733
▁song	-4734
▁wid	-4735
▁wish	-4736
führen	-4737
lassen	-4738
achstum	-4739
ee	-4740
▁Ed	-4741
akes	-4742
▁Bab	-4743
▁überw	-4744
agement	-4745
▁general	-4746
▁kontroll	-4747
▁conscious	-4748
▁Dan	-4749
▁Bill	-4750
▁bekam	-4751
▁mögen	-4752
▁except	-4753
▁veröff	-4754
rom	-4755
band	-4756
▁Hir	-4757
▁fix	-4758
plant	-4759
▁entsp	-4760
▁action	-4761
▁bacter	-4762
▁several	-4763
▁einfache	-4764
ta	-4765
cts	-4766
▁ann	-4767
dlich	-4768
▁alten	-4769
▁zeige	-4770
▁Straße	-4771
▁lieben	-4772
▁function	-4773
win	-4774
ziert	-4775
üssel	-4776
▁Geist	-4777
▁Mitte	-4778
▁fahren	-4779
▁gingen	-4780
▁Prinzip	-4781
▁strateg	-4782
asen	-4783
▁links	-4784
möglich	-4785
▁Europa	-4786
▁Papier	-4787
▁danger	-4788
▁integr	-4789
▁region	-4790
▁involved	-4791
▁Entscheidungen	-4792
▁Ju	-4793
▁North	-4794
▁device	-4795
▁laufen	-4796
▁spricht	-4797
adem	-4798
▁Wör	-4799
ected	-4800
ossen	-4801
▁ball	-4802
▁rock	-4803
▁daher	-4804
▁lived	-4805
▁Bakter	-4806
▁groups	-4807
▁software	-4808
▁Fähigkeiten	-4809
Wir	-4810
affe	-4811
stens	-4812
▁Will	-4813
▁frag	-4814
▁girls	-4815
▁total	-4816
▁virus	-4817
▁nachzu	-4818
▁ziehen	-4819
▁gegeben	-4820
itet	-4821
room	-4822
▁dram	-4823
▁evol	-4824
▁Austr	-4825
▁Kosten	-4826
▁jemanden	-4827
ada	-4828
ami	-4829
iar	-4830
ows	-4831
ford	-4832
▁brachte	-4833
▁überras	-4834
▁bestimmt	-4835
▁genommen	-4836
ißen	-4837
arily	-4838
ängen	-4839
▁baby	-4840
▁motiv	-4841
▁Hinter	-4842
▁Israel	-4843
▁Künstler	-4844
▁Realität	-4845
▁geschieht	-4846
▁Kil	-4847
▁Einz	-4848
▁died	-4849
▁Preis	-4850
▁nennt	-4851
▁table	-4852
▁choice	-4853
▁likely	-4854
▁Richard	-4855
zte	-4856
▁Bi	-4857
ises	-4858
▁Von	-4859
▁unbe	-4860
▁Städte	-4861
▁fliegen	-4862
▁See	-4863
▁akt	-4864
▁gek	-4865
ienst	-4866
erstoff	-4867
jenigen	-4868
▁länger	-4869
▁setzen	-4870
schieden	-4871
▁towards	-4872
ify	-4873
▁la	-4874
ette	-4875
imal	-4876
ällt	-4877
abhäng	-4878
▁basic	-4879
▁games	-4880
▁sounds	-4881
enschaft	-4882
▁geboren	-4883
▁schools	-4884
▁materials	-4885
▁Nachrichten	-4886
ech	-4887
oke	-4888
zer	-4889
auten	-4890
flict	-4891
indest	-4892
arbeiten	-4893
▁Bewusst	-4894
▁potential	-4895
esh	-4896
the	-4897
▁op	-4898
pped	-4899
rate	-4900
▁Nie	-4901
▁speed	-4902
▁liegen	-4903
▁necess	-4904
▁Maschine	-4905
zü	-4906
stru	-4907
▁Maß	-4908
▁nine	-4909
▁First	-4910
▁Zahlen	-4911
▁schneller	-4912
kel	-4913
viel	-4914
olekü	-4915
spiel	-4916
unger	-4917
▁Eink	-4918
▁Leid	-4919
dessen	-4920
▁Where	-4921
▁wirtschaft	-4922
▁interessiert	-4923
fre	-4924
▁oh	-4925
▁kur	-4926
▁Sonne	-4927
▁extraord	-4928
▁teachers	-4929
▁herauszufinden	-4930
bung	-4931
▁Pal	-4932
▁sle	-4933
ivität	-4934
▁kreat	-4935
▁machten	-4936
▁Vereinigten	-4937
atic	-4938
atte	-4939
artet	-4940
ously	-4941
▁rich	-4942
▁Sm	-4943
▁Strom	-4944
▁intro	-4945
▁moved	-4946
▁histor	-4947
indungen	-4948
▁gesamte	-4949
rief	-4950
älter	-4951
▁nein	-4952
isions	-4953
▁Firma	-4954
bildung	-4955
▁Kommun	-4956
▁Studie	-4957
▁office	-4958
▁projects	-4959
▁character	-4960
▁particularly	-4961
▁TV	-4962
▁Nur	-4963
▁bee	-4964
▁lok	-4965
▁Politik	-4966
▁anstatt	-4967
▁demonstr	-4968
▁scientific	-4969
arr	-4970
lei	-4971
kehr	-4972
antly	-4973
nehmer	-4974
▁Kreat	-4975
▁Schön	-4976
▁activ	-4977
▁Schauen	-4978
▁1.	-4979
come	-4980
▁dru	-4981
▁Ding	-4982
▁Frank	-4983
▁breat	-4984
▁multi	-4985
▁track	-4986
▁Ergebnis	-4987
▁examples	-4988
▁geschrieben	-4989
lim	-4990
▁gas	-4991
seite	-4992
▁anzu	-4993
▁sent	-4994
ground	-4995
lungen	-4996
▁trust	-4997
▁absolut	-4998
▁further	-4999
ikel	-5000
over	-5001
oming	-5002
ätzen	-5003
▁warm	-5004
▁starts	-5005
▁Det	-5006
▁hit	-5007
teile	-5008
▁frei	-5009
▁onto	-5010
▁wants	-5011
▁stimmt	-5012
▁Auswirk	-5013
▁biggest	-5014
▁journey	-5015
▁Yes	-5016
weisen	-5017
ämpfen	-5018
▁graph	-5019
▁mount	-5020
▁verfü	-5021
ilosoph	-5022
▁Jahrze	-5023
▁University	-5024
oß	-5025
ühren	-5026
▁Geme	-5027
▁tend	-5028
▁After	-5029
▁plant	-5030
▁hinein	-5031
▁irgende	-5032
▁passion	-5033
▁Beziehung	-5034
▁obviously	-5035
merksamkeit	-5036
▁gebe	-5037
▁anybody	-5038
▁creative	-5039
▁violence	-5040
▁gesprochen	-5041
lied	-5042
▁fem	-5043
piele	-5044
▁Wand	-5045
teilen	-5046
▁screen	-5047
handlung	-5048
▁zerstör	-5049
uk	-5050
Die	-5051
isis	-5052
▁Fle	-5053
enken	-5054
igens	-5055
ücken	-5056
▁repl	-5057
▁Austral	-5058
▁Pflanzen	-5059
▁Aufmerksamkeit	-5060
▁Id	-5061
▁Islam	-5062
▁Bücher	-5063
▁quality	-5064
▁results	-5065
▁Hoffnung	-5066
▁begannen	-5067
▁Oberfläche	-5068
▁Sw	-5069
▁400	-5070
▁mut	-5071
astic	-5072
▁Hoch	-5073
▁carry	-5074
▁camera	-5075
▁tragen	-5076
▁transl	-5077
▁dachten	-5078
▁walking	-5079
ari	-5080
ägt	-5081
▁Gu	-5082
more	-5083
▁Russ	-5084
▁bank	-5085
▁verh	-5086
▁Kolle	-5087
▁showing	-5088
▁student	-5089
▁totally	-5090
▁certainly	-5091
▁wichtiger	-5092
ags	-5093
bald	-5094
▁Büro	-5095
▁nahe	-5096
▁rece	-5097
trauen	-5098
▁Alter	-5099
▁Maybe	-5100
▁transport	-5101
oe	-5102
arf	-5103
auch	-5104
icle	-5105
schw	-5106
▁Any	-5107
pidem	-5108
▁Dorf	-5109
▁bill	-5110
▁heut	-5111
▁jobs	-5112
▁Niger	-5113
▁clean	-5114
▁ernst	-5115
▁Fehler	-5116
▁großer	-5117
▁Schulen	-5118
▁Eff	-5119
▁fam	-5120
▁Karte	-5121
aughter	-5122
▁compet	-5123
▁kosten	-5124
▁Evolution	-5125
bur	-5126
▁Regeln	-5127
▁Wieder	-5128
▁memory	-5129
▁sprach	-5130
▁verurs	-5131
▁wichtige	-5132
▁Experiment	-5133
▁gleichzeitig	-5134
wh	-5135
cen	-5136
ickt	-5137
isco	-5138
▁cross	-5139
▁notice	-5140
▁threat	-5141
▁Gruppen	-5142
▁complic	-5143
▁largest	-5144
▁ähnlich	-5145
▁Kontrolle	-5146
▁Menschheit	-5147
IT	-5148
lo	-5149
ppe	-5150
legt	-5151
medi	-5152
▁Ser	-5153
▁swe	-5154
▁capt	-5155
▁gern	-5156
▁Ozean	-5157
▁zuerst	-5158
▁context	-5159
▁Einfluss	-5160
▁chemical	-5161
hre	-5162
nern	-5163
front	-5164
▁effic	-5165
▁junge	-5166
osystem	-5167
▁bewegt	-5168
▁conflict	-5169
▁represent	-5170
▁Demokratie	-5171
▁Zw	-5172
amin	-5173
deck	-5174
feld	-5175
like	-5176
▁Erf	-5177
gendes	-5178
▁separ	-5179
▁sequen	-5180
▁exciting	-5181
▁security	-5182
▁fundamental	-5183
erve	-5184
▁Vol	-5185
ustand	-5186
▁früher	-5187
▁Fortsch	-5188
▁capital	-5189
▁happiness	-5190
▁everywhere	-5191
ohl	-5192
nete	-5193
zies	-5194
▁Terr	-5195
▁drug	-5196
▁Druck	-5197
▁kompl	-5198
issenschaft	-5199
▁gearbeitet	-5200
plan	-5201
▁bald	-5202
▁door	-5203
altung	-5204
▁apart	-5205
▁dynam	-5206
▁ansehen	-5207
▁collabor	-5208
▁sozialen	-5209
ror	-5210
sth	-5211
abel	-5212
aute	-5213
▁Baum	-5214
▁appl	-5215
▁Telef	-5216
▁ihres	-5217
▁terror	-5218
▁Bevölkerung	-5219
kr	-5220
▁Arab	-5221
▁wild	-5222
ativen	-5223
ements	-5224
▁trees	-5225
▁brains	-5226
▁nobody	-5227
▁particip	-5228
▁passierte	-5229
onse	-5230
▁Kan	-5231
▁Tro	-5232
schie	-5233
▁Himm	-5234
▁prot	-5235
▁finde	-5236
▁sahen	-5237
▁member	-5238
▁spirit	-5239
▁deliver	-5240
▁democracy	-5241
▁Hy	-5242
etic	-5243
imin	-5244
▁ehr	-5245
▁mis	-5246
▁Orte	-5247
▁Sand	-5248
▁Sohn	-5249
▁näher	-5250
▁trial	-5251
▁perspect	-5252
▁verlassen	-5253
erei	-5254
ramm	-5255
▁Act	-5256
▁Fil	-5257
▁Most	-5258
tember	-5259
wasser	-5260
▁Armut	-5261
▁Seiten	-5262
▁extremely	-5263
ham	-5264
rage	-5265
ulpt	-5266
▁Hin	-5267
▁hot	-5268
▁Phil	-5269
▁Ress	-5270
▁lose	-5271
0.	-5272
ürf	-5273
krie	-5274
eless	-5275
▁Verl	-5276
▁park	-5277
ometer	-5278
▁meant	-5279
ikation	-5280
indruck	-5281
▁inform	-5282
▁plants	-5283
▁verbra	-5284
▁Versuch	-5285
▁nuclear	-5286
▁progress	-5287
▁beobachten	-5288
ery	-5289
ützt	-5290
▁Col	-5291
▁Sex	-5292
▁zus	-5293
▁Regen	-5294
▁prakt	-5295
▁urban	-5296
▁account	-5297
▁objects	-5298
▁village	-5299
▁Software	-5300
▁bemerken	-5301
▁thousand	-5302
▁versuchte	-5303
▁bestimmten	-5304
unt	-5305
▁boy	-5306
verty	-5307
▁2000	-5308
▁desc	-5309
▁sand	-5310
▁Genau	-5311
▁Meter	-5312
▁birth	-5313
▁Wörter	-5314
▁Erinner	-5315
▁poverty	-5316
ares	-5317
inken	-5318
▁lern	-5319
▁role	-5320
ossible	-5321
▁remark	-5322
▁African	-5323
▁Grenzen	-5324
▁Konzept	-5325
▁activity	-5326
▁favorite	-5327
▁watching	-5328
▁ö	-5329
▁sil	-5330
▁Auch	-5331
▁meth	-5332
▁Galax	-5333
underte	-5334
▁finding	-5335
▁teacher	-5336
▁einzelne	-5337
▁Universität	-5338
ils	-5339
ables	-5340
teten	-5341
▁Bank	-5342
▁Oper	-5343
▁empf	-5344
▁poll	-5345
▁labor	-5346
▁nation	-5347
▁Studien	-5348
▁discuss	-5349
▁suddenly	-5350
▁Ag	-5351
etze	-5352
▁Are	-5353
▁etc	-5354
▁vac	-5355
ächen	-5356
▁fill	-5357
▁grew	-5358
ourcen	-5359
▁lands	-5360
▁spezie	-5361
▁medizin	-5362
▁Innovation	-5363
▁Mathematik	-5364
abl	-5365
▁gehe	-5366
▁laun	-5367
▁movie	-5368
▁natür	-5369
peratur	-5370
▁Zugang	-5371
▁bleibt	-5372
▁Twitter	-5373
▁psycholog	-5374
sm	-5375
öp	-5376
kon	-5377
▁Baby	-5378
▁skin	-5379
▁cause	-5380
▁minds	-5381
▁named	-5382
unately	-5383
▁return	-5384
▁sitzen	-5385
▁bessere	-5386
▁neighbor	-5387
▁supposed	-5388
▁buildings	-5389
▁offensichtlich	-5390
▁NA	-5391
letz	-5392
plex	-5393
zusch	-5394
▁East	-5395
▁Lauf	-5396
▁Port	-5397
▁galax	-5398
▁models	-5399
▁ständig	-5400
▁Reaktion	-5401
▁hospital	-5402
rep	-5403
lern	-5404
ounds	-5405
▁safe	-5406
ferenz	-5407
▁crazy	-5408
hington	-5409
schluss	-5410
▁Monaten	-5411
▁private	-5412
▁products	-5413
▁response	-5414
windigkeit	-5415
▁individuals	-5416
imb	-5417
▁150	-5418
▁ine	-5419
▁inf	-5420
▁rot	-5421
ulate	-5422
▁Spaß	-5423
iologie	-5424
▁author	-5425
▁anschauen	-5426
▁connected	-5427
Re	-5428
▁.	-5429
abr	-5430
itte	-5431
▁Bud	-5432
▁bal	-5433
iegel	-5434
orfen	-5435
▁Look	-5436
▁citi	-5437
aterie	-5438
schlag	-5439
▁Eines	-5440
▁ready	-5441
▁waste	-5442
▁arbeitet	-5443
▁position	-5444
aue	-5445
obil	-5446
odies	-5447
ausend	-5448
ustrial	-5449
▁Gebiet	-5450
▁appear	-5451
▁disapp	-5452
▁higher	-5453
▁Washington	-5454
▁eventually	-5455
▁verbessern	-5456
ael	-5457
▁Tas	-5458
▁sod	-5459
▁faster	-5460
▁taught	-5461
zeichnet	-5462
▁continue	-5463
▁richtige	-5464
▁richtigen	-5465
stet	-5466
▁000	-5467
▁tru	-5468
auber	-5469
▁Even	-5470
▁mine	-5471
▁Orten	-5472
▁adult	-5473
▁domin	-5474
▁forms	-5475
▁Invest	-5476
▁Stelle	-5477
▁source	-5478
▁content	-5479
▁vergessen	-5480
▁extraordinary	-5481
▁35	-5482
cape	-5483
edia	-5484
aving	-5485
▁rain	-5486
▁including	-5487
joy	-5488
▁sn	-5489
▁Wohl	-5490
▁bilden	-5491
▁Vergangen	-5492
▁somewhere	-5493
▁verlieren	-5494
ufe	-5495
zwe	-5496
olly	-5497
erven	-5498
▁Zeug	-5499
ensive	-5500
▁crisis	-5501
▁massive	-5502
▁Beispiele	-5503
uern	-5504
▁Gel	-5505
▁lau	-5506
▁tar	-5507
▁Mehr	-5508
▁cart	-5509
▁task	-5510
ruption	-5511
▁großes	-5512
▁kannst	-5513
▁voller	-5514
▁Nachbar	-5515
▁Schüler	-5516
▁arbeitete	-5517
▁Krankheiten	-5518
▁traditional	-5519
▁nachzudenken	-5520
osh	-5521
was	-5522
nder	-5523
ragt	-5524
wert	-5525
ünft	-5526
▁Gut	-5527
▁Ord	-5528
▁Sim	-5529
annen	-5530
▁nied	-5531
ilities	-5532
▁Morgen	-5533
ständnis	-5534
▁communities	-5535
▁Asp	-5536
ender	-5537
onent	-5538
räfte	-5539
▁dete	-5540
▁phen	-5541
▁worse	-5542
isation	-5543
▁Gesetz	-5544
▁series	-5545
▁Spezies	-5546
▁allowed	-5547
Wie	-5548
üss	-5549
▁Bot	-5550
▁Com	-5551
▁Jul	-5552
arian	-5553
atory	-5554
▁AIDS	-5555
▁goal	-5556
▁prec	-5557
▁push	-5558
▁Franc	-5559
▁sorts	-5560
▁larger	-5561
▁erlaubt	-5562
▁introdu	-5563
▁impossible	-5564
▁complicated	-5565
ya	-5566
ört	-5567
▁Los	-5568
▁rid	-5569
▁Gene	-5570
▁Tagen	-5571
▁deine	-5572
▁earth	-5573
▁shown	-5574
▁Molekü	-5575
▁doctor	-5576
▁princi	-5577
▁studies	-5578
▁wussten	-5579
▁möglichen	-5580
▁essentially	-5581
▁produzieren	-5582
bit	-5583
dom	-5584
▁Po	-5585
ckte	-5586
gere	-5587
▁bur	-5588
▁deut	-5589
▁Konfl	-5590
ierende	-5591
▁immedi	-5592
▁indeed	-5593
▁hundert	-5594
▁aussieht	-5595
▁medicine	-5596
▁Bakterien	-5597
▁Vergangenheit	-5598
rem	-5599
ued	-5600
stre	-5601
bauen	-5602
▁Kern	-5603
▁Sign	-5604
▁list	-5605
▁wife	-5606
▁denkt	-5607
▁drugs	-5608
▁Objekt	-5609
▁Frieden	-5610
▁colleag	-5611
▁Personen	-5612
▁zumindest	-5613
▁Wirklichkeit	-5614
ires	-5615
▁kre	-5616
board	-5617
erman	-5618
▁above	-5619
▁affect	-5620
▁afford	-5621
▁points	-5622
izations	-5623
▁gewinnen	-5624
itor	-5625
rior	-5626
vert	-5627
▁Del	-5628
▁MIT	-5629
▁selt	-5630
▁Feuer	-5631
▁dahin	-5632
wendung	-5633
▁allows	-5634
▁concern	-5635
▁architecture	-5636
fs	-5637
▁Ern	-5638
▁Kong	-5639
▁mist	-5640
ielten	-5641
reiten	-5642
stellt	-5643
▁Ebene	-5644
▁Gerät	-5645
▁diagn	-5646
▁ended	-5647
▁altern	-5648
▁launch	-5649
entliche	-5650
legenheit	-5651
▁signific	-5652
genie	-5653
▁late	-5654
▁enjoy	-5655
▁Können	-5656
▁führte	-5657
▁minute	-5658
▁gebracht	-5659
▁perspective	-5660
ser	-5661
ürz	-5662
▁Go	-5663
▁Mü	-5664
▁Who	-5665
▁cook	-5666
▁echt	-5667
▁site	-5668
astrop	-5669
▁bunch	-5670
▁truly	-5671
▁Nachricht	-5672
No	-5673
po	-5674
edom	-5675
iced	-5676
▁Ker	-5677
▁Uhr	-5678
änden	-5679
▁Haut	-5680
▁rele	-5681
ruction	-5682
▁gewalt	-5683
▁England	-5684
▁Theorie	-5685
▁distrib	-5686
▁families	-5687
▁electricity	-5688
▁Entscheidung	-5689
ec	-5690
osm	-5691
falt	-5692
lebt	-5693
mals	-5694
rene	-5695
kelet	-5696
rasch	-5697
äufig	-5698
▁burn	-5699
▁stick	-5700
▁fertig	-5701
▁bacteria	-5702
▁gesamten	-5703
▁training	-5704
▁conditions	-5705
gy	-5706
ingu	-5707
▁Wel	-5708
▁doc	-5709
▁fine	-5710
iments	-5711
ournal	-5712
▁Fotos	-5713
▁Hände	-5714
▁James	-5715
▁cases	-5716
▁höher	-5717
▁magic	-5718
▁Firmen	-5719
▁fascin	-5720
▁stress	-5721
▁phenomen	-5722
▁versuche	-5723
▁Ergebnisse	-5724
▁heutzutage	-5725
mark	-5726
iegen	-5727
leist	-5728
▁Kons	-5729
▁inse	-5730
▁winz	-5731
▁Relig	-5732
▁older	-5733
▁Terror	-5734
▁befinden	-5735
▁decision	-5736
▁interview	-5737
▁surprising	-5738
ius	-5739
prü	-5740
äte	-5741
▁Kur	-5742
altet	-5743
▁Like	-5744
▁Wohn	-5745
▁Zwei	-5746
▁port	-5747
▁vert	-5748
▁pieces	-5749
▁reading	-5750
aria	-5751
▁purp	-5752
▁roll	-5753
vented	-5754
▁attra	-5755
▁Bienen	-5756
▁choose	-5757
▁morgen	-5758
▁prison	-5759
▁Charles	-5760
▁neurons	-5761
▁erzeugen	-5762
▁irgendwo	-5763
▁standing	-5764
▁treatment	-5765
▁successful	-5766
ured	-5767
▁sor	-5768
▁tie	-5769
drück	-5770
▁wait	-5771
▁Times	-5772
▁Worte	-5773
▁lower	-5774
▁talks	-5775
▁Landes	-5776
▁schreck	-5777
▁Architektur	-5778
lier	-5779
▁wund	-5780
ctions	-5781
though	-5782
▁Daher	-5783
▁Leist	-5784
▁nenne	-5785
▁analys	-5786
▁patterns	-5787
▁trotzdem	-5788
dig	-5789
abet	-5790
uber	-5791
▁bab	-5792
▁alte	-5793
▁tree	-5794
▁Angel	-5795
▁aktiv	-5796
▁aufre	-5797
▁hilft	-5798
▁George	-5799
▁killed	-5800
▁manche	-5801
iversity	-5802
▁excited	-5803
▁influen	-5804
▁einzelnen	-5805
ids	-5806
ino	-5807
klär	-5808
▁Nor	-5809
▁Tal	-5810
▁cat	-5811
▁oxy	-5812
iling	-5813
riere	-5814
▁Priv	-5815
▁coun	-5816
▁kept	-5817
▁alive	-5818
▁provide	-5819
▁Sekunden	-5820
▁critical	-5821
▁gekommen	-5822
aup	-5823
mon	-5824
▁Che	-5825
kommt	-5826
orben	-5827
machen	-5828
utzung	-5829
werfen	-5830
▁Linie	-5831
▁sleep	-5832
▁effort	-5833
▁solchen	-5834
▁somehow	-5835
▁argument	-5836
▁erschein	-5837
pol	-5838
merz	-5839
▁erg	-5840
blich	-5841
holen	-5842
▁town	-5843
▁traf	-5844
▁Bühne	-5845
▁Kampf	-5846
▁Stamm	-5847
▁School	-5848
▁calcul	-5849
▁einges	-5850
▁robots	-5851
▁sowohl	-5852
▁spielt	-5853
▁address	-5854
▁usually	-5855
▁increase	-5856
▁painting	-5857
ulf	-5858
▁Mr	-5859
eles	-5860
hang	-5861
hyth	-5862
▁sky	-5863
aging	-5864
▁Präs	-5865
▁clin	-5866
▁luck	-5867
▁math	-5868
▁Which	-5869
▁Michael	-5870
▁Netzwerk	-5871
▁erfahren	-5872
▁Regierungen	-5873
▁organization	-5874
wür	-5875
pret	-5876
scht	-5877
▁bor	-5878
▁Mont	-5879
▁stär	-5880
▁upon	-5881
▁wirk	-5882
reitet	-5883
▁Today	-5884
▁occur	-5885
▁Formen	-5886
▁keiner	-5887
▁automat	-5888
▁erklärt	-5889
▁mention	-5890
▁physics	-5891
▁version	-5892
▁machines	-5893
▁military	-5894
▁decisions	-5895
▁entdecken	-5896
▁increasing	-5897
▁Auswirkungen	-5898
tr	-5899
uls	-5900
ücht	-5901
▁mat	-5902
hnung	-5903
▁Mond	-5904
ektive	-5905
ierter	-5906
▁Prote	-5907
▁Indian	-5908
▁Second	-5909
▁beings	-5910
▁skills	-5911
▁symbol	-5912
▁college	-5913
▁himself	-5914
▁smaller	-5915
▁straight	-5916
▁unmöglich	-5917
ios	-5918
tex	-5919
yle	-5920
ählt	-5921
▁Zuf	-5922
▁wes	-5923
obert	-5924
▁kaum	-5925
glicht	-5926
▁Those	-5927
▁Gefäng	-5928
▁riesige	-5929
▁globalen	-5930
▁programm	-5931
▁emotional	-5932
▁geschehen	-5933
▁verbinden	-5934
ala	-5935
leb	-5936
mäß	-5937
isms	-5938
pend	-5939
play	-5940
rech	-5941
▁Wik	-5942
▁pen	-5943
▁veh	-5944
ahmen	-5945
▁Hall	-5946
▁angef	-5947
▁Museum	-5948
▁employ	-5949
▁statist	-5950
▁Medikamen	-5951
▁Bewusstsein	-5952
▁conversation	-5953
20	-5954
5,	-5955
▁Gh	-5956
▁rund	-5957
▁uses	-5958
icians	-5959
ightly	-5960
▁Monat	-5961
▁lines	-5962
▁beauty	-5963
▁Flugzeug	-5964
▁Amerikaner	-5965
▁Wahrscheinlich	-5966
▁Ok	-5967
äusch	-5968
▁Ball	-5969
▁Gold	-5970
▁Heim	-5971
▁Test	-5972
wenden	-5973
▁Bezug	-5974
▁einzig	-5975
▁runter	-5976
▁sodass	-5977
▁aufgrund	-5978
licherweise	-5979
▁ermöglicht	-5980
▁Sa	-5981
buch	-5982
▁inn	-5983
sprün	-5984
▁cele	-5985
▁hält	-5986
▁throw	-5987
▁actual	-5988
▁express	-5989
▁seconds	-5990
amt	-5991
ray	-5992
▁tä	-5993
▁dunk	-5994
▁erhö	-5995
▁sele	-5996
zimmer	-5997
▁jungen	-5998
▁retten	-5999
▁Glauben	-6000
▁dadurch	-6001
▁respond	-6002
▁Anderson	-6003
▁bestimmte	-6004
same	-6005
time	-6006
▁whe	-6007
seits	-6008
ütter	-6009
▁Berg	-6010
▁Bett	-6011
▁card	-6012
▁nerv	-6013
▁rede	-6014
assung	-6015
▁Gespr	-6016
▁check	-6017
▁stars	-6018
▁Entdeck	-6019
▁recognize	-6020
▁großartige	-6021
ux	-6022
▁Hü	-6023
agine	-6024
ildet	-6025
▁Disk	-6026
▁code	-6027
▁hell	-6028
▁west	-6029
ration	-6030
▁Somet	-6031
▁letzt	-6032
▁passen	-6033
▁describ	-6034
▁leisten	-6035
▁anywhere	-6036
▁entdeckt	-6037
▁expensive	-6038
▁Ressourcen	-6039
▁Verantwort	-6040
▁untersuchen	-6041
ads	-6042
örp	-6043
▁ca	-6044
▁Ere	-6045
▁Pak	-6046
örder	-6047
▁Bang	-6048
▁Höhe	-6049
▁page	-6050
▁rand	-6051
ameras	-6052
zahlen	-6053
ualität	-6054
▁messen	-6055
▁rights	-6056
▁anymore	-6057
▁written	-6058
▁Kollegen	-6059
▁humanity	-6060
ara	-6061
▁Sä	-6062
▁hop	-6063
▁lag	-6064
▁las	-6065
▁web	-6066
▁High	-6067
▁neun	-6068
▁genes	-6069
▁Chance	-6070
▁Geheim	-6071
▁biology	-6072
▁greater	-6073
▁plastic	-6074
▁Wachstum	-6075
▁standard	-6076
▁Erwachsen	-6077
▁Nä	-6078
icon	-6079
wers	-6080
ähig	-6081
▁kil	-6082
▁wann	-6083
▁brand	-6084
▁ignor	-6085
▁price	-6086
▁depend	-6087
▁forest	-6088
▁mental	-6089
▁report	-6090
ingungen	-6091
▁Einstein	-6092
▁einander	-6093
▁Maschinen	-6094
▁listening	-6095
▁solutions	-6096
▁betrachtet	-6097
iat	-6098
oden	-6099
seit	-6100
uted	-6101
▁Bus	-6102
▁Arzt	-6103
▁glass	-6104
▁Himmel	-6105
▁Systeme	-6106
▁gefragt	-6107
▁Funktion	-6108
▁specific	-6109
▁großartig	-6110
pts	-6111
will	-6112
ährt	-6113
▁dog	-6114
▁fil	-6115
emand	-6116
gener	-6117
werke	-6118
▁vern	-6119
ieties	-6120
▁Traum	-6121
▁Verfü	-6122
▁danke	-6123
▁surger	-6124
▁verfol	-6125
▁Ingenie	-6126
▁Methode	-6127
▁service	-6128
▁becoming	-6129
▁entschieden	-6130
ilet	-6131
reng	-6132
▁Ton	-6133
▁Inse	-6134
▁legs	-6135
▁spect	-6136
▁zeigte	-6137
▁Freiheit	-6138
▁Americans	-6139
▁verstanden	-6140
▁performance	-6141
9,	-6142
Es	-6143
afr	-6144
▁nut	-6145
▁abge	-6146
▁lebt	-6147
▁lief	-6148
▁rise	-6149
▁weap	-6150
▁Sinne	-6151
▁läuft	-6152
▁quant	-6153
▁Darwin	-6154
▁secret	-6155
▁weight	-6156
▁Nahrung	-6157
▁Ordnung	-6158
▁brother	-6159
▁contrib	-6160
▁bestehen	-6161
fortunately	-6162
▁production	-6163
▁normalerweise	-6164
sum	-6165
upp	-6166
▁Ame	-6167
▁unc	-6168
äuser	-6169
stoffe	-6170
▁Zivil	-6171
▁board	-6172
▁hörte	-6173
reprene	-6174
▁Lernen	-6175
▁policy	-6176
▁rechts	-6177
zunehmen	-6178
▁driving	-6179
▁sammeln	-6180
arte	-6181
▁crow	-6182
▁yeah	-6183
▁loved	-6184
▁shark	-6185
▁bodies	-6186
▁famous	-6187
▁healthy	-6188
▁Designer	-6189
▁gestellt	-6190
▁Krankenhaus	-6191
▁herausfinden	-6192
amb	-6193
key	-6194
▁45	-6195
▁Sl	-6196
aker	-6197
önen	-6198
steht	-6199
▁Herr	-6200
▁harm	-6201
tragen	-6202
▁drink	-6203
▁Geburt	-6204
▁please	-6205
arbeiter	-6206
▁clearly	-6207
▁current	-6208
▁practice	-6209
▁übrigens	-6210
▁dangerous	-6211
▁environmental	-6212
▁amerikanischen	-6213
zi	-6214
obal	-6215
▁Sep	-6216
▁ord	-6217
acity	-6218
attle	-6219
grupp	-6220
▁cold	-6221
▁ther	-6222
▁zufä	-6223
sweise	-6224
▁Brust	-6225
▁Einer	-6226
▁Nerven	-6227
▁celebr	-6228
▁earlier	-6229
▁zweiten	-6230
▁erzählte	-6231
▁schützen	-6232
▁fantastic	-6233
▁throughout	-6234
osc	-6235
trag	-6236
auern	-6237
rochen	-6238
▁Comput	-6239
▁Klimaw	-6240
▁Robert	-6241
▁random	-6242
▁handelt	-6243
▁greatest	-6244
▁diejenigen	-6245
▁intelligence	-6246
phone	-6247
▁desp	-6248
▁höch	-6249
▁Außer	-6250
▁Regel	-6251
▁funny	-6252
▁Jahres	-6253
dimension	-6254
▁Englisch	-6255
▁familiar	-6256
▁außerhalb	-6257
▁geschaffen	-6258
▁interessante	-6259
2,	-6260
Be	-6261
▁Lö	-6262
▁Pf	-6263
▁Eth	-6264
▁fit	-6265
▁sus	-6266
iding	-6267
▁Fluss	-6268
▁König	-6269
▁berüh	-6270
▁store	-6271
barkeit	-6272
mitteln	-6273
▁Gründe	-6274
▁babies	-6275
▁career	-6276
▁kommun	-6277
aim	-6278
sta	-6279
berg	-6280
mend	-6281
riff	-6282
▁Gal	-6283
▁pan	-6284
etzte	-6285
▁Rand	-6286
änomen	-6287
▁costs	-6288
▁fallen	-6289
▁profit	-6290
▁waiting	-6291
▁befindet	-6292
▁teaching	-6293
▁Vergleich	-6294
bü	-6295
ago	-6296
Nein	-6297
ceed	-6298
▁hyd	-6299
reche	-6300
▁Bast	-6301
▁Komp	-6302
▁Lehr	-6303
▁mächt	-6304
▁range	-6305
▁älter	-6306
▁Intell	-6307
▁police	-6308
▁walked	-6309
▁willing	-6310
▁einzigen	-6311
▁September	-6312
▁wundersch	-6313
8,	-6314
▁Aud	-6315
ained	-6316
anter	-6317
itten	-6318
▁Gefü	-6319
nungen	-6320
▁Farbe	-6321
▁liber	-6322
▁strange	-6323
30	-6324
ae	-6325
Hey	-6326
▁Ak	-6327
ften	-6328
iner	-6329
▁Tom	-6330
lands	-6331
reten	-6332
▁leid	-6333
▁shot	-6334
atives	-6335
▁Damit	-6336
▁strug	-6337
▁taten	-6338
teilung	-6339
▁Beginn	-6340
▁Jungen	-6341
▁bisher	-6342
▁determ	-6343
▁improv	-6344
▁temper	-6345
▁Another	-6346
▁doctors	-6347
▁Schönheit	-6348
▁intelligent	-6349
ady	-6350
vard	-6351
aries	-6352
äumen	-6353
istent	-6354
▁Liebl	-6355
▁encou	-6356
▁unver	-6357
unächst	-6358
▁Einzel	-6359
▁abstra	-6360
▁behaup	-6361
▁square	-6362
▁Western	-6363
▁herunter	-6364
▁therefore	-6365
▁grundlegen	-6366
▁Ru	-6367
ffic	-6368
stes	-6369
▁cry	-6370
▁dri	-6371
▁Life	-6372
▁Wege	-6373
▁Your	-6374
▁ausz	-6375
▁ille	-6376
schirm	-6377
▁Imagine	-6378
▁freedom	-6379
▁invented	-6380
▁Interesse	-6381
▁remarkable	-6382
▁Verständnis	-6383
▁Organisation	-6384
ikt	-6385
aptop	-6386
gesetzt	-6387
▁remind	-6388
▁Partner	-6389
▁citizens	-6390
▁effective	-6391
▁Behandlung	-6392
7,	-6393
War	-6394
inct	-6395
itat	-6396
▁Wür	-6397
▁sam	-6398
endes	-6399
reibt	-6400
▁Wald	-6401
▁uner	-6402
aurant	-6403
schuld	-6404
▁catch	-6405
▁gradu	-6406
▁reich	-6407
▁weren	-6408
imately	-6409
schiede	-6410
▁artist	-6411
▁flying	-6412
▁meeting	-6413
▁respect	-6414
▁welcher	-6415
▁einfachen	-6416
▁herstellen	-6417
▁Beziehungen	-6418
▁unterstützen	-6419
fel	-6420
urm	-6421
uzz	-6422
iell	-6423
lose	-6424
mand	-6425
▁Sal	-6426
▁grü	-6427
▁Cong	-6428
▁Noch	-6429
▁antw	-6430
▁blog	-6431
ildern	-6432
▁method	-6433
▁comfort	-6434
▁genetic	-6435
▁website	-6436
▁services	-6437
ikanischen	-6438
▁direction	-6439
▁getroffen	-6440
▁,	-6441
ieß	-6442
▁Co	-6443
hers	-6444
lant	-6445
wick	-6446
▁Sil	-6447
▁cru	-6448
orien	-6449
▁Amaz	-6450
▁Schn	-6451
▁jump	-6452
▁lust	-6453
▁shap	-6454
stelle	-6455
▁Instr	-6456
▁ahead	-6457
▁types	-6458
▁values	-6459
▁wealth	-6460
▁Telefon	-6461
▁Lösungen	-6462
▁institutions	-6463
▁öffentlichen	-6464
Ja	-6465
ih	-6466
tes	-6467
iant	-6468
rees	-6469
▁His	-6470
▁Kir	-6471
▁Two	-6472
▁inj	-6473
platz	-6474
rifft	-6475
▁Fakt	-6476
▁Hirn	-6477
▁Norm	-6478
▁zero	-6479
passen	-6480
▁floor	-6481
▁Nummer	-6482
▁ebenso	-6483
▁income	-6484
▁selben	-6485
▁Artikel	-6486
▁Gehirns	-6487
▁Harvard	-6488
▁mehrere	-6489
▁erwarten	-6490
▁Erfahrungen	-6491
▁GP	-6492
aste	-6493
▁jud	-6494
alley	-6495
ießen	-6496
▁rule	-6497
▁legal	-6498
▁worry	-6499
zugehen	-6500
▁Drogen	-6501
▁seines	-6502
ierenden	-6503
▁following	-6504
hib	-6505
anne	-6506
iens	-6507
iles	-6508
▁Dre	-6509
anced	-6510
hrten	-6511
masch	-6512
▁Gewe	-6513
▁Name	-6514
▁final	-6515
▁forth	-6516
▁Ereign	-6517
▁decade	-6518
▁warten	-6519
▁various	-6520
▁Californ	-6521
▁Pakistan	-6522
▁bedeuten	-6523
ellschaften	-6524
▁km	-6525
omas	-6526
▁Bis	-6527
▁Fen	-6528
▁Kol	-6529
▁fac	-6530
ählen	-6531
▁früh	-6532
▁tiss	-6533
ätzlich	-6534
▁German	-6535
▁dritte	-6536
▁heutigen	-6537
▁politics	-6538
▁engineering	-6539
spe	-6540
cies	-6541
▁Arg	-6542
▁Neu	-6543
▁win	-6544
redit	-6545
▁Lang	-6546
▁hart	-6547
achtet	-6548
▁Schle	-6549
▁Steve	-6550
▁levels	-6551
▁useful	-6552
▁Nigeria	-6553
▁Einkommen	-6554
▁Zeitpunkt	-6555
▁governments	-6556
▁Veränderungen	-6557
für	-6558
alle	-6559
▁Big	-6560
▁Bru	-6561
▁Mär	-6562
▁div	-6563
▁Grad	-6564
▁Miss	-6565
▁Quad	-6566
▁invent	-6567
▁Erkennt	-6568
▁Komplex	-6569
▁install	-6570
▁entweder	-6571
uhl	-6572
ancy	-6573
irur	-6574
stück	-6575
▁Alex	-6576
▁Think	-6577
▁aufzu	-6578
▁telev	-6579
▁Zeiten	-6580
▁gewiss	-6581
ervation	-6582
▁instance	-6583
hem	-6584
seh	-6585
stä	-6586
hnte	-6587
▁rep	-6588
dings	-6589
▁laws	-6590
▁Wesen	-6591
▁trade	-6592
inosaur	-6593
▁Vision	-6594
▁honest	-6595
▁mobile	-6596
▁wunderv	-6597
▁electron	-6598
▁connection	-6599
1,	-6600
ibl	-6601
tech	-6602
▁Pil	-6603
▁deb	-6604
angel	-6605
itens	-6606
ringt	-6607
round	-6608
ypoth	-6609
▁Mort	-6610
▁NASA	-6611
▁Tisch	-6612
▁relev	-6613
▁Ärzte	-6614
▁Kamera	-6615
▁decide	-6616
▁elektr	-6617
▁shared	-6618
▁voraus	-6619
gefunden	-6620
chnologie	-6621
▁dasselbe	-6622
▁creativity	-6623
MS	-6624
hi	-6625
kam	-6626
brit	-6627
esis	-6628
▁Vier	-6629
anning	-6630
▁Plast	-6631
▁apply	-6632
▁whose	-6633
▁expand	-6634
▁saving	-6635
▁selten	-6636
▁unique	-6637
▁decades	-6638
▁popular	-6639
▁Vorstell	-6640
▁differen	-6641
▁entreprene	-6642
▁außergewöhn	-6643
▁Jahrhunderts	-6644
urb	-6645
öse	-6646
itiv	-6647
▁Mart	-6648
▁Sold	-6649
▁Green	-6650
▁match	-6651
▁raise	-6652
▁Finger	-6653
▁Stunde	-6654
▁Videos	-6655
▁Individ	-6656
▁Journal	-6657
▁Statist	-6658
▁ehrlich	-6659
▁Manchmal	-6660
▁erfunden	-6661
▁schicken	-6662
▁verkaufen	-6663
▁unglaubliche	-6664
Te	-6665
▁Mut	-6666
▁ran	-6667
unsch	-6668
▁Band	-6669
▁From	-6670
▁Kurz	-6671
▁desto	-6672
▁radio	-6673
▁Finanz	-6674
▁Punkte	-6675
▁Teilen	-6676
▁Westen	-6677
▁Worten	-6678
▁wenige	-6679
▁Produkte	-6680
▁California	-6681
▁immediately	-6682
val	-6683
▁Anw	-6684
▁Jan	-6685
▁bud	-6686
eting	-6687
gency	-6688
ustom	-6689
▁Text	-6690
▁YouT	-6691
▁concl	-6692
▁metap	-6693
▁slide	-6694
zusagen	-6695
gebracht	-6696
▁Schlüssel	-6697
▁Institution	-6698
2.	-6699
Er	-6700
ikas	-6701
▁End	-6702
▁Sam	-6703
▁iPh	-6704
hlung	-6705
▁Auge	-6706
▁isol	-6707
▁laut	-6708
▁Jedes	-6709
▁helped	-6710
▁supply	-6711
▁infrast	-6712
▁verrückt	-6713
▁ebenfalls	-6714
▁financial	-6715
▁Leidenschaft	-6716
RI	-6717
onie	-6718
pack	-6719
▁Con	-6720
▁Dis	-6721
▁Mir	-6722
arter	-6723
▁Ident	-6724
▁fällt	-6725
▁YouTube	-6726
▁erleben	-6727
▁although	-6728
▁erinnere	-6729
▁original	-6730
▁condition	-6731
▁societies	-6732
▁Eigenschaften	-6733
Le	-6734
elf	-6735
vey	-6736
afen	-6737
iete	-6738
uing	-6739
▁hom	-6740
stütz	-6741
▁Drit	-6742
▁Prot	-6743
▁fuel	-6744
▁jene	-6745
▁guter	-6746
▁gutes	-6747
▁hinge	-6748
▁Polize	-6749
▁accept	-6750
▁nahmen	-6751
▁globale	-6752
▁prevent	-6753
▁Projekte	-6754
▁cultural	-6755
do	-6756
ifft	-6757
▁aid	-6758
▁Öff	-6759
▁Haben	-6760
▁erfor	-6761
standen	-6762
▁Farben	-6763
▁Freude	-6764
▁Physik	-6765
▁Schutz	-6766
▁commit	-6767
▁forces	-6768
▁gedacht	-6769
▁survive	-6770
▁possibly	-6771
▁Gefängnis	-6772
▁challenges	-6773
▁industrial	-6774
▁television	-6775
ilde	-6776
essed	-6777
▁foss	-6778
▁hair	-6779
▁agric	-6780
▁Thomas	-6781
▁forget	-6782
▁fühlte	-6783
▁myster	-6784
▁summer	-6785
▁eigenes	-6786
▁explore	-6787
▁kulture	-6788
▁Position	-6789
▁directly	-6790
▁jemandem	-6791
▁terrible	-6792
▁Verfügung	-6793
▁vollständ	-6794
frastruktur	-6795
▁Kreativität	-6796
▁neighborhood	-6797
▁üb	-6798
weil	-6799
▁Tor	-6800
ufact	-6801
▁hall	-6802
selben	-6803
▁Unser	-6804
▁aware	-6805
▁dauer	-6806
▁Morton	-6807
▁effekt	-6808
▁senten	-6809
▁struct	-6810
▁trouble	-6811
▁diseases	-6812
▁unabhäng	-6813
▁Intelligen	-6814
▁Bon	-6815
▁bio	-6816
▁imm	-6817
bewer	-6818
eller	-6819
wärts	-6820
▁Körp	-6821
▁Post	-6822
▁hole	-6823
▁Junge	-6824
ulieren	-6825
minister	-6826
▁slightly	-6827
▁Francisco	-6828
▁überleben	-6829
add	-6830
vit	-6831
aign	-6832
räge	-6833
▁äuß	-6834
Warum	-6835
kraft	-6836
▁mitt	-6837
▁verme	-6838
▁brilli	-6839
▁frühen	-6840
ographic	-6841
▁journal	-6842
▁controll	-6843
▁schlechte	-6844
▁Materialien	-6845
▁experiments	-6846
▁durchschnitt	-6847
"-	-6848
How	-6849
oge	-6850
▁ök	-6851
ners	-6852
üsse	-6853
▁fro	-6854
▁wün	-6855
▁zug	-6856
gaben	-6857
ights	-6858
omant	-6859
▁drop	-6860
▁Liste	-6861
▁Werte	-6862
▁print	-6863
▁worst	-6864
▁Tieren	-6865
▁lernte	-6866
ognitive	-6867
▁atmosph	-6868
▁profound	-6869
▁behandeln	-6870
▁consequen	-6871
▁wunderbar	-6872
▁understood	-6873
▁konzentrieren	-6874
It	-6875
maß	-6876
wise	-6877
▁Pop	-6878
▁bat	-6879
▁mid	-6880
▁Mitt	-6881
▁base	-6882
▁Great	-6883
▁Suche	-6884
▁Ahnung	-6885
▁Waffen	-6886
▁dramat	-6887
▁sobald	-6888
▁nachhalt	-6889
▁Industrie	-6890
▁99	-6891
▁Hom	-6892
▁Hum	-6893
▁hus	-6894
▁Gang	-6895
▁hous	-6896
▁paid	-6897
▁poet	-6898
▁below	-6899
▁chair	-6900
▁manip	-6901
ierungs	-6902
▁Amazon	-6903
▁Region	-6904
▁fangen	-6905
▁states	-6906
▁Schrift	-6907
▁purpose	-6908
▁surgery	-6909
▁Karriere	-6910
▁algorith	-6911
▁capacity	-6912
▁enormous	-6913
▁networks	-6914
▁vergleich	-6915
ibe	-6916
ärm	-6917
erem	-6918
▁vul	-6919
aling	-6920
azine	-6921
ilien	-6922
ograp	-6923
▁Bein	-6924
▁male	-6925
▁vict	-6926
▁assoc	-6927
▁dance	-6928
▁shock	-6929
▁zeich	-6930
britann	-6931
itionen	-6932
ktionen	-6933
▁intens	-6934
▁trifft	-6935
▁vorbei	-6936
▁effects	-6937
▁größeren	-6938
▁transpar	-6939
▁angefangen	-6940
col	-6941
ammt	-6942
▁Wid	-6943
icles	-6944
odell	-6945
▁Jobs	-6946
▁King	-6947
▁Many	-6948
▁Wass	-6949
▁boys	-6950
▁dank	-6951
ochter	-6952
▁echte	-6953
geführt	-6954
isierte	-6955
▁Meeres	-6956
▁behavi	-6957
▁commer	-6958
▁destro	-6959
▁double	-6960
▁negative	-6961
▁Verantwortung	-6962
lös	-6963
▁unf	-6964
ergie	-6965
▁Mill	-6966
▁Kreis	-6967
▁analy	-6968
▁komme	-6969
brechen	-6970
▁Herzen	-6971
▁Sommer	-6972
▁anyway	-6973
▁closer	-6974
▁öffnen	-6975
▁central	-6976
▁tremend	-6977
▁Biologie	-6978
▁Freunden	-6979
▁Werkzeuge	-6980
▁temperature	-6981
Ver	-6982
▁ve	-6983
reib	-6984
term	-6985
▁Rep	-6986
▁Tex	-6987
▁neh	-6988
cribe	-6989
utsch	-6990
ündet	-6991
▁Rede	-6992
▁loss	-6993
▁hinzu	-6994
▁Street	-6995
▁beantw	-6996
▁causes	-6997
▁target	-6998
▁geschah	-6999
▁speaking	-7000
▁Antworten	-7001
▁existiert	-7002
▁published	-7003
▁colleagues	-7004
Ge	-7005
bet	-7006
nam	-7007
▁Mö	-7008
oßen	-7009
▁Beh	-7010
▁Wol	-7011
hlten	-7012
iated	-7013
orgung	-7014
führung	-7015
▁Dienst	-7016
▁Schwar	-7017
▁Wunder	-7018
▁mostly	-7019
▁erzeugt	-7020
▁workers	-7021
▁gegangen	-7022
▁verbringen	-7023
izes	-7024
odes	-7025
rize	-7026
wohn	-7027
▁Hig	-7028
▁Mat	-7029
▁Arme	-7030
▁hört	-7031
anging	-7032
treten	-7033
▁Abend	-7034
▁Zelle	-7035
haltung	-7036
▁Spitze	-7037
▁played	-7038
▁Zustand	-7039
▁answers	-7040
▁schlimm	-7041
▁erstaunlich	-7042
ason	-7043
▁Get	-7044
▁Mos	-7045
▁tens	-7046
▁Bäume	-7047
▁Colle	-7048
▁calls	-7049
▁shoot	-7050
ception	-7051
▁Manche	-7052
▁häufig	-7053
▁oxygen	-7054
▁Fenster	-7055
▁evolved	-7056
▁noticed	-7057
▁ursprün	-7058
▁Ausdruck	-7059
▁programs	-7060
▁Unterstütz	-7061
▁aufgenommen	-7062
▁ermöglichen	-7063
▁kontrollieren	-7064
gin	-7065
itär	-7066
such	-7067
▁mix	-7068
ctive	-7069
folge	-7070
▁Nähe	-7071
▁Stan	-7072
▁sick	-7073
▁Again	-7074
▁Insel	-7075
▁Ansatz	-7076
▁Bedürf	-7077
▁Schiff	-7078
▁pressure	-7079
▁Sauerstoff	-7080
▁organizations	-7081
kn	-7082
vin	-7083
zil	-7084
geht	-7085
ulen	-7086
▁194	-7087
▁Ext	-7088
▁fat	-7089
hause	-7090
pping	-7091
▁Blog	-7092
▁Kore	-7093
▁heat	-7094
ennung	-7095
ologen	-7096
▁dying	-7097
▁Männern	-7098
▁Schluss	-7099
▁Tochter	-7100
▁choices	-7101
▁helping	-7102
▁spreche	-7103
▁begonnen	-7104
▁Überleben	-7105
▁Gelegenheit	-7106
▁experiences	-7107
▁herzustellen	-7108
▁Infrastruktur	-7109
▁relationships	-7110
▁infrastructure	-7111
An	-7112
auert	-7113
hilfe	-7114
ichts	-7115
raten	-7116
▁Erst	-7117
▁koll	-7118
▁unge	-7119
▁Osten	-7120
▁erwäh	-7121
▁frame	-7122
▁offic	-7123
▁chines	-7124
▁corner	-7125
▁Erstens	-7126
▁Gefühle	-7127
▁Klassen	-7128
▁genutzt	-7129
▁präsent	-7130
▁mountain	-7131
geschichte	-7132
▁entstehen	-7133
▁conference	-7134
zul	-7135
artig	-7136
fraid	-7137
water	-7138
▁Wikip	-7139
▁absch	-7140
▁birds	-7141
▁wider	-7142
ichtbar	-7143
▁akzept	-7144
▁iPhone	-7145
▁Instead	-7146
▁creates	-7147
▁improve	-7148
▁markets	-7149
▁Experimen	-7150
▁Gesundheits	-7151
con	-7152
kur	-7153
▁2.	-7154
▁75	-7155
aced	-7156
aven	-7157
▁Gar	-7158
▁Les	-7159
▁Sun	-7160
▁nar	-7161
acher	-7162
rical	-7163
stadt	-7164
▁krie	-7165
▁lack	-7166
▁plat	-7167
schutz	-7168
▁Titel	-7169
▁parad	-7170
▁smell	-7171
▁trick	-7172
▁twice	-7173
▁active	-7174
▁afraid	-7175
▁applic	-7176
▁frustr	-7177
▁speech	-7178
▁wählen	-7179
zeichnen	-7180
▁entlang	-7181
▁größere	-7182
▁notwend	-7183
▁produced	-7184
▁geschafft	-7185
▁atmosphere	-7186
▁Großbritann	-7187
▁communicate	-7188
▁institution	-7189
▁sustainable	-7190
ico	-7191
orb	-7192
▁23	-7193
ogel	-7194
olden	-7195
rench	-7196
▁Hund	-7197
▁Ther	-7198
▁coff	-7199
▁erne	-7200
▁tele	-7201
fassen	-7202
▁gather	-7203
▁highly	-7204
ollywood	-7205
▁bringing	-7206
▁surround	-7207
▁scientist	-7208
▁Medikamente	-7209
rot	-7210
▁od	-7211
▁Etw	-7212
▁kor	-7213
▁sou	-7214
bruch	-7215
stieg	-7216
▁Chic	-7217
▁Jack	-7218
▁Wett	-7219
▁bein	-7220
▁flex	-7221
▁ließ	-7222
▁wire	-7223
istisch	-7224
▁Center	-7225
mosphäre	-7226
▁Knochen	-7227
▁Materie	-7228
▁kämpfen	-7229
▁manufact	-7230
▁riesigen	-7231
▁complexity	-7232
▁verantwort	-7233
▁consciousness	-7234
Un	-7235
ida	-7236
rian	-7237
▁afr	-7238
▁dür	-7239
iffen	-7240
istry	-7241
oston	-7242
weite	-7243
▁Good	-7244
▁bees	-7245
▁adapt	-7246
auschen	-7247
▁10,000	-7248
▁Nehmen	-7249
▁bezahl	-7250
▁custom	-7251
▁ancient	-7252
▁degrees	-7253
▁streets	-7254
industrie	-7255
▁Vielfalt	-7256
▁erlauben	-7257
▁studying	-7258
▁communication	-7259
cel	-7260
ola	-7261
▁GPS	-7262
ekten	-7263
isted	-7264
markt	-7265
mente	-7266
▁Adam	-7267
▁nütz	-7268
etzten	-7269
▁Peter	-7270
▁rough	-7271
▁synth	-7272
▁Brazil	-7273
▁schaut	-7274
▁vertra	-7275
▁Neuronen	-7276
▁campaign	-7277
▁beeinflusst	-7278
▁differently	-7279
edy	-7280
erc	-7281
pre	-7282
hner	-7283
leun	-7284
▁Frü	-7285
▁oppos	-7286
▁photo	-7287
▁Massen	-7288
▁Norden	-7289
▁bought	-7290
▁broken	-7291
▁reduce	-7292
▁satell	-7293
▁dorthin	-7294
▁seltsam	-7295
▁Interess	-7296
▁brauchte	-7297
▁Wikipedia	-7298
▁diversity	-7299
▁reagieren	-7300
oom	-7301
▁Wä	-7302
holt	-7303
uert	-7304
heben	-7305
mögen	-7306
▁Erzä	-7307
▁Micro	-7308
otograf	-7309
▁Atlant	-7310
▁Online	-7311
▁handeln	-7312
▁Phänomen	-7313
▁inspired	-7314
▁veränder	-7315
▁einfacher	-7316
▁Universums	-7317
▁Komplexität	-7318
▁Verbindungen	-7319
▁beeinflussen	-7320
▁Kommunikation	-7321
▁Geschwindigkeit	-7322
4,	-7323
rt	-7324
abt	-7325
ding	-7326
spra	-7327
▁600	-7328
▁tax	-7329
▁wis	-7330
▁Denk	-7331
▁gilt	-7332
▁krit	-7333
▁kürz	-7334
▁race	-7335
▁reve	-7336
▁fragt	-7337
▁sogen	-7338
▁Middle	-7339
▁element	-7340
▁Werkzeug	-7341
▁Botschaft	-7342
▁biological	-7343
▁differences	-7344
▁Entwicklungsl	-7345
Why	-7346
Wenn	-7347
deut	-7348
alien	-7349
ampag	-7350
entle	-7351
▁Dort	-7352
▁Eins	-7353
▁Glas	-7354
▁Iraq	-7355
▁Loch	-7356
artige	-7357
umente	-7358
▁fühlt	-7359
▁gross	-7360
▁Muslim	-7361
▁Thanks	-7362
▁genome	-7363
▁langen	-7364
▁switch	-7365
▁Chicago	-7366
▁Plastik	-7367
▁endlich	-7368
▁missing	-7369
▁stopped	-7370
erspektive	-7371
▁Fortschritt	-7372
▁wichtigsten	-7373
bank	-7374
größ	-7375
izen	-7376
lder	-7377
rect	-7378
üben	-7379
▁Lar	-7380
▁bub	-7381
▁tom	-7382
neten	-7383
▁vast	-7384
▁hielt	-7385
▁nehme	-7386
▁eating	-7387
▁female	-7388
▁ändert	-7389
▁Begriff	-7390
▁daughter	-7391
bin	-7392
gas	-7393
akten	-7394
▁Holz	-7395
▁bomb	-7396
▁gift	-7397
▁prep	-7398
▁teen	-7399
▁Todes	-7400
▁Risiko	-7401
▁Schlag	-7402
▁cooper	-7403
▁spaces	-7404
▁window	-7405
▁achieve	-7406
▁devices	-7407
▁extreme	-7408
▁Insekten	-7409
▁ecosystem	-7410
▁landscape	-7411
▁Verhaltens	-7412
▁produziert	-7413
▁Gesellschaften	-7414
car	-7415
uum	-7416
eden	-7417
load	-7418
stag	-7419
used	-7420
▁jün	-7421
fälle	-7422
idden	-7423
mmern	-7424
right	-7425
volle	-7426
▁Trad	-7427
gebaut	-7428
izität	-7429
lieben	-7430
▁Paris	-7431
▁basis	-7432
▁lights	-7433
▁Version	-7434
▁politische	-7435
▁significant	-7436
▁Zusammenarbeit	-7437
emen	-7438
glie	-7439
nden	-7440
▁Las	-7441
▁Lat	-7442
▁Sen	-7443
▁Zur	-7444
▁dom	-7445
setzt	-7446
▁More	-7447
▁disk	-7448
▁gros	-7449
imeter	-7450
▁Typen	-7451
▁auszu	-7452
▁cheap	-7453
▁fühle	-7454
▁initi	-7455
▁kenne	-7456
▁legen	-7457
▁Klasse	-7458
▁seemed	-7459
▁therap	-7460
▁artists	-7461
▁entsteht	-7462
▁stellten	-7463
▁Geschäfts	-7464
▁molecules	-7465
▁weiterhin	-7466
▁Temperatur	-7467
ruf	-7468
▁2,	-7469
chem	-7470
king	-7471
▁Air	-7472
▁Kop	-7473
▁sad	-7474
▁san	-7475
haben	-7476
ließt	-7477
▁Over	-7478
▁rare	-7479
▁Beruf	-7480
stronom	-7481
▁Boston	-7482
▁Karten	-7483
▁breast	-7484
▁kostet	-7485
▁Ameisen	-7486
▁College	-7487
▁religion	-7488
▁spending	-7489
▁creatures	-7490
▁entschied	-7491
▁überzeugen	-7492
▁politischen	-7493
▁Durchschnitt	-7494
1.	-7495
que	-7496
ses	-7497
kung	-7498
▁nöt	-7499
▁pig	-7500
rauch	-7501
▁Müll	-7502
▁Tanz	-7503
▁hero	-7504
brauch	-7505
istenz	-7506
▁1,000	-7507
▁fully	-7508
ssystem	-7509
▁verfüg	-7510
▁vulner	-7511
▁Einsatz	-7512
▁designers	-7513
▁Klimawandel	-7514
▁Zusammenhang	-7515
det	-7516
▁Kä	-7517
▁ut	-7518
cell	-7519
mmer	-7520
uild	-7521
▁Lab	-7522
▁sal	-7523
ansen	-7524
icket	-7525
▁gene	-7526
▁habt	-7527
uments	-7528
▁rapid	-7529
▁seien	-7530
▁Result	-7531
▁symmet	-7532
▁Kapital	-7533
▁sharing	-7534
▁metaphor	-7535
▁efficient	-7536
▁Unterschiede	-7537
hes	-7538
Okay	-7539
eler	-7540
teln	-7541
▁ext	-7542
athan	-7543
based	-7544
light	-7545
ätsel	-7546
▁buch	-7547
▁enth	-7548
aining	-7549
▁Higgs	-7550
▁Opfer	-7551
▁Virus	-7552
▁bread	-7553
▁könnt	-7554
▁sowie	-7555
mission	-7556
▁Altern	-7557
▁Kohlen	-7558
▁Wunsch	-7559
▁easily	-7560
▁photos	-7561
▁Städten	-7562
▁members	-7563
▁verkauft	-7564
▁Präsident	-7565
▁philosoph	-7566
▁tremendous	-7567
▁Unterstützung	-7568
▁Ho	-7569
▁eg	-7570
angt	-7571
igur	-7572
obel	-7573
rupt	-7574
▁20.	-7575
ocken	-7576
ratic	-7577
afrika	-7578
wohner	-7579
ährung	-7580
▁agree	-7581
▁digit	-7582
▁motor	-7583
zubauen	-7584
▁einsch	-7585
▁presen	-7586
isierten	-7587
▁dagegen	-7588
▁gewonnen	-7589
▁interpret	-7590
▁background	-7591
▁opportunities	-7592
tle	-7593
▁Ah	-7594
ston	-7595
urop	-7596
losen	-7597
quenz	-7598
▁Ganz	-7599
▁Jede	-7600
▁TEDx	-7601
▁Babys	-7602
▁assum	-7603
▁shift	-7604
entwick	-7605
▁batter	-7606
▁engage	-7607
▁gotten	-7608
▁passed	-7609
ological	-7610
▁Objekte	-7611
▁Zentrum	-7612
▁hearing	-7613
▁Aufgaben	-7614
▁begeister	-7615
▁Intelligenz	-7616
ias	-7617
leg	-7618
▁CE	-7619
▁["	-7620
▁sü	-7621
hung	-7622
verb	-7623
▁Wal	-7624
▁fle	-7625
house	-7626
▁Feld	-7627
▁Kein	-7628
▁Proz	-7629
▁Sche	-7630
erecht	-7631
gramme	-7632
ording	-7633
stände	-7634
▁unbed	-7635
▁Schimp	-7636
▁bedeut	-7637
▁erhält	-7638
▁shares	-7639
ationale	-7640
ulations	-7641
▁Diskuss	-7642
▁Sekunde	-7643
▁farmers	-7644
▁focused	-7645
▁moments	-7646
▁Religion	-7647
▁behandelt	-7648
▁Depression	-7649
▁commercial	-7650
▁fascinating	-7651
▁imagination	-7652
▁responsibility	-7653
ays	-7654
urf	-7655
erin	-7656
▁saß	-7657
andid	-7658
frage	-7659
usive	-7660
▁Golf	-7661
▁Szen	-7662
▁heav	-7663
▁feels	-7664
mutlich	-7665
▁Jugend	-7666
▁sexual	-7667
▁schafft	-7668
▁Konferenz	-7669
▁benötigen	-7670
▁verbreitet	-7671
▁verursacht	-7672
na	-7673
ani	-7674
opt	-7675
ieso	-7676
ügel	-7677
ührt	-7678
etwas	-7679
ugier	-7680
▁Heil	-7681
▁none	-7682
führer	-7683
▁Zusch	-7684
▁avoid	-7685
▁davor	-7686
▁visit	-7687
▁Spiele	-7688
▁desert	-7689
▁ganzes	-7690
▁klingt	-7691
istische	-7692
▁letztes	-7693
▁modernen	-7694
▁Fernsehen	-7695
▁Vertrauen	-7696
▁erstellen	-7697
dimensional	-7698
▁Ausbildung	-7699
▁leadership	-7700
▁Jo	-7701
▁ep	-7702
orgt	-7703
spir	-7704
▁Abs	-7705
▁Bur	-7706
▁Haw	-7707
print	-7708
▁Gest	-7709
▁Satz	-7710
▁fash	-7711
▁join	-7712
▁recy	-7713
▁stim	-7714
estens	-7715
formen	-7716
ivalent	-7717
ography	-7718
▁Inform	-7719
▁yellow	-7720
▁Science	-7721
▁mission	-7722
▁Soldaten	-7723
▁identity	-7724
▁Kilometer	-7725
▁Atmosphäre	-7726
▁Hintergrund	-7727
▁Landwirtschaft	-7728
ka	-7729
Sie	-7730
izz	-7731
kop	-7732
gypt	-7733
reci	-7734
tert	-7735
ician	-7736
krebs	-7737
verse	-7738
▁Take	-7739
▁Ghana	-7740
▁neuer	-7741
▁spiel	-7742
▁weird	-7743
klärung	-7744
änglich	-7745
▁Kunden	-7746
▁Privat	-7747
▁nearly	-7748
zwischen	-7749
▁Kontakt	-7750
▁Schwier	-7751
▁Zeichen	-7752
▁failure	-7753
▁Professor	-7754
▁überzeugt	-7755
▁übertragen	-7756
500	-7757
die	-7758
zif	-7759
bert	-7760
stab	-7761
well	-7762
antas	-7763
frist	-7764
▁darf	-7765
▁erfü	-7766
▁schm	-7767
▁tour	-7768
▁vari	-7769
▁Child	-7770
▁gaben	-7771
zeichen	-7772
▁Valley	-7773
▁Wandel	-7774
▁epidem	-7775
▁selber	-7776
▁streng	-7777
▁British	-7778
▁Spielen	-7779
▁knowing	-7780
▁perfekt	-7781
▁turning	-7782
▁virtual	-7783
forschung	-7784
▁benefits	-7785
▁erforschen	-7786
▁investieren	-7787
▁possibility	-7788
hö	-7789
sl	-7790
aos	-7791
renz	-7792
▁Mac	-7793
▁Seb	-7794
▁Spr	-7795
▁zent	-7796
▁Schne	-7797
▁giant	-7798
▁gentle	-7799
▁forever	-7800
▁Qualität	-7801
▁betrifft	-7802
▁dieselbe	-7803
▁brilliant	-7804
▁unbedingt	-7805
▁phenomenon	-7806
▁Großbritannien	-7807
▁Ac	-7808
▁250	-7809
▁Hil	-7810
▁amb	-7811
▁Stär	-7812
▁mort	-7813
▁trag	-7814
isible	-7815
▁Autor	-7816
▁Vogel	-7817
▁enter	-7818
zusehen	-7819
▁tissue	-7820
▁umgehen	-7821
▁erinnert	-7822
▁weiteres	-7823
▁Lieblings	-7824
▁Untersuch	-7825
▁religious	-7826
▁27	-7827
aken	-7828
üren	-7829
▁Cam	-7830
▁joy	-7831
▁zuk	-7832
appen	-7833
schte	-7834
▁Fach	-7835
▁Verk	-7836
▁meas	-7837
▁seed	-7838
▁ship	-7839
antage	-7840
▁Affen	-7841
▁Stoff	-7842
▁mouth	-7843
▁simpl	-7844
▁aspect	-7845
▁coffee	-7846
▁gewöhn	-7847
▁signal	-7848
▁alleine	-7849
▁balance	-7850
▁foreign	-7851
▁accident	-7852
▁opposite	-7853
▁Identität	-7854
▁beschreiben	-7855
▁wunderschön	-7856
▁Organisationen	-7857
▁herausgefunden	-7858
ros	-7859
▁Vö	-7860
halte	-7861
▁Fest	-7862
▁bloß	-7863
▁eure	-7864
▁Handy	-7865
▁Obama	-7866
▁disor	-7867
▁Sterne	-7868
▁fairly	-7869
▁lautet	-7870
▁victim	-7871
entlicht	-7872
▁fashion	-7873
▁geführt	-7874
▁planets	-7875
ification	-7876
▁Actually	-7877
▁addition	-7878
▁wiederum	-7879
▁Institute	-7880
▁verdienen	-7881
▁beschäftigt	-7882
▁entwickelten	-7883
Don	-7884
van	-7885
▁ta	-7886
apie	-7887
know	-7888
lymp	-7889
ware	-7890
▁hau	-7891
krieg	-7892
▁2008	-7893
▁Brot	-7894
▁core	-7895
▁jung	-7896
▁note	-7897
▁spot	-7898
▁Basis	-7899
▁Haiti	-7900
▁condu	-7901
▁helps	-7902
▁lucky	-7903
setzung	-7904
▁Fällen	-7905
▁Mexico	-7906
▁Rücken	-7907
▁Satell	-7908
▁bitten	-7909
▁demand	-7910
▁magnet	-7911
▁sculpt	-7912
▁weapons	-7913
▁Nahrungs	-7914
▁benötigt	-7915
▁particles	-7916
▁vollkommen	-7917
▁Bedingungen	-7918
▁Lebensmittel	-7919
▁kommunizieren	-7920
▁Wü	-7921
aler	-7922
hört	-7923
leid	-7924
▁Rem	-7925
▁gun	-7926
▁lat	-7927
▁Lern	-7928
▁puzz	-7929
▁Masse	-7930
▁email	-7931
▁künst	-7932
▁sitzt	-7933
▁Themen	-7934
▁clever	-7935
▁drehen	-7936
▁infect	-7937
▁Niemand	-7938
▁Patient	-7939
▁rechten	-7940
▁stecken	-7941
▁zukünft	-7942
▁Korallen	-7943
▁außerdem	-7944
▁deutlich	-7945
ota	-7946
ibel	-7947
iche	-7948
▁Nad	-7949
▁Abst	-7950
▁Drei	-7951
▁Volk	-7952
▁anti	-7953
▁Anges	-7954
▁Klima	-7955
▁Sport	-7956
▁names	-7957
▁party	-7958
▁tough	-7959
▁French	-7960
▁Sebast	-7961
▁hinweg	-7962
▁master	-7963
▁notion	-7964
▁verwir	-7965
▁Bildern	-7966
▁Einfach	-7967
▁buchstä	-7968
▁leading	-7969
▁eingesch	-7970
▁erwartet	-7971
▁veröffentlicht	-7972
PA	-7973
soft	-7974
tels	-7975
▁Log	-7976
▁Ros	-7977
▁daß	-7978
eline	-7979
swert	-7980
▁Asia	-7981
▁Graf	-7982
▁Pers	-7983
ighten	-7984
▁Kaffe	-7985
▁coast	-7986
▁exerc	-7987
▁faith	-7988
▁Nutzen	-7989
▁ancest	-7990
▁brings	-7991
▁colors	-7992
▁events	-7993
▁leider	-7994
▁versus	-7995
▁Angeles	-7996
▁steigen	-7997
istischen	-7998
▁Gemeinde	-7999
▁exponent	-8000
▁partners	-8001
▁rational	-8002
▁gestalten	-8003
▁sozusagen	-8004
▁competition	-8005
6,	-8006
far	-8007
▁Dra	-8008
▁unw	-8009
asion	-8010
chnen	-8011
werte	-8012
zelle	-8013
▁ausl	-8014
▁plus	-8015
ördern	-8016
▁tolle	-8017
▁wirst	-8018
▁Änder	-8019
▁erstes	-8020
▁origin	-8021
▁werfen	-8022
ständlich	-8023
▁Kindheit	-8024
2-	-8025
ky	-8026
ano	-8027
pfl	-8028
xis	-8029
itzt	-8030
vity	-8031
▁Bio	-8032
▁Bob	-8033
etter	-8034
icted	-8035
igend	-8036
krank	-8037
urcht	-8038
zweif	-8039
▁Jeff	-8040
▁Sein	-8041
▁abzu	-8042
▁wood	-8043
kehren	-8044
wirken	-8045
▁Stein	-8046
▁dreht	-8047
wechsel	-8048
▁Geräte	-8049
▁Global	-8050
▁charge	-8051
▁corpor	-8052
▁remote	-8053
▁Modelle	-8054
▁anderem	-8055
ungskraft	-8056
▁Forscher	-8057
▁describe	-8058
▁zufällig	-8059
▁Milliarde	-8060
▁sicherlich	-8061
Ar	-8062
la	-8063
iop	-8064
ünf	-8065
fält	-8066
onds	-8067
▁ban	-8068
ckten	-8069
lecht	-8070
▁Kann	-8071
▁Link	-8072
▁bird	-8073
▁forg	-8074
▁repe	-8075
▁vorh	-8076
fallen	-8077
▁Carol	-8078
▁Laden	-8079
▁bound	-8080
▁effiz	-8081
▁krank	-8082
▁töten	-8083
▁Island	-8084
▁Martin	-8085
▁flight	-8086
ifically	-8087
▁Wahrneh	-8088
▁abgesch	-8089
▁ausgest	-8090
▁bezahlen	-8091
▁Charakter	-8092
▁Bildschirm	-8093
▁definition	-8094
60	-8095
ua	-8096
bie	-8097
ded	-8098
anst	-8099
iban	-8100
pper	-8101
▁kit	-8102
asche	-8103
bling	-8104
▁Fabr	-8105
▁Last	-8106
▁host	-8107
▁iron	-8108
▁sinn	-8109
ancing	-8110
inhalb	-8111
zeiten	-8112
▁Metap	-8113
▁Solar	-8114
▁Statt	-8115
▁weiss	-8116
▁bridge	-8117
▁dreams	-8118
▁haupts	-8119
▁schöne	-8120
▁Gesetze	-8121
▁Kontext	-8122
▁concent	-8123
▁despite	-8124
▁European	-8125
▁Sprachen	-8126
▁besitzen	-8127
▁relevant	-8128
▁childhood	-8129
▁suffering	-8130
▁vermutlich	-8131
di	-8132
dy	-8133
üp	-8134
igr	-8135
änn	-8136
apse	-8137
eine	-8138
rale	-8139
yram	-8140
▁Ach	-8141
▁Did	-8142
▁usw	-8143
aters	-8144
chern	-8145
schlä	-8146
▁auth	-8147
▁held	-8148
oppelt	-8149
rennen	-8150
ulated	-8151
▁Genom	-8152
▁Keine	-8153
▁prior	-8154
▁proud	-8155
▁sorry	-8156
hältnis	-8157
▁Nichts	-8158
▁Sozial	-8159
▁sector	-8160
richtung	-8161
▁Audience	-8162
▁distance	-8163
▁elements	-8164
▁Sebastian	-8165
▁alternative	-8166
▁importantly	-8167
▁durchgeführt	-8168
AR	-8169
Der	-8170
ety	-8171
ipe	-8172
▁II	-8173
Talk	-8174
cles	-8175
gern	-8176
iest	-8177
ifen	-8178
▁Akt	-8179
cting	-8180
itely	-8181
ungsf	-8182
▁Arch	-8183
▁halb	-8184
▁stem	-8185
jekten	-8186
mother	-8187
pected	-8188
▁Liter	-8189
▁Treib	-8190
▁broad	-8191
▁laugh	-8192
▁wohin	-8193
oration	-8194
▁aussch	-8195
▁easier	-8196
▁lesson	-8197
▁meters	-8198
▁steckt	-8199
▁husband	-8200
▁illegal	-8201
▁regular	-8202
▁nächstes	-8203
▁natürliche	-8204
▁structures	-8205
▁verhindern	-8206
▁wunderbare	-8207
iox	-8208
▁UN	-8209
This	-8210
oler	-8211
phen	-8212
ties	-8213
▁Emp	-8214
▁Sar	-8215
▁Tur	-8216
hnten	-8217
utzer	-8218
▁Inst	-8219
▁Irak	-8220
▁edge	-8221
▁emot	-8222
idents	-8223
laufen	-8224
nissen	-8225
▁Mobil	-8226
▁accur	-8227
▁gebra	-8228
artment	-8229
gewicht	-8230
▁Rahmen	-8231
▁resist	-8232
▁romant	-8233
▁Schmerz	-8234
▁appreci	-8235
▁counter	-8236
▁figured	-8237
▁identif	-8238
▁insects	-8239
▁Bildungs	-8240
▁previous	-8241
▁scheinen	-8242
▁gegenseit	-8243
▁repräsent	-8244
▁buchstäblich	-8245
▁interagieren	-8246
3,	-8247
aks	-8248
ths	-8249
▁Cr	-8250
oret	-8251
▁Jer	-8252
▁Jon	-8253
▁Mod	-8254
▁pun	-8255
etten	-8256
ulous	-8257
▁Sehr	-8258
▁hung	-8259
▁mill	-8260
▁Beine	-8261
▁Falls	-8262
▁Staat	-8263
▁eröff	-8264
▁leads	-8265
▁noise	-8266
sichtig	-8267
▁deeply	-8268
▁dollar	-8269
▁erweit	-8270
▁glaubt	-8271
▁raised	-8272
▁Führung	-8273
▁Gewicht	-8274
▁kompliz	-8275
▁succeed	-8276
ikanische	-8277
▁Großteil	-8278
▁billions	-8279
▁designer	-8280
▁document	-8281
▁fighting	-8282
▁Microsoft	-8283
▁Problemen	-8284
▁Erinnerung	-8285
▁necessarily	-8286
▁responsible	-8287
len	-8288
cked	-8289
icke	-8290
osis	-8291
▁cro	-8292
agers	-8293
amour	-8294
esign	-8295
ächer	-8296
▁band	-8297
▁magn	-8298
▁hängt	-8299
▁indic	-8300
▁quote	-8301
▁truck	-8302
▁wheel	-8303
▁Sorgen	-8304
▁antwor	-8305
▁oceans	-8306
▁religi	-8307
▁Drittel	-8308
▁Mission	-8309
▁kümmern	-8310
▁Galaxien	-8311
▁Leistung	-8312
▁Teilchen	-8313
▁besseren	-8314
▁tausende	-8315
▁discovery	-8316
▁einsetzen	-8317
▁schließen	-8318
▁verfolgen	-8319
▁ultimately	-8320
▁überrascht	-8321
▁Institutionen	-8322
Du	-8323
dr	-8324
rey	-8325
pted	-8326
▁Ass	-8327
▁Sur	-8328
eared	-8329
inkel	-8330
laden	-8331
▁Ecke	-8332
▁boat	-8333
▁mamm	-8334
▁purs	-8335
tended	-8336
▁Außen	-8337
▁Mount	-8338
▁crash	-8339
▁grass	-8340
▁stolz	-8341
jährige	-8342
steller	-8343
▁Bauern	-8344
▁Heimat	-8345
▁convin	-8346
▁opened	-8347
▁sorgen	-8348
▁derzeit	-8349
▁fragten	-8350
▁related	-8351
▁shouldn	-8352
▁Gegenteil	-8353
▁Sometimes	-8354
▁necessary	-8355
▁verwandeln	-8356
▁mathematics	-8357
rol	-8358
▁ru	-8359
alog	-8360
▁Pra	-8361
▁dou	-8362
ialog	-8363
illed	-8364
itete	-8365
▁Führ	-8366
▁ober	-8367
▁Filme	-8368
▁Jungs	-8369
▁Seine	-8370
▁cloud	-8371
▁embra	-8372
▁hohen	-8373
▁moves	-8374
▁newsp	-8375
▁offer	-8376
▁paint	-8377
▁river	-8378
▁walls	-8379
▁kurzen	-8380
maschine	-8381
▁Polizei	-8382
▁correct	-8383
▁destroy	-8384
▁holding	-8385
▁require	-8386
▁Konflikt	-8387
▁gelangen	-8388
▁sequence	-8389
▁bestimmen	-8390
▁entwerfen	-8391
▁intellect	-8392
▁president	-8393
▁Strukturen	-8394
▁Öffentlich	-8395
.'	-8396
set	-8397
▁Ox	-8398
sinn	-8399
udes	-8400
▁Mem	-8401
▁Tim	-8402
▁dur	-8403
▁Fund	-8404
▁Count	-8405
▁Stift	-8406
▁alter	-8407
▁mouse	-8408
▁Gefahr	-8409
▁Meilen	-8410
▁contra	-8411
▁dürfen	-8412
▁parent	-8413
▁wisdom	-8414
uationen	-8415
▁Gründen	-8416
▁However	-8417
▁contact	-8418
▁display	-8419
▁falsche	-8420
▁illustr	-8421
▁typical	-8422
▁Kaliforn	-8423
▁entirely	-8424
▁fotograf	-8425
▁independ	-8426
▁strategy	-8427
▁zunehmen	-8428
richtungen	-8429
▁allgemein	-8430
▁influence	-8431
▁verbracht	-8432
▁depression	-8433
▁Kohlenstoff	-8434
▁überraschen	-8435
▁professional	-8436
▁möglicherweise	-8437
▁DH	-8438
▁Tun	-8439
beweg	-8440
elesc	-8441
ffekt	-8442
▁Mach	-8443
▁nutz	-8444
iminal	-8445
werten	-8446
▁setzt	-8447
▁stuck	-8448
▁hidden	-8449
▁lieber	-8450
jährigen	-8451
▁Emotion	-8452
▁benefit	-8453
▁leaving	-8454
▁matters	-8455
▁täglich	-8456
ibilities	-8457
▁Verstand	-8458
▁platform	-8459
▁surprise	-8460
esentlichen	-8461
▁gefährlich	-8462
▁irgendwann	-8463
▁vollständig	-8464
▁civilization	-8465
bas	-8466
igm	-8467
xim	-8468
▁AB	-8469
enty	-8470
wide	-8471
▁shr	-8472
▁tit	-8473
ausch	-8474
orrow	-8475
sagen	-8476
▁Dere	-8477
▁Frem	-8478
▁seat	-8479
abetes	-8480
▁Apple	-8481
▁compl	-8482
▁halte	-8483
gesehen	-8484
meister	-8485
▁Stress	-8486
▁Zuerst	-8487
▁caught	-8488
▁finanz	-8489
▁Deutsch	-8490
▁Fleisch	-8491
▁General	-8492
▁Wichtig	-8493
▁traffic	-8494
▁Elektron	-8495
▁Zweitens	-8496
▁weiteren	-8497
▁invisible	-8498
▁operating	-8499
▁begeistert	-8500
▁öffentlich	-8501
▁Schimpansen	-8502
athy	-8503
geln	-8504
prob	-8505
sing	-8506
ötet	-8507
▁Aug	-8508
geber	-8509
ingly	-8510
pielt	-8511
▁Lied	-8512
▁Once	-8513
▁Sing	-8514
▁Very	-8515
▁lies	-8516
▁moon	-8517
▁Brenn	-8518
▁Willi	-8519
▁Ziele	-8520
▁click	-8521
ometers	-8522
▁Gewebe	-8523
▁Händen	-8524
▁Republ	-8525
▁adults	-8526
▁closed	-8527
▁Stimmen	-8528
▁Verkehr	-8529
▁acceler	-8530
▁creation	-8531
▁investment	-8532
▁Öffentlichkeit	-8533
gro	-8534
anth	-8535
eper	-8536
prof	-8537
teid	-8538
wegs	-8539
▁reb	-8540
uries	-8541
▁Fünf	-8542
▁Maus	-8543
▁Sind	-8544
▁ants	-8545
▁exch	-8546
hrough	-8547
weiten	-8548
▁Kapit	-8549
▁Klang	-8550
▁Motor	-8551
▁Spekt	-8552
▁exhib	-8553
▁ideal	-8554
▁kurze	-8555
▁Elektr	-8556
▁Nation	-8557
▁beteil	-8558
▁budget	-8559
▁detail	-8560
▁gehabt	-8561
▁pounds	-8562
▁slowly	-8563
▁wächst	-8564
▁studied	-8565
▁believed	-8566
▁Forschungs	-8567
▁university	-8568
har	-8569
ädt	-8570
öpf	-8571
▁BG	-8572
ears	-8573
kton	-8574
▁Off	-8575
asten	-8576
craft	-8577
fahrt	-8578
riage	-8579
ropri	-8580
scher	-8581
▁Boot	-8582
▁Bras	-8583
▁Eing	-8584
▁hohe	-8585
▁pair	-8586
ategie	-8587
itness	-8588
▁angew	-8589
▁klass	-8590
▁sport	-8591
ampagne	-8592
atively	-8593
istence	-8594
▁Chirur	-8595
▁begins	-8596
▁bieten	-8597
▁letter	-8598
ausenden	-8599
▁bemerkt	-8600
▁gewisse	-8601
▁Experten	-8602
▁separate	-8603
▁engineers	-8604
▁collective	-8605
▁hauptsächlich	-8606
ardo	-8607
olit	-8608
roph	-8609
unte	-8610
wahl	-8611
▁Ill	-8612
▁Mad	-8613
▁Syn	-8614
▁prä	-8615
andem	-8616
anner	-8617
▁1950	-8618
▁Rock	-8619
▁roof	-8620
▁Nobel	-8621
▁claim	-8622
▁climb	-8623
▁nutzt	-8624
▁degree	-8625
▁museum	-8626
▁einiger	-8627
▁trained	-8628
▁emotions	-8629
▁classroom	-8630
▁organisms	-8631
▁vorhanden	-8632
▁constantly	-8633
▁letztendlich	-8634
▁“	-8635
Nun	-8636
cil	-8637
inc	-8638
uel	-8639
▁Ug	-8640
aßen	-8641
loss	-8642
schm	-8643
ößen	-8644
▁Hal	-8645
▁Kal	-8646
▁Law	-8647
▁row	-8648
▁spl	-8649
▁tal	-8650
▁ält	-8651
adies	-8652
apers	-8653
hafte	-8654
unken	-8655
▁Flor	-8656
▁Phot	-8657
▁arch	-8658
atoren	-8659
▁Zeich	-8660
▁anges	-8661
▁begeg	-8662
▁hyper	-8663
▁quiet	-8664
▁resol	-8665
▁starb	-8666
ächtnis	-8667
▁Häuser	-8668
▁Rätsel	-8669
▁failed	-8670
▁phones	-8671
▁testen	-8672
▁everyday	-8673
▁prototyp	-8674
▁Aktivität	-8675
▁angesehen	-8676
▁concerned	-8677
▁unfortunately	-8678
5.	-8679
ris	-8680
yer	-8681
äum	-8682
▁Ro	-8683
bahn	-8684
best	-8685
iern	-8686
mann	-8687
▁Ehe	-8688
▁Rat	-8689
▁ter	-8690
▁tue	-8691
allel	-8692
ipped	-8693
macht	-8694
▁bone	-8695
▁argue	-8696
▁lernt	-8697
▁surge	-8698
issions	-8699
▁Mütter	-8700
▁finger	-8701
▁thinks	-8702
illionen	-8703
▁Verletz	-8704
▁factory	-8705
▁reprodu	-8706
▁wenigen	-8707
blichkeit	-8708
zubringen	-8709
▁Standard	-8710
▁Stanford	-8711
▁advantage	-8712
▁praktisch	-8713
▁mindestens	-8714
▁öffentliche	-8715
▁amerikanische	-8716
▁verantwortlich	-8717
Os	-8718
Se	-8719
pos	-8720
äbe	-8721
gans	-8722
iano	-8723
oben	-8724
onym	-8725
▁21.	-8726
▁Ins	-8727
▁Pan	-8728
▁pet	-8729
agram	-8730
ordin	-8731
uster	-8732
▁Beob	-8733
▁Bush	-8734
▁Leon	-8735
▁Open	-8736
▁empt	-8737
▁hate	-8738
itiven	-8739
neiden	-8740
wissen	-8741
▁Texas	-8742
▁brief	-8743
▁weder	-8744
▁garden	-8745
▁implic	-8746
▁leader	-8747
▁capable	-8748
▁managed	-8749
▁schönen	-8750
▁Algorith	-8751
▁Außerdem	-8752
▁galaxies	-8753
▁Katastrop	-8754
▁Landschaft	-8755
▁businesses	-8756
▁versuchten	-8757
▁Experimente	-8758
▁Perspektive	-8759
▁irgendetwas	-8760
▁interessieren	-8761
rip	-8762
äst	-8763
dete	-8764
elly	-8765
gabe	-8766
oons	-8767
▁Gas	-8768
▁era	-8769
▁fab	-8770
▁Janu	-8771
▁Mund	-8772
▁beat	-8773
▁soil	-8774
schule	-8775
▁Defin	-8776
▁Found	-8777
▁coral	-8778
▁equal	-8779
▁wahre	-8780
▁deinen	-8781
▁erster	-8782
▁expert	-8783
▁reward	-8784
▁Gehirne	-8785
▁artific	-8786
▁Gespräch	-8787
▁Nationen	-8788
▁finished	-8789
▁languages	-8790
möglichkeit	-8791
▁eingesetzt	-8792
▁interaction	-8793
▁kompliziert	-8794
80	-8795
ete	-8796
care	-8797
iate	-8798
olph	-8799
▁Fel	-8800
▁cam	-8801
▁kap	-8802
▁sac	-8803
▁ton	-8804
ischt	-8805
letzt	-8806
▁Code	-8807
▁Orig	-8808
▁Vide	-8809
▁meat	-8810
▁weib	-8811
mutter	-8812
▁Kenya	-8813
▁Kohle	-8814
▁faces	-8815
▁grown	-8816
▁stelle	-8817
▁string	-8818
▁empower	-8819
▁getötet	-8820
▁mothers	-8821
▁Dinosaur	-8822
▁compared	-8823
▁gehalten	-8824
▁seriously	-8825
▁arbeiteten	-8826
▁wichtigste	-8827
▁consumption	-8828
▁ju	-8829
aked	-8830
▁Rot	-8831
plane	-8832
rippe	-8833
▁Star	-8834
▁opin	-8835
ending	-8836
immung	-8837
▁Egypt	-8838
▁Olymp	-8839
▁Smith	-8840
▁frage	-8841
▁veget	-8842
uations	-8843
ystemen	-8844
▁Haufen	-8845
▁Zimmer	-8846
▁attach	-8847
▁benutz	-8848
▁circle	-8849
▁toward	-8850
▁Gedanke	-8851
▁Project	-8852
▁Quadrat	-8853
▁station	-8854
▁feedback	-8855
▁finanzie	-8856
▁meistens	-8857
▁Wettbewer	-8858
▁Interaktion	-8859
▁Unternehmer	-8860
▁agriculture	-8861
BI	-8862
ena	-8863
aret	-8864
inkt	-8865
läss	-8866
pass	-8867
▁emb	-8868
▁pal	-8869
ippen	-8870
osion	-8871
place	-8872
▁aufw	-8873
▁fold	-8874
▁herr	-8875
▁king	-8876
▁whom	-8877
ilosop	-8878
person	-8879
▁Dabei	-8880
▁Momen	-8881
▁attem	-8882
▁verbl	-8883
▁wieso	-8884
▁Grenze	-8885
▁Obwohl	-8886
▁bright	-8887
▁nannte	-8888
▁sister	-8889
esterday	-8890
▁invited	-8891
▁weather	-8892
▁followed	-8893
▁Dimension	-8894
▁Everybody	-8895
▁continent	-8896
▁economics	-8897
▁entworfen	-8898
▁perfectly	-8899
▁surprised	-8900
▁unterscheiden	-8901
If	-8902
ko	-8903
ita	-8904
▁Ham	-8905
▁Nov	-8906
▁bie	-8907
▁spr	-8908
aufte	-8909
inson	-8910
isher	-8911
known	-8912
owers	-8913
▁Dunk	-8914
▁Have	-8915
▁bear	-8916
▁drag	-8917
ipment	-8918
ipping	-8919
▁Radio	-8920
▁Reich	-8921
▁kennt	-8922
▁trägt	-8923
bewesen	-8924
▁Bruder	-8925
▁diskut	-8926
▁driver	-8927
▁galaxy	-8928
▁gesund	-8929
▁verein	-8930
▁Militär	-8931
▁Spiegel	-8932
▁basiert	-8933
▁depress	-8934
▁erzähle	-8935
▁married	-8936
▁protein	-8937
▁vehicle	-8938
▁majority	-8939
▁described	-8940
▁otherwise	-8941
▁Erkenntnis	-8942
▁beeindruck	-8943
▁principles	-8944
▁beantworten	-8945
▁grandmother	-8946
icy	-8947
engu	-8948
keln	-8949
▁Bal	-8950
▁Deb	-8951
▁Tie	-8952
▁Ven	-8953
▁mos	-8954
inent	-8955
teuer	-8956
▁Span	-8957
▁flie	-8958
▁wear	-8959
▁zeit	-8960
bracht	-8961
▁Bitte	-8962
▁Folge	-8963
▁Laufe	-8964
▁Three	-8965
▁eleph	-8966
▁fresh	-8967
▁holen	-8968
▁immun	-8969
▁instr	-8970
▁lunch	-8971
▁paying	-8972
▁Zuhause	-8973
▁bekamen	-8974
▁curious	-8975
▁dennoch	-8976
▁dritten	-8977
▁nochmal	-8978
▁investig	-8979
▁statistics	-8980
▁hoffentlich	-8981
4.	-8982
avig	-8983
gien	-8984
rast	-8985
sens	-8986
vere	-8987
▁Eig	-8988
▁Pac	-8989
▁Ever	-8990
aschen	-8991
gewalt	-8992
▁Innen	-8993
▁cycle	-8994
▁plane	-8995
▁users	-8996
tential	-8997
▁Kräfte	-8998
▁Uganda	-8999
▁ausgeb	-9000
▁exists	-9001
▁lustig	-9002
▁shapes	-9003
▁wearing	-9004
▁Arbeiten	-9005
▁Eindruck	-9006
▁launched	-9007
▁molecule	-9008
▁normalen	-9009
önlichkeit	-9010
▁schlimmer	-9011
▁allerdings	-9012
▁equivalent	-9013
▁consequences	-9014
asi	-9015
▁Ap	-9016
ifer	-9017
life	-9018
ocks	-9019
oted	-9020
rett	-9021
änen	-9022
▁Jud	-9023
▁dry	-9024
▁rat	-9025
▁tag	-9026
reise	-9027
ängst	-9028
▁2007	-9029
▁Does	-9030
▁Each	-9031
▁aufs	-9032
▁earn	-9033
▁vacc	-9034
▁Start	-9035
▁crime	-9036
▁musst	-9037
artigen	-9038
▁10.000	-9039
▁Fische	-9040
▁dauert	-9041
▁gering	-9042
▁starke	-9043
▁Elektro	-9044
▁warming	-9045
▁aufhören	-9046
▁ungewöhn	-9047
▁Politiker	-9048
▁Schwester	-9049
▁universal	-9050
▁instrument	-9051
▁untersucht	-9052
▁wesentlich	-9053
▁Kalifornien	-9054
▁hergestellt	-9055
▁increasingly	-9056
▁unterschiedlich	-9057
▁Ol	-9058
comp	-9059
▁Ans	-9060
▁SMS	-9061
▁unl	-9062
▁puts	-9063
heimer	-9064
ischem	-9065
▁Erleb	-9066
▁Titan	-9067
▁homes	-9068
▁lebte	-9069
▁limit	-9070
▁versp	-9071
▁Effekt	-9072
▁dinner	-9073
▁incent	-9074
▁linken	-9075
▁mitten	-9076
▁drawing	-9077
▁schaute	-9078
▁erfinden	-9079
▁hunderte	-9080
▁multiple	-9081
▁ordinary	-9082
▁planning	-9083
▁cognitive	-9084
▁Entdeckung	-9085
üst	-9086
akte	-9087
cast	-9088
enkt	-9089
gers	-9090
ifik	-9091
▁Inn	-9092
▁due	-9093
▁sum	-9094
▁van	-9095
▁zog	-9096
aming	-9097
itzer	-9098
leren	-9099
throp	-9100
▁Samm	-9101
▁bull	-9102
▁engl	-9103
▁hasn	-9104
▁stup	-9105
agiert	-9106
onomen	-9107
uliert	-9108
urally	-9109
▁Kleid	-9110
▁Krise	-9111
▁State	-9112
▁chann	-9113
▁dolph	-9114
▁grade	-9115
▁somit	-9116
reitung	-9117
▁Minute	-9118
▁Toilet	-9119
▁aufgew	-9120
▁ließen	-9121
▁manage	-9122
▁reform	-9123
▁stabil	-9124
▁vieler	-9125
▁Gleiche	-9126
▁Nachdem	-9127
▁highest	-9128
▁Methoden	-9129
▁Moleküle	-9130
▁survival	-9131
▁Gegensatz	-9132
▁mentioned	-9133
▁wichtigen	-9134
▁entspricht	-9135
▁generations	-9136
hte	-9137
herr	-9138
thal	-9139
wärt	-9140
▁195	-9141
▁Hör	-9142
▁Pfl	-9143
▁anz	-9144
▁ten	-9145
ifest	-9146
itung	-9147
power	-9148
ähren	-9149
▁Dass	-9150
▁Mess	-9151
▁Pfer	-9152
▁agre	-9153
▁gold	-9154
▁gäbe	-9155
hängig	-9156
▁2,000	-9157
▁Beste	-9158
▁Trotz	-9159
▁pages	-9160
▁regel	-9161
▁round	-9162
▁rural	-9163
▁traur	-9164
▁Mechan	-9165
▁debate	-9166
▁echten	-9167
▁erlebt	-9168
▁hoffen	-9169
▁unless	-9170
▁100,000	-9171
▁Theater	-9172
▁fördern	-9173
▁limited	-9174
▁nervous	-9175
▁airplane	-9176
▁normally	-9177
▁Folgendes	-9178
▁equipment	-9179
▁Bewegungen	-9180
▁Satelliten	-9181
▁entstanden	-9182
▁existieren	-9183
▁entwickelte	-9184
▁interessanter	-9185
"]	-9186
azz	-9187
ura	-9188
▁26	-9189
wich	-9190
▁Cal	-9191
▁1990	-9192
▁Budd	-9193
▁Manh	-9194
▁fell	-9195
▁reef	-9196
anders	-9197
gruppe	-9198
plomat	-9199
▁teuer	-9200
fassung	-9201
▁Irgend	-9202
▁Lachen	-9203
▁belong	-9204
▁Körpers	-9205
▁Vorteil	-9206
▁beinhal	-9207
▁schwarz	-9208
▁demokrat	-9209
▁erkannte	-9210
▁magazine	-9211
▁verbreiten	-9212
▁vergleichen	-9213
▁Generationen	-9214
▁distribution	-9215
war	-9216
ader	-9217
fung	-9218
stud	-9219
▁Hor	-9220
▁Nar	-9221
▁gig	-9222
▁tap	-9223
▁Ange	-9224
▁Impf	-9225
▁Koll	-9226
▁Pass	-9227
▁Tour	-9228
▁arms	-9229
▁intu	-9230
▁umge	-9231
▁unex	-9232
fragen	-9233
▁Ganze	-9234
▁Gates	-9235
▁Viren	-9236
▁daily	-9237
▁heads	-9238
▁lifet	-9239
▁roten	-9240
▁steps	-9241
fordert	-9242
▁Andere	-9243
▁Planet	-9244
▁fellow	-9245
▁harder	-9246
▁schick	-9247
schlagen	-9248
▁justice	-9249
▁organic	-9250
▁reichen	-9251
▁tausend	-9252
▁theater	-9253
▁treated	-9254
imensions	-9255
▁Japanese	-9256
▁received	-9257
▁principle	-9258
wissenschaft	-9259
▁Wahrnehmung	-9260
▁persönlichen	-9261
▁transformation	-9262
Pl	-9263
nel	-9264
▁'9	-9265
▁22	-9266
▁BF	-9267
▁Cy	-9268
aled	-9269
angs	-9270
lieb	-9271
omme	-9272
▁Dok	-9273
▁tox	-9274
cking	-9275
emble	-9276
estic	-9277
fisch	-9278
itude	-9279
izont	-9280
▁Gras	-9281
▁Hins	-9282
▁Pres	-9283
▁beis	-9284
▁ethn	-9285
▁gesp	-9286
▁wave	-9287
▁Jeden	-9288
▁chimp	-9289
ografie	-9290
▁Fakten	-9291
▁Folgen	-9292
▁Streit	-9293
▁academ	-9294
▁circum	-9295
▁fields	-9296
▁Germany	-9297
▁article	-9298
▁normale	-9299
▁relativ	-9300
▁wechsel	-9301
▁brachten	-9302
▁engineer	-9303
▁soldiers	-9304
▁Konsequen	-9305
▁Lebewesen	-9306
▁Tradition	-9307
▁Zeitalter	-9308
▁verbindet	-9309
▁Foundation	-9310
▁persönlich	-9311
obe	-9312
pel	-9313
öpfe	-9314
▁Top	-9315
mäßig	-9316
rehen	-9317
▁Echt	-9318
▁Fett	-9319
▁Gand	-9320
▁Pfle	-9321
▁fiel	-9322
▁tail	-9323
werden	-9324
▁Ihres	-9325
▁Would	-9326
▁north	-9327
▁south	-9328
ordnung	-9329
▁Beweis	-9330
▁Geräus	-9331
▁Zucker	-9332
▁belief	-9333
▁schien	-9334
▁voices	-9335
▁Ansicht	-9336
▁bezahlt	-9337
▁covered	-9338
▁genauer	-9339
▁letters	-9340
▁volunte	-9341
▁vorbere	-9342
▁effektiv	-9343
▁Australia	-9344
▁hopefully	-9345
▁dimensions	-9346
▁reduzieren	-9347
So	-9348
ca	-9349
box	-9350
▁ap	-9351
andt	-9352
aust	-9353
cket	-9354
down	-9355
kept	-9356
ltra	-9357
zing	-9358
▁11.	-9359
▁Eng	-9360
▁ruh	-9361
zieht	-9362
ünder	-9363
▁1960	-9364
▁1980	-9365
▁dran	-9366
atures	-9367
ifying	-9368
▁Armen	-9369
▁chain	-9370
▁facts	-9371
▁pengu	-9372
glieder	-9373
▁Rechte	-9374
▁Yorker	-9375
▁leaves	-9376
▁motion	-9377
▁müsste	-9378
▁zahlen	-9379
▁killing	-9380
▁setting	-9381
▁Tausende	-9382
▁suggests	-9383
▁Netzwerke	-9384
▁brauchten	-9385
▁essential	-9386
▁Augenblick	-9387
▁Eigentlich	-9388
▁Organismen	-9389
▁electrical	-9390
▁persönliche	-9391
▁Gesundheitsw	-9392
ait	-9393
▁La	-9394
rete	-9395
▁Pfe	-9396
▁gap	-9397
▁mel	-9398
besch	-9399
▁Roll	-9400
▁Sens	-9401
▁Wild	-9402
▁Zell	-9403
▁coal	-9404
▁männ	-9405
▁pure	-9406
▁trib	-9407
▁Milch	-9408
▁colon	-9409
▁einst	-9410
▁novel	-9411
gegeben	-9412
schrift	-9413
umenten	-9414
▁Canada	-9415
▁Garten	-9416
▁Grafik	-9417
▁Oxford	-9418
▁Saturn	-9419
▁Schlaf	-9420
▁Wellen	-9421
▁breath	-9422
▁movies	-9423
▁TEDTalk	-9424
▁gelesen	-9425
▁privile	-9426
▁watched	-9427
▁Hinsicht	-9428
▁aufbauen	-9429
▁schlagen	-9430
▁zunächst	-9431
▁Gemeinden	-9432
▁Hollywood	-9433
▁entertain	-9434
▁irgendein	-9435
▁technical	-9436
▁Individuen	-9437
▁inspiriert	-9438
▁auseinander	-9439
▁medizinische	-9440
ij	-9441
üb	-9442
ela	-9443
üge	-9444
▁65	-9445
ctic	-9446
urer	-9447
▁120	-9448
cture	-9449
istor	-9450
ologe	-9451
tocin	-9452
▁Anim	-9453
▁Beim	-9454
▁Mass	-9455
▁Teen	-9456
▁soph	-9457
▁trip	-9458
ibrary	-9459
▁divid	-9460
▁heran	-9461
▁scene	-9462
auspiel	-9463
flächen	-9464
portion	-9465
▁Buchst	-9466
▁drüben	-9467
▁losing	-9468
▁stupid	-9469
▁Manhatt	-9470
▁brauche	-9471
▁compare	-9472
▁entschl	-9473
▁gehören	-9474
▁gestern	-9475
▁testing	-9476
▁kürzlich	-9477
▁property	-9478
▁sentence	-9479
▁entscheid	-9480
▁erscheinen	-9481
▁verbrachte	-9482
▁Elektrizität	-9483
▁grundlegende	-9484
▁International	-9485
▁traditionellen	-9486
hek	-9487
mas	-9488
oli	-9489
utt	-9490
otic	-9491
sage	-9492
sver	-9493
▁Net	-9494
▁bom	-9495
izien	-9496
▁Dach	-9497
▁Hack	-9498
▁cosm	-9499
▁date	-9500
▁enem	-9501
ondere	-9502
ushing	-9503
vollen	-9504
▁Etwas	-9505
▁Korea	-9506
▁Stock	-9507
▁aufta	-9508
▁vorbe	-9509
▁wobei	-9510
ologist	-9511
▁caused	-9512
▁damage	-9513
▁island	-9514
▁Details	-9515
▁Malaria	-9516
▁autonom	-9517
▁according	-9518
▁entdeckte	-9519
▁vergangen	-9520
▁innovative	-9521
▁natürlichen	-9522
8.	-9523
▁Ra	-9524
acle	-9525
bles	-9526
▁700	-9527
▁tri	-9528
▁Atom	-9529
▁Eben	-9530
▁Elef	-9531
▁jähr	-9532
▁scen	-9533
riften	-9534
▁Derek	-9535
▁Other	-9536
▁categ	-9537
▁flies	-9538
▁folgt	-9539
▁fängt	-9540
▁heavy	-9541
▁solch	-9542
amerika	-9543
▁Aspekt	-9544
▁Linien	-9545
▁Steuer	-9546
▁enable	-9547
▁filled	-9548
▁fourth	-9549
▁kombin	-9550
▁perman	-9551
ätigkeit	-9552
▁angesch	-9553
▁nations	-9554
▁welchen	-9555
▁worried	-9556
▁astronom	-9557
▁entgegen	-9558
▁Everything	-9559
▁Interessen	-9560
▁Produktion	-9561
▁artificial	-9562
▁experienced	-9563
▁erstaunliche	-9564
▁verschwinden	-9565
vas	-9566
üte	-9567
▁sy	-9568
atom	-9569
baut	-9570
obby	-9571
skop	-9572
umin	-9573
▁rie	-9574
igern	-9575
inted	-9576
passt	-9577
▁Resp	-9578
▁beit	-9579
▁copy	-9580
▁rück	-9581
▁shif	-9582
▁surf	-9583
ichern	-9584
recher	-9585
ündete	-9586
▁Could	-9587
▁Their	-9588
▁Weile	-9589
▁angeb	-9590
▁anger	-9591
▁autom	-9592
▁cloth	-9593
▁signs	-9594
▁sites	-9595
▁subst	-9596
anthrop	-9597
frieden	-9598
▁Jemand	-9599
▁Kaffee	-9600
▁Mexiko	-9601
▁announ	-9602
▁explan	-9603
▁hypoth	-9604
▁verblü	-9605
struktur	-9606
sätzlich	-9607
▁Beweise	-9608
▁signals	-9609
▁starten	-9610
▁Elemente	-9611
▁abhängig	-9612
▁cultures	-9613
▁geändert	-9614
▁identify	-9615
▁resource	-9616
▁struggle	-9617
▁Abschluss	-9618
▁Zuschauer	-9619
▁designing	-9620
▁processes	-9621
▁associated	-9622
▁definieren	-9623
▁kilometers	-9624
▁researchers	-9625
▁Schwierigkeiten	-9626
Yes	-9627
kan	-9628
▁af	-9629
edic	-9630
fish	-9631
iend	-9632
mitt	-9633
ompl	-9634
uous	-9635
▁Joe	-9636
agina	-9637
chnet	-9638
gerät	-9639
iable	-9640
lease	-9641
oster	-9642
state	-9643
▁1970	-9644
▁Brun	-9645
▁Mary	-9646
▁scri	-9647
▁vere	-9648
bridge	-9649
design	-9650
▁awful	-9651
▁holes	-9652
▁maint	-9653
▁minim	-9654
▁negot	-9655
▁nötig	-9656
▁shoes	-9657
forscht	-9658
stellte	-9659
▁Ausmaß	-9660
▁Steven	-9661
zuführen	-9662
zusetzen	-9663
▁arrived	-9664
▁players	-9665
▁spannen	-9666
▁Kulturen	-9667
▁appropri	-9668
▁tomorrow	-9669
▁beschloss	-9670
▁effizient	-9671
▁gestorben	-9672
▁considered	-9673
▁darstellen	-9674
▁importance	-9675
▁beschlossen	-9676
▁connections	-9677
?“	-9678
▁Ec	-9679
▁Gi	-9680
anch	-9681
ints	-9682
rägt	-9683
▁Cor	-9684
▁Jim	-9685
▁gre	-9686
bares	-9687
genda	-9688
▁Fehl	-9689
▁bits	-9690
▁diet	-9691
▁horr	-9692
▁weak	-9693
merzen	-9694
▁Union	-9695
▁ermut	-9696
▁halbe	-9697
▁infin	-9698
▁spont	-9699
gedacht	-9700
▁Träume	-9701
▁Voraus	-9702
▁advert	-9703
▁analog	-9704
▁bietet	-9705
▁stammt	-9706
▁verlie	-9707
ographie	-9708
▁Spieler	-9709
▁dealing	-9710
▁eindeut	-9711
▁illness	-9712
▁sources	-9713
▁spielte	-9714
▁feelings	-9715
▁komplexe	-9716
▁Manhattan	-9717
▁currently	-9718
▁Architekten	-9719
▁Mitarbeiter	-9720
▁comfortable	-9721
▁faszinierend	-9722
3.	-9723
zed	-9724
zep	-9725
äne	-9726
▁NG	-9727
agon	-9728
cipl	-9729
resp	-9730
test	-9731
▁10,	-9732
▁10-	-9733
▁Alz	-9734
▁Dad	-9735
▁Fas	-9736
▁Int	-9737
alyse	-9738
elben	-9739
gment	-9740
lying	-9741
schau	-9742
▁Gore	-9743
▁Long	-9744
▁Säug	-9745
▁gall	-9746
▁poem	-9747
▁vote	-9748
rechte	-9749
▁folks	-9750
▁liked	-9751
▁passt	-9752
▁stood	-9753
orthern	-9754
▁Batter	-9755
▁kurzem	-9756
▁meiste	-9757
▁zählen	-9758
▁keeping	-9759
▁lessons	-9760
▁anwenden	-9761
▁behalten	-9762
▁Brasilien	-9763
▁Vorfahren	-9764
▁aufregend	-9765
▁convinced	-9766
▁erscheint	-9767
▁professor	-9768
▁satellite	-9769
▁verfügbar	-9770
▁yesterday	-9771
▁zerstören	-9772
▁beobachtet	-9773
▁corruption	-9774
▁management	-9775
▁Dinosaurier	-9776
▁entrepreneurs	-9777
9.	-9778
ET	-9779
Is	-9780
pra	-9781
anen	-9782
icip	-9783
illa	-9784
oute	-9785
star	-9786
unkl	-9787
äuse	-9788
▁Mel	-9789
▁Zer	-9790
▁cow	-9791
ancen	-9792
ierer	-9793
kreis	-9794
omben	-9795
uable	-9796
▁Hill	-9797
▁Jose	-9798
▁Show	-9799
▁myth	-9800
▁soul	-9801
▁user	-9802
▁vess	-9803
ibliot	-9804
isters	-9805
▁Black	-9806
▁Brook	-9807
▁Pingu	-9808
▁empty	-9809
▁layer	-9810
▁perce	-9811
▁recon	-9812
▁saved	-9813
▁spoke	-9814
▁waves	-9815
iologen	-9816
▁deeper	-9817
▁finish	-9818
▁spring	-9819
achstums	-9820
▁Britain	-9821
▁Florida	-9822
▁Student	-9823
▁Website	-9824
▁capture	-9825
▁opening	-9826
▁viruses	-9827
isationen	-9828
▁Prototyp	-9829
▁analysis	-9830
▁nützlich	-9831
▁strength	-9832
▁Emotionen	-9833
▁Erklärung	-9834
▁interface	-9835
▁studieren	-9836
▁verhalten	-9837
▁Überrasch	-9838
▁aufzubauen	-9839
▁zugänglich	-9840
▁beschäftigen	-9841
He	-9842
bru	-9843
gyp	-9844
rix	-9845
uhe	-9846
▁32	-9847
That	-9848
▁Bay	-9849
▁Dro	-9850
▁Urs	-9851
erves	-9852
iquid	-9853
nimmt	-9854
▁Bron	-9855
▁Null	-9856
▁Viet	-9857
▁evil	-9858
▁flat	-9859
▁fuhr	-9860
▁gefü	-9861
▁hadn	-9862
▁maps	-9863
▁zahl	-9864
holfen	-9865
minist	-9866
nitten	-9867
▁Neben	-9868
▁erled	-9869
▁humor	-9870
▁meist	-9871
▁quasi	-9872
▁wuchs	-9873
▁übrig	-9874
spielen	-9875
▁berühm	-9876
▁körper	-9877
▁lebten	-9878
▁reicht	-9879
▁sharks	-9880
▁status	-9881
▁Angriff	-9882
▁Berechn	-9883
▁Maßstab	-9884
▁Präsent	-9885
▁cartoon	-9886
▁experts	-9887
▁microsc	-9888
▁morgens	-9889
▁worüber	-9890
▁Nachbarn	-9891
▁diagnost	-9892
▁expected	-9893
▁reaction	-9894
stellungen	-9895
▁Alzheimer	-9896
▁aufgebaut	-9897
▁chimpanze	-9898
▁sophistic	-9899
mü	-9900
afe	-9901
isf	-9902
mel	-9903
uhr	-9904
aube	-9905
▁Tes	-9906
▁dat	-9907
▁sem	-9908
rator	-9909
▁Camp	-9910
▁Eric	-9911
▁Kerl	-9912
▁Verd	-9913
▁Verw	-9914
▁drin	-9915
▁exec	-9916
▁grab	-9917
▁hide	-9918
▁tall	-9919
▁vibr	-9920
▁wide	-9921
illing	-9922
▁Human	-9923
▁niedr	-9924
▁prove	-9925
bewusst	-9926
drücken	-9927
erneath	-9928
ulating	-9929
▁Bedroh	-9930
▁Gewinn	-9931
▁Riesen	-9932
▁Umfeld	-9933
▁formen	-9934
▁muscle	-9935
▁picked	-9936
▁videos	-9937
ichtlich	-9938
programm	-9939
▁calling	-9940
▁cutting	-9941
▁details	-9942
▁partner	-9943
▁radical	-9944
▁stärker	-9945
▁variety	-9946
▁Arbeiter	-9947
▁Schatten	-9948
▁annehmen	-9949
▁President	-9950
▁Korruption	-9951
▁Deutschland	-9952
▁independent	-9953
▁transparent	-9954
▁Informations	-9955
LA	-9956
sa	-9957
wä	-9958
▁3.	-9959
▁PM	-9960
adow	-9961
atik	-9962
izer	-9963
ller	-9964
osex	-9965
rain	-9966
▁Day	-9967
▁LED	-9968
▁Lou	-9969
▁Mah	-9970
▁Opt	-9971
glied	-9972
iques	-9973
llekt	-9974
▁Atem	-9975
▁Dire	-9976
▁Prim	-9977
▁Vern	-9978
▁chap	-9979
▁hurt	-9980
▁youn	-9981
iences	-9982
▁Fälle	-9983
▁Grand	-9984
▁Gutes	-9985
▁Seele	-9986
▁Vögel	-9987
▁blieb	-9988
▁crowd	-9989
▁teeth	-9990
▁zieht	-9991
ziehung	-9992
züglich	-9993
▁Erwart	-9994
▁Helden	-9995
▁Inhalt	-9996
▁Staats	-9997
▁encoun	-9998
▁nieder	-9999
▁safety	-10000
▁setzte	-10001
▁battery	-10002
▁Chemikal	-10003
▁ersetzen	-10004
▁gewissen	-10005
▁marriage	-10006
▁thoughts	-10007
▁valuable	-10008
▁zerstört	-10009
▁Cambridge	-10010
▁Jahrzehnt	-10011
▁worldwide	-10012
▁properties	-10013
▁vermitteln	-10014
▁construction	-10015
EC	-10016
vis	-10017
agos	-10018
iler	-10019
izop	-10020
▁Ost	-10021
▁Wei	-10022
▁pil	-10023
▁rig	-10024
anzös	-10025
iency	-10026
iform	-10027
orted	-10028
▁Gree	-10029
▁Soll	-10030
▁Wurz	-10031
▁asks	-10032
▁dots	-10033
▁ends	-10034
▁shel	-10035
agramm	-10036
orient	-10037
▁Betra	-10038
▁Moral	-10039
▁Tests	-10040
▁geist	-10041
bereich	-10042
▁Health	-10043
▁Howard	-10044
▁Quelle	-10045
▁ausgel	-10046
▁houses	-10047
▁replic	-10048
▁review	-10049
▁skelet	-10050
▁trials	-10051
izophren	-10052
▁Werbung	-10053
▁erkennt	-10054
▁moderne	-10055
▁umgeben	-10056
▁epidemic	-10057
▁verwende	-10058
idimension	-10059
versorgung	-10060
▁Potential	-10061
▁beschleun	-10062
▁industrie	-10063
▁invention	-10064
▁Geschlecht	-10065
Al	-10066
NS	-10067
ees	-10068
pet	-10069
▁Zä	-10070
oles	-10071
▁Hol	-10072
▁Roh	-10073
▁tim	-10074
wesen	-10075
▁Coll	-10076
▁Klin	-10077
▁Ungl	-10078
▁beib	-10079
▁kick	-10080
▁snow	-10081
▁summ	-10082
onents	-10083
titude	-10084
▁Antar	-10085
▁Neues	-10086
▁Zweck	-10087
▁außen	-10088
▁broke	-10089
▁cards	-10090
▁sucht	-10091
▁vorne	-10092
▁Virgin	-10093
▁define	-10094
▁establ	-10095
▁gender	-10096
▁heißen	-10097
▁sample	-10098
▁steigt	-10099
▁zusätz	-10100
▁Auswahl	-10101
▁Konflik	-10102
▁Weltraum	-10103
▁advanced	-10104
▁deswegen	-10105
▁hydrogen	-10106
▁Geheimnis	-10107
▁chemistry	-10108
▁geschickt	-10109
▁photograp	-10110
▁wondering	-10111
▁unabhängig	-10112
▁underneath	-10113
▁specifically	-10114
MA	-10115
sun	-10116
wie	-10117
ario	-10118
aurs	-10119
wach	-10120
▁rit	-10121
ength	-10122
quare	-10123
rooms	-10124
weile	-10125
öpfen	-10126
▁Hans	-10127
▁arts	-10128
▁corn	-10129
▁fern	-10130
haften	-10131
ueller	-10132
▁Febru	-10133
▁Stufe	-10134
▁admit	-10135
▁solid	-10136
▁unend	-10137
zentrum	-10138
▁Anyway	-10139
▁Inspir	-10140
▁Schuld	-10141
▁Welche	-10142
▁facing	-10143
▁treten	-10144
▁Fernseh	-10145
▁authent	-10146
▁cameras	-10147
▁erwähnt	-10148
▁neurosc	-10149
▁roughly	-10150
▁seitdem	-10151
▁Freundin	-10152
▁consumer	-10153
▁emerging	-10154
▁langweil	-10155
▁requires	-10156
▁digitalen	-10157
▁existence	-10158
▁langfrist	-10159
▁notwendig	-10160
▁vermeiden	-10161
▁expression	-10162
▁effectively	-10163
▁stattdessen	-10164
▁possibilities	-10165
/1	-10166
Do	-10167
cal	-10168
cap	-10169
hab	-10170
sey	-10171
umn	-10172
▁95	-10173
▁wü	-10174
▁Nan	-10175
▁Sum	-10176
▁bul	-10177
abeth	-10178
chron	-10179
linge	-10180
otten	-10181
usual	-10182
▁Fast	-10183
▁blau	-10184
▁blow	-10185
▁spät	-10186
▁verg	-10187
acters	-10188
muster	-10189
▁Brown	-10190
▁Hilfs	-10191
▁Kreuz	-10192
▁Zitat	-10193
▁honor	-10194
ontroll	-10195
steroid	-10196
▁Chemie	-10197
▁Größen	-10198
▁einzus	-10199
▁forced	-10200
▁junger	-10201
▁leiden	-10202
▁physic	-10203
▁player	-10204
▁Schnitt	-10205
▁Vietnam	-10206
▁dynamic	-10207
▁gebeten	-10208
▁müssten	-10209
▁Minister	-10210
▁convince	-10211
▁disaster	-10212
▁exchange	-10213
▁lifetime	-10214
▁messages	-10215
▁schwarze	-10216
▁sprachen	-10217
▁Bereichen	-10218
▁Operation	-10219
▁Philosoph	-10220
▁carefully	-10221
▁chemicals	-10222
▁organized	-10223
▁practical	-10224
▁characters	-10225
▁schlechter	-10226
▁situations	-10227
▁vulnerable	-10228
▁Situationen	-10229
▁schrecklich	-10230
möglichkeiten	-10231
▁Erinnerungen	-10232
▁KB	-10233
arre	-10234
flug	-10235
führ	-10236
izon	-10237
kins	-10238
ping	-10239
▁800	-10240
▁Bem	-10241
▁Hen	-10242
▁Jes	-10243
▁Rom	-10244
▁Sir	-10245
▁gay	-10246
greif	-10247
karte	-10248
▁Mult	-10249
▁Sitz	-10250
▁Such	-10251
▁Trag	-10252
▁gegr	-10253
▁lady	-10254
▁suit	-10255
igsten	-10256
indert	-10257
▁appar	-10258
▁fewer	-10259
▁fiber	-10260
▁fähig	-10261
▁sugar	-10262
▁Mandel	-10263
▁Wetter	-10264
▁Zauber	-10265
▁poetry	-10266
▁Entfern	-10267
▁Erkrank	-10268
▁berührt	-10269
▁malaria	-10270
▁musical	-10271
▁niedrig	-10272
▁solcher	-10273
▁theoret	-10274
verbrauch	-10275
▁Echtzeit	-10276
▁carrying	-10277
▁entstand	-10278
▁erstellt	-10279
▁exercise	-10280
▁generate	-10281
▁Erfindung	-10282
▁Verbesser	-10283
▁producing	-10284
▁Buchstaben	-10285
▁Verhältnis	-10286
▁fantastisch	-10287
▁intellectual	-10288
han	-10289
sph	-10290
Mail	-10291
würd	-10292
▁19.	-10293
▁191	-10294
▁biz	-10295
▁hur	-10296
▁Homo	-10297
▁arab	-10298
▁biom	-10299
▁gain	-10300
▁grid	-10301
▁rief	-10302
▁shut	-10303
sprung	-10304
äusern	-10305
▁Offen	-10306
▁chart	-10307
▁smile	-10308
achtung	-10309
outhern	-10310
quality	-10311
▁Anteil	-10312
▁Doktor	-10313
▁Winter	-10314
▁buying	-10315
▁enorme	-10316
▁gelöst	-10317
▁spezif	-10318
▁contain	-10319
▁Bereiche	-10320
▁location	-10321
▁systemat	-10322
▁verteilt	-10323
▁Strategie	-10324
▁behaviors	-10325
▁mortality	-10326
▁überrasch	-10327
▁Diskussion	-10328
▁Großmutter	-10329
▁beinhaltet	-10330
▁discussion	-10331
▁schlechten	-10332
▁transition	-10333
▁überwinden	-10334
▁Zivilisation	-10335
▁menschlicher	-10336
-1	-10337
IP	-10338
].	-10339
bek	-10340
fir	-10341
bors	-10342
ämpf	-10343
▁Ter	-10344
▁lic	-10345
maßen	-10346
rufen	-10347
staat	-10348
sters	-10349
uropä	-10350
▁Alph	-10351
▁Kurs	-10352
▁Paar	-10353
▁Wall	-10354
▁erwe	-10355
▁scre	-10356
▁Ägyp	-10357
esents	-10358
iglich	-10359
jemand	-10360
ächeln	-10361
▁Lager	-10362
▁Sogar	-10363
▁Stuhl	-10364
▁beweg	-10365
▁rates	-10366
▁schwe	-10367
▁shall	-10368
▁silen	-10369
ständen	-10370
▁Belohn	-10371
▁Einsch	-10372
▁Kriegs	-10373
▁Signal	-10374
▁Wolken	-10375
▁dunkle	-10376
▁former	-10377
inosaurs	-10378
▁Verlust	-10379
▁hierher	-10380
▁selling	-10381
fähigkeit	-10382
▁circumst	-10383
▁explains	-10384
▁gespielt	-10385
▁relative	-10386
▁Transport	-10387
▁collection	-10388
▁restaurant	-10389
▁westlichen	-10390
▁Erwachsenen	-10391
▁Statistiken	-10392
▁gegenseitig	-10393
▁collaboration	-10394
Man	-10395
can	-10396
ini	-10397
lyn	-10398
not	-10399
ups	-10400
frei	-10401
▁Yet	-10402
▁err	-10403
▁zut	-10404
asste	-10405
hythm	-10406
itals	-10407
▁cure	-10408
▁jüng	-10409
▁klin	-10410
▁ride	-10411
▁wand	-10412
penden	-10413
stream	-10414
▁Brief	-10415
▁Tumor	-10416
▁Women	-10417
▁navig	-10418
▁sympt	-10419
aurants	-10420
griffen	-10421
wärmung	-10422
zufügen	-10423
▁Damals	-10424
▁Stärke	-10425
▁explod	-10426
▁geomet	-10427
▁hinten	-10428
▁winter	-10429
▁Risiken	-10430
▁konstru	-10431
▁sending	-10432
▁unusual	-10433
▁victims	-10434
▁welchem	-10435
▁überprü	-10436
▁Existenz	-10437
▁Nachhalt	-10438
▁clinical	-10439
▁parallel	-10440
▁Anwendung	-10441
▁relatively	-10442
▁represents	-10443
▁verbessert	-10444
▁feststellen	-10445
▁photographs	-10446
▁wirtschaftliche	-10447
DP	-10448
hai	-10449
hel	-10450
ruh	-10451
ähn	-10452
Look	-10453
airs	-10454
bell	-10455
netz	-10456
oses	-10457
ught	-10458
wing	-10459
▁Cra	-10460
▁Pet	-10461
▁bow	-10462
gling	-10463
icing	-10464
illen	-10465
inahe	-10466
▁Allt	-10467
▁Expl	-10468
▁Früh	-10469
▁Josh	-10470
▁Jung	-10471
▁Play	-10472
▁Rake	-10473
▁erle	-10474
▁grün	-10475
▁mode	-10476
▁ring	-10477
▁stir	-10478
gehend	-10479
ichert	-10480
▁Parte	-10481
▁Süden	-10482
▁tumor	-10483
areness	-10484
itarian	-10485
steigen	-10486
▁Andrew	-10487
▁Handel	-10488
▁Ozeane	-10489
▁bottle	-10490
▁desire	-10491
▁langer	-10492
zukommen	-10493
▁Geistes	-10494
▁beinahe	-10495
▁depends	-10496
▁liefern	-10497
▁promise	-10498
▁regener	-10499
▁steuern	-10500
▁äußerst	-10501
▁übersch	-10502
▁Geräusch	-10503
▁encourag	-10504
▁pleasure	-10505
▁whenever	-10506
▁movements	-10507
▁beschreibt	-10508
▁convention	-10509
▁healthcare	-10510
▁psychology	-10511
verständlich	-10512
▁unterstützt	-10513
▁mathematical	-10514
▁internationalen	-10515
-,	-10516
Gl	-10517
va	-10518
▁ce	-10519
alem	-10520
avor	-10521
bers	-10522
foot	-10523
inte	-10524
laub	-10525
▁Hon	-10526
▁Jew	-10527
▁Krä	-10528
▁ped	-10529
halts	-10530
ibiot	-10531
ielle	-10532
oking	-10533
ville	-10534
▁Komb	-10535
▁brit	-10536
▁deta	-10537
▁irre	-10538
▁neut	-10539
▁tank	-10540
▁tons	-10541
▁verf	-10542
▁wake	-10543
rieren	-10544
▁Brian	-10545
▁Koran	-10546
▁Scott	-10547
▁Wieso	-10548
▁maxim	-10549
▁übert	-10550
▁Blumen	-10551
▁Fellow	-10552
▁Laptop	-10553
▁conver	-10554
▁credit	-10555
▁ergibt	-10556
▁fossil	-10557
▁heisst	-10558
▁inevit	-10559
▁kannte	-10560
▁prefer	-10561
▁Fliegen	-10562
▁Galaxie	-10563
▁Molekül	-10564
▁Momente	-10565
▁Stephen	-10566
▁kitchen	-10567
▁lokalen	-10568
▁Lebenser	-10569
▁kreieren	-10570
▁schätzen	-10571
▁versteht	-10572
handlungen	-10573
▁disappear	-10574
▁employees	-10575
▁Ökosystem	-10576
▁Medikament	-10577
▁algorithms	-10578
▁gemeinsame	-10579
▁techniques	-10580
▁veränderte	-10581
200	-10582
ehm	-10583
öss	-10584
bage	-10585
kind	-10586
läuf	-10587
okus	-10588
oved	-10589
samm	-10590
▁Mas	-10591
▁Ray	-10592
▁Sow	-10593
▁Vis	-10594
▁Wil	-10595
▁pot	-10596
iogen	-10597
ränkt	-10598
▁Anst	-10599
▁acqu	-10600
▁diss	-10601
▁getr	-10602
▁narr	-10603
▁runs	-10604
▁trop	-10605
angers	-10606
mented	-10607
▁Schäd	-10608
▁chron	-10609
▁goods	-10610
▁piano	-10611
▁risks	-10612
▁serve	-10613
▁sides	-10614
▁sweet	-10615
▁Gegend	-10616
▁Herren	-10617
▁Leider	-10618
▁Neurow	-10619
▁blauen	-10620
▁bubble	-10621
▁sparen	-10622
qualität	-10623
▁Wissens	-10624
▁impress	-10625
▁include	-10626
▁nachden	-10627
▁rapidly	-10628
▁standen	-10629
▁Kongress	-10630
▁besuchen	-10631
▁beweisen	-10632
▁graduate	-10633
▁prepared	-10634
▁Wohlstand	-10635
▁emissions	-10636
▁lediglich	-10637
▁Australien	-10638
▁Definition	-10639
▁Schauspiel	-10640
▁verwandelt	-10641
▁Kombination	-10642
uba	-10643
erte	-10644
grad	-10645
ikes	-10646
quar	-10647
▁Amy	-10648
▁gee	-10649
level	-10650
oting	-10651
ratch	-10652
▁Bund	-10653
▁Four	-10654
▁Tele	-10655
▁Teuf	-10656
▁Zahn	-10657
▁qual	-10658
▁wars	-10659
elling	-10660
icious	-10661
izienz	-10662
lösung	-10663
ported	-10664
▁Blatt	-10665
▁Letzt	-10666
▁added	-10667
▁defen	-10668
▁goals	-10669
▁stock	-10670
▁Daniel	-10671
▁Epidem	-10672
▁Nieder	-10673
▁Sprach	-10674
▁begren	-10675
▁durchs	-10676
▁factor	-10677
▁organs	-10678
▁remain	-10679
▁stattf	-10680
▁talent	-10681
▁Element	-10682
▁Johnson	-10683
▁Lektion	-10684
▁Pacific	-10685
▁Respekt	-10686
▁attempt	-10687
▁gefällt	-10688
▁primary	-10689
besondere	-10690
▁Aufnahme	-10691
▁Zwischen	-10692
▁trillion	-10693
▁Grundlage	-10694
▁aufnehmen	-10695
▁interests	-10696
▁typically	-10697
▁wirkliche	-10698
▁fasziniert	-10699
▁übernehmen	-10700
▁environments	-10701
▁evolutionary	-10702
▁gesellschaft	-10703
wen	-10704
▁Sy	-10705
ense	-10706
mehr	-10707
rict	-10708
ulin	-10709
äfte	-10710
▁Boy	-10711
▁Dat	-10712
▁Hem	-10713
▁Hey	-10714
▁sau	-10715
▁wom	-10716
antom	-10717
▁Inte	-10718
▁Stör	-10719
▁atom	-10720
▁clim	-10721
▁gang	-10722
▁unit	-10723
▁vent	-10724
forest	-10725
imming	-10726
rücken	-10727
▁aging	-10728
▁beach	-10729
▁doubt	-10730
▁refer	-10731
▁skill	-10732
▁steel	-10733
▁unbek	-10734
▁detect	-10735
▁mirror	-10736
▁option	-10737
▁soviel	-10738
▁Afrikas	-10739
▁Bestand	-10740
▁Schicks	-10741
▁Taliban	-10742
▁insight	-10743
▁überein	-10744
abilities	-10745
▁affected	-10746
▁generally	-10747
▁newspaper	-10748
▁definitely	-10749
▁perception	-10750
▁Aktivitäten	-10751
▁großartigen	-10752
▁Wesentlichen	-10753
▁vorzustellen	-10754
▁unglaublichen	-10755
ült	-10756
abol	-10757
rass	-10758
▁Ann	-10759
▁Ehr	-10760
▁Imp	-10761
▁Rio	-10762
▁Skl	-10763
▁dün	-10764
▁que	-10765
▁sta	-10766
akers	-10767
daten	-10768
opter	-10769
▁Empf	-10770
▁Kenn	-10771
▁Prob	-10772
▁thro	-10773
▁Hotel	-10774
▁Power	-10775
▁White	-10776
▁drauf	-10777
▁reven	-10778
▁Brücke	-10779
▁Danach	-10780
▁meinte	-10781
▁worlds	-10782
▁Einheit	-10783
▁Fahrrad	-10784
▁Komment	-10785
▁Wirkung	-10786
▁kriegen	-10787
▁vergröß	-10788
▁beispiel	-10789
▁gefangen	-10790
leistungen	-10791
▁besondere	-10792
▁radiation	-10793
▁Instrument	-10794
▁introduced	-10795
▁protection	-10796
▁unexpected	-10797
▁Einstellung	-10798
▁Stattdessen	-10799
▁sophisticated	-10800
6.	-10801
70	-10802
All	-10803
Wow	-10804
enz	-10805
uts	-10806
wel	-10807
▁Lu	-10808
▁Ve	-10809
nahm	-10810
oint	-10811
ränk	-10812
temp	-10813
what	-10814
▁FBI	-10815
▁Pen	-10816
▁hey	-10817
▁ing	-10818
chest	-10819
cling	-10820
nungs	-10821
▁Benj	-10822
▁Cart	-10823
▁Merk	-10824
▁Penn	-10825
ternal	-10826
▁Damen	-10827
▁Diagn	-10828
▁Gehen	-10829
▁Küste	-10830
▁Pfund	-10831
▁Platt	-10832
▁Rechn	-10833
▁armen	-10834
▁befre	-10835
▁metal	-10836
▁notes	-10837
▁obser	-10838
▁occup	-10839
▁staff	-10840
▁surve	-10841
igungen	-10842
prechen	-10843
▁Hunger	-10844
▁Mengen	-10845
▁Normal	-10846
▁battle	-10847
▁eingel	-10848
▁fehlen	-10849
material	-10850
▁feature	-10851
▁release	-10852
▁Ungleich	-10853
▁dahinter	-10854
▁elektron	-10855
▁mistakes	-10856
▁mögliche	-10857
▁official	-10858
▁recorded	-10859
▁spectrum	-10860
▁Interview	-10861
▁dinosaurs	-10862
▁erweitern	-10863
▁Verbrechen	-10864
▁Bedürfnisse	-10865
▁geschlossen	-10866
▁politicians	-10867
▁überraschend	-10868
▁Persönlichkeit	-10869
▁internationale	-10870
agh	-10871
▁85	-10872
▁CD	-10873
dest	-10874
mord	-10875
uses	-10876
▁GDP	-10877
▁Sor	-10878
▁rub	-10879
▁wra	-10880
acken	-10881
boden	-10882
ieben	-10883
seins	-10884
uther	-10885
▁Aust	-10886
▁Hell	-10887
▁heir	-10888
▁legt	-10889
▁resc	-10890
▁sees	-10891
ammelt	-10892
unting	-10893
▁Bauch	-10894
▁Jesus	-10895
▁Kenia	-10896
▁Motiv	-10897
▁Poten	-10898
▁Weihn	-10899
▁baute	-10900
▁inher	-10901
▁stehe	-10902
▁theme	-10903
▁traum	-10904
ermaßen	-10905
▁Führer	-10906
▁Gesamt	-10907
▁bauten	-10908
▁compar	-10909
▁gelebt	-10910
▁liquid	-10911
elescope	-10912
sprozess	-10913
▁Absicht	-10914
▁Bibliot	-10915
▁Wechsel	-10916
▁electro	-10917
▁grundle	-10918
▁replace	-10919
▁Betracht	-10920
▁Congress	-10921
▁konfront	-10922
▁vehicles	-10923
▁introduce	-10924
▁molecular	-10925
▁passionate	-10926
erechtigkeit	-10927
Na	-10928
▁x	-10929
lad	-10930
äub	-10931
▁28	-10932
▁Ky	-10933
▁ah	-10934
eten	-10935
igem	-10936
thur	-10937
ugel	-10938
ulse	-10939
äden	-10940
▁Brü	-10941
▁bag	-10942
▁erz	-10943
▁nor	-10944
▁2005	-10945
▁Laut	-10946
▁Weib	-10947
▁beiz	-10948
▁firm	-10949
▁iPod	-10950
▁länd	-10951
▁nett	-10952
▁quad	-10953
▁seid	-10954
▁shop	-10955
▁soft	-10956
▁tick	-10957
leitet	-10958
urance	-10959
▁5,000	-10960
▁Hunde	-10961
▁Klein	-10962
▁dedic	-10963
▁fährt	-10964
▁horse	-10965
▁innen	-10966
▁input	-10967
▁mosqu	-10968
▁topic	-10969
▁verab	-10970
▁Kirche	-10971
▁Russia	-10972
▁Symmet	-10973
▁advice	-10974
▁assign	-10975
▁besagt	-10976
▁medium	-10977
▁season	-10978
▁stream	-10979
pflanzen	-10980
putation	-10981
▁Zeitung	-10982
▁aggress	-10983
▁berühmt	-10984
▁centers	-10985
▁courage	-10986
▁erhöhen	-10987
▁gravity	-10988
▁verring	-10989
losigkeit	-10990
▁Deswegen	-10991
▁Schritte	-10992
▁Vorteile	-10993
▁darunter	-10994
▁digitale	-10995
▁ähnliche	-10996
▁Südafrika	-10997
▁encounter	-10998
▁entfernen	-10999
▁marketing	-11000
▁Chemikalien	-11001
▁akzeptieren	-11002
▁beschrieben	-11003
▁technological	-11004
Ex	-11005
ati	-11006
see	-11007
gant	-11008
lief	-11009
rans	-11010
umps	-11011
west	-11012
▁Ble	-11013
▁Jac	-11014
▁Sus	-11015
▁asp	-11016
istin	-11017
iveau	-11018
räger	-11019
▁Jane	-11020
▁Tief	-11021
▁baut	-11022
▁erhe	-11023
▁höre	-11024
▁peak	-11025
▁rote	-11026
▁tats	-11027
▁zust	-11028
estyle	-11029
fected	-11030
umines	-11031
▁ought	-11032
▁prime	-11033
▁ultra	-11034
erstand	-11035
stoffen	-11036
▁church	-11037
▁driven	-11038
▁ingred	-11039
▁lachen	-11040
lerweile	-11041
▁applied	-11042
▁dropped	-11043
▁enthält	-11044
▁factors	-11045
▁opinion	-11046
verhalten	-11047
▁Metapher	-11048
▁memories	-11049
▁speziell	-11050
▁Gegenwart	-11051
▁Marketing	-11052
▁bekannten	-11053
▁eindeutig	-11054
▁gegründet	-11055
▁mountains	-11056
▁neighbors	-11057
bevölkerung	-11058
▁Jahrzehnten	-11059
▁Sicherheits	-11060
BM	-11061
kul	-11062
örm	-11063
▁MT	-11064
▁PC	-11065
appy	-11066
gely	-11067
half	-11068
igma	-11069
ombe	-11070
reht	-11071
anned	-11072
nchen	-11073
räume	-11074
▁bare	-11075
▁eggs	-11076
ateful	-11077
ruppen	-11078
▁3,000	-11079
▁Henry	-11080
▁Kabel	-11081
▁Phase	-11082
▁Rhyth	-11083
▁Space	-11084
▁Trick	-11085
▁Wüste	-11086
▁atoms	-11087
▁estim	-11088
▁storm	-11089
dlichen	-11090
▁Gottes	-11091
▁blocks	-11092
▁furcht	-11093
▁hoping	-11094
▁realen	-11095
▁refuge	-11096
▁regard	-11097
▁rocket	-11098
▁thanks	-11099
▁ungehe	-11100
▁Hindern	-11101
▁engaged	-11102
▁erhielt	-11103
▁fiction	-11104
▁mistake	-11105
▁Business	-11106
▁perfekte	-11107
▁ultimate	-11108
▁verstehe	-11109
▁vertraut	-11110
▁Allgemein	-11111
▁Geräusche	-11112
▁Kontinent	-11113
▁ancestors	-11114
▁dieselben	-11115
▁gebraucht	-11116
▁pollution	-11117
▁terrorism	-11118
▁components	-11119
▁efficiency	-11120
▁foundation	-11121
▁underwater	-11122
▁combination	-11123
▁gemeinsamen	-11124
▁inspiration	-11125
▁Innovationen	-11126
▁Gerechtigkeit	-11127
▁afrikanischen	-11128
▁funktionierte	-11129
▁Nachhaltigkeit	-11130
abb	-11131
hst	-11132
isl	-11133
ula	-11134
önt	-11135
atar	-11136
etch	-11137
etik	-11138
rüst	-11139
älde	-11140
▁Moo	-11141
▁adj	-11142
▁ens	-11143
▁mor	-11144
▁ums	-11145
alled	-11146
athie	-11147
elson	-11148
kehrt	-11149
obile	-11150
samen	-11151
utete	-11152
▁Walk	-11153
▁clip	-11154
▁gere	-11155
▁wine	-11156
▁Einen	-11157
▁Humor	-11158
▁Wagen	-11159
▁cyber	-11160
▁habit	-11161
▁imple	-11162
▁toler	-11163
gruppen	-11164
▁Symbol	-11165
▁anfing	-11166
▁belieb	-11167
▁cortex	-11168
▁pulled	-11169
▁satisf	-11170
▁sauber	-11171
▁senses	-11172
▁solved	-11173
▁studio	-11174
ikations	-11175
▁Musiker	-11176
▁Richtig	-11177
▁Signale	-11178
▁accompl	-11179
▁actions	-11180
▁chicken	-11181
▁figures	-11182
▁however	-11183
▁manchen	-11184
▁reached	-11185
▁silence	-11186
▁Diagramm	-11187
▁Komponen	-11188
▁falschen	-11189
▁occurred	-11190
▁sichtbar	-11191
▁weiterer	-11192
▁Überzeug	-11193
▁erforscht	-11194
▁traveling	-11195
▁Präsentation	-11196
▁sustainability	-11197
ißt	-11198
opy	-11199
Amer	-11200
anes	-11201
ania	-11202
irat	-11203
utze	-11204
▁Ban	-11205
▁Mor	-11206
acles	-11207
iring	-11208
lager	-11209
lines	-11210
scale	-11211
techn	-11212
ätter	-11213
üssen	-11214
▁2010	-11215
▁Matt	-11216
▁erwä	-11217
▁fürs	-11218
▁genü	-11219
▁heil	-11220
▁hits	-11221
▁tape	-11222
apping	-11223
friend	-11224
making	-11225
▁Initi	-11226
▁Since	-11227
▁While	-11228
▁Würde	-11229
▁embar	-11230
▁keeps	-11231
▁staat	-11232
ishment	-11233
▁Skulpt	-11234
▁aftern	-11235
▁ausgew	-11236
▁drives	-11237
▁erklär	-11238
▁patent	-11239
▁Central	-11240
▁Gebiete	-11241
▁amounts	-11242
▁ansieht	-11243
▁besitzt	-11244
▁therapy	-11245
▁witness	-11246
erstörung	-11247
stitution	-11248
▁features	-11249
▁folgende	-11250
▁Gesichter	-11251
▁encourage	-11252
▁komplexen	-11253
▁activities	-11254
▁schwieriger	-11255
▁Unterhaltung	-11256
▁aufgewachsen	-11257
▁konzentriert	-11258
pa	-11259
oir	-11260
ubs	-11261
▁33	-11262
▁sä	-11263
burg	-11264
emin	-11265
irds	-11266
mack	-11267
sper	-11268
▁Que	-11269
▁dot	-11270
▁mad	-11271
▁wüs	-11272
achel	-11273
adium	-11274
bleme	-11275
eding	-11276
opard	-11277
▁1000	-11278
▁Chef	-11279
▁Ford	-11280
▁Wein	-11281
▁silk	-11282
kelett	-11283
plätze	-11284
quelle	-11285
reffen	-11286
▁Folie	-11287
▁Parad	-11288
▁Stahl	-11289
▁aston	-11290
▁films	-11291
▁jener	-11292
▁repar	-11293
▁tests	-11294
▁verkn	-11295
▁Anwend	-11296
▁August	-11297
▁Studio	-11298
▁acting	-11299
▁elimin	-11300
▁golden	-11301
▁kümmer	-11302
▁ökolog	-11303
▁ökonom	-11304
bewegung	-11305
ktivität	-11306
sprechen	-11307
▁cooking	-11308
▁glaubte	-11309
▁operate	-11310
▁quantum	-11311
▁singing	-11312
▁Mehrheit	-11313
▁Teenager	-11314
▁Zunächst	-11315
▁zeichnen	-11316
▁kostenlos	-11317
▁narrative	-11318
▁naturally	-11319
▁meaningful	-11320
▁Terrorismus	-11321
▁dargestellt	-11322
▁destruction	-11323
▁Fortschritte	-11324
▁presentation	-11325
▁beispielsweise	-11326
My	-11327
jo	-11328
ora	-11329
gent	-11330
gibt	-11331
ocal	-11332
uits	-11333
wald	-11334
▁Cop	-11335
▁Dep	-11336
▁Leg	-11337
▁Mur	-11338
▁abh	-11339
▁ere	-11340
▁lon	-11341
▁Ähn	-11342
belie	-11343
hrase	-11344
▁Abra	-11345
▁Vent	-11346
▁arme	-11347
▁dogs	-11348
▁froh	-11349
▁rout	-11350
▁zoom	-11351
bücher	-11352
igungs	-11353
kosten	-11354
osphor	-11355
recken	-11356
schiff	-11357
▁Darum	-11358
▁Erinn	-11359
▁Kevin	-11360
▁Liber	-11361
▁Samen	-11362
▁roads	-11363
zwungen	-11364
▁Fabrik	-11365
▁France	-11366
▁Löcher	-11367
▁Newton	-11368
▁Pflege	-11369
▁Tonnen	-11370
▁Unfall	-11371
▁Zufall	-11372
▁anhand	-11373
▁lokale	-11374
▁senden	-11375
vermögen	-11376
▁Meister	-11377
▁burning	-11378
▁führten	-11379
▁gewählt	-11380
▁records	-11381
▁zeigten	-11382
schriften	-11383
▁gefallen	-11384
▁occasion	-11385
▁awareness	-11386
▁computing	-11387
▁hospitals	-11388
▁angenommen	-11389
▁bezeichnen	-11390
▁weltweiten	-11391
▁automatisch	-11392
▁Konsequenzen	-11393
▁Untersuchung	-11394
▁menschliches	-11395
▁unterrichten	-11396
▁medizinischen	-11397
DA	-11398
je	-11399
ima	-11400
tte	-11401
▁36	-11402
▁RB	-11403
▁li	-11404
anna	-11405
cons	-11406
ency	-11407
iana	-11408
ätzt	-11409
▁Alt	-11410
▁Sup	-11411
▁bug	-11412
▁nan	-11413
burgh	-11414
esome	-11415
▁Prop	-11416
▁Send	-11417
▁Weis	-11418
▁brut	-11419
▁lens	-11420
▁pump	-11421
▁trig	-11422
aptops	-11423
ducing	-11424
gesamt	-11425
reiche	-11426
unkten	-11427
▁Chaos	-11428
▁Eisen	-11429
▁Immer	-11430
▁Story	-11431
▁blaue	-11432
▁false	-11433
▁günst	-11434
▁pregn	-11435
▁verhe	-11436
▁wofür	-11437
chester	-11438
rechend	-11439
▁Kanada	-11440
▁Mittag	-11441
▁Nelson	-11442
▁Sobald	-11443
▁advent	-11444
▁boring	-11445
▁formed	-11446
▁hinauf	-11447
▁leiten	-11448
▁willst	-11449
▁empathy	-11450
▁unglück	-11451
▁visible	-11452
arbeitung	-11453
▁Anführer	-11454
▁Benjamin	-11455
▁dramatic	-11456
▁geholfen	-11457
▁proteins	-11458
▁threaten	-11459
▁mechanism	-11460
▁democratic	-11461
▁percentage	-11462
▁manufacturing	-11463
▁transportation	-11464
7.	-11465
CA	-11466
Ch	-11467
osn	-11468
▁3,	-11469
cers	-11470
fert	-11471
zipl	-11472
▁Son	-11473
▁mur	-11474
▁spo	-11475
iders	-11476
igste	-11477
orous	-11478
umble	-11479
unate	-11480
▁Bege	-11481
▁Dazu	-11482
▁Five	-11483
▁Jenn	-11484
▁Tony	-11485
▁disp	-11486
▁load	-11487
▁rene	-11488
apital	-11489
▁Betti	-11490
▁House	-11491
▁immen	-11492
▁polar	-11493
▁shame	-11494
▁sowas	-11495
▁änder	-11496
ließend	-11497
▁Budget	-11498
▁Dunkel	-11499
▁Eigent	-11500
▁Welten	-11501
▁fingen	-11502
▁fisher	-11503
▁grosse	-11504
▁laptop	-11505
underten	-11506
▁dauerte	-11507
▁diction	-11508
▁forests	-11509
▁largely	-11510
▁Mikroben	-11511
▁Russland	-11512
▁bemerkte	-11513
▁birthday	-11514
▁concrete	-11515
▁villages	-11516
▁Aufnahmen	-11517
▁afternoon	-11518
▁collected	-11519
▁embarrass	-11520
▁framework	-11521
▁increased	-11522
▁schwarzen	-11523
▁überlegen	-11524
▁conclusion	-11525
▁controlled	-11526
▁moralische	-11527
▁personally	-11528
▁participate	-11529
▁fundamentally	-11530
▁psychological	-11531
ato	-11532
ema	-11533
oto	-11534
rin	-11535
alte	-11536
coln	-11537
ouds	-11538
whel	-11539
äger	-11540
▁DNS	-11541
▁Dig	-11542
▁Ruf	-11543
▁toy	-11544
gence	-11545
menge	-11546
ogram	-11547
zepte	-11548
▁Blue	-11549
▁Comm	-11550
▁Kart	-11551
▁Sant	-11552
▁cast	-11553
▁heim	-11554
▁joke	-11555
eitern	-11556
iertes	-11557
▁Erdbe	-11558
▁Inner	-11559
▁Magie	-11560
▁Media	-11561
▁Ohren	-11562
▁Prize	-11563
▁Saudi	-11564
▁Zweif	-11565
▁städt	-11566
inction	-11567
▁Flücht	-11568
▁Grippe	-11569
▁Lungen	-11570
▁Status	-11571
▁bestät	-11572
▁neuron	-11573
▁orange	-11574
▁scared	-11575
▁tempor	-11576
▁Nutzung	-11577
▁Perhaps	-11578
▁Viertel	-11579
▁einiges	-11580
▁glamour	-11581
▁herausf	-11582
▁suppose	-11583
▁unteren	-11584
▁zweimal	-11585
probieren	-11586
▁Argument	-11587
▁Ereignis	-11588
▁Resultat	-11589
▁Webseite	-11590
▁abstract	-11591
▁creature	-11592
▁internal	-11593
▁leichter	-11594
▁required	-11595
▁sunlight	-11596
▁tracking	-11597
▁verstand	-11598
oberfläche	-11599
▁Billionen	-11600
▁Ernährung	-11601
▁Literatur	-11602
▁bemerkens	-11603
▁beobachte	-11604
▁darstellt	-11605
▁protected	-11606
▁providing	-11607
▁scheinbar	-11608
▁schwimmen	-11609
▁vertrauen	-11610
▁Inspiration	-11611
▁Stammzellen	-11612
▁applications	-11613
▁conservation	-11614
▁implications	-11615
▁circumstances	-11616
▁grundsätzlich	-11617
Sp	-11618
],	-11619
ye	-11620
ava	-11621
▁Tö	-11622
▁ok	-11623
adic	-11624
esth	-11625
imit	-11626
izza	-11627
zykl	-11628
▁Dör	-11629
▁Okt	-11630
iture	-11631
point	-11632
reibe	-11633
▁Baus	-11634
▁Eier	-11635
▁Mike	-11636
▁Nase	-11637
▁Ohne	-11638
▁Rick	-11639
▁gewö	-11640
▁subs	-11641
fangen	-11642
freund	-11643
iosity	-11644
profit	-11645
punkte	-11646
▁Bronx	-11647
▁Fokus	-11648
▁Jones	-11649
▁River	-11650
▁Räume	-11651
▁Spann	-11652
▁geste	-11653
▁pharm	-11654
▁voran	-11655
▁wisst	-11656
sterben	-11657
systeme	-11658
ultural	-11659
▁Nobody	-11660
▁Square	-11661
▁achten	-11662
▁critic	-11663
▁singen	-11664
▁survey	-11665
▁tiefer	-11666
▁weißen	-11667
▁Anstatt	-11668
▁Sternen	-11669
▁Verwand	-11670
▁closely	-11671
▁nowhere	-11672
▁outcome	-11673
▁trinken	-11674
▁Bevölker	-11675
▁Erlebnis	-11676
▁Geschenk	-11677
▁Research	-11678
▁besseres	-11679
▁hinunter	-11680
▁Alexander	-11681
▁Angestell	-11682
▁Elefanten	-11683
▁behaupten	-11684
▁betreiben	-11685
▁versteckt	-11686
▁zufrieden	-11687
▁Geburtstag	-11688
▁beibringen	-11689
▁physically	-11690
▁processing	-11691
erie	-11692
ihad	-11693
jahr	-11694
keys	-11695
schn	-11696
▁Bre	-11697
▁Out	-11698
▁Ram	-11699
▁Sah	-11700
▁Tum	-11701
imine	-11702
preis	-11703
retch	-11704
rücke	-11705
wagen	-11706
▁Back	-11707
▁Cons	-11708
▁Krit	-11709
▁furn	-11710
▁hind	-11711
▁hook	-11712
▁icon	-11713
▁swim	-11714
Dollar	-11715
zeigen	-11716
▁Dafür	-11717
▁Optim	-11718
▁Stern	-11719
▁Teles	-11720
▁brill	-11721
▁inten	-11722
▁resil	-11723
▁trend	-11724
ategien	-11725
▁assist	-11726
▁ausger	-11727
▁autism	-11728
▁deaths	-11729
▁extens	-11730
▁flower	-11731
▁grünen	-11732
▁heaven	-11733
▁reisen	-11734
▁whales	-11735
atastrop	-11736
▁Chancen	-11737
▁Gemälde	-11738
▁Vorhers	-11739
▁William	-11740
▁clothes	-11741
▁decline	-11742
▁erkannt	-11743
▁falling	-11744
▁solange	-11745
▁tatsäch	-11746
▁tonight	-11747
▁Gesichts	-11748
▁Versuche	-11749
▁combined	-11750
▁constant	-11751
▁director	-11752
▁existing	-11753
▁overwhel	-11754
▁presence	-11755
▁released	-11756
▁zurückzu	-11757
▁Computers	-11758
▁Wachstums	-11759
▁berichten	-11760
▁centuries	-11761
▁gebrochen	-11762
▁operation	-11763
▁teilweise	-11764
▁Prinzipien	-11765
▁literature	-11766
▁speziellen	-11767
▁Ausstellung	-11768
▁Darstellung	-11769
▁appropriate	-11770
▁potentially	-11771
▁organisieren	-11772
▁verschwunden	-11773
Ein	-11774
For	-11775
sst	-11776
urr	-11777
zut	-11778
▁Üb	-11779
gefü	-11780
ords	-11781
rise	-11782
▁Roy	-11783
▁Sud	-11784
▁kop	-11785
▁mig	-11786
barer	-11787
itors	-11788
▁2050	-11789
▁Klav	-11790
▁Voll	-11791
▁bell	-11792
▁diam	-11793
▁flew	-11794
▁frem	-11795
▁gras	-11796
▁horm	-11797
karten	-11798
usions	-11799
▁Bevor	-11800
▁Feind	-11801
▁anget	-11802
▁frank	-11803
▁score	-11804
▁split	-11805
▁taste	-11806
identen	-11807
systems	-11808
ältigen	-11809
▁Mangel	-11810
▁Märkte	-11811
▁freien	-11812
▁landen	-11813
▁length	-11814
▁script	-11815
▁trafen	-11816
▁vieles	-11817
aneously	-11818
leistung	-11819
▁Mandela	-11820
▁Schaden	-11821
▁bekomme	-11822
▁defined	-11823
▁discipl	-11824
▁drücken	-11825
▁kreativ	-11826
▁treiben	-11827
▁unknown	-11828
▁infected	-11829
▁springen	-11830
▁wertvoll	-11831
▁wireless	-11832
▁Computern	-11833
▁Ingenieur	-11834
▁Spielzeug	-11835
▁enthalten	-11836
▁Restaurant	-11837
▁electronic	-11838
▁productive	-11839
▁proportion	-11840
▁durchführen	-11841
▁explanation	-11842
▁transformed	-11843
▁irgendjemand	-11844
▁Unfortunately	-11845
▁Vorstellungen	-11846
▁bemerkenswert	-11847
geschwindigkeit	-11848
▁Gemeinschaften	-11849
Bl	-11850
ga	-11851
hm	-11852
ffe	-11853
▁Up	-11854
gten	-11855
iser	-11856
pern	-11857
uben	-11858
▁Kra	-11859
aktor	-11860
behör	-11861
telef	-11862
tritt	-11863
▁Balk	-11864
▁Bern	-11865
▁Mosk	-11866
▁Song	-11867
▁Vari	-11868
▁cave	-11869
▁fake	-11870
▁grad	-11871
▁hang	-11872
▁kalt	-11873
▁loud	-11874
▁pill	-11875
▁plot	-11876
▁suic	-11877
astern	-11878
opping	-11879
ätzung	-11880
ündung	-11881
▁Noten	-11882
▁Sympt	-11883
▁adopt	-11884
▁bedro	-11885
▁clock	-11886
▁curve	-11887
▁enden	-11888
▁songs	-11889
▁upper	-11890
▁whist	-11891
ahnsinn	-11892
plicity	-11893
ruments	-11894
schläge	-11895
▁Anders	-11896
▁Kindes	-11897
▁Strand	-11898
▁border	-11899
▁dunkel	-11900
▁europä	-11901
▁heilen	-11902
▁papers	-11903
▁pollen	-11904
cription	-11905
icherung	-11906
▁Gedicht	-11907
▁Lincoln	-11908
▁Quellen	-11909
▁circuit	-11910
▁flowers	-11911
▁frequen	-11912
▁mosquit	-11913
▁quarter	-11914
▁reverse	-11915
▁robotic	-11916
▁accurate	-11917
▁collapse	-11918
▁schreibt	-11919
▁subjects	-11920
▁transfer	-11921
▁Potenzial	-11922
▁Schicksal	-11923
▁Verstehen	-11924
▁algorithm	-11925
▁einfaches	-11926
▁erwachsen	-11927
▁functions	-11928
▁kreativen	-11929
▁permanent	-11930
▁storytell	-11931
▁technique	-11932
▁Unterricht	-11933
▁Wettbewerb	-11934
▁sogenannte	-11935
▁Schließlich	-11936
▁exploration	-11937
▁instruments	-11938
▁voneinander	-11939
mo	-11940
▁:	-11941
erd	-11942
..."	-11943
erer	-11944
olds	-11945
▁Hat	-11946
▁dok	-11947
ahnen	-11948
anche	-11949
okuss	-11950
ormen	-11951
▁Ehem	-11952
▁Gute	-11953
▁Lego	-11954
▁Only	-11955
▁Stäm	-11956
▁bicy	-11957
▁bike	-11958
▁ears	-11959
▁elev	-11960
▁item	-11961
▁sets	-11962
sunami	-11963
▁Clint	-11964
▁Erfol	-11965
▁Shang	-11966
▁Woman	-11967
▁beige	-11968
▁chose	-11969
▁embed	-11970
▁logic	-11971
▁lying	-11972
▁proto	-11973
▁renew	-11974
▁ridic	-11975
▁teilt	-11976
etische	-11977
▁Abfall	-11978
▁desper	-11979
▁erhöht	-11980
▁filter	-11981
▁forder	-11982
▁genius	-11983
▁latest	-11984
▁monkey	-11985
▁wander	-11986
▁wirken	-11987
▁writer	-11988
ologists	-11989
onnected	-11990
▁Gericht	-11991
▁beenden	-11992
▁fishing	-11993
▁harvest	-11994
▁hielten	-11995
▁weshalb	-11996
iolumines	-11997
▁Regionen	-11998
▁Weisheit	-11999
▁allowing	-12000
▁dokument	-12001
▁horrible	-12002
▁microbes	-12003
▁betrieben	-12004
▁betroffen	-12005
▁derselben	-12006
▁ernsthaft	-12007
▁gentlemen	-12008
▁langsamer	-12009
▁Ereignisse	-12010
▁Frankreich	-12011
▁Gedächtnis	-12012
▁Jahrzehnte	-12013
▁economists	-12014
▁surrounded	-12015
▁transplant	-12016
▁verglichen	-12017
▁Algorithmen	-12018
▁nachgedacht	-12019
▁entrepreneur	-12020
Sh	-12021
li	-12022
▁Fa	-12023
derm	-12024
frau	-12025
gren	-12026
hips	-12027
look	-12028
reck	-12029
ziel	-12030
▁Jun	-12031
▁Lam	-12032
ettet	-12033
linie	-12034
these	-12035
vable	-12036
veled	-12037
▁Feyn	-12038
▁Gemü	-12039
▁Hong	-12040
▁June	-12041
▁Live	-12042
▁dens	-12043
▁disg	-12044
▁grat	-12045
▁lebe	-12046
▁merk	-12047
modell	-12048
phones	-12049
▁Armee	-12050
▁Cyber	-12051
▁angem	-12052
▁error	-12053
▁fehlt	-12054
▁hotel	-12055
▁legit	-12056
▁plans	-12057
▁sight	-12058
▁umher	-12059
antasie	-12060
schicht	-12061
▁Alters	-12062
▁Presse	-12063
▁Weiter	-12064
▁clouds	-12065
▁handle	-12066
▁merken	-12067
▁slides	-12068
▁spüren	-12069
▁Silicon	-12070
▁corresp	-12071
▁fingers	-12072
▁musikal	-12073
▁options	-12074
▁recover	-12075
▁verlang	-12076
▁Hunderte	-12077
▁Illusion	-12078
▁administ	-12079
▁anschaut	-12080
▁physikal	-12081
▁umfassen	-12082
▁unmittel	-12083
▁wondered	-12084
▁Programme	-12085
▁basierend	-12086
▁explained	-12087
▁bezeichnet	-12088
▁laboratory	-12089
▁Wirtschafts	-12090
▁challenging	-12091
▁Entdeckungen	-12092
▁Überraschung	-12093
tä	-12094
brü	-12095
ixt	-12096
las	-12097
wis	-12098
alys	-12099
förm	-12100
ifth	-12101
lass	-12102
nehm	-12103
ocol	-12104
▁Lib	-12105
▁Rit	-12106
▁aim	-12107
▁odd	-12108
being	-12109
child	-12110
ismen	-12111
polit	-12112
üpfen	-12113
▁Gibt	-12114
▁Time	-12115
▁Zust	-12116
▁hers	-12117
▁impl	-12118
▁milk	-12119
▁outc	-12120
▁tack	-12121
▁thin	-12122
ansion	-12123
heorie	-12124
▁Arist	-12125
▁Flüss	-12126
▁Hallo	-12127
▁Lasst	-12128
▁Sarah	-12129
prozess	-12130
rüstung	-12131
sprache	-12132
▁Arthur	-12133
▁Stücke	-12134
▁absorb	-12135
▁suchte	-12136
▁worauf	-12137
▁100.000	-12138
▁Annahme	-12139
▁Aussage	-12140
▁Debatte	-12141
▁Kapitel	-12142
▁Stewart	-12143
▁aufgere	-12144
▁besorgt	-12145
▁combine	-12146
▁comment	-12147
▁gekauft	-12148
▁starben	-12149
scheinend	-12150
▁Kampagne	-12151
▁Physiker	-12152
▁somewhat	-12153
▁stronger	-12154
schmutzung	-12155
▁Christmas	-12156
▁authority	-12157
▁bekämpfen	-12158
▁bezüglich	-12159
▁folgenden	-12160
▁sensitive	-12161
▁spiritual	-12162
▁antwortete	-12163
▁wenigstens	-12164
▁Dimensionen	-12165
▁Psychologie	-12166
▁Sonnenlicht	-12167
▁grundlegend	-12168
▁Lebenserwart	-12169
▁kontrolliert	-12170
▁veröffentlich	-12171
dam	-12172
eda	-12173
irt	-12174
mma	-12175
▁55	-12176
bern	-12177
holz	-12178
ippe	-12179
leib	-12180
park	-12181
▁McC	-12182
▁Moz	-12183
▁Wow	-12184
▁ack	-12185
clear	-12186
fällt	-12187
▁Gulf	-12188
▁Mamm	-12189
▁Ment	-12190
▁melt	-12191
▁mush	-12192
bilder	-12193
dienst	-12194
ervice	-12195
father	-12196
ktions	-12197
leiten	-12198
mechan	-12199
▁Beute	-12200
▁Detro	-12201
▁bones	-12202
▁stone	-12203
▁weigh	-12204
▁weiße	-12205
▁woher	-12206
uilding	-12207
▁Golden	-12208
▁Handys	-12209
▁Willen	-12210
▁button	-12211
▁gelang	-12212
▁lehren	-12213
▁spider	-12214
▁stayed	-12215
▁unterr	-12216
▁überqu	-12217
ieinhalb	-12218
▁Feynman	-12219
▁Kameras	-12220
▁attacks	-12221
▁classes	-12222
▁embrace	-12223
▁evening	-12224
▁fluores	-12225
▁neugier	-12226
▁remains	-12227
▁respekt	-12228
▁stoppen	-12229
▁vaccine	-12230
▁Freiwill	-12231
▁Kleidung	-12232
▁Proteine	-12233
▁besessen	-12234
▁contrast	-12235
▁election	-12236
▁genügend	-12237
▁measured	-12238
▁schlafen	-12239
▁synchron	-12240
▁Something	-12241
▁umzugehen	-12242
▁versorgen	-12243
▁zunehmend	-12244
unternehmen	-12245
▁Entfernung	-12246
▁Regierungs	-12247
▁Sichtweise	-12248
▁irgendeine	-12249
▁Verbreitung	-12250
▁Klassenzimmer	-12251
"?	-12252
MM	-12253
rö	-12254
ado	-12255
eme	-12256
kom	-12257
kor	-12258
mot	-12259
rid	-12260
▁DV	-12261
▁LG	-12262
▁lö	-12263
Yeah	-12264
hour	-12265
ione	-12266
▁9/1	-12267
▁Box	-12268
▁Nam	-12269
▁god	-12270
attoo	-12271
hagen	-12272
iking	-12273
uting	-12274
weich	-12275
▁Acht	-12276
▁Come	-12277
▁Fert	-12278
▁News	-12279
▁hieß	-12280
▁mile	-12281
▁obst	-12282
iguren	-12283
istics	-12284
rucken	-12285
▁1.000	-12286
▁Angeb	-12287
▁Conne	-12288
▁Dynam	-12289
▁Fried	-12290
▁diver	-12291
▁grain	-12292
▁memor	-12293
▁platz	-12294
▁prize	-12295
▁rooms	-12296
▁skept	-12297
▁woran	-12298
▁Besuch	-12299
▁Detail	-12300
▁Schnee	-12301
▁Säuget	-12302
▁ausser	-12303
▁hörten	-12304
▁linked	-12305
▁remove	-12306
▁stands	-12307
▁suffer	-12308
▁unlike	-12309
▁volume	-12310
ubringen	-12311
▁Krieges	-12312
▁Schwarz	-12313
▁beliebt	-12314
▁bestand	-12315
▁designs	-12316
▁doppelt	-12317
▁offenen	-12318
▁regions	-12319
erkennung	-12320
▁Shanghai	-12321
▁Transpar	-12322
▁begegnen	-12323
▁interakt	-12324
▁paradigm	-12325
▁provided	-12326
▁Basically	-12327
▁construct	-12328
▁definiert	-12329
▁reference	-12330
▁Erwachsene	-12331
▁ausgesetzt	-12332
▁eingeladen	-12333
▁wahrnehmen	-12334
▁Instrumente	-12335
▁conversations	-12336
hum	-12337
obi	-12338
yan	-12339
▁Ep	-12340
▁SW	-12341
greg	-12342
icit	-12343
oned	-12344
▁Lee	-12345
▁Sec	-12346
▁aer	-12347
▁anx	-12348
▁pin	-12349
eseit	-12350
force	-12351
stuhl	-12352
unruh	-12353
▁2006	-12354
▁Biom	-12355
▁acts	-12356
▁busy	-12357
▁imit	-12358
▁nest	-12359
▁wash	-12360
onomie	-12361
source	-12362
unklen	-12363
werken	-12364
▁Roman	-12365
▁Rwand	-12366
▁angel	-12367
▁charm	-12368
▁grüne	-12369
▁pitch	-12370
▁plate	-12371
▁Aktion	-12372
▁Bundes	-12373
▁Fläche	-12374
▁Flügel	-12375
▁Pollen	-12376
▁deploy	-12377
▁interc	-12378
▁involv	-12379
▁relate	-12380
▁schock	-12381
tausende	-12382
▁Indones	-12383
▁careful	-12384
▁command	-12385
▁metabol	-12386
▁mittels	-12387
▁samples	-12388
▁surgeon	-12389
▁Gebäuden	-12390
▁Training	-12391
▁drinking	-12392
▁genießen	-12393
▁penguins	-12394
▁psychiat	-12395
▁untersch	-12396
▁verblüff	-12397
▁verdient	-12398
▁footprint	-12399
▁statement	-12400
▁telephone	-12401
▁behavioral	-12402
▁confidence	-12403
▁Änderungen	-12404
▁Erwartungen	-12405
▁biologische	-12406
ahrscheinlich	-12407
wissenschaften	-12408
IS	-12409
aj	-12410
ETI	-12411
Ind	-12412
rok	-12413
▁Av	-12414
▁JH	-12415
anzt	-12416
ihen	-12417
nach	-12418
ooth	-12419
vely	-12420
züge	-12421
älle	-12422
▁350	-12423
acing	-12424
atson	-12425
brech	-12426
gespr	-12427
ipfel	-12428
▁Akte	-12429
▁Koch	-12430
▁Nick	-12431
▁Rett	-12432
▁Verm	-12433
▁Witz	-12434
▁army	-12435
▁bene	-12436
▁loop	-12437
▁phil	-12438
ereien	-12439
winkel	-12440
▁Congo	-12441
▁Kurve	-12442
▁Latin	-12443
▁McDon	-12444
▁Toten	-12445
▁angry	-12446
▁boxes	-12447
▁dress	-12448
▁stere	-12449
▁thick	-12450
▁walks	-12451
▁wovon	-12452
aughing	-12453
esented	-12454
fliegen	-12455
▁Hypoth	-12456
▁Please	-12457
▁Schach	-12458
▁Schalt	-12459
▁Schwer	-12460
▁deiner	-12461
▁dienen	-12462
▁gigant	-12463
▁hängen	-12464
▁nervös	-12465
▁orient	-12466
▁puzzle	-12467
issionen	-12468
▁Detroit	-12469
▁anzusch	-12470
▁ergeben	-12471
▁gezogen	-12472
▁poorest	-12473
operation	-12474
▁Krankenh	-12475
▁Schweden	-12476
▁lebendig	-12477
▁swimming	-12478
ussendlich	-12479
▁continued	-12480
▁irgendwel	-12481
▁reduziert	-12482
legenheiten	-12483
▁Zerstörung	-12484
▁mechanical	-12485
▁Herstellung	-12486
▁elektrische	-12487
▁interactive	-12488
▁vergangenen	-12489
▁wunderbaren	-12490
▁Bevölkerungs	-12491
Kon	-12492
oca	-12493
zig	-12494
ölk	-12495
cean	-12496
etti	-12497
iums	-12498
neid	-12499
rait	-12500
rier	-12501
▁20,	-12502
▁Ted	-12503
▁Ten	-12504
▁Wär	-12505
▁anb	-12506
Spiel	-12507
ansas	-12508
athed	-12509
erung	-12510
ignet	-12511
istet	-12512
läuft	-12513
opath	-12514
think	-12515
▁Cont	-12516
▁Flie	-12517
▁Gall	-12518
▁Grün	-12519
▁Hard	-12520
▁Knie	-12521
▁kons	-12522
▁nose	-12523
▁pink	-12524
▁reco	-12525
▁root	-12526
▁seht	-12527
ilemma	-12528
jected	-12529
onders	-12530
▁Decke	-12531
▁Larry	-12532
▁Wegen	-12533
▁Wicht	-12534
▁angen	-12535
▁bombs	-12536
▁cents	-12537
▁knapp	-12538
▁shell	-12539
▁style	-12540
ichtete	-12541
mittelt	-12542
reibung	-12543
▁Darauf	-12544
▁Ganzen	-12545
▁Joseph	-12546
▁Konsum	-12547
▁Metall	-12548
▁Option	-12549
▁beherr	-12550
▁nachts	-12551
▁prepar	-12552
▁repair	-12553
▁sphere	-12554
▁traged	-12555
bekommen	-12556
ervative	-12557
inations	-12558
▁Aspekte	-12559
▁Redwood	-12560
▁Schicht	-12561
▁classic	-12562
▁dancing	-12563
▁equally	-12564
▁monkeys	-12565
▁offered	-12566
▁solving	-12567
▁verschl	-12568
▁verstär	-12569
▁violent	-12570
▁windows	-12571
▁Zeitraum	-12572
▁ausgeben	-12573
▁engaging	-12574
▁overcome	-12575
▁schauten	-12576
▁transmit	-12577
▁verliert	-12578
▁wherever	-12579
▁aufgeregt	-12580
▁bedeutete	-12581
▁beteiligt	-12582
▁exploring	-12583
▁folgendes	-12584
▁intellekt	-12585
▁lifestyle	-12586
▁practices	-12587
▁recording	-12588
▁spreading	-12589
▁Bibliothek	-12590
▁appreciate	-12591
▁architects	-12592
▁journalist	-12593
▁wundervoll	-12594
gesellschaft	-12595
▁cooperation	-12596
▁inspirieren	-12597
▁grundlegenden	-12598
▁veröffentlichen	-12599
Ne	-12600
SP	-12601
idi	-12602
ila	-12603
kle	-12604
▁ED	-12605
▁SS	-12606
▁ew	-12607
eres	-12608
iene	-12609
illy	-12610
pfel	-12611
plom	-12612
rets	-12613
ucks	-12614
▁Bol	-12615
▁Ära	-12616
agger	-12617
insel	-12618
▁Snow	-12619
▁pool	-12620
gebiet	-12621
iology	-12622
stücke	-12623
uchtet	-12624
▁About	-12625
▁Autom	-12626
▁Große	-12627
▁Tiefe	-12628
▁datab	-12629
▁dozen	-12630
▁plays	-12631
▁polio	-12632
▁toxic	-12633
▁uncom	-12634
▁veran	-12635
örtlich	-12636
▁County	-12637
▁Schuhe	-12638
▁ausges	-12639
▁hunger	-12640
▁höhere	-12641
▁joined	-12642
▁lebens	-12643
▁limits	-12644
▁toilet	-12645
funktion	-12646
▁Verkauf	-12647
▁diagram	-12648
▁feeding	-12649
▁funding	-12650
▁grossen	-12651
▁gründen	-12652
▁library	-12653
▁nannten	-12654
▁overall	-12655
▁sensors	-12656
▁younger	-12657
▁Gegenden	-12658
▁Schlacht	-12659
▁bewirken	-12660
▁domestic	-12661
▁ernähren	-12662
▁gewisser	-12663
▁instruct	-12664
▁momentan	-12665
▁reagiert	-12666
▁wechseln	-12667
▁Geschäfte	-12668
▁Verbrauch	-12669
▁anzusehen	-12670
▁arguments	-12671
▁consumers	-12672
▁determine	-12673
▁disorders	-12674
▁standards	-12675
▁unterwegs	-12676
zeichnungen	-12677
▁Ingenieure	-12678
▁Richtungen	-12679
▁unsichtbar	-12680
▁educational	-12681
▁moralischen	-12682
▁vorbereitet	-12683
▁Wirtschaftsw	-12684
▁insbesondere	-12685
▁ursprünglich	-12686
▁Lebenserwartung	-12687
Wo	-12688
cr	-12689
bir	-12690
bly	-12691
irk	-12692
mat	-12693
Welt	-12694
afel	-12695
nütz	-12696
otes	-12697
umer	-12698
▁Acc	-12699
▁Nic	-12700
▁Zus	-12701
▁cha	-12702
▁rum	-12703
▁une	-12704
agnet	-12705
onien	-12706
▁2009	-12707
▁Beit	-12708
▁Bell	-12709
▁Dsch	-12710
▁Schm	-12711
▁Shir	-12712
▁Vert	-12713
▁desk	-12714
▁dign	-12715
▁naja	-12716
▁tube	-12717
▁zuzu	-12718
asters	-12719
gnügen	-12720
ördert	-12721
▁Anruf	-12722
▁Erste	-12723
▁Kateg	-12724
▁Moore	-12725
▁Polio	-12726
▁Scham	-12727
▁alltä	-12728
▁faced	-12729
▁paras	-12730
ektiven	-12731
schauen	-12732
station	-12733
▁Berlin	-12734
▁Ethiop	-12735
▁Faktor	-12736
▁Gemüse	-12737
▁angeht	-12738
▁chocol	-12739
▁erneut	-12740
▁sensor	-12741
abilität	-12742
computer	-12743
pendence	-12744
▁Neugier	-12745
▁Taschen	-12746
▁anticip	-12747
▁beunruh	-12748
▁carried	-12749
▁frankly	-12750
▁zurecht	-12751
▁Carolina	-12752
▁Erdbeben	-12753
▁Remember	-12754
▁grateful	-12755
▁illusion	-12756
▁infinite	-12757
▁obsessed	-12758
▁zurückge	-12759
▁Afrikaner	-12760
▁begreifen	-12761
▁breathing	-12762
▁corporate	-12763
▁niemanden	-12764
▁paintings	-12765
▁selection	-12766
krankheiten	-12767
▁Brustkrebs	-12768
▁Teilnehmer	-12769
▁philosophy	-12770
▁application	-12771
▁Mathematiker	-12772
▁fantastische	-12773
▁hinterlassen	-12774
▁automatically	-12775
▁dreidimension	-12776
Me	-12777
oz	-12778
100	-12779
dis	-12780
gly	-12781
sex	-12782
yon	-12783
aint	-12784
dach	-12785
gelt	-12786
utch	-12787
▁Seh	-12788
▁Tib	-12789
▁Übr	-12790
iolet	-12791
otter	-12792
seher	-12793
stage	-12794
▁Beij	-12795
▁Dame	-12796
▁Glet	-12797
▁Naja	-12798
▁Robo	-12799
▁Ross	-12800
▁SETI	-12801
▁Wann	-12802
▁Zehn	-12803
▁cash	-12804
▁plug	-12805
▁seas	-12806
▁stun	-12807
rition	-12808
▁Berge	-12809
▁Chile	-12810
▁Delhi	-12811
▁Kongo	-12812
▁fixed	-12813
▁globe	-12814
▁vital	-12815
▁wirkt	-12816
▁Gandhi	-12817
▁Watson	-12818
▁agreed	-12819
▁column	-12820
▁dauern	-12821
▁fokuss	-12822
▁marine	-12823
▁owners	-12824
äuschung	-12825
ücksicht	-12826
▁Inneren	-12827
▁Klavier	-12828
▁Spezial	-12829
▁Zweifel	-12830
▁earthqu	-12831
▁extinct	-12832
▁privacy	-12833
▁pushing	-12834
▁Leonardo	-12835
▁Problems	-12836
▁Ursprung	-12837
▁concepts	-12838
▁erfassen	-12839
▁organism	-12840
▁printing	-12841
▁symptoms	-12842
▁wünschte	-12843
▁Bedrohung	-12844
▁economies	-12845
▁identical	-12846
▁spezielle	-12847
technologie	-12848
▁Dunkelheit	-12849
▁Geographic	-12850
▁connecting	-12851
▁directions	-12852
▁hinzufügen	-12853
▁kulturelle	-12854
▁ländlichen	-12855
▁eigentliche	-12856
▁recognition	-12857
▁verursachen	-12858
▁conventional	-12859
▁konfrontiert	-12860
issenschaftler	-12861
▁interessanten	-12862
OL	-12863
bum	-12864
▁42	-12865
gewe	-12866
real	-12867
rich	-12868
yrus	-12869
▁10.	-12870
▁Geh	-12871
▁ink	-12872
▁mim	-12873
▁tea	-12874
cence	-12875
folgt	-12876
kular	-12877
lesen	-12878
night	-12879
ortet	-12880
▁Hung	-12881
▁Nähr	-12882
▁boom	-12883
▁cand	-12884
▁jail	-12885
▁lets	-12886
▁prem	-12887
▁tent	-12888
System	-12889
anlage	-12890
linien	-12891
öntgen	-12892
▁Asien	-12893
▁Indem	-12894
▁Teams	-12895
▁Zähne	-12896
▁alarm	-12897
▁flood	-12898
▁grows	-12899
▁honey	-12900
▁phase	-12901
▁pyram	-12902
▁scary	-12903
▁stack	-12904
▁stärk	-12905
osphere	-12906
▁Before	-12907
▁Tasman	-12908
▁assume	-12909
▁garant	-12910
▁murder	-12911
▁offers	-12912
▁placed	-12913
▁struck	-12914
▁tanzen	-12915
▁tested	-12916
▁Darüber	-12917
▁Verteid	-12918
▁breathe	-12919
▁causing	-12920
▁channel	-12921
▁constra	-12922
▁letzter	-12923
▁orchest	-12924
▁parking	-12925
▁schmerz	-12926
▁Brooklyn	-12927
▁Chinesen	-12928
▁Everyone	-12929
▁asteroid	-12930
▁brothers	-12931
▁equation	-12932
▁floating	-12933
▁glaubten	-12934
▁involves	-12935
▁seltsame	-12936
▁studiert	-12937
▁visuelle	-12938
▁Geschmack	-12939
▁Innerhalb	-12940
▁Parkinson	-12941
▁Plötzlich	-12942
▁animation	-12943
▁celebrate	-12944
▁Verwendung	-12945
▁eingeführt	-12946
▁genetische	-12947
▁Terroristen	-12948
▁astonishing	-12949
▁beigebracht	-12950
▁distributed	-12951
▁represented	-12952
▁technischen	-12953
▁wiederholen	-12954
▁Normalerweise	-12955
But	-12956
Wer	-12957
fäh	-12958
▁Et	-12959
▁IM	-12960
▁Wi	-12961
▁kr	-12962
abin	-12963
ifiz	-12964
ming	-12965
onna	-12966
ubes	-12967
uity	-12968
zten	-12969
älte	-12970
üter	-12971
▁30-	-12972
▁Ast	-12973
▁Bor	-12974
▁DVD	-12975
▁Mer	-12976
▁fan	-12977
▁irr	-12978
▁Haar	-12979
▁Haie	-12980
▁Wolf	-12981
▁bold	-12982
▁poly	-12983
▁scan	-12984
▁sorg	-12985
▁verz	-12986
ederal	-12987
yright	-12988
▁Brand	-12989
▁Proto	-12990
▁decre	-12991
▁enemy	-12992
▁explo	-12993
▁imper	-12994
▁title	-12995
stehung	-12996
▁Machen	-12997
▁Rechen	-12998
▁Rechts	-12999
▁Rezept	-13000
▁Schild	-13001
▁Sweden	-13002
▁candid	-13003
▁colony	-13004
▁extend	-13005
▁kaufte	-13006
▁mainly	-13007
▁pocket	-13008
▁severe	-13009
▁spoken	-13010
anischen	-13011
▁Designs	-13012
▁Erfolgs	-13013
▁Finally	-13014
▁Systems	-13015
▁Verlauf	-13016
▁besucht	-13017
▁borders	-13018
▁divided	-13019
▁geteilt	-13020
▁starken	-13021
▁Ägypten	-13022
▁November	-13023
▁Systemen	-13024
▁berühren	-13025
▁elephant	-13026
▁kreative	-13027
▁lebenden	-13028
▁mehreren	-13029
▁outcomes	-13030
▁particle	-13031
▁philosop	-13032
▁vielmehr	-13033
▁Konflikte	-13034
▁Schmerzen	-13035
▁Umständen	-13036
▁component	-13037
▁presented	-13038
▁Heutzutage	-13039
▁fascinated	-13040
▁inequality	-13041
▁Wasserstoff	-13042
▁controlling	-13043
▁productivity	-13044
▁entertainment	-13045
hof	-13046
lag	-13047
obs	-13048
tät	-13049
▁2:	-13050
▁Ka	-13051
erzä	-13052
ocke	-13053
opes	-13054
prom	-13055
zero	-13056
▁IBM	-13057
▁Ren	-13058
▁Ron	-13059
▁Sea	-13060
▁zit	-13061
esity	-13062
isses	-13063
viele	-13064
änner	-13065
▁Base	-13066
▁Blau	-13067
▁Bord	-13068
▁Euch	-13069
▁Infe	-13070
▁Male	-13071
▁Sher	-13072
▁dict	-13073
▁gray	-13074
▁trug	-13075
▁zone	-13076
▁Absol	-13077
▁Democ	-13078
▁Level	-13079
▁persu	-13080
▁rufen	-13081
▁teams	-13082
▁weißt	-13083
▁zählt	-13084
▁Number	-13085
▁Sicher	-13086
▁Singap	-13087
▁acknow	-13088
▁devast	-13089
▁extent	-13090
▁linear	-13091
▁machst	-13092
▁neigen	-13093
▁oberen	-13094
▁pandem	-13095
▁prices	-13096
▁rechte	-13097
▁robust	-13098
▁schlug	-13099
▁secure	-13100
▁worker	-13101
aufnahme	-13102
romagnet	-13103
▁Ausgang	-13104
▁Montere	-13105
▁Nothing	-13106
▁awesome	-13107
▁bizarre	-13108
▁concert	-13109
▁diverse	-13110
▁habitat	-13111
▁painful	-13112
▁vessels	-13113
▁Erinnern	-13114
▁Männchen	-13115
▁anhalten	-13116
▁anpassen	-13117
▁maintain	-13118
▁manifest	-13119
▁policies	-13120
▁romantic	-13121
▁Projekten	-13122
▁Schreiben	-13123
▁Weltkrieg	-13124
▁conflicts	-13125
▁furniture	-13126
▁increases	-13127
▁sculpture	-13128
▁translate	-13129
▁uncertain	-13130
▁Mobiltelef	-13131
▁exhibition	-13132
▁greenhouse	-13133
▁schwierige	-13134
▁Eigenschaft	-13135
▁präsentiert	-13136
▁entscheidend	-13137
▁interactions	-13138
▁Kommunikations	-13139
BC	-13140
aze	-13141
cus	-13142
eed	-13143
iße	-13144
▁4,	-13145
▁JA	-13146
amed	-13147
etts	-13148
pril	-13149
stät	-13150
uste	-13151
yers	-13152
▁20-	-13153
▁adm	-13154
▁pip	-13155
▁raw	-13156
angle	-13157
ikale	-13158
iller	-13159
isely	-13160
llung	-13161
rechn	-13162
ämpft	-13163
▁1900	-13164
▁Doug	-13165
▁Farm	-13166
▁Kond	-13167
▁limb	-13168
▁läng	-13169
▁ours	-13170
▁pour	-13171
▁till	-13172
auften	-13173
ikatur	-13174
irgend	-13175
utzend	-13176
würdig	-13177
▁Harry	-13178
▁Schok	-13179
▁Stone	-13180
▁athle	-13181
▁sales	-13182
▁tasks	-13183
gemacht	-13184
osphäre	-13185
problem	-13186
▁Extrem	-13187
▁Laufen	-13188
▁Wahlen	-13189
▁behave	-13190
▁legisl	-13191
▁proced	-13192
▁späten	-13193
▁wahren	-13194
▁Abraham	-13195
▁collaps	-13196
▁französ	-13197
▁housing	-13198
▁license	-13199
▁liefert	-13200
▁schlägt	-13201
▁stretch	-13202
▁traurig	-13203
▁unbelie	-13204
▁wieviel	-13205
▁Autismus	-13206
▁Fahrzeug	-13207
▁Faktoren	-13208
▁distinct	-13209
▁winzigen	-13210
▁Denkweise	-13211
▁Vorschlag	-13212
▁insurance	-13213
▁measuring	-13214
▁mitnehmen	-13215
▁Geschäftsm	-13216
▁besonderen	-13217
▁resistance	-13218
▁Neuigkeiten	-13219
▁organisiert	-13220
▁dramatically	-13221
▁Nachbarschaft	-13222
▁außergewöhnlich	-13223
any	-13224
eli	-13225
äck	-13226
▁0,	-13227
▁Ku	-13228
▁zü	-13229
ague	-13230
innt	-13231
kont	-13232
phas	-13233
quis	-13234
rome	-13235
▁192	-13236
▁Had	-13237
▁Joh	-13238
▁Oxy	-13239
▁Paz	-13240
▁sed	-13241
Unter	-13242
asant	-13243
lings	-13244
▁Diff	-13245
▁Dist	-13246
▁Girl	-13247
▁Iron	-13248
▁Pole	-13249
▁Zero	-13250
▁hilf	-13251
▁refr	-13252
▁scar	-13253
called	-13254
iratet	-13255
▁Bibel	-13256
▁Guten	-13257
▁Hawai	-13258
▁Misch	-13259
▁Sechs	-13260
▁accum	-13261
▁femin	-13262
▁mobil	-13263
▁ruhig	-13264
▁schüt	-13265
▁smoke	-13266
▁spark	-13267
▁tries	-13268
▁worum	-13269
izabeth	-13270
related	-13271
▁Aufbau	-13272
▁Futter	-13273
▁Leiter	-13274
▁Marken	-13275
▁Niveau	-13276
▁Portug	-13277
▁Shakes	-13278
▁Versch	-13279
▁Widers	-13280
▁Wright	-13281
▁agenda	-13282
▁fliegt	-13283
▁hearts	-13284
▁height	-13285
▁herein	-13286
▁heroes	-13287
▁liebte	-13288
▁lovely	-13289
▁soweit	-13290
▁winzig	-13291
▁wütend	-13292
▁dankbar	-13293
▁efforts	-13294
▁herself	-13295
▁positiv	-13296
ianischen	-13297
▁Monterey	-13298
▁Theorien	-13299
▁besuchte	-13300
▁breaking	-13301
▁laughing	-13302
▁recommen	-13303
▁recovery	-13304
▁traveled	-13305
▁Vergnügen	-13306
▁gestartet	-13307
▁prototype	-13308
▁commitment	-13309
▁consistent	-13310
▁performing	-13311
▁berücksicht	-13312
▁sogenannten	-13313
▁biologischen	-13314
▁Einrichtungen	-13315
▁verschiedener	-13316
--	-13317
Fl	-13318
zz	-13319
Ach	-13320
MMY	-13321
eff	-13322
mod	-13323
UMMY	-13324
appt	-13325
dien	-13326
lers	-13327
ppen	-13328
rary	-13329
rein	-13330
walk	-13331
ückt	-13332
▁Dir	-13333
▁Kuh	-13334
▁Mio	-13335
ioxid	-13336
ohlen	-13337
oppel	-13338
orter	-13339
ralen	-13340
teils	-13341
using	-13342
▁Carl	-13343
▁Feed	-13344
▁guar	-13345
▁jewe	-13346
▁stol	-13347
▁wing	-13348
bringt	-13349
ichtum	-13350
▁Block	-13351
▁Stick	-13352
▁Still	-13353
▁highl	-13354
▁usual	-13355
▁whale	-13356
▁yield	-13357
brochen	-13358
unclear	-13359
▁Geruch	-13360
▁Höhlen	-13361
▁Michel	-13362
▁anonym	-13363
▁eradic	-13364
▁fabric	-13365
▁konsum	-13366
▁ladies	-13367
▁narrow	-13368
▁planen	-13369
▁schlau	-13370
▁vorhin	-13371
stellten	-13372
▁Islamic	-13373
▁Italien	-13374
▁Spinnen	-13375
▁Vorgang	-13376
▁distant	-13377
▁erinner	-13378
▁existed	-13379
▁finance	-13380
▁intense	-13381
▁militär	-13382
▁mystery	-13383
▁receive	-13384
▁savings	-13385
▁Erfinder	-13386
▁Richtige	-13387
▁Schulter	-13388
▁Spektrum	-13389
▁Trotzdem	-13390
▁achieved	-13391
▁eingehen	-13392
▁embedded	-13393
▁erfüllen	-13394
▁erklärte	-13395
▁erwähnen	-13396
▁flexible	-13397
▁treating	-13398
▁Belohnung	-13399
▁ausmachen	-13400
▁curiosity	-13401
▁dimension	-13402
▁exception	-13403
▁gesammelt	-13404
▁precisely	-13405
▁weltweite	-13406
▁investiert	-13407
▁vorsichtig	-13408
▁Interessant	-13409
▁entsprechen	-13410
▁interacting	-13411
▁elektrischen	-13412
▁leidenschaft	-13413
▁zurückkehren	-13414
▁Gleichgewicht	-13415
“.	-13416
kra	-13417
änz	-13418
▁29	-13419
▁BM	-13420
▁Ev	-13421
▁ow	-13422
Aber	-13423
atts	-13424
brid	-13425
fehl	-13426
rand	-13427
sely	-13428
ühen	-13429
▁Fro	-13430
▁Mov	-13431
▁Sag	-13432
▁Uni	-13433
▁bon	-13434
▁wär	-13435
ading	-13436
fähig	-13437
hlend	-13438
itial	-13439
oiden	-13440
▁Bier	-13441
▁Chen	-13442
▁diox	-13443
▁excl	-13444
▁sexy	-13445
chtern	-13446
decken	-13447
messer	-13448
▁Gebur	-13449
▁judge	-13450
▁Reihen	-13451
▁Reisen	-13452
▁bildet	-13453
▁conven	-13454
▁divide	-13455
▁escape	-13456
▁freund	-13457
▁lächer	-13458
▁plenty	-13459
▁prosth	-13460
▁stirbt	-13461
▁surely	-13462
▁Analyse	-13463
▁Lächeln	-13464
▁Nations	-13465
▁Neander	-13466
▁Röntgen	-13467
▁appears	-13468
▁ceiling	-13469
▁density	-13470
▁gesetzt	-13471
▁monitor	-13472
▁protest	-13473
▁raising	-13474
▁reflekt	-13475
▁stimmen	-13476
▁Africans	-13477
▁Behinder	-13478
▁Personal	-13479
▁appeared	-13480
▁disorder	-13481
▁dolphins	-13482
▁gelassen	-13483
▁riesiges	-13484
▁verfolgt	-13485
▁Ökonomen	-13486
produktion	-13487
ungssystem	-13488
▁beitragen	-13489
▁berechnen	-13490
▁denselben	-13491
▁destroyed	-13492
▁inspiring	-13493
▁dazwischen	-13494
▁ignorieren	-13495
▁Präsidenten	-13496
▁expectations	-13497
▁wunderschöne	-13498
▁identifizieren	-13499
▁är	-13500
amie	-13501
meid	-13502
▁193	-13503
▁Jay	-13504
▁Mig	-13505
▁Ohr	-13506
▁Wen	-13507
▁Wut	-13508
▁ast	-13509
▁enl	-13510
▁ärm	-13511
acted	-13512
amine	-13513
aumen	-13514
fined	-13515
iente	-13516
riebs	-13517
riffe	-13518
▁Glüh	-13519
▁Laur	-13520
▁Next	-13521
▁appe	-13522
▁axis	-13523
▁flip	-13524
▁glac	-13525
▁inkl	-13526
▁lung	-13527
graben	-13528
kultur	-13529
lernen	-13530
lichem	-13531
porter	-13532
▁Beton	-13533
▁Front	-13534
▁Immun	-13535
▁Küche	-13536
▁Party	-13537
▁abuse	-13538
▁alien	-13539
▁brach	-13540
▁dense	-13541
▁jenen	-13542
▁knock	-13543
▁mikro	-13544
▁recyc	-13545
▁shake	-13546
▁therm	-13547
▁utter	-13548
quently	-13549
▁20,000	-13550
▁Church	-13551
▁Glücks	-13552
▁Großen	-13553
▁Medium	-13554
▁Organe	-13555
▁Spring	-13556
▁arrang	-13557
▁frozen	-13558
▁ignore	-13559
▁immune	-13560
▁phrase	-13561
▁thrown	-13562
▁Anstieg	-13563
▁Flächen	-13564
▁Konstru	-13565
▁Skelett	-13566
▁dignity	-13567
▁erneuer	-13568
▁opposed	-13569
▁suicide	-13570
ränkungen	-13571
ulationen	-13572
▁Batterie	-13573
▁Gefangen	-13574
▁Pinguine	-13575
▁Virginia	-13576
▁attached	-13577
▁befreien	-13578
▁dominant	-13579
▁gründete	-13580
▁imagined	-13581
▁magnetic	-13582
▁meetings	-13583
▁properly	-13584
▁reaching	-13585
▁vernünft	-13586
▁Plattform	-13587
▁chocolate	-13588
ischerweise	-13589
▁arabischen	-13590
▁department	-13591
▁langweilig	-13592
▁motivation	-13593
▁optimistic	-13594
▁reparieren	-13595
▁simplicity	-13596
▁innovations	-13597
▁personality	-13598
▁populations	-13599
▁zurückgehen	-13600
▁mittlerweile	-13601
▁Investitionen	-13602
▁Weltbevölkerung	-13603
En	-13604
lu	-13605
Auf	-13606
pal	-13607
ype	-13608
▁Rö	-13609
▁Sn	-13610
▁cm	-13611
iday	-13612
wass	-13613
▁202	-13614
▁Dec	-13615
▁Prü	-13616
▁Vin	-13617
▁twe	-13618
▁wem	-13619
ented	-13620
küste	-13621
legte	-13622
usted	-13623
vater	-13624
▁Nutz	-13625
▁ausb	-13626
▁denk	-13627
▁dumm	-13628
▁ehem	-13629
▁fung	-13630
▁klug	-13631
▁ugly	-13632
fische	-13633
gender	-13634
ktoren	-13635
sphäre	-13636
uition	-13637
▁Aller	-13638
▁April	-13639
▁Bruno	-13640
▁Enkel	-13641
▁Hitze	-13642
▁Logik	-13643
▁Sagen	-13644
▁Subst	-13645
▁Szene	-13646
▁fried	-13647
▁hoher	-13648
▁japan	-13649
▁likes	-13650
▁orbit	-13651
▁schme	-13652
aktoren	-13653
forward	-13654
gencies	-13655
schafft	-13656
uchtung	-13657
▁Dialog	-13658
▁Joshua	-13659
▁Teufel	-13660
▁Umgang	-13661
▁deinem	-13662
▁dialog	-13663
▁facial	-13664
▁geheim	-13665
▁gewann	-13666
▁inject	-13667
▁kaputt	-13668
▁lebend	-13669
▁rating	-13670
▁repeat	-13671
▁retire	-13672
▁signed	-13673
▁sports	-13674
▁wenden	-13675
▁zufäll	-13676
aufgaben	-13677
ineering	-13678
▁Bericht	-13679
▁Charlie	-13680
▁Clinton	-13681
▁Muslims	-13682
▁Quanten	-13683
▁balloon	-13684
▁benutze	-13685
▁dioxide	-13686
▁dunklen	-13687
▁entered	-13688
▁mächtig	-13689
▁obesity	-13690
▁Atlantic	-13691
▁Gebieten	-13692
▁academic	-13693
▁captured	-13694
▁confront	-13695
▁download	-13696
▁höchsten	-13697
▁leuchten	-13698
▁shooting	-13699
▁shoulder	-13700
geschlagen	-13701
▁Karikatur	-13702
▁chemische	-13703
▁reduction	-13704
▁Jedenfalls	-13705
▁Reaktionen	-13706
▁Anwendungen	-13707
▁Einfachheit	-13708
▁Transparenz	-13709
▁disappeared	-13710
▁genetischen	-13711
CH	-13712
And	-13713
reu	-13714
züg	-13715
▁31	-13716
▁37	-13717
▁AM	-13718
ackt	-13719
bart	-13720
iebt	-13721
imps	-13722
orld	-13723
rest	-13724
▁15-	-13725
▁BIP	-13726
▁CEO	-13727
▁Fal	-13728
▁Lev	-13729
▁Six	-13730
▁Wes	-13731
▁enh	-13732
▁wet	-13733
▁ört	-13734
aders	-13735
class	-13736
meter	-13737
olera	-13738
ouver	-13739
peare	-13740
quent	-13741
while	-13742
ürzen	-13743
▁Anti	-13744
▁Brad	-13745
▁Füße	-13746
▁Mahl	-13747
▁Saal	-13748
▁Turn	-13749
▁depr	-13750
▁shar	-13751
acular	-13752
cepted	-13753
etzung	-13754
igaret	-13755
ighted	-13756
ropfen	-13757
▁Buddh	-13758
▁Serie	-13759
▁Wände	-13760
▁abund	-13761
▁angle	-13762
▁harte	-13763
▁jenem	-13764
▁korre	-13765
▁könne	-13766
▁laser	-13767
▁liver	-13768
▁route	-13769
▁seeds	-13770
▁sheep	-13771
▁units	-13772
▁verpf	-13773
▁verur	-13774
ichtung	-13775
ospiele	-13776
▁50,000	-13777
▁Besitz	-13778
▁Econom	-13779
▁Nathan	-13780
▁Proben	-13781
▁Rollen	-13782
▁Rwanda	-13783
▁Tränen	-13784
▁Wälder	-13785
▁hassen	-13786
▁intent	-13787
▁tricks	-13788
▁weapon	-13789
▁öffnet	-13790
▁Eastern	-13791
▁Treffen	-13792
▁Ursache	-13793
▁angehen	-13794
▁brechen	-13795
▁höheren	-13796
▁inspire	-13797
▁kreiert	-13798
▁lernten	-13799
▁muscles	-13800
▁neither	-13801
▁scratch	-13802
▁trigger	-13803
▁whereas	-13804
▁Ausnahme	-13805
▁Children	-13806
▁Demonstr	-13807
▁Dokument	-13808
▁Epidemie	-13809
▁Hinblick	-13810
▁aircraft	-13811
▁begrenzt	-13812
▁estimate	-13813
▁frighten	-13814
▁gerettet	-13815
▁hierarch	-13816
▁hindurch	-13817
▁horizont	-13818
▁Effizienz	-13819
▁Internets	-13820
▁Weihnacht	-13821
▁authentic	-13822
▁customers	-13823
▁dedicated	-13824
▁depending	-13825
▁describes	-13826
▁elsewhere	-13827
▁intention	-13828
▁Mitglieder	-13829
▁accessible	-13830
▁angemessen	-13831
▁emotionale	-13832
▁incentives	-13833
▁microscope	-13834
▁recognized	-13835
▁chinesische	-13836
▁wundervolle	-13837
▁Ungleichheit	-13838
▁photographer	-13839
▁traditionelle	-13840
eds	-13841
via	-13842
▁EM	-13843
▁Hi	-13844
ahen	-13845
fare	-13846
fine	-13847
kord	-13848
ktis	-13849
lies	-13850
onic	-13851
oots	-13852
ürzt	-13853
▁Bek	-13854
▁Hub	-13855
▁Kos	-13856
▁Lad	-13857
▁MRI	-13858
▁Neg	-13859
▁Van	-13860
▁cas	-13861
▁cup	-13862
▁les	-13863
▁tip	-13864
▁unb	-13865
estet	-13866
gebra	-13867
geord	-13868
grade	-13869
▁Cour	-13870
▁Klar	-13871
▁Myth	-13872
▁Ruhe	-13873
▁Term	-13874
▁aust	-13875
▁beer	-13876
▁eval	-13877
▁flog	-13878
▁gefl	-13879
▁rely	-13880
▁rush	-13881
ailand	-13882
annter	-13883
fältig	-13884
klasse	-13885
▁Craig	-13886
▁Griff	-13887
▁Hyper	-13888
▁Leber	-13889
▁Meere	-13890
▁Ocean	-13891
▁Robot	-13892
▁Smart	-13893
▁Tragö	-13894
▁Trend	-13895
▁Voice	-13896
▁brown	-13897
▁crack	-13898
▁finds	-13899
▁saßen	-13900
▁schol	-13901
century	-13902
gebiete	-13903
▁Atomen	-13904
▁Bedarf	-13905
▁Erzähl	-13906
▁Really	-13907
▁Zurück	-13908
▁bother	-13909
▁chosen	-13910
▁einzuf	-13911
▁kommer	-13912
▁legacy	-13913
▁offene	-13914
▁oldest	-13915
▁rising	-13916
▁scales	-13917
▁schaue	-13918
▁trends	-13919
▁underg	-13920
gelassen	-13921
▁Büchern	-13922
▁Dutzend	-13923
▁January	-13924
▁aspects	-13925
▁beliefs	-13926
▁charity	-13927
▁elegant	-13928
▁footage	-13929
▁implant	-13930
▁letting	-13931
▁methods	-13932
▁origami	-13933
▁richten	-13934
▁suspect	-13935
▁touched	-13936
technolog	-13937
volutions	-13938
▁Diabetes	-13939
▁Feedback	-13940
▁criminal	-13941
▁gemessen	-13942
▁getrennt	-13943
▁heiraten	-13944
▁wahrhaft	-13945
▁Gespräche	-13946
▁Verfahren	-13947
▁backwards	-13948
▁berichtet	-13949
▁committed	-13950
▁musicians	-13951
▁Handlungen	-13952
▁Motivation	-13953
▁collecting	-13954
▁gemeinnütz	-13955
▁governance	-13956
▁strategies	-13957
▁Katastrophe	-13958
▁Konsumenten	-13959
▁Philosophie	-13960
▁advertising	-13961
▁anscheinend	-13962
▁glücklicher	-13963
▁irgendeinem	-13964
▁philanthrop	-13965
▁photography	-13966
▁schlimmsten	-13967
▁Menschlichkeit	-13968
oie	-13969
ran	-13970
zur	-13971
▁Wa	-13972
eums	-13973
kopf	-13974
ockt	-13975
osit	-13976
rang	-13977
städ	-13978
unft	-13979
utan	-13980
wort	-13981
▁Ign	-13982
▁Sav	-13983
▁Tri	-13984
athol	-13985
ricul	-13986
ronen	-13987
▁Grie	-13988
▁Mumb	-13989
▁Näch	-13990
▁bath	-13991
▁cute	-13992
▁defe	-13993
▁dump	-13994
▁fulf	-13995
▁hing	-13996
▁häss	-13997
▁lieb	-13998
▁triv	-13999
▁umso	-14000
dollar	-14001
folgen	-14002
geräte	-14003
ziplin	-14004
▁Camer	-14005
▁Gramm	-14006
▁Indus	-14007
▁Moder	-14008
▁Pferd	-14009
▁Poliz	-14010
▁Santa	-14011
▁atmen	-14012
▁begrü	-14013
▁bewir	-14014
▁chest	-14015
▁drove	-14016
▁meter	-14017
▁minus	-14018
▁purch	-14019
▁stieg	-14020
▁unvor	-14021
▁youth	-14022
▁öfter	-14023
ference	-14024
spieler	-14025
staaten	-14026
äuschen	-14027
▁Abhäng	-14028
▁Bauste	-14029
▁Früher	-14030
▁Leiden	-14031
▁Palest	-14032
▁beseit	-14033
▁billig	-14034
▁clinic	-14035
▁crying	-14036
▁formal	-14037
▁intuit	-14038
▁paraly	-14039
▁propos	-14040
▁qualif	-14041
▁sonder	-14042
▁tribes	-14043
ierendes	-14044
▁Everest	-14045
▁Flederm	-14046
▁Kinders	-14047
▁Muskeln	-14048
▁Protein	-14049
▁Schokol	-14050
▁Wurzeln	-14051
▁bedeckt	-14052
▁crucial	-14053
▁mammals	-14054
▁pretend	-14055
▁schwere	-14056
▁section	-14057
▁unsicht	-14058
▁verletz	-14059
▁Aufstieg	-14060
▁Diplomat	-14061
▁Prozesse	-14062
▁Vermögen	-14063
▁aktuelle	-14064
▁darkness	-14065
▁früheren	-14066
▁guarante	-14067
▁minister	-14068
▁nebenbei	-14069
▁provides	-14070
▁stations	-14071
▁verletzt	-14072
▁vertical	-14073
▁Elizabeth	-14074
▁Entschuld	-14075
▁Maßnahmen	-14076
▁colleague	-14077
▁emergency	-14078
▁mittleren	-14079
▁Funktionen	-14080
▁boundaries	-14081
▁historical	-14082
▁protecting	-14083
▁regelmäßig	-14084
▁Katastrophen	-14085
▁Unternehmens	-14086
Ges	-14087
oen	-14088
▁0.	-14089
ault	-14090
lter	-14091
▁Kok	-14092
▁ate	-14093
▁hem	-14094
▁hip	-14095
▁hug	-14096
▁lit	-14097
▁nit	-14098
▁obl	-14099
▁prü	-14100
aches	-14101
erten	-14102
ikely	-14103
liest	-14104
lösen	-14105
▁2003	-14106
▁Brut	-14107
▁Kühl	-14108
▁Mall	-14109
▁Mama	-14110
▁NGOs	-14111
▁Pitt	-14112
▁Real	-14113
▁Sier	-14114
▁cens	-14115
▁golf	-14116
▁toys	-14117
action	-14118
archie	-14119
istern	-14120
wählen	-14121
▁Marke	-14122
▁Prior	-14123
▁Simon	-14124
▁aband	-14125
▁aside	-14126
▁crops	-14127
▁einzu	-14128
▁fluid	-14129
▁geöff	-14130
▁lokal	-14131
▁males	-14132
▁reefs	-14133
▁rocks	-14134
▁skull	-14135
▁womit	-14136
▁übern	-14137
Projekt	-14138
illance	-14139
▁Columb	-14140
▁Fahrer	-14141
▁Kommen	-14142
▁Mozart	-14143
▁Nature	-14144
▁Philip	-14145
▁Ratten	-14146
▁actors	-14147
▁drehte	-14148
▁enthus	-14149
▁keines	-14150
▁powers	-14151
▁umwelt	-14152
▁Blätter	-14153
▁Dadurch	-14154
▁bicycle	-14155
▁cheaper	-14156
▁extract	-14157
▁gewöhnt	-14158
▁initial	-14159
▁instant	-14160
▁jeweils	-14161
▁lebende	-14162
▁lecture	-14163
▁reflect	-14164
▁tragedy	-14165
▁wanting	-14166
▁Diagnose	-14167
▁Fotograf	-14168
▁Symptome	-14169
▁eröffnet	-14170
▁gesunden	-14171
▁hardware	-14172
▁kleinere	-14173
▁organize	-14174
▁symmetry	-14175
▁Architekt	-14176
▁Versuchen	-14177
▁benutzten	-14178
▁continues	-14179
▁gezwungen	-14180
▁infiziert	-14181
▁nationale	-14182
▁neugierig	-14183
▁privilege	-14184
▁searching	-14185
▁virtually	-14186
▁Strategien	-14187
▁Wichtigste	-14188
▁capitalism	-14189
▁functional	-14190
▁inzwischen	-14191
▁nachhaltig	-14192
▁Oberflächen	-14193
▁electronics	-14194
▁grandfather	-14195
▁unternehmen	-14196
▁transparency	-14197
▁Universitäten	-14198
▁communications	-14199
wa	-14200
yo	-14201
üd	-14202
?",	-14203
Gen	-14204
eid	-14205
nik	-14206
oma	-14207
oup	-14208
pox	-14209
öch	-14210
▁48	-14211
akul	-14212
inke	-14213
mass	-14214
oole	-14215
rump	-14216
äher	-14217
öten	-14218
▁190	-14219
▁Bef	-14220
▁Dop	-14221
▁Göt	-14222
▁Lux	-14223
There	-14224
ckets	-14225
eters	-14226
ringe	-14227
rückt	-14228
ttern	-14229
ziell	-14230
▁2001	-14231
▁Abed	-14232
▁Appl	-14233
▁Dick	-14234
▁Ehre	-14235
▁Jord	-14236
▁Konz	-14237
▁Vict	-14238
▁boss	-14239
▁choo	-14240
▁dish	-14241
▁hire	-14242
▁mold	-14243
▁prev	-14244
▁spin	-14245
▁unin	-14246
▁Ökos	-14247
fahrer	-14248
gänger	-14249
handel	-14250
iellen	-14251
schild	-14252
wellen	-14253
▁Bible	-14254
▁Ernst	-14255
▁Figur	-14256
▁Geoff	-14257
▁Sorge	-14258
▁Waffe	-14259
▁advoc	-14260
▁chief	-14261
▁elder	-14262
▁illeg	-14263
▁islam	-14264
▁pione	-14265
▁posit	-14266
▁stops	-14267
angehen	-14268
projekt	-14269
quellen	-14270
ylinder	-14271
▁Mumbai	-14272
▁Preise	-14273
▁Vortra	-14274
▁beides	-14275
▁feiern	-14276
▁intrig	-14277
▁missed	-14278
▁simult	-14279
▁tenden	-14280
▁transc	-14281
▁verlor	-14282
▁vierte	-14283
American	-14284
▁Beijing	-14285
▁Brother	-14286
▁Erstaun	-14287
▁Handeln	-14288
▁Lehrern	-14289
▁airport	-14290
▁amongst	-14291
▁paradox	-14292
▁suspend	-14293
▁trocken	-14294
▁widersp	-14295
▁Gebäudes	-14296
▁Jonathan	-14297
▁ausmacht	-14298
▁concentr	-14299
▁diabetes	-14300
▁equality	-14301
▁laughter	-14302
▁lighting	-14303
▁northern	-14304
▁produces	-14305
▁sandwich	-14306
▁schickte	-14307
▁unlikely	-14308
▁verzweif	-14309
▁Änderung	-14310
▁Überwach	-14311
▁Treibhaus	-14312
▁generated	-14313
▁indischen	-14314
▁insgesamt	-14315
▁Organismus	-14316
▁contribute	-14317
▁Shakespeare	-14318
▁chimpanzees	-14319
▁kulturellen	-14320
▁spectacular	-14321
▁Verbesserung	-14322
▁Globalisierung	-14323
▁Geschichtenerzä	-14324
Fi	-14325
Let	-14326
Und	-14327
hew	-14328
top	-14329
urd	-14330
ürt	-14331
▁4.	-14332
▁46	-14333
▁Ba	-14334
▁DP	-14335
▁Hu	-14336
▁SP	-14337
▁UC	-14338
beln	-14339
itis	-14340
reme	-14341
rons	-14342
stal	-14343
viet	-14344
▁Oct	-14345
▁Syr	-14346
▁ham	-14347
▁lap	-14348
allow	-14349
athon	-14350
cular	-14351
größe	-14352
iance	-14353
romos	-14354
ruppe	-14355
thiop	-14356
worth	-14357
▁Coca	-14358
▁Fels	-14359
▁Held	-14360
▁Juni	-14361
▁Marg	-14362
▁adop	-14363
▁seek	-14364
▁sink	-14365
Wissen	-14366
ersten	-14367
spanne	-14368
sprach	-14369
vision	-14370
▁Hören	-14371
▁Lewis	-14372
▁dicht	-14373
▁guide	-14374
▁miser	-14375
▁tears	-14376
▁views	-14377
iveness	-14378
▁Anweis	-14379
▁Disney	-14380
▁Gipfel	-14381
▁Metern	-14382
▁Sahara	-14383
▁Tasche	-14384
▁adding	-14385
▁attrib	-14386
▁auszud	-14387
▁borrow	-14388
▁compos	-14389
▁echtes	-14390
▁emphas	-14391
▁hardly	-14392
▁hungry	-14393
▁legend	-14394
▁nahezu	-14395
▁reveal	-14396
▁stable	-14397
▁wartet	-14398
children	-14399
gefallen	-14400
mögliche	-14401
▁Fremden	-14402
▁Seattle	-14403
▁attract	-14404
▁exposed	-14405
▁geraten	-14406
▁graphic	-14407
▁höchste	-14408
▁liberal	-14409
▁stammen	-14410
▁Hinweise	-14411
▁Sensoren	-14412
▁accepted	-14413
▁anbieten	-14414
▁anstelle	-14415
▁contract	-14416
▁dynamics	-14417
▁surfaces	-14418
▁Christian	-14419
▁Höhepunkt	-14420
▁Resultate	-14421
▁nachdenkt	-14422
▁primitive	-14423
▁strangers	-14424
▁weibliche	-14425
▁affordable	-14426
▁earthquake	-14427
▁ecosystems	-14428
▁engagement	-14429
▁übersetzen	-14430
▁Videospiele	-14431
▁analysieren	-14432
▁demonstrate	-14433
▁einzigartig	-14434
OK	-14435
RA	-14436
lem	-14437
pie	-14438
▁72	-14439
▁Bu	-14440
AIDS	-14441
ahar	-14442
baum	-14443
case	-14444
strö	-14445
uana	-14446
uens	-14447
vier	-14448
▁17.	-14449
▁Bez	-14450
▁Tar	-14451
▁liv	-14452
eiden	-14453
kohol	-14454
▁Symb	-14455
▁Work	-14456
▁ages	-14457
▁anfü	-14458
▁anst	-14459
▁batt	-14460
▁debt	-14461
▁entt	-14462
▁fram	-14463
▁gefr	-14464
▁glad	-14465
▁halt	-14466
▁leap	-14467
▁peer	-14468
▁tech	-14469
ptions	-14470
straße	-14471
tempor	-14472
uklear	-14473
vested	-14474
▁2000,	-14475
▁Katze	-14476
▁Löwen	-14477
▁Never	-14478
▁Risik	-14479
▁Staub	-14480
▁Wärme	-14481
▁anste	-14482
▁conce	-14483
▁fruit	-14484
▁heben	-14485
▁jelly	-14486
▁spots	-14487
▁veter	-14488
▁wirft	-14489
▁yours	-14490
gemeine	-14491
politik	-14492
wandeln	-14493
▁Indeed	-14494
▁Januar	-14495
▁Sektor	-14496
▁Sierra	-14497
▁Vorder	-14498
▁distra	-14499
▁fertil	-14500
▁innere	-14501
▁mochte	-14502
▁output	-14503
▁poison	-14504
▁Sequenz	-14505
▁beträgt	-14506
▁constru	-14507
▁enormen	-14508
▁entfern	-14509
▁indigen	-14510
▁radikal	-14511
▁session	-14512
▁speaker	-14513
▁verließ	-14514
▁änderte	-14515
▁Amerikas	-14516
▁Arbeitsk	-14517
▁Schweine	-14518
▁Umstände	-14519
▁erkunden	-14520
▁hingehen	-14521
▁textbook	-14522
▁Übrigens	-14523
▁antworten	-14524
▁apartment	-14525
▁gegenwärt	-14526
▁physicist	-14527
▁verpflich	-14528
▁Schwestern	-14529
▁Versorgung	-14530
▁apparently	-14531
▁resolution	-14532
▁volunteers	-14533
▁wirklichen	-14534
▁Alternative	-14535
▁diskutieren	-14536
▁zukünftigen	-14537
▁Privatsphäre	-14538
▁universities	-14539
organisationen	-14540
gu	-14541
Can	-14542
Reg	-14543
iva	-14544
ozi	-14545
til	-14546
öne	-14547
▁id	-14548
azin	-14549
fäll	-14550
gebä	-14551
keep	-14552
ktar	-14553
pest	-14554
yard	-14555
ästh	-14556
▁Syl	-14557
▁Val	-14558
▁dum	-14559
▁fed	-14560
▁tum	-14561
deten	-14562
embly	-14563
gänge	-14564
keley	-14565
spect	-14566
wohnt	-14567
▁Chip	-14568
▁Fing	-14569
▁Horm	-14570
▁Stil	-14571
▁Sund	-14572
▁bias	-14573
▁brow	-14574
▁dust	-14575
▁häuf	-14576
▁intr	-14577
▁knee	-14578
▁mice	-14579
▁nets	-14580
Mensch	-14581
breite	-14582
iessen	-14583
lessly	-14584
school	-14585
uelles	-14586
zenten	-14587
▁2009,	-14588
▁Links	-14589
▁Louis	-14590
▁Watch	-14591
▁beruh	-14592
▁breit	-14593
▁craft	-14594
▁dient	-14595
▁dirty	-14596
▁exakt	-14597
▁expos	-14598
▁freie	-14599
▁genoc	-14600
▁hydro	-14601
▁pilot	-14602
▁stets	-14603
▁upset	-14604
▁wings	-14605
▁Übung	-14606
bleiben	-14607
cellent	-14608
enhagen	-14609
▁Kredit	-14610
▁Moskit	-14611
▁Social	-14612
▁Varian	-14613
▁Werden	-14614
▁achiev	-14615
▁adoles	-14616
▁aufzus	-14617
▁commod	-14618
▁ehemal	-14619
▁erlaub	-14620
▁evolve	-14621
▁farmer	-14622
▁füllen	-14623
▁locked	-14624
▁poster	-14625
▁verlei	-14626
inkommen	-14627
jähriger	-14628
▁Ehemann	-14629
▁Rosling	-14630
▁Schnell	-14631
▁advance	-14632
▁anfängt	-14633
▁defense	-14634
▁essence	-14635
▁pointed	-14636
▁setzten	-14637
▁wheelch	-14638
▁Überall	-14639
▁Oxytocin	-14640
▁Weibchen	-14641
▁agencies	-14642
▁ausgehen	-14643
▁ausgesch	-14644
▁bewahren	-14645
▁contains	-14646
▁football	-14647
▁geöffnet	-14648
▁globally	-14649
▁includes	-14650
▁pregnant	-14651
▁sinnvoll	-14652
▁smallpox	-14653
▁sozialer	-14654
▁Übergang	-14655
wohnheiten	-14656
▁Ansichten	-14657
▁Nachfrage	-14658
▁Statistik	-14659
▁Symmetrie	-14660
▁accidents	-14661
▁bedeutend	-14662
▁depressed	-14663
▁implement	-14664
▁physische	-14665
▁visuellen	-14666
▁Entstehung	-14667
▁Population	-14668
▁Prototypen	-14669
▁Selbstmord	-14670
▁Verteilung	-14671
▁afterwards	-14672
▁physischen	-14673
▁wiederholt	-14674
▁Flüssigkeit	-14675
▁Komponenten	-14676
▁ingredients	-14677
▁unterhalten	-14678
▁chinesischen	-14679
▁festgestellt	-14680
▁irgendwelche	-14681
▁surveillance	-14682
▁neighborhoods	-14683
',	-14684
isy	-14685
pat	-14686
wan	-14687
▁vo	-14688
agte	-14689
apor	-14690
phan	-14691
zone	-14692
▁Cap	-14693
▁Git	-14694
▁ego	-14695
▁hüb	-14696
▁mic	-14697
asien	-14698
entin	-14699
essel	-14700
krise	-14701
oenix	-14702
selbe	-14703
stern	-14704
stron	-14705
uppen	-14706
▁Brie	-14707
▁Data	-14708
▁Rein	-14709
▁Urkn	-14710
▁hack	-14711
▁lift	-14712
▁pile	-14713
▁soap	-14714
▁trat	-14715
Global	-14716
fachen	-14717
gested	-14718
othing	-14719
▁Achse	-14720
▁Blase	-14721
▁Keith	-14722
▁Knopf	-14723
▁Künst	-14724
▁Lesen	-14725
▁Nadel	-14726
▁Tauch	-14727
▁Wasch	-14728
▁blank	-14729
▁disag	-14730
▁fifth	-14731
▁opens	-14732
▁realm	-14733
▁seats	-14734
▁selbe	-14735
erkrank	-14736
iminals	-14737
version	-14738
▁Arabic	-14739
▁Jewish	-14740
▁Muskel	-14741
▁Sprung	-14742
▁Trends	-14743
▁Wohlbe	-14744
▁barely	-14745
▁emerge	-14746
▁keinem	-14747
▁neural	-14748
▁rescue	-14749
▁shadow	-14750
▁silent	-14751
▁smooth	-14752
▁verbre	-14753
gleichen	-14754
gression	-14755
leuchten	-14756
▁Anthrop	-14757
▁Digital	-14758
▁Pflanze	-14759
▁circles	-14760
▁disgust	-14761
▁ersetzt	-14762
▁ethical	-14763
▁gesunde	-14764
▁granted	-14765
▁passing	-14766
▁prosper	-14767
▁pyramid	-14768
▁removed	-14769
▁symbols	-14770
▁traject	-14771
▁zuhören	-14772
akthrough	-14773
leuchtung	-14774
▁Baseball	-14775
▁Biologen	-14776
▁Einblick	-14777
▁Gefahren	-14778
▁Konzepte	-14779
▁Schlagze	-14780
▁Schülern	-14781
▁Therapie	-14782
▁aufrecht	-14783
▁gefahren	-14784
▁jenseits	-14785
▁künstler	-14786
▁vorwärts	-14787
▁Fahrzeuge	-14788
▁Techniken	-14789
▁Toiletten	-14790
▁abgesehen	-14791
▁announced	-14792
▁calculate	-14793
▁empfinden	-14794
▁politisch	-14795
▁variation	-14796
▁verrückte	-14797
▁ähnlichen	-14798
▁Ausrüstung	-14799
▁ausgegeben	-14800
▁terrorists	-14801
▁verstecken	-14802
abhängigkeit	-14803
▁consequence	-14804
▁schizophren	-14805
▁underground	-14806
▁Berechnungen	-14807
▁hinsichtlich	-14808
▁intelligente	-14809
▁neuroscience	-14810
▁beeindruckend	-14811
▁globalization	-14812
▁repräsentiert	-14813
Ab	-14814
isa	-14815
pan	-14816
abwe	-14817
blog	-14818
eral	-14819
ffer	-14820
meth	-14821
miss	-14822
stel	-14823
tery	-14824
▁'60	-14825
▁130	-14826
▁Fer	-14827
▁Moh	-14828
▁Süß	-14829
▁Tee	-14830
▁Tok	-14831
▁Zie	-14832
▁woo	-14833
gehör	-14834
uldig	-14835
▁Coun	-14836
▁Hind	-14837
▁Love	-14838
▁Musl	-14839
▁Spur	-14840
▁Wäre	-14841
▁biod	-14842
▁cord	-14843
▁decl	-14844
▁dick	-14845
▁flag	-14846
▁mate	-14847
▁quer	-14848
▁vorn	-14849
dliche	-14850
hängen	-14851
▁Appar	-14852
▁Aster	-14853
▁Extra	-14854
▁Frühl	-14855
▁Haare	-14856
▁Kamer	-14857
▁Mathe	-14858
▁Schon	-14859
▁circa	-14860
▁enthü	-14861
▁flour	-14862
▁recru	-14863
▁roots	-14864
▁verbr	-14865
geladen	-14866
legenen	-14867
onderes	-14868
▁Hawaii	-14869
▁Luther	-14870
▁Soviet	-14871
▁Stille	-14872
▁Vagina	-14873
▁Wilson	-14874
▁befest	-14875
▁danken	-14876
▁degrad	-14877
▁höchst	-14878
▁kooper	-14879
▁stores	-14880
▁strand	-14881
▁subtle	-14882
▁werdet	-14883
▁ältere	-14884
beziehen	-14885
ventions	-14886
▁Atlanta	-14887
▁Through	-14888
▁bedroht	-14889
▁briefly	-14890
▁chapter	-14891
▁consume	-14892
▁erfüllt	-14893
▁painted	-14894
▁pulling	-14895
▁shelter	-14896
▁visited	-14897
▁Erschein	-14898
▁Gebrauch	-14899
▁Griechen	-14900
▁Kontroll	-14901
▁McDonald	-14902
▁Mitglied	-14903
▁Schwarze	-14904
▁Stiftung	-14905
▁Toilette	-14906
▁befassen	-14907
▁benutzte	-14908
▁controls	-14909
▁einziges	-14910
▁erlangen	-14911
▁freiwill	-14912
▁geworfen	-14913
▁isolated	-14914
▁privaten	-14915
▁returned	-14916
▁speakers	-14917
▁theories	-14918
▁Abenteuer	-14919
▁Kreislauf	-14920
▁aktuellen	-14921
▁elections	-14922
[...]
