▁metabol~~19439
▁bedeutende~~7142
▁Kanäle~~14936
▁Trotz~~5876
▁present~~21986
▁suchten~~10019
üge~~12900
▁Geoffrey~~22664
ügt~~4548
schung~~6843
▁Größen~~379
▁fünften~~9490
▁diesmal~~8448
▁Soweit~~12952
▁gereist~~3856
▁Pot~~12292
▁unbekannt~~7324
▁lauf~~17576
▁Pop~~5364
▁Por~~3968
▁Pos~~18485
▁laun~~21351
▁Mitternacht~~8461
▁laut~~3636
▁fusion~~22555
▁Pog~~22308
▁Schwier~~15790
▁Pol~~5919
linge~~11190
▁wenden~~9070
▁normalerweise~~2911
▁Infektionen~~15655
▁Carolyn~~6103
derweise~~18104
▁verhindern~~9310
ching~~17834
▁verhindert~~9313
athan~~19143
▁Depression~~1732
▁Laden~~8218
▁Sobule~~22419
▁hear~~22535
▁schnitt~~2077
▁Indones~~22262
▁Radio~~5393
▁dabei~~2137
▁head~~23533
▁erlauben~~5151
stern~~815
▁Schnitt~~4978
▁Bild~~557
▁Hälfte~~3956
▁Bill~~69
Gemeinschaft~~10625
▁person~~20652
▁unhe~~19901
musik~~3809
züglich~~2241
▁Schluss~~1090
▁militär~~17059
▁Nachthimmel~~14402
▁abgebildet~~15271
▁Pink~~20625
▁kart~~7550
▁Stockwerke~~915
▁Identität~~3171
Le~~7102
wand~~4501
La~~15761
▁erfuhren~~8428
wann~~23647
▁Liter~~17743
sterben~~11708
▁yeah~~5363
LA~~22000
▁Potential~~2220
Jetzt~~14536
LS~~19484
▁gründeten~~3258
▁TEDMED~~11391
▁Schaltkreis~~17406
▁Sinnes~~5142
▁abgelegenen~~5889
▁world~~22662
▁betät~~11799
▁geistigen~~4948
▁ermöglichen~~5102
▁Ebene~~2089
▁elabor~~23888
▁Hills~~23113
▁Rollen~~15106
endeten~~18401
▁besten~~1868
▁Haben~~3998
fir~~18504
fit~~16067
inas~~18498
inal~~15073
fig~~12546
cipl~~24123
fik~~20394
fin~~4096
fil~~12271
▁John~~8000
▁Remix~~13145
▁Belohn~~15392
gesch~~6191
▁deswegen~~4374
▁astronom~~19054
▁Lehre~~10166
▁stehen~~143
achen~~1967
▁eindeut~~8494
▁verurs~~10222
▁Nebene~~9405
▁br~~5323
osit~~18066
osis~~7772
▁by~~21567
allas~~19325
▁be~~926
▁ernähren~~6136
▁bo~~14513
▁bl~~2850
▁schwanger~~11512
▁bi~~19545
ombe~~16406
▁invest~~10424
▁Schweine~~6327
▁angefertigt~~16293
reisen~~12341
▁lädt~~4994
▁Peace~~23089
emein~~19655
▁verze~~1471
zubringen~~7263
▁initial~~22889
▁Many~~23492
▁Regierungen~~7043
▁relativ~~1251
▁Manh~~16683
▁Mann~~3596
▁Favor~~15004
▁Mang~~20126
▁Mand~~18113
olds~~20223
▁Fischen~~7156
▁testeten~~19116
▁umfasst~~11926
master~~22471
▁Dichter~~8558
▁Fischer~~7048
▁Außerdem~~5915
▁großartigen~~10715
▁öffentlich~~10441
ahmen~~15069
chtest~~12933
▁Ordnung~~3607
▁großartiger~~12174
▁großartiges~~13409
'000~~7480
▁Monat~~7316
PTCHA~~22473
▁misst~~5199
▁Kapitel~~2964
üpft~~11919
They~~23937
▁Besonderes~~1804
▁Erschein~~3131
arbeitern~~2443
tech~~8095
▁Bonobos~~17976
schafter~~5779
▁qual~~13109
▁indische~~8843
▁quad~~13880
▁veröffentlichen~~9872
▁Beweis~~9541
▁Wird~~14732
essoren~~22418
▁Wirk~~4907
schaften~~7028
abyrinth~~11436
▁Anrei~~22135
▁Rückzug~~8540
rict~~18238
rics~~19266
than~~22503
▁Scheiben~~11302
rick~~17380
rich~~20065
rice~~21257
▁lediglich~~9271
iate~~3113
▁zugreifen~~8353
platz~~7877
▁Füße~~793
leren~~19696
▁Things~~23178
▁Bever~~22786
▁micro~~22844
▁fundamentale~~6390
▁meiner~~278
▁meines~~3034
▁Klick~~10638
zahlen~~12299
etic~~17951
▁angerufen~~3842
▁designed~~21483
▁Oregon~~14334
▁meinem~~3802
▁meinen~~3129
iry~~18713
▁Leute~~2124
irr~~6861
irt~~10916
▁solches~~17986
▁solcher~~4232
▁Franzosen~~18503
▁solchen~~4246
irl~~19301
irm~~7890
irn~~1458
▁designen~~13378
ations~~404
belast~~14937
irc~~22634
ird~~9824
ire~~2775
▁entwarf~~17057
▁Bananen~~15642
▁Potter~~19784
▁MRT~~13911
▁irgendwelche~~4644
▁Blogger~~15493
▁MRI~~2990
esis~~21162
▁fotograf~~15296
fra~~11113
äglich~~9403
fre~~5502
union~~22878
▁fair~~13294
▁Michelangel~~23240
kasten~~11517
.~~67
▁gradu~~13779
▁Hölle~~1053
▁wiederzu~~1180
spir~~17179
▁Anfang~~1977
▁verbringen~~1960
▁Aufbau~~15439
▁drinnen~~1031
▁Desaster~~1112
▁schmutz~~16804
▁Bandbreite~~11240
▁tatsächlich~~427
▁Fraser~~23676
▁leihen~~14726
▁besorgt~~2461
▁Afr~~8634
▁stop~~7314
▁Aff~~19820
▁stol~~7908
▁roten~~5632
▁position~~16142
viertel~~7441
▁inher~~22182
▁Hüfte~~19904
▁verge~~14405
ikanische~~4523
▁begreifen~~4102
▁Maul~~14965
▁Chinese~~20409
▁überwältigt~~13434
ubringen~~17008
▁Einzelnen~~7062
etics~~12488
▁Maus~~9505
▁Maur~~10724
▁präsent~~9205
▁Gleichheit~~2203
hai~~14263
hal~~5799
ham~~8188
han~~15446
hab~~8708
haf~~20117
har~~16306
sters~~22377
▁Koll~~7243
▁Lauf~~5214
▁diagnostiziert~~12654
inging~~22757
▁Koordin~~11278
▁Laut~~5260
▁danach~~6767
▁Laur~~19403
▁Äußer~~15243
▁Second~~18230
▁schlimme~~12895
▁1.000~~15197
▁sangen~~18517
ianischen~~10335
lebigkeit~~9468
▁Aquarium~~6002
zeugt~~17394
▁Hear~~23958
äfte~~22622
▁Bestes~~5451
zeuge~~5968
▁Head~~23224
▁Besten~~3775
▁übermitteln~~5143
fish~~23108
binden~~8190
▁eingesperrt~~15074
▁Dutzende~~2882
▁Welten~~6929
adet~~17415
▁plankton~~23807
ader~~1058
ades~~13361
▁aufbl~~14041
▁zä~~7649
cular~~12751
aded~~23927
▁Triceratops~~22082
▁zü~~7347
▁Gesundheitsw~~4530
adem~~7942
aden~~4990
▁Gesundheitsp~~14381
▁besuchte~~9954
▁umso~~6130
onien~~14232
▁verblüffend~~12645
häng~~20001
lieben~~4854
▁finanziell~~12817
▁beängstigend~~9640
▁Whole~~21060
▁legitim~~9355
▁Year~~13637
fabrik~~13561
▁höchst~~10798
▁Yeah~~20609
wände~~19554
öglich~~23628
▁Invest~~19724
▁moralische~~13477
▁String~~14097
algorith~~17536
amerikanischen~~7091
▁Paare~~9107
aza~~22088
▁wall~~22286
▁nötigen~~7067
aze~~18480
endete~~8124
▁Fotografie~~17304
näck~~21293
▁Austral~~13759
▁Später~~4384
abwe~~15483
▁Besprech~~14348
<unk>~~1
esens~~7380
▁fossile~~15832
esent~~14826
obal~~21385
ritte~~4502
▁drückt~~17761
▁Connect~~19683
▁offl~~9900
roll~~17583
▁drücke~~19036
edom~~21666
E~~789
▁Robot~~16542
▁robust~~12059
▁massive~~2372
Ide~~18709
ßen~~6284
imming~~21604
▁kontrollierte~~9694
▁Bewertung~~2006
volle~~2715
osp~~20322
oss~~12281
ost~~9983
▁Ange~~14668
osh~~7555
osm~~18970
oso~~8603
▁typisch~~9450
osa~~17462
osc~~17465
ose~~856
macht~~8813
gnung~~19434
thiop~~8733
▁fung~~3934
▁fund~~19987
▁fotografiert~~7038
▁Umgebungen~~12385
▁Los~~5864
▁Lot~~13973
▁Lou~~17972
▁Anlage~~13523
▁Lob~~3492
▁Log~~14805
▁Lok~~20014
minute~~23298
▁Finanzkrise~~13507
Tag~~13977
Sahar~~23314
▁ausgegeben~~2318
▁brillant~~15161
zra~~21706
▁Atmosphäre~~2844
Me~~4560
Ma~~21462
▁Komfort~~12859
▁Leinwand~~3272
uff~~4338
Ms~~8327
Mr~~3369
▁wussten~~627
My~~5167
Daten~~16186
▁diver~~19132
MA~~11060
MM~~23998
ML~~7127
kreislauf~~3024
koppl~~18611
itäten~~1620
MS~~16643
▁Züge~~9702
▁suggest~~24099
umpt~~15524
▁Danach~~4371
atürlich~~4538
▁erledigen~~6993
▁1994,~~20619
umpf~~8277
▁Phill~~22099
umpe~~20773
▁Karibik~~517
▁Meiner~~8720
▁los~~825
▁lot~~23156
▁chron~~3099
working~~22953
▁low~~18193
▁erneuer~~9207
▁lob~~7743
▁log~~6634
▁lok~~16095
opädie~~21043
▁Röhre~~19777
▁Kartoff~~4868
Zentrum~~12101
ömm~~19799
▁Lastwagen~~16470
▁Lebensformen~~1079
▁Streit~~16702
▁schloss~~14475
▁Verletzungen~~12941
▁einzelne~~319
▁baut~~8442
▁Merkmal~~10534
▁Marketing~~9256
▁existent~~17565
▁kreieren~~8844
assung~~12567
▁entwick~~16523
▁Überzeugung~~2556
atar~~19030
▁Insekten~~12511
zugeben~~3337
▁verblüffen~~18907
▁nied~~9371
essors~~10693
▁terror~~13564
▁integriert~~12554
▁angenehme~~16318
▁zeigte~~5580
illas~~15831
▁Scheitern~~7867
▁bestimm~~5281
▁Gedicht~~8163
idge~~17210
\~~22669
▁also~~623
▁Cent~~13672
▁Howard~~3697
▁Handels~~8705
besch~~4031
▁wahrhaft~~10102
gefühl~~13808
▁Distanz~~12627
wegen~~13072
▁schrieben~~2786
kriege~~14267
▁Krankenhäusern~~4938
▁Mubarak~~14427
maschinen~~8290
.'"~~11758
▁Stell~~19939
▁inspir~~11322
▁spazieren~~9908
tö~~22496
▁Manhatt~~17594
▁Seite~~339
oni~~13106
ona~~18798
ong~~10363
ond~~8387
one~~5389
▁Funktion~~283
ony~~14356
ormen~~11234
ons~~6280
ont~~6617
▁packte~~9709
▁scheitern~~8058
▁Diam~~3598
▁unterscheid~~23204
▁Ahmad~~16015
romos~~22711
▁Stop~~12917
estens~~16485
▁langes~~14210
▁langer~~510
▁Galaxien~~11053
▁Trek~~22734
▁Kinect~~21332
▁serviert~~6107
▁Island~~7728
schnitte~~5184
elnden~~16864
▁langem~~10201
▁Ingenieuren~~10882
emen~~16263
▁Schlangen~~9783
emed~~20660
▁müh~~13089
▁müs~~21811
▁Elekt~~17422
▁gewöhn~~21980
▁Positionen~~11065
emes~~21131
ugos~~14240
zog~~18822
jahr~~2482
▁vernünft~~7265
Hall~~15598
▁Steigerung~~17928
agger~~17049
phib~~11627
▁ziel~~5205
▁ziem~~9671
▁schief~~6578
▁praktizieren~~5493
▁region~~7184
▁Touristen~~16942
zahl~~10413
▁drei~~625
presse~~9799
▁says~~23066
▁erfolgreiche~~2016
▁probiert~~16246
▁auszust~~7624
▁gaben~~267
organismen~~11719
platte~~9807
▁gebra~~14449
▁transport~~16662
ipfel~~13730
ertain~~24021
vision~~14056
▁sieben~~4276
▁Dampf~~16692
▁Eingriff~~3036
▁gestohlen~~13397
▁illumin~~23058
kilometer~~7060
▁synthetische~~19110
agieren~~16930
▁Erzählung~~3210
▁Käfer~~12515
▁Herzkrankheiten~~18305
▁weisen~~11786
räger~~19317
▁Statistik~~11611
▁nütz~~3637
s~~576
▁Faszin~~13565
rägen~~7768
▁inf~~7605
▁ing~~21699
▁ind~~7315
▁ine~~20476
▁inn~~8988
▁inj~~3025
▁ink~~11527
▁inv~~18926
▁int~~7124
▁gemerkt~~10560
▁ins~~456
▁Missbrauch~~7669
▁Franz~~5782
west~~5951
▁Todes~~4640
▁Alhambra~~23233
▁Frans~~14893
iß~~7720
▁Frank~~3379
präsent~~17808
▁Dallas~~19213
formen~~8676
▁alle~~103
▁DIY~~23127
former~~20854
▁spielten~~5371
▁freut~~10495
ived~~23810
gebildet~~8355
iven~~6468
▁Automobil~~13354
▁anscheinend~~8551
iver~~3173
ives~~7012
▁freue~~13540
▁fanden~~2888
▁entsetz~~7302
▁Fing~~6788
▁Find~~22722
▁Sterber~~9373
▁Pinsel~~11127
▁the~~3163
unterschied~~20524
technology~~21537
besten~~17248
▁Fremde~~14016
▁entscheidende~~6840
▁suchen~~874
otte~~16428
mutlich~~17176
telte~~16809
eling~~19414
eline~~9746
▁aktive~~12229
ventions~~18287
wired~~23795
odka~~22142
ylinder~~14615
▁scannen~~14139
ingung~~21487
▁geschlafen~~12105
▁Osteuropa~~14707
▁tanzt~~12914
▁Überprü~~7013
dimension~~15711
▁Vorschläge~~16873
▁Feucht~~11178
beine~~12175
▁leider~~7134
ogramm~~12660
▁leiden~~13737
▁Sousa~~22387
fotograf~~20432
▁Fledermaus~~19415
▁augen~~16042
▁kontinuier~~9518
▁Kritiker~~2491
▁Weltkrieg~~16972
▁Zusammenhang~~1605
ademy~~21998
▁Ideologie~~20172
world~~23974
▁Jahrhundert~~6235
maßen~~5243
▁Experimenten~~15639
▁Schlafzimmer~~9095
▁kleinsten~~13989
uder~~20611
udes~~17646
▁Inspir~~11202
▁fixiert~~11816
udem~~20224
uden~~17729
kunfts~~9733
▁außerhalb~~7111
uded~~21834
▁betrachte~~7744
äd~~2593
äb~~13071
äl~~50
äm~~6074
än~~617
äh~~3889
▁vielmehr~~4467
ät~~8807
äu~~17319
▁beteiligt~~10202
är~~2685
äs~~15745
▁unsch~~12773
▁Matrix~~3127
▁Titelseite~~13764
ünkt~~15172
▁Ohio~~20051
Revolution~~8191
bewer~~10385
atives~~16818
ativer~~15311
ativen~~9073
▁setzt~~4699
auten~~4791
▁Fahrrad~~3803
ärten~~18254
▁Eng~~18420
▁End~~7313
No~~14459
Na~~1446
Ne~~12553
▁Ens~~20330
▁bu~~23789
▁Ent~~1395
▁Krä~~14785
▁Geben~~1956
▁ermun~~16438
▁fossil~~23509
▁Gebiet~~582
NN~~23553
▁Soll~~4121
NA~~19488
NC~~21826
ND~~21273
NG~~13567
▁ermut~~2302
NS~~17178
ichtbar~~21850
▁hattest~~19883
witz~~14414
▁ach~~18292
▁ack~~23152
akzept~~18430
▁Logo~~5701
asso~~7079
rage~~15883
asse~~8289
▁Mün~~5734
assy~~21813
ragt~~18342
asst~~4142
itativ~~13110
rust~~9293
▁option~~10556
▁Atomb~~16405
▁Hauses~~10290
▁Atome~~4002
▁Sad~~19712
▁Sag~~5656
▁Saf~~20270
▁Sac~~18790
▁Kambodscha~~11099
▁Sam~~12290
▁350~~13282
▁dank~~783
▁San~~2802
▁Sah~~19169
▁dann~~1070
▁Sau~~14968
▁Sat~~20834
▁gehalten~~3555
▁Sav~~15913
▁Sap~~13791
▁Sar~~10081
▁Explor~~10199
▁Beinahe~~7277
▁symbol~~9670
▁angest~~689
▁kraft~~8164
▁welche~~2752
▁Spielzeug~~5063
▁uniform~~21674
Fir~~13184
▁neuen~~270
▁mangel~~13503
sch~~311
▁kosmischen~~18951
rieden~~1830
▁Aimee~~22498
▁neuer~~4526
▁neues~~4419
▁Korruption~~13721
▁wundervoll~~13056
norm~~15604
▁Isol~~19828
ahme~~20951
▁übr~~21608
▁Libellen~~22585
▁liquid~~23592
▁Größe~~2278
▁eingest~~15752
alismus~~21474
rh~~17429
ading~~23422
▁Interessanter~~4346
▁bewe~~5668
▁Teddy~~13190
▁sad~~21342
▁sag~~5289
▁Waldes~~19656
▁twe~~9736
▁sam~~20418
▁sal~~13577
▁san~~9208
▁sah~~3350
itive~~18005
▁two~~22528
▁sau~~14419
▁sat~~19621
pass~~5335
▁überwachen~~12538
oton~~20595
▁nämlich~~4168
leit~~16937
▁gefolgt~~12694
lein~~21310
▁Wissen~~1351
leib~~11730
basierten~~4020
otos~~10320
▁Mississippi~~16691
leid~~18518
▁Region~~2949
▁Gap~~21481
▁Gas~~16681
▁Gar~~861
heben~~6637
▁Gay~~14303
▁sort~~5998
▁Gab~~3547
▁Vergewalt~~17672
▁Babylon~~14652
heber~~13279
methoden~~8456
▁Gam~~20666
▁sorg~~2612
▁Brüder~~11651
▁Madison~~11835
▁Finger~~4177
▁ret~~14300
▁rev~~17912
▁rep~~13189
▁res~~9563
pling~~21601
▁Staub~~10945
aufe~~2533
▁red~~14118
▁ref~~23025
▁reg~~7063
▁reb~~23936
▁rec~~22629
▁rel~~12682
▁rem~~19500
▁ren~~1439
auft~~11831
zykl~~21731
hrung~~16090
▁Hungers~~17922
▁Fäl~~20532
lechter~~22131
mord~~18849
more~~18843
▁Entw~~1059
▁gleich~~331
▁Entt~~11849
door~~16212
aders~~21119
▁Ente~~22084
▁baute~~10224
▁Enth~~15278
▁Fischfang~~22057
▁Honig~~19007
▁Manhattan~~11047
äuft~~8303
▁brauchte~~4676
▁klüger~~20342
▁Pizza~~13986
estyle~~22758
▁Medikamente~~6906
▁Währung~~16800
mehr~~5619
▁Robicsek~~23929
▁Aktivisten~~17736
▁Versuche~~7581
▁Schlussfolger~~9481
▁rechtliche~~18471
brett~~8183
▁Drei~~4654
▁Dreh~~15923
▁Schuhe~~3740
▁gering~~4152
▁bezeichnet~~5840
▁Größ~~14874
▁aktuelle~~13895
örner~~18428
roots~~18940
▁Philosophen~~18641
▁asiat~~17867
▁Proteine~~6848
▁GP~~22428
leistung~~1773
▁Höchst~~8883
▁House~~15034
▁Unsicht~~3947
▁GB~~21686
füllt~~9154
▁Erdgas~~20848
▁Gr~~8173
▁Gu~~10747
▁Karriere~~2626
▁Gi~~16999
▁Beschränkungen~~10630
▁Gl~~5561
▁enthält~~6024
lter~~21249
aganda~~3630
▁Ge~~166
▁Orgasmus~~9093
▁arrogant~~14526
▁Hacker~~14744
▁Kon~~4638
▁dement~~10150
ärbt~~6779
▁Kapitalismus~~14550
▁Pinguine~~21431
operation~~19460
athie~~15454
▁entschlossen~~8310
▁Shack~~20229
▁setzen~~2717
▁Fortsch~~17317
Fra~~19572
Fre~~15009
aven~~20347
ographen~~17605
▁gefährdet~~12490
aver~~23004
aves~~20493
▁Ruanda~~3423
▁Bausteine~~16948
▁Voraussetzungen~~2654
▁sauberes~~18739
▁sauberer~~5848
▁lernte~~6766
▁ältere~~8116
elling~~20465
▁univers~~1185
▁abzu~~880
kret~~10060
glicht~~23430
▁erwähnten~~8548
▁bilden~~2614
▁bildet~~967
gliche~~11169
sell~~19782
seln~~5950
▁Lebensräume~~14756
▁wandern~~7174
▁wandert~~17978
geschichte~~1098
zeption~~6416
▁Hawaii~~6022
▁Impl~~9611
▁Impf~~7397
virus~~7295
▁Elect~~20955
▁aktuell~~11066
▁Java~~21169
artet~~7512
▁erscheinen~~5717
arter~~12144
▁Kennedy~~17324
▁beeinfl~~18546
seligkeit~~10145
▁Chemikal~~11671
arten~~5354
reckt~~7939
▁Erfahrung~~3150
ugo~~21400
uge~~8264
prä~~3980
prü~~12809
ugs~~4865
▁Ganges~~11107
ugt~~10315
▁machbar~~7612
▁100,000~~21815
▁taten~~4357
achelor~~9741
▁Empf~~8803
hafter~~7061
haftes~~8340
▁befragen~~14140
▁Manusk~~12810
▁verknüpft~~2048
▁instit~~20135
onges~~17558
haften~~4086
▁komische~~9949
▁blieben~~7737
▁gespe~~13896
▁gegl~~21910
▁Ergebnisse~~1838
▁setzte~~8250
bieter~~17542
▁brilliant~~18172
▁Inhalten~~17091
▁Geme~~3178
▁Venice~~18759
▁einsam~~15254
▁Sudan~~15528
▁weitergegeben~~9601
▁Brücken~~16626
▁Odysseus~~22268
▁erledigt~~13813
▁motiviert~~5078
lass~~3395
last~~13310
Nein~~5615
opat~~8563
▁YouTube~~10915
▁verschickt~~17150
beln~~14966
bell~~14239
ometer~~4011
acted~~24056
▁Nachricht~~1730
olle~~11782
olly~~12462
▁cam~~22981
bels~~5943
acter~~16537
ollt~~15485
belt~~10965
▁mont~~12628
schern~~13440
▁Alternative~~6414
▁komplizierte~~10575
▁Dana~~21796
▁Stimulation~~15614
▁Dank~~1148
▁Fellow~~13927
▁Kapaz~~19059
▁Hack~~18901
▁drücken~~500
▁Bauern~~8592
▁je~~90
▁ja~~2345
▁ju~~19884
▁Chinesische~~14530
Drucker~~19852
vol~~18329
▁Wagen~~7734
von~~4674
vor~~2632
▁ökolog~~9051
▁Romo~~22369
▁abschließen~~10423
▁computer~~17207
▁anschließen~~4607
▁Rome~~22923
▁Parkinson~~4929
▁Allt~~12953
▁ident~~12482
städte~~10064
▁ausreich~~4886
▁entdecken~~675
▁Sunday~~23106
▁Rake~~22456
▁Verhandlungen~~14281
▁Neurow~~2984
irur~~17270
▁Neuron~~17435
läufer~~14372
▁versuchen~~571
▁emer~~21022
inations~~21836
abilität~~9667
ielten~~3634
▁evolutionären~~12388
ierender~~10622
ierendes~~12564
jährigen~~3597
jähriges~~17689
jähriger~~7161
pfeiler~~20167
schau~~5048
ierenden~~11566
On~~12366
Ok~~9542
Oh~~1719
▁Aufmerksamkeit~~5802
Os~~14374
Or~~16199
▁Imm~~10490
OL~~19751
OK~~18557
balls~~12788
▁Streich~~15948
OT~~22601
OS~~21711
▁Imp~~18855
▁Persönlichkeit~~4924
methode~~8449
▁Alexandria~~8565
gnost~~23948
▁Intelligen~~19075
▁Glücks~~14090
▁bricht~~109
▁Wünsche~~8493
▁brut~~7517
▁ausrichten~~19014
Hello~~20280
▁Cholera~~14019
▁Diplomat~~21085
▁Hyp~~4493
▁bem~~18595
▁Hyd~~650
▁repräsentiert~~14253
inte~~20360
ints~~21807
auscht~~4960
atherine~~21445
span~~21167
ruckt~~16224
biot~~18299
spar~~16274
utzer~~20137
neidet~~2014
▁4,000~~23337
neiden~~6711
▁Tageslicht~~11459
▁arist~~19993
utschen~~4040
▁fielen~~8794
▁2003,~~11631
faden~~10039
▁Ann~~10958
wuchs~~893
▁Anh~~17016
▁Anf~~19154
▁Ang~~2090
▁And~~4324
utzen~~4280
▁sowieso~~12148
▁jene~~6509
char~~4999
▁Anw~~9381
▁Ant~~326
▁Ans~~12393
▁Namen~~3305
▁Dezember~~13634
▁beobachte~~14219
▁Krokod~~20282
▁hyp~~21472
▁erwarteten~~13707
▁müsste~~6425
▁Architekten~~9905
lang~~7409
ibilität~~18015
land~~6258
produkt~~6466
▁tö~~19288
lant~~20359
graben~~5331
▁nördlichen~~8821
▁Wochenende~~9129
▁Organis~~18191
letzt~~18853
▁Papua~~21716
▁flach~~9699
▁Kreatur~~10286
istik~~17001
istin~~8483
▁Nordk~~10902
▁Parkplatz~~13860
▁schlagen~~6812
▁Barn~~15970
Organ~~15190
▁hüpfen~~10045
▁Verschwendung~~13105
▁Skulpt~~23826
▁Glauben~~8005
▁Bart~~13298
▁Climate~~19643
alin~~9173
odurch~~2354
▁arbit~~21519
▁Klarheit~~11505
▁jährlichen~~6143
video~~18556
▁Whit~~10888
▁Kunstwerk~~10800
▁Väter~~9944
▁ess~~18393
▁Paradigma~~7248
krise~~8269
ibir~~16232
▁aufzu~~2845
▁Wille~~8916
▁Offenheit~~2024
▁Briefe~~9159
▁demonstr~~21303
fragen~~10356
▁Instit~~19925
▁verabschieden~~15233
maker~~19954
▁Bilbao~~23737
▁sensation~~17505
▁Nebenwirkungen~~9404
▁zehntausende~~545
idmet~~22574
▁Umfrage~~14902
Gesch~~8399
▁Govern~~21888
pfe~~1861
▁zählt~~7707
▁subjekt~~10831
▁Augen~~262
pfl~~4120
▁berühm~~15072
▁Orten~~5444
▁ausmacht~~2018
etti~~6484
▁Verfügung~~8305
etto~~16646
lock~~10281
ette~~10117
▁all~~293
stoffe~~2819
etts~~17280
rodu~~16487
▁beige~~10789
▁Schulen~~1189
▁evident~~22020
▁Tenn~~3672
obyl~~19587
▁Sicht~~1051
▁mechan~~1480
▁Moz~~4759
▁anstatt~~3559
▁Mos~~14721
▁Mor~~11213
▁Mot~~12519
▁Genauso~~1651
▁Moh~~20362
▁Mom~~19356
▁Moo~~22604
▁Mon~~4592
▁Zaun~~16847
▁Fortune~~22628
▁Mob~~16876
▁Mod~~10643
Yo~~4783
One~~18846
▁Frau~~1401
ragon~~19788
▁Müll~~5798
▁Anzahl~~6380
▁Handys~~1940
▁film~~19575
morgen~~7870
▁wachte~~5629
staat~~12819
▁Einwohner~~1254
▁Florida~~12551
▁Hyun~~23800
▁Edinburgh~~12465
▁Sonnenlicht~~17932
▁Libe~~22587
▁Minuten~~2738
▁erstmal~~4651
▁wiederum~~8871
ampagne~~16144
▁simpler~~23690
▁Gefängnis~~11111
altungs~~5218
'~~824
ssinn~~15641
▁Jur~~10475
▁überlegt~~4360
▁Jul~~18515
▁Jun~~19665
▁überwacht~~17032
▁Jud~~3865
▁Iowa~~17948
▁kennt~~8983
▁schrecklichen~~4473
Teil~~5880
▁schreckliches~~19355
▁kenne~~4573
▁Parlament~~8880
▁Graffiti~~19558
▁1,100~~23611
utage~~18903
achtung~~13794
mittag~~17699
▁akadem~~4190
▁Bedingung~~15091
▁Chef~~13029
küste~~15910
▁Chem~~718
▁Chen~~13717
▁Cher~~20196
▁erlernen~~9866
leich~~1997
▁woll~~20006
etik~~15819
▁initi~~13587
▁anbieten~~3291
onent~~19029
▁Kommentar~~3314
▁Kost~~3290
▁dest~~14112
gence~~20305
▁dess~~14692
▁desp~~14628
▁erforscht~~408
gency~~20566
▁Kosm~~11052
▁Außer~~11953
▁Kliniken~~15670
▁Orchester~~4787
▁Außen~~11296
▁look~~22522
gendorfer~~14612
▁voller~~3446
▁Author~~23414
▁jur~~6954
▁vollen~~12308
▁jun~~24132
▁jud~~20995
▁jug~~22872
händler~~6065
atik~~17219
atin~~19632
▁thing~~22394
ativ~~4469
▁Basketball~~5448
▁Zigaret~~10050
▁Tarahumara~~22190
▁Gesellschaft~~1179
achläss~~22777
▁Evel~~18523
▁Even~~23839
beziehen~~18768
▁Konto~~18377
▁Basis~~7837
öscht~~21141
▁Privatsphäre~~16356
ampag~~21878
▁unschuldig~~17237
▁Ever~~12234
stehen~~1396
▁Hudson~~9955
▁Angesicht~~15694
▁prü~~7895
irk~~18248
▁Sprachen~~3223
▁prä~~3430
▁Format~~10530
▁erwerben~~19756
▁energet~~20258
iro~~17497
ira~~21742
▁Überlebens~~10093
▁betont~~11381
feldern~~13742
▁Kontrast~~12763
stufe~~12572
hirn~~11548
▁erstaunlichen~~11706
äch~~6455
äck~~6822
igranten~~17853
frame~~22510
Pe~~10383
Ph~~13393
geführt~~10921
Pl~~11316
▁retten~~7035
PT~~9918
PC~~12053
PA~~11383
▁Tesz~~23928
▁Serie~~4800
▁rettet~~14155
▁Test~~2930
lebnis~~5328
▁einsetzen~~4051
▁erzielt~~12807
▁etabl~~8776
▁lebendig~~5004
▁Operation~~6748
gleichen~~13643
▁erleiden~~11728
▁zustand~~22005
▁ertragen~~15033
▁kleinen~~987
▁erläut~~5602
▁Page~~10457
gespräch~~16704
▁Jenn~~18466
▁verwirrend~~11486
handlung~~7668
▁demselben~~11002
rieren~~11507
▁Programmier~~10576
▁Zentren~~12344
▁Wege~~3079
▁Lobby~~9791
▁Phantom~~21587
▁Links~~13570
▁Telescope~~22956
▁Amazonas~~15377
▁Asian~~22875
▁Ivan~~22341
greifen~~1205
▁Blüten~~14945
▁Oktopus~~425
ästhesie~~18736
▁beibringen~~2638
▁herum~~310
füllung~~17355
▁absolut~~6903
off~~3769
phas~~22352
▁Inseln~~19258
phan~~9830
phal~~22081
▁künstler~~13383
▁visuelle~~15563
▁üpp~~18797
▁aufzus~~4433
▁aufzur~~19778
▁aufzut~~15503
radle~~13636
▁erzählte~~3574
▁aufgewachsen~~5464
igsten~~43
▁aufzuf~~17807
▁starkes~~13008
▁starker~~12781
weg~~7731
▁lern~~5534
▁natürlichen~~488
wen~~20273
wel~~12438
wes~~18246
wer~~6503
▁natürliches~~19916
▁natürlicher~~19913
nten~~6227
wey~~22696
▁starken~~2568
▁beleid~~15898
piel~~8179
▁Gemeinsamkeit~~19220
▁ersetzen~~9614
▁Kilometern~~847
▁greif~~18461
onnect~~19670
liebe~~6528
▁Tyrann~~14887
▁erraten~~16498
▁Reparatur~~9399
fluss~~11554
▁Ausdruck~~3388
▁Verlierer~~20752
▁hatte~~1828
▁Molekular~~19400
▁grade~~17718
▁NGO~~22812
▁Tennesse~~23761
Sch~~3442
▁änderte~~6321
langen~~10403
▁Passage~~21577
▁versammeln~~14898
fro~~8406
▁Lieder~~1695
lettern~~13832
▁kürzlich~~2885
▁Ozon~~19465
▁Preise~~8641
▁imitiert~~14343
▁Poesie~~15216
immungen~~13500
▁andauernd~~8707
▁beliebtesten~~16556
▁komisch~~10479
▁Fisher~~8944
▁selbst~~119
▁Eröff~~18107
▁durchführen~~9679
▁geantwortet~~19228
problem~~13691
treten~~4328
▁12,000~~23511
▁winzige~~16841
▁uralten~~15266
▁bedeutsam~~12058
treter~~20326
▁Akadem~~17854
▁Verstand~~3014
▁Darbiet~~18545
▁muß~~4400
▁korrig~~2795
U~~1239
▁Rating~~15201
▁umzusetzen~~15156
ishment~~22744
▁filter~~23296
▁part~~15309
▁Tabelle~~1229
▁tendieren~~13368
▁Fließ~~13635
▁Kopfhör~~20935
äumen~~17146
▁plural~~21664
▁zurückbringen~~4925
farben~~16606
▁Berechnung~~14561
worth~~18150
▁Zehn~~4343
▁Ganz~~1975
ösen~~1166
▁verpassen~~11818
▁Kingdom~~18540
▁Ressourcen~~2672
▁Smart~~19530
▁hint~~8349
▁öffnen~~4418
▁hine~~10859
▁öffnet~~7946
▁hing~~7764
▁darin~~172
▁züchten~~11176
▁Großen~~11917
▁hervorra~~2243
▁Interpret~~10815
▁hink~~18186
▁Eden~~21252
▁bede~~6616
▁Widerstands~~14220
ührte~~17589
▁Nev~~23713
▁Von~~1331
▁Vol~~16757
▁Vom~~7801
üp~~21117
ür~~8640
üs~~6431
ül~~16905
üm~~9753
ün~~3438
▁überle~~15906
üd~~19150
üf~~19248
▁Koralle~~12437
üb~~7882
▁Voy~~16721
▁Woll~~16725
spunkt~~15975
▁Fortschritte~~7058
▁Kolumb~~11097
▁kleben~~11186
▁fertig~~4185
▁Fortschritts~~9436
▁Hungersnot~~8618
▁studieren~~2824
▁enden~~7198
▁Desp~~14650
▁Energie~~715
▁endet~~5187
▁einzufangen~~8647
instr~~1638
bru~~21311
bro~~18022
vö~~14746
bre~~11628
▁Eva~~15879
bra~~11635
▁Eve~~3693
▁akt~~10701
▁Look~~6567
ploy~~22849
▁gewonnen~~1866
⁄~~9188
plom~~22149
▁Einheiten~~8105
▁adopt~~19785
▁Entfernung~~949
ertigen~~16639
▁Levin~~19326
ert~~2256
▁ermö~~13235
err~~4397
ers~~2621
▁Harry~~13983
erd~~6806
ere~~979
erg~~2695
era~~16164
erb~~16491
erc~~20108
erm~~7104
ern~~51
▁legen~~1347
erk~~9966
mpf~~934
▁finanziellen~~12675
▁Sonnensystem~~11068
▁Werkzeugen~~16630
▁tad~~23057
▁Lincoln~~17117
sprech~~14456
▁flexible~~12115
▁Danny~~21538
▁Sir~~8146
▁Sim~~15803
▁Sil~~9007
▁Sin~~1115
▁epis~~22132
▁Sie~~218
▁Sid~~3475
bares~~3948
barer~~6205
▁schlimmsten~~8471
▁wählen~~2611
▁tödliche~~17374
▁Iron~~17931
baren~~2719
arch~~3264
▁Schwartz~~22133
▁alt~~1455
ichert~~10456
ichere~~19681
▁lernt~~7866
ichern~~15411
▁Fleck~~3045
tragen~~10652
orum~~20776
▁kilometer~~10402
▁Behinderung~~5112
▁auszu~~6964
▁hilft~~6413
üllen~~14066
▁unvorher~~6089
forscht~~205
▁Diplom~~17870
▁Meer~~79
l~~2759
▁bedecken~~4039
▁DARPA~~12513
▁Kreaturen~~463
dings~~19524
▁flachen~~11018
schlossen~~7634
▁sit~~15767
▁sir~~23935
▁sim~~16530
▁sil~~4043
▁sin~~22965
▁angewiesen~~8712
▁sie~~102
▁Richards~~12897
putation~~19918
▁gegenwärt~~19876
▁Sinne~~3104
▁ermöglich~~5390
▁intend~~19857
▁Gefühls~~14011
▁intens~~6887
▁Reich~~6248
▁autobi~~13916
▁hinweg~~2683
▁Höhe~~537
▁Inte~~24068
▁Number~~23900
▁Erkrank~~22338
▁relatives~~10165
render~~21847
▁Innov~~12361
ripte~~22094
▁Bruno~~13138
▁Kosov~~21207
ingen~~2891
inger~~11702
▁Meinungen~~13402
▁Schaffen~~12093
▁Plattform~~8906
▁spirituellen~~9098
▁neugierig~~10885
fahrts~~15497
▁Ähn~~11606
▁kauften~~10015
onanz~~21855
▁hervorragend~~15944
▁angesch~~8595
▁import~~15631
▁überdenken~~9056
▁irre~~11537
▁markieren~~7236
▁interviewed~~23758
▁folgten~~15914
Qu~~10254
bruch~~677
▁Lern~~2214
Qa~~22062
ierer~~17191
auna~~18040
aune~~10151
▁Neuigkeiten~~4711
ieren~~377
▁Zip~~22125
▁Gebieten~~8746
▁Zit~~9797
▁entsteht~~954
mond~~6206
▁Zie~~15581
▁rettete~~19261
eiden~~10935
▁Op~~3112
▁Os~~21410
▁Or~~5251
▁Ot~~10822
▁Ox~~22071
▁Oz~~3659
risiko~~8719
▁Ob~~3182
▁Od~~20998
▁Of~~24074
▁Oh~~769
▁Ok~~9573
▁Om~~17888
▁Ol~~15455
▁On~~13739
eme~~9749
▁OP~~14380
▁OS~~17556
ema~~13539
▁kommer~~12004
▁Etik~~6367
rung~~16723
▁kommen~~450
▁OK~~4092
▁horizont~~20635
▁rede~~7721
eres~~7253
away~~21480
▁nachdachte~~15325
▁redu~~15893
ered~~21439
▁Newton~~13420
erei~~1963
eren~~687
erem~~9321
▁belief~~20926
▁belieb~~6331
ffekt~~4761
▁indigen~~15930
▁Strasse~~7458
▁zweit~~8839
▁musikal~~4776
▁Berge~~538
▁Aurora~~20893
▁Gott~~1372
tocin~~23907
▁Herausforderung~~1925
▁Hins~~5484
▁Thank~~23353
▁Hurr~~11819
▁teilzunehmen~~4421
▁Hind~~16380
▁wirken~~8660
zierte~~2591
▁einnehmen~~8912
stitute~~20186
krä~~14594
utreiben~~7226
▁Ungefähr~~5339
▁angehalten~~16733
▁instinktiv~~5547
▁Konzept~~1136
▁erbaut~~18779
▁Cold~~21788
▁Cole~~19766
▁Cola~~4379
▁Coll~~17607
▁Kategorien~~9536
▁steckt~~2273
▁prote~~23360
▁Skizzen~~16635
▁Gegensatz~~3473
cons~~20862
cont~~13743
▁eineinhalb~~16138
▁Grafiken~~4634
cond~~23462
istan~~15943
▁Swiss~~23023
▁Janu~~17671
▁Hühn~~11647
utragen~~21502
▁Werkzeuge~~6698
Stop~~22112
▁Zipcar~~20512
▁Jane~~3670
▁willen~~7754
▁buchstäblich~~3041
▁Schwestern~~3577
hang~~12305
hand~~2068
▁Babies~~1321
felder~~17949
▁new~~22264
▁Rebe~~23786
tellte~~18987
▁psychologische~~14121
▁Kurse~~10379
▁modular~~20626
▁Innovation~~1228
▁geist~~8545
meisters~~18659
▁überrascht~~3737
▁naiv~~5767
▁Redakte~~12132
▁Über~~2474
anter~~6261
gewinnen~~17071
▁Militär~~2929
▁spaz~~11526
▁Progn~~16507
anted~~22736
▁Viele~~2455
wälder~~21008
▁Prostat~~21929
anten~~2226
▁damal~~19747
▁Friedman~~10425
▁Abbild~~9917
▁materiellen~~9912
owntown~~18765
Bü~~14500
▁entde~~21839
night~~17080
essor~~8323
▁erstellte~~13962
fähigkeit~~14053
▁Präsentation~~9942
▁Einstein~~10720
bors~~20368
born~~11762
borg~~20453
▁Diagram~~19842
▁UK~~23043
▁falsche~~7516
▁jähr~~2796
▁empor~~16693
asking~~23130
▁Korre~~15866
iguren~~21852
ließlich~~22728
▁Feed~~19858
andelt~~11667
andels~~21386
andeln~~20287
▁Sadd~~10595
▁hergestellt~~5918
▁Wisst~~16973
▁Different~~19405
▁Natalie~~22683
▁gött~~14712
▁Rassen~~1621
iverse~~11016
▁Übereinstimmung~~15740
ürf~~12747
üre~~16661
▁zunehmend~~3194
▁befand~~2375
ürt~~17404
ürz~~20932
▁Minute~~4575
▁Re~~1669
▁Kapit~~18128
▁Ra~~17739
▁Ro~~5894
▁Rh~~10280
▁Ru~~14681
rauch~~16759
▁RG~~10470
gewalt~~17669
▁Kammer~~2855
isis~~21765
ilder~~14978
▁fernen~~19971
▁RO~~21072
▁RL~~21401
▁Parallel~~14631
gemacht~~6704
▁Intens~~20814
ilden~~15625
▁Rout~~7874
▁nomin~~19837
ronen~~14952
▁große~~948
▁unwohl~~15714
▁schlicht~~16840
▁Gleichgewicht~~13609
test~~7904
▁stör~~15589
▁spezifische~~15609
▁Sonnensystems~~19256
▁Motorrad~~8203
▁süß~~15958
▁worüber~~9839
▁Taiwan~~13711
▁Insel~~5890
▁Beschäftigung~~18029
▁sugger~~21793
▁Pinker~~20320
▁bugs~~21452
spuren~~15217
▁Englischen~~17760
▁export~~17924
▁hielten~~7729
▁redeten~~5694
▁uner~~204
▁begeistert~~4050
▁asymmet~~11217
lider~~17077
▁Letzt~~16221
▁unem~~1678
▁Anruf~~9818
▁Falle~~6842
▁Falls~~1318
▁Algorith~~23450
pson~~23836
▁Bezahlung~~4424
aland~~23583
▁Geduld~~8977
▁Pick~~18707
▁Pich~~22365
▁Herzleiden~~16419
▁Pict~~22602
▁Mole~~12749
▁Type~~23137
▁Mola~~24134
gue~~20793
▁bewirkt~~9603
gur~~7215
gut~~5867
▁25,~~21396
▁25-~~20031
▁25.~~16154
▁ignorieren~~11804
▁250~~10445
▁Blasen~~14044
ingenommen~~23021
▁traur~~1248
uers~~12057
uert~~2532
Form~~10518
▁MBI~~12754
▁Forschung~~4077
▁Märkte~~6438
▁befreien~~5828
▁MBA~~8317
▁Welle~~5759
▁traum~~19155
▁Beinen~~4217
▁Haw~~19191
▁Hat~~4718
▁Har~~3694
▁Tunes~~14357
▁korrigieren~~10581
▁Haz~~21469
medizin~~8516
▁Hay~~11036
▁Fossil~~13848
▁Had~~17824
▁Hab~~16297
▁Han~~17308
▁Kerzen~~21056
▁Hal~~12889
▁Ham~~12317
▁Hai~~3530
▁soweit~~6202
▁che~~10375
▁erhielten~~5659
möglich~~18173
hnte~~5897
ctions~~18934
uza~~21278
uzz~~16588
cies~~23552
flüge~~20452
Dies~~14213
reger~~3069
regel~~18963
Feld~~17391
▁Richtlinien~~10459
yrus~~21696
▁fasziniert~~9840
ibi~~17381
▁erkannt~~7108
ibl~~12104
iba~~20286
▁Beachtung~~17654
acon~~14376
decken~~10880
ibe~~3984
abyte~~21023
▁Guinea~~21338
decker~~11346
zeugen~~13755
ibr~~14961
trans~~5402
ibt~~8034
ibu~~13414
▁desto~~1609
▁benutz~~20681
▁zusammensetzen~~16379
chip~~14907
▁Materialien~~4021
▁historischen~~10193
▁Grupp~~14831
▁Methoden~~2624
▁hat~~92
▁hau~~19616
▁har~~20727
▁has~~14249
▁Skelettmus~~23013
▁make~~16119
▁had~~24057
▁hab~~1217
▁Scheiße~~17946
▁Princ~~23991
▁hal~~11449
▁ham~~20199
akuum~~23669
▁Dunkeln~~10214
adel~~13421
▁Staunen~~19357
▁tippen~~5716
▁Vernunft~~8506
▁Elektro~~4196
behör~~12169
kurs~~7245
endet~~11270
endes~~1390
ender~~1183
▁schickt~~12772
Re~~3940
▁kombiniert~~15876
endem~~19087
enden~~798
▁hunderten~~12262
agramm~~20982
▁Chile~~2183
▁Child~~14460
▁mathematisches~~16208
▁tro~~1701
fält~~13343
▁Schicks~~9317
▁schauen~~155
fäll~~3800
RA~~18613
▁infiziert~~1171
RI~~16179
▁mathematischen~~15354
sol~~17680
not~~10690
chnolog~~3958
nov~~15946
now~~23527
▁aggress~~9556
itze~~13664
▁ur~~11720
▁Zyklus~~12395
spielen~~7780
▁Rauschen~~11247
▁Angeb~~10447
▁ub~~20283
▁un~~1534
▁um~~233
ifikant~~15397
▁Angel~~11516
▁uh~~21031
▁beruf~~2328
▁vari~~4298
ächte~~6510
▁beruh~~11560
year~~23976
▁fürchter~~15705
▁zuletzt~~12581
▁elektr~~5416
▁temper~~23686
zählt~~831
glück~~8605
▁befreit~~6338
▁aufgere~~18692
gase~~17512
▁replizieren~~20477
▁Laptop~~1529
▁aufre~~7657
▁Klassenzimmer~~3801
iban~~5696
▁2003~~7046
▁ausgeben~~2350
▁200-~~9466
▁zuvor~~3050
frieden~~11000
blind~~11522
bling~~21578
▁Enden~~16600
▁Barefoot~~23794
▁risk~~2753
▁stellten~~10401
▁Endes~~9386
rine~~14727
ring~~3695
rina~~23829
▁Planeten~~128
ücksicht~~21476
▁Posit~~9387
▁stoppen~~6093
▁zwang~~14203
▁orchest~~21463
▁Comics~~17043
▁flip~~24012
▁flie~~2947
▁Sandy~~11813
▁Drogen~~7795
▁Cancer~~21562
▁Protozellen~~23324
▁tolle~~4223
▁What~~24115
▁Fotograf~~19013
▁Teenager~~3331
inken~~3002
inkel~~15268
▁Museums~~10871
▁Nair~~21773
▁Express~~16484
äumt~~19321
▁Spar~~16971
▁Prakt~~11040
äume~~13605
oreingenommen~~14073
▁Spam~~19450
▁Span~~11911
lehnt~~11704
älfte~~16659
▁allmäh~~23083
▁verwendete~~10216
▁lustig~~1709
onium~~20239
▁metaph~~9174
▁ausgewä~~12404
▁steuern~~3011
Wel~~12435
Wer~~5691
▁steuert~~19377
▁farb~~11084
Sharing~~18245
▁Yorker~~5343
▁intelligenter~~7611
▁intelligenten~~7610
schläge~~8890
▁epile~~22740
amera~~5117
▁Herrschaft~~14428
▁verbreiten~~5514
▁Kontinent~~7115
▁verbreitet~~4231
ynth~~743
▁rechnen~~19067
▁rechner~~10481
förmig~~9442
ierbarkeit~~8217
▁Ash~~21760
▁Ask~~23227
▁Asp~~12977
▁Ass~~8463
▁Ast~~11137
▁Aktionen~~15500
▁wert~~8228
azz~~10741
wechsel~~5150
▁Frü~~8642
▁warst~~14857
▁Frö~~11624
▁Town~~19503
▁Dasselbe~~15865
▁übersetzt~~15262
männer~~18223
Team~~9677
archite~~20783
▁Frie~~22117
▁Stock~~7973
▁tatsächlichen~~8749
▁reason~~16110
▁absen~~18569
▁Erzä~~14503
▁Futter~~12456
▁Fris~~16808
▁verkab~~6653
amine~~13111
aming~~21671
liches~~936
▁religiösen~~4350
▁schle~~11826
▁entfernte~~15897
▁security~~23480
▁Erkrankungen~~17410
isible~~23893
▁spricht~~2584
emark~~23469
▁Verschiebung~~14663
▁Front~~11545
▁Handvoll~~15929
ctive~~21384
apier~~9865
▁passt~~5147
apien~~11691
▁Mittern~~12111
bereitet~~13057
▁Leichen~~17335
▁effizient~~8651
▁heads~~16124
▁markiert~~2277
ällen~~13408
▁Puzzle~~16557
▁Accenture~~21294
▁schlechtesten~~2480
Israel~~5593
▁Bedürfnissen~~11984
▁Impfung~~20018
▁Seitdem~~5267
▁Erweiterung~~6247
▁Unen~~9920
▁äußeren~~6581
▁Häusern~~11958
▁Autounf~~21975
▁Gary~~16594
▁gesagt~~250
▁erschwinglich~~9800
▁Dokument~~3485
▁pre~~20000
▁pra~~18857
▁pro~~701
▁jeweiligen~~2283
▁cond~~22416
▁Erzeug~~8709
▁griff~~8489
verse~~16308
▁Ehefrau~~8544
▁Spaghetti~~19679
ami~~10079
▁wage~~18547
amm~~5855
isters~~9101
ama~~11347
amb~~11581
ame~~6512
amy~~20978
allererst~~10617
psy~~20938
amp~~6447
ams~~9984
istern~~12362
amt~~12102
▁schufen~~11533
▁Urteil~~14143
▁Röhren~~722
▁something~~22544
▁Bestäuber~~14967
▁wissen~~1275
▁Zähnen~~10161
ilosoph~~16460
▁Seide~~18112
▁spürt~~14619
nisse~~2365
▁Ecke~~7646
▁übereinst~~6604
▁1945~~20382
ounted~~23401
▁1940~~20557
intens~~11306
▁versorgt~~11741
▁Rä~~12614
▁Jeff~~16790
▁Rö~~14768
▁Zweig~~11128
▁Expedition~~10185
▁reisten~~3579
▁beschaffen~~7651
▁Gesetze~~6925
umenten~~4802
▁unbesch~~6670
▁Okay~~3886
▁Hütte~~16394
▁IBM~~13396
▁Prozents~~21677
rums~~12185
▁Freundes~~17647
▁Freunden~~1712
zentr~~14873
600~~14613
▁Bahamas~~19039
▁Solarzelle~~17431
▁extre~~18589
▁taucht~~14686
▁Grand~~13406
oulder~~21689
▁meiste~~203
▁Masch~~11659
▁amateur~~15071
▁Mitgefühl~~5732
▁perman~~7362
phys~~2799
▁kathol~~13700
▁Katastrophen~~9483
▁Verlauf~~6577
pool~~10387
▁beautiful~~23065
brochen~~3280
▁voraussagen~~18316
▁örtliche~~11232
▁around~~16129
▁drum~~21177
▁Mosche~~14217
▁Ballon~~17504
mechan~~9400
▁beliebigen~~6302
▁rap~~20718
▁arbeiten~~1411
anas~~17183
▁Wesen~~285
▁Austin~~12349
▁anfangen~~811
▁arbeitet~~5103
▁Faz~~23427
▁leisten~~2097
▁Hausaufgaben~~9136
immte~~6605
▁Capital~~20864
ators~~11279
atory~~23203
ails~~10373
atterie~~12770
▁Karen~~16946
▁ausgestellt~~8872
▁Deshalb~~5245
▁Autounfall~~18493
▁Buff~~16884
▁Subtitles~~17
▁verboten~~8221
▁ehren~~8539
▁aufsch~~12224
lossen~~12555
▁pie~~21230
dire~~19796
▁pin~~13069
▁pil~~22666
put~~11330
inational~~23985
▁pix~~23159
▁Forschern~~12779
ash~~9214
▁Birds~~22566
▁beitragen~~2010
iathan~~21348
▁Cairo~~23074
gebiete~~7227
▁Pur~~3648
▁Dak~~14338
Sp~~5473
St~~4945
Sk~~18887
Sh~~3619
So~~18069
Sc~~10538
▁Dan~~4083
▁verwand~~20416
Se~~11443
▁gewaltigen~~6163
▁kleinere~~11862
▁character~~22475
SP~~16959
▁Australia~~21565
▁Nanote~~22459
SM~~17520
bevölkerung~~9365
SE~~22374
▁betrachtet~~5118
▁betrachten~~2242
▁Betracht~~6463
▁Schätz~~22164
▁romant~~5538
icing~~23550
▁Dollars~~4401
▁Platt~~22258
Entwick~~12398
▁kannst~~1865
imicry~~23226
▁Schreiben~~12124
▁Spruch~~8523
▁Stanford~~6738
▁schlecht~~1212
stronom~~21238
▁wahnsinnig~~8726
aughter~~24079
verarbeitung~~16552
kalien~~17291
▁Wä~~3285
▁eingeschlossen~~13439
▁Dat~~16007
▁Dadurch~~9303
▁Wü~~14483
▁Lithium~~19489
▁sämt~~16514
äuben~~13049
systeme~~2017
Universität~~16944
▁ethischen~~12599
systems~~2000
ced~~20716
▁Wert~~1348
cen~~17749
▁einzig~~16624
cel~~246
▁überaus~~14179
ces~~4799
cer~~14298
▁Werk~~10845
▁konkurrieren~~14852
pidem~~21142
unklar~~12932
▁Zukunft~~1291
atural~~23878
▁Sure~~23305
▁erhe~~7906
▁klare~~2634
▁erfährt~~18506
7~~2164
▁doc~~22175
▁behaup~~12476
▁Ernähr~~6200
▁verein~~2488
▁Arme~~3092
aschen~~11465
▁Path~~8429
▁plurip~~21170
▁Filmemacher~~3654
▁geheiratet~~12946
▁Army~~7879
▁wundern~~15750
▁wander~~15909
▁vereinen~~16001
▁salt~~20831
▁kleineren~~5382
▁Konserv~~11592
station~~4112
▁snow~~23861
▁Gesichter~~3352
▁herunter~~4989
▁True~~18117
▁bestehenden~~2413
▁Lager~~8861
▁Paradies~~20843
asch~~2733
asca~~17937
▁bell~~23801
▁schmal~~22421
▁understand~~24053
▁bele~~19569
▁Old~~15840
▁interessante~~4536
gree~~22837
greg~~10460
gren~~9377
▁Ursprung~~7339
▁erwartet~~7805
▁nachzu~~7137
ktiv~~15971
fehler~~10552
ktis~~21274
▁erwarten~~2572
arke~~22462
▁reagiert~~2398
▁unabhäng~~15124
arks~~19978
sektor~~8899
▁Interviewer~~21090
▁Fülle~~7084
▁speziellen~~230
▁Weltall~~11338
▁Stimmt~~8499
asters~~19504
astern~~17798
▁Lebenszeit~~17413
▁Stimme~~4795
▁gespielt~~1590
atischen~~19368
ahnsinn~~23313
wehr~~10257
▁angewandt~~2522
▁Interface~~4833
ymp~~18535
abad~~20624
nehme~~18181
▁Statist~~19767
▁wahrzunehmen~~4489
▁symptom~~6868
quen~~16997
▁Near~~23636
abend~~13968
ikon~~19165
quez~~21105
ymn~~22867
▁fier~~23875
▁entschloss~~11125
▁chemischen~~594
▁Blinden~~15206
▁fiel~~6770
▁Erzählungen~~14607
ausende~~16092
▁Wür~~19773
▁DDT~~11737
▁Vielfalt~~195
▁Wün~~10139
▁Juan~~14478
kunft~~11189
oppel~~19173
ächtigen~~9014
▁Ital~~23273
▁Völk~~15939
ranken~~14377
glied~~3180
▁Congress~~17348
schle~~6721
▁Norbert~~20193
▁dutzende~~15378
mentation~~19598
Gott~~18778
▁Drohnen~~22466
N~~4279
▁kämpft~~1164
▁erstaunliche~~10021
▁englischen~~10042
▁Cartoon~~12725
richten~~11899
▁trock~~15783
▁schuldig~~1718
Nach~~8043
▁zurückkehren~~7983
pack~~4378
▁Leitung~~15757
▁vorherigen~~7394
▁Enthusias~~22815
▁Sohnes~~9225
zähl~~14765
entle~~20565
▁rud~~16370
▁rum~~7767
▁run~~10862
▁ruh~~10904
holte~~8837
▁rut~~3976
000~~13639
▁irgendeine~~12460
▁ökonom~~14601
ahnen~~11073
anting~~23011
▁Novogratz~~19702
rechts~~3459
beband~~12745
marsch~~14422
rechte~~13482
▁Krebs~~8419
▁anhören~~5469
umps~~18755
▁Regierung~~3367
ricul~~22373
▁äußern~~19107
▁jahrelang~~12882
ight~~12351
rufe~~9162
▁gesprochen~~1009
ruft~~10154
▁träumen~~10950
▁Original~~10750
▁7-~~21805
▁7,~~21881
▁7.~~11497
▁78~~11372
een~~23331
▁70~~630
▁Folie~~6420
▁72~~14026
▁75~~126
▁74~~2162
▁Nine~~12196
▁76~~9268
älen~~4186
▁hundert~~389
ulose~~8280
▁Hope~~8485
▁Kosovo~~20344
▁auslösen~~10717
ishman~~20651
▁Every~~16130
▁Baseball~~8440
quote~~15170
straße~~6593
ocke~~18716
Bild~~9880
▁gelernt~~1600
▁Magic~~18830
▁Kanten~~11249
▁Magie~~16718
ockt~~14971
ocks~~4197
athy~~20293
führer~~1903
▁Anreize~~4315
▁Nun~~2311
▁Nur~~1552
▁Gold~~12478
▁Golf~~12787
führen~~5068
ichtern~~20869
ourced~~22813
▁Rahmen~~3776
ourcen~~6963
ources~~22465
▁gesammelt~~5994
▁Code~~3213
ikte~~20103
▁blinde~~15616
▁Jahres~~5599
▁Denkens~~19687
▁Material~~3933
▁Jahren~~1027
gerät~~11455
izierte~~7606
▁Himmels~~7753
politik~~4529
▁Afrika~~5284
▁kritisiert~~12674
To~~19847
▁gehörten~~10797
Th~~9748
ampagnen~~7459
Te~~13006
TV~~19217
TP~~20923
TO~~18724
▁konstru~~1919
▁Bir~~15445
haft~~1577
TA~~20858
▁vermutlich~~1007
▁kostenlos~~9285
wohn~~10919
▁unheim~~16324
▁nun~~2120
▁nur~~268
▁medizin~~11430
▁aussahen~~6219
▁Penel~~11586
▁Herkunft~~13775
▁eigen~~2640
e~~691
▁stabile~~21418
▁Bits~~10018
▁Raubt~~22254
▁Facebook~~4722
▁Universum~~10132
umble~~20548
lichkeit~~3201
Not~~18727
▁bereits~~628
Regierung~~17231
▁damit~~2026
▁gift~~42
▁gewe~~4117
▁schwierige~~12838
▁mitz~~10496
▁Erkenntnisse~~17510
▁viel~~1386
akul~~15546
▁vier~~626
▁Able~~9471
▁sagten~~1453
▁trivial~~22464
▁Vater~~3325
▁Vict~~22325
▁wachsende~~5803
▁Salz~~17874
▁Vollzeit~~16566
▁vorzustellen~~1692
▁Leon~~18678
▁Co~~8319
gent~~15202
▁eigene~~457
gend~~5669
▁puls~~16201
▁dreidimension~~398
▁verank~~18879
▁schaut~~5131
▁veranl~~14690
▁schaue~~9815
▁stattf~~15908
▁student~~18653
▁raffin~~3496
▁Puff~~9649
▁zentral~~6223
isan~~21063
▁fluoreszieren~~20593
▁attra~~18327
▁unsichtbaren~~15452
▁Zw~~7308
▁Zu~~6253
▁gross~~5492
igur~~20560
▁schlägt~~867
stätten~~13656
▁Ze~~7915
▁zukünft~~10463
▁Jonas~~20437
▁ZK~~18681
▁intention~~22692
meer~~7113
Vortrag~~17899
▁Handlung~~5024
▁Böse~~12293
▁Vorles~~10689
▁singt~~5412
fare~~22642
▁töteten~~16744
▁tier~~6150
▁nutze~~18787
iret~~21531
ires~~12022
▁elekt~~19104
▁tief~~385
glieder~~12338
▁Übersetz~~20454
▁nutzt~~9023
▁Laufen~~1686
ired~~22958
▁stattfand~~10186
▁gerecht~~12047
enschaft~~20318
flege~~11594
▁begren~~9020
fälle~~9851
opäd~~12949
▁Mechanismus~~12556
fällt~~10020
▁than~~23565
▁selbe~~13113
▁that~~22395
▁Mode~~13651
▁club~~22267
▁Marcus~~8561
▁minim~~1827
▁bewusst~~648
▁ultra~~17454
ifest~~16914
projekte~~4986
▁seit~~1024
▁lung~~23281
▁active~~22986
ärmt~~14997
▁seid~~10960
zulassen~~8764
▁sein~~1169
▁TED~~15
▁Hin~~11739
▁Hil~~14823
▁Elend~~9350
▁stabil~~1028
▁Hig~~20222
▁Steine~~14002
▁Hit~~16611
▁Hir~~11541
▁His~~24093
▁Hip~~5436
▁Grie~~19932
▁Death~~20041
▁auszuprobieren~~4818
ometown~~23479
▁erkennt~~7188
▁Kondome~~9246
▁Gamble~~22195
▁tausenden~~2748
▁unzure~~20809
folge~~10610
britann~~7631
▁theoretisch~~7992
folgt~~19375
▁Zusammensetzung~~2507
gment~~11301
liste~~9231
ultan~~21093
▁manche~~2563
▁hin~~449
▁hil~~10089
▁him~~15447
▁hij~~23467
▁aufgefordert~~13266
▁bibl~~20993
▁his~~19845
▁hip~~22697
▁mehrere~~384
▁Letzte~~4910
▁perfektion~~12598
iscover~~16560
▁Temperaturen~~15919
urd~~13302
ure~~5030
urf~~13526
ura~~4815
urb~~15954
urm~~754
urn~~15364
▁bald~~3009
inde~~3817
uru~~20431
inda~~16053
urr~~18714
ippen~~13301
gest~~4496
gesp~~8308
urz~~15132
▁wiederbe~~1984
scheid~~22427
kühlt~~11519
schein~~4393
▁Lama~~12414
▁eingehen~~13489
▁falten~~11220
▁Kanad~~16231
▁Kanal~~9991
▁Schilder~~12179
▁Baby~~1404
▁Website~~9138
▁Bereitschaft~~21068
ayer~~21077
▁absolv~~7871
▁öffentlicher~~13223
▁öffentliches~~18718
▁Gericht~~13253
kopf~~13839
▁einfache~~750
▁kein~~707
▁öffentlichen~~2396
▁einhundert~~9737
▁Blätter~~4255
▁Fahrt~~11570
itra~~22015
▁evolution~~5533
▁stattfindet~~2995
▁entlassen~~2508
▁besitzen~~5905
▁ansah~~9655
▁Messer~~3077
▁Hafen~~6286
▁stattfinden~~1978
▁metric~~23529
▁getragen~~8257
gespräche~~1942
tend~~13388
alteten~~9826
▁prototyping~~22280
tens~~6452
tent~~8887
ken~~4495
kel~~7963
kei~~21316
▁Movember~~21556
▁Mama~~15035
key~~13243
kes~~14230
ker~~9974
▁Mamm~~12659
▁North~~3854
▁gefilmt~~17666
▁anfühlen~~14352
▁Richter~~12270
▁Kleine~~6042
▁flag~~19706
▁Kleink~~2423
cent~~14867
▁Problemen~~8270
▁flat~~15247
▁immer~~554
▁Entwür~~12263
▁inert~~23283
▁Kirche~~13181
ammelt~~6228
▁Nicole~~12536
bär~~16234
▁immen~~6462
▁Quantent~~19268
▁einzigartig~~6708
▁gesetzt~~2725
reaktion~~16731
zusehen~~4533
enken~~11090
▁triang~~17131
▁spannend~~7492
▁Virtual~~22635
geschwindigkeit~~9469
▁Spin~~16176
▁Rechte~~13251
▁sick~~11692
▁sich~~160
▁Ecken~~9155
▁Lautsprecher~~20568
▁Rechts~~7015
party~~14750
▁Spir~~17118
▁Guatemala~~21555
▁speichern~~13179
rift~~17346
▁cue~~23461
Vort~~17653
riff~~21832
▁Kolonien~~696
▁Erklärungen~~12821
▁beängst~~6977
▁Times~~10429
möglichkeit~~10266
▁Grösse~~1606
▁Janine~~23073
▁bedeckt~~3938
▁Kreislauf~~6320
▁erlaubten~~6651
▁zust~~4426
zeich~~9424
loss~~20775
▁Röntgen~~11294
rott~~13474
lose~~1459
rote~~17423
▁verheiratet~~10978
▁Israel~~3578
▁identifizieren~~4475
▁modern~~8729
home~~23482
▁registriert~~11632
glicher~~4127
▁zahlt~~15159
▁Spaß~~1545
Up~~12240
rasch~~23825
Ur~~15558
Um~~3334
▁Buchstaben~~16561
▁Verbindung~~4695
glichen~~3469
▁zahll~~19662
▁separate~~17796
US~~14808
mudd~~23077
ervat~~13152
pür~~11054
▁Seit~~2264
▁StoryCorps~~24004
▁Koch~~16488
▁Seid~~10996
▁Seil~~10247
▁Sein~~7524
gruppe~~1847
imine~~21917
afrika~~14289
ählen~~4730
▁Professoren~~19175
▁natür~~22281
▁Glaubens~~3389
▁kennenlernen~~18983
itable~~23721
cting~~23848
▁holten~~2049
▁dignity~~23912
itis~~7355
itiv~~13499
▁dieser~~416
▁drauf~~4613
▁Kopenhagen~~15513
▁einge~~3441
▁herausra~~12671
▁diesen~~485
▁diesem~~273
▁Eisenbahn~~6323
▁ermächt~~1915
acle~~23168
ermaßen~~3828
▁Konzepte~~13232
edian~~21402
▁Gaza~~15942
stat~~4723
star~~7466
▁begangen~~4445
▁Auseinanders~~14877
▁frontal~~18824
stag~~5985
stad~~5447
stab~~14996
▁Maps~~19776
▁Brazilian~~23682
stal~~8017
▁Dopamin~~17443
hne~~8791
hnt~~5146
▁schütteln~~10118
tellung~~11051
▁zusammengesetzt~~597
▁Research~~5791
▁verviel~~13342
▁Ausmaß~~2760
ategien~~10645
▁Pestiz~~22087
▁prim~~10244
aub~~5562
aue~~869
aud~~14871
aug~~14465
auf~~1037
▁Sonde~~21844
aum~~3600
aul~~17451
aun~~10484
aup~~16699
aus~~186
usive~~20184
aut~~4859
▁priv~~17236
▁brauchten~~5113
▁Sicher~~12888
▁Matthew~~17193
▁änder~~21201
▁Mittleren~~14426
▁Hefe~~19593
▁Obdach~~16350
▁Affen~~12439
▁nein~~1557
▁Tech~~14836
▁städtische~~20259
▁Quelle~~605
▁Biolumineszenz~~360
▁hoffnungslos~~14501
med~~20785
mel~~5844
▁Prostatakrebs~~21557
men~~734
met~~4746
nicht~~8120
mer~~724
grenze~~4327
ungsfähig~~1580
▁Akte~~12304
grenzt~~10152
▁antwortete~~8200
▁gestartet~~7211
▁entwickelte~~6641
▁sche~~10171
▁Worte~~4969
▁schl~~2470
▁schm~~8265
▁schn~~6625
ifte~~14759
▁schw~~3255
▁flies~~16198
▁ästh~~13330
▁Lion~~18318
▁interpret~~16789
▁Augenblick~~953
eseit~~18738
room~~20037
▁eingeführt~~7229
äss~~1060
äst~~14774
▁analy~~24060
▁hinaus~~1158
▁Schwarm~~16182
▁Maske~~8939
▁11.~~7986
▁11-~~17395
▁11,~~21392
▁110~~3985
▁Schwarz~~12441
▁Umfeld~~2206
▁kontroll~~19580
▁Thomas~~5552
▁ADH~~16888
▁Strukturen~~5155
▁auswählen~~1200
▁fühlten~~13454
▁warten~~4612
▁wartet~~1038
▁analysieren~~7696
ova~~18956
ove~~19194
esten~~2079
▁Andy~~11579
besitz~~16471
▁offensichtliche~~14049
▁Kulturen~~3170
apse~~19677
▁grausam~~6513
öpf~~10143
äusche~~12017
▁worden~~1385
▁psycholog~~9026
osition~~18184
äuscht~~17220
▁trainiert~~8439
personal~~11181
▁Sieben~~11374
anim~~22944
ania~~21598
▁Börse~~4412
owers~~4984
▁Schlüsse~~11148
▁wund~~7100
zwe~~479
▁zieht~~7542
▁1999,~~7472
▁ziehe~~9332
▁These~~1015
▁ökologischen~~12007
▁Gründung~~15479
▁Nennen~~9519
gelder~~12708
▁Abendessen~~3820
▁Lande~~14258
▁Bund~~12818
körper~~3032
umul~~20425
▁bestrafen~~15388
utch~~21509
▁problematisch~~18042
▁Transition~~18199
▁passen~~4732
▁Friedens~~5818
▁Genuss~~9196
▁anfü~~16778
▁Einblick~~2742
▁pay~~23435
▁kriege~~8246
▁pat~~21318
▁par~~13861
▁adjust~~20674
▁eindrucks~~20690
▁pan~~8907
▁pal~~13785
▁irgendwann~~3826
▁kriegt~~9941
▁Ziegen~~18751
▁pac~~23926
agra~~22857
▁Ment~~1882
▁Modern~~6602
ärzte~~7435
▁Läh~~22674
▁Wölfe~~21540
▁Robotik~~20703
▁Sich~~12899
▁kommenden~~16908
▁auch~~272
usch~~13031
schirm~~3941
uries~~23673
▁Brasilien~~6135
etter~~18757
ettet~~20339
▁bedient~~18578
etten~~13052
ettel~~4372
▁Ireland~~12353
▁nerd~~14430
gingen~~13728
▁Metaphern~~15718
tellt~~20547
▁Steck~~11834
▁nerv~~10365
▁Ersparn~~7544
▁arch~~11875
▁Pht~~23939
▁Drohne~~21971
▁bringe~~15695
▁Verarbeitung~~11258
▁vorgehen~~20189
▁statistisch~~18479
▁definition~~21213
▁bringt~~4564
▁over~~20141
▁Große~~5058
▁Damals~~3321
▁Nerven~~1653
▁mixt~~20508
▁Seiden~~17752
▁überras~~20228
▁NASA~~10300
▁effiz~~21078
knochen~~10351
▁begeistern~~18690
gemeine~~19332
▁Engineering~~19853
ogram~~12677
▁zerstörte~~19339
▁weggehen~~14291
probe~~16153
▁exponentiell~~13085
hören~~5208
▁beispielsweise~~4485
bsites~~20924
▁Rolle~~4432
▁seltsamen~~15031
▁Christen~~14274
▁absurd~~1126
▁RISD~~22792
▁diam~~21544
sammeln~~7981
▁1900,~~20472
ierter~~3497
▁Hubble~~19349
iolet~~16590
▁profession~~13590
▁Linda~~21255
▁Banken~~15158
ieth~~7757
iete~~12269
▁Sprecher~~6083
▁geschaut~~18402
▁Sprechen~~1687
▁faszinierenden~~3777
▁pharm~~15400
iets~~7267
▁Banker~~7977
▁beträgt~~698
▁Technik~~231
▁fortgeschritten~~4911
▁Woher~~12687
▁WorldWide~~23743
▁Nieder~~3847
omb~~10065
oma~~18619
artikel~~4010
▁Universums~~11009
ome~~7160
omi~~16918
▁süchtig~~12321
omm~~1440
oms~~10014
omp~~13673
omy~~7354
▁Faden~~15895
▁Klassen~~2334
▁bewegten~~16013
▁ultim~~12228
▁langen~~885
▁Immunsystem~~9580
▁Schmetter~~15006
▁bedienen~~232
▁Pale~~20786
kugel~~15884
▁exquisite~~23260
▁umsetzen~~17773
▁Landwir~~15376
▁lege~~19411
▁wollen~~1122
▁legs~~21477
▁legt~~342
itions~~5179
basis~~20838
änomen~~19273
ting~~17316
▁Darwinian~~23093
interest~~21313
attering~~23008
oppelt~~12576
▁Jungs~~7770
▁betr~~18477
▁Junge~~2192
figuration~~4642
▁präz~~17421
▁Dichte~~196
gängen~~10213
▁Bert~~18985
ktar~~19715
▁Berg~~6596
▁Vereinbarung~~17147
▁Bern~~17177
▁Erwachsen~~9884
allel~~9000
▁Bush~~10462
▁Fakten~~6725
▁vorsichtig~~16247
elli~~18811
ello~~4794
▁schlug~~10235
ella~~20082
elle~~3774
elly~~21357
keley~~22417
kelet~~16271
▁zunimmt~~18568
▁Anstrengungen~~2761
▁satt~~19086
programm~~14862
800~~21922
agon~~10870
yen~~19659
agog~~2594
yes~~19660
yer~~11201
agos~~8812
▁Moor~~17632
▁Nein~~1087
▁Neil~~12106
▁höchsten~~1918
▁Cousins~~15856
▁sonderlich~~1088
▁Ethanol~~17913
antwortet~~23543
▁Sym~~4848
▁Syl~~22059
▁Syn~~9775
Art~~12502
▁chemische~~11596
▁gedacht~~5521
▁kümmerte~~11508
▁Square~~17581
▁augenblick~~18946
Are~~23341
Arm~~12542
▁Sys~~22492
▁Syr~~23044
▁Zugriff~~14394
▁Abenteuer~~10306
gypt~~23377
▁Cents~~5991
▁Neugierde~~4580
▁Hätten~~18633
▁irgendwel~~20545
▁Sche~~18771
▁Schl~~4736
▁Schm~~10377
▁Schn~~4270
ierende~~1745
▁degrad~~20495
istische~~6589
▁Schw~~3822
bewohner~~3341
▁erstellten~~16207
▁trotzdem~~2865
oren~~3017
ored~~17546
orea~~12475
▁Ironie~~3251
▁rechtfertigen~~15048
▁Frakt~~21391
oret~~14098
▁Cynthia~~21533
ores~~17109
▁sozio~~21625
▁entdeckten~~3298
▁Wund~~16785
down~~21076
▁Symphonie~~5338
ception~~16534
▁Kontakte~~16383
ätern~~1383
▁extreme~~5352
▁sym~~23174
▁syn~~14755
▁ton~~24026
▁Cub~~24046
▁tod~~11514
▁enthüllt~~9770
▁tox~~1052
▁ergreifen~~15466
▁top~~20963
▁tor~~14388
▁tot~~8437
ique~~21866
3.~~17693
▁Ohne~~4062
iment~~8157
▁40,000~~21010
ünft~~13606
uland~~21258
▁Argumente~~13026
dienst~~12291
▁Sch~~654
änzer~~21576
▁Stamm~~11121
zuführen~~2668
▁spiel~~7750
▁seltsame~~8421
▁Babys~~12836
▁sofort~~3294
▁lange~~808
änzen~~17158
▁Inuit~~22097
abdruck~~12637
▁Debatte~~2236
▁spezifischen~~10758
▁Journalisten~~2972
cking~~5130
▁üblich~~18705
▁add~~8137
▁ade~~22701
▁sequen~~16599
▁Antar~~16213
▁kommun~~10009
0~~8830
▁Krankheits~~14912
meister~~3760
▁sterben~~5753
▁poten~~10340
▁Objekt~~5003
▁Nummer~~6669
▁seltsam~~876
hlen~~12735
▁Hussein~~21215
▁Energy~~16188
▁Zauber~~3658
round~~16166
riest~~18649
▁Bären~~1598
▁Variablen~~2875
▁stell~~12887
▁Landschaften~~5512
box~~2872
boy~~17344
▁erzielen~~2301
bor~~5496
bot~~9289
bou~~14323
bow~~14435
bol~~16688
bon~~5784
uzin~~15553
▁Exempl~~13850
bod~~22748
▁Skept~~12759
▁Folgendes~~13391
▁Höhlen~~3183
▁Mü~~5827
▁belohnen~~19743
▁Mö~~4646
arien~~16679
▁verfolgen~~7234
arier~~9345
aries~~23454
▁EEG~~21187
▁Nerv~~6819
▁Begeisterung~~12099
fällig~~10540
▁Inzwischen~~682
▁versuchten~~4295
▁Bedenken~~18374
▁Beach~~5872
▁Vanc~~23402
▁übersehen~~7636
▁Intuition~~4512
▁zuständig~~7133
▁tele~~23668
▁tell~~22406
▁Franklin~~9025
▁verwurz~~11120
▁1960~~15380
▁Nä~~11078
über~~7437
aurant~~13055
öße~~20460
entwick~~11019
üben~~12261
ößt~~12092
▁Denkt~~12570
asien~~15826
▁Spermien~~11775
▁Dian~~21062
▁entwir~~10084
▁gelie~~18016
▁Dias~~16585
▁Bruch~~6345
▁Bruce~~7271
▁erforschen~~8384
▁befäh~~11861
▁bewegen~~305
aptop~~11939
▁Süß~~16842
▁mum~~11525
gebracht~~3960
▁Tunesien~~22130
▁mus~~4963
▁mur~~22292
landschaft~~18003
▁mut~~5773
tellen~~9472
aching~~22001
▁Regenwald~~1080
▁Benki~~22283
imente~~12378
▁Aufgaben~~1592
iments~~13011
▁Infektion~~6746
▁für~~118
▁fün~~15638
▁elektronischen~~8083
sweise~~12038
▁Lü~~14859
▁Doha~~19364
▁Wichtige~~8881
▁Gute~~2602
▁Imper~~14713
▁sprachen~~5610
▁Satz~~8056
▁Brian~~6098
oiden~~11503
▁Supp~~21801
eltern~~18753
▁Lego~~15081
▁Stimmung~~5462
auce~~22991
G~~1162
▁Meyer~~17774
▁anfühlt~~4484
auch~~6778
▁pumpen~~17279
▁begeister~~3461
frequenz~~19540
▁Weiter~~2329
▁BR~~21482
▁BP~~20905
übt~~10106
ätzen~~6311
▁BF~~12863
▁BG~~7650
▁BC~~23006
erecht~~21200
▁BL~~664
waffen~~14425
▁BJ~~22452
▁Bu~~14593
▁Br~~8601
▁By~~8514
▁Be~~972
▁Ba~~14532
▁Kriterien~~18834
▁Bo~~10013
▁Bl~~9896
▁Bh~~22198
▁Bi~~11110
▁idiot~~5664
▁wünschte~~14482
▁faszin~~11208
ighter~~23652
▁Maitreya~~19878
Leute~~12069
▁FOXO~~23569
lich~~383
▁Partikel~~15225
▁wahrhaftig~~19277
▁Analy~~20661
▁Perspektive~~6572
▁jugend~~1630
▁biochem~~4706
imon~~20991
▁Angriffe~~20153
ilemma~~15350
201~~10313
200~~11368
bett~~9003
▁Französisch~~20423
▁Sergey~~10307
20-~~20133
▁Kontakt~~10633
▁Rives~~19442
▁River~~17384
▁grosse~~1613
▁kaum~~5900
▁Londoner~~21005
▁Benjamin~~9024
fassen~~10708
We~~359
▁grundsätzlich~~13954
Wo~~4673
▁unreal~~18405
▁Pist~~15945
▁this~~23897
Wh~~19498
▁Schleim~~13579
spezif~~15242
▁versprochen~~18096
ges~~4192
ger~~4225
gew~~6173
ären~~3726
get~~4215
geb~~1466
gef~~2711
ged~~712
äres~~13712
▁Eigenschaft~~9330
geh~~2316
▁Schizophren~~21112
gen~~693
gem~~8231
gel~~776
▁Shang~~22746
▁Kenntnisse~~10488
▁gefunden~~3725
▁Mitarbeitern~~9124
▁gedruckt~~12726
▁Opern~~4985
▁sold~~23366
ence~~16454
▁soll~~1302
▁solo~~21981
▁fehl~~14347
ency~~23813
▁Graf~~22260
▁Grad~~524
▁Organization~~18722
▁Grab~~16620
▁Gewinner~~14438
▁Chinesen~~5698
▁wiederhol~~5504
▁Gras~~5508
▁Wänden~~5233
▁Gewinnen~~18490
▁auswirken~~12775
▁turb~~19262
osphere~~16173
▁Eigentlich~~4542
▁Kaffe~~18259
uty~~23129
▁weiterhin~~3514
▁stand~~2394
▁Joey~~20598
▁Joel~~19631
▁Atomwaffen~~14087
ision~~21088
▁illegale~~16802
▁unglaub~~19314
▁stigmat~~18357
ultiv~~11275
▁Derek~~20442
▁Unfälle~~15742
▁Erfindungen~~6207
▁bemerkten~~14821
ocampus~~23981
▁gebl~~17471
igkeit~~2240
▁benöt~~9720
▁beschlossen~~8600
▁mögen~~4622
▁gebe~~3996
gelenk~~22207
^~~20602
zä~~13826
▁weiteres~~8447
▁weiterer~~9178
▁kollekt~~13207
▁Codes~~17478
▁Galapagos~~7179
zü~~12402
▁weiteren~~2788
krank~~4946
iolog~~12651
▁bekannter~~15617
▁abgelegen~~7445
▁erfolg~~20859
▁Zusammen~~10707
heitlich~~5246
▁bekannten~~11013
▁menschliches~~3245
▁menschlicher~~1050
▁Türen~~6860
▁fantas~~23446
ächern~~15385
▁relevant~~9413
▁menschlichen~~3013
▁Republican~~13162
imeter~~704
affte~~13703
▁parallel~~10086
▁angeb~~10310
ukle~~12500
stellungen~~12631
▁verspricht~~6905
▁Mittelklasse~~14609
▁fällen~~13689
▁eB~~18050
▁Absol~~20620
stronaut~~7232
▁Ungerechtigkeit~~14519
▁Handzeichen~~17681
▁eg~~23394
▁Dienst~~1772
▁ed~~8549
▁ec~~23119
quelle~~6214
▁en~~5965
▁em~~15198
▁el~~3706
▁Moskitos~~17180
▁eh~~20749
▁ew~~18006
▁ev~~13734
▁Bünd~~18921
▁et~~10684
▁es~~161
▁er~~434
▁ep~~18148
▁Hauptstadt~~13781
▁Bade~~8683
▁ex~~10660
▁Zeitschriften~~13766
▁befestigen~~9794
▁Ameisen~~1585
▁Warten~~18505
▁weitermachen~~4958
▁Grenzen~~2692
uchtung~~19641
▁Republ~~18871
▁Briten~~3466
▁furchtbaren~~16701
▁Geht~~10998
korn~~11852
zahlung~~18125
▁kreative~~1932
▁Krankenhaus~~4108
Med~~14928
outs~~9141
▁Palä~~13748
Men~~17840
Met~~21435
oute~~11420
thalb~~12081
nehmern~~1878
▁Variante~~17125
▁aufgebl~~14451
▁Jahreszeiten~~7173
▁Unterhaltungs~~19994
olog~~18057
▁passende~~10416
▁transformieren~~1564
▁Call~~14866
kä~~12545
▁folgt~~9234
▁verleiht~~20024
agell~~19024
▁schaff~~8975
AR~~7128
kü~~8415
▁Bleist~~22904
▁zufolge~~16987
▁Auslöser~~11361
▁Inf~~8865
▁Ind~~10124
▁Inc~~20515
▁Inn~~12190
▁gleichen~~2207
unterricht~~9143
▁Ink~~12348
▁Santa~~10769
▁dunkle~~6941
▁Int~~4517
uropä~~7089
▁russischen~~11345
ased~~23338
▁jemals~~710
▁---~~18021
bür~~13376
▁verschieben~~21211
▁klappt~~4080
▁Bogen~~11847
treibung~~12760
▁Robo~~20696
▁Franc~~23041
▁erschaffen~~3566
▁Charlie~~17659
ursache~~18603
▁Thr~~20232
▁Thu~~23775
▁The~~8649
▁erschreckend~~65
faktoren~~19548
sequent~~2687
nitt~~19807
▁versucht~~1811
▁Ansammlung~~5939
▁unre~~5231
▁objekt~~10830
u~~1503
▁rice~~20830
▁Meinung~~1203
▁verleihen~~14306
▁versuche~~3812
▁mechanisch~~20004
▁genetisch~~11654
mäßig~~2172
▁Organismus~~322
▁bar~~3567
▁bas~~15345
ium~~8382
▁bay~~23291
▁Sollten~~6419
tragung~~18379
▁bad~~22185
▁bag~~22905
ius~~4647
▁bal~~12606
▁ban~~18791
washing~~24035
▁krit~~10587
probiert~~23103
▁krie~~980
▁Drake~~21245
▁Daten~~477
▁galt~~2128
▁immense~~21643
▁Spielplatz~~3720
▁Bäume~~11114
go~~14404
zero~~22138
▁Gelder~~2702
▁gall~~15250
gl~~11056
▁Blitz~~20085
trinken~~9704
▁nachdenkt~~124
▁Wirkung~~2676
vertreter~~19940
▁nachdenke~~15741
▁LOL~~21048
iums~~7110
▁historische~~14662
enschaften~~22677
▁Fahr~~13333
▁Luft~~2765
ineering~~22166
▁Gänse~~19162
▁wundervolle~~4204
▁entspricht~~2846
▁riesige~~151
▁Programm~~6892
ickr~~21373
▁still~~5485
komp~~12128
▁Zeitung~~2764
ital~~11812
itan~~13025
▁Finn~~19612
itar~~21306
itat~~14979
zust~~9700
komm~~8012
▁chinesische~~8392
▁Princeton~~10614
▁Act~~13250
▁Ach~~12993
halts~~12634
▁Acc~~22120
▁emails~~17820
▁Fähigkeit~~1477
stil~~11734
▁verläuft~~16632
▁Magazin~~1243
▁Wieder~~2129
▁klü~~7642
teils~~7428
▁Garden~~18239
teilt~~4266
teile~~4951
▁European~~22919
▁Sean~~21775
▁Könnte~~9935
▁Vene~~19813
▁Smith~~3370
▁Zeitschrift~~20764
▁Höhle~~17302
▁möglichen~~282
▁Abraham~~17116
messer~~15798
▁gewöhnen~~13114
▁Source~~15396
▁check~~23110
dney~~13941
hältnis~~18369
▁Orig~~19119
▁ele~~19672
▁elf~~14182
isation~~7839
▁geehrt~~18442
▁Paten~~8170
▁brilli~~23844
▁gegenseit~~17648
▁Satell~~21020
▁Twe~~10028
▁Lotto~~21605
▁wachsen~~1046
perrt~~13289
▁Two~~22836
äufe~~16984
▁witness~~23782
▁größeren~~1792
▁unber~~15734
▁unbek~~21527
▁unbed~~17670
▁größerer~~18282
▁größeres~~5329
mma~~12088
▁festgestellt~~5270
▁Eisen~~16227
▁pf~~20956
▁mehreren~~2893
▁Kindergarten~~2431
▁Kondom~~8222
▁Ret~~12590
▁Rep~~21592
forschung~~1432
▁Res~~6962
▁schüchtern~~5089
▁Rez~~21146
▁Red~~3815
▁Reg~~7183
ordnungen~~17445
▁Rel~~20440
llung~~15279
▁Ren~~20025
▁Rei~~21518
▁engen~~8694
▁Denkweise~~5672
▁enger~~16882
▁Individ~~13822
▁breit~~4891
ichtung~~3928
▁zitiert~~12722
▁199~~15129
▁198~~832
ypoth~~22752
▁193~~3374
▁192~~16074
▁191~~14700
▁190~~9440
▁197~~8650
▁196~~9756
▁195~~3306
▁194~~3575
▁Masse~~14590
▁19.~~14684
▁19-~~22933
▁19,~~14453
▁massiv~~12740
▁Herausforder~~4623
▁dominant~~21943
ation~~6351
uläre~~5365
▁Bälle~~13068
▁Archite~~22043
ahrung~~1140
▁vergleichen~~13400
esst~~17797
▁Essen~~3588
▁Cheryl~~23284
▁Biologe~~20812
esse~~6554
▁Elfen~~10031
▁englische~~3397
▁Tim~~9240
▁herzlichen~~3916
▁Paradigmen~~21095
öhn~~11273
▁Verbreitung~~9305
▁Spons~~21755
▁explosions~~9049
usions~~18932
orning~~15203
passung~~20655
▁kind~~13300
▁beunruh~~12783
▁Befür~~11858
▁leidet~~17233
utzend~~17424
▁Ausge~~12847
▁ALS~~19470
sprozesse~~20317
▁Lektionen~~2249
bal~~15199
▁Kids~~4853
▁Größenordnung~~11259
▁Freit~~22349
▁versteckten~~4089
▁Health~~20419
▁existierte~~6281
unkte~~15430
Gemein~~23303
▁anzusehen~~13480
▁Betrieb~~1067
▁Walmart~~18225
reitung~~19623
▁Vermögen~~14487
drucks~~5105
▁weinen~~5643
▁Reihenfolge~~15234
▁Schwar~~18323
cyclopedia~~22176
Yes~~22743
▁Kohlenstoff~~6979
▁Pandemie~~20012
point~~21865
▁schwarzen~~14975
▁schwarzes~~19331
gerin~~15965
▁zwischen~~391
▁Schwarzen~~6006
arbeit~~1870
▁Inhalts~~14986
sprache~~9301
▁Hersteller~~11985
▁lehnte~~19293
Spieler~~7747
▁klicken~~15294
▁zwe~~1141
ioden~~15731
▁Zuhause~~1170
▁Natasha~~23803
▁rollt~~14970
▁Plankton~~6023
▁persönlichen~~4334
▁persönliches~~5064
▁persönlicher~~10087
zieht~~6029
▁Wäsche~~19648
reibt~~8587
▁bildeten~~16078
reibe~~5277
▁regnet~~20408
▁schützen~~6939
▁lecker~~16805
ifft~~20999
▁körperlich~~4690
▁Cohen~~17507
steller~~15080
stellen~~4979
▁freedom~~16106
izip~~15310
izit~~10517
izin~~12757
▁brasilianischen~~20895
▁Projekts~~15811
cus~~13761
cur~~23573
cup~~23090
source~~22810
▁Projekte~~6461
cul~~14995
gefügt~~19111
▁Sold~~23951
▁Anbau~~11590
ield~~20084
iele~~12622
apest~~19302
▁Nar~~8184
iell~~9030
▁Ärztin~~12653
ielt~~2616
äft~~8400
▁Unternehmens~~17028
▁Sommer~~6527
schlüsse~~5916
grä~~15143
aution~~22605
▁fünfte~~18144
ächlich~~15816
▁Bedrohungen~~19816
▁zuhört~~7865
▁Tricks~~14943
▁Angebot~~15373
▁gekennzeichnet~~12389
▁sinnvoll~~9475
icro~~16375
oes~~18564
Bot~~19619
▁mitgebracht~~18009
oen~~21549
▁Fälle~~6718
oniert~~5093
▁Waren~~4249
zwungen~~18468
▁Ursprünge~~15926
▁ankam~~8793
leute~~17690
itären~~12005
▁Scheibe~~18418
erken~~21229
bedien~~15083
liegt~~4370
▁Leone~~15519
▁gelungen~~7310
▁changing~~22543
▁verbunden~~3118
▁RHex~~22310
♪~~20079
♫~~15678
▁gänzlich~~8711
jagt~~17173
▁Subs~~14915
planet~~19281
ensch~~9324
planes~~23384
▁künstlerischen~~13219
▁Weise~~1350
▁Diana~~15634
▁Glühbirne~~6808
▁Ausschnitt~~14283
ael~~10811
▁vision~~20095
diving~~17486
ansen~~17286
elles~~6417
eller~~5014
▁Saudi~~21360
ellen~~11618
▁Betra~~10178
ränkungen~~18228
▁Stämmen~~14806
▁Feedback~~6855
▁torn~~24118
▁endete~~2058
▁Titan~~11088
wards~~19392
▁Philanthropie~~20470
äufig~~12964
räfte~~2938
geborenen~~4762
▁Schritte~~1885
▁reicher~~3454
▁reichen~~12927
wasser~~802
sage~~9461
▁basieren~~8578
▁Möglichkeiten~~2710
Konferenz~~10205
▁Grün~~9062
ktivität~~18332
ausch~~13372
▁Millionen~~1025
▁Schaltkreise~~17412
▁hum~~21267
Video~~10287
▁organ~~2831
▁daher~~5983
▁video~~22954
▁Dubai~~20246
ußen~~7928
▁organischen~~12585
ußer~~21185
▁Stickstoff~~19692
▁Myhrvol~~21371
ears~~20054
▁first~~22397
▁Szenen~~6426
che~~4667
chi~~21300
chn~~4281
cho~~12340
chs~~3288
cht~~3230
▁gesünder~~9047
▁Bere~~8626
▁Intel~~20665
▁Inter~~4780
icillin~~19287
▁Membran~~11716
▁Kalten~~17343
▁eingebaut~~10561
▁Nieren~~8431
▁setze~~19308
prech~~8044
▁Schein~~14373
▁Scheid~~8272
▁halfen~~10173
▁Polit~~22199
▁Kasten~~20774
▁verletzt~~7488
▁etc~~8049
▁Schande~~10713
▁Pocken~~7318
▁Tans~~23229
▁Rosen~~9059
▁Tanz~~5374
▁brill~~598
▁Charlotte~~20230
▁Tank~~16825
inseln~~17983
ression~~17920
▁Zeug~~991
▁bezweif~~9077
▁Funktions~~16391
beweg~~13920
▁Sklaven~~15467
▁Diejenigen~~18131
▁Oreg~~21973
ature~~8528
maß~~9501
▁zwei~~458
▁Jäger~~15276
Krie~~21892
▁Antik~~20594
eum~~19158
▁Arzne~~20271
▁schockiert~~8213
▁Geheimnis~~6716
▁council~~21263
▁'9~~19526
▁'8~~18814
€~~22153
angers~~23267
▁beat~~21102
▁bear~~12450
▁Referenz~~8817
zustand~~10804
▁Angesichts~~14152
▁verdreif~~9492
▁Mathe~~1263
▁strateg~~8895
▁angeht~~6862
▁Variation~~14027
▁Gattung~~20333
▁Denker~~20098
ruktur~~17751
▁Denken~~1207
▁Carol~~16821
▁Est~~15480
▁Net~~15526
▁Neu~~3056
▁Ess~~16420
▁New~~5978
▁standard~~10705
que~~5895
▁Neg~~16313
yard~~21600
▁sage~~1496
▁als~~199
▁Hitler~~20805
▁sagt~~1402
▁Jüng~~11906
▁Sioux~~23716
usste~~14030
▁traurig~~1214
▁Club~~11433
Amerikan~~17841
▁plane~~9867
▁Learning~~23854
▁Musch~~16824
▁TEDTalks~~16752
▁Getreide~~6145
▁CEO~~20139
▁Vergewaltigung~~14508
▁Mädchens~~5670
▁BIP~~1252
kunst~~8557
▁net~~22630
▁neu~~834
▁Nehmen~~9429
▁alltä~~19224
▁Dimensionen~~6638
igungs~~8285
▁neg~~18308
▁neh~~19533
▁reinigen~~9889
▁wohnt~~7522
▁upd~~23266
▁tab~~22458
▁ups~~17898
▁solche~~462
mus~~7298
▁dünne~~9997
▁tag~~20434
▁adult~~23982
chnologie~~786
▁Universen~~18964
▁schwierig~~4359
bildung~~11032
kürz~~19252
▁geführt~~2479
▁Vision~~3329
▁unterdrückt~~14071
akes~~16467
aker~~19949
▁Globus~~7330
▁reform~~9259
aket~~20292
zusch~~12000
zeichnung~~1097
▁tra~~7562
▁tre~~12936
aked~~22311
▁Märchen~~1295
aken~~7196
zeigen~~11393
▁beruflich~~16215
▁simpl~~11221
▁anfing~~1817
▁Wüste~~13788
▁Scherz~~6407
▁Galvao~~23691
▁ängst~~12656
blatt~~4268
▁Lawrence~~13176
sebene~~15976
ammlung~~13167
▁original~~16301
Gesetz~~18936
▁notwendigen~~8762
▁Singap~~22158
▁schauten~~7778
▁befür~~9364
▁deprim~~17694
▁Rückkehr~~14660
schaf~~6961
▁lö~~11778
▁Paris~~13674
▁Jo~~16163
ousa~~23278
▁Jh~~16155
▁Vorhersage~~9438
▁Je~~1608
▁Ja~~1085
▁ebenso~~8900
▁Ju~~5427
iveau~~2307
▁anstelle~~11681
▁JL~~23932
iget~~18478
iges~~4550
iger~~1853
▁JH~~20107
zehn~~14266
ologen~~8430
▁JC~~17508
▁JA~~9204
▁sterile~~23378
rump~~22014
igen~~25
igem~~9772
igel~~13939
▁JR~~19549
▁JS~~13204
▁JP~~23453
▁Yellow~~19611
▁kompl~~23908
▁argument~~18656
brauch~~17013
▁kulturelle~~9181
▁Gulf~~24105
produkte~~5835
▁Überwachungs~~17516
▁dokument~~10553
▁PIPA~~22058
▁Ferien~~13611
▁real~~3692
▁Poet~~17208
▁reag~~8999
▁perfekte~~7535
fabr~~13568
)~~5237
▁Costa~~7158
▁Buen~~22016
gezogen~~7901
▁abgeschnitten~~2481
▁Senator~~21514
utlich~~19344
unahme~~21886
▁Humanity~~22329
▁Hektar~~6172
▁Sal~~15426
▁Sao~~20574
▁Maßstab~~2084
▁verrückten~~10376
▁Pretty~~22846
▁Cost~~8484
▁gefäl~~19223
▁Gehen~~1329
ettbewerb~~15059
▁IMF~~23342
▁inspirierend~~12119
▁Hügel~~6538
gleich~~2007
▁Jahrze~~23282
oughs~~23415
ought~~21938
▁Barrieren~~20348
▁Indianer~~17609
▁Georgia~~17082
▁Engel~~19428
like~~22949
▁Say~~18731
▁positiver~~9506
▁positives~~10828
▁positiven~~4672
▁Volumen~~11227
▁Leber~~17634
haie~~21955
enkt~~5724
enke~~12955
▁islamischen~~14718
▁Symph~~19323
▁Hypoth~~21591
▁häss~~13593
▁Sympt~~6742
▁Malawi~~17984
▁Überzeugungen~~2418
ashion~~22501
▁Scientists~~20569
▁motor~~20892
▁400,000~~19920
▁Stich~~8010
▁Stick~~17102
plätze~~8075
▁Inform~~17065
▁Thanksgiving~~16901
wach~~13881
▁enthus~~23165
▁Science~~12600
▁myth~~15348
arithm~~22957
ugend~~20889
hlt~~8532
sequen~~16596
▁Hierarchie~~13329
iologe~~17250
▁empfangen~~16354
kraft~~8646
seit~~13847
▁Gegenstände~~11944
▁Freiwillige~~4587
flie~~14993
sein~~1742
seil~~20735
▁software~~8352
▁Wars~~11964
ateboard~~22829
▁Warn~~18972
▁Ware~~7576
ople~~19160
▁attraktiv~~2321
ierbar~~17114
versagen~~19900
ubs~~5321
ube~~18558
uba~~22569
fische~~7206
ubl~~9802
▁Erschaffung~~5816
▁Mathematiker~~19402
wandeln~~23290
▁Albert~~10719
▁gig~~22999
▁vergangen~~11010
▁naja~~13128
▁beeindruckende~~9673
▁Balance~~12617
▁Weihnachtsmann~~23587
▁my~~5404
▁mü~~4188
▁Unten~~16622
▁hinauf~~6508
▁mo~~3782
▁Unter~~29
▁me~~3584
▁ma~~13828
@~~16748
omon~~12544
▁Vorbilder~~18788
▁unzählige~~11323
▁simulieren~~10854
▁Bühnen~~15086
▁abnehmen~~9606
omos~~15875
▁Wahrscheinlich~~4282
▁Integration~~12061
▁verbracht~~7042
school~~21999
▁mö~~19057
▁fatal~~20385
▁Leviathan~~21350
▁mittels~~3037
▁englisch~~20248
▁Weihnachts~~3808
▁bemü~~19136
▁Verkaufs~~12298
kut~~21428
▁Kompl~~17152
kur~~12921
kun~~21662
kul~~7299
Fil~~13238
stitu~~9281
▁Magazine~~5820
▁Forum~~16333
▁Fried~~2707
▁Reform~~13319
Ze~~18838
▁tauschen~~9855
▁Nobel~~8655
▁Ökonomen~~7000
▁inferior~~23522
▁Schild~~3930
▁Venezuela~~21983
offs~~23399
offt~~19144
▁immun~~12573
▁wirkliche~~10620
▁Moon~~23308
▁möglicherweise~~11193
▁Erlebnis~~4777
▁Marke~~3739
▁Todesfälle~~20474
tail~~20771
▁appet~~13024
▁Markt~~6077
▁Nachbarn~~5638
▁lust~~1852
quenzen~~10344
▁Vorlesungen~~10698
▁präzise~~5247
blichkeit~~21471
▁Simpson~~20373
▁stra~~12218
▁Abhandlung~~15395
▁GPS~~17982
▁Ebenso~~9453
▁insulin~~21581
▁Schne~~10077
▁5.~~11422
rians~~21443
▁löst~~13849
amil~~16879
amin~~6551
amie~~18483
▁203~~20817
▁202~~19365
▁201~~13937
▁200~~794
▁auszuführen~~20707
▁20.~~3216
▁20-~~16414
▁20,~~4766
▁recyc~~5922
▁20%~~20134
amis~~19120
▁ignor~~15619
auschen~~4403
▁betreibt~~9277
ima~~16031
imb~~8320
ime~~12300
▁Schauspiel~~4429
▁bin~~72
▁bio~~10294
imi~~16049
imm~~5333
▁bie~~16649
▁befindet~~6293
imp~~15112
▁biz~~19043
▁befinden~~176
400~~11423
▁bip~~19490
▁bir~~19351
▁bis~~288
▁bit~~23248
▁Gesamt~~11268
CHA~~23968
▁anger~~16281
▁anges~~6033
▁anget~~3871
▁angew~~8123
▁ohnehin~~18164
▁angef~~8224
▁angel~~16813
▁angem~~13975
▁angen~~19688
▁fokuss~~2825
▁wandeln~~5059
aler~~13586
ales~~1624
alem~~4107
alen~~399
aled~~12316
▁2006,~~7047
▁litt~~10493
itens~~21021
bracht~~17078
▁Interessantes~~14383
▁verte~~19423
▁lebens~~7408
▁Christ~~7861
▁lebend~~24
▁begeg~~5085
stück~~8758
▁Pestizide~~11625
▁Niemand~~2229
rängt~~8505
▁English~~18032
▁tagt~~9402
ragenden~~18977
▁tags~~12112
inos~~3322
▁grass~~22299
W~~355
▁Aufruf~~13206
▁Bezug~~2038
▁Plätze~~7643
▁Entweder~~9022
▁derzeitige~~6985
▁unster~~8520
▁fashion~~21321
▁Begriff~~1626
▁Virginia~~17252
▁pl~~18333
▁po~~5603
▁ph~~1296
▁Rechenleistung~~20691
▁pe~~20507
punkten~~13903
▁pa~~7203
▁Silver~~18171
▁Psych~~15595
▁Vorbild~~14670
▁Führungs~~19725
▁pr~~12133
▁Akt~~4773
▁Akk~~8139
▁erschrecken~~20144
▁Großbritanniens~~14714
sta~~18880
bridge~~24014
flugzeug~~17772
ibly~~22843
▁zweimal~~2465
▁zurückkommen~~14793
ible~~11538
▁Jenny~~10487
▁Method~~18658
▁Association~~18240
▁prototyp~~22631
▁Wärme~~16351
▁geschäft~~4521
▁oft~~3728
▁erfahren~~2011
▁Entdeckung~~6211
▁off~~22288
agnet~~22209
ameter~~19390
gefasst~~14055
▁Präzision~~5110
▁schicken~~5653
▁festzuhalten~~10174
▁täglichen~~16961
▁Bemühungen~~2583
studium~~12611
▁Right~~19513
feind~~10262
▁Infr~~21243
▁Anreiz~~9571
▁lässt~~2323
bek~~12287
▁Katze~~12420
▁Poliz~~14272
▁eth~~12532
▁etw~~21156
ben~~883
otor~~16682
▁Polio~~7273
▁musste~~3632
▁anste~~4182
▁Teleskope~~19330
farbe~~1199
▁Patricia~~20245
▁Konversation~~14123
▁Verwand~~14184
nisses~~2779
▁hyper~~15577
▁spüren~~3082
▁Tränen~~3429
nissen~~2588
mut~~437
▁Motiv~~19742
bildern~~7552
finger~~9657
mun~~13943
▁verges~~9819
▁beste~~4701
▁moderne~~6115
▁Ear~~7261
▁Redwood~~22881
▁Reaktionen~~11371
▁200,000~~22314
▁NY~~18878
▁Vorhaben~~18138
▁Roten~~7569
▁Nationen~~7041
otonin~~20596
▁Gal~~12989
ely~~16761
igan~~23510
cal~~22714
▁preis~~10986
▁melden~~16149
▁hindern~~13186
▁tiefsten~~445
uations~~24065
größte~~8840
▁pigment~~17461
▁Detroit~~16658
n~~2306
ität~~2501
itär~~7385
▁Firma~~1812
peratur~~14998
aunen~~15824
▁niedrig~~1265
▁unwahrschein~~20427
▁Que~~17297
▁angreifen~~11356
▁diskut~~3263
otive~~22370
▁Entscheidungen~~1787
▁Stone~~9766
unter~~2963
▁ähn~~14541
▁Anti~~15460
▁Anth~~16727
▁geworfen~~3542
▁fuck~~23444
▁Isolation~~16870
▁jagen~~1597
▁folgendes~~4368
▁folgender~~9363
▁folgenden~~1559
▁Splashy~~21899
▁übliche~~9590
herstellung~~18298
▁1500~~4629
sphase~~13159
▁repet~~23817
▁Sorte~~17085
passte~~15632
gende~~2244
genda~~21416
izenz~~8412
flaschen~~5878
▁erhält~~5177
ianer~~17617
▁Dankbarkeit~~17758
▁aktivieren~~6854
▁Ernährungs~~6372
▁styl~~22517
▁sitzen~~496
▁Ath~~11489
▁Myhrvold~~19960
▁Att~~20364
▁Fertigkeiten~~8114
ennig~~23887
▁Johnson~~10231
ennis~~23154
▁fließt~~11872
▁Patienten~~4148
▁entwirft~~6633
▁Spitz~~13783
ooten~~32
feier~~3818
▁Phänomen~~2809
umer~~15649
▁Sprit~~11499
umen~~18431
▁Ursache~~11867
▁Behauptungen~~19691
▁Quanten~~13366
▁Quest~~22707
▁beweist~~7594
mär~~9052
bü~~16655
mäh~~23493
hst~~5487
▁gründlich~~9011
▁schon~~228
▁jedem~~2722
▁Wikipedia~~13173
▁jeden~~2619
▁Bruttoin~~23585
▁Lust~~1316
▁grund~~17837
▁jedes~~1063
▁jeder~~1859
▁value~~22704
▁Suppe~~13066
abet~~10505
aha~~12161
aber~~19447
▁ausl~~14844
ppe~~15916
ahe~~21737
ianist~~4906
▁ausb~~13283
ahn~~467
ahl~~3626
fern~~4832
ahr~~6988
▁Francisco~~2803
fers~~22781
▁ausz~~9127
usst~~3205
ppt~~13915
aben~~2429
abel~~1970
▁aust~~905
achstums~~14763
pläne~~13536
▁Avenue~~11836
▁Jacqu~~18665
▁Ziege~~12410
Amer~~20918
▁bedenkt~~5456
▁sensor~~19077
schauen~~10366
▁verbrauchen~~9953
▁seltenen~~14261
▁unglück~~5921
▁echt~~3894
▁Vergleich~~2250
▁Stewart~~3417
atts~~17905
▁Kilo~~16236
▁Grundlage~~7841
▁Andre~~1995
▁quo~~10550
▁Ministry~~22485
atte~~4462
Vor~~15375
▁zog~~7775
▁Aussage~~9394
olekü~~19101
▁terminal~~23014
▁namens~~4591
▁schlauer~~16554
▁gibt~~162
▁185~~10918
zubauen~~9055
iction~~16446
▁Bildschirm~~5043
isieren~~4725
▁Kevin~~6460
▁intervention~~23629
▁Tempel~~6221
roh~~11398
▁gäng~~9035
▁engl~~22420
rok~~2627
rol~~11735
rom~~4593
ron~~3142
▁Behinder~~22239
rob~~19698
▁enge~~5099
rog~~6479
rumpfen~~3022
▁verursacht~~3109
rop~~3629
ror~~16582
ros~~4057
rot~~7378
rou~~3762
row~~17534
odynam~~21461
▁wenig~~418
▁Grundsätze~~14060
▁Trennung~~6580
▁Hoffnungen~~11857
änz~~19605
änn~~22700
▁Panthe~~24077
▁beteiligen~~12109
äne~~8309
änd~~3221
▁Stanley~~7855
level~~19477
▁Publik~~17350
▁Amerikas~~17041
▁Alabama~~15301
▁Sarah~~18436
▁Neuse~~23100
pora~~21814
ymph~~12789
▁Nobelpreis~~8616
▁bemerkenswert~~6127
port~~14569
▁Priorität~~19056
▁Anim~~22277
▁Geruch~~15640
Que~~22500
▁erkläre~~4598
▁erklärt~~6457
▁Lektion~~2258
▁Nacht~~5628
amele~~21593
▁Lyn~~18508
▁glamourös~~19346
▁psychiat~~15088
nehmung~~19422
▁Versagen~~15690
▁Mrs~~16706
▁Forest~~18243
▁Warnung~~8971
▁Ökosystem~~1023
ando~~19630
▁Schulter~~5136
ande~~8013
anda~~10080
▁komment~~5722
abbat~~21340
pret~~20334
ands~~1138
▁Volkes~~14706
▁besteht~~257
These~~22633
Wieso~~10983
matic~~23452
▁Gramm~~13062
▁Alban~~17707
▁w~~2744
▁v~~930
▁u~~18162
▁t~~4228
▁s~~7456
▁Sexualität~~15211
▁p~~2592
▁z~~2838
▁y~~10601
▁Fledermäuse~~19416
▁g~~1762
▁f~~210
▁e~~3601
▁d~~608
▁c~~9397
▁b~~1642
▁a~~2153
▁o~~7165
▁n~~3162
▁m~~3283
▁l~~933
▁k~~366
▁j~~9870
▁schwach~~1596
▁h~~1457
▁depressiv~~20059
▁V~~3307
▁U~~452
▁T~~49
▁S~~1813
▁R~~2428
▁weniger~~2223
▁P~~981
▁Strom~~6652
▁[~~2798
▁Z~~870
▁Y~~4782
▁X~~353
▁G~~770
▁F~~2907
▁E~~1238
▁D~~3923
▁C~~3586
▁B~~599
▁A~~3767
▁O~~7001
▁N~~2062
▁M~~1186
▁L~~616
▁K~~732
▁J~~5369
▁I~~1354
▁H~~577
▁7~~2189
▁6~~1287
▁5~~705
▁Entstehung~~12587
▁3~~136
▁benach~~6833
▁1~~7479
▁0~~19538
▁?~~16141
▁Ewigkeit~~14013
▁:~~10272
▁9~~2457
▁8~~2163
▁'~~3452
▁%~~127
▁"~~251
▁lyr~~19309
▁.~~5170
▁-~~1241
▁,~~5936
▁mess~~2718
▁Bohr~~17934
▁aut~~1714
▁unaus~~3468
▁chinesischen~~13060
ändern~~9201
▁White~~15442
uters~~15423
▁unauf~~10206
▁chinesisches~~15715
ändert~~16443
denken~~3208
▁Che~~6268
▁Schlüssel~~2757
▁Partnerschaft~~7323
▁ernsthafte~~21190
▁Chr~~3080
▁1920~~17856
▁Bambus~~18010
▁staatliche~~20127
▁ausn~~10989
▁'90~~19829
▁Produkte~~5832
▁rosa~~12591
▁please~~5408
▁rose~~15762
▁Hollywood~~3232
▁loud~~22952
▁SIe~~11069
ahm~~6917
porters~~23933
ahs~~12177
▁Wiederaufbau~~13702
▁gehst~~1845
fert~~13857
ötet~~8107
▁Sprung~~7893
▁Videospiele~~17366
▁Cook~~16330
▁ich~~220
▁behandeln~~1487
▁exakt~~7599
▁Everywhere~~17664
ützte~~4497
▁behandelt~~3993
▁Affe~~12547
▁Gruppen~~2441
▁Quantenmechanik~~15698
▁Urheber~~13268
▁institution~~20118
▁Homer~~13862
ptions~~21174
▁echten~~787
▁bezieht~~14020
▁echtes~~4959
▁echter~~5560
▁Teppich~~8052
▁Belastung~~11754
▁rannte~~7786
▁koordin~~7182
orrow~~20469
▁symmet~~12041
▁körper~~13978
▁Intelligenz~~14436
fordert~~2454
grund~~674
▁Verteid~~14730
▁Intelligent~~20677
fordern~~10994
▁Rande~~9140
wärts~~14608
udert~~19667
▁regelmäßig~~7717
▁durchlaufen~~17182
▁Verbesser~~9850
▁foss~~18605
öntgen~~23270
▁Woch~~23309
▁Deine~~13290
aschine~~10440
▁Felsen~~1094
▁Antikörper~~16730
icon~~22121
▁Schäd~~9511
▁Beide~~8491
▁Prest~~19218
äuren~~18079
▁Press~~14654
ederal~~18922
▁besuchten~~15570
Bitte~~10131
▁Etwas~~4506
urge~~24008
▁gelöst~~4413
▁Sonnen~~708
bereitung~~13810
igende~~4064
umines~~19025
▁wieviele~~19944
▁bein~~18375
▁beim~~2467
▁beit~~2750
▁beis~~10636
▁beiz~~2554
▁Malaria~~7485
▁Neuronen~~9616
▁Oak~~19324
▁Andro~~16529
ließt~~11622
▁Adopt~~16875
▁emergent~~20319
▁latein~~13867
schatz~~6600
▁drüber~~8950
▁metaphor~~16265
▁drüben~~809
baute~~6386
▁erklär~~3408
▁gratis~~18746
▁banal~~16392
geschritten~~4637
▁Rabbi~~18451
▁kennenzulernen~~14537
▁moment~~12580
glers~~20498
▁trennt~~18494
▁wohl~~3215
▁rekonstruieren~~17156
▁spezialisiert~~12733
▁Fasern~~9985
änglich~~5775
▁davon~~95
▁neuesten~~13196
▁politischer~~14022
▁davor~~7833
▁Kurs~~8892
▁Schönheit~~8301
▁Resultat~~9593
▁Momentan~~18432
▁Angestellte~~1776
▁Danke~~1149
▁Schauen~~4683
▁Bobby~~18453
fluen~~21725
case~~22931
▁wörtlich~~14127
▁Bege~~11087
cast~~9961
▁Ernährung~~6201
▁Begr~~17294
▁Tunnel~~21420
▁Erstaun~~5758
▁Unabhängigkeit~~3384
▁alleine~~2629
▁Nationalpark~~14336
▁Linken~~12879
▁Zeitraum~~4541
▁Wunde~~10975
▁jungle~~24031
▁Stelle~~932
▁Geomet~~22638
▁Chand~~6760
▁Stellt~~17031
week~~18044
orph~~13825
▁Society~~18668
▁breiten~~12646
nchen~~9898
▁starke~~4199
▁Kult~~9033
▁mex~~10913
▁ausgeht~~13602
▁mer~~15902
▁met~~14981
▁men~~23396
▁mem~~23094
▁mel~~11513
▁Entwicklung~~1662
▁med~~17184
druck~~1344
ämpfen~~9890
▁verändert~~1426
▁verändern~~4842
lets~~19393
▁Verstehen~~5141
lett~~15014
ämpfer~~12967
letz~~13726
▁Trommel~~18531
▁steckten~~17916
idepress~~22650
Mann~~9929
▁Laufe~~4218
dete~~11170
Kur~~10433
▁Friede~~14271
▁Würfel~~5035
zulernen~~21837
▁Grippe~~20288
aust~~8106
▁Tokyo~~3872
▁Gh~~11096
ause~~11888
auso~~23241
porter~~18457
icheld~~21993
▁Go~~13425
schir~~9914
▁externe~~12256
ocation~~23678
schie~~7954
▁abläuft~~8875
▁Paras~~14757
armherz~~14145
▁Brust~~7898
idence~~14331
▁Parad~~18551
ografen~~21790
▁Käse~~16499
▁entnehmen~~17188
eteria~~18792
rahlt~~17370
▁Plus~~22835
▁Plut~~10695
▁Anzug~~13341
▁dynam~~17453
▁Steuern~~2393
gesagt~~18874
▁Nike~~14599
ehn~~22802
ulate~~18750
kehr~~8118
ehm~~18168
relig~~20747
▁Phän~~15541
verstand~~17245
▁Monate~~1891
▁Experiment~~4251
▁Ökosysteme~~17622
▁miserable~~21586
grass~~23138
▁Monats~~8189
▁sound~~20788
▁bist~~1505
▁Mission~~4438
▁könne~~8211
▁brasil~~17572
▁2.~~5811
▁erfasst~~5931
▁2,~~11075
▁26~~7392
▁27~~7875
▁24~~6798
▁25~~3275
▁22~~8071
▁23~~8311
▁20~~1965
▁21~~14042
▁2:~~10318
▁28~~9672
▁29~~8019
▁Eben~~11251
▁Taschen~~9236
▁Grenz~~7647
▁Kreat~~9131
▁nahezu~~7123
orien~~6040
▁ihre~~773
▁aqu~~21730
platten~~17526
▁theoret~~17498
ories~~17781
▁bemerkens~~3312
▁Court~~20737
▁bestimmen~~10759
▁Pionier~~19906
stellbar~~11272
endste~~2666
ützten~~11177
▁beschäft~~14860
genten~~16180
▁sequ~~22033
▁heutige~~2193
▁Pre~~8703
▁Pra~~21080
▁Pro~~3498
▁Pri~~16417
roc~~17897
▁Ankunft~~19929
▁Renaissance~~10879
▁Boeing~~19204
▁Unterschied~~4025
▁verließen~~7733
▁Prototyp~~5007
▁indo~~22445
becken~~6972
▁monat~~2389
list~~16415
▁merkt~~11838
▁reif~~14028
▁rein~~6624
▁reim~~22294
▁indu~~18655
▁landete~~7970
flich~~17277
▁Highschool~~17687
▁lehrte~~11930
▁Agnes~~20352
artha~~15109
▁Kannst~~14190
▁bedeutet~~1749
▁Saturday~~21113
sun~~10188
sum~~20755
▁Davis~~17283
▁Mitgliedern~~9045
version~~13303
▁David~~4
▁bedeuten~~9434
▁berechnen~~11308
▁Gilbert~~17908
▁berechnet~~8738
▁Coke~~16058
▁Erfinder~~2986
▁r~~1104
▁Maslow~~16352
▁Herbst~~14738
gebä~~17645
▁gern~~1755
▁gere~~11463
beste~~20256
▁Manifest~~1153
▁zugänglich~~5057
▁Krähen~~14743
▁Veröffentlich~~2265
▁iPod~~2364
▁nuklear~~11369
▁verschwindet~~4997
chselt~~4118
ense~~15409
▁Metap~~21849
▁team~~20658
▁Jake~~18623
▁Raten~~11143
▁Führ~~18190
reiß~~4140
▁Aspekte~~5192
ahrscheinlich~~6170
schra~~21727
raums~~6957
sver~~6909
okal~~12934
▁Madag~~6951
▁infant~~15044
perten~~6931
▁Länge~~4210
okab~~21995
▁Offenbarung~~10851
▁Protein~~9547
▁behaupte~~9352
▁journal~~19868
shore~~22249
▁publ~~18671
▁Ut~~16913
▁Us~~19359
▁Ur~~6151
▁fotografieren~~6953
▁Up~~12367
▁Ug~~22756
äng~~8175
länge~~9980
▁Un~~1873
▁Um~~2211
orpel~~12998
▁Uh~~20944
▁UV~~10806
▁US~~8826
▁invent~~22861
▁UF~~21246
▁UC~~17282
▁UN~~13686
▁wollte~~1822
bour~~21563
wählen~~11889
▁gefangen~~9882
▁Public~~17702
grippe~~21728
▁Doug~~11480
ämie~~11604
▁Hawking~~18129
iegend~~14724
riculum~~22274
utung~~11553
▁euer~~13556
▁entstehen~~6030
▁Text~~5645
▁bild~~6542
Mus~~4884
▁bill~~18218
iologist~~21302
▁Information~~6813
▁Industr~~22732
▁ausländische~~8756
hill~~13014
▁pink~~12684
▁Großbritann~~22850
▁analog~~14063
attform~~10237
▁wieso~~4090
▁Vors~~6975
▁Jacqueline~~19701
kuchen~~17843
▁Europ~~15064
▁Mücken~~15003
▁Vorm~~13995
ümm~~14168
▁notor~~21013
▁Misser~~16900
▁dezentral~~20310
▁gelegentlich~~9817
story~~19846
sprogramm~~7374
▁Pic~~21128
illen~~10907
▁Pin~~19241
▁Pil~~20981
▁sele~~17358
▁Pik~~11864
▁malen~~6485
▁Pir~~7807
storm~~20699
▁Marco~~16710
▁Rory~~21066
▁March~~20580
▁TM~~22469
▁Münze~~10480
werten~~8077
kind~~7771
▁tradition~~9338
▁erhoben~~10316
▁vorne~~325
▁epidem~~16156
kins~~19192
▁stunden~~20179
wertet~~18233
werter~~3313
chite~~18775
▁Teufel~~15093
jähr~~21265
▁Lueckert~~18677
▁Institut~~9572
▁antwortet~~15039
steht~~11536
▁750~~7652
▁steigt~~436
▁unbe~~3202
▁Wik~~20866
▁Wil~~11326
▁Win~~19123
▁Wie~~679
▁Wid~~10169
▁Treat~~22378
verbindung~~16282
▁Beobachter~~19042
▁Wis~~20979
▁Wir~~74
▁Wit~~14183
gill~~23390
▁Anderson~~4071
aman~~22010
▁geistige~~6222
amas~~18252
▁Förderung~~1851
▁größte~~2675
▁Ahnung~~170
▁reduziert~~3064
ikatur~~21118
lying~~17490
▁genügend~~8747
▁benutze~~1526
▁Umstand~~5463
▁betrunken~~18295
fining~~22110
arren~~15078
▁Hätte~~15049
▁Ohren~~435
ies~~1633
ier~~276
ieu~~22358
iet~~3049
▁Bibliothek~~12237
traum~~2935
iel~~2463
ien~~1157
ieb~~13280
▁schaffte~~15403
ied~~8047
ieg~~8535
ief~~17582
▁Brasil~~17560
chnen~~2877
▁befried~~16336
nut~~23889
▁grat~~17799
▁Zufälle~~15753
▁grau~~17715
▁synthet~~11689
▁zustimmen~~12006
rebs~~15784
▁win~~19991
▁wie~~146
▁wid~~62
▁Relation~~19628
▁wir~~93
ingo~~13227
▁entschied~~6575
▁Straft~~17372
inge~~280
▁Abweichung~~13369
ingt~~9883
ingu~~9877
ings~~3690
urch~~2169
▁rennen~~3571
▁Herzens~~20341
uum~~14015
fgh~~22064
▁Sexual~~18279
▁draussen~~13035
▁Animationen~~19291
▁Cluster~~20485
▁Risik~~8717
▁Enriquez~~17401
],~~10925
].~~10914
▁ver~~550
▁Krieges~~9264
▁ven~~24049
▁Atheisten~~4355
▁unbewusst~~21719
mensch~~13007
önlichkeit~~20234
▁Kyros~~14614
▁Wichtig~~6878
▁viere~~5025
▁Fot~~17387
▁Experimen~~11987
▁erziehen~~17655
▁Erdn~~13063
▁Erde~~48
▁Delhi~~11873
▁Produ~~11038
▁Valley~~11955
▁einzigartigen~~7101
▁konkre~~20121
▁Antarktis~~15891
▁verfü~~7514
ivalent~~11246
▁mand~~21548
regende~~9708
▁Mahl~~5360
▁Erdöl~~18206
mmern~~17408
ureka~~19762
▁insgesamt~~10410
▁betrug~~9724
shirt~~21467
▁Gegenüber~~9927
▁verdammt~~9557
▁verrückt~~5186
▁Scratch~~23566
▁Versprechen~~1986
▁Kommt~~12913
▁Later~~21296
9~~10412
▁vereinfach~~11544
▁Connectome~~19669
▁alltägliche~~15561
▁Security~~22593
▁one~~21404
▁Labs~~21520
ession~~1536
▁bicycle~~22526
▁ausgelöscht~~7284
▁Haup~~18344
▁Haus~~3791
▁Haut~~6642
self~~13468
▁Bevor~~1193
▁bevorzugen~~16146
finden~~13429
▁Anfangs~~19981
▁Polar~~14156
▁Nordamerika~~2180
▁aufnahm~~10279
alysis~~20290
▁signal~~18993
▁Klimawandel~~2746
weite~~14059
▁Arizona~~17388
esehen~~10305
▁geomet~~11244
teid~~19018
tein~~16321
teil~~1576
▁schweren~~15138
▁schwerer~~11921
▁luden~~8789
▁unheimlich~~15730
▁Derart~~22188
indest~~15702
▁sink~~2061
▁sinn~~2714
▁sind~~317
▁angenehmer~~19374
▁sing~~14256
rien~~9540
▁cre~~21194
ried~~8949
rief~~7289
rieb~~12343
riet~~23212
rier~~14722
ries~~20367
▁Wissenschaften~~2772
▁kümmern~~1849
▁kümmert~~6483
elzen~~5847
erweise~~4968
Rob~~16656
▁hochauf~~19195
▁überraschte~~18407
▁langfristig~~21175
▁ungeachtet~~9792
▁Woman~~20069
issionen~~15933
▁revers~~23216
inkommen~~7190
▁wär~~10988
ibung~~20734
etch~~15051
ixt~~19501
▁verursachte~~1394
▁sorgfältig~~7888
▁Interaktion~~10702
helfen~~21429
andt~~12956
▁ähnliches~~2915
▁Kamera~~5190
▁berichtet~~1246
▁Mull~~16726
▁Indian~~18454
▁Mult~~14617
▁berichten~~13950
▁Zurück~~2361
esch~~7050
▁Wörter~~12044
▁teilte~~4974
wendungen~~15153
▁Arbeitgeber~~2108
▁koll~~17100
▁poo~~23911
▁Brad~~19200
▁Tätigkeiten~~4936
▁Senior~~8768
▁Brah~~16048
peace~~21901
backs~~12896
▁Bran~~22720
nick~~18708
▁voneinander~~1103
▁Stoff~~888
▁Armuts~~21772
▁allgemeinen~~9078
▁herbeiz~~9734
ziehung~~2425
▁tats~~22794
▁Table~~3075
▁verringert~~16852
▁Schlimmste~~6796
▁herbeif~~19095
▁weibliche~~8244
▁verhält~~17430
▁Rub~~11049
gression~~9695
▁Rum~~12168
▁Run~~16550
▁Ruh~~13971
▁Kiefer~~17979
▁Rup~~21324
▁Rus~~20715
▁vergröß~~14833
▁World~~15263
▁Wände~~5037
▁verwirr~~20487
gans~~19673
gant~~16373
kanal~~17276
Eine~~14273
alien~~16854
osphäre~~11064
unes~~19145
ardino~~23274
ummeln~~1643
▁erheben~~15951
▁hinten~~9128
▁anstellen~~13814
▁Buddha~~19875
▁vermuten~~1727
▁notwendig~~7019
tausende~~5964
▁runter~~3851
▁Anstieg~~8663
P~~2055
▁umsonst~~6732
▁Vitamin~~7484
▁aufzuhören~~3825
gründen~~7464
zeit~~2093
▁2~~2939
▁Apfel~~17842
▁verliebt~~13386
eding~~23263
fold~~21466
folg~~9148
dass~~1375
▁Widerspruch~~9041
▁wahrscheinlich~~684
▁Self~~23541
▁locker~~18534
▁Option~~13229
▁Gebrauch~~8214
▁Selt~~12918
▁schwe~~18160
▁2050~~6155
▁5000~~9992
▁saß~~8376
▁Luke~~11965
writer~~17535
voll~~2880
app~~6938
▁Transpar~~23731
apt~~15692
api~~19972
▁kollab~~18227
▁mysteri~~13286
apa~~19446
ape~~15067
fron~~14843
▁abgeschlossen~~9588
▁every~~22398
▁Unbe~~15736
▁menschliche~~1481
Gut~~13992
▁Trainer~~7749
▁x~~10603
▁eas~~23943
iegen~~2067
iegel~~10767
▁Rennen~~9029
▁Expl~~2859
▁gefiel~~16931
▁Port~~6935
zeichneten~~13873
spartner~~362
▁anfassen~~13358
atisch~~20415
▁überl~~9220
▁erwachsen~~10104
▁übern~~19186
▁überd~~20057
ärkt~~15796
zählen~~4342
▁übert~~5265
▁Sternen~~15274
▁überw~~11903
▁übers~~10329
▁Cura~~23970
▁Buch~~1897
▁source~~17577
▁alles~~318
▁Hundert~~5963
▁i~~3158
▁Buck~~23017
▁umweltfreund~~13615
▁W~~939
▁jüngeren~~7765
▁fettleib~~6193
▁übernehmen~~2932
▁verwandelte~~11126
ruction~~22148
▁bekommt~~4410
▁absol~~7880
▁Q~~14544
▁wichtige~~2197
▁]~~22564
▁ansprechen~~4913
▁beschw~~11400
▁Stroh~~18200
▁1930~~15949
▁Versuchung~~4345
1~~2904
▁Ariely~~4084
▁Entschuldigung~~12884
▁deutlich~~2070
gler~~14773
gles~~20952
▁bekomme~~9139
versorgung~~8620
▁beschissen~~14840
▁wenigen~~446
regeln~~16926
▁gerät~~11870
▁forens~~17334
▁Skelet~~16290
▁Kampagne~~5750
▁Wichtigste~~1959
edia~~14674
edic~~22504
oun~~5252
oul~~5071
oug~~22187
▁Ukraine~~20808
oud~~17042
▁4~~2737
▁Lebensunterhalt~~6728
ous~~15769
▁hauptsächlich~~2261
oup~~13460
out~~8973
▁jenes~~9653
▁jener~~13427
▁gegr~~11416
▁Anas~~22096
▁Empire~~17591
▁Alaska~~20900
▁jenen~~9524
▁jenem~~6499
▁Nigeria~~7603
▁Gesicht~~473
▁Bildungs~~2087
▁aussieht~~471
g~~985
schaffung~~21756
▁120~~2912
▁125~~20897
▁12.~~7699
oß~~18696
▁geleitet~~11569
▁beunruhigt~~9357
öffentlich~~21176
ioren~~15605
indruck~~2665
▁/~~16099
▁geheimnis~~8572
▁imagin~~18909
▁logische~~19178
▁Dennis~~17828
▁Brustkrebs~~11664
inners~~23822
▁erinn~~23443
▁kleine~~912
▁Anthrop~~13768
▁2030,~~21414
elta~~20840
ringen~~237
anlage~~8286
bstoff~~12012
▁gefragt~~678
üster~~6197
üstet~~11476
üsten~~12707
ernährung~~8664
▁Entwicklungs~~7461
▁cent~~4302
whe~~23169
▁begraben~~13805
ht~~671
werke~~7256
hu~~17205
▁Künstlern~~11011
▁Einwohnern~~17595
▁löste~~3456
▁visual~~5879
▁drehen~~1470
itionen~~4518
▁geben~~938
▁konzentrierten~~14606
▁rechte~~12529
▁Hür~~18382
▁Elef~~24103
▁rechts~~536
utter~~6148
▁ungeheuer~~4018
▁Hosent~~8346
▁Namib~~23172
▁Sinn~~1990
▁Grow~~22089
▁Sind~~4226
▁Sing~~16134
▁nächsten~~2341
▁Student~~2953
▁Realität~~2209
▁nächstes~~4757
▁ungewöhnlich~~7164
▁hüb~~20632
▁nick~~23009
▁nice~~20833
istischen~~11613
▁atoms~~24125
ächten~~14848
ächter~~13270
ogenese~~11214
▁vernetzt~~10074
▁vorüber~~9687
▁Forsch~~15850
jor~~23478
ability~~22234
joy~~22826
▁ple~~13509
▁McLuhan~~17112
job~~3881
▁verwirklichen~~15463
▁behalten~~4466
▁Analyse~~3060
▁Politikern~~17709
▁Ansatz~~4130
▁total~~7835
▁Meme~~1167
▁Bollywood~~22211
Meth~~9569
▁Sputnik~~11327
unclear~~23502
▁diff~~17290
▁genauen~~10756
▁genauer~~7695
▁platzieren~~5176
▁grös~~23045
▁herkommt~~10073
▁einmal~~249
▁Houston~~20876
▁Nahrung~~875
ilos~~19946
ilot~~21202
▁Kreation~~13457
▁virus~~18093
▁Serge~~21403
▁terrible~~22688
entlich~~1340
▁nannten~~7784
▁Weisen~~10298
▁verbessert~~1733
thur~~12868
▁verbessern~~2691
▁Wahlen~~14505
▁Four~~19966
vielfalt~~11222
▁Herzin~~22717
▁Alzheimer~~4912
▁Poetry~~23895
▁temporal~~17099
▁Wohlbe~~14014
räte~~11453
▁Regal~~12260
▁Gemeinschafts~~18821
▁israel~~5573
▁professional~~22388
▁Quant~~8701
▁bewältigen~~8850
▁vielmals~~2976
▁Gründen~~7618
beding~~9480
▁Vögeln~~5566
▁Geister~~12373
▁einfallen~~12160
▁Gründer~~12052
lös~~4022
▁Neanderthaler~~21541
▁grauen~~3807
▁hör~~15562
▁wegnehmen~~16349
▁grossen~~5294
▁Eastern~~5935
uffle~~16607
▁leichten~~10038
▁nähert~~13889
▁nähern~~7178
press~~19060
▁leichter~~4659
wissen~~10526
▁Genie~~14105
periment~~4480
ietal~~23909
▁Aktivität~~956
▁Hindernis~~12986
▁hydrogen~~610
▁britische~~3154
handeln~~20138
▁transportieren~~6241
handelt~~3965
▁einfluss~~2700
▁aufger~~8057
▁aufget~~7095
▁Immobilien~~13471
▁aufgew~~17402
▁aufgeb~~5441
werte~~5305
▁anzusch~~6464
▁entsp~~8986
▁umwelt~~11167
asha~~15122
ashy~~21902
▁selben~~2770
▁erwä~~12959
ellschaft~~20750
ichtlich~~12658
▁Heroin~~7773
▁selber~~3911
▁Cup~~16101
▁Cur~~22273
▁konzentr~~17947
▁Antibiot~~16739
▁privaten~~5480
▁Beob~~10207
▁Bedeut~~13844
▁psychischen~~20068
karte~~8278
rücken~~7530
▁abgesch~~13914
izien~~13623
▁obsole~~10686
▁Byr~~5209
▁Visual~~21909
▁daneben~~8681
▁Sorgen~~3244
▁Maß~~8207
▁filmte~~16022
▁hochgeladen~~10858
▁Anweis~~21216
▁worauf~~1346
agle~~5168
▁woraus~~9543
▁Dann~~2234
▁McDon~~17878
▁fing~~5648
▁find~~20278
Mensch~~1794
▁Griechenland~~15535
▁Val~~12085
▁Allgemein~~4052
dienste~~15492
▁Nairobi~~15304
▁Tansania~~15520
▁Glenn~~18524
▁Innovationen~~2648
ütten~~6619
▁Anteil~~2039
▁Gandhi~~3691
Hier~~6945
ütter~~15873
üttet~~6850
ärben~~13084
▁Dyson~~20376
▁mutig~~8007
▁orient~~2721
▁Zunge~~12938
haber~~9103
haben~~11031
▁Symbol~~10816
▁blau~~15550
▁Freunde~~1309
▁Deep~~13326
▁blah~~23030
blasen~~11477
▁Stimmen~~3671
▁Metapher~~11020
▁Entwicklungen~~11313
▁verär~~21918
▁24-~~20522
ements~~15168
▁Großeltern~~3377
▁hartnäck~~7506
▁Frosch~~15588
verhältnis~~11230
zial~~8604
▁extern~~21542
▁wilden~~3206
▁Nich~~21781
▁Nick~~8378
▁Nice~~20483
reichen~~4098
bänder~~19032
reicher~~2701
▁intellekt~~16846
▁wilder~~21106
▁anrufen~~1784
<s>~~2
▁Tragö~~19051
▁Typen~~5684
▁Erlebnisse~~13919
▁Nagel~~16807
▁Hinsicht~~5256
▁erre~~2876
▁ambition~~4619
▁Götter~~14656
▁Gött~~15019
▁unser~~374
▁Vorhers~~20959
ändig~~9441
▁hoffen~~5031
ibliot~~17866
geber~~1871
geben~~2130
▁durchbrechen~~16839
▁Edu~~23072
▁isol~~18891
▁ansehen~~507
gebieten~~2822
▁Kreis~~2276
▁Einmal~~10990
▁purp~~23498
▁Mindest~~17141
▁Letztendlich~~16093
wins~~23777
▁Schauspieler~~4443
chern~~1469
getragen~~11518
▁Campus~~14775
wing~~19427
wind~~15343
▁protest~~13502
▁Lügen~~15036
vard~~16892
▁angeneh~~19386
﻿~~23280
impft~~1368
▁Vortrags~~1560
izophren~~22773
▁wodurch~~14795
▁Kaulqu~~21053
▁heimlich~~11337
▁Alternativen~~17945
▁nahen~~9223
▁Brook~~12288
▁Selbstmord~~14023
▁Mittagessen~~1948
▁Diff~~21679
▁getrunken~~3830
▁Höhepunkt~~7432
fahrung~~10586
erten~~10541
▁Mitte~~2890
ups~~20697
▁abge~~8158
▁Coch~~17418
▁News~~12241
▁Coca~~16056
▁2011.~~20706
▁2011,~~20599
wass~~10225
▁level~~23859
▁fangen~~490
lege~~7820
▁Prototypen~~10359
dehnung~~15907
legt~~2096
listen~~15185
▁teil~~3861
▁Gleich~~3950
▁frustriert~~14484
▁Architekt~~6108
▁mögliche~~5553
▁daran~~1417
Stra~~12239
▁Jack~~17154
Stre~~11878
▁fehlte~~18353
▁darstellt~~6403
▁HIV~~9248
▁Mutationen~~15877
▁Behörden~~13493
elen~~879
▁saubere~~13620
▁anzu~~9828
ource~~21630
▁Schichten~~10731
Bank~~16374
▁akzept~~1969
▁großer~~4206
▁großes~~6168
estock~~24043
▁Prophe~~14634
letter~~21687
▁großen~~335
zyme~~17955
▁großem~~18155
▁Polize~~14895
▁Wohnzimmer~~5642
irus~~22116
▁bewahrt~~14923
gefangen~~5211
▁Umständen~~7539
▁wundervollen~~16052
ökonom~~4087
ment~~4920
▁Lakota~~23196
mend~~11025
▁Vide~~9982
entliche~~6137
entlicht~~22480
▁Koran~~14207
▁zent~~16002
▁Algen~~7085
▁gewöhnt~~5123
asis~~15900
Netz~~16355
chniken~~16713
bles~~23170
▁essentiell~~13193
▁angeboten~~3741
bled~~10112
klären~~16724
▁Ländern~~2167
▁Ehem~~3718
▁East~~17624
best~~7131
▁Connecticut~~14045
▁unn~~16431
▁vermark~~8928
▁Oberfläche~~706
▁übersch~~15005
▁zunächst~~2002
▁Führungskraft~~8125
▁Mechanismen~~13778
▁Ideal~~6409
carbon~~11688
ränken~~4381
▁bewegt~~159
▁Klass~~3382
▁Vorurteile~~11206
schuhe~~3990
▁gelähmt~~6784
▁bewege~~22032
▁passierte~~5710
ffin~~21925
▁trugen~~9675
ffic~~22375
▁jemanden~~4917
zuschauen~~16240
▁jemandem~~4539
▁impl~~19808
▁Paz~~10899
▁irgendeinen~~6571
▁irgendeinem~~5053
▁Pay~~21353
▁Pav~~13666
▁Pat~~14581
▁Par~~3188
▁aufbaut~~8721
▁Pap~~12279
▁Pan~~21846
▁Pal~~6739
▁Pam~~20091
▁Pak~~17455
▁irgendeiner~~14299
▁Pac~~7119
life~~11174
▁außer~~820
▁gleichzeitig~~2106
athol~~20154
athon~~14371
▁außen~~4027
child~~19333
ersp~~6789
erst~~899
▁kosten~~8667
▁verletzlich~~13784
▁kostet~~2332
▁Treib~~5866
▁Lassen~~1944
▁Wag~~21099
▁Erinn~~14815
▁Repl~~13584
▁falsch~~4514
▁Was~~472
▁War~~3546
▁Rept~~11779
▁empf~~13544
▁Way~~20724
wenden~~7026
ilion~~23107
▁Tide~~23923
▁staat~~13314
wendet~~13670
klin~~14378
▁technologischen~~5157
▁Biolog~~14932
klärung~~2936
▁meistens~~5969
▁technologischer~~18055
▁Sting~~9104
▁verring~~22754
▁Instrumente~~4789
▁Bomben~~18848
▁Olymp~~1635
wahl~~1574
ordin~~20657
▁geme~~9428
wahr~~19419
▁Betroffen~~6966
▁auszusehen~~15052
▁Flagge~~5601
▁lebten~~7404
▁Klische~~20044
OM~~21985
▁gehabt~~4213
▁ranging~~23732
hängig~~12835
▁Russ~~15177
▁Fettleib~~23035
▁Rush~~16592
▁Montana~~17161
▁Strand~~142
▁Strang~~15724
people~~19647
▁spezielle~~2933
bereit~~8490
▁Gitter~~12746
▁Organismen~~9421
▁ließ~~8297
ump~~11848
ums~~7949
▁assoziiert~~13841
ume~~21041
umb~~9691
umm~~4335
fon~~10227
umn~~16403
▁gebrauchen~~1352
▁überzogen~~20033
arbeiten~~3676
arbeitet~~266
arbeiter~~2444
ierungen~~8690
setzungen~~21108
technologie~~5098
▁überflüss~~21434
▁Alarm~~17541
chte~~6564
rators~~22762
ouver~~20585
▁Gedanken~~2993
▁konfront~~20049
oson~~22291
zusagen~~8045
▁deutschen~~2419
schrift~~4882
▁unterbrochen~~10545
▁Abschnitt~~15319
▁Botschaften~~9306
tell~~8459
▁Verschmutzung~~5940
▁was~~171
▁war~~592
pest~~13097
▁way~~23183
▁Delph~~19919
▁Präsidenten~~8902
▁benötigten~~9272
irst~~6540
rasound~~23921
ervative~~13180
▁upper~~22221
ationen~~2879
▁älter~~3376
ichten~~10058
ommen~~10580
ichtet~~4028
▁intensiv~~4124
ichter~~7666
esigner~~19592
▁listen~~19836
▁kürz~~9566
▁Kandid~~18915
▁Vielzahl~~2805
▁angenehm~~2346
▁hilfreich~~3084
▁Büch~~11095
iogen~~19225
▁lebende~~9599
▁Gabriel~~4785
ouston~~23570
vet~~18899
öpfe~~12181
ver~~566
äuschen~~2385
vey~~22333
öpft~~11482
weilt~~14903
▁Mexico~~12197
ven~~6916
vel~~16708
yers~~22127
▁Zustände~~14032
▁optical~~22474
▁gründete~~11978
▁Spiels~~4714
▁Hülle~~6585
▁Punkten~~16742
▁Spiele~~13985
▁präsentiert~~3921
▁Brüdern~~7523
mahl~~14640
team~~8441
▁Richard~~12880
▁Individuum~~12357
▁anregen~~10535
ähmt~~7745
▁emot~~19494
▁Disziplinen~~15320
▁Struktur~~5257
ves~~22143
▁nützen~~4286
▁Scham~~14076
▁Schaf~~12463
▁Schad~~6045
▁ride~~22537
▁innere~~7709
▁Auftrag~~6657
▁Schau~~6004
▁Untersuch~~12833
▁Werte~~3742
▁point~~19182
▁fragten~~1445
▁bieten~~3200
▁Sektor~~16162
▁bietet~~3675
▁hierfür~~9551
▁beib~~15622
studien~~18486
▁Medikamenten~~6870
▁Truppe~~8062
▁durcheinander~~5295
▁Grafik~~5574
▁Performance~~14842
▁Kosten~~2324
▁wür~~8568
▁wüs~~21808
ips~~12558
ipp~~5032
▁wün~~5674
positive~~18361
▁Draht~~14769
folger~~13392
▁Nazi~~3628
▁worum~~5532
folgen~~15183
▁Journalismus~~14556
▁PowerPoint~~17553
▁Tol~~16949
▁Tom~~3683
▁Ton~~3897
▁Too~~18561
▁Tob~~21224
▁Tod~~4739
▁Toy~~4847
▁Mexican~~22691
▁Top~~8734
Our~~11763
▁analysiert~~5191
▁Britann~~6255
ppers~~20835
ünstler~~21668
▁viereinhalb~~11994
▁pflanzen~~14170
schrecken~~20846
▁Weißen~~14187
▁Brit~~14554
▁bare~~21828
▁beeindrucken~~3929
▁Reserv~~7507
▁Brie~~9834
Why~~24009
▁Brig~~7994
afür~~23654
▁Stringtheorie~~15709
spot~~23144
▁bestand~~8096
▁Reputation~~20521
▁2009,~~7580
▁gefährliche~~13997
▁Sebastian~~19668
▁auswendig~~8984
▁weltweiten~~6144
▁aufweist~~11642
konz~~8315
kons~~5883
kont~~21426
ved~~23046
▁schlimm~~4287
▁Adv~~18639
▁stir~~22109
▁Falsch~~14077
▁Add~~20381
▁stim~~19023
▁treffen~~1788
▁Kombin~~5350
▁2.000~~14340
strom~~7002
▁Buchst~~16562
▁Challen~~21967
▁verab~~7433
▁veran~~2987
▁fühlst~~2997
▁Papiere~~19574
▁Carl~~8918
▁Cart~~22591
▁Führer~~1934
▁Cars~~22699
▁LHC~~19251
▁direct~~19714
▁Sowjet~~23418
ließe~~8232
▁Kont~~7926
▁Kons~~10091
million~~3510
▁Konz~~18415
▁Lucy~~13763
▁Kong~~16705
▁Kond~~9253
▁Luck~~21364
gewohnheiten~~15901
▁Frühjahr~~8740
▁stren~~18378
wirken~~4819
▁erste~~957
▁wirtschaftlich~~7384
▁auflösen~~18211
▁täten~~8212
▁japan~~13746
▁Hippocampus~~13864
▁vermeid~~12621
▁eig~~13449
▁eif~~8242
▁Leonardo~~10728
▁ein~~84
▁Umsatz~~12268
utsch~~18826
2~~1288
▁eis~~7291
geschäft~~13065
▁eurem~~5752
ungsvoll~~4933
wirkungen~~15131
▁Gottes~~15693
▁eurer~~10999
▁nebeneinander~~4014
▁Treppe~~9239
▁Minderheit~~10397
▁anstren~~8039
▁Football~~1698
▁TEDster~~18651
▁wider~~2562
werker~~12310
hält~~1805
reten~~906
▁dreimal~~6149
▁Stoffe~~15012
werken~~10765
▁gegessen~~5319
gefähr~~17217
▁Mangel~~8897
▁bur~~24006
▁dicht~~721
▁Städte~~6104
opters~~19741
▁Technologie~~3268
▁Psychologe~~20158
tehen~~4434
▁therm~~17838
▁Kiste~~7796
atschen~~5355
▁beherr~~19493
▁Techniken~~8065
▁kontrolliert~~1659
▁gelben~~9964
▁Ästhetik~~17332
robo~~10233
▁Motors~~21490
▁Techniker~~3902
hnung~~18541
▁Mun~~18122
▁Mul~~20027
▁Veränderungen~~2148
▁Durch~~1834
ätzung~~18212
▁Mus~~4856
▁Mur~~8187
▁Mut~~6893
▁schrittweise~~9437
▁Urlaub~~1949
llten~~5324
▁lingu~~20417
▁frag~~19088
▁Aufnahmen~~87
ragen~~2254
cin~~21160
us~~4703
▁650~~6476
cil~~23081
▁kost~~18147
▁distingu~~23563
▁schenken~~15022
Bewegung~~8350
cip~~23855
▁kosm~~15713
▁Produktion~~3347
▁Lehrerin~~12117
▁Jess~~22194
▁Liz~~17907
ue~~8130
▁Lin~~18927
ustand~~19082
▁Lim~~19626
▁Lib~~21657
▁wofür~~5457
▁Lie~~6491
▁näch~~3399
▁Kollegen~~1720
▁comic~~17128
antw~~15043
ants~~17000
▁Parameter~~5144
anth~~13806
▁Norden~~7500
ante~~3432
▁beschränken~~19979
▁formal~~17089
sicht~~1541
▁Südamerika~~11781
▁Pennsylvania~~13174
▁Theorie~~11281
▁dafür~~1754
▁Ane~~21710
▁liefen~~14778
chan~~13858
▁Ergeb~~20128
▁erheblich~~11784
▁variable~~17003
▁Innere~~2945
▁Going~~19511
▁Innern~~13359
leitet~~4264
leiter~~4398
▁Milch~~6160
▁Geschlechts~~13824
leiten~~6815
▁entfernten~~4499
brot~~16430
brow~~22002
bron~~22114
bewusstsein~~7951
▁Chor~~5023
▁Chop~~17847
▁beides~~9212
▁beider~~13773
▁eingeladen~~10200
▁format~~23625
▁lim~~23588
▁beiden~~539
▁lie~~6519
wandlung~~17127
▁erinnern~~1320
I~~5582
ilation~~22322
▁erinnere~~5689
▁erinnert~~3157
▁wunderbarer~~15037
▁wunderbares~~4897
▁stärk~~2655
▁liefer~~3521
genie~~2578
▁wunderbaren~~10844
▁konzentrieren~~2274
▁Oktober~~6661
▁entstand~~8076
▁küssen~~1641
▁berühmte~~6396
räglich~~14229
▁trafen~~5083
▁häufigste~~15239
▁Alphabet~~14218
▁Sammler~~9743
▁Bisher~~19049
▁dieselben~~5760
▁riesig~~7386
▁Mütter~~11003
por~~6196
6.~~11144
▁äußerst~~8435
▁Kampf~~7891
atch~~5797
▁landwirtschaft~~8673
▁greifbar~~18458
twagen~~22061
▁territ~~7116
▁ist~~61
▁NATO~~16030
▁Hühnchen~~17846
▁Colomb~~22356
▁sagst~~18446
▁Frühstück~~10477
▁Catherine~~13443
ration~~4106
sprung~~7872
▁amerikan~~10127
▁Meet~~20145
▁Feind~~1937
▁Hät~~19362
ace~~13614
ack~~871
ushi~~13627
▁Mister~~21898
ach~~2791
aco~~5050
▁Samuel~~17209
▁People~~20197
▁Cell~~13926
act~~12990
▁aufs~~4633
acy~~20653
▁aufw~~1966
▁auft~~7328
▁Familienmit~~12337
▁mach~~3866
▁schließlich~~556
▁hyd~~3972
▁unschuld~~15969
▁bearbeiten~~8293
▁complex~~23029
iein~~6533
▁Sene~~22828
▁genug~~852
▁sapiens~~13852
▁Öst~~11595
▁Senf~~21795
▁Oster~~16261
▁Elementar~~19395
▁Verteilung~~10649
▁Osten~~5686
reibung~~16571
aa~~20406
ohn~~7383
ab~~2103
ae~~5974
ad~~855
ag~~982
af~~4095
ai~~10331
ah~~3620
ak~~307
aj~~16689
am~~6341
al~~3323
uklear~~19529
an~~1902
ap~~4498
as~~1996
ar~~532
au~~727
at~~1947
▁Nervenzellen~~13869
av~~10075
ay~~7918
ax~~9994
az~~5815
▁Paar~~3989
fachen~~1980
▁Knoten~~4618
Spiel~~5378
störung~~20301
Meine~~5679
annes~~16749
anner~~10838
annen~~8987
annel~~23054
▁Stil~~11131
▁witzig~~14600
gegenwärt~~19542
▁innov~~16143
▁2050,~~21751
▁2050.~~6167
ienst~~14285
▁unfair~~2142
▁Manchester~~19646
▁berühmten~~14282
▁Tochter~~3176
▁pers~~14665
▁Edison~~20240
▁Tages~~1538
▁Genau~~2490
mechanismus~~15868
▁Tagen~~5605
▁Üb~~9607
▁Alkohol~~15100
▁Unglaub~~15814
▁Kooperation~~15322
pression~~17333
▁Kindes~~6757
▁Kinder~~1323
`~~23350
schaulichen~~17633
▁kaufen~~1790
▁gewöhnliche~~2597
▁Zigaretten~~20346
▁verteilen~~6231
▁Jazeera~~15302
▁lebendige~~10833
▁Era~~22907
▁express~~5138
▁Thanks~~22940
▁Flücht~~13684
▁regime~~24061
▁Glet~~9634
abytes~~22424
▁Uhr~~1850
gebung~~12650
▁Lächeln~~14856
▁Säule~~913
sender~~15342
▁Kunstwerke~~18881
durch~~7016
▁Kontinen~~23517
liegenden~~7329
senden~~11900
▁gesundheit~~16464
Aud~~22003
Auf~~9229
▁verwir~~12033
Aus~~7372
Aut~~15610
▁Früchte~~13051
rischen~~9410
▁dass~~99
▁Raum~~400
▁kontrollieren~~3130
▁Raub~~7205
▁spekt~~23618
▁erwar~~17061
▁Kyoto~~17850
▁amerikanischen~~6546
▁Orbit~~15293
▁Bewe~~13194
▁zerstör~~15316
▁Beton~~3955
▁CRISPR~~23979
▁tiefen~~12793
▁mochten~~5377
▁gefroren~~11418
▁tiefer~~555
▁Europäer~~15847
▁Scot~~16252
▁relev~~9615
ilage~~24122
▁ill~~23544
sense~~16648
schöpf~~18745
▁zehn~~1021
information~~8859
cling~~19936
werfen~~1490
▁verbess~~2519
▁Astron~~19052
▁Zeitra~~9455
▁Begriffe~~10572
aktere~~13212
▁Gutes~~3385
▁Orange~~17711
▁Strecke~~8753
▁Ehrfurcht~~3353
ise~~8656
▁Guten~~6481
▁Film~~3227
andid~~13171
▁Substanz~~16241
▁sport~~14454
▁Knie~~7703
▁trotz~~5111
▁versagt~~10136
▁Tuesday~~14829
▁NGOs~~15981
fü~~1377
fä~~16139
ijuana~~17336
▁Ägypten~~6246
eitern~~11440
odie~~21437
▁Ägypter~~19768
▁Bar~~5044
▁Bas~~10768
gestaltung~~6933
▁Kaiser~~17274
▁Bax~~18831
▁Bay~~12253
▁Superman~~19786
▁Bab~~11593
▁Bad~~13418
▁Bag~~19171
▁Bah~~21500
▁fehlende~~17785
▁Bal~~12330
▁Ban~~13648
▁Task~~21647
▁Nutzen~~6611
▁Grundsätzlich~~9613
▁ruhig~~6874
▁Nutzer~~11092
▁Stahl~~11318
▁Tast~~4811
indung~~13638
▁Gebiete~~4893
▁Musikstück~~4807
zukommen~~2917
▁Gymn~~20096
w~~753
▁Kürzlich~~14595
▁Vermeer~~21098
▁generell~~13891
▁derselbe~~17649
▁Fernseher~~9189
heads~~23545
▁Flickr~~20124
▁überfl~~8998
▁iron~~10353
▁Spanien~~2856
▁Fernsehen~~15030
gnügen~~19034
▁übrigens~~4158
▁schmerz~~12771
▁unsichtbar~~10243
▁Partei~~13154
▁Debor~~12638
ilität~~12848
▁hörten~~3810
▁Develop~~18317
rische~~9411
▁Ell~~4742
▁Eli~~15398
▁Ele~~11478
▁Schwarze~~17460
▁vent~~21835
gten~~11441
▁Ähnlich~~19975
▁Song~~5169
oices~~23693
▁Sony~~243
▁herausgefunden~~683
play~~10346
▁riecht~~14988
▁Morgen~~5671
▁stimmt~~6744
plan~~9054
▁Sem~~17815
▁Vergleichen~~19680
udge~~21670
▁"]~~23369
cover~~20266
▁technologische~~11262
▁Sec~~23210
schöpfung~~11212
ifiziert~~6062
▁coolen~~20701
▁Home~~15424
▁Homo~~13790
▁halbes~~4308
▁falls~~1671
▁halben~~13671
▁cooler~~10369
alität~~1883
▁Schätzung~~13040
▁ernst~~1363
▁mes~~22693
blemen~~16886
ernte~~16389
▁Bauste~~19126
▁fließen~~11905
gleicht~~18866
▁Wochen~~1245
▁inte~~22709
▁Nadel~~18023
▁Jedoch~~9585
▁Irak~~8141
▁Iran~~5568
▁sonnen~~15147
aurants~~9764
▁Hist~~15245
set~~18045
ses~~12452
ser~~1165
For~~10384
▁optimal~~17427
▁erheb~~18215
sey~~4743
sex~~6930
see~~30
sec~~21244
sea~~22031
▁wohin~~1129
sen~~330
sel~~4272
sek~~11866
seh~~1339
auchen~~9132
▁Eröffnung~~5735
▁Ding~~653
▁subs~~11093
ikas~~8914
wiesen~~12193
▁Mozart~~5312
ikan~~11789
▁Zuschauer~~3462
▁subl~~22665
▁hervorheben~~15299
stä~~5261
eping~~20007
▁sch~~156
▁Tiefen~~443
▁redund~~22937
▁Erste~~676
▁entweder~~590
ütteln~~4682
Mach~~5654
▁Regime~~14629
▁Beleuchtung~~10241
ethoven~~23864
▁Kräften~~4318
fund~~17987
fung~~7014
▁Kanzi~~23815
funk~~21896
▁Warum~~1270
▁negativen~~14131
ould~~24050
▁anre~~9860
ower~~19738
netzen~~6937
▁Verwir~~16063
aughing~~22951
▁beschleun~~16895
▁Zusammenbruch~~14922
▁Noten~~4881
wür~~723
isphere~~22780
▁Ära~~9771
▁Angiogenese~~23015
▁Ekel~~18749
▁Craig~~12582
▁Wachstums~~16866
▁Geschichte~~114
▁fossilen~~6181
▁Vill~~22366
▁vierte~~3078
▁heter~~14676
informationen~~8689
▁Imker~~20291
▁Zwe~~11122
azeut~~15401
▁Berat~~11959
▁langweil~~11184
▁Lebensjahr~~16868
onscious~~19189
▁Defin~~13545
▁Eg~~12094
be~~759
▁Ed~~5578
▁Ec~~21030
ba~~8869
bl~~5804
▁Dass~~8970
▁Em~~10372
bo~~6686
▁Ek~~14146
bi~~14204
▁Ei~~6361
klär~~12139
bt~~5703
bu~~6776
▁Eu~~22167
▁Et~~11827
▁Es~~277
▁Er~~1726
br~~2862
bs~~9122
wörter~~14048
▁damals~~2366
by~~14620
▁Ex~~8836
▁EG~~16555
ruhe~~9353
▁Rucks~~7961
▁EC~~8774
▁EB~~17474
▁EM~~22102
▁EU~~2852
▁ES~~23258
▁lasen~~18456
▁You~~16116
▁Yor~~21820
iesslich~~9507
▁Helium~~19270
▁Seymour~~21457
▁Kämpfe~~3440
▁gründen~~8590
▁gründet~~17226
▁verbal~~18041
▁Tote~~20463
▁einige~~77
▁zusammenge~~265
▁Miniatur~~14930
ling~~14444
line~~6101
▁illeg~~22603
imps~~13299
▁England~~3611
Produ~~13632
▁Atom~~16169
▁Milliarden~~1026
impf~~3467
▁Sofort~~7974
▁Vortrag~~1184
▁91~~22271
▁manifest~~17088
▁Runde~~18701
▁Gesten~~5038
teilten~~16838
▁jelly~~24135
▁prakt~~14390
▁Zukunfts~~16793
▁Alph~~20643
ferenz~~10010
▁Stift~~4405
▁Fürsorge~~18460
▁Auge~~4669
▁Schmerzen~~4200
▁flatter~~21680
rechnung~~9758
adium~~19370
▁begannen~~3519
▁fragte~~4143
▁Biosphäre~~18998
▁Entschuld~~17765
code~~15267
▁zufällige~~12386
nder~~6885
▁feel~~16120
send~~18548
senz~~21050
▁feet~~21804
sens~~8101
ulin~~17861
sent~~16669
▁Dritte~~9665
▁größten~~673
▁kling~~19556
gemein~~15982
▁Hilfs~~8754
lichung~~10436
▁Hilfe~~22
▁diagn~~23696
▁Mensch~~2081
uel~~15144
uen~~8030
Commun~~5591
▁Transport~~6558
ues~~10781
aterial~~16000
ämmer~~14570
▁Anpass~~1475
▁Alters~~3169
▁peripher~~19328
firma~~6665
antom~~22615
inder~~2424
indet~~2956
▁Lebensstil~~8967
▁Beachten~~5904
antor~~19736
inden~~4653
ämmen~~16747
bird~~22467
▁Altern~~9354
leb~~9546
led~~16250
lef~~15431
leg~~5977
lei~~4233
▁vernetzen~~10017
lem~~7557
len~~4038
▁Chirurgen~~8427
les~~9242
let~~5923
lev~~9398
lex~~17163
ley~~8055
▁Bewusstsein~~8061
▁you~~16105
▁Nächte~~14542
▁geek~~22947
ühen~~11057
technolog~~6590
▁Schaffung~~4525
▁ök~~21976
▁myst~~14034
▁Strö~~5929
▁Sehen~~292
▁cloud~~23060
erspiele~~16609
commun~~21633
levant~~21152
▁lieber~~2539
▁rennt~~14361
ändige~~4874
▁Kontin~~8678
▁lieben~~4708
opol~~14801
▁Ofen~~16482
opod~~23439
▁Acumen~~19723
▁3,000~~20917
bens~~2449
wed~~23838
▁bezahlen~~2537
bene~~3937
▁Helikopter~~16233
▁entscheidet~~4292
▁magischen~~10966
▁Wohnung~~14563
▁geöff~~21800
▁passive~~19382
▁mole~~23347
▁zentrale~~11670
▁vul~~52
ussion~~18525
isse~~3448
▁erfolgreichen~~18335
onom~~12858
hthal~~5909
▁series~~23992
▁Bucht~~7114
▁quant~~11134
▁Miller~~11993
isst~~5421
▁ha~~346
▁typische~~4616
▁ho~~10274
▁hi~~21442
▁erfolgreicher~~2690
▁popular~~23753
▁systematisch~~14837
▁Zitat~~8171
▁Mexiko~~14387
▁services~~24088
▁Antw~~23419
legenheiten~~12856
▁verklein~~4340
▁befassen~~839
▁ruft~~1173
▁Vögel~~5498
▁einschließlich~~8271
▁Biologie~~9549
ollar~~23675
igma~~10667
▁Abgrund~~18001
▁springen~~4922
▁1800~~15671
eben~~21831
▁Dolby~~6496
eber~~22800
▁30.000~~17996
▁Filter~~15010
wogen~~13990
▁Rassismus~~11198
äher~~6339
amerika~~519
▁Befreiung~~7852
liegen~~4319
wander~~3614
▁community~~23735
cess~~12021
▁statt~~818
▁Mord~~17383
▁More~~6377
stände~~11376
▁Great~~3617
▁Liebling~~12423
▁Mort~~22998
▁Mov~~21994
ärchen~~19001
▁Verfüg~~22411
▁verblüff~~19076
▁Thun~~21949
▁existiert~~269
▁Zeichnung~~10834
▁Selbstvertrauen~~3715
▁Sechs~~4377
▁Belast~~16855
▁Korrid~~16014
▁Abwesenheit~~8688
▁Naturschutz~~1144
▁erlaubte~~11133
▁beruhigen~~15591
▁Phasen~~18966
▁Barriere~~12152
▁grand~~5459
oßen~~690
▁industrial~~8815
▁Schleife~~6856
▁Shakespeare~~3704
▁Vorschlag~~8917
ildete~~19242
▁tauchte~~5700
▁Allgemeinen~~17735
▁Anziehungskraft~~18896
▁produktiv~~17883
▁2001,~~20561
▁Conservation~~7181
▁stap~~9145
▁Ali~~14659
▁star~~3910
▁All~~2331
▁Alb~~5946
▁Ald~~19622
▁Ale~~23460
▁nachzudenken~~274
▁stab~~18406
▁Charles~~5785
▁Als~~1816
▁Alt~~6415
▁Anzeichen~~3168
▁aufgeteilt~~2303
hops~~23432
▁JPL~~20685
ierend~~7680
▁längst~~7020
▁geschickt~~11352
▁Publikum~~2971
reit~~14257
kreis~~12630
▁Netz~~491
▁kaputt~~1281
reis~~6326
▁moralischen~~3212
reiz~~21853
reif~~5658
▁glühen~~7443
▁spür~~3453
reib~~15864
ühner~~17628
rein~~1056
▁Motivation~~10710
▁direkt~~2125
ftig~~12909
lleicht~~23639
▁einzigen~~4227
▁Kleinen~~865
▁Singapur~~2176
▁Batman~~13987
▁einziges~~2756
▁einziger~~4392
▁Kalorien~~6183
▁Investition~~7390
awatt~~20500
emissionen~~18630
▁benennen~~6433
▁se~~6053
▁Berichte~~18443
▁hungrig~~6180
▁sa~~15955
▁sc~~2981
▁sm~~19604
figuren~~13548
▁so~~309
▁Barry~~12854
▁sh~~22479
▁sk~~3763
▁su~~15782
▁st~~587
voller~~8165
volles~~9336
▁sp~~2560
▁Elektroden~~3052
▁sy~~15905
ck~~1142
ci~~1814
ch~~2227
co~~11080
cl~~13469
cc~~15125
▁physische~~5039
ca~~17611
ce~~3702
cy~~9871
▁einzu~~8219
cr~~22851
ct~~11747
Ges~~15607
Ger~~11405
▁Nektar~~14960
Gew~~15977
▁Baxter~~23834
Get~~20043
▁Mandel~~20294
Geb~~4479
Geh~~7718
Gen~~4602
▁verbringe~~8930
▁aufta~~5713
▁verbringt~~13835
▁2011~~10780
ador~~15427
▁effiziente~~18413
licher~~526
adow~~18555
ount~~6950
reichtum~~16791
▁festgelegt~~15024
▁erfanden~~4781
▁Einschränkungen~~1938
▁Game~~19508
▁sorgt~~2205
▁Kuwait~~20247
▁aufrecht~~6375
▁gesund~~7293
▁veröffentlichte~~2781
▁split~~22313
▁führe~~16753
▁Andrew~~9895
rips~~18310
ripp~~19315
ript~~12815
▁führt~~35
▁Israeli~~5763
▁gesucht~~9001
▁Gegend~~662
▁Bewert~~20191
▁studiert~~6902
▁verteidigen~~3864
ball~~7086
bald~~23428
▁Sever~~22481
phy~~22723
▁Little~~23719
▁bißchen~~4179
▁wars~~13177
▁Erstens~~1802
▁Clinton~~14824
▁warm~~6515
▁Demokratie~~3366
blem~~22817
▁ward~~22859
▁ware~~21529
▁warf~~9696
▁Karten~~529
kontakt~~10347
pflanz~~17618
estehen~~4915
▁Honey~~20645
▁könnt~~9728
▁durfte~~4737
kunden~~3063
▁Joshua~~13928
▁Cassini~~11081
bindung~~16348
▁Schriftstell~~11814
▁klatschen~~18549
▁Stille~~6532
▁Armen~~12550
riminierung~~15498
▁Armee~~5771
▁veröff~~20306
▁Try~~23604
▁Tra~~5129
▁Tre~~9292
▁Staats~~14293
▁Tri~~4671
onnen~~13079
▁Tro~~1929
▁gäbe~~3833
▁From~~23703
▁Check~~21750
▁Lar~~17196
▁Las~~898
▁adul~~21038
▁Breite~~527
▁Law~~14841
▁Lat~~18740
▁Lau~~19089
▁Elektron~~20898
zulegen~~12380
ether~~22626
▁Lab~~4745
▁Lad~~5655
▁Lak~~9831
▁Lam~~12416
▁Trade~~17227
zeiten~~167
▁gestellt~~6117
▁Mittelschicht~~20622
stage~~15775
mittags~~17238
▁folgendermaßen~~15041
imedia~~17817
▁meinte~~7791
▁beizubringen~~4570
▁sogenannte~~4778
▁Großteil~~131
▁Kokain~~21720
▁Beschreibung~~3727
▁Kommen~~10432
▁TEDGlobal~~12605
▁prognost~~8665
merksam~~20787
▁Istanbul~~20573
▁Ernst~~1361
Well~~21931
Welt~~3844
▁verlegen~~10002
▁Blut~~3023
▁Blue~~10197
Orig~~16327
▁lar~~23405
▁las~~5644
▁lap~~23584
▁law~~23700
▁lat~~18588
▁lau~~15449
▁Cricket~~22210
▁lab~~23914
▁lag~~4552
▁veränderte~~7582
oppelte~~16664
▁grad~~20203
▁Schnurr~~21564
▁berühren~~11285
alender~~16008
CA~~13292
▁Zufriedenheit~~4584
▁deut~~7614
▁Illinois~~8780
ikaner~~11788
▁hinterher~~8201
zugreifen~~16741
▁ersch~~3102
▁produziert~~890
all~~5189
▁Panbanisha~~23816
ields~~22282
▁Gärten~~16486
▁unteren~~2377
▁gedauert~~15471
▁Adams~~20351
gesetz~~17133
▁Disziplin~~10881
▁Hinweis~~634
▁taste~~23986
▁unvor~~10296
▁gesamm~~2960
ergie~~18221
bürger~~19250
▁Falcon~~20990
▁Brand~~164
▁Nullen~~17476
▁Kommand~~7913
▁Führungsp~~1899
▁Resultate~~7470
▁impression~~21378
mpel~~17794
▁okay~~3682
großen~~5966
▁Führungsk~~8149
▁aufgestellt~~9028
ikanern~~15878
▁freundlich~~6529
▁Netflix~~19861
aks~~9674
aku~~13735
akt~~6220
▁Tiefe~~12
▁beiget~~21314
ukleare~~18958
ake~~1832
frast~~16827
▁Räumen~~5056
▁heutigen~~2073
iz~~5047
▁komplexe~~779
▁Teuf~~20433
▁kreiert~~4857
▁Ängste~~18166
▁erweit~~18444
▁Konzentration~~6046
▁Tweets~~17222
▁eingesetzt~~5353
mechanik~~23622
wäsche~~13001
amour~~23242
▁derjenige~~4609
▁Stap~~15738
▁Star~~4645
▁Stat~~14657
▁Stau~~9187
▁Stay~~21333
ische~~955
▁Brilliant~~21319
▁Stab~~21057
▁Stad~~6349
▁Gesam~~19255
ischt~~10865
if~~3504
▁Stan~~20378
▁gem~~4460
▁ende~~22213
▁sensible~~22009
▁geo~~19951
▁skelet~~24017
▁gen~~3343
▁bewir~~5240
▁entr~~18455
▁gut~~1030
▁Linie~~5524
green~~17836
▁ged~~9711
zed~~23330
zen~~1378
zel~~20637
zer~~6397
zes~~19337
zep~~22742
▁Premierminister~~13727
▁gemäß~~12691
▁Irland~~9995
▁propos~~23774
then~~21067
▁herrscht~~2633
▁Är~~6800
▁antidepress~~23440
▁vergessen~~381
ther~~11690
▁Kent~~20050
holung~~2475
▁Scott~~5368
▁schließt~~12375
▁Arzt~~7828
▁Schachtel~~11974
▁ger~~2437
▁Lücke~~2187
▁unerwartet~~11460
▁reiz~~15760
Rest~~19945
nutzung~~14480
▁Julian~~13197
▁letz~~1236
▁Bomb~~5072
▁Aussicht~~6446
▁Gemü~~18398
▁Cousteau~~22053
ange~~5557
anga~~19872
▁Exper~~20254
▁anhand~~4810
▁opfern~~8963
angt~~19275
▁Exped~~10270
angs~~7139
▁Möglich~~14033
▁qualif~~12676
▁love~~20281
▁langfristige~~16980
iße~~13541
▁France~~16698
▁water~~23426
▁aufeinander~~8152
Einkommen~~20582
ißt~~9605
AIDS~~14918
aire~~3360
airo~~21415
airs~~19821
▁Spitze~~2920
laufen~~10338
B~~1161
▁ESG~~24084
▁learn~~21818
▁musst~~1521
▁virtual~~23061
▁Pres~~21851
▁tanzen~~1640
▁Unmengen~~17930
bäume~~19609
▁Veränderung~~1857
▁Teufels~~14949
▁ide~~15063
▁Konvers~~17816
▁Ihren~~799
▁Ihrem~~1708
▁Ihres~~6756
▁Ihrer~~1906
ype~~22330
▁Krisen~~19948
▁Rasen~~18253
Kreislauf~~21491
▁verpflich~~15314
▁Moder~~5439
▁Qualität~~2287
ateral~~21596
▁Moded~~19591
▁Model~~9257
▁Blumen~~5769
▁gespannt~~7212
▁ungewöhnliche~~5054
▁altmod~~6595
▁Serra~~20554
▁Cloud~~10059
do~~8324
▁Bil~~13520
▁Bin~~8023
▁Bio~~692
▁path~~16732
▁Werden~~14834
dy~~12355
▁Kreativität~~1341
du~~5419
dr~~8370
ds~~2213
andert~~20790
kennung~~22371
▁Wales~~6291
icle~~20563
▁slime~~23972
▁trug~~8202
▁jem~~22680
▁true~~22804
▁kritische~~10985
▁Zens~~9150
▁gerichtet~~17331
▁Bereichen~~829
▁Zent~~447
▁Fischerei~~7135
ungsmittel~~19065
▁regionale~~7129
▁aufstehen~~4660
▁Einkommens~~16767
cop~~22026
▁design~~9804
cor~~20881
▁somit~~2652
▁Yale~~18808
cod~~11085
com~~9938
col~~23708
con~~13725
▁Freiheiten~~13278
▁Oft~~4511
▁Tänzer~~5376
▁Off~~8142
▁spaghetti~~19947
▁bewiesen~~10706
mungen~~7083
▁heißt~~560
▁Schultern~~6793
ikatoren~~11712
▁Jacques~~16953
▁erbl~~11854
▁French~~16054
iffern~~16578
▁crazy~~22516
▁eingeben~~20316
▁Vö~~8090
▁Takt~~7572
▁Moment~~1452
acheln~~9152
▁leid~~3908
▁Zykl~~1099
▁ain~~22534
▁leis~~8577
raib~~20048
verkehr~~13346
rain~~6769
rait~~17398
▁Zeitungs~~8995
Y~~8959
▁Lagos~~22119
ikroskop~~14953
▁Internationale~~17727
▁verfol~~13481
kept~~18602
▁Geschenk~~8385
▁oder~~144
ths~~17468
eps~~17172
stehung~~17215
the~~12182
▁heterosex~~18284
▁Skl~~21465
▁Ski~~1753
▁Holly~~20639
▁Sky~~17482
ktop~~19525
▁nachts~~5630
ktor~~2723
▁unvermeidbar~~9383
kton~~11404
aras~~15776
▁Arabisch~~19926
▁Tö~~14176
▁urban~~14781
▁verzerr~~4488
▁zahl~~4301
cape~~3618
▁Martin~~6501
▁GPHIN~~23891
▁kämpfte~~21383
▁Eth~~12603
kosten~~7396
▁Ostafrika~~15890
sende~~14710
Lee~~17887
ibirien~~15918
ykl~~9018
▁wahnsinn~~20700
▁happiness~~23809
stitution~~1355
illions~~24116
▁Kohlendioxid~~18582
▁Breton~~23126
▁Tieren~~316
etzung~~14878
▁schnellsten~~19937
oten~~1628
▁Präsenz~~8580
otel~~3422
▁Pflanzen~~8307
▁Feuchtigkeit~~8267
▁suchte~~1435
▁Präsent~~17044
▁Leder~~14568
oter~~9975
otes~~14992
▁proph~~6919
▁lügen~~8009
underung~~4583
osionen~~2860
▁Norwegen~~9118
▁Tausend~~12403
▁mochte~~2387
▁Subst~~19064
▁Data~~20925
griffen~~2670
artige~~6928
ontroller~~20719
▁gebildet~~8356
▁arabischen~~16773
rengt~~14147
ffiti~~23990
▁Universitäts~~2381
▁umzuwandeln~~14151
▁Arbeitskraft~~1464
wohnheiten~~14669
ourse~~23723
face~~19633
▁frühen~~9359
▁teurer~~2370
▁teuren~~14909
wär~~11520
▁früher~~6837
▁lachen~~1721
▁Echtzeit~~2983
itude~~21026
▁Güte~~11748
▁obsess~~22890
▁Krist~~6923
zesse~~20187
▁tyr~~22237
▁typ~~7538
▁sky~~22298
▁Krise~~6599
iologen~~12649
▁Halten~~20739
▁feste~~19108
▁Gegen~~8922
zone~~7172
jahre~~2186
graph~~20584
▁Erden~~16331
▁beschloss~~3330
▁jetzt~~1174
▁kulturellen~~3747
▁gekenn~~22938
▁Letz~~6451
blase~~19180
▁vernünftig~~9298
▁vorbereitet~~2194
▁Seien~~1312
▁vorbereiten~~17901
ändler~~18399
▁gold~~20304
▁kultureller~~15899
sätz~~12397
▁Agency~~12447
Global~~13470
▁nochmal~~3868
p~~1448
▁jetzigen~~18313
▁Girls~~14472
▁Galerien~~18836
revolution~~1909
burg~~2296
▁entfern~~15857
▁Zoo~~20644
▁Love~~3687
▁arm~~8652
▁arg~~20365
▁are~~16125
▁art~~3533
▁My~~18974
▁Mu~~17635
▁Mt~~9627
▁Mr~~11188
▁Mo~~11750
▁Mi~~13741
▁Me~~6741
▁Mc~~7860
change~~21672
▁kämpften~~8469
▁Intensiv~~8462
▁MT~~18119
▁MS~~19216
▁MR~~21718
▁MP~~5481
▁MO~~18833
▁MM~~22657
▁kanad~~13012
ekt~~5149
▁dennoch~~2473
▁MA~~21214
▁harm~~6802
iminalität~~20721
▁Mountain~~1895
▁hart~~1728
▁beschrieb~~15568
uchten~~5714
aufte~~17692
▁Teller~~4389
▁Langlebigkeit~~9494
▁größtenteils~~15508
uchtet~~10839
▁mechanischen~~20675
▁zurückge~~14199
▁essent~~19212
▁beschützt~~9297
zut~~9875
ißen~~1809
▁Zusammenhänge~~15697
▁Prinzip~~3410
spr~~6152
sph~~16459
▁Pogue~~20194
▁ankommen~~522
spe~~6980
▁herausstellte~~12796
▁Gedanke~~4758
▁Prothesen~~12541
▁rück~~11155
▁Hirsh~~23591
▁Beispielsweise~~10802
▁Konzert~~13729
▁Cont~~18403
▁Cons~~21295
▁able~~15374
▁Griechen~~15277
▁Cong~~17919
▁Cond~~21221
▁Def~~8704
▁Deb~~14739
▁Dec~~21697
▁Den~~882
▁Del~~13030
▁Dem~~3920
▁Dek~~7351
▁Dev~~8877
▁überraschend~~1286
▁Det~~19481
▁Der~~130
▁Des~~11679
▁Dep~~11024
lichste~~8989
▁Dez~~22351
▁Olympics~~23286
▁Interview~~8932
ities~~5592
coln~~20060
Chr~~15874
ular~~8113
enna~~23525
enne~~8339
▁physikal~~10003
ennt~~8542
▁gekommen~~688
halt~~5962
sproblem~~12194
halb~~9484
▁Grenze~~223
half~~20570
hall~~15443
▁stecken~~4269
▁Obama~~14830
üchten~~8715
▁stär~~20225
▁Opfer~~8230
▁Kurve~~10681
rüstung~~14181
▁Kompetenz~~3407
üchter~~16477
▁Wirtschaft~~1176
em~~614
el~~308
▁sorgte~~14268
en~~889
eh~~14223
ek~~8893
ee~~7080
ed~~6073
▁abgespielt~~6277
ef~~5831
ec~~10742
ey~~15967
ex~~9111
▁gegeben~~4221
▁puff~~19244
eu~~23386
et~~563
ophys~~15390
ep~~6449
es~~659
er~~1061
▁bauen~~6374
space~~9845
▁Ausgabe~~16955
▁anspruchs~~10771
▁def~~19704
quare~~21636
▁deb~~17939
▁den~~38
▁Selbstwert~~20571
▁del~~18782
▁dem~~271
▁radikale~~9727
▁der~~11
▁des~~13
▁dep~~19941
reben~~9315
▁Kanz~~20243
▁Nahrungsmittel~~6356
▁Beutelwolf~~21159
ühmt~~19764
▁Kant~~18396
▁Küchen~~9801
▁gefühlt~~21223
▁Kann~~2521
essim~~16775
Pr~~13307
▁Higgs~~22384
trauen~~14252
▁Vaters~~3320
▁versteht~~3743
▁Untersuchungen~~3124
▁programmieren~~3007
ission~~10196
▁verstehe~~8396
▁schießen~~748
friend~~24023
▁Leid~~14004
pect~~23949
▁Leib~~19629
▁Lein~~19553
zucht~~16410
▁Leit~~9971
▁allerdings~~4358
▁Pentagon~~20307
gehe~~4017
ousing~~23413
geht~~2118
zentren~~6226
angen~~14186
angel~~12335
▁Flughafen~~5746
▁Hallo~~2998
anger~~3401
anges~~18648
form~~81
▁beliebt~~2550
üpf~~10049
▁groß~~851
▁Winden~~11510
▁überzeugen~~8082
▁Pl~~1962
▁Sperm~~20296
▁Po~~3477
▁Ph~~1675
▁Pe~~6081
▁Pf~~5877
▁Pa~~17802
▁16.~~6714
▁Klang~~4809
▁Py~~13385
▁Lud~~20929
▁Pr~~247
▁PM~~18362
▁PH~~18082
▁PI~~23884
▁Aktien~~4490
▁PC~~9227
▁PR~~6936
▁PS~~19752
▁rund~~3973
▁verbra~~19719
▁verbre~~19610
▁cover~~24063
▁Blatt~~4252
ground~~16576
utes~~6010
▁Änder~~16915
▁Post~~5677
▁geographic~~23252
▁Depressionen~~6896
Alles~~16518
▁höherer~~15602
▁operieren~~7451
▁Cyrus~~24064
▁Segel~~20072
▁höheren~~13038
▁Körp~~23247
▁Alec~~21786
▁irrational~~4101
▁Landes~~2314
▁Ladies~~21399
▁arabische~~21127
▁ungl~~20994
ontrolle~~11745
▁unge~~11117
▁Alex~~5340
▁widersp~~11487
▁Chemotherapie~~15786
▁einfü~~7307
▁Building~~21658
igmen~~23764
▁Verpflichtung~~7056
▁sprach~~5690
▁Ice~~22582
▁Weniger~~9164
▁ausreichend~~9362
▁Ich~~71
▁älteste~~13750
▁Pier~~3701
▁öff~~7823
▁Erlaubnis~~995
送你葱~~23662
▁Everest~~8256
iversen~~23463
▁chromos~~22715
▁überschritten~~18210
▁verzweifelt~~7543
▁Erg~~5541
▁elegant~~12610
▁aggressive~~8436
weichen~~7448
▁stereo~~19002
ladesch~~23725
▁Islam~~20171
achse~~618
▁Liber~~13198
achst~~19455
▁frische~~7929
▁Meine~~3561
▁regional~~6439
▁industriellen~~1474
▁Individuen~~9583
▁baby~~14682
ströme~~19094
▁Bergsteiger~~6688
▁folgende~~10278
hent~~22641
▁null~~14850
▁japanischen~~2580
▁Öff~~16826
▁reise~~14440
▁Konstru~~5162
▁reist~~6675
▁wunderbar~~12157
▁involviert~~7558
▁Essenz~~15045
▁Essens~~16448
▁bla~~22718
▁Funken~~14195
▁ble~~16684
▁Twitter~~4721
speed~~22668
struct~~21179
▁Felder~~15020
▁typischen~~16865
real~~19361
ream~~6541
aced~~22971
▁parts~~24121
read~~6275
▁tatsäch~~23056
reat~~12434
▁Damit~~632
Show~~20325
▁grave~~22531
▁Wüsten~~15269
▁Bühne~~3876
▁bestra~~15391
▁furchtbare~~13201
iminellen~~16812
gerissen~~4134
▁Seth~~20614
freiheit~~15127
▁Hard~~15379
▁Chines~~20414
agert~~4830
▁Zeitpunkt~~6254
▁Harm~~20003
agers~~22144
agern~~11123
▁Hart~~19167
▁Lage~~1211
▁verloren~~1420
▁dream~~23902
▁Labor~~583
▁bewegenden~~13325
▁jede~~2098
itte~~18566
osph~~20811
itty~~19166
▁Ingenieur~~10726
▁innovativ~~1479
▁Geschäftsm~~17472
ernoch~~12226
enschaf~~20980
▁Präsidentschaft~~13170
▁digit~~21283
▁Bakter~~13558
▁soziale~~1224
▁wirtschaftliche~~8904
▁Magn~~13461
▁Betrü~~4237
▁Trinkwasser~~11629
chestra~~22432
hire~~18249
illing~~12923
ikationen~~9612
hirt~~4448
▁Cliff~~22073
▁gegenwärtigen~~16360
ners~~7356
▁Muhammad~~23149
▁Kapitän~~5788
nern~~9296
sorge~~9420
▁Strategien~~9568
▁materie~~9958
▁Bosnien~~14233
zettel~~9166
▁lebensl~~7802
▁Lüge~~17371
▁winter~~6517
▁Genetik~~12428
drücke~~15251
▁durchfü~~2950
drückt~~7900
▁Mex~~11787
▁Mes~~19965
▁Mer~~11450
▁unterschied~~294
▁Men~~12686
▁Mem~~17076
▁Mel~~4813
▁Meg~~14514
▁Med~~10246
▁versteckt~~9973
vers~~3302
minder~~18351
vert~~11168
verw~~2703
very~~22247
▁schrieb~~5271
▁epip~~22606
verb~~9464
vere~~21209
verk~~8693
▁Erleichterung~~4576
verl~~9319
vern~~14423
▁Bewusst~~16047
oberfläche~~4812
▁Service~~6735
etzten~~8081
▁once~~24054
▁Geste~~18828
▁Kate~~20867
▁Schriften~~14687
spro~~16172
uchen~~7154
spra~~20036
owder~~23717
ießt~~16339
strong~~22932
ieße~~9211
ammten~~7336
▁sprechen~~1786
▁Flug~~2754
▁radio~~20984
▁Flut~~3551
rors~~21335
▁extremes~~17480
▁Aqu~~11103
hrer~~7515
▁besetzt~~21061
▁extremen~~14225
hren~~7493
▁remix~~13240
▁nennt~~602
▁erwähnte~~9508
▁maps~~22541
ennte~~12748
▁nenne~~6237
▁Tour~~4821
marks~~23457
▁Dach~~6636
▁implement~~22434
▁Opfern~~12852
▁dialog~~16525
▁Multivers~~19358
▁Annäher~~10277
▁Melodie~~19295
▁Mikro~~401
▁diskutieren~~9203
ning~~20080
▁Spielern~~1974
▁unterstützt~~10162
lichten~~18340
▁schieben~~12929
▁ausbre~~7460
Warum~~4144
▁schre~~10361
▁happy~~23626
fr~~7883
fs~~10056
ft~~1484
fu~~21799
▁2004~~3860
▁2005~~3867
▁2006~~3259
▁2007~~8168
▁2000~~2376
▁2001~~4524
▁2002~~6543
odies~~19299
▁Märkten~~8657
fa~~3072
▁Freitag~~6310
fe~~1531
ff~~9406
fl~~3204
▁Gemeinschaften~~7540
▁Umgebung~~489
fallen~~5263
▁Wunden~~18459
▁Wunder~~3144
Film~~17357
▁einig~~11709
quellen~~819
ielle~~4060
örung~~1299
flanzen~~20819
▁Bestra~~3038
▁singen~~1197
Schrift~~22443
ässigen~~19487
▁Ungl~~3355
▁afrikanische~~8632
food~~16425
▁poss~~21987
foot~~22139
▁80,000~~22568
tausend~~2894
▁interessierte~~4167
▁lohnt~~4293
ifiz~~6066
▁Minen~~15645
neid~~16145
▁recht~~947
ifik~~5942
▁Miner~~17062
ific~~16565
▁überein~~11293
fehle~~19835
idimension~~11226
▁Umstände~~5226
▁zusammengefasst~~11757
ights~~17598
ass~~4055
ast~~9761
▁Sonnt~~6313
asy~~18224
dung~~13108
▁Zunahme~~9050
asa~~9279
"~~1405
ase~~11661
ask~~16270
asi~~22809
▁hervorzubringen~~11223
pus~~16835
▁Anspruch~~10446
▁favor~~22242
▁Rückseite~~6369
▁antwor~~20760
▁Einige~~3518
eldet~~12230
fischen~~21951
▁Steve~~1150
ighters~~23345
▁symp~~23051
▁gesamte~~2662
▁Pfeil~~11869
▁Knopf~~4880
▁Qatar~~21122
ücken~~1105
▁repräsent~~17113
▁Pip~~17958
▁vermittelt~~2739
▁Null~~4965
läss~~12739
▁vermitteln~~5018
▁Institute~~13200
▁Personen~~2914
▁finanziert~~10336
▁cents~~22509
▁Pix~~10473
▁Ungleich~~2379
kart~~16483
▁Jede~~2669
ungslos~~11062
▁Hilfsmittel~~15208
▁vorhersagen~~18996
äß~~7964
▁beschweren~~18644
▁unterstützen~~695
▁Pillen~~6052
dichte~~12695
▁sparen~~7400
▁äußere~~16819
▁Häuser~~9968
▁Beitrag~~8937
haltung~~1629
▁umzugehen~~1135
fühl~~10105
ügeln~~12516
▁beraten~~1384
führ~~5466
The~~3616
ience~~10539
▁Helik~~19740
▁Fein~~11305
▁Durchfall~~18728
▁geliebt~~5082
▁beschäd~~12973
▁Journal~~8482
▁testoster~~23919
▁175~~15567
▁fig~~21430
▁170~~12257
▁fil~~19037
▁fin~~16423
▁fit~~13982
▁Graph~~5194
▁17,~~21394
▁verstärkt~~1734
▁17.~~6264
▁fix~~19113
streifen~~15264
▁Rohstoffe~~8910
▁Tony~~7659
▁Nuklear~~12732
▁SP~~10546
▁Herangehen~~12037
▁Anne~~21268
▁stellte~~4391
rooms~~19234
▁Lux~~2295
▁ment~~13433
▁ausgehen~~6315
wol~~21842
Part~~16939
aktivität~~2991
▁Tätigkeit~~3047
▁allein~~1992
ikation~~8686
▁seat~~22525
adores~~23722
▁Malaysia~~22008
ivated~~23351
▁zeichnet~~5181
apeut~~6890
anor~~18089
anol~~22455
▁zeichnen~~8455
ichtungen~~12693
▁Sagmeister~~18099
▁neutral~~18163
▁dick~~11310
zusammen~~8022
utzutage~~8948
atops~~22083
▁ärger~~15146
▁Budd~~21810
▁Polizisten~~14288
▁Bakterien~~666
▁Kamer~~784
▁Kamel~~12413
▁Kamen~~17069
▁antworten~~2575
▁meth~~23166
wait~~22232
packt~~6516
▁'60~~18769
▁Kühlschrank~~4388
▁Türkei~~13714
ifth~~20731
verletz~~20370
bewegen~~12539
agte~~5581
▁Silicon~~11954
▁Stunden~~4145
▁Internet~~1532
▁norm~~4468
▁reproduzieren~~13350
Mein~~7723
▁Feier~~13967
▁nord~~7090
ested~~21569
Maschinen~~20393
ester~~3914
estet~~22118
temporary~~20559
▁werfen~~8797
uses~~23192
▁Sache~~3096
aterie~~17950
▁Stein~~3680
hingegen~~19398
iert~~2434
▁Elvis~~20284
iers~~5009
iern~~5526
▁mas~~18829
iere~~343
▁Investoren~~11385
gänger~~2104
$~~16799
▁Weibchen~~804
▁ausdrück~~14046
▁Dennett~~19174
▁erlaubt~~3065
▁Behandlungs~~7395
...~~4157
fältig~~19135
▁Amerikanern~~11375
kreise~~16070
▁lieb~~5705
▁Teszler~~23924
▁liegt~~2699
▁area~~24055
▁pale~~22478
▁Jerem~~15966
▁beiträgt~~5982
▁Onkel~~17787
▁voraus~~6428
▁unglaublichen~~918
ungsfäh~~15920
▁schockierend~~11610
allgemein~~17444
▁tenden~~20759
▁verlieren~~7637
▁schwul~~14144
▁Michel~~15053
▁Luf~~2934
▁unvermeid~~13221
▁molekular~~19098
▁leitete~~13237
scheinlich~~16043
▁lies~~12704
zyklus~~12383
ruh~~3266
7,~~14701
run~~22554
rum~~5474
▁ne~~7141
ruf~~8969
rug~~4235
rud~~9892
rue~~18116
rus~~9798
rup~~17570
ateful~~23455
▁plaus~~21287
▁no~~21698
▁Manche~~1884
▁handelte~~6603
▁offic~~23709
öt~~10431
rolle~~14623
ör~~469
ös~~1393
öp~~21234
ön~~12857
öl~~10992
öm~~10778
ök~~4509
öh~~14890
▁offiz~~4712
öd~~12883
▁beinhalten~~11266
▁Ver~~2705
▁benötigt~~6184
▁Vel~~18035
▁Ven~~18581
▁beinhaltet~~7691
▁Fore~~17682
▁Ford~~15287
strukturen~~735
▁Form~~3174
▁Fort~~4636
..."~~9243
▁Sweeney~~23429
wesend~~14468
▁imper~~14704
▁örtlichen~~10895
▁begonnen~~7403
▁verärgert~~19996
▁tödlich~~13099
▁done~~23607
▁ausgestorben~~13786
▁Bord~~2944
hältnisse~~11609
▁menschlich~~13837
▁gestalten~~2599
möglichkeiten~~2600
ases~~19638
aser~~18691
asen~~2851
▁Guardian~~18256
▁verlässt~~17218
▁gestaltet~~4806
▁Dutzend~~2958
▁interakt~~22508
▁Onk~~8511
appen~~998
▁One~~18854
▁berg~~9662
▁bere~~7075
▁realisieren~~14363
▁Chinesisch~~8409
ämpfung~~17261
▁garantiert~~14037
▁histor~~18007
gu~~14539
gt~~741
gs~~179
gr~~5857
▁seiner~~868
▁seines~~2842
gy~~22251
Ber~~12822
ge~~1107
▁seinen~~1039
ga~~13472
▁seinem~~5107
▁Geldes~~2360
gn~~3431
nung~~6998
▁Rand~~9703
gh~~10729
arin~~19780
ario~~6673
ragten~~14827
aria~~22694
▁Vulkan~~185
▁Geschäft~~1274
▁Forbes~~18437
▁Studierende~~10422
sych~~21346
▁moralisch~~15728
Spe~~20211
▁Fettleibigkeit~~11619
▁Männer~~6427
ventionen~~16478
▁Wissenschafts~~4648
▁Vorschein~~10849
oking~~22046
▁wertsch~~3471
▁Lasst~~12172
;~~1677
▁zufrieden~~1819
▁Cra~~16245
▁Sozial~~1255
▁Cro~~17268
▁erober~~11339
▁Cru~~21138
▁Symb~~12209
▁vermischt~~12078
Aha~~20398
ulf~~611
▁Bible~~21250
▁PRI~~17519
▁langleb~~9544
▁Sterblichkeit~~12830
▁underst~~22172
▁Tennessee~~17885
spüren~~15626
icular~~23191
▁Szen~~16237
kunde~~11865
▁verzweif~~8268
▁Zorn~~13344
weeney~~12143
▁zuhause~~7208
▁perfe~~12877
glich~~11154
hielt~~11918
▁zufällig~~2820
▁bemerkte~~3445
▁beein~~20863
▁Jahrtausende~~17610
▁Vergessen~~13519
▁Frequenzen~~15008
▁Environ~~12444
▁umgeht~~12942
▁Platten~~6676
▁Hannah~~22967
▁Solar~~13933
▁therap~~22772
▁sogar~~444
▁through~~22552
räften~~8150
▁Wohlbefinden~~1235
▁überall~~3804
lles~~10438
ller~~4508
▁tax~~22909
▁Materials~~12744
▁tar~~23198
▁tap~~8424
▁ohne~~565
▁tat~~7975
▁plant~~17909
▁tak~~23827
▁einander~~3892
llen~~6263
▁historisch~~13680
ping~~22733
▁Children~~15473
iedelt~~9723
▁billige~~17052
▁Dabei~~4535
▁Erforschung~~14745
iedeln~~12394
aute~~9899
ically~~23393
auto~~18574
▁Taxi~~9238
▁Innen~~6561
▁Flüchtlings~~13685
▁Inner~~964
▁Flüchtlinge~~13688
▁aufzubauen~~7468
ergebnisse~~2288
▁gutes~~4395
▁dachten~~4132
▁Again~~18565
▁Green~~17600
iehlt~~13560
▁ökologisch~~9339
▁sinken~~9646
ktions~~5163
▁Urheberrecht~~13217
wich~~14308
wick~~8220
▁formt~~2962
ech~~16266
ect~~17608
▁Aktiv~~1485
▁57~~13042
▁56~~16663
▁55~~10411
▁54~~16004
▁53~~14630
▁52~~12238
▁50~~289
▁Sklav~~21579
▁59~~22423
▁58~~10923
▁Etwa~~13745
▁5-~~19535
▁5,~~21880
eters~~13129
▁architecture~~22987
erkt~~18234
yond~~20308
▁ausmachen~~2165
▁generations~~21673
yre~~19792
yons~~17483
erke~~23941
betrieben~~10240
▁Gesichts~~16519
▁Bedürfnis~~15212
▁insbesondere~~7687
▁ansteigen~~18604
▁Umfang~~8911
▁Norm~~16386
▁Nord~~5941
R~~2854
länder~~3848
beh~~11615
bei~~12945
▁Zucker~~751
bel~~7497
bem~~16455
bec~~17298
beg~~15029
bed~~11397
bee~~21253
bez~~16051
▁propag~~23934
ber~~740
bes~~6333
bew~~1139
bet~~6563
▁zweitens~~9012
ungsfähigkeit~~1476
▁allgegenwärtig~~16059
▁verfügbaren~~17169
anteil~~12699
ainer~~13744
▁Barack~~15300
▁summ~~9449
fliegen~~12518
ained~~19190
▁Mant~~10160
adies~~22565
missionen~~19464
▁Rechenschaft~~15187
▁Abstra~~17313
▁Rauchen~~19312
ulator~~8878
Stud~~4459
▁frank~~23922
▁City~~7674
▁moving~~22551
▁Eich~~9897
▁bestimmt~~4048
▁Wahrheiten~~3187
▁Gesichtsaus~~14342
zeugten~~17029
▁aufnimmt~~16228
forsch~~580
▁Georg~~14709
▁Strafe~~4288
leben~~1181
▁Airport~~9747
Maschine~~10437
▁Romantik~~18288
▁Wurm~~805
▁Bewegungen~~4928
▁Plast~~6011
▁Jord~~22785
▁auszugeben~~15193
Good~~21054
▁Katzen~~15548
▁gegenwärtige~~4238
örter~~18036
▁Kurz~~3394
sparen~~7654
ternet~~22252
▁vornehmen~~12839
erstör~~18929
lebt~~1985
lebr~~13185
▁perform~~16817
»~~7917
▁schäd~~6914
▁Roots~~23257
▁Wurz~~23253
gänge~~828
onomie~~4510
▁Buckel~~20767
ppiche~~6996
beschleun~~20882
▁Sarg~~7078
ierte~~1441
▁billigen~~9252
▁billiger~~13047
▁Leah~~14237
verhältnisse~~848
▁leist~~1579
▁ange~~2483
ownt~~22955
▁leise~~5345
▁XL~~21397
▁Anwar~~22196
ühr~~18627
▁Zunächst~~2367
▁Genauigkeit~~8060
ahrer~~14165
asant~~21708
▁bedeut~~10148
▁Liefer~~5992
▁Five~~20730
▁depress~~19062
ahren~~10229
▁eröffnet~~10267
▁ethische~~19072
isco~~14894
isch~~631
▁eröffnen~~10777
i~~670
▁Killer~~7145
▁Gest~~15574
ified~~20711
▁reserv~~15337
erve~~17791
▁grab~~23437
▁Pakistan~~7648
▁wunder~~6352
▁Winkel~~15821
▁benutzt~~332
▁gras~~23959
linie~~12665
▁Ehrlichkeit~~4476
▁sauber~~6084
arbeitung~~6545
▁blickt~~15326
imes~~15481
imer~~17684
imet~~448
▁gefähr~~2923
▁stirbt~~8466
imee~~23285
▁vergewaltigt~~7814
mmert~~16911
▁Modelle~~2868
imen~~1093
▁veh~~23651
ässe~~5475
▁Übungen~~10537
▁unglaubliche~~1095
ässt~~7541
otent~~21172
▁Leucht~~11988
▁Fähigkeiten~~1593
▁Kriege~~6243
brüche~~187
▁Kriegs~~12524
▁ewig~~4993
▁portrait~~20175
ifahrer~~15105
▁alarm~~16740
▁brillian~~14064
▁Kongress~~7387
▁schreck~~17915
olia~~20836
▁Ple~~13516
▁scheinen~~9110
▁Bewusstseins~~15495
andelte~~15412
ertigt~~12176
▁rüber~~5770
▁Designs~~9768
lerweile~~19240
▁Rule~~22977
innen~~8274
▁dasselbe~~7815
leistungs~~20523
innes~~20983
inner~~11756
▁wiederher~~4930
hy~~8205
▁climate~~23904
▁Interesse~~2127
hr~~4561
▁Langzeit~~4845
▁einschl~~9805
hh~~15582
hi~~18729
hn~~13738
ho~~15062
hl~~901
hm~~19559
ha~~11809
ersprache~~20244
he~~5913
Corps~~24100
▁Biom~~12756
▁Bion~~5862
▁nötig~~2609
▁Biok~~2817
istisches~~20227
istischer~~6955
▁tötete~~3539
▁mächtige~~14653
▁nutz~~13019
▁Zufall~~5297
▁wind~~12928
▁wählt~~19999
▁essen~~1952
▁park~~22982
▁wähle~~20038
▁Vertrag~~18126
▁winz~~18536
▁richtigen~~2653
schiebung~~18384
▁gespeichert~~5856
▁gehe~~5635
▁geringen~~9275
▁Schweigen~~3613
▁geringer~~4219
▁geht~~823
▁richtiger~~4303
ürtel~~15275
▁Ther~~3073
▁Teilnahme~~10192
▁They~~21545
iode~~8718
▁unterr~~5765
▁unters~~17373
▁untern~~9635
▁unterm~~8051
▁untere~~13886
▁Them~~6265
▁designt~~12608
▁share~~22402
ausenden~~3015
▁Millenn~~21411
▁talent~~7262
▁hypothet~~19689
▁offiziell~~9064
▁Sergio~~22979
▁Repar~~18014
▁jeweil~~2586
▁liegen~~661
▁Marktes~~8702
▁Abschluss~~2094
▁reisen~~5733
▁Tatsachen~~1294
▁Lebensdauer~~7235
▁vielleicht~~1020
upt~~14443
▁unterdrücken~~14522
upp~~12472
▁Zwie~~14242
ängst~~18182
▁Treasure~~20934
▁Kilogramm~~13102
▁Zeichnen~~13878
cence~~23843
▁konst~~12626
nen~~8080
nel~~20745
▁aufgegeben~~3884
neh~~7808
nee~~4822
ney~~3476
net~~7051
ner~~1954
nes~~19310
chtern~~4333
▁Netzwerk~~4656
▁cr~~24041
izont~~9500
▁ca~~3895
▁dreif~~18620
▁cm~~6058
▁cl~~12468
izona~~21417
▁ch~~19444
arfen~~12898
▁Comedy~~17665
▁Erik~~19122
▁Präsident~~6036
oman~~13202
▁Pent~~20071
▁Eric~~4605
omat~~11660
omas~~22764
▁erscheint~~8898
▁Penn~~8227
▁Pittsburgh~~4452
▁Pend~~17548
▁Fantasie~~10832
▁Stufen~~14789
▁tempor~~13654
▁ansch~~10577
▁nutzte~~6405
▁irgendwo~~959
tels~~19563
telt~~6015
▁erstes~~4610
▁erster~~2043
ili~~13002
▁ersten~~483
handlungs~~20111
krieg~~13046
teln~~9295
▁Korallenriff~~20823
▁Clint~~15298
▁Force~~7912
vorstellungen~~15684
oler~~18734
oles~~1752
▁Städ~~8779
▁Stär~~15315
Arbeit~~15054
▁Gefahren~~12886
▁light~~21029
olen~~11764
▁wirksam~~8468
▁Astronomie~~18672
▁Umweltschutz~~11803
▁2007.~~19521
▁keinerlei~~5430
endent~~23729
▁Leider~~7187
▁öst~~5987
▁Leiden~~14084
▁glaubten~~8422
polit~~17726
amment~~7217
schlä~~13765
ologist~~22041
▁wäre~~3027
▁Beziehungen~~6346
▁funktionieren~~1797
vermögen~~11023
osaurus~~17160
iences~~22576
▁wollt~~10997
▁Patri~~19507
apeuten~~3074
▁Phoenix~~18320
▁Armut~~3316
▁gehören~~6209
rüsen~~11638
▁digital~~11817
▁Motto~~1771
▁Three~~13318
▁folgte~~5134
▁Digital~~11015
Wow~~14433
▁Flusses~~18804
▁beeinflussen~~3071
▁Kollekt~~15422
medien~~15327
▁einbringen~~17917
▁hind~~21123
stunden~~14517
▁Fossilien~~13776
obert~~14635
▁Arctic~~23091
▁Hoden~~11639
▁Beijing~~20802
▁ärmsten~~7399
isy~~21629
▁berücksichtigt~~14106
iss~~2022
isp~~21219
ist~~2075
isk~~5783
ish~~5449
ism~~15999
isl~~15162
isc~~23301
isa~~21495
isf~~22920
▁amerikanischer~~14579
▁Ushah~~23477
▁beiseite~~9009
zeln~~16634
zell~~12507
▁modell~~12208
▁Nahrungskette~~6050
▁verfl~~14290
Jähr~~3657
▁effektiv~~6873
▁Außenwelt~~4980
▁erklären~~1043
▁Authent~~23117
▁Schreibtisch~~15576
▁gelehrt~~1360
▁finite~~22302
▁Weihnachten~~14865
▁Perfe~~4626
▁Komm~~12192
▁Zeilen~~8560
ständlich~~17135
▁Komb~~13437
▁Koma~~22134
knoten~~12790
▁betra~~2940
▁opp~~23346
▁gesteuert~~19410
▁opt~~10208
▁Komp~~5178
▁Stress~~5748
▁Kommun~~1332
▁Diego~~10776
▁aufnehmen~~10348
▁Produktivität~~1989
▁Morton~~23320
▁erschien~~3604
Zent~~12184
üt~~6014
▁Bridge~~20217
▁Toten~~9686
▁genetischen~~11652
▁Dienste~~19856
sprodu~~8668
gewinnung~~17960
▁verglichen~~12107
Achse~~10602
▁gelingt~~5292
▁funktioniert~~1029
▁Pflanze~~6459
▁afford~~22519
athemat~~17777
▁Äthiop~~8584
ctors~~18688
▁Vor~~2046
▁betrachtete~~15270
▁Mark~~3917
wers~~23812
▁Marg~~20899
stop~~12873
▁Marc~~22157
▁ermordet~~14018
▁Skelett~~13751
ston~~6786
▁Marx~~14304
▁Mary~~15991
▁Mart~~20564
▁sorry~~20649
▁Mars~~11414
▁entscheiden~~2358
wert~~4387
▁vollständig~~2941
▁Hillary~~8254
zonen~~7257
jahren~~12823
▁Apple~~14603
venten~~10419
▁Spektrums~~2460
▁Business~~14807
ennbar~~17339
werb~~12170
▁Dokumente~~17730
üssen~~5925
üssel~~14969
rufen~~4687
▁Ökos~~21956
werf~~5823
▁Geräuschen~~4195
menschen~~19869
▁personal~~10658
anche~~8527
▁Alice~~19795
▁Wolf~~12696
▁Gerüst~~12575
schlüssel~~15238
▁Bundes~~2399
▁Dienstag~~7869
orgt~~6125
▁demoral~~16254
▁industrielle~~12489
cyclop~~19758
▁Frühl~~17844
▁Teen~~4829
heric~~22038
▁erwecken~~13534
ürme~~10940
▁Nutz~~10506
▁inter~~6260
▁supern~~22820
▁Wind~~3981
üler~~4430
▁migr~~22588
ülen~~18719
▁County~~16326
▁Europä~~11698
utical~~22331
ix~~8416
▁Email~~9852
▁Scottish~~22235
ustain~~23055
▁Sollte~~15974
ip~~4271
is~~816
ir~~7431
isierung~~1430
it~~3179
iv~~1751
ii~~19438
ih~~14725
ik~~2649
ij~~13053
im~~1736
il~~1152
io~~3309
in~~3156
ia~~1163
ic~~3328
ib~~3403
ie~~733
id~~612
ig~~438
▁stürzen~~16229
▁entw~~8564
▁gel~~4257
zenten~~8325
▁entt~~2384
▁geh~~4141
▁gek~~762
▁gee~~16371
▁schwachen~~2409
▁gef~~5348
▁schließe~~7816
▁entz~~7359
▁geb~~3904
▁entf~~7593
▁gez~~2615
▁get~~8806
▁gew~~3975
▁gep~~8036
▁ges~~5461
▁enth~~3633
▁leiten~~4513
▁Berater~~20962
▁Pret~~22598
rome~~19011
▁Prem~~5049
▁Erfahr~~14008
▁leitet~~10782
▁Pred~~13447
▁Nichts~~1074
▁Toiletten~~6858
psych~~16922
ortun~~22344
▁Repräsent~~15297
▁fat~~21723
▁far~~14185
▁fas~~17400
▁fal~~11297
▁fam~~23930
▁fan~~21890
▁ABC~~22345
▁fac~~21841
opt~~4491
opp~~12180
assic~~17175
ops~~7221
▁vorhanden~~6701
opy~~17108
ope~~10783
opf~~2255
oph~~4899
▁Stopp~~7710
▁anzubieten~~4754
mlich~~470
▁kämen~~16023
örm~~17119
öre~~10389
örp~~20034
▁Evolution~~1568
ört~~11401
▁leichte~~17788
▁Australian~~23765
▁Flag~~16102
körner~~17940
▁Village~~17601
astic~~21427
burn~~22560
unst~~5884
▁Verst~~6777
bury~~4943
zur~~8299
zus~~4836
▁Pläne~~15135
aliforn~~5892
zub~~6594
zuf~~1829
zug~~511
zud~~236
▁kidn~~23542
zul~~363
zum~~13504
▁Weile~~1887
▁Botschaft~~3549
▁trium~~23944
rinde~~13912
▁beschleunigt~~4957
oomen~~10861
ihad~~22679
▁York~~6557
▁Kombination~~7609
▁Bull~~10040
▁Parker~~22243
▁emotionalen~~9097
uten~~6965
uted~~16160
ford~~15806
arett~~19585
uter~~213
uführen~~7282
utet~~14698
fort~~8766
sparungen~~7653
▁Füßen~~11521
▁Mount~~8255
▁wollten~~2132
▁transformative~~21771
sticks~~20445
ship~~21233
▁Mehr~~8452
▁Modell~~2902
▁regener~~19898
▁Regierungs~~12443
▁mechanische~~18652
▁Leidenschaften~~15628
legte~~7201
dies~~20371
▁heilen~~8550
dien~~15494
feld~~4066
▁besond~~21840
licht~~2489
▁definiert~~8495
bären~~17629
▁„~~8199
▁“~~4898
▁—~~14572
▁–~~100
fährt~~9396
irdischen~~18324
ichtungs~~14424
▁basiert~~9555
▁Lunge~~7292
▁altru~~15394
markt~~6271
▁padd~~22284
erv~~17314
▁Meisten~~5626
▁männlich~~11655
▁problem~~20908
▁verlassen~~8186
▁Lizenz~~13267
▁steigen~~962
führung~~4820
▁treu~~8008
ery~~22253
▁Give~~16109
verhalten~~10380
heres~~16573
▁ähnliche~~5248
▁hipp~~22902
▁Cameron~~7630
▁klugen~~20238
stät~~8960
stär~~2086
nimmt~~4170
städ~~9015
▁dich~~1500
▁träum~~9156
▁gefallen~~5725
▁Steinen~~14001
igator~~17893
▁schnell~~2427
▁Atmen~~5108
▁eingestellt~~4707
▁Sheila~~7811
▁unglaubliches~~7532
▁geschlagen~~6287
lesen~~3090
▁überstehen~~20067
zusetzen~~7200
▁fehlt~~5158
▁12-~~3656
▁Schwester~~7735
▁kehren~~20035
▁erweiter~~15882
▁Abschied~~8555
▁Neuer~~12068
▁Neues~~8777
ood~~3164
▁aufbauen~~3248
oom~~10665
ool~~13572
oon~~15851
apper~~17641
ook~~12455
oot~~12376
oop~~6016
▁Dollar~~2895
▁Schätzungen~~17813
▁Billy~~19289
▁Panz~~17988
▁Gouver~~22248
▁sun~~22767
▁pragmat~~14212
mented~~17212
▁einheim~~12311
örtlich~~15420
▁gewaltig~~7382
menten~~11479
▁amerikanische~~8394
aurus~~21493
▁einheit~~18971
▁Kommunikations~~3794
rays~~23560
▁Glied~~20255
▁gezeigt~~5060
▁Simon~~5020
▁guter~~1625
designer~~5575
▁Weste~~9262
▁Überlegen~~10818
▁gutem~~16504
▁guten~~2517
▁Six~~23326
zne~~14925
▁Ereignissen~~9407
▁Nelson~~15501
▁Sit~~4680
▁exter~~14385
▁Benutzer~~11998
▁gehen~~1106
immer~~157
immel~~13345
immen~~9716
▁gestoßen~~2143
▁Stockholm~~7093
▁Skala~~18161
▁Qaeda~~23841
▁geschützt~~6927
flügel~~6294
werkstell~~20119
▁Während~~3116
anson~~20879
▁bask~~22716
She~~10191
ruhen~~19461
▁assozi~~16100
▁EDI~~24066
▁ört~~17030
▁Plattformen~~10215
agin~~17272
▁DNA~~8581
plätzen~~14809
ruppe~~18590
▁DNS~~6846
teilungen~~2967
▁Entscheidung~~2266
ließ~~7170
▁fish~~20832
▁heiraten~~8405
▁Wör~~23881
▁Hände~~4705
▁basis~~21879
▁Walker~~11387
icherung~~19544
▁infer~~15612
▁dazwischen~~5477
App~~19537
ützt~~13838
punkte~~3070
afen~~6729
afel~~11992
schulen~~337
schlagen~~7953
akten~~10570
▁Tiefsee~~817
akter~~4059
▁auszur~~7325
▁auszus~~9795
▁auszut~~12122
orge~~6976
▁auszub~~7498
grammen~~18390
▁auszug~~20873
▁auszud~~21941
werk~~4726
▁auszul~~7371
▁Anwend~~22822
mitte~~460
▁profitable~~21594
▁Einnahmen~~16082
▁Magnet~~18680
▁Ruder~~13958
▁tit~~22343
▁unnöt~~9358
skrise~~5810
▁til~~21947
▁spenden~~12982
▁interview~~8680
▁Richtung~~2472
ünde~~4427
▁Angestellten~~1277
▁hervorrufen~~14134
▁Barbara~~16210
▁erwe~~9513
lieder~~7537
bringen~~2566
▁jünger~~9476
▁billion~~1571
unkten~~18488
▁Voraus~~4422
▁versehen~~15510
▁Portrait~~16547
schichten~~10808
▁winziger~~13811
▁Übertragung~~3515
▁winzigen~~6060
▁abz~~14464
▁Amerikanischen~~17604
▁abs~~13965
▁abw~~17511
▁Sekunde~~1690
ütze~~11034
▁abh~~7988
▁bisher~~586
rade~~22044
▁kommst~~1843
▁Indiens~~7501
rupt~~18937
▁forum~~23547
rupp~~9241
▁fried~~9705
ju~~11314
▁Sequenz~~7333
jo~~22676
▁geheimen~~17540
ji~~18427
leitungen~~17045
je~~15180
ja~~6132
▁Dschungel~~21107
▁Ost~~6295
▁Kindheit~~9134
▁Telefon~~8070
holders~~1833
▁größere~~860
▁Osm~~21240
daten~~16065
▁Dead~~12368
▁wortwörtlich~~19230
▁Kerala~~16086
▁150.000~~12391
arts~~16133
ocal~~20945
artz~~23487
▁Könnten~~10928
arta~~14737
▁angere~~10513
▁Brokkoli~~16474
arte~~4760
arth~~6244
▁ziemlich~~3003
▁weiterentwick~~11722
▁Eig~~23265
▁Schlimm~~12700
▁Ein~~138
▁sogenannten~~5934
▁feststellen~~11191
kläss~~20090
▁Transparenz~~1835
iversity~~22230
▁Behör~~12667
▁million~~1570
▁Jugendlichen~~3585
▁Büchern~~4991
fenster~~5180
▁Figur~~13264
ikator~~20529
▁Weltraum~~7231
samm~~18608
▁standards~~23955
same~~15346
samt~~16463
otyp~~17778
▁Dur~~15791
▁Dus~~11832
▁gerissen~~15964
▁Tauch~~827
▁gebaut~~4825
▁Dub~~22934
▁trainieren~~4962
▁Dun~~13932
▁Dum~~15359
▁habt~~11005
▁therapeut~~20780
▁Susan~~12776
▁Music~~4860
▁habe~~1317
▁Musik~~1117
▁Hong~~18100
rechend~~22729
gangs~~3089
▁tend~~17379
▁genannten~~13819
prüch~~21635
▁Inder~~13485
▁Irgend~~9990
▁CEOs~~16795
▁Index~~17307
▁hält~~1880
4~~2905
rän~~11026
▁Indem~~7864
▁Lehrern~~2617
▁geograph~~10022
▁Denis~~20336
▁vergleicht~~13817
▁kü~~7112
▁Hipp~~13882
nost~~16644
▁investiert~~2319
▁Dick~~16549
▁Dich~~9713
▁nachahmen~~3005
▁elektromagnet~~20392
▁60,000~~22647
New~~5342
▁dur~~11350
ieder~~9782
▁herstellen~~6471
▁dug~~23916
▁dub~~23398
▁Anwalt~~2540
ieden~~5422
▁dum~~17167
ände~~2585
förm~~17181
▁jährlich~~7521
othe~~4494
▁willst~~5079
othy~~17393
▁eingerichtet~~8313
lands~~15178
▁Unterstützung~~7219
nitten~~11637
▁psych~~6888
▁Rückenmark~~6814
▁Fest~~7045
achten~~6620
erspektive~~10282
ungskraft~~10023
▁["'~~23368
achtet~~6330
zustellen~~4931
achter~~12812
▁Khal~~23335
▁Khan~~21690
▁Ruf~~5501
▁wohlhaben~~16372
▁Nummern~~16369
einander~~4290
▁Solarenergie~~20851
manuel~~10455
▁behaupten~~2492
ugier~~23409
videos~~18687
▁setzten~~9710
▁separ~~18663
▁jederzeit~~7157
▁behauptet~~9311
▁Quer~~19961
uador~~23120
richtung~~6583
field~~6292
▁Philanthrop~~24001
▁Willkommen~~10453
▁angeschaut~~9879
▁Mikrofon~~5411
▁verschiedensten~~14491
▁poet~~15015
▁Eis~~801
anach~~13796
▁Ergebnis~~1666
begriff~~15794
▁1960.~~16751
▁domin~~7679
▁1960,~~16756
▁polit~~17710
imme~~9592
▁Dutch~~23840
immy~~24128
ganz~~12867
pless~~24062
immt~~8473
▁polio~~7363
▁orange~~12436
falt~~7944
fall~~7602
▁Council~~21936
▁Fünftel~~12798
▁Abfall~~16806
▁chem~~742
▁Finanzen~~16026
zentrum~~2553
gang~~8981
▁Therapien~~9076
▁motiv~~1744
▁Gefühle~~5542
▁leere~~853
▁entscheidenden~~2543
▁ausländ~~17568
▁Ist~~1083
▁Cous~~12336
▁Cour~~10449
▁Isa~~21151
▁Coun~~23079
ordnung~~7886
underte~~9915
itarian~~23222
K~~2937
izieren~~3026
▁Chromosomen~~9538
▁Slum~~3340
▁koennen~~22797
▁jüngste~~13165
stellt~~4834
▁zeigt~~902
▁Gruppe~~3749
stelle~~1907
▁zeige~~4068
▁stereotyp~~21830
▁sond~~19027
armen~~19763
▁Erinnern~~5744
▁demograph~~18311
▁test~~19983
obile~~13332
barung~~17139
▁Mathemat~~20129
▁Wechsel~~11150
▁Trend~~9079
osn~~14246
ials~~21412
der~~303
des~~6154
det~~12358
▁autor~~20971
dem~~2883
▁Überwach~~1510
ded~~19699
def~~15195
▁Nachkommen~~9600
▁einbauen~~12523
▁Nicholas~~12050
sprogramme~~18242
▁progressive~~22577
ündigen~~19426
ilosop~~18636
▁Recherche~~12163
bekämpfung~~20722
▁reich~~649
iessen~~7285
▁Medical~~8518
▁Ähnlichkeit~~9925
▁bloss~~15779
indern~~11265
▁Macher~~16219
▁Browne~~16720
indert~~15435
▁Machen~~4657
alph~~12466
▁trage~~9226
What~~18862
▁Beschäft~~20964
▁Wahl~~1578
inzip~~6393
▁Nature~~17636
▁Selbst~~1343
▁prop~~13130
lässig~~11238
▁Virt~~4748
wä~~201
▁Wahr~~11881
ement~~12586
▁Feld~~2886
▁spät~~5621
▁Fels~~909
pend~~21424
▁Sterbe~~8474
iders~~22367
▁Alfred~~14747
▁zerst~~3198
▁selbständig~~12559
uhe~~20093
▁Sücht~~12318
▁Medikamen~~20662
bage~~5796
▁blicken~~18356
uhr~~7711
malen~~658
▁building~~23518
▁erstaun~~5229
▁Veranstaltung~~6660
▁klug~~8006
▁prob~~16890
idel~~17024
idem~~6266
iden~~652
ideo~~22244
ided~~23003
idee~~12371
▁Schildkr~~9218
▁Bahn~~11082
▁Habe~~12894
ider~~5586
ides~~6213
▁km~~7209
▁kl~~907
▁ko~~13187
▁kn~~4858
▁Kollabor~~15307
▁ke~~15128
▁kg~~700
▁niedrige~~18286
▁voranz~~7225
▁absorb~~3967
▁vorant~~2650
▁kr~~12976
▁Gesetzen~~12768
▁jetz~~16422
isph~~17164
▁Gesetzes~~21366
zung~~6179
▁line~~6826
▁Restaurant~~6118
▁bewerten~~10562
▁Gene~~9598
▁bewertet~~1544
omin~~8824
▁extr~~18995
▁andererseits~~14798
wagen~~13438
nach~~7474
ulture~~10631
kom~~5841
kol~~16559
▁zugleich~~11871
▁allmählich~~17585
▁helfen~~5780
▁interess~~18532
▁Antrieb~~2641
kop~~20885
▁Geheimnisse~~15289
kor~~12236
sperson~~18376
▁Altru~~20226
▁dimensions~~22863
▁Diät~~3237
stätte~~16861
▁Kuh~~12494
▁Interventionen~~20212
▁Bundesstaaten~~8312
▁99.~~21375
▁99,~~11243
▁ungesch~~17309
b~~31
▁Sendungen~~17786
▁institutional~~16011
▁Büros~~13676
ufen~~5264
geordneten~~8134
cept~~22779
▁Neigung~~2954
▁nonverb~~19236
▁mentale~~19071
▁Minnes~~22684
gehörigkeit~~18452
▁Kurator~~19570
▁Finan~~15205
▁Ill~~9531
▁honor~~3665
▁jemand~~1319
ka~~9957
▁muslim~~20572
ke~~5262
kd~~18059
kk~~20694
ki~~20829
ko~~10727
kn~~12974
km~~16305
kl~~2835
ks~~4942
kr~~7073
▁Roll~~14238
kt~~2336
ky~~17487
▁besonderen~~6969
▁Rebellen~~19510
▁besonderes~~21301
▁programmiert~~1567
▁68~~17015
▁Woche~~1048
▁Cambridge~~2808
▁Lieblings~~1198
▁Tja~~5327
▁Bhutan~~8599
▁ansteckend~~18017
▁Tomaten~~13064
▁Douglas~~11130
▁fluid~~23621
attle~~21979
▁vernünftige~~7228
▁überraschenden~~10024
▁2.0~~10922
▁2.5~~22477
▁Räume~~5249
▁aufhören~~1648
▁effizienter~~6153
▁defen~~18805
hersteller~~20947
▁vertrauen~~1912
▁extrem~~4650
▁Konzer~~5213
▁südlichen~~7645
▁Pfeifen~~3761
▁Flex~~5074
ika~~6877
▁umfassende~~7202
ike~~1896
iki~~21854
ikh~~18195
iko~~17242
▁freiwillig~~14075
alog~~15844
▁Unterdrückung~~14160
▁viele~~965
▁Econom~~19265
▁Balken~~2339
▁ausgedacht~~9467
rete~~22490
▁Wohlergehen~~20017
▁ungewöhn~~18464
▁wegen~~1551
▁verdeutlichen~~8773
▁veröffentlicht~~1603
Ding~~12259
bild~~1178
▁verschlechter~~1793
ful~~21192
ächtige~~17530
teten~~10619
▁übersetzen~~17759
▁Mitteln~~15317
▁Abkommen~~13316
▁Tower~~20530
fuß~~3568
▁korre~~20601
▁Fang~~21560
▁Baus~~14598
elang~~2390
eland~~17619
itors~~22848
▁Terroristen~~17557
▁Odys~~22285
▁only~~22393
itch~~14748
▁geduld~~17793
▁Sutherland~~16891
▁Koff~~19063
moment~~21962
Kön~~19854
▁Anwendung~~4054
▁Barmherz~~22950
▁respektieren~~13275
y~~3487
▁Söhne~~7849
▁Bewertungen~~10600
▁illegal~~17369
tendlich~~24114
▁Auftreten~~11603
▁Sicherlich~~4203
▁erhalten~~6076
▁geleistet~~17805
▁Konne~~18331
aps~~6269
sprojekt~~15436
▁staatlichen~~12767
▁Dynamik~~1587
▁beurteilen~~13961
▁photograph~~22637
▁erfolgt~~2446
▁benötigen~~10864
orientiert~~18235
▁kommerziellen~~13230
back~~18397
▁Salman~~21997
pet~~18004
▁einführen~~2199
per~~4779
pes~~23202
pel~~21421
pen~~543
energie~~17910
ped~~14389
▁dicke~~10766
▁mensch~~9574
▁PISA~~2003
▁erw~~5088
▁ert~~4126
▁err~~13419
nden~~6340
▁erz~~2462
ications~~10007
▁erf~~2160
▁erg~~5657
▁erd~~10608
▁ere~~16083
▁erb~~9422
▁ern~~6236
▁erl~~14649
▁Minister~~13135
▁erk~~11608
▁erh~~8085
fghan~~21535
▁Hinweise~~6308
Speech~~23869
▁Gesprächen~~18560
Sauce~~23837
▁Durchschnitt~~4262
Comp~~16209
▁demonstrieren~~12845
forward~~23007
cript~~22482
Come~~22766
▁Daniel~~12864
imensions~~22959
ccoli~~23464
neys~~22924
▁Fuß~~800
▁Beschleun~~19092
▁politische~~3390
kulare~~12750
azines~~21235
ktion~~8669
oment~~20693
zunehmen~~7997
richtungen~~6562
▁Train~~17081
▁beide~~2769
▁Ereignis~~6357
▁600~~8336
▁gar~~884
▁60-~~10520
▁Insulin~~17255
▁alive~~22276
▁Sensor~~12620
▁upon~~22524
▁zitieren~~17573
▁spontan~~14771
▁ärm~~14604
▁Zweitens~~1810
▁unterhalten~~9230
▁Einrichtung~~6699
▁Mädchen~~5639
▁Historiker~~14673
▁transpar~~16189
▁kulturell~~14367
▁Mörder~~16323
▁simpel~~20510
▁sense~~24090
▁dieselbe~~5754
▁Beobachtungen~~13949
▁economy~~24108
▁Kopf~~429
▁Medik~~18370
geschrieben~~10390
▁schen~~16904
▁schreien~~11151
▁bestätigen~~10794
wechseln~~5971
▁kill~~7375
ittel~~16494
seher~~20784
▁verrückte~~11755
▁üb~~16309
▁etwas~~415
▁verdeut~~5202
▁Sydney~~19421
▁synchron~~18571
Ver~~8369
namen~~13395
ption~~20871
ovae~~21241
▁Bakterium~~877
▁brechen~~11457
▁human~~3583
▁Sher~~8172
▁delight~~23873
sehen~~2659
▁Willen~~7518
äuse~~6649
▁rollen~~15787
▁unseren~~572
▁unserem~~497
▁übergeben~~9698
▁unseres~~558
▁unserer~~422
▁spielen~~1322
büchern~~15620
unate~~23404
▁Eduardo~~23071
spruch~~16364
▁spieler~~1710
afi~~17225
asure~~22726
afe~~13495
aff~~3433
,000~~18123
ickte~~16943
aft~~10047
▁Eimer~~11794
▁Maryland~~18345
afr~~8908
▁mitbringen~~822
frag~~4919
▁funny~~22841
frau~~5826
▁sensit~~23871
▁zum~~1089
▁zun~~11461
chnik~~12872
▁zuk~~21398
▁zug~~2251
▁zut~~17999
▁Niveau~~2064
▁zur~~368
▁zus~~7216
▁Moderne~~14158
meter~~20537
▁siehst~~7950
▁Verwaltungs~~19654
ld~~6559
le~~863
la~~5893
lo~~5091
ll~~3688
li~~16468
lt~~5401
lu~~15133
▁hoff~~10405
wissenschaftler~~15383
ly~~12145
▁Night~~6100
▁Unterdrück~~14309
▁vermehren~~14951
▁Bedingungen~~1225
▁Isaac~~18143
▁Fällen~~544
▁Vort~~19048
▁Anstelle~~12613
▁tolerant~~14731
rey~~9307
stür~~14864
res~~3224
rep~~11362
rew~~3587
ret~~9273
reu~~18530
rei~~4620
ren~~313
rel~~12486
rem~~791
reg~~3119
red~~3700
ree~~5863
▁Hochschule~~10714
▁neuron~~15613
iebt~~7167
ädt~~15256
▁Term~~13249
▁Terr~~11914
▁Landwirtschaft~~6208
▁wecken~~14940
gaben~~2402
▁verlet~~22192
▁Hero~~4828
▁Ereignisse~~6750
▁Fundament~~13704
gedanke~~16909
▁Android~~19528
oline~~2729
bruchs~~11437
▁util~~23223
ogy~~21767
▁schwed~~15456
züge~~180
ogr~~21345
▁schwer~~2025
ogn~~23474
ogh~~15683
spiegel~~20279
oge~~15855
theorie~~15355
▁Schwelle~~5683
▁großartige~~1760
eschön~~10967
izon~~22765
▁ökonomischen~~2044
▁Autob~~12769
▁Autom~~5478
rache~~23208
▁Autor~~1922
▁Autos~~6343
racht~~12309
▁Oliver~~4895
▁startete~~15363
▁kreat~~15685
▁Bienen~~13059
erer~~18300
▁traditionelle~~4594
▁Sonnenschein~~21272
▁Pingu~~23504
▁Vul~~21891
apie~~19915
▁Jim~~3686
▁Pand~~14787
antast~~21498
▁Jeden~~6105
▁ELA~~23808
▁rhythm~~5358
▁Faktor~~2015
▁Jedes~~3677
▁Jeder~~2530
gestellt~~1913
▁front~~22888
▁wahrgenommen~~4478
nachrichten~~13398
▁Wolfram~~20402
▁passte~~14770
fecht~~8148
▁astrol~~21327
▁verstanden~~12543
organ~~13865
utete~~8276
▁Landkarte~~14031
▁fügte~~18794
▁herunterladen~~7592
gefallen~~3852
▁DVD~~3271
▁sagen~~1091
▁Beobachtung~~8926
ammer~~2836
▁Abwasser~~17657
yright~~13156
▁wahrschein~~12278
anium~~23215
vation~~22719
▁zusch~~6710
ington~~17055
ammen~~9375
▁type~~23315
▁gleiche~~1125
ähnlichen~~12926
legten~~10504
▁Senegal~~19957
terung~~9016
▁gleicht~~19831
▁rout~~12797
▁Kategorie~~15848
▁Therapie~~6884
▁sicherzustellen~~8874
▁tiefgreif~~3295
▁blink~~9951
orfen~~14050
▁blind~~8710
▁breite~~19599
▁dünn~~11292
▁ausgesch~~6849
handlungen~~14280
▁Julius~~20066
äusern~~7758
▁beschäftigte~~4194
▁ums~~9032
▁angebracht~~18203
▁beseit~~12995
▁umf~~16750
▁raten~~15852
agan~~20451
defin~~15305
▁geholfen~~5821
dimensionalen~~18973
yst~~22712
agten~~2755
▁zweif~~6978
▁wiederholen~~5380
▁Image~~18820
▁verschafft~~20966
▁Pant~~12925
bahnen~~3098
▁Hochschul~~10414
▁Unternehmen~~1264
▁Unternehmer~~1267
▁indire~~4486
ickten~~15687
▁meint~~5673
▁Mustern~~17087
▁meine~~1370
▁herzustellen~~8087
erman~~20146
▁Dere~~18923
▁wüssten~~14072
▁willkürlich~~14017
ignet~~4053
icit~~23434
icip~~21362
bauten~~12996
▁vertikal~~6831
▁großzüg~~20268
▁Anzeige~~3088
▁vorstellen~~221
▁Hinterkopf~~17975
▁beschleunigen~~4716
▁Verantwort~~13807
▁Brennstoff~~13340
est~~941
ess~~3554
ese~~694
rall~~21239
esc~~23096
esa~~14553
rale~~5304
esh~~7596
▁autonome~~20501
aster~~3054
▁bege~~14137
▁aufweisen~~10525
▁Zehnt~~18953
▁Taucher~~22052
▁begr~~18906
▁überprü~~12661
▁kopieren~~2524
▁Wichtigkeit~~10210
andem~~21722
andel~~1778
anden~~2823
ander~~6210
andet~~23534
▁Komposition~~3770
▁Hopkins~~17957
▁Italien~~8453
▁vorschlagen~~7199
eint~~13150
ionen~~3491
eine~~13044
eing~~15960
▁%.~~19246
tun~~20169
ifizierung~~8802
▁finanzieren~~15173
▁Heraus~~15696
▁Prüfung~~2145
bur~~7494
bus~~20989
▁Equ~~21561
but~~22649
insky~~16878
▁Meerwasser~~132
bul~~22983
bum~~23694
sprozess~~5161
▁spirit~~13979
bud~~18194
▁Long~~5871
▁Lond~~6279
oux~~22070
gesellschaft~~6072
ahrt~~11924
Yeah~~21867
▁obere~~13884
our~~5406
ahre~~1374
▁Next~~16544
▁Saturn~~11916
▁Donner~~10912
ögen~~5012
ensive~~20112
ledge~~20055
▁spezif~~13599
▁spezie~~12800
isiertes~~10659
isierter~~8816
prozent~~7477
‹~~20182
▁Susie~~23606
Ach~~15096
▁transit~~21940
▁Schlauch~~8261
▁Hoff~~7223
▁Genoms~~14021
–~~18307
‒~~23849
▁Jonathan~~14942
schäd~~9785
’~~5165
‘~~19184
‚~~18850
▁Shr~~16151
“~~8371
‟~~23016
„~~19202
schär~~12114
iddle~~19933
▁She~~12931
inary~~23640
▁Rück~~6897
▁Feynman~~19133
ders~~10252
▁früh~~2558
dern~~367
derm~~6492
bten~~6097
dere~~17523
▁Regionen~~8625
▁Bonobo~~23814
▁erleben~~3631
▁freiges~~21195
▁Inst~~9666
▁Grönland~~18614
▁Meilen~~7338
äuschungen~~11850
▁Anweisungen~~10063
▁Berechn~~23020
▁Dikt~~13452
▁draht~~19452
▁berichtete~~11531
▁pump~~21974
▁Erzählen~~3240
▁Erzähler~~3181
▁Bildungssystem~~2510
▁Nevada~~17588
ipping~~23217
▁Jordan~~5882
achsen~~9177
▁hund~~23728
▁hung~~6164
sterreich~~15476
auften~~16077
aktive~~10295
▁Vorstellungen~~12054
▁information~~23322
esome~~23177
▁Kuba~~19139
▁Bevölkerung~~2040
lers~~3443
▁beläst~~866
lern~~1014
▁Vorgänge~~13922
studie~~18180
▁gezeichnet~~16284
▁stärken~~10968
▁überlegen~~4516
▁stärker~~4477
▁kur~~3281
Kom~~15461
Kon~~4641
▁Manchmal~~6531
undeutlich~~18576
▁Justice~~24000
▁eben~~4291
▁Conne~~21762
▁Bäumen~~14169
▁Konsequenz~~12596
▁Dosen~~7420
▁chirurg~~12774
▁sauer~~13442
▁führte~~4826
me~~1808
onie~~1116
▁hässlich~~19121
onia~~23239
onic~~20450
mm~~10332
ml~~1971
mo~~16992
mi~~8344
▁besucht~~5875
mt~~971
▁verschwinden~~9647
mp~~1824
ms~~1036
▁plus~~17038
▁plur~~23568
my~~19867
▁Hu~~13123
▁witz~~18467
▁Hy~~9621
▁He~~4119
▁international~~7429
▁Ha~~4015
▁Ho~~6926
▁Hi~~10969
▁HT~~20922
ena~~5225
end~~1514
ene~~7663
eng~~7700
enk~~9034
enn~~5650
▁dramatische~~16982
ens~~1155
ent~~306
▁HA~~21996
▁wöch~~3261
▁Toilet~~18721
enz~~20940
isions~~7244
▁HI~~18367
sprachen~~19748
▁12,~~14466
▁ansonsten~~10109
▁Verpfl~~14000
▁prosth~~23288
artigkeit~~19892
▁Wesens~~17098
▁wachsenden~~4892
▁Ethn~~17868
▁beeinträcht~~7099
▁verbesserte~~9457
▁winzig~~911
▁Schuss~~13885
enten~~7365
▁hübsche~~13446
▁digitalisieren~~12029
enter~~16079
hlte~~12422
▁Spekt~~5330
▁Athe~~20241
▁polar~~19819
imul~~6866
riebe~~15721
Here~~18562
issions~~16194
teilen~~7914
▁Klimaw~~18214
blätter~~19161
▁Klimak~~20499
▁austral~~20795
▁keiner~~548
▁keines~~18502
▁potentiell~~14003
▁teure~~8283
▁keinen~~729
▁keinem~~8543
▁Planung~~17762
ttern~~18412
▁Kameras~~242
▁Comp~~19103
▁Anliegen~~8879
▁bedroht~~8722
▁Come~~21558
▁Comm~~8834
▁Versuch~~771
▁Language~~23699
ttert~~11470
▁installiert~~11341
▁italien~~9169
▁Jamie~~19469
gor~~19069
▁lade~~19388
prozess~~5164
▁ungleich~~2217
oston~~21523
É~~22868
▁Guy~~19661
▁Gut~~2790
Ç~~23332
Å~~19004
Ä~~15042
ß~~4150
Ü~~7189
▁Premier~~20109
×~~23905
Ö~~18628
ë~~22594
ê~~3772
é~~8863
è~~23148
ï~~22231
▁Davon~~16288
í~~18514
ã~~22984
â~~21069
á~~12130
à~~16941
ç~~17737
ä~~775
ú~~23092
ø~~21912
ý~~21448
ü~~329
ó~~18512
ñ~~1111
ö~~302
ô~~23449
▁achten~~1335
kräfte~~2110
▁Bedien~~16545
▁Netra~~21312
expl~~19276
ativität~~23644
▁solltest~~12935
▁Wasser~~615
▁Emotionen~~1658
▁1989~~20921
▁Alger~~21150
-~~354
etischen~~744
▁besessen~~8942
▁Synchron~~15754
gments~~22326
▁harte~~9803
ully~~17007
▁Impfstoffe~~7369
flos~~14647
flow~~20142
▁Zweite~~16073
▁exot~~8458
ulle~~7414
▁zuzugeben~~14111
▁schott~~16645
▁konkrete~~16881
▁Vancouver~~13936
▁Bauchspe~~23870
stechnologie~~8823
opter~~17199
▁Dilemma~~6700
▁vort~~5564
▁vorh~~19578
▁vorm~~16314
▁vorn~~501
▁zusammenf~~16526
▁naht~~20535
▁nahm~~2464
iper~~21570
▁nahe~~5868
twick~~8855
▁Se~~1421
▁Sa~~2816
▁Sc~~5196
imittel~~20777
▁Sm~~2767
▁Sl~~12116
▁So~~298
▁Sn~~12471
▁Si~~23739
▁Sh~~4861
▁Sk~~6685
▁Su~~15488
▁St~~1831
▁Sw~~10078
▁fährt~~12295
▁Sp~~640
▁vorbere~~20083
▁Sy~~1953
▁Bewegung~~5139
ungsk~~1511
▁SA~~21639
▁SC~~11043
▁SB~~21729
▁SM~~21129
▁SL~~19606
▁SO~~18054
▁SI~~21025
ungsf~~11960
▁SJ~~18700
▁SU~~12526
▁ST~~20670
▁SW~~22435
isha~~16329
▁SS~~20597
▁SR~~20880
ishn~~21735
▁kognitive~~9618
▁Crash~~20708
▁Bleistift~~12904
▁automat~~18756
edeut~~6408
▁wünschen~~10121
▁führenden~~11675
stellten~~10788
anfall~~21782
▁interagieren~~6852
▁Täter~~17392
▁richtet~~6539
▁Welchen~~4189
▁viermal~~18408
▁Beutelw~~23847
▁Welches~~4128
▁richten~~3754
▁Standpunkt~~5539
würdig~~8127
▁Funktionen~~13924
▁Interaktionen~~16837
bees~~23637
▁schwäch~~1293
▁gezahlt~~4261
▁buff~~20140
▁Kirchen~~12202
isabeth~~3707
▁Sucht~~4850
▁Route~~7053
▁Suche~~3650
▁span~~22017
▁stimmte~~18646
▁Horror~~13550
▁bloßen~~18492
▁Voll~~9596
üss~~8359
üst~~3639
▁national~~8886
▁zulassen~~11933
elte~~2961
▁hoher~~12688
▁1850~~18585
▁braun~~6821
▁Polizist~~14286
tember~~15978
"]~~5618
▁Ide~~11263
riffe~~16038
",~~1168
"-~~9745
".~~3128
▁Embry~~9609
▁Rote~~13935
rifft~~14729
"?~~17143
":~~3660
▁Roth~~18984
▁steckte~~13247
haftigkeit~~19222
▁biomed~~21436
▁Bü~~12407
▁inner~~13453
▁eindeutig~~8508
▁Voraussagen~~21611
▁Bä~~5967
▁Mauer~~17365
stens~~15593
▁verste~~12893
▁Schle~~6027
▁Hund~~11820
▁Hung~~18033
bands~~4788
▁Hunt~~22655
▁naive~~21212
▁wagen~~17216
▁Überr~~13787
▁Lebenser~~10301
hälfte~~12530
▁Darin~~16303
ick~~3455
▁Kahn~~18815
▁Heads~~562
ich~~5307
ico~~19152
▁bow~~23374
▁bot~~5990
ica~~3311
▁boy~~19085
ice~~10962
icy~~9786
reffen~~12729
ics~~16206
▁Bestech~~21942
▁Elternteil~~2724
▁Trainings~~7873
▁bol~~23495
ict~~21407
core~~4872
vitation~~23500
corn~~16940
▁Arkansas~~18861
▁Hören~~13642
▁angeben~~11231
▁ausgelöst~~5652
▁Verhandlung~~19208
▁liebst~~13450
▁viral~~13203
▁2004,~~8838
▁2004.~~7526
Geschichte~~17260
▁Blind~~17345
▁live~~3066
▁erfor~~19020
ideos~~22337
▁Ausbe~~14524
opus~~22502
lage~~3778
▁Skulptur~~13353
▁graus~~6511
▁beherrschen~~19571
▁Zylinder~~8050
▁Einsicht~~10147
▁logisch~~9426
▁wichtigen~~6839
▁außerord~~6131
▁wichtiges~~2310
▁wichtiger~~3043
ni~~4596
▁vi~~18034
▁vo~~21065
no~~13258
▁psycho~~23114
na~~15291
nb~~20181
nd~~2680
ne~~862
nf~~7138
ng~~14471
ny~~5577
▁Faktoren~~2497
ogan~~16097
▁aussehen~~1700
techn~~13789
nt~~11792
▁grünes~~7932
▁Air~~7911
masch~~16068
▁grünen~~2515
▁Mobil~~15429
▁Kred~~13510
▁Jugendliche~~18807
▁geprägt~~2392
▁Achten~~18554
▁gemeinnützige~~12282
▁intellektuellen~~14067
schritt~~18631
▁Wieso~~8245
▁Nachhaltigkeit~~12009
▁Akzent~~20855
▁station~~17720
ouch~~6681
opath~~20996
abhängig~~15252
▁Patente~~12652
▁aufgest~~11534
▁Autoren~~9869
▁präfront~~1660
anstaltung~~10195
hebung~~20160
▁Samstag~~11102
▁Lady~~19322
fahrt~~10327
▁entschieden~~6565
▁Lynn~~22039
▁danken~~10984
würdigkeit~~5563
Reg~~8156
Red~~20165
rängen~~8507
▁Tasten~~10381
▁Molekül~~2832
den~~645
▁mult~~2774
[~~17763
tention~~15727
▁Roosevelt~~13191
▁Universitäten~~4451
auern~~9602
geordnete~~18943
▁Nahr~~8593
äule~~13804
▁bran~~22845
▁Tyr~~11584
▁Typ~~3784
▁Nadeln~~18264
post~~22111
▁schrift~~12151
▁metast~~21930
celand~~20782
▁Industrial~~21497
▁ausprobieren~~13630
▁besuchen~~5675
seide~~22706
▁bewerkstelligen~~10564
▁Tierwelt~~1584
aucht~~6774
▁Klimaanlage~~13491
▁dreieinhalb~~5084
▁Entdeck~~254
▁einzusch~~12678
ceed~~23872
▁unausweich~~9838
▁zwanzig~~12077
▁angezogen~~14999
▁Schwerkraft~~18132
geworfen~~13692
▁Technolog~~20868
▁Pollen~~14947
▁bre~~7278
▁zuzu~~19582
▁bra~~10840
▁bro~~12250
anzös~~21081
▁Sprech~~17106
rimination~~23214
▁aggressiv~~8450
▁angezeigt~~7415
▁Führungskräfte~~8063
▁Aviv~~19164
▁verkörper~~21092
uens~~21648
faser~~20689
ortex~~22646
ortet~~22730
orter~~7660
orten~~6432
▁Inv~~14625
aper~~22050
▁umfassen~~6970
▁kluge~~6932
▁Survey~~18870
▁USDA~~16437
esen~~3342
apel~~16763
▁drin~~11556
▁gefährlich~~41
▁beauftra~~13722
▁aufstellen~~13531
▁dokumentiert~~5886
▁widmen~~12034
ject~~11979
affung~~6114
▁ausüben~~16489
rukture~~6838
▁Photo~~18328
▁Konflikte~~19573
ilever~~23085
▁Pfad~~12958
▁sozusagen~~7069
▁drit~~14159
▁freiwill~~14074
▁Nochmal~~13964
profit~~15189
krankheit~~13092
unch~~22246
ittern~~11884
▁Ark~~21261
▁Arm~~3000
▁Ara~~19927
▁Arg~~13210
▁Are~~12254
▁explodieren~~8765
ittert~~16253
▁Ziemlich~~14783
▁Art~~464
▁Zivilisation~~18410
▁Ernte~~8644
▁är~~14754
▁west~~8814
▁warte~~12891
▁inhib~~16128
▁ineinander~~20102
▁Arbeiten~~9553
▁Häuf~~20480
▁bestanden~~20236
▁Konsumenten~~8698
▁riskant~~19718
▁Arbeiter~~10062
oids~~17375
seite~~304
▁Gast~~8322
▁fahre~~3840
hum~~20011
▁Geräten~~5491
▁läuft~~3903
prägt~~13546
▁Synthese~~18968
▁schme~~5306
werbe~~12159
▁Ausnahme~~7471
▁Ingenieurs~~9520
▁Book~~20125
r~~2225
▁Ingenieure~~10043
▁Können~~7425
and~~3786
ane~~3668
▁Hunter~~20089
ang~~2848
pra~~3942
ana~~10221
anc~~12607
pro~~4692
ano~~19159
ani~~14189
ank~~5829
ant~~1815
usion~~9068
▁Vorsitzen~~13274
ans~~2076
any~~16650
anz~~4617
▁daraufhin~~16927
fleisch~~13074
▁Gegner~~8038
▁Zusammenarbeit~~1837
falls~~9487
▁Hemd~~10120
▁Entwick~~16064
▁wartete~~5606
▁trieb~~10250
▁intra~~20533
▁vielfältig~~66
▁intro~~16719
▁Bücher~~5041
▁künstlich~~19682
▁gebracht~~3787
▁angelangt~~16450
▁Atrazin~~11589
üste~~10032
Nicht~~5751
▁Käfig~~15643
▁molekularen~~19106
▁Psyche~~15537
▁Straße~~10357
▁Psycho~~16917
nell~~22685
▁RD~~22939
ildet~~23749
nels~~14396
▁RB~~23379
▁suspend~~19285
▁hinteren~~8345
▁Allan~~22484
schwem~~9255
Syndrom~~8974
▁Sandel~~19206
▁gro~~14736
▁dise~~12950
▁gre~~17325
▁gra~~7995
▁dist~~20170
▁Mandela~~15502
äle~~11776
▁Schaut~~16275
▁1957~~11334
äll~~2712
▁1950~~7312
ält~~9509
bleme~~21111
▁erwarte~~13451
▁gewählt~~5040
▁Live~~4883
▁RS~~22074
ilzt~~15950
cycl~~23562
Ihr~~16898
region~~15822
▁Flukt~~22667
ündung~~15820
▁Kein~~1820
▁fly~~22914
▁flu~~8723
▁flo~~17614
▁bekannt~~1349
▁dessen~~3226
▁Kleid~~18472
▁Vergangen~~21609
▁Think~~15416
▁Insekt~~13077
▁Silikon~~16340
▁wirklich~~386
▁Theorien~~14552
But~~20518
▁Bulgar~~1156
▁Mutation~~12387
▁Studium~~14476
▁25,000~~22648
▁Jean~~17214
▁überwiegend~~8819
bewegung~~8923
▁Mitt~~13966
▁Gift~~11623
▁bemerkt~~4916
▁erschütter~~13532
herum~~10133
▁Erfindung~~2363
ament~~13384
▁gesunken~~16039
▁Troy~~17396
▁Normen~~6974
▁Mumbai~~10066
uhl~~18666
▁sanft~~9074
▁besondere~~5066
▁besonders~~2299
▁fuhren~~10016
changing~~22250
▁Jay~~7698
▁Impfstoff~~7304
▁sollte~~3663
▁Jar~~18196
zyklen~~12382
▁Jan~~11325
▁Jac~~10961
▁Blickwinkel~~2126
gerufen~~5318
▁verwendeten~~9290
regend~~13441
▁betreffen~~14040
ügen~~57
▁Chemikalien~~11587
ügel~~9222
▁Bruchteil~~10299
▁Lebensunter~~23666
Talk~~21369
▁hasse~~5680
▁Tausende~~3508
Listen~~20628
▁Zweifel~~7693
redit~~15647
▁Sitz~~12853
▁–,~~516
▁mittl~~9320
▁Bewegungs~~11192
▁heute~~952
und~~10954
▁lose~~16127
▁Befehle~~8100
iatrie~~9516
▁jam~~23254
▁jan~~21816
▁loss~~23359
▁lost~~20815
▁Einkaufs~~2552
wesen~~11153
oo~~1409
on~~1357
om~~6743
ol~~6613
ok~~105
oh~~2684
og~~2768
of~~13254
oe~~3936
od~~4814
oc~~12965
ob~~3964
oz~~3428
oy~~3161
ox~~5428
ow~~4000
ov~~11989
ou~~6300
ot~~1076
os~~719
or~~3308
op~~2830
▁Dame~~13417
▁Produkt~~2495
▁pain~~22553
▁Ble~~15963
örpern~~11119
▁liebt~~5594
▁beruht~~9904
▁Tromm~~5219
▁gekauft~~6122
▁liebe~~4698
▁Unsinn~~1548
▁cocktail~~21256
stellte~~14547
▁beginne~~5636
▁geschlossen~~15184
▁Vogelgrippe~~17354
▁gewann~~3869
▁entlang~~636
▁iPhone~~9810
feuer~~7358
▁Ausgangs~~17452
usten~~9504
▁Widerstand~~14167
▁Veter~~11386
▁West~~5288
▁intuitiv~~5548
▁hier~~148
▁Young~~15025
▁Fortschritt~~2083
▁Freuden~~15746
▁grün~~2173
▁unzähl~~18255
▁zutief~~23494
▁fragile~~7027
▁Initiativen~~21126
▁universelle~~10632
invest~~18339
▁erschienen~~4903
istenten~~13793
telef~~21950
▁Winde~~11409
▁Pazifik~~521
▁four~~23632
▁Großmutter~~1397
▁Amaz~~22782
▁Dschung~~23118
▁Reihen~~15219
▁Past~~18423
▁Pass~~5434
▁smart~~14375
▁Sklaverei~~15496
▁haupts~~16954
▁regelrecht~~4003
▁Muskeln~~3006
ican~~20448
ical~~7180
▁Phil~~9258
▁Veget~~13088
renzung~~13116
akerl~~22645
ologisch~~15657
akery~~24129
akers~~20797
▁gemeint~~3849
rats~~19130
tem~~1237
ten~~881
▁antworteten~~5676
ted~~17863
▁Komponente~~13918
tex~~16657
rate~~9266
EN~~22448
design~~5766
nungen~~21116
▁ramp~~21508
ter~~2408
tes~~4735
tet~~1431
▁beob~~22436
gung~~8487
▁verdrah~~20527
▁Oct~~10898
▁Dör~~21343
▁Metall~~5849
▁Genom~~9565
▁klass~~12690
▁untersucht~~7213
▁Ground~~20311
▁Genoz~~14086
▁Standort~~15221
EC~~11540
▁Thailand~~9202
▁heran~~454
▁herab~~9619
▁Authentizität~~16652
▁weiger~~16784
▁Inhalt~~10699
▁angepasst~~5516
▁militärischen~~20581
öden~~12164
▁Cartoons~~15587
▁--~~1172
▁-,~~13003
▁transparent~~8132
▁fundamental~~14409
▁samm~~9868
▁ernten~~8737
sammlung~~13175
▁lenken~~6645
▁spiral~~20490
▁Bowl~~14816
▁Hirns~~11561
ō~~23024
▁reichte~~14648
▁Beaut~~23973
▁verstärken~~9977
▁freak~~21874
œ~~23157
▁dauer~~6215
ū~~23987
ückt~~2438
reff~~18000
ücke~~7504
▁gehört~~1684
▁Spr~~12360
▁Spe~~11941
▁Spl~~18991
▁untersuchen~~7004
ential~~23387
▁stere~~22970
ardi~~20221
ardo~~16677
ards~~14115
▁flexibel~~14788
▁elektronische~~8180
mission~~20799
ränkung~~22168
▁nutzten~~16867
▁möglich~~1854
▁dienen~~6140
▁Erfol~~15772
▁Disk~~5425
▁Diss~~5310
▁Dist~~15182
▁zahlen~~8968
altet~~6863
alter~~3332
wegs~~7528
▁Multi~~10567
▁handelt~~5001
ruption~~23277
wege~~6238
▁Psychologie~~14029
▁handeln~~5622
prechen~~19761
▁Grön~~22098
ynd~~18584
▁circa~~16863
▁traumat~~21571
▁primord~~23150
▁Grös~~20612
▁Favelas~~3361
▁bringen~~3139
vater~~11907
▁Mikrok~~18969
▁Transist~~21145
▁proud~~16121
▁spr~~8965
ingham~~20176
▁spe~~9497
▁spa~~22357
▁spl~~20422
▁Gliedmaßen~~19911
▁heilige~~19824
▁verkörpert~~16397
▁Kerle~~7763
▁olymp~~19369
▁Reihe~~1013
People~~24130
kon~~3159
▁Indus~~22442
▁Kolle~~4803
▁integr~~3609
▁Bibliot~~17014
atson~~21486
▁Studie~~2031
▁Studio~~8931
ystem~~1066
▁Dieser~~2782
▁Dieses~~1008
ekte~~9356
▁Diesen~~9751
▁Zeitungen~~15118
▁Spass~~17705
▁Wettbewerb~~3832
▁weich~~14586
▁Anzeigen~~13296
▁letztendlich~~9342
▁Abfolge~~9443
▁mitten~~4775
▁Prozess~~4715
Nun~~6684
igor~~21860
▁fassen~~761
beziehungen~~20026
▁entfernen~~1102
gehend~~8630
▁effektiver~~10597
▁Temperatur~~788
▁Veränder~~20192
atoren~~12306
▁schweigen~~9499
▁Gelegenheiten~~10662
eff~~12211
auspiel~~15084
▁schüt~~5742
ührung~~17968
▁Klinik~~6737
▁konzentriert~~2471
▁diejenige~~14851
▁Dreieck~~16737
▁Marines~~21205
▁Einfachheit~~17138
▁Erdbe~~21585
gramm~~19990
▁Eure~~9729
▁Euro~~13082
▁zunehmen~~6138
▁resources~~23623
▁0,~~11634
▁0.~~19541
ständen~~2873
▁Gebir~~178
▁Schirm~~17509
▁becomes~~23579
▁beenden~~7398
▁Talent~~2054
▁verbundenen~~16896
▁beendet~~3304
finanz~~12126
▁beginn~~21000
▁Wahnsinn~~8480
▁coch~~23052
losigkeit~~6894
mögliche~~10448
▁Anlagen~~5432
▁konstant~~12618
Danke~~17673
owatt~~20503
▁chines~~8411
▁Geistes~~10588
▁Patent~~8295
▁Has~~22831
▁einfangen~~19033
ution~~19499
erne~~2579
▁Hosp~~5076
abetes~~11620
▁aussuchen~~12018
▁mikrobie~~17259
▁challenge~~22915
ernt~~15789
▁mathematische~~10571
▁zusammenzu~~14741
▁einigen~~193
▁Auftritt~~17902
ivate~~7322
▁Geschäftsmodell~~8194
▁einiger~~2138
▁einiges~~5185
▁infl~~21143
flies~~23918
▁Clark~~20242
▁Reed~~19360
▁Freiwilligen~~7436
bezogen~~4537
pr~~7321
zwingen~~15507
pp~~6018
▁Broad~~21990
pt~~9340
py~~23768
▁Hier~~352
pa~~15571
pf~~1679
gründ~~10439
pe~~6982
ph~~11086
ungsvermögen~~9446
po~~4851
pl~~7818
▁Dimension~~2198
asing~~22101
▁bewirken~~10126
▁Netze~~17637
antent~~23151
▁gelesen~~1247
▁Strahlen~~20890
▁Enthusiasmus~~7627
feren~~14296
▁Oil~~23362
▁verfügbare~~18904
ahar~~11094
werben~~17725
▁School~~8519
▁millimeter~~23116
▁deinen~~6524
▁deinem~~6521
▁Rights~~23783
▁deines~~19311
▁deiner~~12015
▁gepl~~12267
▁erzä~~13535
akte~~8845
▁block~~21911
▁Abst~~13887
Cor~~22708
▁gegenüber~~2139
▁Versicher~~8582
▁Laboratory~~16535
Com~~18761
▁ermöglicht~~10635
▁liberal~~8659
▁Emissionen~~2815
▁Eleph~~21299
▁Ignoranz~~14107
fahrzeuge~~11077
▁Umsetzung~~17020
brecher~~8318
▁Miami~~22021
brechen~~7546
▁Lenn~~21390
▁Gewohnheiten~~9854
probieren~~11248
▁Boston~~4940
▁Fib~~21171
▁Fil~~3402
▁Fin~~814
▁Rauch~~12680
▁Fir~~17012
▁Prozent~~1289
igte~~7742
ieß~~11335
▁schläft~~18816
▁Integr~~2878
tende~~19722
aneten~~11067
▁Oscar~~15989
▁islam~~14717
arbeite~~7573
▁Galois~~23232
▁Zahlen~~3512
▁["~~5616
▁Samm~~5887
▁Parteien~~14828
▁eher~~4248
iegeln~~14391
▁Same~~22988
▁überwältigend~~16429
▁ehem~~19318
▁Säuget~~12430
▁mächtigen~~17829
▁Twenty~~23099
veränder~~6869
▁Jupiter~~11915
▁mächtiger~~9689
fass~~11855
fast~~23139
Every~~19496
▁freier~~17578
▁Ereign~~14694
▁Methode~~3012
▁Schüler~~2131
▁freien~~4662
▁teuer~~2297
▁Wachstum~~8827
▁quickly~~24059
▁sprang~~9652
gru~~12479
▁besaß~~4416
erstörung~~19705
gro~~21464
▁Vorgehensweise~~7427
▁Himalaya~~8596
▁russ~~8383
behörden~~13067
ather~~11484
▁Kristall~~9784
▁morgens~~1842
ollte~~14976
▁repl~~15675
▁Mittel~~518
▁repr~~21503
▁rept~~23967
tete~~10386
▁elektron~~18626
▁Diskussionen~~13952
▁Berlin~~18835
▁cor~~23714
▁unle~~20616
▁profitiert~~14962
▁Endeffekt~~15722
▁com~~23466
▁col~~21580
▁Überrasch~~16907
ging~~4532
▁gezwungen~~8131
▁stagn~~8670
▁unmittelbare~~13512
▁Nahen~~5685
▁Läden~~11828
▁schließen~~1691
▁gekl~~10590
ctor~~21984
▁erled~~16906
krit~~15765
▁6.000~~14573
gelegt~~17378
krie~~13356
▁süd~~7195
▁Muslime~~20758
▁Stirling~~22761
▁Generation~~3018
▁aufregende~~3952
▁Schlagzeilen~~2745
▁Must~~22065
▁Ausdrucks~~15272
▁Musl~~19826
▁Beginn~~4998
▁häufig~~9304
iation~~8395
▁verbieten~~12670
rede~~3419
selbe~~18070
▁natur~~10574
▁einzeln~~11303
use~~5468
inen~~3506
▁Patient~~6749
gere~~4329
fen~~1945
fel~~2212
inea~~15812
usk~~21189
ined~~22170
▁gesellschaft~~2499
gers~~12095
ust~~3404
fer~~3647
▁Darwins~~18657
gert~~3797
iner~~7144
ines~~6088
▁Tausenden~~7337
gery~~23613
▁Befrei~~23213
▁Strahl~~12792
▁Öko~~17239
▁Tuch~~18202
▁glänzen~~14980
heit~~1554
heir~~18495
heil~~19601
heim~~10920
▁FDA~~12449
ural~~18776
ashi~~22511
▁Stoffwechsel~~9393
▁Daran~~12195
äche~~6177
▁Antworten~~9370
▁heut~~16259
chie~~19506
▁National~~1619
▁Prinz~~13464
▁eigentlichen~~16580
▁müssen~~227
▁geboren~~1644
völker~~9762
▁erhielt~~10801
▁Wach~~11180
▁filtern~~6025
steine~~656
▁unent~~15674
▁beruhen~~17275
▁Häupt~~14445
▁link~~19015
▁unend~~3734
steins~~12588
äsent~~22446
▁Produkten~~5817
▁bush~~22769
▁Movement~~23037
gehirn~~12540
▁oberfl~~15815
▁busy~~21864
esentliche~~14005
▁anzupassen~~5567
chron~~17882
▁abstra~~2133
▁eyes~~22405
▁Schimpanse~~19779
dessen~~8443
Pro~~8338
▁genaue~~16300
▁freuen~~4632
▁Freude~~3405
▁Hygiene~~7598
▁charism~~18039
▁2008~~3870
bogen~~6792
▁Kleidung~~11506
▁25.000~~15938
▁glatt~~4035
▁2009~~2159
▁feind~~13780
ierungs~~2776
apses~~22095
This~~14411
▁Furcht~~14485
▁Hawai~~5952
▁auftauchen~~5914
ächst~~12457
etschen~~859
apsen~~24119
attent~~14024
▁unbedingt~~9299
gebaut~~6440
▁verwe~~8239
teor~~19012
▁Generationen~~2071
▁Zustand~~8639
▁Tax~~15104
▁Tay~~13413
▁Shoots~~21033
▁Tar~~18699
▁Tas~~19726
▁Orient~~15551
▁brit~~20473
▁Tat~~2247
▁Tai~~21280
▁Tan~~5515
▁Tal~~917
▁Tam~~22656
▁Tab~~9182
minster~~15441
▁Tag~~4417
▁Sporen~~19006
rige~~6165
▁Friday~~6309
▁Aspekt~~5135
▁schnelle~~8997
▁seien~~7840
▁Send~~14784
▁individ~~18208
▁Mitglied~~13166
▁geschehen~~1271
▁dunkel~~39
zuhalten~~7529
▁Hadron~~22925
▁Menschenrechte~~13518
äften~~16811
▁Toyota~~15404
yram~~16439
▁brä~~23624
▁Konferenzen~~17764
▁bzw~~11740
ungsweise~~6157
▁Physiologie~~18892
eten~~21905
=~~21372
▁Nepal~~11104
▁spend~~21754
▁Gemeinde~~12141
▁energie~~13622
▁sweet~~22523
▁Darfur~~21334
▁Arzneimittel~~21380
▁leicht~~382
▁Angestell~~22123
▁Mund~~730
.000~~509
▁Gleichung~~9027
▁Laptops~~18205
▁körperlichen~~4947
▁Roger~~19197
geräten~~19750
▁zeitgenöss~~6555
orientierte~~9146
▁genau~~1033
▁300,000~~19658
▁kont~~11751
▁Flüssigkeit~~745
▁kons~~13151
▁faul~~9185
▁überzeugt~~2547
▁Langley~~17328
▁Rachel~~2731
▁starren~~7937
▁Becher~~19805
jekt~~6450
▁deprimiert~~20114
qu~~858
▁stets~~7806
▁hassen~~13601
ended~~24089
streben~~7401
unkl~~19229
ogra~~18020
▁übertragen~~14973
unkt~~9083
still~~7450
ikt~~6012
▁spezifisch~~17819
▁Wetter~~2810
▁überprüfen~~4296
▁care~~22409
▁bahnbrechen~~16957
▁Financial~~21746
häuser~~17019
angiogen~~23850
▁Stadium~~12520
▁mächtigste~~14742
ieinhalb~~20443
▁Massachusetts~~12347
▁nachgedacht~~12131
▁Queen~~21778
▁Willens~~3623
isted~~23865
▁schul~~11931
▁Leistungs~~2291
isten~~3649
▁Konfl~~23333
▁schuf~~13678
osmet~~18422
züg~~7656
▁künstliche~~11749
ister~~13015
▁our~~16123
▁Fast~~9664
orientierten~~13375
▁Fass~~17678
▁mental~~17359
atter~~17501
▁widers~~5859
ography~~22317
avy~~23364
▁psychologischen~~9096
agenturen~~18730
avi~~14716
ave~~7903
ava~~15163
▁Spannungen~~15725
▁errichtet~~14705
ichen~~3474
▁Vorbe~~18291
schild~~7072
▁Reagan~~13169
icher~~6981
itting~~20514
▁errichten~~8048
▁Spezies~~9763
▁isolation~~23578
▁ego~~19798
▁zer~~857
▁reparieren~~9526
▁bereitstellen~~17651
▁untersuchten~~8856
acke~~11415
gedacht~~18341
ackt~~12324
acks~~4896
▁poster~~23031
▁multip~~22592
onial~~14311
▁delic~~23799
hrough~~18876
Über~~10956
▁flogen~~2919
▁elegan~~3627
▁Bayes~~21802
▁Hypothese~~7943
▁Appar~~12636
▁ut~~23221
rät~~20803
basierte~~3932
▁us~~16118
▁up~~22495
▁schickte~~7809
loses~~6803
losen~~2023
▁forschen~~10875
▁angenommen~~2459
▁ausdrücken~~10155
ürzt~~11438
fügt~~16601
▁Line~~16292
▁Lind~~10198
ürze~~16495
▁Link~~11041
ätz~~6156
ätt~~14531
▁Nollywood~~23276
minen~~15623
äte~~15726
▁Fangen~~4661
itzt~~10114
ober~~14294
obel~~14904
oben~~7989
▁rückwärts~~1731
▁Fluss~~6278
▁Richt~~12664
spieler~~4562
▁define~~16117
sprach~~11896
▁Jennifer~~17831
▁Jefferson~~14678
▁Central~~17593
own~~13013
owa~~22241
▁gewiss~~13374
ows~~13647
appy~~22900
appt~~10591
▁furn~~23631
appe~~12083
▁plötzlich~~4242
▁10,~~4765
▁10-~~9228
▁10.~~16603
rett~~10734
▁interpretiert~~21046
▁visuell~~14944
▁Ken~~11388
▁Früherkennung~~22972
▁Milk~~18711
▁Mill~~6041
▁Milo~~23425
▁Key~~15758
▁Comput~~11991
▁decken~~19581
sprochen~~24042
▁Pas~~10887
▁erkunden~~13756
▁psychopath~~21703
▁erkundet~~15306
▁Skulpturen~~18789
▁einladen~~5067
▁massiven~~2743
orbene~~15838
other~~6889
▁fabel~~14984
ismus~~638
gült~~19897
▁Geburt~~5442
▁Stacey~~22060
▁afrikanischen~~8629
lö~~14560
▁gute~~2456
▁jedermann~~4774
▁Bestand~~17658
▁erzählen~~82
four~~14702
▁Chic~~8811
▁Chin~~12454
▁Chip~~12517
▁1998,~~20845
▁bring~~10980
▁Träumen~~6525
▁Treffer~~19860
▁Jared~~20020
▁Acht~~9712
▁ultraviolet~~14948
▁Treffen~~2797
▁Patrick~~21496
volutions~~20075
▁Million~~3359
▁Victoria~~18030
fect~~23757
▁Queens~~17696
▁zurückzu~~4425
▁kognitiven~~13921
ated~~21163
▁There~~20627
oparden~~19765
ateg~~6039
▁vorher~~3717
atem~~5454
aten~~2814
›~~20180
▁unterst~~4097
ater~~8979
ates~~8954
▁Block~~6658
▁Geräus~~23199
▁kreativ~~1478
k~~301
▁Spiel~~1154
▁Lange~~70
▁Vernetzung~~15440
▁Schreck~~20988
ailand~~3160
▁ursprüngliche~~9514
▁Baum~~11138
▁500,000~~20337
isierte~~1463
▁Entwicklungsl~~9200
ektiven~~23499
bewusst~~14135
▁Einst~~14558
berecht~~21759
▁erzogen~~1388
otherap~~21824
▁Erwärmung~~16408
▁Tasman~~20429
▁Verwendung~~8671
ängern~~5391
▁Schafe~~4245
üren~~16177
▁Stränge~~17638
▁Poster~~5579
ilia~~4900
▁Beteiligung~~10704
ilit~~14326
augen~~9796
▁neun~~523
▁Lehrer~~2315
▁neue~~258
▁erstens~~4147
▁Kelly~~15351
▁neut~~19588
▁neur~~15389
kriegs~~5812
▁Lehren~~20070
aving~~11769
▁verwende~~9816
▁schien~~5275
▁kannte~~8492
▁paar~~85
▁Elemente~~11952
▁enormen~~5813
▁stabilisieren~~11492
schließen~~324
▁hunger~~20455
▁profit~~13043
▁lernten~~13574
ürger~~18336
hlung~~942
▁Beine~~7296
▁Being~~7889
▁Ahmed~~15993
hängt~~16388
▁brennt~~20901
▁ideale~~15040
setzung~~7017
▁Sterben~~8367
hänge~~13537
abhängigkeit~~11197
▁nation~~16131
▁Seattle~~15885
▁Tierarten~~396
ifikation~~10420
▁durchschnitt~~133
▁Staates~~11163
▁raus~~1807
▁emotions~~23069
▁Staaten~~1796
▁rauf~~6832
rt~~10085
ru~~2751
rr~~20997
ry~~3924
▁Knorpel~~23271
▁Okt~~7902
re~~107
ra~~900
▁Fruchtfliegen~~23012
ro~~1077
Super~~12328
ri~~3621
▁Knöpfe~~20030
▁Korrel~~21624
▁Church~~16687
nders~~16211
ndern~~21074
▁allgemein~~13851
▁bezeichnen~~9040
Char~~13211
▁Öl~~14386
angehen~~2595
▁irgendjemand~~4719
▁Ök~~17631
ährung~~16517
▁ägypt~~21916
▁Gefäng~~11115
▁einsetzt~~11384
▁saub~~18741
▁NSA~~17514
fassung~~20621
▁enttäuscht~~8053
technik~~18047
▁peinlich~~8497
lungen~~6218
▁entwickelten~~9199
▁Fußball~~1697
▁mitge~~13355
▁Schöpfer~~11210
▁detaill~~3489
▁Andererseits~~4571
arak~~23136
▁hierzu~~15353
▁Fabriken~~5917
▁Erleb~~11648
▁Saint~~20505
▁basierend~~10673
▁ließen~~12951
welle~~10716
▁Rational~~21325
▁Burn~~8972
▁Burk~~22320
▁Gründe~~1801
▁verläss~~14384
straßen~~14335
▁Eingang~~18819
▁Bildern~~484
▁wächst~~2188
uzinationen~~15599
▁Untersuchung~~1602
▁Erwartungen~~8674
▁Vergangenheit~~1096
▁Gesamtheit~~9922
uliert~~11665
▁Aussehen~~12166
▁freie~~5220
lebens~~6423
Epidemie~~20436
▁Rasse~~9488
▁freis~~3114
▁umgibt~~18872
▁freiz~~4702
▁Behind~~14462
▁Jahrzehnt~~2469
▁spots~~22936
fangen~~12046
▁grösste~~1615
ringt~~639
▁vorgeschlagen~~7193
figur~~4639
▁place~~23769
ringe~~20733
▁Panik~~7288
▁Risikok~~22296
▁Risikof~~12703
annung~~9084
▁ausgewählt~~1569
▁frühe~~5435
▁beschuld~~17574
enschw~~19818
raits~~17300
▁Stand~~7475
▁Voyager~~11074
▁genital~~20353
▁Seele~~9888
▁Geiger~~21614
lehnen~~15371
▁schrecklich~~3028
▁immerhin~~4428
stadium~~17459
▁stattgefunden~~9639
▁Deutsch~~19334
Schule~~18474
▁riskieren~~10494
▁Zensur~~18593
onym~~9776
▁Vorzüge~~20213
▁graben~~14794
▁Lebenserwartung~~9378
▁Werbes~~16096
▁begehen~~4294
▁Bewohner~~2380
ließend~~9697
▁Northern~~20591
durchschnitt~~2378
grenzen~~17305
▁Salzw~~5910
▁illegalen~~15669
▁Films~~3145
Die~~252
▁Filme~~3146
▁Opp~~18183
förmige~~931
▁Opt~~17436
▁konfrontiert~~4079
▁symbols~~16738
entum~~14661
▁solch~~9630
▁Fallschirm~~5772
ören~~1910
verstanden~~14010
▁Broadway~~17606
sprechen~~7260
▁ursprünglich~~6586
▁8,~~11990
▁8-~~20338
▁8.~~11402
▁Oxytocin~~4697
▁84~~6059
▁85~~15888
▁86~~15662
▁verstehen~~781
▁80~~2050
▁82~~8778
▁83~~5718
▁88~~17103
▁89~~15660
sprecher~~14205
▁erzeugt~~4679
▁zahlreiche~~9265
▁Frühling~~7121
▁Ausstellung~~5736
▁Chirur~~22201
▁französische~~11897
inosaur~~17165
▁beschrieben~~8851
▁harten~~8094
▁Anders~~9458
▁aufregend~~112
▁Designer~~6544
▁beseitigen~~10103
▁Andere~~4263
▁Montere~~23483
▁schemat~~18988
▁Geburtstag~~3319
▁einzel~~22289
▁Gegenwart~~7740
▁platziert~~5182
▁umstritten~~2156
▁anz~~5029
▁Projekt~~4191
▁inne~~12957
▁Profit~~8653
riere~~16574
▁Profil~~8945
gefunden~~13753
▁Verfahren~~2157
riert~~12480
▁dunkler~~15076
▁ans~~451
▁biolog~~12498
▁Arbeitsplatz~~1707
resse~~20709
umann~~23780
▁zusehen~~8151
son~~10071
▁Gemüse~~6064
▁wissenschaft~~476
▁intelligent~~12399
▁BBC~~21779
▁entführt~~14092
otten~~7326
▁Engine~~16538
▁Indiana~~17386
▁biolumines~~10255
▁Indians~~23101
ottet~~21087
▁begeben~~13877
▁Stammbaum~~13815
otter~~3758
▁Neun~~12566
▁sahen~~749
▁Neue~~15464
▁verteilt~~2218
▁Kopfschmerzen~~21927
▁Nachmittag~~12080
▁Neut~~18167
▁Neur~~6824
▁glamour~~19803
'.~~14448
',~~16377
▁Mäuse~~9485
9,~~3375
bedarf~~7107
leep~~10924
igenten~~22236
▁Gesichtern~~15590
▁vill~~20613
▁Supermarkt~~5608
▁Gem~~6430
▁Gel~~12939
▁Geo~~20313
▁Gen~~1391
▁Ausweg~~17144
▁Geh~~6648
▁Ged~~3372
▁Gef~~19443
▁CERN~~19254
▁Geb~~1279
modell~~5523
▁Get~~12040
▁Gew~~6454
▁Louis~~3853
▁Ges~~7600
▁Ger~~6347
▁Trends~~14154
reicht~~8451
▁vorschl~~17123
holm~~22245
reiche~~11366
▁geheime~~9901
▁Eiff~~17502
▁Selektion~~9594
aube~~15584
▁rab~~23602
▁rad~~9559
▁ran~~11284
aubt~~15961
▁ras~~7589
▁rat~~13547
geladen~~11429
oie~~22969
▁heiligen~~19770
qualität~~2766
▁beliebige~~16921
▁Beteil~~7008
▁Fokus~~2395
Bahn~~17662
▁Rwanda~~22774
rucken~~19850
▁Platz~~1221
ipur~~17745
▁sprich~~12016
▁Far~~8798
▁Fas~~9988
▁Fal~~14108
▁Fan~~14101
▁Fah~~10773
▁Fak~~23047
iraffe~~21444
▁Glaube~~14314
▁Plato~~20526
▁Fab~~3190
▁Abhäng~~15324
ängt~~11806
änge~~4631
▁manchmal~~4180
▁sicherstellen~~15517
▁landeten~~7991
tschaft~~9216
fehlen~~1825
sign~~21015
▁seitdem~~3789
anzig~~7309
▁Garage~~18767
meld~~10486
▁Konkurrenz~~11893
▁Luxus~~16794
▁Saul~~19181
▁Rückmeldung~~19895
▁atom~~16184
▁Saur~~22079
▁Innenstadt~~7759
▁beginnen~~782
▁nördlich~~6021
▁Dokt~~8410
uationen~~20235
▁foundation~~23549
▁Left~~14461
▁bezahl~~17724
▁Fett~~12683
illiarden~~19348
▁Punkte~~5633
stimmung~~13706
▁simult~~11904
▁Essent~~22990
▁CT~~13827
▁CP~~21139
▁Tesla~~21228
▁Airb~~20732
▁höch~~15592
▁Himmel~~3344
▁CE~~20328
▁CD~~17111
▁nanote~~3957
▁CA~~7126
▁CC~~12467
▁CB~~5212
▁CL~~20668
▁CO~~13619
ück~~588
▁Speed~~8953
▁Cr~~19849
▁Cy~~16604
▁quasi~~10245
▁Cl~~5320
▁hochentwick~~16532
▁Ch~~1946
▁Kandidaten~~14507
▁gearbeitet~~5101
▁Politiker~~5665
▁bestimmte~~5278
wertung~~1876
örungen~~19436
▁Native~~24112
▁näher~~975
ylac~~22093
▁kümmer~~17170
▁aussch~~1522
ähren~~12137
ipend~~8381
▁Umfragen~~1879
▁schätzen~~1325
▁Michelangelo~~13331
ndes~~9625
sy~~14036
▁Atem~~7297
▁individuellen~~1342
ss~~5531
sp~~4169
sw~~8546
st~~1702
sk~~8361
sh~~6456
so~~6584
sm~~16777
sl~~2730
sc~~15434
sa~~3499
▁geschrieben~~2785
se~~846
▁Bonob~~23599
▁interaktiven~~11044
▁Wendepunkt~~8627
▁etwa~~135
▁magnet~~18075
avig~~20860
avin~~12244
ographic~~15809
▁Bedrohung~~17566
ographie~~7491
▁armen~~864
▁super~~3961
okuss~~21935
▁kalten~~8108
▁Verfü~~23328
▁Still~~17326
▁Schmerz~~2994
▁Hintergrund~~895
▁Nährstoffe~~16509
▁Sehr~~1213
ästhes~~6727
▁Baker~~5410
▁gegründet~~14202
chnologien~~16830
krat~~18553
▁Khmer~~23087
▁Analogie~~11276
verfahren~~5125
▁Süden~~5932
▁ausgebildet~~14136
▁Ratte~~11435
▁Stipend~~15941
▁gestorben~~7774
▁Jazz~~5366
▁Relig~~14228
▁bislang~~11743
ulse~~22737
▁amüs~~8964
▁Dawkins~~22025
▁TBP~~20852
▁rechten~~9534
oper~~7894
opes~~23133
▁wasser~~3931
▁intelligente~~5106
zuwerden~~9885
▁Schnell~~6592
open~~8351
city~~22811
▁tausende~~14880
▁tausend~~2787
▁heißen~~922
▁morgen~~1124
Hmm~~12232
▁Prioritäten~~2534
▁Myster~~8438
▁pupp~~12473
bits~~20883
▁beanspr~~7153
▁Baumwolle~~8226
▁beigebracht~~7677
▁existential~~23697
▁Situationen~~2135
chmal~~18675
abellen~~18660
▁Situation~~2037
aller~~22973
▁fr~~1750
▁langsam~~1858
alley~~22181
▁fo~~22799
▁fl~~5415
allen~~5272
▁fa~~5405
▁fe~~3463
▁gewöhnlichen~~14534
▁Watch~~18712
masse~~15226
▁Vergnügen~~6505
▁fM~~23262
▁Erne~~12960
▁Kürz~~21409
ameras~~1512
ndrome~~15618
▁life~~20540
▁Turing~~20383
▁aufzunehmen~~8333
strahl~~709
▁Miguel~~12535
▁Commons~~13277
▁Kästchen~~19070
▁Informationen~~6823
▁Unbek~~15700
utzung~~20155
▁Camp~~13073
▁penet~~24045
▁related~~22996
bright~~8380
▁distrib~~23679
▁Galile~~22385
actic~~23380
▁Darstellungen~~11744
▁Bamb~~6695
erent~~13771
▁Gordon~~15437
▁eingesch~~4441
▁nachhaltig~~15637
▁irgend~~9326
▁Impulse~~13870
▁Geschäftswelt~~17148
führt~~5445
That~~23964
▁Kapital~~7626
▁Road~~18445
▁imit~~16456
▁material~~21757
▁treiben~~5928
ibri~~14963
▁weitreich~~19711
▁tiefe~~5286
steroid~~23852
▁herauszuf~~1923
Kann~~7924
oust~~248
mans~~19790
ouse~~13244
belie~~17351
mand~~11577
▁Fuller~~21059
mann~~15167
▁quer~~12510
▁Erinner~~6507
▁versch~~7166
▁Vielleicht~~3994
attoo~~19806
▁emit~~16203
▁Gewichts~~2843
▁entwarfen~~6672
▁Direkt~~21389
luft~~20688
▁Ladungen~~18083
▁Darauf~~4146
▁Erwartung~~13428
▁Oper~~4752
▁Open~~13313
▁entsprach~~12786
▁Daraus~~2512
rippe~~21992
▁isolieren~~15288
engineering~~23617
▁brand~~19437
ive~~2063
▁Schieß~~17529
iva~~19061
▁20,000~~20916
▁scratch~~23567
kette~~19650
▁Zerstörung~~15968
▁quiet~~23830
▁Leads~~22609
mont~~15253
schlaggeben~~16028
▁kollektive~~3470
▁Paket~~18365
arden~~18827
ünfte~~13506
▁gelang~~5388
zellen~~6836
▁Tit~~15922
▁Hum~~6448
▁Hub~~20321
▁Proteinen~~13086
▁wenigsten~~17046
▁Hud~~12980
▁Tib~~10219
▁Tie~~21621
▁Hur~~21297
▁Hus~~19889
▁Hut~~8980
stücken~~13963
▁besiegen~~1936
schreiten~~11808
▁Spenden~~9274
▁fame~~23028
ress~~7132
resp~~8386
▁Bron~~16335
rest~~13054
▁Brow~~22854
▁Brot~~10979
▁Spender~~12280
▁miracles~~24075
▁tanz~~14278
▁LEDs~~5042
▁natürlich~~2520
▁tank~~24032
▁Empfänger~~17266
▁involv~~14881
(=~~23433
ildern~~10533
▁sammelt~~15160
▁mon~~6947
▁50-~~16969
▁sammeln~~4867
Let~~23778
▁Kongo~~9247
inten~~5646
▁Ronald~~13168
▁global~~6075
inter~~3553
kennen~~4354
▁Jedenfalls~~6693
▁Macht~~3147
▁emotionale~~1668
▁powder~~23917
koll~~15953
spekt~~16165
▁Tinte~~18111
sucht~~10144
▁Abs~~12784
▁Abt~~3067
▁Abu~~19385
▁Aufgabe~~1689
▁Erst~~8390
zess~~17475
▁huh~~22599
▁Handgelenk~~3645
issen~~4267
▁game~~22494
Jährigen~~2182
▁hur~~22154
▁hus~~23111
isses~~14695
organisationen~~9251
▁schlafen~~10949
▁erfunden~~2152
▁kostete~~5997
▁press~~22355
▁Cape~~19148
▁Tempo~~5455
▁Capt~~22912
leidung~~20617
▁Maya~~21817
hew~~22513
her~~5704
hes~~17954
▁Margaret~~18272
hea~~24005
hel~~1862
hem~~8751
hen~~4658
hek~~5426
▁Fakt~~9261
▁veranst~~4551
▁wahre~~253
mögen~~19205
▁Kiribati~~21269
▁Savanne~~5513
▁nachden~~3478
▁überrasch~~14421
uminium~~22103
sätzlich~~19520
▁stimm~~5145
▁Blindheit~~15557
▁kompe~~13855
▁Bildh~~13349
vors~~9368
ancer~~21458
ances~~19170
vort~~21367
ancen~~2228
ument~~5006
▁Tuberkul~~20659
anced~~20386
▁Verhältnis~~6482
▁Titanic~~88
▁moder~~5453
▁Terence~~8407
ituation~~11837
▁navig~~17426
▁model~~21248
▁gib~~16286
mass~~15799
▁offenbart~~15079
embererana~~23685
▁Verhalten~~1208
▁Netzwerken~~8695
ölfe~~12483
tz~~1078
▁antun~~17299
ty~~14767
tw~~9591
tt~~1930
tr~~16572
ts~~6989
to~~6740
▁250.000~~14946
rize~~19550
th~~7658
te~~581
ta~~17962
Rabbit~~20183
▁machen~~125
▁Keine~~1798
▁neurolog~~15682
these~~12548
▁Zeile~~8159
▁Celsius~~621
▁wahr~~2368
ctures~~23155
▁unabhängigen~~13424
▁Gerechtigkeit~~7623
▁Gesundheit~~1233
ßig~~4655
eid~~10130
gruppen~~8330
▁Management~~6734
treffen~~3501
▁Sicherheit~~14141
▁Corporation~~22072
iance~~21937
▁from~~14723
▁froh~~7829
▁Spur~~18575
ein~~3203
▁Free~~17489
▁Fred~~16320
▁Frei~~12171
▁Frem~~22335
▁Rettungs~~14803
ating~~8955
▁Getre~~6212
▁genetische~~7255
▁ergibt~~2513
.“~~8398
Weil~~13799
6~~2906
peare~~22825
ierung~~2033
▁188~~17864
▁189~~18241
▁184~~6324
▁Rücken~~506
▁186~~20064
▁187~~14622
▁180~~668
▁183~~18638
▁18,~~14192
▁18-~~21264
▁18.~~14680
▁draußen~~547
ocent~~24002
hmen~~6882
undert~~11938
▁einzuführen~~6239
▁Life~~5819
▁Trans~~7237
Your~~22941
undern~~17254
▁Notizen~~8389
▁Verpackung~~9302
▁Schwarzschild~~22303
scar~~23370
rauchs~~13337
▁herauszu~~11286
▁pneum~~22930
▁deuten~~14766
iving~~11767
▁deutet~~14696
▁Versch~~17706
▁Tanzania~~16081
▁assessment~~24086
▁angefangen~~4162
▁Finanzierung~~9291
▁Daher~~9502
▁Studien~~2102
occup~~23832
athons~~22191
▁Nachhalt~~19363
abeth~~23738
▁zusammenfassen~~10883
bris~~22218
leten~~15255
westen~~6289
brit~~21753
▁1990,~~21681
▁übertrieben~~20555
▁Tropen~~7410
brid~~20678
öß~~19716
▁Gebäuden~~9956
▁Treibhaus~~18976
▁denjenigen~~14215
▁Chap~~20511
▁Char~~15027
bsite~~21132
▁Chad~~20910
▁Gebäudes~~12150
▁vorgeht~~13863
brü~~923
ziplin~~5207
▁Groß~~1380
▁Rückgang~~16147
▁Pfle~~4224
▁Street~~6276
▁sieht~~606
reißen~~4122
▁Früh~~16850
found~~23146
▁siehe~~4275
▁anerk~~8541
▁Ziele~~2716
stoffen~~11715
▁Side~~17596
atoes~~23476
▁Weiß~~9809
▁abgest~~19425
▁lock~~7960
▁weitere~~1823
▁YouT~~13304
belief~~22447
samkeit~~8920
▁Your~~13467
ankungen~~2293
▁reprodu~~10598
▁unver~~8296
▁right~~22538
▁Jerry~~18917
jet~~5075
▁pfl~~19306
illes~~21148
iller~~18028
▁Astronauten~~3685
▁Tugend~~15777
illed~~21707
jen~~10041
Kein~~16919
▁Engagement~~3724
▁aufgeben~~7513
ulieren~~3534
▁Gange~~11490
▁Amazon~~12255
aar~~3783
▁regenerieren~~19899
apers~~4862
▁Royal~~15477
▁Spanisch~~12245
ägt~~13557
▁nicht~~110
▁Hause~~1844
▁Reichtum~~15330
▁gedreht~~10345
▁stützen~~20188
▁Übung~~8028
ination~~8314
M~~1533
Ist~~1968
▁kenn~~21196
▁DD~~22840
▁ausgesehen~~13777
pherd~~19198
▁Dimitri~~22225
▁hoch~~916
▁Shirley~~16668
Cloud~~10897
leichen~~18416
▁bomb~~20912
▁Schaden~~8966
▁arbeiteten~~11165
▁Phys~~12577
▁Pack~~6736
▁Musikern~~5392
▁Schön~~207
▁Medikament~~8467
▁verbrachte~~3396
ounded~~23720
▁30.~~12283
▁vorlesen~~18103
rukt~~14113
rehen~~17811
▁mithilfe~~1998
▁liebsten~~20276
▁dezent~~16996
▁funktion~~12563
cra~~23890
▁30,~~17750
cri~~22422
cro~~10863
▁Ägyp~~21920
emat~~15708
▁vernetzten~~18978
▁account~~22215
präs~~15457
▁klinischen~~3123
eman~~19109
▁Fische~~336
▁Gravitation~~18962
▁System~~1304
▁Such~~10355
▁"...~~21606
stheorie~~4278
schaft~~3845
▁Supern~~18955
▁Interviews~~16551
▁fliegen~~502
thon~~22617
Effekt~~9821
▁origin~~13205
▁Energien~~16434
▁Nutzpflanzen~~13050
dimensional~~9760
möglichen~~19988
▁Energies~~17966
▁Uns~~647
▁dran~~977
▁dram~~23574
▁lösen~~841
▁regist~~10442
ästina~~5596
▁Und~~431
▁Une~~15712
▁doch~~206
▁Uni~~12118
▁draw~~24013
▁perfektes~~19744
▁drehte~~14575
▁perfekten~~14588
projekt~~4846
▁vorbei~~5631
histor~~10826
▁searches~~22993
▁Videospielen~~12319
▁Rass~~18945
▁chore~~15771
▁sicherer~~14939
▁sicheren~~9732
▁Karib~~22023
▁AIDS~~15521
▁stundenlang~~2353
▁Hoffnung~~3317
▁grössten~~1617
▁Neuseeland~~11511
person~~1337
eler~~15813
eles~~19350
▁Spitzen~~10508
ipment~~22660
▁verwandt~~13100
▁uns~~36
▁unp~~19141
▁unw~~6169
▁unt~~18685
▁übernommen~~16762
▁zens~~21140
▁Anatom~~23249
Labor~~18801
▁unb~~6775
▁unc~~23068
▁unf~~9979
▁Durcheinander~~5301
▁und~~44
▁une~~18347
▁unk~~17446
</s>~~3
▁unl~~20013
▁einbeziehen~~4625
▁trägt~~4449
▁Today~~21120
▁Zeichnungen~~10873
▁auto~~23033
▁Einfl~~13312
▁Terrorismus~~15509
▁betrügen~~4094
d~~328
penden~~21231
rechten~~14209
▁Medic~~10763
▁Media~~4744
▁Börsen~~4239
ival~~18799
icious~~22964
▁Know~~16384
spring~~18796
▁function~~20713
▁Fire~~5116
▁Truth~~19634
unehmen~~19137
onymous~~21135
▁ignoriert~~19055
▁besaßen~~21147
▁audio~~20504
odox~~20801
▁Cross~~13459
büro~~19822
▁hydrother~~603
▁irrelevant~~15973
▁entfernt~~904
▁Asteroid~~19817
▁stocks~~21304
▁angesprochen~~15028
atsächlich~~20005
▁Streben~~16249
▁Israelis~~5584
▁Space~~12333
▁entwickeln~~1667
▁Egal~~7701
▁Proton~~19352
▁Süßwasser~~22056
▁Membr~~19384
▁Becken~~16291
▁beschreibt~~1491
▁entwickelt~~244
▁Solly~~20277
urcht~~17278
▁Töne~~3899
▁mussten~~2925
▁afrikan~~14481
cia~~12100
ux~~16337
uz~~7377
ut~~1737
up~~9082
▁Ratten~~1589
ur~~1035
um~~2555
ul~~2989
un~~6382
uh~~6317
uk~~3755
uj~~18185
▁Annahmen~~2417
ud~~3813
ug~~6392
uf~~3522
ua~~6035
uc~~15117
ub~~4175
▁träumte~~14269
▁Oxy~~16820
ulation~~9415
▁klang~~5234
▁verletz~~7176
▁reichlich~~12983
▁fantastische~~5087
▁Wohl~~11791
▁Wohn~~13655
▁Evolutions~~12381
▁meist~~4841
▁abhängen~~7148
▁dunk~~11822
▁komple~~9075
holen~~9460
▁auftreten~~14099
▁identifiziert~~15720
▁nothing~~21833
▁gewissen~~5357
▁gewissem~~20315
▁Erf~~9447
▁gewisser~~5490
▁Erd~~685
▁Ere~~18260
▁Erb~~13772
▁ausprobiert~~960
▁Ern~~8046
▁Erk~~13831
▁Use~~22410
▁Bürgerkrieg~~14879
▁Sohn~~7739
▁Sumpf~~17612
▁effektive~~17367
▁Loch~~6444
▁Lock~~9244
▁ersetzt~~12970
▁physikalischen~~11236
tritt~~13677
tra~~5172
tre~~14786
racy~~18942
▁legit~~21349
▁ehrlich~~3799
▁anzust~~11456
rach~~21173
▁Hoch~~7155
▁CDs~~5096
▁Rechner~~18667
wärmung~~20105
▁Sei~~1365
▁Seh~~15556
▁Sek~~11098
▁Gebä~~20265
▁Sel~~13757
▁Sen~~8615
▁Sea~~10232
▁Project~~14473
▁Seb~~16044
▁See~~3581
▁Sed~~1092
▁Sex~~7688
oration~~14869
▁Wäre~~2284
▁Sep~~15661
▁Ser~~5021
▁Set~~12924
▁degrees~~23785
▁Lewis~~9624
ktur~~15867
▁used~~22546
▁Libanon~~5706
▁gemeinschaft~~11048
▁rückgängig~~11539
▁use~~13234
▁usw~~2502
▁Vinci~~10736
▁Dimit~~22224
▁Kaliforn~~21960
zimmer~~7827
kehrt~~14200
▁gewusst~~21468
!"~~3893
▁Familie~~1310
▁Geschäfts~~12011
▁ausschließlich~~15425
▁gemeinsam~~7149
▁geglaubt~~15532
▁Geschäfte~~8658
▁sei~~1018
▁seh~~15538
▁sem~~22045
▁sel~~21603
▁sen~~2335
▁see~~10584
▁sed~~22703
itung~~8476
▁sex~~19774
▁ser~~1555
▁hierhin~~16378
schriften~~2656
:30~~12153
▁Anwendungen~~4061
isationen~~7152
oping~~11042
▁Eink~~12277
▁Jahrhunderts~~3217
▁jegliche~~12459
behandlung~~4956
▁Eing~~11257
▁Eind~~17500
▁Eine~~736
▁Einz~~8853
▁Jahrhunderte~~10738
▁Eins~~4597
▁junges~~7978
▁junger~~5228
▁skept~~23516
▁anpassen~~5065
▁jungen~~2123
▁Gando~~22319
▁gesunde~~6934
▁Bitte~~6755
▁antw~~24094
▁elektrischen~~12296
▁rit~~21337
▁nieder~~5614
▁Aufgrund~~9269
▁anti~~16991
▁rie~~19880
▁rig~~6880
▁Versuchen~~13892
▁Grasland~~15915
▁intellektuelle~~10613
arther~~23175
üchte~~17825
▁Phase~~11504
älter~~2317
ignete~~19924
▁Zweif~~10408
windigkeit~~22838
▁ausgest~~6771
▁Fabrik~~14538
▁Ält~~16029
▁organisierten~~8820
orbenen~~9835
▁Prü~~20015
▁durften~~4300
▁Prä~~10551
meth~~23759
▁Brü~~8976
ße~~7846
▁Schule~~1436
▁Schuld~~10100
▁Gumm~~12067
▁Found~~21330
ßt~~9195
▁Schulz~~14327
drück~~13496
▁aufwuchs~~10971
▁Dram~~3655
▁Palästina~~5692
▁Board~~17494
▁kre~~11682
▁Doch~~3033
Point~~22713
▁pyram~~20927
ynamik~~20757
▁Zul~~12070
▁Zum~~1652
▁Einzel~~1336
▁analyt~~16776
▁Zuf~~5944
▁Zug~~5326
▁meinten~~9149
▁analys~~13840
▁Annahme~~12097
▁Zut~~10629
▁Zur~~10434
▁Zus~~10527
▁Wolke~~607
system~~2487
▁Doktor~~1759
▁Tasse~~19814
herrschaft~~18920
▁Kurzweil~~21678
▁Kl~~534
▁Ko~~12849
▁Kn~~5188
▁Kh~~9690
▁Handlungen~~14420
▁Point~~20736
▁Ke~~1151
▁Zä~~19127
▁Ka~~19827
▁Ky~~15489
▁Ku~~15116
brachte~~12142
▁mächt~~4977
▁Kr~~1507
ocial~~22895
▁KA~~22561
▁KB~~22562
▁Harlem~~7675
▁KT~~23488
▁KS~~18683
▁beher~~739
▁Tatsache~~9550
▁Ehen~~18470
▁begrenz~~13321
▁Ketten~~15527
▁Organisationen~~8098
▁Gewehr~~1195
▁Vakuum~~20738
▁Insbesondere~~9909
▁Harmonie~~14243
fach~~7402
▁März~~5598
▁Klienten~~17322
▁AI~~22727
ennung~~2863
kontrolle~~5122
bring~~18462
▁nochmals~~3091
Vielleicht~~12258
▁Größenordnungen~~11072
izienz~~10492
▁Igbo~~20424
izient~~14955
pertoire~~14244
▁kann~~426
▁Klavier~~15050
▁verwalten~~14667
strahlen~~12697
▁lifted~~16126
▁Pilzen~~15835
wichtig~~8903
ition~~1665
▁Anderen~~13220
▁bedarf~~12876
packen~~6913
▁Library~~17347
▁Anderer~~19016
▁Spielen~~1175
entlichen~~3642
ursor~~20894
sehe~~15209
ialog~~8024
▁Hypothesen~~17168
▁Spieler~~1616
ends~~7440
▁text~~23395
ende~~4887
ältigen~~23334
▁vermischen~~12001
▁aufhalten~~9366
▁Unterhaltung~~8015
▁härt~~7438
▁when~~23097
uct~~23556
Her~~3460
▁anim~~17092
Hex~~22454
Hey~~7782
Hel~~15627
uck~~7520
uch~~3303
▁Detektor~~12734
▁würd~~9160
antas~~1297
ls~~14817
▁merken~~4621
▁Photos~~17428
ächtnis~~21724
▁Bedürfnisse~~8193
Stadt~~6318
▁Weisheit~~7822
▁tunes~~21919
▁Wohltätigkeits~~18140
▁Seelen~~15099
▁vergeben~~14488
künd~~16037
▁Kath~~11576
▁erectus~~15843
▁wußte~~4442
▁Verletzung~~10099
▁Dunk~~20888
▁geste~~15142
▁Dung~~13048
▁relational~~22918
va~~10076
ve~~10507
▁getroffen~~8465
▁Atlanta~~17894
▁wärmer~~18609
▁Tiger~~10321
vo~~16758
sitz~~14312
▁plötz~~6797
vy~~13347
▁inspirieren~~3714
▁Hyper~~5061
▁extra~~12405
▁post~~15846
dam~~3759
▁wanderte~~14896
▁parap~~20327
▁paras~~22783
dring~~10211
▁Wass~~7971
ämpf~~8093
ieben~~5034
ieber~~19866
▁holen~~584
brech~~12804
▁param~~22869
▁Blinde~~17349
▁paran~~23124
▁offensichtlich~~1506
▁Treibhausgase~~13107
▁Enkel~~9730
▁Jersey~~12303
olph~~3814
▁Besitz~~12049
▁Schlachtfeld~~9663
▁Eames~~20556
osex~~18285
▁nu~~20789
oses~~5300
▁notwend~~12162
▁na~~8961
▁Pest~~11909
osen~~4749
osed~~3816
▁Neumann~~20379
▁Verbrauch~~8750
▁abstrakten~~14346
▁dankbar~~13613
▁angehen~~6912
▁Effekte~~4888
aign~~23798
▁Vertrauen~~7018
▁jüdischen~~14644
utions~~6225
▁überhaupt~~406
ometern~~4005
fahrer~~8413
▁vollkommen~~10096
▁Symmet~~22042
fahren~~568
ometers~~18024
frastruktur~~12706
kra~~17943
▁buch~~19115
kre~~11597
▁Schon~~3008
▁Viertel~~3509
▁Schok~~21584
▁Chicago~~8785
▁sendet~~4869
▁ausser~~11843
lung~~6859
▁senden~~4685
▁starb~~3592
▁Werbe~~12091
▁stark~~2216
▁gelandet~~8104
▁start~~17804
▁starr~~9115
▁Nachfrage~~8147
~~20272
~~20275
~~24102
▁Schlechte~~1242
~~20274
▁brave~~23920
~~20269
¥~~23289
¡~~24029
£~~23306
▁Bildung~~2359
­~~23275
®~~21610
©~~21266
«~~7919
°~~3979
▁verborgen~~173
▁miner~~23648
▁nirgendwo~~2610
etzte~~6639
folgung~~16858
iny~~21656
inz~~10860
int~~11380
inu~~17115
▁Weiße~~665
ins~~9091
▁Gesang~~15032
inn~~686
ino~~15126
ini~~10725
ink~~7922
ind~~935
ine~~3277
ing~~356
ina~~6924
inc~~10740
seud~~22618
▁versorgen~~486
▁Konferenz~~11394
seus~~10823
▁21,~~21395
▁21.~~2840
▁Meditation~~19886
▁Recher~~17301
plomat~~17329
▁Rechen~~14931
▁Ruby~~22871
steck~~3603
▁hero~~8538
▁herk~~15833
▁here~~18114
▁erfassen~~2204
▁herz~~17776
▁herr~~2232
cial~~18309
▁graph~~11951
▁Office~~20543
▁Collider~~22926
▁nehme~~11945
arians~~22579
sper~~21700
▁enthü~~19303
adows~~21688
▁klop~~4866
▁2007,~~9910
▁erwischt~~4284
▁Schwein~~12484
▁wolle~~6671
ingungen~~16831
▁Würmer~~725
▁Schweiz~~12079
▁Schokol~~18895
▁Airbnb~~21646
▁FOX~~21149
▁faszinierend~~10378
▁marriage~~22518
igens~~21739
cher~~11407
ches~~11920
igent~~10891
▁formen~~3153
horn~~10809
igend~~4183
chen~~924
spect~~10547
chem~~11663
örper~~12496
▁Rohstoff~~8588
▁sichtbaren~~6618
▁zurückgehen~~14812
▁Wesentlichen~~9322
▁chaot~~16289
▁verkl~~997
▁unsere~~1308
▁Gebäude~~3752
▁arbeit~~16315
▁fühlen~~1717
▁marginal~~23302
▁saßen~~10909
▁Koffer~~19142
▁Abhängigkeit~~6337
vasive~~21040
▁Stör~~12727
▁operiert~~8072
▁Bangladesch~~15200
▁Fach~~2109
▁Face~~19568
▁Persp~~5148
▁Bedarf~~11431
▁schlimmste~~11390
▁stieg~~9010
▁Korallen~~7029
▁Puzz~~14399
▁Ausgangspunkt~~10955
▁Wal~~17835
▁klingen~~3780
▁alltäglichen~~6886
▁Ultraschall~~11752
▁qu~~1338
▁verknüpfen~~13859
▁Übersch~~18409
▁Schlacht~~8002
▁öfter~~12679
▁Philadelphia~~16728
▁When~~21425
▁Literatur~~3711
▁ehemal~~10735
▁verschl~~16490
▁verschm~~5938
▁Ausrichtung~~15499
▁verschw~~10579
kehren~~16928
▁Zeugen~~17376
▁instrument~~21182
▁Kämpfer~~8534
ateur~~20148
Schau~~18717
iftung~~15936
adic~~24133
▁Schulden~~15335
▁Stipendium~~11377
stru~~18529
▁religiös~~4348
stra~~1502
▁Dialog~~13213
▁Ärger~~4463
stre~~1041
geschnitten~~5438
nete~~3434
▁entstanden~~1017
▁Telefone~~18851
netz~~6019
▁gewinnen~~345
ktoren~~2657
▁Appl~~19457
▁Apps~~11912
▁verstecken~~1724
▁äuß~~14708
▁Zellen~~6834
bane~~21642
band~~951
verteilung~~8882
▁Einsen~~17477
▁renov~~12167
bank~~12203
▁leistet~~18251
oldaten~~20800
▁VC~~23279
alleys~~23147
▁verlangsamt~~12874
▁müssten~~2289
▁McL~~23788
▁McN~~16496
▁McK~~17822
▁Coast~~22880
▁McG~~4558
▁McC~~7856
▁agieren~~8862
▁install~~1509
▁tour~~15057
▁Plötzlich~~5637
ografische~~6332
▁Grammatik~~9878
▁Murray~~17615
▁außerdem~~5836
ublin~~21047
ublik~~22372
▁Amerika~~3839
standard~~2072
▁Caltech~~18084
▁umge~~5535
▁wobei~~10209
▁zutrifft~~15679
▁oftmals~~6751
▁Kur~~6663
▁organisierte~~8841
▁Oprah~~20285
▁Kub~~10189
▁Kug~~21734
▁Veteranen~~20558
▁Geschmack~~13034
▁Kul~~5293
▁Kun~~18346
äter~~14025
▁Apart~~10395
äten~~9087
▁Beamten~~17732
▁zuge~~11950
▁Unterschiede~~2589
▁Instinkt~~15313
rieben~~5227
▁Spreng~~15665
leihen~~9943
▁Kriegen~~14191
ismen~~9401
▁TEDWomen~~7661
▁Krieger~~11942
mächt~~17904
▁Pferde~~6080
laden~~1950
▁est~~19998
▁speziell~~5433
▁Schwach~~9706
Wenn~~3831
▁Errungen~~12062
▁divid~~23811
▁voran~~11807
▁Mäusen~~9489
▁arithmet~~20384
▁wichtigste~~9180
ological~~20204
▁Anst~~15089
▁Nahrungs~~6113
▁Mühe~~7571
▁redete~~16769
uda~~7105
ative~~4492
▁Argument~~4099
mitten~~14161
mittel~~11157
▁schwierigsten~~7641
▁verlang~~3444
pielen~~4837
▁angewendet~~8122
itten~~6626
▁restlichen~~11171
hry~~8016
▁gemessen~~4006
hrt~~10122
▁kommuniziert~~14853
hre~~13660
▁diverse~~22350
itter~~13899
▁Bombe~~15980
anzt~~6768
▁informieren~~12633
▁hinab~~11070
anze~~19431
ording~~20200
▁ultimative~~14315
▁völlig~~1072
▁komme~~5739
▁Here~~18439
▁kommt~~717
▁Herz~~3664
▁Herr~~11800
▁einher~~2117
atur~~946
atus~~18389
▁Tahrir~~21406
we~~3287
wa~~16815
wo~~5896
wn~~18334
wl~~18343
▁Parlaments~~18914
ws~~21382
▁Local~~22899
▁britischen~~9343
▁allerlei~~4937
▁Allerdings~~12711
▁Basen~~16598
▁Evan~~6502
bral~~5081
▁Pyram~~17409
▁3000~~16080
mmer~~10461
▁Formel~~17338
▁Formen~~380
schluss~~4756
▁glücklich~~1789
▁Schließlich~~7878
▁dahinter~~7547
onieren~~16358
baum~~11129
baut~~6458
fest~~3953
istent~~9564
baus~~11035
istenz~~8464
▁Verpack~~6082
opardy~~23627
ait~~21002
air~~13233
aim~~17419
ail~~6034
ain~~12032
aid~~22068
iegt~~8566
▁dagegen~~6752
sendung~~10639
▁Krümm~~11252
▁diese~~209
wissenschaften~~10589
idal~~23537
▁Vorlieben~~11205
▁Jahrzehnten~~7505
▁Nachdenken~~15356
▁Applaus~~5069
▁Auffassung~~1266
führern~~14888
▁arro~~21408
▁or~~7175
▁zit~~9552
▁Normalerweise~~764
▁bevor~~1572
▁Materie~~15699
▁Erkenntnis~~5565
gekommen~~5274
▁akademischen~~3716
▁Speicher~~18664
▁1980~~8759
▁1984~~8745
▁1985~~10409
▁1986~~16894
▁höchste~~11427
ucken~~16833
▁Auswahl~~3421
▁Chinas~~8832
▁Anwälte~~17140
gebiet~~7087
▁loswerden~~12060
ucker~~19391
▁beschreiben~~3729
▁Haushalt~~11001
▁Liberia~~14175
▁Miss~~7667
▁Mist~~13435
▁ob~~1688
board~~15759
▁IKEA~~16755
ienen~~13543
▁Suther~~16897
▁hohes~~15575
▁Asien~~2177
▁glück~~8366
Tra~~18151
▁innen~~12025
▁oh~~6697
▁Werkstatt~~6568
▁Zentral~~6915
▁hohem~~2305
▁hohen~~1645
▁überwält~~22315
▁Begle~~13423
▁hät~~8397
▁dauern~~7469
▁dauert~~807
omics~~17110
/~~7320
▁Lebenslauf~~19237
▁Vorhersagen~~17522
▁aktiv~~1045
▁zentralen~~7240
▁for~~7281
▁Kell~~17390
phen~~11684
phem~~21262
phet~~14208
▁fol~~13209
erson~~17580
▁wette~~3503
obi~~20375
obe~~16009
▁ausserhalb~~7457
▁Medium~~5479
▁Arts~~17809
obs~~15231
▁drif~~20136
▁verdoppelt~~8913
▁irren~~14328
▁Arabischen~~15995
▁verdoppeln~~16508
▁Glob~~17575
▁wieder~~646
wan~~18198
▁Boot~~3541
wal~~20976
▁manual~~24058
way~~5948
▁erstellt~~11027
▁Boom~~16613
was~~20250
war~~12525
▁geschossen~~15273
▁ausges~~11729
▁ausger~~11475
▁ausgew~~20528
▁ausget~~15482
iking~~20992
iglich~~20680
zeitalter~~6303
▁ausgeb~~6794
▁ausged~~16223
▁legisl~~19839
▁Osama~~22150
▁ausgel~~9105
▁letztes~~6765
▁letzter~~2773
emin~~6009
anen~~17704
▁normal~~3239
aner~~11101
anes~~15448
▁Nanotechnologie~~3992
izers~~23375
▁letzten~~826
▁schools~~22240
▁ther~~23701
olz~~20551
▁Ian~~21291
▁Edith~~10168
▁akzeptiert~~4260
ürd~~8547
ropolitan~~16694
▁Diagn~~14910
▁Gehalts~~21607
for~~16332
▁beginnt~~4876
▁Apollo~~9923
▁'80~~23540
▁Rezession~~16988
▁Carlos~~18499
ForShe~~23989
▁Marihuana~~16734
▁aufgefallen~~4624
▁stolz~~10976
rhythm~~23102
▁widersprüch~~17914
ivil~~16418
▁Dynam~~20672
ivid~~22675
fol~~7426
▁Korean~~17889
▁algebra~~22910
Just~~15113
orld~~23977
selben~~17642
▁multiple~~17130
ilde~~17097
usammen~~19810
unklen~~18048
▁Glühbirnen~~19649
▁form~~6116
zuziehen~~18364
▁besser~~1499
▁fort~~2057
▁Refle~~19804
▁Afrikaner~~8628
▁Bor~~15002
▁Bow~~14265
▁Bot~~5778
▁Bou~~14322
▁Box~~9937
▁Boy~~17033
▁Manager~~11962
▁Bob~~5361
▁zurecht~~5273
▁Bon~~15560
SA~~8831
▁Bol~~1465
▁Venter~~12583
▁Absch~~15013
▁enthusiast~~21254
sprechend~~3901
▁Institution~~15512
▁packen~~2969
▁Zell~~8279
▁zehnmal~~7405
rovir~~21530
▁Papp~~13650
▁Zelt~~11432
▁Papa~~7706
▁Schritten~~9318
leuchten~~3705
▁dimension~~22929
▁Betrachter~~16220
▁Betrachten~~14062
▁bedeutend~~10842
▁umsch~~8586
F~~3771
▁Brent~~18813
▁Brenn~~6758
▁bitte~~3898
▁Brend~~21573
▁Afrikas~~7503
cas~~20350
car~~6952
cap~~23993
can~~11571
cam~~19040
▁plast~~6096
▁größ~~14132
▁Gründ~~14677
▁Grüne~~17923
heart~~24018
▁Spielzeuge~~12595
▁erwachsene~~21904
▁Edin~~22380
,'~~22760
▁Textil~~19590
,"~~4465
▁quantitative~~21526
▁Middle~~12235
▁Perspektiven~~3300
schaut~~14364
▁jährliche~~12829
▁Sebast~~21650
astroph~~19708
wling~~22636
alyse~~21071
▁herbe~~19193
▁erfand~~16782
,]~~10941
alyst~~20961
▁Signal~~6720
stchen~~21924
itiven~~13854
▁grundlegende~~2416
▁Bots~~21644
formt~~16338
ektive~~19079
Wait~~23372
▁legal~~14043
▁Wäldern~~17656
▁Ausgaben~~2282
▁Camer~~23064
▁lokalen~~6875
kern~~1748
▁buddh~~15717
▁rank~~20878
▁lokaler~~7003
▁gesendet~~5394
▁rang~~20156
▁rand~~21206
igkeiten~~12592
▁Radi~~11063
▁Kabel~~6805
Afr~~5486
▁geworden~~1369
▁irgende~~6087
▁Diagnose~~8368
▁Westküste~~5520
▁negative~~15228
▁entschl~~17538
punkt~~5845
cart~~14403
▁Person~~3106
care~~22976
▁schlag~~11363
▁spannende~~17990
▁schlau~~5028
▁Jahrzehnte~~12954
▁Trotzdem~~8135
xy~~13522
xt~~790
▁address~~23497
gewinn~~17969
▁Station~~4131
▁sä~~3195
▁geringe~~16426
▁sü~~12411
▁glauben~~1614
▁Verzweiflung~~6895
arith~~20028
▁Fäden~~886
uper~~22301
quar~~17352
qual~~989
anischen~~505
▁Schwächen~~9849
▁mitnehmen~~6940
ücht~~9209
ickelt~~8144
▁Moskit~~22586
▁bös~~11408
▁Schü~~20444
Mail~~4686
▁spektakul~~15204
▁diagnostizieren~~17795
deut~~10435
▁Gedichte~~19138
▁Bre~~12752
▁Bra~~11969
▁Bro~~15959
▁dunklen~~6443
▁sequenzieren~~18135
▁Bru~~19471
]~~2800
▁Antibiotika~~9454
▁irgendwie~~468
▁Chaos~~4566
▁begann~~3610
fahrzeug~~19754
▁Gelände~~17364
▁annähernd~~8500
▁charakter~~13833
▁Behälter~~15000
redict~~23953
mosp~~22037
offen~~17860
▁Protest~~14276
▁Hirosh~~21285
▁Texte~~5242
▁fantastisch~~1757
gebrochen~~11485
▁Savage~~16267
▁Schrift~~14341
▁ausgekl~~11255
▁zuvers~~12657
▁Kump~~7884
leun~~9039
leum~~20941
führungen~~5443
analy~~20219
▁Schutz~~6971
▁Linsen~~20884
▁Elite~~9151
sport~~15530
▁Guer~~18844
▁alternatives~~17967
▁fürchte~~11823
▁Drit~~19703
▁Wörterbuch~~16912
teilung~~2445
▁könnten~~3265
ruppen~~3436
▁geplant~~9998
ischem~~6891
ischen~~54
▁Jemand~~13389
▁wichtig~~843
▁Jungfrau~~12905
▁Geographic~~11403
merksamkeit~~22896
▁Professor~~10733
ischer~~552
isches~~1681
▁50%~~7246
▁50,~~9986
▁verheeren~~16869
▁50.~~3318
▁500~~6376
▁Philosophie~~6922
▁app~~18394
▁Everglades~~23984
▁niemandem~~9558
▁niemanden~~4684
▁nachdem~~3348
▁verrück~~20781
▁gesehen~~91
▁Herde~~15381
▁mittlerweile~~5465
▁früheren~~11874
▁Besser~~10558
▁bedeutenden~~7222
eit~~9456
▁3-~~10963
▁3,~~2184
▁3.~~11446
▁35~~2369
▁34~~3795
▁37~~9133
▁36~~6984
▁31~~16978
▁30~~3333
▁33~~18046
▁32~~10893
▁Salat~~16473
▁Schöpf~~5522
▁Pyramide~~16442
▁39~~18600
▁38~~19168
▁3:~~10319
ernen~~6566
▁weiß~~417
eral~~16036
eram~~20986
▁Blair~~20374
▁legend~~4727
▁hats~~22275
▁hängen~~12325
yl~~5908
▁abges~~8248
▁abgel~~7957
Č~~24067
▁Poly~~5906
ć~~23646
ā~~22827
▁Poll~~15001
▁Flüss~~21064
▁eleph~~24101
▁Pole~~17311
▁vorhersehbar~~4207
ī~~23988
▁kompliziert~~3019
▁Verteidigungs~~10269
▁Magen~~5961
▁Wussten~~19210
lösung~~10519
▁Wieviel~~4285
▁lobby~~16050
▁MoMA~~20549
▁Schmuck~~12019
▁geleg~~3641
▁auslö~~14753
▁wesentliche~~1743
▁Stärke~~2698
▁kurz~~4123
▁Arbeitskräfte~~13488
uild~~13494
▁Kansas~~17935
[...]
