▁LS~~17720
▁convenience~~8785
▁component~~2959
▁metabol~~10993
▁embry~~7150
▁Van~~13633
▁current~~4476
▁Fleisch~~17591
four~~10784
▁embra~~8095
ruct~~14153
▁240~~14108
▁boxes~~2253
▁Kle~~7780
▁holiday~~9890
educ~~1828
▁Talk~~14
▁Chin~~9173
▁laptop~~1203
▁proof~~3703
▁contract~~11853
▁Glenn~~13588
▁stunts~~12839
▁1998,~~14313
▁refused~~6114
▁meet~~1555
▁spell~~8935
▁construction~~9911
▁pity~~14540
Cl~~14994
▁cells~~2361
▁ampl~~4021
▁Dass~~18164
▁carry~~4669
▁reasons~~1445
▁Gandhi~~2911
▁cell~~3676
▁distances~~752
iquid~~15562
▁cele~~16213
▁ultraviolet~~10961
▁Kok~~18000
▁treating~~8136
▁struct~~6402
▁Dyson~~15048
▁aftern~~17397
▁agencies~~6855
▁bron~~11963
000~~15979
▁brow~~14511
▁techn~~3074
▁thought~~1517
▁background~~1754
▁Million~~2630
▁negative~~10376
▁dire~~13101
▁stairs~~6844
▁whose~~2924
quare~~13614
▁elimin~~13244
▁Queens~~12952
▁enabling~~11250
second~~6862
▁techniques~~5972
▁guaranteed~~10318
▁filled~~3167
▁detector~~9383
▁ja~~10439
▁dec~~5739
Huong~~3209
▁Bret~~17238
▁Everybody~~1976
▁Pop~~4075
▁Por~~8200
▁Pos~~16101
▁shots~~5590
▁laun~~12306
▁infrast~~16190
▁fake~~4200
▁grabs~~5868
▁Blair~~15046
▁analogy~~8341
▁Vas~~7955
▁del~~13483
▁alongside~~10432
ated~~1128
▁There~~630
▁adds~~10470
▁designed~~1313
hern~~14386
£~~17482
▁Carolyn~~4619
avery~~15849
aten~~8094
▁possible~~1668
here~~5216
▁Darwin~~10974
herz~~17520
ching~~11043
▁Nairobi~~11226
▁designer~~4214
ements~~5293
ates~~312
hers~~5301
athan~~16097
▁Depression~~4364
theless~~7579
ppen~~15061
▁decept~~8119
▁artifact~~1956
k~~4411
auf~~15954
▁trium~~16905
▁det~~9561
▁Spiel~~8074
▁Ring~~15661
ouds~~12990
▁Lange~~60
▁donors~~6475
▁Laden~~15321
▁influen~~13329
▁partic~~14304
▁extern~~14720
▁Tex~~17953
▁Sobule~~16750
▁hear~~348
▁trunk~~8231
▁heat~~5252
▁pounds~~572
▁heav~~14943
▁Nick~~7791
▁Case~~14938
▁really~~344
sters~~4734
▁Brent~~13805
▁measurements~~2295
▁manner~~2758
▁ubiquitous~~9360
▁Baum~~11876
▁head~~364
stern~~15060
aun~~15537
▁heal~~6298
▁regular~~9201
▁Bang~~7642
▁500,000~~5670
▁Tipp~~15047
▁flows~~9701
▁Kaiser~~17632
<s>~~2
itha~~15021
▁rolls~~6086
▁Bill~~59
▁intelligent~~2048
▁Res~~13358
▁person~~2413
▁unhe~~11123
▁Wagen~~9673
▁neurological~~11489
▁flown~~8177
▁Nagel~~12790
▁nowhere~~2039
▁technique~~8050
▁Gould~~16746
9,~~2643
▁rather~~667
9.~~3855
▁empowered~~11737
▁luck~~5710
▁modest~~3941
98~~9928
holm~~16630
▁Pac~~15750
▁autom~~14291
▁essentially~~6907
▁wonder~~560
hole~~4859
hold~~12423
gencies~~15034
▁stack~~1616
▁prevent~~5305
▁backed~~10507
▁helpless~~7493
▁agents~~11836
berecht~~17454
income~~12448
▁spinal~~5124
▁Satell~~16954
▁capt~~176
▁caps~~4451
otherap~~15179
▁produced~~4464
Le~~4285
▁Tasman~~15108
▁year~~834
wand~~15376
▁claim~~7049
▁manufact~~16007
organized~~11305
▁Liter~~7251
▁beating~~5617
▁Mass~~3483
uary~~15092
▁producer~~6566
▁produces~~2416
umin~~14206
▁clicks~~16493
hmallow~~16684
▁visitors~~12396
▁yeah~~4074
ilia~~3745
▁systems~~1617
LA~~16396
▁Fang~~17599
hol~~15738
▁nonviolent~~13312
how~~10854
hot~~8440
hou~~11525
ilit~~10515
▁Jimmy~~2676
hop~~4117
amme~~14911
hi~~14257
▁grassroots~~15494
traum~~12800
A~~2281
▁own~~1494
▁tough~~2082
▁owe~~7588
▁neue~~17809
▁TEDMED~~12666
▁puberty~~8591
▁Steven~~8073
▁Lem~~13077
▁Kelly~~11258
iefen~~2847
▁purp~~14999
▁neut~~16401
▁world~~192
▁neur~~5132
▁woman~~1107
▁mentor~~13474
▁Leh~~14986
aving~~6622
▁bedro~~12419
wins~~17946
▁guards~~8268
▁Situation~~17711
▁Ebene~~4832
▁Geoffrey~~16933
▁soil~~11445
▁elabor~~12635
▁presents~~11191
▁Hills~~17324
wing~~304
wind~~5335
▁surface~~577
▁Rass~~17854
▁protest~~10486
SM~~12853
▁pragmat~~16931
▁want~~185
▁appliances~~14678
▁today~~757
▁Wikip~~17208
gar~~12038
vard~~17604
▁wann~~16039
▁matters~~1767
▁conserv~~11905
▁wand~~15814
▁technically~~3384
▁movie~~8176
▁Kor~~15827
▁Higgs~~16736
fir~~13565
▁stimulation~~11430
▁Treat~~14331
fit~~5048
▁hunger~~6409
▁profit~~1428
izophren~~17055
▁architects~~7376
▁authenticity~~8010
▁diversity~~2025
▁appealing~~10650
▁instantly~~7314
inal~~8859
▁puts~~2528
fig~~12120
cipl~~15284
fik~~16317
▁crucial~~10295
▁scanned~~13769
fin~~6955
▁participate~~3050
fil~~14593
esity~~16989
▁Being~~6266
There~~5690
▁John~~5925
▁Rhode~~10523
▁legisl~~14579
▁merch~~6439
▁elder~~16314
▁neither~~2945
▁Navy~~12520
▁ideals~~8329
tenance~~11976
▁Lev~~14383
▁monit~~14308
▁smarter~~12110
▁bibl~~13537
▁Let~~983
▁skeleton~~10121
▁fires~~8219
▁property~~5731
▁somebody~~3434
▁suggests~~2468
▁..."~~3478
▁Patrick~~15986
▁Kentucky~~12749
▁nation~~7529
▁Beatles~~13253
▁celebration~~9751
▁continuing~~7083
▁fired~~6209
▁regnet~~15101
▁lesson~~1791
▁Dor~~14764
▁Brook~~17217
▁bu~~4161
▁br~~5187
Ç~~17508
osit~~4425
▁final~~1276
▁chang~~16204
osis~~11025
▁by~~24
▁emotions~~1331
▁downtown~~9056
▁be~~244
▁expertise~~6017
▁forests~~4170
▁actions~~8827
▁bo~~10409
▁harvest~~704
▁rating~~11132
borne~~5895
▁nanotechnology~~3112
ru~~4406
▁cross~~5691
▁pets~~9168
▁swell~~14424
▁explode~~5524
▁Diff~~11574
▁weeks~~976
▁Pool~~16017
▁10.~~14393
ry~~2817
▁invest~~1837
re~~66
▁generated~~759
ra~~2649
Rabbit~~14876
adv~~17337
volutions~~16906
ro~~2009
Super~~9087
ri~~2843
▁instructions~~9968
▁electrons~~11832
erted~~6326
▁curious~~2730
▁vibrating~~14398
▁Panbanisha~~17935
rative~~2064
▁Posit~~17979
▁transcend~~11980
▁Armen~~15637
▁decade~~1934
▁exhibition~~4939
eks~~15634
▁dawn~~5945
▁token~~3399
▁detailed~~2740
upt~~16274
▁paying~~1832
ate~~673
hmen~~6773
eared~~11689
ata~~7447
ato~~9719
▁Russell~~13938
ath~~4536
ati~~7486
Char~~15870
▁Songs~~15261
att~~7555
ats~~1255
▁News~~8773
▁ill~~5812
▁Coca~~11774
▁2011.~~14370
▁2011,~~7987
▁initial~~7040
▁Many~~5410
▁patient~~2412
▁lever~~1181
titude~~15152
Please~~3022
▁cartilage~~9530
▁relativ~~14210
▁2020~~16636
▁apes~~9166
▁description~~2943
▁Mann~~12893
▁level~~1527
▁exhilar~~6259
▁traits~~1241
▁Mang~~17614
▁stomach~~4503
olds~~1628
buch~~10733
▁scroll~~8042
▁incentives~~3342
▁NSA~~12849
▁trained~~10847
lege~~10738
▁constra~~4790
▁activist~~10482
▁incons~~13381
master~~3603
▁primate~~9237
▁Treasure~~15508
rons~~14452
orrow~~14024
▁satisfy~~10656
▁agree~~6949
izen~~17400
▁Fischer~~8554
▁trends~~10391
cted~~6794
▁taller~~14314
LS~~17732
intell~~13159
▁keys~~4032
▁frame~~2047
▁mosque~~10436
▁phosphorus~~15399
▁Robin~~12169
▁volumes~~13997
▁move~~835
Stra~~9034
▁Jack~~12578
▁aluminum~~4977
▁installed~~8924
Stre~~15500
uations~~12444
▁brought~~2277
▁free~~3559
osition~~4314
▁planned~~11873
▁radius~~16535
▁determine~~8669
friend~~9588
▁HIV~~6853
▁class~~1854
▁truth~~88
este~~13096
▁hardware~~3270
▁infinitely~~11218
▁democrat~~14711
PTCHA~~16801
esth~~5168
▁Fellow~~10233
cking~~8103
▁Deep~~9817
▁buried~~8423
pect~~10971
▁misst~~17768
▁killing~~9857
▁caring~~7496
fect~~14792
▁controvers~~16549
enness~~9813
▁Mine~~11450
▁strategy~~6986
▁Mini~~8863
▁merely~~6896
eler~~6077
▁algorithms~~8287
▁dough~~10617
eles~~16598
▁distinct~~8296
hum~~14233
▁brach~~16888
▁details~~3751
Bank~~17391
▁threaten~~7318
erana~~17781
▁Pot~~9060
▁comput~~12787
estock~~12009
seh~~18188
▁north~~441
▁eradicate~~1538
▁recogn~~13056
▁Intelligent~~15297
letter~~16074
▁away~~693
—~~16486
▁Rational~~11273
▁scanner~~2386
▁sketch~~8886
▁supermarket~~9145
▁tape~~9391
qual~~13039
▁injury~~9526
▁Burk~~16683
▁Om~~13090
▁Istanbul~~15207
▁limits~~2094
▁inventions~~4700
▁fiscal~~14587
▁legitimate~~6022
▁freedom~~1563
▁Bonobos~~17934
▁wipe~~5530
▁qual~~11700
prim~~17261
▁quad~~1770
unts~~14546
liest~~8418
▁corre~~11327
antly~~9635
▁arbit~~6546
▁Differen~~17376
▁dismiss~~11617
lethal~~17275
▁deployed~~12360
▁Wirk~~17810
▁quar~~6616
isphere~~11643
▁giant~~349
capes~~5285
▁pione~~14352
▁testosterone~~8614
ment~~1596
rict~~13361
▁coverage~~9327
rics~~6981
fund~~15725
▁Kauf~~16846
onanz~~16992
▁Pog~~17597
▁thro~~14204
rich~~503
mend~~5419
▁Rep~~17326
rice~~15795
▁chromosome~~11488
▁Alger~~15680
▁underm~~10335
wide~~5242
▁evident~~6984
▁underg~~7103
▁helped~~1942
iate~~8301
▁Pol~~14063
▁gathering~~2181
▁Album~~14336
▁warrior~~10253
▁innocent~~5115
X~~6480
▁Every~~2036
▁criminal~~1193
▁underp~~11998
▁livestock~~9624
▁film~~2439
▁fill~~6787
▁batter~~17427
▁yours~~9964
▁spaces~~2354
▁wrap~~12350
▁actively~~7865
▁direction~~1937
▁2010,~~7591
▁Things~~12975
nes~~13259
reate~~7136
▁micro~~340
▁2010.~~12280
unte~~16922
▁Senate~~8638
▁ignorance~~10364
▁drugs~~5163
▁incident~~8426
▁success~~1587
▁adaptive~~4176
bles~~6565
▁predictions~~14158
cles~~5457
inctions~~13193
▁Behind~~3462
▁regions~~6370
▁maint~~12998
etic~~601
bled~~7516
▁banks~~2300
▁covered~~10160
▁geeks~~3550
John~~6032
▁Oregon~~8262
▁East~~4168
best~~8665
▁spots~~5447
iry~~4660
▁organism~~9268
▁relate~~7552
?'~~13534
▁interse~~8312
▁mega~~11776
▁governments~~5295
▁distra~~6788
irt~~2823
ibles~~15551
agine~~14564
▁eventually~~460
irl~~7364
irm~~10910
▁place~~761
iro~~12832
ations~~2260
iations~~7851
ringe~~11448
irc~~8279
ird~~1523
ire~~3906
▁journalists~~2328
▁Which~~4749
▁African~~4139
ask~~13659
▁worse~~1090
▁nurturing~~8962
cut~~6274
▁Ideal~~17039
▁displays~~12564
▁Suther~~12394
ishment~~13932
ued~~13355
carbon~~8631
▁worst~~975
izont~~17590
affe~~14008
▁Potter~~14530
cur~~6742
otion~~9078
▁erectus~~11606
▁tempt~~3314
▁plur~~17694
▁templ~~9565
▁dein~~16412
▁Blogger~~16621
▁MRI~~2369
▁hunters~~11235
▁ca~~11548
▁educating~~13476
esis~~566
pre~~6583
▁Balance~~17862
ater~~7268
raits~~15266
▁Stand~~3556
▁possibly~~7657
▁accountability~~2065
▁Ostens~~16492
▁shoulders~~5872
▁Voyager~~8193
▁sedu~~5610
ffic~~13023
pra~~16520
100~~8835
▁talking~~796
▁impl~~7501
▁grade~~6012
▁Paz~~8067
reng~~17362
fre~~15306
▁Pay~~13311
isher~~9983
▁Block~~5009
▁Pat~~12492
▁external~~10553
▁fair~~4052
▁Pas~~11752
▁choir~~8059
.~~57
▁Pan~~2160
▁jazz~~4077
▁Pal~~5068
▁Pam~~14800
▁batt~~5934
è~~17458
▁storage~~5251
▁laws~~5255
ished~~8749
spir~~14842
▁welcome~~9580
life~~6263
ano~~8675
▁tooth~~5381
▁Comedy~~15663
▁parasites~~16894
▁horr~~13869
▁Kick~~12405
▁healthier~~6830
▁merg~~12300
▁Jackie~~14798
▁Mellon~~3428
athon~~10546
▁allowing~~8048
ersp~~17360
onym~~17232
arians~~12061
20-~~16372
▁foreground~~8451
iologists~~9309
▁Erik~~14042
▁depth~~116
igan~~17661
aman~~13615
inch~~14701
usion~~6687
igrade~~7175
▁marginal~~1456
▁heter~~9342
▁Northern~~5332
▁empt~~5770
▁Wag~~17884
On~~7577
▁besides~~1448
▁Fraser~~17767
▁Repl~~11959
▁historical~~11626
▁theories~~10667
▁Was~~2779
▁War~~4365
Mail~~18129
▁Way~~7383
▁jellyfish~~7627
itated~~6822
▁flour~~7363
tis~~16324
▁Afr~~17407
ado~~16075
▁Hiroshima~~13651
▁horrific~~5601
▁Really~~1293
ilion~~10059
▁expectation~~13460
▁arrested~~6466
▁stop~~1319
▁Aff~~13850
▁narrative~~2442
▁Tide~~18041
▁stom~~4508
▁recip~~6346
▁Explosion~~17522
▁physical~~3574
▁Opp~~1759
▁position~~5893
iell~~17610
▁Opt~~17225
▁offering~~5816
▁0,~~17516
bie~~14905
▁closing~~8221
▁pract~~14890
putation~~14640
▁Baltimore~~16472
▁Biolog~~15523
▁symbols~~12542
▁Penn~~12132
▁inher~~12418
ã~~17239
▁Islamic~~10091
ustom~~15023
geist~~11211
▁always~~1534
▁Sting~~6715
▁perhaps~~3796
▁motion~~3919
▁surprisingly~~7415
▁school~~1143
▁divor~~10273
▁difficult~~668
▁advert~~11092
▁cave~~2479
eliness~~17061
▁chase~~5007
▁Broadway~~12911
▁Olymp~~1305
Thank~~8128
▁harmful~~9970
▁Bell~~14100
▁8,~~16380
▁8-~~15510
▁8.~~13045
▁Oxytocin~~17728
ordin~~5551
▁Chinese~~4287
▁85~~11646
▁86~~11470
▁80~~3068
▁riots~~13524
▁82~~6481
etics~~5169
▁caught~~1649
▁Maur~~7931
▁88~~12550
ctic~~5391
▁States~~1444
▁las~~11856
hai~~10476
▁Power~~11581
ham~~6063
han~~11320
▁Splashy~~16323
hab~~4446
▁thylac~~15711
▁calcul~~13685
▁phase~~8208
▁blah~~16732
▁Nice~~9468
▁silence~~2834
har~~12983
▁Radio~~10567
▁Koll~~7721
▁tremendous~~5823
inging~~720
ç~~12979
▁Julia~~12041
▁Julie~~16643
OM~~17530
▁age~~1317
inosaur~~16963
▁Laur~~14255
uminium~~18008
▁ago~~977
▁campus~~10829
▁nest~~4489
▁research~~2095
▁Second~~1501
▁priest~~9895
▁Arist~~17177
▁Russ~~15555
▁degraded~~15882
▁Anders~~17192
▁salmon~~9172
▁recall~~3350
▁ambit~~16181
imicry~~16562
▁pace~~6669
▁Designer~~8831
▁ang~~13955
ction~~1466
▁phys~~9261
▁failures~~12172
▁household~~8140
▁pack~~4614
▁ambig~~11516
▁entirely~~5693
▁Bre~~5722
right~~9977
old~~1083
ole~~474
olf~~9343
▁boss~~1188
oli~~16237
▁intellig~~12570
oll~~4044
System~~11612
▁improved~~7024
▁cloud~~496
▁eating~~4062
ols~~8676
▁Tennessee~~13088
▁Aquarium~~4542
▁dying~~4507
▁Crowds~~15909
▁German~~1903
ibel~~17272
ä~~17747
▁Hear~~15898
▁fails~~9292
ump~~3128
for~~9007
▁catastroph~~7050
▁just~~625
▁board~~2304
▁wilder~~16180
ume~~13984
▁Head~~2148
▁standpoint~~12479
▁opinion~~2729
▁chance~~3369
▁Kosovo~~15020
▁Instead~~3322
▁suffer~~10109
▁medieval~~16391
▁directors~~9853
annah~~4159
▁Id~~12370
post~~13799
▁Profit~~16669
▁enthusiasm~~5683
▁fixed~~8452
▁practical~~4164
▁targets~~2114
▁enthusiast~~16277
▁unnecess~~6941
▁Dafa~~18210
riers~~5649
▁Desert~~12986
▁disease~~3770
▁learned~~1701
▁plankton~~4558
▁lifetime~~6172
ader~~4893
▁surveillance~~9221
▁response~~5160
cular~~9393
▁coincidence~~8697
o~~6
aded~~6919
▁biolog~~9539
▁learner~~10005
▁schm~~16077
▁Alarm~~17435
▁creator~~9766
aden~~14594
▁Py~~9855
▁interests~~4195
▁methods~~12241
▁consum~~12018
rators~~11241
▁aircraft~~2278
umann~~17912
▁Gedanken~~17145
sol~~7922
son~~4034
▁spills~~14811
▁laboratory~~480
▁encourag~~10249
ithe~~10127
▁Spam~~16080
▁dictionary~~13179
▁portraits~~8029
▁Span~~16916
▁inexp~~16463
▁Whole~~14551
▁legitim~~16046
▁apparent~~4798
▁Zwe~~17328
▁Marc~~16541
width~~16758
▁milit~~4731
▁BBC~~16219
spring~~15933
▁Level~~16895
▁led~~3699
▁Yeah~~3961
▁economists~~5267
▁Genet~~15712
otten~~15338
▁Gener~~15619
▁Genes~~16912
▁Engine~~7934
▁Indiana~~12766
forming~~15589
▁accompl~~15617
▁publication~~14329
▁critical~~675
▁Invest~~10386
▁boring~~9954
ieber~~14602
▁Indians~~15223
▁Genen~~17216
▁schmal~~17290
▁incarcer~~8246
▁abnormal~~11422
▁epile~~10199
▁trigger~~13435
▁subject~~2310
▁corners~~5708
▁parks~~9297
▁sector~~6553
▁hotter~~14694
▁begun~~8265
aza~~14236
▁wall~~2901
uer~~13840
▁walk~~1853
▁monkey~~9232
▁Virt~~15260
▁Could~~3453
azy~~6797
▁was~~514
▁war~~3513
pest~~15710
▁way~~334
▁subjects~~3412
ieter~~8542
arma~~13750
▁Neur~~2333
▁compounds~~7659
▁absen~~15388
<unk>~~1
▁technological~~3929
▁ancestor~~10162
esent~~13255
irst~~4928
rasound~~9353
ervative~~8571
feld~~16000
▁upper~~1769
ü~~17101
▁fossils~~10178
eloc~~16966
'.~~14289
▁slowly~~3243
▁PC~~11982
▁ambition~~2938
▁streaming~~14417
ichten~~13279
▁backpack~~3318
leep~~8086
▁Glas~~16644
▁Jong~~15203
▁confronted~~12164
▁folds~~8307
obal~~15885
ritte~~16649
▁moth~~9219
ó~~13569
▁Glad~~9366
▁vill~~9063
▁goodbye~~6265
▁iss~~6494
▁Connect~~14463
▁offl~~7369
▁philanthropy~~6143
roll~~7762
▁continues~~8250
▁Gift~~17309
▁Gel~~13711
▁Geo~~14992
▁Gen~~5964
E~~2234
▁meaningless~~8188
▁Robot~~12096
▁listen~~880
▁CERN~~14146
▁robust~~7055
▁massive~~2137
ulously~~15173
▁crystal~~7286
sticks~~15114
▁Get~~3611
▁Louis~~3037
▁sufficient~~5446
▁penguin~~9091
Afr~~6560
ength~~7433
▁Trends~~16866
99~~13913
ederal~~13895
imming~~15183
▁bacterial~~9969
cycl~~17677
▁biolumines~~17195
▁elementary~~10541
▁acceptance~~14505
aders~~16662
pet~~15529
▁illusion~~8367
▁Eiff~~12837
time~~2672
▁rescued~~11321
▁lawyers~~5208
▁Clay~~14343
▁rab~~11236
▁rac~~8281
▁rad~~8324
▁Lex~~12510
▁proposition~~6568
oss~~4065
▁Gabriel~~3667
people~~14426
ost~~11380
▁ran~~2539
▁gallon~~13436
▁rap~~9511
▁voters~~4193
▁ras~~11044
▁rat~~8310
oso~~3861
▁raw~~4852
osa~~12809
▁ray~~15067
osc~~2334
ose~~6106
▁Jarrett~~17680
▁candidate~~10865
vet~~13879
▁doc~~13280
ver~~1062
▁history~~856
▁interpret~~8746
▁Christopher~~2330
▁Gestalt~~17699
▁license~~8673
worth~~13284
vey~~2108
▁fung~~16468
▁notebook~~7335
ved~~4999
▁fund~~11085
▁Mexico~~9005
ven~~3978
vel~~6213
▁cigarette~~4512
▁laboratories~~10949
▁Australia~~6244
yers~~8561
▁Best~~12661
▁comedy~~11946
▁Los~~7260
▁Lot~~17041
icing~~3189
▁taste~~12655
▁Bess~~14712
▁cues~~10223
▁bound~~4703
▁unusual~~3754
▁delivery~~11801
▁Far~~8772
▁Fas~~11419
▁Fal~~11966
▁Fan~~16666
▁roll~~5908
ective~~13093
ikh~~13334
▁Log~~10849
iraffe~~15942
▁role~~5144
▁Plato~~15176
minute~~3107
room~~12356
▁incentive~~7123
▁monsoon~~12995
▁Pink~~15618
mahl~~16049
▁widely~~9356
zym~~15039
▁farm~~4709
▁thinkers~~9376
otransmit~~5133
iko~~17090
▁contain~~4568
▁Barry~~9461
▁lag~~13654
▁assoc~~11010
▁Richard~~9480
▁Toronto~~4864
▁collapsed~~2383
▁relax~~6617
▁increase~~1402
▁modeling~~9015
actly~~17050
olly~~9176
sign~~16872
ermaid~~14825
▁Cross~~5657
▁emot~~15903
redict~~18072
äss~~17805
▁Oster~~17032
▁existence~~10252
▁winners~~9762
▁Schaf~~15513
▁profoundly~~9413
▁disadv~~1893
▁ride~~5768
▁crystall~~15666
300~~7169
▁paralyzed~~5098
▁radically~~10283
▁protected~~4765
zra~~10754
▁jumping~~5911
▁Innovations~~18247
ground~~7192
ords~~2667
▁dragon~~13976
Mein~~17141
Me~~14407
▁point~~2673
▁charming~~12239
▁El~~869
Ma~~15961
▁Hirsh~~17716
▁Saul~~14096
▁Revolution~~1171
▁catalog~~7256
olen~~7512
▁temperatures~~8431
▁smoke~~6611
▁cheat~~3220
Ms~~6161
Mr~~2637
alone~~13207
My~~3933
▁tu~~17723
▁Ew~~16238
▁importantly~~2372
▁diver~~4106
MA~~8186
▁plastics~~4382
▁know~~956
MM~~18120
ML~~5374
funded~~8956
▁none~~11282
▁fire~~1520
▁hiding~~2824
MS~~12178
▁ourselves~~1034
▁Left~~3461
▁firm~~6329
▁Performance~~10881
▁leave~~1473
▁suggest~~3646
▁Sean~~16209
▁cooperate~~10796
umpt~~15422
▁grie~~14774
umps~~15560
ipe~~9548
▁climbing~~8450
▁1994,~~10066
ips~~5101
ipp~~8385
wana~~16967
▁differ~~7005
▁purpose~~1397
▁missions~~13964
umph~~2844
Bot~~17270
▁meas~~2115
▁los~~15344
▁lot~~767
▁chron~~11162
▁simult~~8795
▁low~~3346
positive~~13465
La~~11537
opping~~8824
▁lob~~8532
▁loc~~9586
▁Domin~~14342
▁log~~5645
▁Essent~~12752
▁quick~~3536
▁lok~~1091
▁mean~~943
▁lon~~17194
▁meal~~6806
▁CT~~10167
▁bew~~10416
▁CP~~15688
▁Nazi~~2850
▁enforcement~~5274
▁Airb~~16830
▁Nah~~18217
▁Himmel~~16423
▁CE~~15012
▁CD~~12551
▁nanote~~17500
▁CA~~7146
▁CC~~9180
▁CB~~3965
neut~~16330
▁compan~~10591
▁Laura~~8118
▁meetings~~8270
▁remotely~~4824
▁abandoned~~9937
▁explicitly~~7826
▁approach~~3238
▁PowerPoint~~12876
▁Tol~~12432
▁Tom~~2903
▁Ton~~15540
▁Too~~9515
▁Tob~~15767
▁Tod~~3626
▁quasi~~15877
▁Toy~~3708
▁Mexican~~8080
▁currents~~5326
▁jour~~9431
▁shelves~~9074
▁Top~~13632
▁Cl~~6105
▁Co~~6154
▁Ch~~2163
ppers~~9771
▁occurring~~10825
▁gifts~~10686
▁insects~~9223
ogens~~12665
▁Arctic~~10025
▁basement~~7387
outs~~11102
▁Marketing~~16104
▁Geiger~~16537
▁cooked~~4640
ogene~~1958
▁Emmanuel~~16318
▁lifel~~15091
▁gases~~9644
ople~~16469
▁shops~~8740
▁HA~~16393
▁survive~~1273
▁Native~~12913
Who~~4279
▁Brit~~2716
▁bare~~2791
Produ~~17307
▁computation~~12574
▁signature~~748
▁tale~~1025
▁ere~~6793
sst~~16386
▁bars~~4114
▁pristine~~11522
▁tall~~765
▁talk~~926
▁social~~961
▁Brig~~5963
▁strict~~13790
iscovery~~10583
▁Nat~~14375
coming~~11582
▁insights~~10499
▁drama~~2871
▁recognizing~~4869
▁Texas~~10623
tet~~17003
▁isol~~7704
▁Michelangelo~~9821
date~~11999
such~~6281
atar~~13980
▁Giardino~~18136
▁Hyd~~17642
▁2009,~~1722
▁till~~687
▁style~~3733
conscious~~11974
ss~~9072
sp~~5448
sw~~14179
▁Sebastian~~13585
st~~700
sk~~4802
sh~~3130
so~~1733
▁consciously~~5126
sl~~6798
sc~~2197
ervice~~16971
sa~~11726
se~~2319
▁generate~~1072
inte~~671
▁terror~~12879
▁mem~~14781
find~~17473
▁entitled~~6952
▁prefrontal~~8529
vana~~13254
▁hook~~5884
▁viewing~~2596
▁pyramid~~12027
▁Argent~~16566
▁estrogen~~8573
▁censorship~~13649
▁load~~5874
▁Adv~~12091
avin~~9036
ographic~~5403
▁stir~~10248
▁matrix~~11131
▁tribal~~10852
▁forget~~328
▁attack~~5192
▁recon~~10906
▁attach~~7296
▁Add~~9083
▁Sahara~~11650
▁carrot~~12020
▁identical~~8295
hor~~12945
▁Orn~~16336
▁hing~~17132
▁armed~~11587
▁screening~~2961
▁antenna~~13233
▁super~~2248
▁veterin~~12692
▁Report~~15066
▁suspend~~12623
▁artwork~~13877
▁breaks~~3278
▁ADH~~12373
▁virtues~~14732
▁wage~~11988
▁Port~~15940
▁knees~~13631
▁Still~~9497
▁Challen~~15315
▁also~~232
▁Cent~~10994
▁cats~~11391
ussion~~13589
▁haven~~345
jected~~10323
▁Howard~~2915
▁tiger~~7686
▁distance~~3441
▁needing~~12366
▁glacier~~7190
▁scaffold~~9258
▁spades~~6929
▁using~~2368
▁solar~~8191
▁Horn~~13177
astrop~~18101
ann~~7815
▁placing~~1996
▁Urs~~17785
▁Religion~~17512
▁Carl~~6570
iring~~9782
▁Baker~~4102
▁infections~~11465
▁primal~~15665
▁Cart~~10805
▁bucks~~4539
▁Cars~~9827
▁dign~~13454
▁urine~~8700
▁Khmer~~17304
▁Missouri~~12305
▁direct~~4367
▁Marathon~~16575
▁intric~~8355
bly~~15673
▁trade~~4690
▁intrig~~8293
▁extraord~~9750
▁thrust~~14187
▁volunteers~~3499
augen~~18123
▁biased~~10180
▁instinct~~4186
▁undert~~11833
▁Helium~~16400
ble~~4673
▁administ~~2063
ustice~~16202
▁trucks~~12044
▁dispos~~6373
▁some~~31
▁shepherd~~10775
ples~~4716
pler~~15572
▁Seymour~~15956
▁Mubarak~~10572
gere~~17390
▁summar~~11357
▁Konz~~17490
▁aer~~12826
▁Lucy~~10129
▁9/11~~5962
▁Jazz~~11693
▁HC~~16010
pled~~14584
▁Relig~~17477
▁convers~~9636
▁defense~~7630
ilemm~~11256
▁medium~~4126
▁introducing~~13827
▁siblings~~10598
.'"~~4297
rael~~15965
itage~~5414
Z~~8026
▁stren~~12399
▁inspir~~9466
▁Prophe~~17323
▁remain~~7532
▁Proton~~14215
ova~~13916
▁forth~~5153
gern~~15879
onents~~14094
▁Jewish~~10742
▁guilty~~1382
oper~~5854
▁internet~~7368
oni~~17317
saving~~6870
err~~13832
▁disc~~4108
▁choice~~2563
ona~~13791
ong~~4591
ond~~3585
owers~~3799
ooled~~12636
▁uncle~~14185
ony~~10536
bral~~16706
▁Schnell~~18236
ons~~2717
open~~16987
ont~~6979
▁interested~~1696
▁Leonardo~~7935
▁Diam~~13271
▁boat~~2774
▁destination~~12276
Hmm~~15789
▁Large~~14571
2~~1017
▁disk~~15069
Met~~17550
▁Myster~~6235
uries~~7947
▁behavior~~2011
▁therap~~16942
▁making~~1806
▁Ahmad~~11739
romos~~11638
▁Landes~~18118
▁confront~~5254
▁Dian~~15609
▁existential~~12880
▁judges~~14788
All~~9848
▁Stop~~13509
▁trouble~~1682
forward~~6594
▁Gottes~~17908
▁psychology~~10313
▁service~~1427
▁relief~~3493
▁facult~~14016
▁1900,~~15137
▁appearance~~9337
▁interrupt~~15371
▁Naz~~16422
▁yield~~9731
▁Leone~~11368
▁exploded~~3303
▁disp~~4642
▁Daniel~~9469
▁Football~~17504
▁TEDster~~8413
▁wider~~7608
▁Island~~5764
▁halt~~7957
▁surprises~~13396
▁understands~~2957
▁uncomfortable~~5171
▁Wiki~~15501
emen~~8698
▁dist~~4816
sam~~4414
▁subjective~~8021
▁fr~~1404
emed~~1918
▁projections~~12281
▁streams~~7434
alley~~18079
▁arguments~~6936
alled~~9894
▁plastic~~4342
▁fl~~366
abled~~13640
▁expos~~13488
allel~~6629
▁bes~~16264
▁honestly~~9865
▁complicated~~5127
▁fe~~4426
▁shifted~~10214
▁makers~~2329
▁voyage~~215
▁Watch~~1614
note~~9765
▁struggled~~6257
imately~~11768
▁somehow~~1207
anging~~7789
isation~~18048
▁resilience~~11586
▁Celsius~~13639
ameras~~17588
▁printed~~8970
▁captured~~23
▁visionary~~14805
▁Trek~~17011
▁decor~~7954
▁Skept~~15127
▁suff~~7360
ndrome~~17178
▁life~~50
yst~~17122
▁Turing~~15054
▁economically~~5687
▁lift~~9065
▁Count~~10604
smann~~18200
▁pollut~~16639
▁conventional~~6655
phib~~8599
▁entire~~2035
▁closely~~5654
▁Gle~~15094
▁greatly~~8957
▁protocell~~17498
▁flesh~~12674
▁strat~~15424
alog~~11622
▁1957~~8375
uland~~15796
archy~~12966
▁indust~~12085
▁systemat~~16773
▁General~~11730
▁unseen~~4858
▁walls~~3840
▁abused~~13343
♫~~11811
▁syndrome~~11384
▁detectors~~9384
▁relates~~10306
▁tun~~13597
▁civilizations~~11239
itzer~~12602
▁molecules~~2214
▁Camp~~8438
illian~~14256
▁related~~7948
bright~~6198
▁tur~~5025
▁twin~~9514
▁1950~~5498
▁Aber~~17246
▁Camb~~13215
▁region~~478
otic~~10728
▁Country~~14186
▁picking~~3955
▁more~~1259
▁marketplace~~11135
▁owner~~4233
deck~~15797
▁alternatives~~13133
▁crossing~~6946
▁printer~~14588
▁drew~~4980
▁licens~~6216
▁Motors~~16369
going~~16556
▁mort~~3448
▁Hass~~16385
▁liberals~~12083
actic~~9449
▁says~~1108
▁formula~~8635
▁owned~~9768
▁dogs~~9121
▁temp~~11897
▁Muh~~14068
▁Mun~~4312
imps~~9657
▁Just~~1221
▁fragments~~4569
cia~~8938
▁Esther~~15058
▁evidence~~3338
▁Bamb~~5040
▁were~~663
▁sister~~3021
▁Mur~~6061
▁Dinosaur~~16962
platte~~15659
▁Mut~~15188
▁cockro~~10819
▁onto~~2553
▁Gordon~~11312
rogen~~8621
▁Live~~4119
▁lingu~~7355
▁frag~~1951
▁transport~~4723
▁interactions~~9732
▁nuclear~~8398
▁fram~~3159
ounds~~8316
where~~9044
vision~~10332
aurs~~12605
▁costs~~1840
▁practicing~~13606
▁Orgas~~18035
▁minimal~~8326
anning~~6754
▁stimul~~1393
▁welt~~17731
▁Japanese~~2017
▁government~~1888
▁collective~~2719
▁650~~4882
▁dinosaurs~~8646
▁Navig~~17155
▁computers~~7675
zung~~17939
▁collaborate~~3692
▁illumin~~2922
▁regenerative~~14626
That~~1218
▁Kapital~~18063
▁seventh~~6150
▁metabolism~~6968
▁Road~~6379
▁imit~~3725
▁material~~549
▁category~~9340
▁fulf~~1430
marks~~14522
▁full~~2242
▁manipul~~15434
▁Liz~~13110
▁suffered~~12648
▁aus~~16242
ibri~~15358
▁preparing~~5765
▁attached~~7622
steroid~~17977
▁Lin~~11609
anner~~9444
▁arise~~6950
▁Lib~~16119
umber~~5442
▁responses~~11184
oust~~210
▁Honor~~3374
erb~~15891
▁donor~~6520
▁2003,~~8600
ousy~~6123
▁Scotland~~4755
ranean~~10745
ouse~~6765
▁rhythms~~859
mand~~8548
▁measured~~1723
▁seals~~16364
▁sells~~8625
▁Fuller~~15605
▁Geographic~~8428
▁brakes~~6579
Mich~~17311
mann~~16120
▁seasons~~8768
▁inf~~7494
▁memorial~~8549
▁ind~~10302
▁ine~~14719
▁inc~~2293
▁citizen~~12711
▁wolves~~9189
Team~~17683
▁inj~~4183
▁ink~~13256
ants~~4402
▁properties~~12544
▁inv~~2449
▁int~~12482
▁fraction~~4407
▁ins~~2381
▁illustrate~~13317
▁technologies~~1712
▁crude~~2867
▁presented~~7824
▁emit~~2224
plantation~~9264
▁dancer~~5085
▁Fortunately~~9317
▁tod~~14660
west~~4491
▁entropy~~12728
▁Frans~~9724
istry~~9669
▁Lond~~14951
▁Frank~~2647
▁quietly~~8511
▁brut~~12884
▁And~~64
▁recru~~13331
▁Dallas~~14116
▁miracle~~4626
▁stunt~~11952
▁alle~~4890
▁voice~~3677
▁statements~~11166
▁heating~~14232
formed~~6859
▁Oper~~3683
▁circulation~~11106
▁Open~~11284
▁toler~~6926
▁calculations~~10676
▁Going~~13798
▁horses~~4600
icles~~3168
▁bones~~7708
▁DIY~~12488
▁boats~~12162
▁Ferr~~14058
▁purchase~~10647
▁sites~~666
leiter~~18045
ived~~806
▁Fert~~4697
▁plotted~~13493
▁guns~~10184
iven~~3477
▁Automobil~~9823
iver~~12339
ives~~552
▁thus~~11553
▁sides~~5507
▁brand~~6023
▁parach~~14504
▁Fern~~15211
▁Ferm~~16297
ive~~592
▁pervasive~~7313
▁thr~~279
▁Fing~~16038
iva~~9275
▁backs~~703
▁wear~~6835
brow~~14676
▁location~~8017
▁Finn~~14401
▁audiences~~4060
▁scratch~~3596
▁None~~4689
▁Ehrlich~~16896
▁proceed~~7454
▁explanation~~4192
▁encoun~~8204
▁dism~~10086
technology~~9262
▁edge~~186
vert~~5466
▁tox~~14746
▁Chop~~15734
▁quiet~~4061
▁increases~~1394
▁cope~~10172
▁Leads~~16877
▁According~~3599
▁Material~~17035
▁lip~~14649
▁liv~~6384
▁attitudes~~7074
▁lit~~6832
▁perceptions~~13316
▁lik~~13870
▁increased~~4048
▁retail~~8971
▁Moral~~11510
▁smoking~~782
▁reason~~3249
▁managed~~613
abeled~~14834
▁lif~~5776
▁lie~~2872
▁AS~~16742
▁AR~~8409
erence~~16275
▁AP~~11209
▁Swedish~~11329
▁AT~~11989
I~~1109
▁Ahmed~~11725
▁excitement~~3496
arden~~17313
▁emphasis~~6576
ilation~~2202
▁demo~~3088
ventions~~12294
▁AB~~3960
▁AA~~16798
▁offspring~~8670
wired~~1232
▁intest~~14040
▁AD~~15184
▁AK~~14263
▁AI~~16733
▁AO~~15117
▁AM~~6165
▁agreed~~11526
▁As~~1337
▁Ar~~6059
▁Ap~~11437
▁Aw~~3609
▁Av~~11928
▁Tit~~17146
▁At~~2239
▁Hub~~15006
▁Ay~~11718
▁developer~~9938
▁clips~~22
▁Tib~~7609
▁Ab~~6531
▁Ag~~2891
▁Fris~~16729
▁Ad~~6529
▁Ak~~7808
▁Hus~~17072
▁Ah~~3523
▁An~~1250
▁friends~~1035
▁Al~~199
imental~~12206
▁action~~3830
▁proposal~~7125
▁Economist~~978
▁fame~~6072
▁shore~~5259
ress~~7556
resp~~7068
▁astronom~~13911
▁Pen~~4531
▁Bron~~17121
rest~~3486
▁Per~~7550
▁scholars~~10622
▁Pet~~13212
▁creating~~1159
▁Sousa~~16739
▁short~~804
▁calculus~~16089
▁proposed~~7620
▁posed~~7884
▁insign~~11584
▁heard~~2218
▁activated~~5148
▁last~~656
▁artist~~3925
▁political~~2658
▁forming~~9563
▁LEDs~~3843
▁murder~~10301
▁youth~~7044
▁heart~~2880
▁Broadmoor~~18030
▁tank~~8988
▁involv~~8595
▁Alph~~17099
▁Creat~~3474
▁collected~~406
▁hind~~14616
por~~3121
▁Fre~~15497
▁hardly~~5528
agraph~~6615
▁include~~1744
▁heights~~12904
pop~~8926
▁reass~~9801
▁digging~~10134
world~~11531
part~~13209
▁Integr~~15077
atch~~4351
▁Kongo~~17100
▁coff~~1117
▁tink~~12160
▁mob~~15751
▁bills~~3390
inten~~17652
▁poets~~6318
inted~~3161
▁Hey~~9941
▁tiny~~725
▁global~~1610
▁Sep~~17753
inter~~2558
eshold~~18019
▁territ~~5365
▁whisper~~4104
▁ist~~12292
▁Namib~~17363
udes~~12175
▁applying~~7600
▁Geoff~~16456
▁puzz~~14703
uden~~17125
▁powder~~13965
diving~~7618
koll~~17183
▁performed~~3976
uded~~6323
▁laughter~~1366
▁isn~~1024
▁confidence~~2929
▁memories~~2445
▁which~~535
▁report~~986
▁Digital~~8154
▁supported~~8164
▁NATO~~11747
▁Republic~~6861
▁Abu~~14235
erving~~5377
▁morality~~3440
▁stamp~~7749
▁soph~~15240
▁Colomb~~16432
▁huh~~11015
▁Philosoph~~13669
power~~6503
▁hum~~4862
▁hub~~12221
▁Catherine~~9893
▁Matrix~~2430
▁game~~1513
▁valley~~451
▁Forget~~11101
▁forever~~3803
▁hormone~~3588
▁hur~~2816
▁hus~~6146
▁religious~~3360
▁Meet~~9279
▁Amer~~11662
▁storytell~~2487
▁hut~~14527
▁Ohio~~14758
▁incomplete~~7092
ffen~~14942
stone~~10161
▁1999,~~5581
ashion~~14037
ools~~16625
ace~~10017
ack~~697
ushi~~10029
▁Mister~~16322
ach~~3562
aco~~3853
▁Samuel~~12625
▁Pitt~~8013
▁unemployed~~1685
▁People~~226
▁Cell~~7094
▁Ira~~6285
▁millennia~~14139
act~~5714
acy~~6878
▁lasts~~11088
▁inspiration~~11895
arettes~~18022
▁incorpor~~9485
▁60-~~11067
▁End~~4305
No~~6044
▁Kart~~17064
▁passage~~4143
▁Cape~~14061
▁implications~~6432
▁Karl~~10664
essed~~2303
▁hypothesis~~5897
▁cycl~~6639
▁Ent~~5989
essel~~17552
▁Capt~~4343
essen~~12660
acular~~16244
▁dung~~9595
▁Maya~~16252
▁Sold~~13322
oden~~10992
▁allies~~10506
hew~~8918
▁visceral~~15103
her~~5157
hes~~4563
▁unem~~16123
▁certific~~7822
▁Margaret~~13400
ND~~15806
▁households~~8955
NG~~15485
hed~~13689
▁Because~~481
hea~~16189
▁Chromos~~16982
▁finan~~11113
▁thereby~~7632
hem~~10997
hen~~5037
▁Boot~~13345
▁apart~~861
isa~~15985
hek~~15263
lang~~10981
verb~~7560
▁Sene~~17988
agn~~16011
▁sapiens~~10152
▁term~~1295
▁act~~4222
tended~~12950
▁soon~~620
▁ach~~12205
▁ack~~17348
▁adult~~7507
▁MoMA~~15193
wal~~17316
▁regulations~~9930
▁Logo~~17761
with~~4334
▁ecological~~9126
allas~~14197
asso~~5324
▁whom~~5081
▁extinction~~8645
▁assume~~4196
▁home~~916
asse~~8447
▁coast~~4440
▁election~~9803
▁window~~377
assy~~16248
▁Fro~~8594
▁cried~~12649
▁nervous~~3793
▁asteroids~~14434
rust~~1379
▁page~~4290
aa~~15145
▁clue~~11972
ac~~867
ab~~4479
ae~~9604
ad~~1061
ag~~776
af~~5950
ai~~7694
▁potential~~958
ak~~1368
aj~~11677
▁impro~~1391
ances~~2044
ao~~13084
an~~2456
ulpt~~16875
ap~~1352
as~~1096
ar~~445
ument~~4495
uit~~3700
aw~~695
▁entity~~6182
ay~~4086
ax~~3165
anced~~4817
az~~13416
▁bl~~4140
▁irrig~~6375
▁Sad~~4514
▁laying~~8510
▁Titanic~~78
urity~~13000
▁purs~~11975
uste~~16748
▁waiting~~818
▁350~~9784
▁Sao~~15209
▁San~~2186
▁nach~~10864
▁Sah~~15757
▁pure~~9203
▁principal~~2118
▁Sav~~4158
▁viewed~~7807
▁barely~~7213
▁calculation~~10674
▁Sar~~7485
▁bi~~9355
▁Explor~~7596
▁mund~~17543
▁scores~~5621
Wide~~17067
▁symmetries~~16738
▁exc~~5111
▁practices~~2029
▁moder~~7022
anw~~17114
Meine~~14983
▁operation~~5072
▁dispers~~5971
ituation~~18027
▁navig~~13221
▁norms~~3433
▁generates~~8655
ising~~1580
▁island~~4437
▁model~~1969
anned~~15447
▁Insulin~~14634
opoly~~10845
▁hist~~11173
▁complexity~~10296
rr~~15558
▁Bobby~~13525
Wh~~10892
ombe~~15581
▁exerc~~9738
▁outrage~~8288
▁often~~2052
▁hairs~~13952
▁innov~~4030
fluen~~12736
mass~~3489
▁anywhere~~4148
▁2050,~~4656
▁steal~~3221
▁steam~~11157
▁grandchildren~~7241
▁resolution~~8347
▁unfair~~1709
retch~~5088
▁courts~~11816
▁Lerner~~17581
sch~~12165
▁perm~~4877
▁intrinsically~~13286
▁monitoring~~5273
▁Manchester~~14425
▁findings~~1826
▁vast~~2515
▁Aimee~~16815
▁jewe~~14617
▁pers~~4576
▁muscle~~13344
resol~~7650
▁juvenile~~1301
etz~~10060
▁bombs~~8390
▁anyone~~3760
tz~~15086
ty~~294
tw~~8987
tt~~3467
tr~~1190
▁despair~~5181
▁Water~~8891
▁quote~~6052
▁teach~~1843
to~~1426
tail~~15360
▁disgust~~11563
th~~1660
▁raise~~1947
▁Geor~~17545
▁nerves~~5123
Eat~~17002
norm~~16778
orous~~3118
▁nuclei~~13920
▁dictators~~11059
esign~~16692
▁Bund~~10355
▁liquid~~3091
Hello~~14958
utzen~~17085
▁Papua~~16167
etball~~18155
▁Wait~~3199
▁round~~3124
▁extrem~~15955
▁crashing~~15246
condition~~14223
▁mayor~~10102
▁skeptical~~15532
Aha~~15079
▁occasionally~~7311
▁neurolog~~17063
ading~~6749
▁sandwich~~8997
▁Brut~~15975
these~~17576
▁frames~~7006
▁Jazeera~~11224
ifying~~5162
▁3,~~8087
▁generating~~8654
▁Teddy~~9716
▁embarrass~~14791
fashion~~12464
ctures~~16272
▁destiny~~16170
▁sad~~953
▁sag~~14787
▁saf~~14501
▁twe~~7246
▁sac~~15842
umul~~17117
▁sam~~5319
▁trains~~4792
▁san~~6064
itive~~4155
▁two~~117
▁sau~~16828
▁sat~~6194
▁saw~~603
▁sav~~4166
▁express~~3894
▁Thanks~~6033
▁titles~~11864
▁say~~884
▁Church~~10471
▁ancest~~12582
▁regime~~5302
▁Das~~17296
▁does~~1236
▁Origin~~12121
clock~~1477
▁Hel~~15194
▁interviewing~~13394
section~~2314
▁horm~~17230
▁horn~~14681
▁actors~~6408
▁Network~~12873
▁Miniatur~~17156
zig~~17357
otor~~16941
otos~~7685
▁Mississippi~~12222
▁Paradox~~14739
▁Region~~16108
▁Gap~~15974
▁Gas~~13134
▁Gar~~4349
▁Hem~~11642
▁Gay~~16700
▁32~~8061
▁Simple~~11987
▁sort~~1730
sy~~6834
▁Gab~~6341
▁Management~~15473
▁Babylon~~10736
▁Corporation~~16453
▁Gam~~12533
▁Gal~~9570
▁da~~4659
▁lines~~1923
▁de~~1917
orben~~14395
▁founder~~8903
▁di~~12540
▁do~~471
▁Madison~~8741
▁from~~71
▁du~~4258
▁nevertheless~~3286
social~~11255
action~~6419
▁dy~~1097
▁3:~~7683
▁founded~~10424
▁Finger~~17650
▁ret~~4517
▁Libya~~16042
▁rev~~919
via~~14379
▁rep~~4438
▁Fred~~11942
▁res~~6027
▁Frei~~16427
pling~~5320
▁reaction~~6628
vin~~200
▁heads~~6636
▁red~~714
vis~~11917
▁ref~~9332
▁reg~~4496
Aut~~14459
▁reb~~8165
▁rec~~3292
▁rel~~8260
▁rem~~3466
▁ren~~4360
ating~~1591
▁executive~~9006
▁altruism~~11283
▁writers~~8949
▁neighborhood~~5809
▁flowing~~5887
▁Despite~~841
▁tropical~~10995
ichen~~15864
▁published~~7111
▁Di~~13662
▁Wa~~15622
▁dash~~6603
ightened~~2897
6~~8937
peare~~17096
▁Rock~~9829
more~~9642
teen~~4671
▁resol~~15763
door~~10105
▁expanded~~7186
▁Kyoto~~13061
▁184~~4779
▁remove~~3445
▁186~~14776
▁187~~10726
▁180~~553
▁reson~~9730
▁183~~13673
▁18,~~10419
▁18-~~11484
▁remains~~10144
ocent~~14708
▁3,000~~8442
ulin~~17633
▁investors~~8412
keeping~~2687
▁iPh~~10675
▁infected~~915
rait~~15268
▁animated~~14171
▁Life~~8
▁scar~~7737
ational~~1401
▁scan~~8516
▁Manhattan~~8179
▁rebuild~~5987
▁buys~~10668
▁Peace~~10586
▁strains~~10946
▁lea~~17848
Your~~9791
▁Scot~~12506
ready~~15606
▁relev~~17578
▁Meditation~~18165
▁JH~~14815
▁write~~2309
▁brutal~~2683
▁Harvard~~6167
▁ELAM~~18160
▁hobby~~9672
▁glamorous~~14212
▁Humor~~15859
auer~~14929
▁capita~~982
▁Pizza~~16928
▁Schwarzschild~~14201
sense~~11416
scar~~14503
▁democracies~~11245
▁Robicsek~~18047
axis~~7872
information~~14813
▁Accenture~~15824
▁storm~~5669
▁unst~~15302
▁pneum~~17191
▁store~~3271
iving~~793
▁story~~100
▁telesc~~17996
▁Er~~9704
▁Picasso~~8239
jud~~10341
▁assessment~~1721
▁agent~~6703
riage~~13758
▁ratings~~12446
▁dramat~~17414
▁Coch~~9618
plant~~10400
▁studied~~7909
▁realized~~5199
▁slowed~~14328
▁Astrol~~15839
▁incl~~2307
▁studies~~2189
▁playground~~2935
▁central~~3782
▁uncom~~10502
▁nitrogen~~14419
▁crowds~~14945
▁passionate~~2744
▁3000~~18089
▁match~~2625
▁thank~~3198
atz~~14057
▁strike~~9760
▁Ep~~11912
▁orig~~17565
▁having~~223
▁Pic~~15681
athons~~16580
▁acceleration~~14261
abeth~~17868
▁language~~3259
▁five~~837
▁fresh~~3126
▁Film~~8371
ito~~13581
▁accum~~4408
iti~~2883
▁sizes~~325
▁similar~~1824
ite~~1519
etor~~17059
▁angle~~1694
ita~~4345
▁1990,~~11079
▁sport~~10270
▁subtle~~13264
itz~~12207
ozi~~14952
ity~~164
igkeiten~~17806
itt~~2580
its~~5395
▁wheel~~11398
▁banal~~15841
▁Tuesday~~5848
alle~~9026
▁corn~~8569
▁injured~~7750
▁NGOs~~11295
▁Students~~1857
▁Chap~~14086
▁cord~~5125
▁core~~4804
▁pav~~6863
▁concentr~~13130
alls~~13427
▁eternal~~5914
▁Chad~~15482
▁market~~3299
▁volcan~~158
▁pat~~10259
ally~~1763
angered~~17688
▁Nev~~17212
▁Aaron~~16525
▁steril~~12682
inosaurs~~16458
▁toile~~16352
▁membr~~8650
▁classic~~2650
▁Pin~~14138
▁Eight~~12365
▁recovered~~4390
▁chocolate~~6102
▁phenomen~~14069
▁House~~2666
▁GB~~17968
▁dozen~~2311
▁groups~~801
▁Bar~~12531
▁Bas~~11051
▁Bat~~9106
▁Street~~4744
▁Bay~~9040
ector~~12795
▁Gr~~6054
▁Gu~~7958
▁presence~~6337
▁Gi~~12469
▁existing~~1898
▁Bab~~16164
▁Bad~~14637
▁Gl~~866
▁Go~~3432
▁Bag~~17185
▁biode~~4383
found~~7765
aganda~~18178
irling~~15647
▁Ge~~2968
▁Ban~~10049
▁registered~~7766
▁Task~~9323
▁Hacker~~10810
▁Saur~~17896
▁dement~~15517
▁veter~~12571
▁face~~399
▁mechanics~~11504
▁reject~~6951
▁silent~~7069
▁fact~~329
operation~~15096
▁erst~~18248
▁Side~~8178
▁ads~~9798
▁Action~~11451
▁Favor~~11375
▁favorites~~239
▁loses~~14635
▁Emma~~14268
atoes~~9610
▁prevention~~6987
athie~~15214
▁lecture~~7829
▁Impulse~~17822
▁lock~~5891
▁prisoners~~8269
▁Mand~~17901
▁Shack~~14910
▁athlete~~1408
▁prison~~8224
▁production~~4368
viol~~7504
belief~~12624
▁known~~1257
▁budgets~~13746
▁cred~~6020
▁cree~~4918
▁allowed~~6920
▁square~~574
▁violence~~2769
▁geometry~~5001
labor~~17283
▁virtue~~7903
▁switch~~5119
▁crew~~2812
▁knows~~1005
ologists~~6229
▁Civil~~8401
▁empath~~7515
imet~~17667
▁Your~~1287
▁absorbed~~13775
▁safety~~8448
w~~3186
▁responds~~10651
▁spatial~~10193
▁realistic~~10271
▁EG~~12112
▁stem~~8523
Fra~~18005
▁intellect~~10356
▁already~~826
▁early~~1912
uel~~15850
▁reprodu~~9267
▁eleph~~18216
▁swim~~7161
xim~~13996
IA~~14888
uen~~11745
uating~~10008
▁right~~375
▁rules~~3601
▁cousins~~9093
▁step~~1115
▁totally~~3582
▁Jerry~~13891
▁weak~~3623
▁commitment~~5651
aven~~1086
▁cardboard~~4982
jet~~3870
Je~~17715
illes~~15410
▁explanations~~3344
▁radiation~~746
▁tribes~~10067
▁impress~~3347
xis~~16381
ographer~~7570
▁Gro~~14585
▁covering~~4976
▁iron~~4813
▁communicating~~314
ibilities~~1908
jen~~17165
▁height~~448
▁balancing~~9288
▁schaden~~17372
elling~~4064
▁nan~~3138
▁univers~~6233
▁shouting~~4002
stairs~~5798
▁triangles~~10215
▁Debor~~9301
▁precise~~3956
▁constru~~16353
▁transc~~7392
▁subway~~12939
▁William~~11333
▁transl~~10562
▁transm~~9411
▁medicines~~10953
▁veil~~10344
▁Amazon~~9041
▁Develop~~12275
aar~~17879
▁readers~~10568
▁Transport~~15486
▁assess~~2321
listen~~13599
▁Jar~~13335
▁reflection~~11941
▁Ell~~3631
apers~~3716
▁higher~~165
▁Royal~~11339
mensch~~17600
▁Iranian~~2762
▁dest~~9533
▁infrared~~3907
▁occur~~11147
▁permission~~9775
▁apps~~8805
▁EB~~12815
▁symmet~~16737
▁Gupta~~16597
▁spiritual~~4713
▁parties~~10860
▁earning~~16268
▁decide~~3331
▁village~~7417
▁limbs~~12316
▁Song~~3935
▁command~~5982
oices~~11192
▁book~~1512
▁Kol~~17318
ocial~~14976
sely~~498
istor~~14163
▁Sony~~206
iding~~12137
CO~~5865
aterial~~13139
▁valid~~12955
▁Hawaii~~4557
passen~~14497
▁counting~~9897
play~~1043
▁minus~~7172
▁opposite~~1380
▁Last~~988
▁summer~~4907
▁Morgen~~15059
▁Authent~~17365
▁trauma~~11496
M~~1206
▁20-~~15331
virus~~17388
opf~~17534
plan~~14092
▁laptops~~6733
▁primarily~~4172
▁dancing~~1363
▁gentleman~~8127
pherd~~14103
▁Sel~~10125
▁wed~~11196
artet~~11684
udge~~3348
▁statistics~~8575
▁discoveries~~5219
▁Sen~~6356
▁analyt~~12287
▁shower~~8736
itous~~9377
giving~~11673
▁Buck~~17056
▁herself~~10498
▁extraordinary~~2032
▁impuls~~10202
▁famous~~4758
▁Project~~7700
Cloud~~8064
▁Seb~~11766
ugo~~15900
▁Home~~6756
▁failing~~5680
▁explod~~13650
▁comparison~~1787
▁Freeman~~15057
▁Homo~~10151
▁bomb~~4046
▁economic~~1643
Ein~~17182
▁left~~2053
ugs~~3720
▁Ganges~~8220
▁cooler~~5360
▁explor~~14143
▁Pack~~5065
▁curator~~14377
▁DP~~15119
▁Option~~16161
▁100,000~~6665
▁Sch~~1602
▁emb~~11871
writer~~4897
▁Embry~~16595
▁wooden~~8975
achelor~~7250
▁Milo~~17585
▁submit~~9415
▁hundreds~~2251
ounded~~8157
▁30.~~10329
▁zu~~17812
▁emp~~10772
antor~~10791
▁husband~~2818
▁conce~~4960
rehen~~9990
▁concl~~13638
▁Hypoth~~17638
▁firms~~9711
▁intu~~3458
▁preventable~~16098
▁into~~196
▁volcanic~~45
▁instit~~11995
▁girls~~5786
▁enthusi~~13661
iol~~16001
▁everything~~857
icult~~7892
atively~~4031
▁accelerate~~3604
allen~~17853
▁Iraq~~6029
▁Doll~~17965
▁ending~~6190
cra~~5618
▁Altern~~15924
▁Iran~~4209
etter~~14772
▁daylight~~8461
cri~~10737
cro~~4584
vention~~5416
▁selfish~~9896
set~~466
ses~~6680
ser~~911
For~~10552
▁optimal~~10346
▁Norbert~~17890
▁Meanwhile~~8950
sey~~3632
sex~~13373
▁tears~~2684
see~~7977
▁cav~~13171
sec~~11194
sea~~390
▁hopeless~~6299
▁govern~~5310
▁difficulty~~3464
▁brainstorm~~13718
▁refle~~12934
eman~~10494
▁variables~~2255
#~~15370
▁broccoli~~12049
▁cas~~12875
▁close~~1357
▁involving~~12098
▁passport~~9920
▁Gravitation~~17349
▁lanes~~14209
▁Venice~~13760
▁Sudan~~11323
▁System~~3839
▁Mul~~16457
▁Such~~11639
Professor~~13909
▁translator~~13900
etten~~17567
▁"...~~9707
▁subs~~11118
▁subt~~14137
▁Delph~~18219
▁survivor~~9311
▁order~~836
▁commentary~~14864
▁Either~~12024
▁Mozart~~3649
▁linking~~13432
otherapy~~5177
ikal~~15550
▁subl~~16594
▁196~~7270
▁upside~~8897
struct~~5740
▁guide~~5638
▁virus~~1123
▁fiction~~1343
▁charities~~13277
▁microbes~~12664
▁internal~~6837
▁wave~~2343
thon~~16885
eping~~10753
rose~~11001
▁Vincent~~17815
▁float~~2616
load~~6825
▁tracking~~3914
lev~~13453
▁origin~~5512
bell~~8522
▁harass~~690
acted~~11926
olle~~7916
dimensional~~338
sing~~741
bels~~17698
▁afr~~17656
▁Microsoft~~12480
acter~~3194
▁scr~~5966
▁competition~~8784
belt~~15080
▁mont~~7643
▁Uns~~16907
▁roughly~~4702
▁advice~~8488
▁dram~~16709
▁mons~~16852
assador~~11770
▁newspaper~~6085
▁drag~~11390
▁folded~~8309
▁regist~~7745
▁register~~16092
▁accidents~~11523
▁Und~~13108
▁Une~~11550
hing~~6252
▁draw~~7304
▁Tell~~4262
▁Dana~~16234
ismatch~~13397
▁Stimulation~~17766
ulle~~12159
▁Mix~~16946
fire~~11713
▁25,000~~11674
▁Mit~~11633
▁Mis~~15674
▁Mir~~2453
mine~~11461
▁profits~~1457
▁Min~~9670
fung~~17974
▁Mil~~2455
▁awesome~~3584
▁Hack~~14969
▁Dubai~~14932
▁Mid~~4490
resistant~~10945
▁finger~~3277
▁jo~~8820
HA~~16765
▁geek~~13182
▁contacts~~14451
▁consider~~750
▁absoluten~~17129
histor~~7590
▁dining~~6133
▁absolutes~~17058
▁Spaghetti~~17700
▁nodes~~3619
▁ju~~4111
▁celebrate~~2604
▁disabled~~12347
Cola~~11775
real~~7492
pound~~9409
▁night~~4243
vol~~5116
technolog~~9124
von~~17772
ests~~9598
▁enterprise~~11670
▁print~~2598
▁Tunis~~16335
vor~~6774
ower~~2270
▁renewables~~15429
▁spine~~11915
▁Lim~~7549
▁craft~~2990
▁Len~~2846
▁Leo~~12433
▁searches~~15001
▁Jews~~10735
▁pile~~4851
▁Koran~~10427
▁Leg~~11671
▁Led~~16769
▁Lee~~5924
ancement~~9157
aughing~~17211
esty~~13433
read~~4743
▁Romo~~16725
▁computer~~419
▁dollar~~3311
▁ceram~~15348
▁chore~~10232
▁Rome~~4720
▁stretch~~3922
▁Parkinson~~3769
▁Les~~10442
3.~~12460
▁ident~~9175
▁explained~~7060
idents~~7341
▁Instit~~14824
▁fancy~~12039
▁accuracy~~11918
▁Knie~~18122
▁incred~~2624
▁returned~~9381
▁Net~~15333
uilding~~8166
kel~~17627
▁exercises~~12140
▁Sunday~~4775
▁AIDS~~11370
amy~~13411
▁activities~~3738
▁Mind~~10846
▁black~~654
▁Cities~~4789
▁phot~~9251
yan~~14941
▁comparing~~8941
▁directions~~7478
maker~~8372
person~~3508
de~~2688
[~~8112
ipment~~17094
▁sophistic~~7141
▁Cheet~~17646
irus~~16501
▁embar~~17331
▁sacrific~~15687
▁uns~~9987
▁unp~~6311
▁country~~1615
untu~~14950
▁unw~~7457
▁unt~~1378
▁principles~~3772
ultural~~10721
▁mistakes~~3295
▁persu~~6918
inations~~12161
▁unb~~8156
▁unc~~6962
▁diagnost~~14590
▁unf~~189
▁und~~8335
▁une~~1761
▁unk~~16900
▁unh~~6640
▁mammals~~8652
</s>~~3
▁unl~~11325
▁suspended~~11830
istern~~14332
▁automatically~~1689
▁Nin~~12149
▁Today~~1583
▁anonymous~~1491
▁similarly~~7234
▁mastery~~1398
▁Sam~~9059
parents~~14935
Talk~~14922
▁masters~~8715
▁noble~~6312
▁gave~~2852
iency~~15577
▁globalized~~1632
uition~~7752
▁Does~~3968
▁node~~3526
Oh~~1383
▁acoust~~4121
▁diplomat~~13078
▁stopping~~7082
▁rehears~~5086
▁foreign~~5570
▁transmit~~4165
▁ancestors~~4645
▁fits~~4037
▁diction~~18173
▁classrooms~~2054
Os~~15782
Or~~16618
▁except~~655
▁Imm~~17033
OL~~11694
OK~~7102
d~~1328
▁shining~~8002
penden~~11232
▁equity~~1750
▁Machine~~7763
▁Kennedy~~12719
▁Medic~~7973
▁Media~~3635
▁capital~~5534
▁demograph~~17076
▁continuous~~3913
ival~~320
▁Hmm~~7687
OS~~16160
▁Imp~~9498
▁Shah~~10788
▁handy~~14858
idity~~8494
icious~~5193
▁Know~~11479
▁leg~~5616
▁function~~5006
▁Investment~~16201
▁representing~~7656
▁alphabet~~11215
▁recl~~15357
▁Fire~~3905
▁Festival~~15683
▁lex~~12189
▁let~~1099
▁manager~~11962
▁Truth~~10903
▁les~~11546
onymous~~6802
▁Alexandria~~6324
▁embarrassing~~10534
▁contag~~13754
gnost~~18064
▁Training~~5943
▁audio~~9793
▁eBay~~11291
▁cold~~1345
▁Intelligen~~15308
▁department~~3233
▁Reserv~~17844
onscious~~14099
▁Defin~~16487
▁coll~~9556
▁manages~~12376
▁pitch~~653
▁Eg~~8931
be~~2997
▁Ed~~4208
▁Ec~~16200
Look~~9271
▁During~~2514
bl~~829
▁En~~3301
▁Em~~8146
bo~~4082
▁hydrother~~492
bi~~10425
bt~~15115
▁Ev~~2466
▁Eu~~17172
▁Et~~11547
▁Es~~2838
▁lifelong~~7925
br~~4306
bs~~706
▁decomp~~12726
▁irrelevant~~11707
▁nostal~~17754
▁equally~~1773
by~~2992
▁enjoy~~1505
▁Ex~~3565
▁components~~6961
▁mixt~~15364
▁ED~~15282
▁EC~~6479
▁permanent~~4704
▁replacement~~7277
▁laser~~716
▁bec~~17479
▁Diplomat~~15754
▁Hyp~~3728
▁Asteroid~~14582
▁remark~~2697
▁EU~~2230
▁ES~~17514
▁stocks~~5378
▁stockp~~14947
chi~~14700
▁veterans~~16206
▁feather~~5075
▁diagnostic~~10938
ikan~~17098
▁You~~347
▁slice~~13498
▁posit~~12775
▁troops~~6333
▁primates~~10165
▁Israelis~~4218
▁Yor~~14553
▁loan~~10797
intu~~17123
welle~~16450
▁ideology~~14866
ints~~6112
▁suggestion~~12650
▁LHC~~14144
▁Space~~9092
atherine~~15944
▁objects~~5732
▁speeds~~11253
▁Tun~~16358
▁surprised~~2952
▁sang~~6711
▁months~~1508
▁reproductive~~12928
▁expense~~9651
▁OECD~~987
▁Cochrane~~17679
biot~~17253
spar~~13959
cht~~2269
:~~7
▁verbal~~14176
▁project~~2551
▁OPEC~~13155
▁institute~~7126
▁ber~~16991
▁DL~~17258
▁waited~~8235
ator~~5640
▁fields~~3740
▁fibers~~7435
▁diagnosed~~9314
▁month~~5502
atom~~12014
ling~~268
line~~2294
▁4,000~~571
▁illeg~~15950
▁Kraft~~15588
▁mindset~~6651
▁England~~2831
▁prizes~~6399
▁pestic~~8596
ux~~11965
uz~~13630
▁arist~~13893
ut~~5619
up~~5195
us~~3828
ur~~3452
um~~1370
ul~~1940
un~~6060
uh~~3064
uk~~8557
uj~~6630
ue~~1051
ud~~3014
ug~~6062
uf~~5926
ua~~4566
▁bless~~4905
uc~~5441
ub~~2315
▁Ann~~8115
▁spear~~5356
▁Tradition~~16006
▁formal~~396
▁excuses~~2111
▁behind~~1802
▁miss~~4237
istically~~5311
chan~~15305
▁mist~~5719
▁cartoons~~11407
char~~1553
▁grains~~12028
Lass~~18226
▁Micro~~4093
▁penal~~15613
▁Any~~3543
▁sounds~~1479
▁forgot~~1045
▁Ant~~15409
▁Oxy~~11848
▁format~~7827
▁armor~~5527
▁paths~~7489
▁stair~~12562
ulation~~4409
wick~~15503
▁stranger~~11945
▁prolifer~~4605
▁jelly~~236
▁Miguel~~9230
▁doing~~408
▁multiverse~~14219
▁150,000~~9131
tech~~4963
▁Naomi~~16542
▁Kinect~~15845
▁intimacy~~9852
▁mechanism~~9244
▁proportion~~1638
titles~~17268
▁warn~~13992
▁Center~~5944
▁talents~~2033
▁hyp~~6662
ipher~~16782
▁shall~~11868
rise~~13804
▁gain~~3328
▁dunk~~13740
worm~~13173
▁mach~~11885
▁hyd~~3125
▁Mean~~18051
▁civilian~~11555
ago~~6294
▁genug~~12293
land~~4736
ustr~~17441
cling~~6120
▁lenses~~13304
▁capabilities~~13211
age~~3235
adium~~15477
▁processing~~6132
aga~~16655
ported~~9908
▁imagining~~9316
▁improv~~10238
agu~~12898
ags~~13552
shine~~14948
▁Alpha~~15777
▁resolved~~9863
code~~16273
▁nothing~~1446
icillin~~12283
▁thoughts~~2339
ds~~3383
agers~~13330
▁maintenance~~8524
▁resur~~9575
▁Ere~~17164
▁pointed~~6034
▁speak~~758
▁physically~~3583
▁joint~~9524
▁Use~~1604
istic~~4953
▁feed~~4631
▁trop~~18028
▁lightning~~15084
▁survival~~8425
▁feel~~1381
▁Toten~~17921
istin~~15436
send~~15248
▁cable~~6217
▁transplant~~9553
▁feet~~249
▁realities~~6513
▁Tunnel~~17535
▁passenger~~10028
sens~~13237
▁diarrhea~~11815
sent~~14335
opol~~14846
▁Humans~~1303
izable~~13057
▁Barn~~11704
Organ~~17468
▁Bare~~18215
▁malaria~~5592
▁Lock~~6850
▁gor~~11594
ending~~1814
▁arts~~1362
▁Lou~~13156
▁Bart~~9799
utsche~~17918
▁Has~~15239
inarily~~9368
▁Climate~~2162
▁Ital~~6720
▁Hum~~7566
tra~~6041
▁achie~~10954
▁persons~~14606
▁Hirosh~~15815
tre~~15548
racy~~13906
▁legit~~16047
▁glor~~14359
▁approximately~~351
▁diagn~~14633
omant~~17902
▁illness~~6295
rach~~17846
ody~~5105
▁fus~~8860
Commun~~17267
lankton~~4555
▁CDs~~3887
▁drawn~~4730
▁Qaeda~~15746
▁glow~~3568
▁vegetation~~13948
alif~~7289
▁established~~4753
▁prototypes~~7712
assembly~~14041
▁boom~~5748
▁Whit~~8054
ode~~3288
ues~~1136
▁focus~~1780
▁est~~11549
▁Sek~~13729
▁reference~~6505
▁peripher~~4805
▁ess~~9028
▁photos~~4303
▁Sea~~5325
▁awful~~5500
inder~~3111
▁See~~5734
▁Sed~~15946
▁replacing~~7154
abyrinth~~13609
▁Sex~~6700
▁process~~2382
sensus~~15130
oration~~1138
▁Where~~984
inden~~12201
▁prop~~2652
▁expression~~2656
▁Ser~~1581
▁Step~~1106
bird~~8102
▁Jobs~~7930
▁Maine~~13848
▁staircase~~7969
leb~~16397
led~~2733
▁Beverly~~16785
▁degrees~~440
▁Lewis~~7160
lei~~16717
▁shooting~~527
▁steel~~8364
▁steer~~5903
ler~~2694
les~~4453
let~~2550
▁Place~~10198
lex~~11702
ley~~2908
▁dread~~6839
uther~~16510
▁Oprah~~14966
▁you~~69
great~~15270
▁uses~~1612
▁user~~2061
▁dr~~945
▁toxic~~40
▁processor~~9254
▁demonstr~~6360
artic~~15480
▁synapses~~14448
▁used~~1504
▁yog~~6601
▁helicopter~~8546
▁okay~~2902
ankind~~7567
▁vital~~5143
▁use~~197
▁Bilbao~~17867
▁Expert~~17057
▁Joey~~15232
▁houses~~600
apping~~367
ugen~~14760
▁because~~240
▁sensation~~2522
▁capacities~~14006
▁invention~~6135
istics~~5646
▁Garten~~15175
▁interfaces~~3798
▁sources~~10026
standing~~1646
▁Vinci~~7936
▁recording~~10194
commun~~6422
▁Dimit~~16607
▁Photoshop~~14675
apital~~14669
levant~~13908
▁lithium~~14326
process~~14150
▁breakthrough~~7008
zie~~16155
▁Donnell~~17733
zin~~16803
▁Govern~~4544
zil~~16228
▁fasc~~11352
▁louder~~4142
rick~~15765
▁National~~4494
▁counsel~~7066
▁marine~~5379
▁vaccine~~5490
▁sample~~3358
▁olymp~~17690
▁glaciers~~7187
▁lonely~~11179
▁disag~~9243
▁deforestation~~10071
▁Austria~~3502
▁indicate~~7995
▁thrive~~10334
balls~~9504
▁bunch~~5933
▁enrich~~7835
opod~~359
▁fur~~2492
▁thumb~~3485
▁fut~~897
▁reporting~~5386
▁Acumen~~14482
▁fun~~1217
▁glob~~16903
▁hotels~~10697
▁threatening~~15112
▁writes~~4057
▁writer~~4190
▁British~~2447
etti~~4886
▁sem~~9390
▁sel~~11048
▁suggested~~12626
▁sen~~5988
▁sea~~72
lock~~10585
▁sec~~3451
▁see~~124
▁sed~~852
ette~~7520
▁sex~~5797
▁electromagnetic~~15068
bene~~17993
estic~~16787
▁biologically~~7043
▁compens~~15600
▁ser~~5896
rodu~~16095
▁set~~2056
▁sew~~13423
▁beige~~7992
▁intent~~13276
▁biological~~7101
:30~~9017
▁pick~~939
▁developmental~~12346
▁Ult~~9354
▁hinge~~17595
▁contrary~~11443
▁illustration~~7091
▁passive~~8045
▁swallowed~~7351
Reg~~16699
▁toys~~12115
▁Tenn~~2894
▁letter~~6771
▁independ~~17284
▁demographics~~13287
▁initiative~~5349
zone~~5919
oping~~8173
oz~~16881
▁mechan~~1177
▁Moz~~11286
▁vul~~16312
▁parking~~7280
▁Mos~~15135
▁Mor~~11621
▁Mot~~17294
▁Eind~~15727
▁Mov~~2440
Q~~10663
▁Moh~~15036
▁bringing~~4863
▁Mom~~11013
▁auditory~~16573
▁Moo~~17551
▁Mon~~3504
uous~~7443
▁mapped~~457
▁Fortune~~13060
▁Mob~~14472
▁Mod~~7779
▁teaches~~5904
▁teacher~~1986
▁coral~~5286
▁universities~~3430
onom~~9283
▁Lob~~16680
hthal~~4458
▁series~~658
▁skept~~9397
▁hy~~7019
▁quant~~6431
▁Miller~~8870
▁he~~365
writ~~15045
▁ha~~3076
allow~~16873
▁posture~~15585
▁Ark~~17263
▁ho~~6747
▁aston~~10576
▁Philipp~~4483
▁invaded~~12258
▁ants~~1249
▁Cuba~~14050
▁popular~~4013
fa~~14084
▁rip~~3240
Jeopardy~~16512
▁needs~~4205
▁services~~5593
▁Often~~13623
▁soldiers~~5920
▁fascinating~~2985
▁grocer~~15632
▁rib~~755
▁shoes~~2955
▁rid~~46
▁losing~~4674
▁fault~~9995
▁rig~~5170
▁poten~~17913
▁channel~~12295
▁pair~~3135
▁meaningful~~2113
ifting~~6811
▁Mars~~8432
▁Soc~~7881
▁rote~~1132
▁unlike~~2720
zip~~15995
▁gender~~7531
obyl~~14387
▁Linda~~15790
▁Main~~9917
▁comprehensive~~13480
;/~~17945
▁specific~~4011
fected~~5565
▁scen~~11882
▁workshop~~15939
▁Phase~~17529
▁rehabilitation~~8248
cuse~~9483
eteria~~13782
▁Perfect~~3529
▁engineered~~9162
▁Initiative~~10627
▁mold~~5042
▁repeat~~6260
▁mole~~17049
▁improvements~~1869
▁blame~~7506
▁declared~~11567
▁1800~~13065
▁develops~~5054
▁Dolby~~4899
▁Hyun~~17924
▁familiar~~180
▁coca~~16716
▁peoples~~3753
▁chickens~~12031
▁heading~~4474
stock~~11248
▁researchers~~1801
▁Everyone~~3182
osity~~12090
▁kiss~~1310
▁ult~~9352
usty~~14924
▁estimate~~10170
Cal~~14374
ampagne~~16308
▁acute~~15419
▁reported~~10755
▁overlap~~12144
▁enjoyed~~1506
wander~~13299
▁community~~772
▁state~~1058
'~~34
▁Bever~~17070
▁Gumm~~18085
▁Sow~~16069
anted~~9260
▁YR~~17986
▁Jur~~7797
▁Found~~10770
▁Jul~~16279
cess~~7557
▁Mountains~~865
▁never~~488
▁pond~~11158
▁Jud~~10757
▁Schulz~~10520
▁racing~~6831
▁nonsense~~7067
▁therapist~~2392
▁locom~~15294
▁against~~437
▁appears~~8411
▁Falcon~~11922
▁Mord~~17163
▁More~~3454
▁shapes~~326
▁fisher~~13186
▁Board~~6486
▁yard~~7388
▁Great~~2837
▁Abend~~17425
▁Mort~~16867
uppe~~15936
▁Hal~~13830
▁Nich~~16223
▁dust~~6147
▁30,~~11620
log~~15327
▁Cat~~6613
▁30-~~5909
▁Cap~~2648
▁Cas~~14868
▁Car~~5198
▁Sandwich~~12233
ameter~~3921
▁biologists~~665
▁bypass~~14477
▁wiring~~14460
▁1,100~~4538
▁pyram~~13151
▁dynam~~11829
▁astronomical~~14001
▁tremendously~~10814
▁Cam~~13144
▁Cal~~7772
▁problems~~664
▁Can~~3065
intens~~13161
▁dem~~7527
▁Zul~~18132
▁Zum~~15382
▁spons~~6521
▁identified~~1975
▁spont~~17668
▁Chef~~13100
▁needles~~13393
▁propos~~802
▁Chem~~13730
▁analys~~9646
tier~~15182
▁Cher~~14885
▁pron~~15435
ties~~11174
Prof~~18013
leich~~1603
ying~~2747
▁refugee~~10070
halten~~15478
▁Zur~~7320
▁abilities~~12363
▁campaigns~~5567
▁mysterious~~9788
▁Ara~~14652
▁Nike~~14363
▁conv~~11429
▁cont~~1717
etik~~18240
▁initi~~9992
▁cons~~1949
onent~~9805
▁ubiqu~~16033
▁retreat~~6301
▁opening~~5898
▁conf~~4019
▁cond~~6939
▁Ethan~~14790
▁conc~~1960
low~~6775
▁Bed~~6625
▁Bee~~2434
▁Ko~~10077
▁Kn~~11924
▁Kh~~7209
▁BR~~16233
▁Ke~~903
▁Bem~~16711
▁sisters~~2802
gence~~9846
▁Beh~~3214
▁dess~~12053
▁desp~~5179
▁Bek~~17914
▁Bet~~10827
▁Wow~~9491
argon~~9945
▁Bew~~14592
▁Ky~~11347
▁desk~~14666
▁Ber~~10098
gency~~10051
▁Ku~~16616
▁demand~~2695
▁innovation~~964
oose~~4506
▁Kr~~5051
sive~~11756
▁Arg~~14471
▁advance~~6270
▁artic~~2766
▁suspicious~~10408
▁KA~~16834
▁artif~~12467
▁KB~~16835
▁chains~~9599
▁cultures~~2469
▁Harlem~~5723
▁Zipcar~~15165
ightly~~11154
▁KS~~13714
▁charter~~13536
▁grand~~3602
▁inevitable~~4333
▁Turkey~~10087
▁look~~128
▁utterly~~11047
▁documents~~4433
▁Author~~13261
▁jur~~5353
▁both~~2153
icht~~17905
▁industrial~~4769
▁plants~~8259
▁lays~~5487
▁jud~~3045
idespread~~14735
▁jug~~9455
ocracy~~1469
▁inevitably~~4875
atic~~9199
▁spray~~3100
▁Someone~~9858
▁shape~~2444
▁bears~~1272
vested~~12659
▁quantum~~9842
atin~~11178
▁prevalence~~6864
▁Brief~~16375
▁Mathemat~~15075
ativ~~16589
▁Kalk~~15700
▁unemploy~~16843
onnected~~13835
▁Shakespeare~~2921
▁Connecticut~~9440
▁crap~~1140
▁Magn~~9903
▁northeast~~4763
▁Tarahumara~~16578
▁effectively~~4712
▁crab~~610
viously~~13691
▁blogs~~11083
▁cram~~12067
▁Evel~~13587
▁variety~~2191
▁Even~~688
▁treatment~~3783
▁juven~~12591
▁hours~~1858
▁hill~~7228
▁settled~~11233
▁hi~~3875
ckt~~16283
cks~~5906
▁spheres~~10292
▁awareness~~3437
▁2001,~~10088
▁Conservation~~899
▁Ever~~9031
▁Computer~~7860
▁stap~~6845
▁Ali~~16446
▁star~~4268
▁All~~580
▁stay~~5424
▁Alb~~4501
▁fail~~5961
▁Ald~~14406
▁Hudson~~7409
▁Epidem~~17826
▁skeletal~~15612
▁wreck~~14306
bring~~12414
▁predictable~~3228
▁Bask~~18108
▁publishing~~6585
▁Charles~~4339
▁Alt~~16661
▁calculate~~8244
ache~~10511
erer~~16675
▁saved~~7975
▁gest~~9200
▁church~~7978
hops~~5445
figur~~17445
▁inkl~~16898
irk~~11490
▁saves~~11071
▁week~~825
▁JPL~~15299
▁energet~~11698
▁bedroom~~6707
▁Igbo~~15106
hless~~8747
▁bureau~~10851
▁beetle~~14514
▁rit~~17684
▁painted~~4889
▁wanting~~10741
▁vessels~~5458
hire~~11121
▁communities~~4224
▁chain~~4581
▁iPhone~~7307
▁dedicated~~4294
ira~~16192
▁origami~~14039
▁painter~~11077
ragon~~16139
▁Idiot~~17140
Because~~10157
▁alt~~10751
▁Snowden~~12851
▁clues~~4770
▁puzzles~~12111
▁lifted~~5960
▁solid~~8435
▁Blick~~16240
▁bored~~6142
▁sailing~~13141
rein~~18194
▁researching~~6780
ael~~8006
phor~~14506
Pr~~17949
ition~~2937
▁inspiring~~8951
▁magnitude~~8192
▁sustain~~6151
oma~~11557
▁Perm~~17641
▁responding~~5880
▁erosion~~4678
▁everyday~~5174
▁cylinder~~10713
isy~~15667
▁bucket~~7902
▁anti~~3185
Pl~~4085
▁walks~~1607
wire~~5003
▁mustache~~14622
ome~~5400
▁twist~~5907
▁shield~~3096
▁foie~~17285
▁safe~~7242
ursor~~11159
PC~~8904
PA~~8410
▁likely~~6909
▁amb~~4337
usten~~17963
▁Test~~10777
▁catastrophe~~10560
omi~~18128
ends~~4992
▁frequency~~4131
anche~~16454
▁truck~~11793
▁text~~3028
▁literal~~3950
▁mush~~16980
fro~~17904
▁Fibonacci~~16303
ende~~16270
awatt~~15159
▁access~~2535
▁Alice~~14539
▁000~~16961
ociation~~17740
▁casual~~12148
▁se~~1999
ets~~507
grass~~16328
▁sa~~6111
▁sc~~1082
apted~~10820
▁sm~~2151
▁title~~3044
▁so~~217
▁sn~~5488
▁Operation~~10038
▁sh~~135
▁sk~~2822
▁limited~~6545
▁su~~4010
▁st~~3766
▁sw~~4535
▁amount~~1808
▁sp~~3844
tle~~16751
lo~~3806
▁personally~~3863
eth~~4455
▁sy~~1557
▁Local~~14724
▁shirt~~7523
ck~~7291
▁intangible~~16681
ci~~1451
ch~~3994
co~~3117
Would~~8133
cl~~3363
cc~~8978
▁anim~~11583
ca~~13861
▁birds~~4151
Hey~~1521
ce~~863
▁Living~~15372
▁documented~~7850
cy~~5456
▁therapy~~5172
Hel~~9009
cr~~10303
▁behaviors~~2953
▁posters~~4219
uck~~5994
▁hair~~712
ct~~619
▁accommod~~6293
▁lakes~~8848
▁Jenn~~13540
▁acquis~~2956
Get~~5882
rient~~16063
▁equ~~7001
▁texture~~12545
▁Mandel~~15894
▁accounting~~6340
rates~~11468
▁respect~~4309
gue~~11589
antas~~16995
▁tuned~~5436
▁mushrooms~~11602
▁Mission~~7592
▁Kiva~~16702
▁Photos~~14749
▁tasks~~1261
▁cartoon~~9373
▁Sign~~10685
▁overt~~6511
azine~~17911
▁added~~7016
▁tunes~~14346
ador~~11303
▁2010~~10103
adow~~12897
anas~~16959
▁atmosphere~~2226
ount~~5228
▁animation~~12322
▁Luther~~10921
abling~~16910
▁contagious~~13556
ucks~~5864
▁Game~~12386
▁hier~~16784
▁Rebecca~~16876
▁Kate~~14971
Gro~~15195
▁relatively~~6902
ound~~7349
▁Canadian~~8579
▁piles~~4861
▁Hitler~~15387
▁Amazonas~~17297
▁relational~~17159
▁candid~~11183
▁predict~~3224
▁Asian~~9197
va~~6923
▁regardless~~7377
▁Kuwait~~14936
▁relaxed~~14231
ve~~75
▁fallen~~1662
▁Andrew~~7366
▁Atlanta~~13097
arther~~17692
▁Tiger~~13785
vo~~7464
eten~~10900
▁Ivan~~16697
ripp~~5516
▁complain~~1955
▁crying~~4250
vy~~6770
▁improving~~1462
▁mutation~~9129
▁genomes~~9182
▁Israeli~~4213
▁kilometers~~5432
▁parenting~~6753
▁supportive~~15584
▁latest~~1720
▁clear~~1029
▁Hyper~~12218
▁infect~~9965
▁post~~4241
▁discovery~~216
▁wis~~10807
▁Time~~6648
▁older~~2644
bery~~12767
▁assistance~~9761
▁Weibo~~17827
▁Copenhagen~~11361
ball~~10894
▁parap~~10001
▁paras~~10822
▁squeeze~~13009
ikes~~7820
iker~~15554
bald~~15737
▁Seven~~9522
▁holes~~1168
▁Sever~~10611
▁parad~~1793
▁wishes~~6273
▁introduce~~1746
iken~~12389
▁param~~16724
▁paran~~14076
Film~~17991
▁absolut~~18227
▁delicious~~9677
▁moves~~2373
▁Dra~~15458
▁demoral~~11889
off~~2979
▁Marine~~4346
amele~~17492
▁millisecond~~2384
▁wars~~10418
phas~~8550
▁antenn~~7981
phan~~16128
▁Clinton~~10867
ollar~~10044
▁whatsoever~~3376
▁warm~~8504
▁control~~2066
blem~~10542
▁ward~~6250
▁ware~~6495
▁expectancy~~7037
▁doesn~~647
▁justice~~5682
▁organization~~2067
less~~1161
▁Fra~~15430
▁instant~~1546
das~~10385
▁Jersey~~9071
▁depos~~13011
▁radar~~13356
llig~~18059
▁footage~~405
olph~~1282
▁84~~4589
▁kicked~~13508
▁Bank~~6474
▁1998~~10580
▁presentation~~7405
▁town~~4526
▁retirement~~14733
wed~~5940
▁robotic~~1162
▁authent~~18050
▁Buddhist~~11511
wes~~13371
wer~~4903
▁experts~~6269
▁meth~~15598
▁Oxford~~6168
nten~~17384
5~~7239
arta~~13401
▁distributed~~1764
▁abundance~~12937
▁repeated~~12759
iga~~17899
dest~~13897
▁neighborhoods~~12476
▁accent~~15431
haus~~9278
▁Schul~~17415
five~~4388
▁converted~~12813
▁Windows~~10048
rize~~17465
▁Eames~~15200
▁Florida~~9241
▁nu~~3899
▁rays~~9387
▁Try~~3563
onnect~~4867
Arm~~17478
atorium~~16887
▁Tra~~4561
▁na~~14996
▁questioning~~1139
▁Tre~~8228
▁ne~~1296
▁Tri~~8458
▁29~~7176
▁Tro~~15953
osed~~2910
▁Neumann~~15050
▁misund~~10527
▁desertification~~17300
▁criteria~~13821
▁surve~~14975
▁Leban~~16614
▁Dir~~16316
▁watch~~646
▁dropped~~6138
▁From~~2471
▁injustice~~10648
▁Ac~~8934
▁indication~~7107
▁Also~~4463
tende~~9111
▁Edinburgh~~9178
▁shred~~3315
▁Sound~~12656
▁statistic~~8578
▁Lar~~10911
▁Las~~9866
▁adul~~12744
▁Budget~~14569
▁Law~~10880
▁Paulo~~15210
▁Incred~~9500
▁Paula~~16577
▁barrels~~13340
▁Bangladesh~~7194
▁Enri~~17960
▁Inspiration~~17709
▁Lab~~3636
ollow~~14715
utions~~8019
▁Lad~~15553
▁imag~~4430
▁company~~4937
▁screaming~~7713
▁genital~~8585
▁lure~~7621
▁connected~~3532
▁Lam~~15887
▁Cow~~16399
▁lawn~~13377
▁dra~~5627
▁deserves~~13123
▁wheelchair~~13282
▁Trade~~6487
▁dre~~14052
▁dri~~11936
▁dro~~4068
▁score~~3936
▁Symmet~~16304
▁dru~~4377
▁ugly~~9997
▁NGO~~11791
▁dry~~3087
ometers~~3142
stage~~7672
▁points~~2389
▁commodities~~2692
Sch~~2693
face~~9576
▁83~~9419
imedia~~13032
▁update~~3613
▁Pav~~12801
▁salary~~12417
▁entw~~15733
▁hump~~16321
▁preserve~~10179
▁bath~~10278
▁uncomfort~~14224
▁buck~~5635
▁Ecuador~~13501
▁contest~~3026
▁proven~~8641
pox~~17832
▁Chicago~~6485
▁proved~~5266
three~~12382
▁symphony~~878
lung~~17757
▁Pap~~16168
▁proves~~5668
▁TEDGlobal~~9906
▁denn~~17440
▁Pascal~~14194
▁stare~~4850
▁poly~~4454
▁and~~16
▁radical~~7116
▁colors~~7436
▁1997~~17077
▁stark~~5679
yre~~4486
▁poll~~4585
▁start~~650
▁stars~~8104
▁kom~~14388
▁veget~~9626
immers~~16854
▁pole~~9819
▁stuff~~257
▁Termin~~15858
▁Fur~~9641
▁operations~~5866
lant~~12029
function~~5813
▁Ernst~~15817
elescope~~17875
▁Dat~~17994
Well~~1150
▁mountains~~449
▁Malcolm~~9365
▁brave~~5931
▁rob~~2797
▁pollution~~5263
¡~~18151
places~~933
▁Fisher~~6597
▁nature~~1314
▁blessed~~10407
!",~~17955
▁finish~~1498
▁consuming~~13152
▁Kay~~13628
fficient~~15990
itory~~12780
▁row~~7854
▁rot~~6459
invest~~16749
▁university~~3262
▁Blue~~7593
▁mines~~11435
▁blocking~~8132
▁bioluminescence~~306
▁Wind~~2962
▁favorite~~940
▁microphone~~4101
▁law~~5205
▁lat~~4477
▁fundamentally~~6541
int~~6847
▁12,000~~8470
▁lay~~5346
▁Cricket~~17315
ins~~1283
▁lab~~3276
inn~~7959
ino~~871
▁contempl~~11865
▁shell~~4958
ink~~5164
ind~~1569
ine~~198
ing~~137
▁89~~11469
ina~~5202
▁Five~~10874
inc~~4197
seud~~17559
▁washed~~11029
▁drops~~5554
fortunate~~17375
▁Dalai~~10351
▁nests~~12589
▁emotionally~~10530
forests~~17222
▁panels~~4998
▁symbiot~~4876
seus~~8012
▁locally~~3889
▁21,~~12946
▁Bonus~~17281
▁technical~~2534
▁foraging~~15696
▁experimental~~3263
▁wom~~9351
▁In~~383
▁Im~~7163
eking~~15340
▁gear~~15189
ears~~6242
▁Ig~~16319
▁If~~286
▁inefficient~~6406
▁Illinois~~6482
ba~~15304
▁minerals~~13354
U~~973
▁genetically~~9161
▁Rating~~18199
▁Is~~845
▁circular~~10206
▁migr~~5035
▁pulse~~11852
ibliot~~17243
▁Ruby~~17135
▁It~~169
▁strand~~9912
tter~~17048
▁II~~4366
▁strang~~3792
▁lim~~5769
▁filter~~11003
▁ab~~7594
▁here~~73
▁wealthy~~11990
▁growing~~824
▁investment~~1891
▁marriages~~13541
▁part~~1226
▁ID~~9790
▁Traum~~16053
▁park~~1084
▁requirement~~5990
bridge~~16807
▁Cleveland~~13796
▁reco~~12344
▁IR~~747
▁IQ~~3654
▁IP~~2165
▁reaches~~6421
▁IV~~12208
▁hers~~11483
▁IT~~7399
▁outcome~~2568
▁deserts~~14730
▁Black~~11944
▁Probably~~6000
▁worry~~6944
cial~~9600
all~~5744
▁Us~~9270
▁circ~~13727
▁establish~~6476
▁graph~~7819
▁Office~~14570
FL~~14429
▁fusion~~13901
▁qualities~~1183
▁doctors~~6297
▁plural~~16126
reu~~16770
▁convincing~~6993
▁fishing~~259
▁lic~~17572
▁ah~~12156
ields~~14182
opard~~8607
▁browser~~7862
▁propaganda~~2851
▁beats~~3515
ergy~~14300
lessness~~13273
▁tendency~~10691
▁driving~~1847
▁rare~~6231
▁carpet~~14498
▁gradu~~10140
▁UNI~~11741
ald~~9248
▁vaccines~~5529
▁2007,~~6049
▁philanthrop~~7127
▁2007.~~11957
▁disgusting~~13755
stud~~14710
ashy~~17022
▁refr~~5857
▁Cook~~11955
ously~~4719
▁crop~~4653
▁erzielen~~17813
▁Kingdom~~5689
▁determ~~8338
▁demographic~~13437
▁Africans~~6372
▁League~~6236
▁sheets~~3310
▁conclusion~~6925
▁hint~~518
▁relationships~~6035
▁elections~~10633
▁dysfunction~~13898
gebra~~18057
▁hurt~~2854
▁particip~~11227
▁Brothers~~9453
▁behavioral~~3456
▁FOX~~15697
▁Austral~~10126
▁devastating~~5517
vented~~10368
▁obstacle~~14836
▁rings~~4519
▁obvious~~5965
▁hurd~~13154
▁marriage~~6046
▁formed~~7189
▁explain~~821
ches~~1550
ashing~~1060
▁Hill~~4895
phones~~4094
aly~~13232
▁Eden~~15788
horn~~12835
▁bede~~11577
▁wow~~7639
ched~~9315
▁Something~~4288
▁Brand~~12462
▁peer~~7726
▁former~~7946
chen~~16056
iting~~7216
spect~~7847
▁workforce~~10254
▁those~~251
▁Neu~~17084
▁Adams~~14762
▁Dram~~11060
▁engine~~1008
▁impression~~7605
▁Von~~15051
+~~3630
▁magn~~10872
▁Mitch~~16211
▁wor~~9420
▁Oil~~13114
ahara~~16505
▁President~~10037
▁south~~4740
▁Kon~~17915
politik~~15758
▁checked~~9085
▁Voy~~17738
▁chaot~~14216
▁gate~~7747
▁Corn~~16624
▁chaos~~8486
▁atom~~11831
▁chocol~~16079
▁Wolf~~11036
▁sustainability~~8254
▁strands~~13520
▁Netflix~~14599
▁Jennifer~~13044
▁CO~~10027
▁fertil~~6449
hlen~~17793
reation~~7144
▁administration~~2106
▁ended~~4120
▁Europe~~963
▁shaped~~4181
aks~~5509
▁germs~~7813
gle~~4296
▁Desp~~16930
akt~~11580
gly~~3171
aki~~5014
▁remembers~~7323
aka~~16596
▁sexy~~6784
▁creative~~1175
ake~~4260
▁chemicals~~8565
▁rever~~3988
▁wondering~~7370
mail~~11986
ican~~6561
instr~~3662
▁financially~~9437
▁shadows~~12628
▁commer~~11246
▁defined~~6976
▁Bio~~10937
▁Doch~~17769
iz~~2875
▁mycel~~14747
bre~~3103
▁Eva~~15347
▁satellite~~2203
▁reven~~12196
bra~~9169
▁Eve~~2912
▁eliminating~~7030
Star~~8854
▁Look~~1634
▁causes~~5531
▁Face~~8459
ramm~~6596
ploy~~10895
▁Past~~13481
▁Kamer~~18241
▁babies~~8592
▁Parker~~16622
▁sadd~~979
▁demands~~10652
▁fear~~1539
▁feas~~6899
▁Carson~~8682
▁Tsch~~17903
▁Russian~~8378
▁rooms~~3991
▁wheelch~~17046
▁players~~1286
▁homework~~6739
▁unthink~~6653
▁distress~~10483
▁restrict~~1200
▁chamber~~11828
▁intelligen~~17639
▁innovations~~2068
▁Paras~~18190
▁explains~~1816
▁Palestinian~~12716
▁accepting~~10477
yard~~16073
ozo~~15931
▁Levin~~14198
ert~~2969
▁edit~~13109
erv~~8257
word~~6796
▁Voice~~15591
▁Recently~~2155
ers~~1672
work~~5002
ery~~4448
erd~~16148
ere~~3255
▁ships~~5290
erg~~9562
era~~11827
▁qu~~7339
erc~~8206
im~~538
ern~~628
▁spinning~~11190
igator~~13095
erk~~5667
uay~~17819
▁particles~~11151
▁empowerment~~10388
illiard~~14529
▁concerned~~1929
ither~~13555
▁coordination~~8495
▁wound~~8125
▁Philadelphia~~12255
amous~~11692
▁When~~107
▁Academy~~12672
▁another~~357
ual~~2562
▁plat~~6002
▁numb~~12011
▁Brem~~17657
▁progress~~5308
▁Stap~~12264
▁Lincoln~~12557
▁Star~~3540
▁imagination~~7014
▁Stat~~14847
▁Six~~541
▁Virus~~16182
▁flexible~~8946
▁Sit~~4846
▁percent~~111
▁prioritize~~8778
▁Brilliant~~7138
▁Sir~~2709
▁reinventing~~932
▁Sil~~12514
▁Sin~~4098
▁imprison~~13925
▁question~~1968
▁instrument~~3674
▁Sie~~12567
▁Sid~~2721
▁breeding~~8343
▁Terrain~~12751
▁Röntgen~~17783
lam~~14859
lan~~8190
▁inspire~~2927
lad~~15055
▁recommend~~12081
▁sensible~~6667
▁Chris~~3200
Will~~15792
▁skelet~~11903
adic~~10930
▁ends~~7444
▁anyway~~3982
▁Iron~~14915
law~~3012
arch~~6538
▁compound~~4994
lar~~12447
▁courses~~7723
▁Schwartz~~16519
▁Bosnia~~10456
▁yourselves~~12662
▁guy~~393
▁debris~~4358
▁Similarly~~6507
▁gut~~4198
stru~~9441
▁frighten~~16084
▁gee~~13957
ical~~1622
▁dive~~657
▁Portug~~16665
▁manufacturers~~8911
stra~~13292
▁Except~~10547
▁Dialog~~9885
order~~14260
▁Perhaps~~6255
plicity~~16015
▁tenth~~13954
▁crust~~11881
▁gef~~13770
zed~~8944
▁Highway~~12902
zen~~2884
▁plays~~10670
▁professors~~8961
zer~~4833
zes~~7184
▁privilege~~5464
▁among~~1818
▁Films~~17992
ompl~~17370
▁steady~~7010
▁Colle~~16212
venth~~14891
uclear~~14355
▁expand~~7927
▁survived~~8422
▁Appl~~11288
orum~~15362
▁Apps~~18221
▁elected~~9693
▁incub~~12174
▁Joseph~~6875
▁kilometer~~7180
▁kid~~1144
▁dance~~1309
▁smug~~12311
▁nearest~~6440
▁kil~~15085
▁kin~~15295
▁Safe~~15204
adores~~18141
▁personalized~~7837
▁kit~~1265
▁guys~~297
▁Chen~~10092
▁arena~~3974
▁Diplom~~16452
▁render~~8354
▁altitude~~7168
ther~~7637
bank~~12967
▁strengthen~~13819
yon~~13792
▁Meer~~12889
▁Git~~17133
▁Kent~~14757
l~~805
▁Scott~~4078
▁hostile~~10141
isms~~9843
▁Kenn~~12743
▁skull~~7287
▁marketing~~6433
▁elite~~6763
▁enth~~10722
▁90-~~12285
▁McL~~12552
▁contin~~10298
▁McN~~12070
film~~12529
▁six~~1507
▁McK~~13033
▁sit~~418
▁McG~~3482
▁weakness~~7337
▁telev~~13618
▁McC~~5838
▁sir~~13722
▁sim~~8036
▁sil~~9971
ttern~~17001
▁sin~~4201
▁identity~~2470
▁inde~~6954
▁where~~49
▁diplom~~15745
▁sie~~14280
▁Richards~~14761
▁Pear~~17562
▁install~~1194
▁throw~~1182
▁minute~~2256
▁developing~~3897
▁tour~~5023
▁lou~~17347
▁femin~~8620
▁Julian~~9718
▁drop~~3123
▁magic~~6407
▁Jones~~10230
▁Bomb~~3868
▁potatoes~~12056
▁Rufus~~17107
▁disappoint~~1876
▁pige~~15708
▁Murray~~12921
ceptible~~13621
▁beliefs~~1901
▁millions~~813
▁intend~~7149
ublin~~15595
▁composer~~3644
▁ging~~16152
▁towers~~14376
-2~~17355
ublic~~13379
standard~~16559
▁Service~~12925
▁composed~~3937
▁Cousteau~~16437
▁intens~~7648
▁Reich~~15391
nte~~17446
▁policing~~15426
▁autobi~~10224
ange~~2164
▁hacker~~11992
▁males~~8608
▁Exper~~15401
▁endless~~4352
National~~18144
▁respir~~8527
▁Alphabet~~16041
▁progressive~~11863
▁cheating~~3296
▁contexts~~4173
▁chimps~~10171
▁lo~~5821
▁la~~2983
▁Democrats~~9684
▁colorful~~8915
▁le~~6159
▁qualif~~5417
▁love~~255
▁genome~~7119
▁relatives~~10411
▁remained~~10767
render~~7500
▁Kurzweil~~16135
▁France~~4315
ightenment~~14613
▁reserve~~5862
▁water~~114
system~~16934
▁Innov~~17295
▁Bertie~~17367
▁Ukraine~~15398
AIDS~~10941
iots~~16497
▁arrangement~~11495
oline~~15484
▁Kur~~5013
▁priorities~~1980
aire~~2631
▁conflicts~~15128
▁galaxy~~13917
▁Kosov~~15752
▁planting~~6544
ingen~~9674
▁blade~~13882
inger~~9184
▁vulnerability~~12730
▁Kub~~7585
▁reproduction~~9597
▁conj~~12632
▁Kul~~16005
▁rope~~8822
▁Kun~~17187
▁gathered~~4717
hirts~~15811
B~~2463
▁restaurant~~4635
▁scope~~8317
▁elaborate~~5194
▁clay~~9835
▁ESG~~18203
▁Transpar~~16569
▁verge~~4273
▁families~~5629
▁cortex~~1334
▁learn~~889
tex~~11566
last~~12502
▁drug~~6254
▁surroundings~~7379
▁virtual~~477
▁90%~~14657
▁consumed~~4661
▁expands~~7185
▁Johns~~13779
▁governance~~5239
▁mature~~14353
▁consumer~~2493
▁900~~2221
▁convince~~5983
▁10,000~~4236
▁earlier~~4777
▁pleas~~13293
▁Kl~~17071
▁solution~~3904
▁Beg~~14070
▁TEDWomen~~5713
▁reinvent~~14483
▁Afghanistan~~1670
▁developers~~10062
osphere~~13634
▁protective~~15396
▁comprehen~~8766
▁Sutherland~~12378
▁import~~4722
▁energ~~12548
▁study~~1147
▁irre~~8514
▁Bel~~11084
▁logical~~4987
▁reasoning~~13024
gien~~6079
▁interviewed~~6417
▁Ben~~2907
▁penis~~14296
▁entering~~9133
mmer~~7781
▁Court~~9759
Qu~~16138
▁burst~~5772
▁Mons~~16061
▁Roman~~10235
▁Ka~~14573
▁Hamburger~~14673
▁Herr~~17533
▁Mond~~16050
▁divid~~1915
▁Mong~~8913
▁emergency~~11797
iquely~~17607
▁burning~~5112
▁arithmet~~14011
ogr~~14078
ological~~6970
auna~~13196
▁consensus~~5999
▁unlikely~~4670
▁Moder~~15353
▁United~~1443
▁miser~~15907
▁landing~~7257
ateral~~15144
▁faculty~~7869
ogn~~15390
▁seriously~~4254
ative~~2737
gung~~11041
▁Model~~15980
▁volle~~16657
▁editor~~11142
▁anom~~12355
▁panic~~5492
▁triangle~~11844
ogh~~11491
▁Zip~~16514
▁galleries~~11050
▁broad~~5469
▁wonderful~~2789
▁operates~~13866
▁Bes~~11039
▁younger~~5790
▁pregnant~~8498
▁rescue~~8484
▁Jeff~~12297
▁Davis~~12688
▁cigarettes~~15505
▁Administ~~16632
itten~~10361
▁urbanization~~6637
hry~~5839
▁ate~~4829
▁Serra~~15199
yen~~14433
alds~~15834
▁desc~~10412
▁milk~~6081
▁att~~7490
▁books~~3351
hre~~16950
▁diverse~~3641
pted~~3356
▁viscer~~15102
itter~~4482
▁Cloud~~17092
do~~6838
▁minutes~~2132
▁Or~~1373
▁Bil~~13333
▁Ot~~8011
▁Bin~~15320
di~~4892
▁bullet~~10485
▁Ox~~16451
▁weapons~~5997
▁Oz~~2877
▁Mechan~~15303
▁incon~~7423
▁Big~~7402
▁Ob~~13376
▁Od~~14861
▁condoms~~6851
▁Of~~1054
▁Oh~~622
▁Bir~~11319
du~~6772
dr~~1166
▁army~~3824
▁installation~~11838
▁On~~544
eme~~6519
▁Night~~4618
▁OS~~11432
lement~~14568
ema~~2498
▁help~~205
▁versus~~7896
▁expansion~~1651
▁held~~2760
stead~~17838
anze~~15580
▁Wales~~4756
ording~~14886
▁OK~~3219
▁hell~~783
▁several~~727
archite~~14248
▁biod~~15716
▁Hero~~3701
▁pouring~~9946
▁Viet~~17497
▁Here~~235
▁horizont~~12139
▁1,500~~3531
▁lying~~9513
icle~~3146
▁antibodies~~13218
▁Maus~~17672
▁slime~~9985
▁heaven~~1545
uously~~7424
▁Portugal~~1948
▁injection~~8493
▁slept~~8939
▁piano~~3817
▁true~~214
▁happily~~9177
atur~~1340
atus~~14246
away~~4381
▁intuit~~4187
▁Emer~~10050
▁revolutions~~7395
▁redu~~13667
▁feminist~~10420
▁Tahrir~~15910
ered~~8348
ernal~~10595
▁Newton~~9841
▁charcoal~~14674
eren~~8277
▁freely~~9783
icer~~7299
▁fles~~15610
we~~6937
aneously~~11331
alin~~14075
▁nonviol~~11736
wo~~3204
wn~~2820
wl~~4556
▁optimism~~7112
▁preferred~~13875
▁2005,~~3048
wh~~2715
▁robots~~3825
ws~~4727
wr~~10339
▁infinite~~2951
▁KT~~18069
hal~~14365
▁length~~7418
cop~~14292
ild~~2916
ile~~898
▁Would~~1984
▁drones~~16263
▁gained~~6706
ila~~10096
▁submitted~~7805
ill~~596
ilm~~7655
▁frozen~~5097
ili~~9571
▁Aurora~~11207
▁Yale~~13794
ilt~~2622
▁Gott~~17229
ils~~11069
▁freezing~~642
▁toxins~~14743
▁competitors~~11261
▁Turn~~11637
com~~6813
col~~12383
▁Evan~~4902
ily~~4400
▁errors~~14045
▁undergraduate~~8069
erman~~13530
▁Thank~~901
▁raising~~10322
▁delete~~12802
Par~~16839
▁basking~~3567
▁goats~~15024
▁Pyram~~18157
▁Hind~~11993
creat~~14467
▁middle~~2271
▁Off~~7796
▁banana~~11447
imen~~11904
▁fas~~13800
▁spaghetti~~14450
▁main~~3658
▁corporate~~1421
▁scientific~~402
▁manip~~3787
▁Wo~~15804
▁field~~1624
▁pun~~6701
▁Formen~~17808
▁shop~~4634
▁physicians~~9347
kon~~16943
viewer~~14132
▁repertoire~~10468
gendorfer~~12290
▁lately~~14287
▁champ~~16779
▁rainfall~~12988
▁guid~~5754
▁perpet~~8789
▁arrived~~6489
▁ob~~12400
baum~~17725
prison~~12299
▁critically~~7874
▁investments~~5639
▁French~~9508
▁Cole~~16086
fest~~17685
▁spectacular~~11124
istent~~4577
▁educate~~10437
▁wisdom~~2060
▁crazy~~3624
▁Breton~~17366
ureau~~13715
otter~~17998
opardy~~5803
▁transgender~~13421
▁options~~3330
ait~~7645
▁sol~~8276
▁jun~~8551
air~~6974
aim~~13445
ail~~4565
▁information~~2408
▁fab~~15172
▁cookie~~6469
▁decision~~1341
aid~~3419
reme~~12823
izabeth~~17538
cons~~11967
cont~~14018
▁Betti~~13586
isse~~12445
atible~~10260
cond~~8767
▁frontier~~11663
conf~~12428
▁expressions~~7857
istan~~11678
▁sympt~~13407
▁Certainly~~9849
▁Swiss~~13250
▁indirect~~8748
▁cubic~~12607
▁tone~~3070
▁shocked~~6082
▁morning~~1472
▁associated~~8623
▁Tel~~14081
▁ais~~14315
▁air~~2150
▁matter~~89
Stop~~885
▁simulation~~11839
▁China~~6192
▁Nevada~~12894
plic~~9188
ulated~~4449
▁Jane~~2888
▁soap~~8815
▁tons~~6458
▁ain~~5807
▁aim~~8037
▁leis~~12954
▁need~~736
▁functions~~8525
▁aid~~5571
nik~~8387
raib~~14754
▁Bleau~~18169
bu~~11193
▁tea~~12693
hang~~14480
▁unemployment~~12477
rain~~11835
hand~~9653
▁Russians~~11750
▁arro~~15583
▁Wide~~10263
▁what~~148
▁stick~~819
Y~~8025
▁prepared~~1711
felder~~16256
▁Internationale~~16295
▁wh~~1972
kept~~17931
▁privacy~~10108
▁wo~~10517
▁district~~10080
rors~~15417
▁new~~220
▁we~~65
eps~~12592
▁Oben~~18237
oning~~6978
▁sou~~12054
▁deception~~12622
▁urge~~5421
▁1980~~1650
the~~5422
▁modular~~7830
▁1984~~6463
▁Innovation~~7662
▁mouth~~594
▁flower~~10958
▁heterosex~~13410
▁discussing~~12857
▁Chinas~~17260
ucked~~7422
▁startling~~8505
▁donations~~10331
▁Ski~~14307
▁habitat~~766
▁photographs~~485
▁pie~~6518
▁alternative~~2397
▁betra~~12850
▁photography~~12707
▁Holly~~15271
▁cooling~~14228
▁fractal~~14249
▁Sky~~12861
▁extremes~~10347
▁spat~~12425
aub~~16847
▁ranging~~12368
ktor~~15740
▁Liberia~~10405
▁Hotel~~14140
▁promoting~~1464
▁spaz~~18014
▁recover~~7205
outheast~~3040
▁stupid~~1222
▁bacter~~13229
▁IKEA~~12271
▁span~~3498
▁orgasm~~6705
▁od~~13735
▁national~~1290
▁leaving~~4595
▁Feder~~17110
oint~~14771
Tra~~6212
▁neg~~11058
▁Friedman~~7757
▁processed~~7730
▁fewer~~6731
izing~~1897
▁urban~~4662
▁inner~~5788
▁processes~~1198
cape~~2839
▁Ek~~17678
▁shifts~~5404
▁Martin~~4901
▁sentences~~11020
▁GPHIN~~18023
▁quality~~1811
mir~~12124
▁Magnet~~16464
▁occupied~~14526
▁atomic~~11840
▁Eth~~11685
▁ol~~8379
▁gigantic~~3814
▁compute~~12782
▁gle~~12167
night~~2664
▁Mach~~3627
▁lasted~~7711
▁arguing~~10314
▁dolphin~~14643
oxid~~17829
▁maneuver~~2298
▁negotiate~~6441
▁Einstein~~7929
bors~~14214
▁Tasmanian~~15107
born~~8685
esters~~11335
itorium~~17889
borg~~15126
▁autonom~~15311
inational~~18103
omics~~14444
▁UK~~11314
▁straight~~4475
▁unac~~16637
▁Pause~~16055
Lee~~15491
▁disability~~3901
/~~4325
▁replic~~9436
asking~~16816
Let~~6210
▁trying~~470
▁secrets~~11214
▁happiness~~6351
mont~~16462
▁astrol~~15840
▁corporation~~10265
stitution~~9850
esearch~~17835
▁Feed~~17637
▁for~~105
▁aband~~14727
chs~~16070
▁Millennium~~10606
phen~~8629
▁Compassion~~7530
▁literally~~2371
pher~~10779
▁Amanda~~6187
▁someday~~9144
▁future~~1020
▁Sadd~~7870
phet~~10429
▁microbial~~12675
▁fol~~4152
illions~~11299
▁exponential~~10826
▁inadequate~~9932
▁mosqu~~12754
▁FO~~18088
obi~~17298
▁Rush~~12135
obe~~11735
▁strings~~3818
▁Different~~15197
▁describe~~2944
▁jump~~3761
▁understanding~~2167
▁Manifest~~12408
▁microscope~~9959
▁feeds~~9016
ft~~9541
▁Arts~~16647
obs~~4836
oten~~1297
▁quite~~3659
otel~~2680
▁drif~~11880
▁described~~3394
▁circum~~10010
Mon~~11616
▁colleague~~2363
icians~~3075
▁carrying~~5995
▁Alberto~~15037
▁describes~~9122
▁Strang~~16157
▁naiv~~18225
▁Glob~~10602
▁perceive~~5000
oter~~8624
otes~~1593
▁proph~~5196
wan~~13336
▁abandon~~5609
▁toss~~4516
▁Mas~~3680
▁Mar~~207
▁ties~~10702
▁Map~~11681
▁highl~~12388
ilosoph~~11861
▁Maz~~14502
▁May~~9035
▁Max~~3080
▁Mag~~8023
▁Mad~~8000
▁Mac~~9470
way~~4271
▁Blackberry~~6732
▁Man~~7677
▁Boom~~5899
was~~5078
war~~8811
▁Mai~~18234
▁Mah~~6176
▁Minute~~12057
cke~~15411
▁Re~~3016
▁phantom~~16889
▁Ra~~14117
▁Ro~~4444
▁nucleus~~14155
imate~~6972
▁links~~11529
iking~~1511
▁Rh~~9302
▁Ru~~14807
▁Engineering~~9281
isons~~1631
▁effective~~5166
gru~~16574
olo~~16635
▁disproportion~~13470
fas~~18202
▁RG~~7788
▁RD~~17204
▁transparent~~6025
isis~~12436
ilder~~10417
▁leverage~~5314
▁iPod~~1863
▁RL~~15904
osing~~12250
▁Parallel~~12563
▁Notice~~4450
anes~~8651
▁overnight~~11035
▁Intens~~15403
izers~~6450
▁porn~~12312
ilden~~16915
▁again~~713
▁aspect~~3915
cko~~16679
▁schools~~934
▁Indust~~14887
▁orient~~10219
▁after~~556
▁simple~~606
▁jumped~~7473
▁therapeut~~15366
▁dig~~8832
▁Down~~6776
▁influences~~9808
ffiti~~17004
▁2,000~~6037
▁shock~~54
▁lots~~4265
▁nomin~~14577
ourse~~10366
▁influenced~~3226
▁simply~~1699
▁stronger~~2069
▁Maybe~~1251
▁drowning~~7221
▁bandwidth~~16014
▁jokes~~12008
▁seven~~1743
▁Edith~~7563
▁sever~~8508
▁cracked~~10833
test~~14220
▁headed~~5411
▁applications~~3181
▁habit~~7718
▁chosen~~3841
▁Parad~~15968
chnolog~~17501
▁telescopes~~14200
▁Taiwan~~10085
▁ancestry~~10138
▁Insel~~17517
▁assist~~10154
▁tickets~~9935
▁Billy~~14170
▁forgotten~~12964
▁attracted~~10989
St~~5958
attered~~9341
ropolitan~~4837
▁Diagn~~15783
Sk~~16174
itude~~4478
ums~~13598
▁obsess~~11901
▁bugs~~3218
▁nutri~~9250
▁ski~~1410
▁observation~~6582
▁doubled~~3413
▁Apollo~~7385
▁typ~~9023
▁Germany~~1870
▁export~~13124
▁nick~~15655
▁Germans~~12212
▁sky~~2120
▁hop~~10843
▁chips~~9246
▁fluorescent~~8974
▁uner~~17080
▁Aug~~12236
▁Aud~~12903
▁worked~~1588
▁aquatic~~4521
▁award~~6357
▁aware~~530
▁Had~~10430
▁apolog~~5775
▁combinations~~13736
▁delusion~~10381
▁stat~~10748
▁worker~~9914
▁Aut~~1185
▁Aus~~2889
▁patterns~~10216
Inter~~18113
▁handful~~7741
▁followed~~2542
▁psychiatric~~16909
▁dialog~~9880
▁Falls~~9870
▁Algorith~~18163
rhythm~~18197
terror~~16419
obody~~15651
▁isolated~~12334
▁doses~~5547
▁drilling~~13664
▁invited~~7599
ivil~~17919
▁Pick~~3620
▁Dynam~~15293
ivid~~13449
umb~~832
▁Ale~~17613
umm~~3971
▁agriculture~~4701
▁Asperger~~12372
▁Korean~~1674
▁Alf~~18245
▁Pict~~13466
▁Mole~~9392
▁provides~~1396
fon~~15369
▁golf~~9421
▁Mola~~15003
hington~~17752
▁error~~7901
▁multiply~~8958
umn~~8328
▁Agency~~9212
Just~~5757
Global~~17658
▁spike~~10196
ilibrium~~17499
▁WK~~17350
p~~1575
orld~~18090
gut~~17730
ault~~9064
▁inevit~~6959
▁multiple~~5552
▁academ~~16103
▁catch~~414
revolution~~16694
▁beings~~2481
▁Gord~~18187
▁Sche~~16797
▁25,~~14898
▁code~~2495
▁25.~~17102
▁particularly~~1823
cost~~6163
▁250~~7767
▁answering~~4248
▁befr~~11961
▁somewhat~~6472
iors~~4946
▁Love~~2710
▁forb~~14385
▁fore~~5220
▁forg~~12642
▁arm~~2348
▁Alabama~~11223
▁arc~~8750
▁form~~798
▁arg~~2499
▁are~~109
▁Malays~~18092
▁Schl~~17910
energy~~13113
▁fort~~12917
▁Schm~~14598
▁arr~~4319
▁medications~~10944
▁art~~2504
▁Stay~~9521
▁Haw~~11923
▁Hat~~6614
aling~~2689
▁Tunes~~10537
▁My~~2815
▁Bou~~15784
gener~~2062
▁Boy~~2457
▁Haz~~15963
▁Mr~~8275
arme~~16626
▁Hay~~8167
▁Mo~~3155
ivate~~177
▁dir~~16315
▁sunlight~~8907
riere~~18033
▁Mi~~10111
▁Han~~11082
▁Me~~4754
▁Ham~~9082
▁Mc~~8965
eder~~10842
▁Ma~~3666
▁Venter~~9266
▁approaching~~13120
▁complaining~~7918
▁tube~~589
▁accessible~~7732
▁degrad~~9560
offen~~12319
▁che~~3321
▁MS~~14119
▁MR~~16171
acious~~5603
▁MP~~4136
▁MO~~13820
▁MM~~16927
▁wanted~~1702
▁America~~435
▁reef~~15406
▁Institution~~17196
▁business~~1007
▁MA~~15762
▁departments~~15498
▁hard~~1231
ctions~~2320
▁Help~~5697
▁complete~~5519
▁packed~~499
uza~~15809
▁Mountain~~2794
▁stimulate~~1323
ID~~15104
uzz~~15166
cies~~7134
▁basketball~~4123
▁Helm~~17124
▁born~~1768
▁regulate~~8639
market~~14125
▁copyright~~9685
▁horrible~~9962
▁danger~~8535
▁ethn~~16587
▁dimension~~1747
▁messages~~3579
▁Blogs~~17209
▁scalable~~14316
▁pathway~~2415
▁symptoms~~12784
Ach~~17127
▁integration~~2516
▁synthet~~18055
▁purple~~14051
▁learns~~10007
F~~2980
club~~9523
▁apples~~3305
▁bite~~6589
yrus~~8538
▁brilliant~~10338
anter~~15011
▁Brenn~~14819
▁Nothing~~9876
acles~~265
▁satisfaction~~10666
▁Brend~~16054
▁unve~~12254
▁bits~~482
▁outside~~3158
▁courage~~11898
ibl~~15847
▁expect~~2006
cas~~14779
car~~5226
▁broadcast~~11095
cap~~6374
ibe~~14851
abyte~~16731
▁diameter~~10057
▁embedded~~8758
▁regenerate~~14629
can~~10242
cam~~13988
cal~~11045
▁Eigentum~~17790
▁funeral~~7352
▁instruction~~7910
trans~~8113
ibu~~5091
heart~~4217
▁peak~~5553
▁pean~~9606
riages~~15154
chip~~6698
▁Willie~~9747
▁grandfather~~2825
▁usage~~7818
▁Pogue~~14882
▁novel~~1704
▁pear~~7179
▁optimistic~~1019
spe~~12709
zeera~~17773
occup~~8737
▁altogether~~9448
▁hat~~4549
,"~~1044
▁has~~203
▁quantitative~~14361
aket~~17624
▁make~~178
▁views~~4189
▁romant~~16654
▁Hillis~~16031
▁cities~~4621
▁had~~517
▁Middle~~4274
▁hab~~10816
▁Prot~~13323
▁Princ~~14820
▁hal~~12803
▁ham~~2549
▁Sebast~~17186
▁establ~~8325
▁Major~~14468
astroph~~16929
areness~~14368
▁Syl~~17254
uing~~1057
▁chair~~3762
wling~~4562
uccess~~12171
▁Cons~~8256
▁terrific~~14254
adel~~18206
▁able~~749
aos~~9654
▁Alhambra~~17411
▁improb~~16121
▁goodness~~13505
ogenic~~7090
▁Cond~~5272
▁thirdly~~7063
▁newly~~11146
?"~~1152
▁Def~~14978
▁sett~~9132
▁Deb~~14904
▁sets~~5845
▁Den~~13452
▁touching~~3179
▁Del~~13247
▁Dem~~9745
ftware~~17947
▁tra~~3938
▁appro~~13995
▁Dev~~11070
▁addressing~~5846
▁Det~~14319
▁inspired~~4223
▁Des~~9537
▁Dep~~13619
uhan~~17081
▁puzzle~~10402
▁affect~~8566
▁wilde~~17515
▁rocket~~5462
uzzy~~15582
▁calcium~~12608
▁Stere~~17269
▁plates~~3391
▁Walker~~8414
▁convention~~9692
▁prosthetic~~9233
ities~~843
▁complic~~9939
▁essential~~2958
coln~~14769
▁vice~~3275
Chr~~14295
▁taboo~~6792
▁censors~~12961
still~~14294
▁tri~~10929
ular~~4076
▁harsh~~14205
▁Chile~~1741
▁Child~~3460
enna~~3697
▁constit~~10289
▁told~~1077
▁hooked~~5426
▁angiogen~~17257
viron~~14662
▁dots~~4246
▁roles~~11075
▁toll~~6607
▁foot~~639
▁Both~~6272
,'~~13227
▁neck~~13880
▁Bots~~16111
▁First~~1499
▁fool~~4911
▁risks~~5535
▁manipulation~~9158
▁food~~699
Wait~~16498
▁legal~~5230
halt~~13439
▁cultural~~2536
▁Amp~~18192
▁morally~~11515
▁ones~~1275
half~~4588
not~~6018
▁jumps~~10644
nov~~15351
▁enemy~~1541
▁Bra~~12732
hall~~11317
down~~10257
▁aggress~~4326
▁us~~29
ontroll~~1195
▁up~~247
▁briefly~~4917
▁configuration~~11851
▁Rauschen~~13778
vors~~14120
▁rank~~985
▁McDonald~~13046
▁automatic~~13757
h~~1113
▁suffering~~10081
▁un~~1208
▁um~~3102
ination~~2308
▁Angel~~13206
▁storyteller~~2477
▁uh~~15603
em~~1820
el~~2161
en~~2704
eh~~10778
ek~~379
▁object~~3442
ee~~1442
ed~~228
▁integrity~~6515
ef~~3326
▁surgeries~~10893
ec~~7950
▁defines~~11627
▁thumbs~~3518
ey~~8098
ex~~1067
ulsion~~7612
year~~883
eu~~12232
et~~2222
ophys~~11275
▁unknown~~5474
ep~~4822
es~~679
er~~1488
▁forbid~~1087
space~~7333
▁accurate~~9428
estone~~7054
▁temper~~9854
ception~~7403
looking~~780
▁2004~~10594
inz~~17368
▁copper~~13783
▁revolutionary~~6805
▁politicians~~6790
▁humor~~7329
▁def~~2670
▁deg~~7155
▁har~~12658
▁deb~~2786
▁street~~5650
▁den~~497
▁respected~~10764
▁collision~~5468
▁Laptop~~8898
cart~~10564
▁dev~~1049
▁dirt~~1088
▁females~~8611
▁Person~~9067
▁der~~3446
▁des~~6325
▁dep~~4424
▁2003~~5297
problem~~17553
▁Year~~10043
▁Franz~~11023
▁200-~~7031
ilen~~15515
▁ignore~~11433
▁Kant~~16354
▁Status~~15753
▁times~~1081
▁corresponds~~11153
▁daughters~~3702
blind~~12523
bling~~6206
▁rise~~6502
▁myths~~5234
▁Barefoot~~17920
▁risk~~4033
▁empathy~~7514
▁explore~~8049
▁infant~~11017
▁hypoth~~12590
▁Achilles~~9555
▁waste~~4354
asive~~15461
rine~~11919
ring~~1481
rina~~17959
xt~~9013
size~~6590
▁pour~~3160
▁address~~5178
▁stopped~~3362
▁demos~~3089
▁Titus~~16302
▁orphan~~11371
imit~~15602
▁revol~~7275
fl~~5824
▁corridors~~11738
ission~~11845
▁agenda~~9882
▁selves~~8818
▁orchest~~3669
▁yeast~~14390
frame~~8755
▁powerful~~2099
nutrition~~18075
▁Comics~~12546
arith~~14737
▁exceed~~2040
▁Leib~~15052
▁flip~~5184
ceptable~~1573
▁Foie~~17287
▁contrib~~7497
▁reduced~~10315
▁Saint~~14610
uper~~3293
quar~~17763
▁aesthetic~~9820
arity~~8323
▁attacking~~9806
▁traditionally~~1904
▁Neuro~~17017
▁Sandy~~8730
▁reduces~~11818
than~~14106
▁biggest~~1285
thal~~16974
orden~~16156
▁160~~354
▁invested~~1855
▁program~~2346
▁defect~~8586
▁Cancer~~9534
▁Protein~~17158
ousing~~6522
▁What~~398
▁movement~~3768
▁glass~~3157
▁Williams~~12769
▁seeds~~6448
▁regimes~~5475
▁destroy~~5784
angen~~15212
angel~~6966
▁1/~~17338
Pe~~12332
▁foster~~7498
anged~~3402
▁mere~~11570
▁passions~~10948
▁Library~~12735
▁mode~~6736
engths~~2228
anger~~3866
anges~~153
▁judge~~9050
▁Whe~~13676
Ph~~11860
▁tom~~9609
inkel~~18177
bers~~2798
▁Museums~~18083
shore~~5372
▁10~~809
▁passing~~385
▁Express~~13914
▁smell~~4751
▁Pl~~4394
▁Sperm~~18039
▁Po~~2723
▁Ph~~2210
▁electronic~~5984
▁silen~~9794
▁Pe~~8482
▁Bro~~13063
▁planetary~~12052
▁Pa~~14115
▁sequence~~7012
▁Bru~~17816
▁Luf~~7799
▁deaths~~13469
▁satellites~~8162
▁pulls~~13982
▁document~~9114
▁lifestyle~~12016
ford~~12715
]~~2998
▁Lud~~15502
▁Pr~~209
▁genom~~14278
anch~~2706
▁PM~~13472
▁PH~~13225
PT~~16608
nders~~11859
▁Chaos~~3488
▁lifespan~~7059
▁headline~~2130
▁Batman~~10279
▁beaches~~4564
ance~~2299
Ide~~18036
▁Henry~~5760
▁Intell~~14014
ancy~~7495
▁Eventually~~10489
orth~~14180
▁hilar~~12191
▁intuitive~~12099
▁metaph~~6786
▁perfectly~~4018
▁PR~~5212
▁PS~~16958
▁rund~~16467
▁releases~~2417
Wel~~13067
▁runs~~6139
▁crashes~~14028
▁dependent~~4644
▁emerging~~4484
▁ozone~~14305
▁cover~~1725
▁Ter~~5012
▁systematic~~3481
uter~~15276
▁released~~5339
aint~~10375
▁grim~~4693
▁Protest~~11243
▁tastes~~13863
ains~~7249
ratic~~2051
utet~~18098
▁grid~~2252
▁Up~~8932
▁fu~~17152
▁vessel~~4182
▁adoption~~9438
▁prepar~~7834
▁operator~~6218
▁Savage~~11899
▁canvas~~4766
▁grip~~5606
▁summit~~7198
▁figuring~~1626
▁pressing~~3734
▁telescope~~13204
▁Post~~4261
▁geographic~~7458
▁alien~~728
▁Li~~15579
▁Kump~~17643
▁minister~~10100
ynth~~586
▁Motor~~10884
▁supercomputer~~10319
▁motivated~~3874
held~~11969
▁prove~~1224
leum~~12680
▁Ted~~10354
▁naturally~~8797
▁kindergarten~~1910
▁borrow~~6289
▁comparable~~9648
klav~~17887
▁Ash~~16431
▁Ask~~7562
▁courageous~~4332
mess~~17961
▁Alec~~18112
analy~~16899
▁irrational~~3225
▁stone~~7933
▁helmet~~12828
▁disconnect~~4955
aze~~12177
▁Ladies~~5675
▁ungl~~17417
▁original~~7078
▁Donner~~18232
hell~~8649
▁Asp~~9545
▁Ass~~9535
▁Ast~~13458
▁Alex~~4055
▁intended~~6702
krieg~~16859
▁gone~~4597
▁contributing~~4527
reten~~18025
▁penet~~5478
▁Guer~~17448
▁192~~11792
3~~2179
▁habitats~~42
▁annoying~~3020
▁fortune~~8383
▁Uh~~12243
▁Town~~14338
▁Ice~~13657
▁Google~~4298
▁teachers~~1833
▁mosquitos~~12598
iminals~~16605
▁Archiv~~18208
▁ceiling~~4988
▁Meth~~7121
▁wax~~3127
▁Pier~~2917
▁copied~~11494
▁everyone~~1641
mond~~10904
▁adapt~~1172
▁nerd~~13380
Da~~16821
▁transforming~~12959
Give~~11810
▁ethics~~12474
▁behalf~~6791
S~~1657
送你葱~~17758
▁Archie~~15843
▁package~~3727
▁large~~1776
▁surprising~~3572
▁Everest~~6117
▁copies~~9991
▁Portland~~10524
▁Professor~~7988
ischer~~15359
▁197~~6397
▁50,~~7042
▁50-~~5659
▁50.~~8707
▁unified~~13923
▁500~~4818
▁pictures~~4259
amine~~14519
▁chromos~~16983
aming~~4860
▁oxygen~~599
▁races~~9185
▁schle~~14190
▁app~~8774
▁glamour~~16891
▁Everglades~~18099
▁elegant~~2849
▁aggressive~~6232
▁security~~6451
odes~~6577
▁protecting~~3178
▁fossil~~4679
▁prototype~~3816
▁Lots~~11640
▁feedback~~5055
▁redefine~~6291
▁bias~~7849
▁Stern~~14713
▁inventor~~2336
oded~~11427
emark~~18037
angt~~17299
▁Front~~13320
systems~~16932
▁stayed~~3859
▁slums~~2587
▁force~~2660
▁Starbucks~~13098
▁animal~~273
▁History~~8161
▁Liber~~7864
▁insert~~9566
zene~~14303
▁pools~~7210
▁Chicken~~13048
▁Besser~~13462
▁Jared~~14726
▁intellectual~~7878
▁healthcare~~6264
▁Miami~~16408
ett~~5928
▁3-~~8120
▁regional~~5375
▁3.~~7238
▁hors~~7292
▁meanwhile~~6238
7,~~6737
▁living~~957
▁35~~1864
▁34~~3878
▁37~~7999
▁36~~5253
▁31~~12451
▁30~~2607
▁33~~13200
▁sl~~2833
▁defeat~~7129
▁39~~13652
▁38~~14440
ization~~1134
▁nurse~~3061
Sharing~~16973
▁baby~~1110
▁city~~3057
▁grades~~6427
fashioned~~12314
▁returns~~6557
eral~~2946
eram~~17735
▁Part~~119
▁hate~~9490
▁legend~~3618
▁100%~~16860
▁Park~~8947
▁hats~~15441
▁disagree~~10555
▁mathematics~~2013
▁incre~~7004
zens~~10340
▁under~~389
▁tends~~6888
Israel~~4225
',~~13772
develop~~15267
▁inch~~575
▁photographers~~5280
ulted~~12380
▁rehe~~17044
▁when~~183
zent~~14895
ya~~6355
▁return~~918
▁null~~16838
▁Unen~~16879
Sil~~8683
▁serving~~6588
▁crit~~11229
▁ability~~1174
decker~~17941
iment~~6036
Č~~18182
▁Poly~~14413
▁ve~~10377
▁hide~~1387
ć~~17541
ete~~14405
Gott~~18150
ā~~17103
▁Poll~~8405
▁definitions~~9957
two~~12286
▁bird~~4447
▁Pole~~7162
▁rotate~~14242
▁earned~~14491
ruption~~12336
▁admire~~13006
ī~~18106
▁punch~~13698
▁Himalay~~6348
imens~~10181
▁presum~~13983
▁Shir~~10512
▁Gary~~12765
▁Palestin~~13314
▁blo~~10596
▁Paris~~8787
▁attractive~~1994
▁instr~~17593
cca~~14574
▁ble~~1367
▁comfort~~9463
▁Between~~9837
▁Jo~~11826
▁lobby~~7293
▁statistical~~11167
▁Ariana~~18168
angs~~10878
▁support~~582
▁entrance~~13810
▁pre~~1165
uct~~2934
▁maneu~~12827
▁pra~~6712
yp~~4468
▁negotiating~~2950
▁improvise~~4088
speed~~4127
▁answer~~1844
▁Wein~~14998
▁Viv~~17475
▁immune~~7135
▁offer~~2490
▁Vir~~14002
▁Vis~~7980
▁rejected~~9430
▁YouTube~~8081
▁functional~~9239
▁acceptable~~12956
▁Vie~~11538
verse~~7833
▁susp~~7613
▁offen~~10577
▁Vin~~16762
▁tension~~9831
▁amazed~~6738
▁electro~~13203
▁mamm~~8662
ami~~7488
ream~~4929
▁Clint~~11222
amm~~5071
▁parts~~242
isters~~6709
▁ours~~3886
▁colonies~~569
antages~~15025
etto~~12182
amb~~8558
ame~~5117
▁pray~~4921
▁party~~3011
▁prag~~10434
▁strange~~702
psy~~10200
▁19,~~15650
▁Kansas~~13131
reat~~5720
amp~~3033
ams~~8765
▁tragedy~~5467
▁auto~~11935
▁filters~~10998
▁hands~~299
▁founding~~14567
▁Yet~~4632
▁Yes~~847
▁serv~~14786
Show~~17434
▁Spain~~2238
▁situations~~1705
uce~~11148
▁spite~~4423
ynd~~13636
▁something~~202
▁Troy~~12773
t~~316
▁Nazis~~16747
ie~~3468
▁IDE~~14479
▁brief~~7462
▁occ~~8983
▁Maeda~~12129
▁sand~~7481
▁tattoo~~2859
▁sank~~14785
▁screen~~2541
▁Anthony~~5799
▁uncover~~7281
▁near~~3774
▁acqu~~15110
edom~~15307
▁neat~~779
▁oct~~358
▁invol~~14004
▁econom~~15208
▁hamburger~~12651
▁Seth~~15249
▁programmers~~8150
▁scholarship~~8407
▁Hard~~11268
▁lower~~1873
▁engagement~~2940
▁listed~~13243
▁Harm~~17540
▁Gra~~4927
▁Circ~~10239
agern~~8936
▁Angiogen~~17978
▁cybercriminals~~16604
▁Hart~~14083
dies~~16653
ricted~~16476
▁Gru~~15567
▁Page~~7778
▁methane~~2227
▁tumors~~8574
▁once~~1716
▁dream~~3062
▁section~~4087
▁herein~~17111
▁robotics~~12094
▁concept~~894
▁strug~~8953
▁assignment~~7728
▁spiel~~16633
artig~~17871
▁Vagina~~15014
throp~~17602
▁meets~~7760
▁fever~~9632
▁fixing~~11108
▁patri~~15015
▁Baxter~~13817
▁bene~~16668
▁bend~~8158
▁Mess~~16629
▁1945~~15053
itte~~17857
▁Crow~~7400
▁1940~~13448
powered~~7624
▁lived~~5762
▁sports~~1304
osph~~15402
▁Boys~~10927
itty~~8833
▁bent~~13732
▁Houston~~15443
▁boiling~~641
idden~~11376
rifice~~17569
▁interacting~~5137
▁Son~~9754
▁Som~~10236
▁Sol~~11842
▁comple~~6688
▁levels~~1931
▁Christmas~~3010
▁name~~3877
▁anal~~15627
▁eye~~4996
▁supposed~~1566
▁Expedition~~16410
▁Sor~~11098
▁Sop~~15855
▁Indones~~13387
your~~12072
▁Sure~~9489
▁congestion~~9825
ared~~3364
▁characteristics~~6928
Mus~~3743
▁Americans~~8406
▁spring~~730
aren~~13544
▁Flu~~16292
Eng~~17201
lon~~7032
ician~~13594
icial~~13497
lor~~8703
los~~9310
aret~~14384
cats~~10014
arer~~14188
ares~~4672
▁Fle~~14161
▁spec~~7065
▁digit~~8727
▁cocaine~~16176
▁Gates~~5699
achers~~16203
▁yet~~173
▁yes~~4328
▁cosmos~~13674
quate~~13743
▁summarize~~7924
▁Okay~~3063
J~~2763
▁Initi~~3349
▁curriculum~~7838
acon~~10548
▁manufacturer~~8866
▁efficient~~4163
▁targeted~~5661
igen~~12976
▁IBM~~8391
▁Ess~~17660
▁these~~258
igel~~10247
▁commod~~16058
illing~~1213
▁manufacture~~14302
▁pharmaceutical~~11280
▁barrier~~9551
cript~~14545
▁common~~2524
hirt~~3425
▁Sn~~9181
They~~13072
▁Exp~~14604
▁unintended~~13428
▁Ext~~12822
▁Cliff~~12440
▁teams~~9510
600~~11820
▁Bahamas~~13987
ners~~5523
▁Stories~~13348
▁appreciated~~11981
▁Muhammad~~15865
▁confined~~7358
nern~~17224
▁extra~~598
▁Grand~~7971
▁comics~~12503
oulder~~9012
▁snaps~~13961
▁Transist~~17203
radle~~10040
▁Union~~8374
▁Inv~~16813
▁Sudden~~18067
▁amateur~~8093
▁staggering~~11782
▁parliament~~6539
esterday~~9098
you~~6144
▁offers~~2896
▁worldview~~2446
▁kor~~18127
Great~~11378
▁perman~~3694
phys~~16340
icient~~7812
▁proud~~8126
▁auth~~12868
▁Through~~1460
iogen~~14129
▁Bor~~11114
▁CNN~~6592
▁shut~~9217
▁consciousness~~2696
▁stereo~~13953
pool~~7365
building~~13707
▁acid~~790
▁graduated~~9978
▁accurately~~13696
▁suspect~~6129
▁custom~~15167
▁loops~~5056
▁chimp~~10175
▁knocked~~6057
▁Pilot~~17126
▁scheme~~7533
▁Peters~~14074
▁richer~~2701
▁graduates~~1686
▁mentioned~~2814
▁winter~~4915
▁unn~~12022
▁melt~~4399
▁interde~~11231
▁around~~270
▁Sty~~12077
month~~4499
▁Poland~~1941
▁“~~7938
▁lapar~~14647
▁drum~~5715
▁negoti~~5653
▁folding~~8302
berry~~13172
▁While~~3501
▁adv~~10578
airs~~13675
▁Mes~~15930
▁Mer~~12565
▁Met~~11024
▁equation~~5828
nal~~15919
▁spe~~12109
▁Men~~8701
▁Mem~~12528
▁Mel~~11772
izt~~15611
▁Italian~~6782
▁Meg~~12289
ochond~~7099
▁Med~~7626
ucky~~14023
vers~~7139
▁Vi~~3696
ights~~175
▁newborn~~8636
▁visible~~4978
very~~14857
▁epis~~14243
▁epip~~16874
▁pregn~~13471
▁fertilizer~~6378
▁grown~~4855
▁Ve~~16515
▁Que~~12704
▁Robert~~5923
▁grows~~711
vere~~16172
minded~~6398
▁great~~130
▁epic~~8063
▁Ange~~16565
izz~~7804
vern~~2158
▁Dire~~10724
finger~~12618
▁anatom~~9427
▁Phantom~~16067
osh~~5642
--~~8138
-,~~15444
▁Western~~2690
▁Other~~3313
Er~~17948
▁beyond~~909
▁Austin~~9105
-1~~4746
▁ingen~~8203
▁pressures~~9127
▁advertis~~6600
osm~~15016
▁Triceratops~~16461
chwitz~~14751
rench~~4926
▁dop~~14554
▁Sometimes~~4922
▁shoot~~4255
▁graphs~~13495
▁density~~6380
▁aspirations~~10505
▁cust~~11476
▁rule~~3524
▁vulner~~16693
osn~~10571
▁crime~~1158
▁Capital~~11277
ators~~1749
reci~~13972
▁breakdown~~11168
atory~~6537
▁deciding~~13185
mill~~6752
▁Era~~7274
ails~~629
rator~~8344
▁lux~~10688
▁follows~~12134
onna~~8001
inery~~13118
▁availability~~6362
onne~~10227
itasking~~14027
▁sequen~~15878
▁Karen~~12430
▁grou~~15412
▁technology~~194
▁grow~~842
wning~~5330
▁Anyone~~10857
▁pleased~~15689
▁spacecraft~~8196
▁analyze~~3947
▁frogs~~8072
▁Immun~~17131
▁biom~~13138
▁perspectives~~2573
▁align~~2085
urrent~~16254
▁ruins~~8043
▁Netherlands~~9630
strong~~5574
▁Buff~~12369
▁nine~~439
ves~~1392
▁Subtitles~~15
▁cycle~~4778
▁assumed~~13737
▁attitude~~2713
▁son~~444
▁som~~9198
▁prote~~7106
▁soc~~7786
▁solving~~7905
▁radio~~4097
▁proto~~12046
▁sod~~8895
▁midst~~9538
▁soy~~4646
▁equipment~~2275
▁Nobody~~1774
▁altru~~11276
▁ten~~2318
▁sor~~13607
▁tem~~3355
▁sow~~13567
,]~~8101
ocaust~~12006
▁pig~~7996
▁conference~~8424
▁located~~4759
ase~~5560
▁Aqu~~8216
▁pin~~3520
▁stumbled~~8507
▁pil~~15547
▁benefit~~1321
▁piv~~15597
▁Schwe~~12601
▁pit~~4049
▁pir~~15703
▁pip~~13004
▁unab~~15881
hren~~14473
▁lud~~14145
▁pix~~7794
▁mating~~13871
▁gaze~~2964
▁employment~~6173
▁Hom~~15998
ifications~~9401
▁bonus~~9640
▁Birds~~10812
▁remix~~9681
anners~~2380
iverse~~8155
iathan~~15856
▁Cairo~~15916
▁disappointed~~10004
▁maps~~442
▁Osama~~16534
pus~~17997
▁normal~~3552
ickr~~15873
uting~~8678
▁ther~~15932
▁Tour~~11033
▁Ian~~15821
▁Dak~~10525
▁they~~307
▁charges~~12260
Sp~~14396
▁deaf~~11126
▁tight~~5892
▁implement~~7109
▁people~~929
Sh~~2840
So~~10176
▁parasite~~15139
▁depths~~48
▁Ernest~~14770
Sc~~13690
▁Migration~~15541
▁them~~290
▁charged~~10630
Se~~13986
▁then~~397
rips~~10960
▁Anybody~~12158
▁Dal~~6509
▁kenn~~17845
▁semi~~4821
▁character~~3811
SP~~14065
▁publish~~7350
▁real~~330
▁apply~~1071
▁closest~~5258
▁apple~~13055
ning~~6940
otent~~15719
SA~~6508
▁prize~~6359
▁elev~~8336
▁Congo~~6852
SE~~14854
▁above~~1482
ions~~1543
▁poses~~15801
▁Lebanon~~4293
idges~~16221
bus~~15405
▁colle~~6699
▁Uruguay~~8912
aign~~15536
▁shipping~~5256
▁spread~~3162
ione~~8195
▁decline~~5387
▁loans~~11097
▁Rwanda~~2681
▁bounce~~4156
▁Conference~~15002
▁Dollars~~16944
▁Platt~~16642
▁family~~1036
anting~~10421
▁Lord~~10756
▁migra~~17013
▁Basically~~1478
ource~~14946
▁temperature~~636
ipur~~12997
▁Os~~15914
▁RHex~~16677
▁happy~~1433
fr~~2705
fs~~7474
▁2008~~3051
fu~~2207
▁giving~~1803
▁pose~~4664
▁Her~~5413
▁2005~~4530
▁2006~~2538
▁2007~~7312
▁2000~~7272
▁2001~~6452
▁2002~~14476
odies~~3689
▁Stanford~~5067
▁Hen~~15714
fe~~1435
ff~~9218
velop~~5826
▁Heb~~3257
uminum~~16484
▁weren~~529
ignt~~15220
a~~778
▁timber~~12933
▁looks~~394
▁Who~~2776
aughter~~15354
▁seam~~5227
fallen~~17850
▁Graham~~11081
ï~~16613
▁1.~~7173
▁1-~~17042
▁1,~~8194
▁13~~1659
▁12~~3400
▁11~~2178
▁Why~~997
▁17~~4035
▁16~~5083
▁15~~5576
▁14~~352
▁1:~~13103
▁19~~10599
▁18~~2557
▁hope~~2612
▁Lithium~~14327
rue~~10293
▁RSW~~17866
▁ecst~~9942
▁displaced~~8788
ielle~~14980
▁Fak~~18042
uring~~1753
▁rapid~~12003
▁have~~145
▁bicy~~11794
▁consult~~5036
▁rituals~~11528
▁aesth~~17666
▁Gramm~~13626
▁Fah~~16890
▁clean~~2832
▁rent~~9049
Where~~6008
▁inex~~13029
▁Fab~~14783
▁rene~~6642
▁singer~~3808
▁Natur~~11613
▁interviews~~12107
ced~~4966
ym~~1798
yl~~4456
yo~~16554
yn~~5034
▁customers~~1431
cen~~15274
cel~~208
ye~~9616
▁composition~~3942
ces~~3106
cer~~4202
▁hearing~~3959
foot~~2792
▁selling~~4808
ys~~2895
yr~~4284
▁80,000~~12352
ift~~8793
▁diabetes~~8590
▁pa~~4726
▁cows~~12032
elson~~11356
fully~~370
▁proper~~8163
▁discuss~~4548
▁simpler~~13786
ify~~5276
▁involved~~3528
ife~~4376
iff~~11056
▁nett~~18065
▁involves~~10848
▁NA~~12872
▁Atom~~11841
▁wells~~12989
▁someone~~3521
▁Geb~~15848
asion~~10727
▁whist~~2974
▁Standard~~7983
▁television~~7254
▁considering~~10363
Ent~~17598
keepers~~14603
▁hospitals~~3773
▁eager~~6203
adays~~14513
▁Miner~~15472
ific~~2326
▁hey~~12066
idimension~~11507
▁beautiful~~41
▁Reality~~16262
▁her~~2140
miss~~12504
Aud~~16398
▁reducing~~10047
planes~~15445
▁Schwarz~~16673
7~~1727
▁hem~~2821
ibrary~~17663
▁Aust~~8893
▁list~~1848
▁expedition~~7582
ass~~3309
reck~~16755
▁MIT~~3373
▁who~~931
ast~~4047
BC~~10932
asy~~10382
team~~15559
Land~~17629
story~~7654
▁accounts~~7397
▁breathing~~3895
houses~~6532
asa~~6874
▁why~~822
▁ineff~~14723
dire~~1465
put~~8386
▁fabric~~10518
ash~~5548
▁skies~~13042
rect~~7861
▁symp~~6917
▁Pur~~2863
▁shrimp~~689
▁Agn~~14812
▁Dan~~3211
▁Put~~3316
▁Dam~~6871
▁fourth~~2396
▁lack~~3928
▁Path~~15958
phy~~15313
▁Dad~~12508
hler~~15935
▁dealt~~13605
▁Day~~4529
▁brick~~2900
▁Hippocampus~~18082
▁deals~~10291
▁Dar~~10762
▁Little~~1354
▁favor~~2743
▁Dav~~14169
▁Army~~5856
▁Pul~~17396
▁electromagnet~~13716
ules~~8694
▁Wilson~~4934
▁Serv~~9321
▁egal~~15631
▁anymore~~3120
▁battlef~~11579
▁sale~~3747
▁Serb~~10457
▁wander~~10209
▁belong~~412
▁kept~~3260
▁battles~~14818
▁Steve~~902
▁concrete~~3150
▁bottle~~4472
▁salt~~13082
▁practiced~~15378
▁Chips~~18250
ighters~~4513
▁coach~~5779
▁cinema~~2597
▁jar~~11780
▁swallow~~14240
rus~~7298
▁react~~10228
▁reach~~3174
▁Award~~14940
▁inviting~~4904
▁prospect~~7823
station~~10282
▁instability~~7193
▁Knopf~~17962
▁Colombia~~13833
▁Rede~~17818
▁intervene~~6983
▁True~~1141
▁Pip~~14532
▁Klin~~12330
▁mount~~7207
▁graffiti~~14371
▁Bol~~12532
▁attempted~~14642
▁lottery~~13089
▁happiest~~11031
asch~~16414
▁1960~~1636
▁Marco~~12234
▁lighting~~8530
▁pandemic~~5586
asca~~13132
▁sequenced~~15288
ste~~8107
▁Institute~~9194
▁intuition~~3405
▁Dre~~12104
▁understand~~2262
▁citizenship~~16082
▁construct~~1529
▁petition~~11765
▁Old~~8674
sth~~15377
▁cents~~3334
▁female~~644
gree~~8462
greg~~2000
▁Asia~~1737
▁March~~4227
str~~5223
▁belt~~7455
orthern~~14536
▁tiles~~7308
▁education~~923
▁ye~~13175
▁member~~9052
Qa~~16443
rified~~5818
kart~~17009
God~~5785
▁equal~~1755
▁clothing~~9344
▁entities~~8233
▁configur~~3538
▁sixth~~6011
▁entrepreneurial~~11783
▁pieces~~483
▁Klim~~18068
▁stream~~4391
culus~~7773
▁Engl~~7453
▁phrase~~6290
▁bikes~~12402
lim~~5394
lin~~4080
▁ideas~~1560
▁spreads~~6084
▁collar~~12468
phal~~14845
▁ideal~~4841
iber~~6766
arks~~13844
▁declining~~8249
▁feeling~~1417
aired~~14773
digit~~14738
▁moved~~1790
▁diseases~~5533
▁thesis~~13129
quote~~13845
▁barriers~~14244
▁commons~~5231
▁daf~~17696
▁Interviewer~~16808
kam~~1111
kal~~15787
kas~~15736
kar~~14607
▁day~~1149
▁showing~~3791
▁Carne~~15741
kat~~18086
▁dar~~5245
▁das~~16603
The~~213
▁UCLA~~14436
▁pilot~~2574
▁dat~~11177
▁supplies~~8443
▁translating~~14653
▁potato~~3723
▁clusters~~11428
ining~~4608
▁nurt~~17078
clear~~9518
▁Abra~~17472
asters~~11950
▁debate~~1778
astern~~10132
▁playing~~1252
▁patent~~6136
▁Meeting~~17891
▁Meetings~~17981
hips~~8170
▁grocery~~4232
▁cockroach~~9206
▁Garage~~17852
▁SW~~16776
▁Cy~~14667
▁Journal~~10669
▁manifestation~~7553
▁strikes~~5625
▁Others~~7891
▁prices~~6388
▁fragment~~8828
dimension~~16421
▁175~~3133
ymp~~13595
▁arrows~~15425
▁fig~~11426
▁tales~~1344
▁170~~9042
▁Statist~~14515
▁fil~~707
▁fin~~6879
rypt~~12866
▁symptom~~5053
quen~~12547
▁fit~~3923
▁Graph~~13240
▁Sant~~10104
abend~~17615
▁fis~~5300
▁annual~~2180
▁17.~~14044
▁fix~~4599
▁managers~~8853
ymn~~10107
▁fier~~8471
ela~~14020
ikely~~18104
▁addict~~3711
▁kat~~18110
▁kap~~17026
▁kar~~15118
▁vor~~11565
▁acoustic~~3822
▁currently~~4686
▁smells~~10983
▁competing~~6166
▁guarante~~13665
▁crank~~13829
▁Tony~~5711
sta~~13858
▁Rory~~15616
▁terrified~~5491
▁Ger~~11217
▁publ~~9982
▁placebo~~13547
▁Anne~~15803
▁DDT~~8668
▁explicit~~13648
▁nutrients~~12080
▁halfway~~8077
▁launched~~5435
▁hipp~~10201
▁investig~~2423
▁small~~1006
rooms~~6719
▁organize~~6678
esium~~14323
▁ment~~1495
▁menu~~9667
▁Cameron~~5688
▁films~~2465
▁conferences~~11746
▁Buddh~~14619
▁chip~~9216
ype~~14010
▁agency~~9611
▁resem~~10189
▁Juan~~10616
close~~13478
▁before~~648
▁rolling~~5665
▁endangered~~8258
▁accelerated~~6634
onal~~16199
ipped~~9400
▁Jess~~16581
ictions~~14775
▁Larry~~9683
▁booth~~4938
opped~~9155
Part~~15087
▁boots~~13347
▁debt~~12443
▁Theoret~~15890
▁Those~~719
▁Wilder~~16448
▁poverty~~2588
▁disco~~8331
▁array~~10211
▁Tr~~7644
▁Ts~~14038
▁ALS~~14310
▁♪~~12324
▁Tw~~13527
▁Giussani~~9676
▁remembered~~3361
▁rhetor~~9308
▁impressed~~10704
▁Ta~~11519
Sand~~8724
▁Te~~3776
▁group~~2188
▁Th~~4739
▁Wired~~12097
▁Cash~~15822
▁indoors~~12185
▁To~~1078
▁northern~~5597
▁TR~~15835
▁TS~~15243
▁TV~~6807
▁Malaysia~~2266
▁Kell~~16540
ivated~~10706
▁tests~~7842
apeut~~16236
anor~~13265
▁sanct~~15483
sensitive~~3341
▁priority~~1979
▁Cast~~15349
vitation~~14441
▁TH~~8644
▁Wonder~~12247
▁reactions~~8400
▁TM~~3932
▁Problem~~17463
▁advis~~11893
▁Bein~~18032
▁pret~~17288
▁mur~~7265
▁Sagmeister~~13239
▁Anatom~~17519
ordination~~17308
▁neutral~~13294
▁Nation~~16664
wen~~16568
▁Solomon~~16481
▁Congress~~8396
▁Statue~~16173
▁barrel~~12442
Was~~16087
War~~11629
▁flights~~15123
▁resc~~15389
▁squee~~3713
▁Jackson~~11096
inct~~14072
▁ape~~10177
▁Origami~~17564
▁rest~~2546
▁cooking~~6673
mentation~~14391
▁Kamen~~12522
▁sacred~~13576
▁Columbia~~8212
▁Rezero~~9280
▁Dere~~16786
▁randomly~~11521
▁banker~~11076
▁beach~~122
Women~~14381
▁introdu~~10870
imal~~9195
▁huge~~1320
▁Joshua~~10234
▁clothes~~8496
▁1918~~10786
▁inert~~14123
√±~~16767
▁compared~~3407
▁Dublin~~9107
▁photographer~~14763
▁cardiovascular~~16094
▁Sem~~16447
▁correspond~~6204
▁games~~3643
wey~~15863
▁animals~~155
▁but~~144
▁Orte~~16745
look~~16230
▁bur~~5763
▁bus~~6652
▁'60~~515
▁desire~~7545
▁Verd~~15205
ropy~~16032
▁buy~~1437
▁obviously~~1192
▁bud~~5858
while~~18249
▁bug~~3213
▁Afghan~~6010
▁bub~~13234
▁bul~~9385
▁Jacques~~15818
▁signals~~3823
imore~~18142
roph~~3115
pack~~3380
▁Alan~~12566
ifth~~9426
▁museums~~8046
ifte~~13310
▁Silicon~~8851
▁voluntary~~10343
▁Vern~~15279
▁wondered~~3237
ifty~~15168
▁ancient~~4628
▁curt~~8989
▁illustrates~~10838
▁guerrillas~~13834
▁oceans~~12
▁writing~~2739
▁transfer~~10966
▁norm~~5299
▁mark~~739
ently~~3695
▁psycholog~~6647
ested~~1718
▁Temperatur~~18213
▁tum~~13967
▁presen~~17608
▁collapse~~6454
aber~~17885
grand~~14934
ester~~3082
bol~~12219
▁record~~855
▁Gegen~~12820
▁typing~~4299
conflict~~10450
▁photographed~~5291
▁rud~~10709
▁leadership~~5844
used~~8843
temporary~~4940
▁Group~~9796
▁rub~~4510
lie~~10636
▁rul~~10508
▁rum~~13036
▁run~~2102
▁foundation~~5830
▁Terror~~16085
▁rut~~1536
lig~~9574
uses~~12617
▁Blog~~7245
onstr~~16620
▁Very~~1875
olden~~17539
▁alcohol~~11072
▁minor~~7253
▁flooding~~13645
▁catalyst~~1228
strö~~18093
▁Ross~~4056
discipl~~11307
▁esoter~~14157
▁defining~~5756
▁afterward~~10075
▁Novogratz~~14470
▁means~~3648
▁Stein~~14097
▁deploy~~12739
▁shaking~~14778
▁housing~~9933
▁Consider~~2882
▁Elvis~~14960
▁trash~~4355
iolet~~16266
iers~~868
▁champion~~2973
Internet~~16116
iere~~17778
▁Bohr~~16296
▁gentle~~7338
gt~~17944
▁NI~~14893
▁Laboratory~~9285
ricul~~6743
$~~8834
▁excellence~~1785
▁forecast~~12854
▁attachment~~10561
▁generosity~~5709
▁lied~~12320
▁famine~~6361
▁Among~~10183
▁magazine~~6704
▁Wall~~9710
▁psychological~~6708
▁distinction~~8777
...~~3205
iano~~13558
ight~~1349
▁dozens~~2261
stein~~9269
▁artificial~~8677
▁genetics~~9159
▁reply~~11330
▁aren~~950
▁herd~~14963
▁Quant~~11854
▁palm~~12908
▁arter~~2362
▁lowest~~992
▁retire~~10272
▁hol~~6689
▁Jerem~~11696
▁Original~~17548
▁statement~~6971
▁trillion~~12438
▁blocks~~8622
▁Global~~10389
▁wheat~~11240
ees~~1118
▁Wit~~18148
▁78~~8403
▁channels~~2398
▁populations~~7908
▁indigenous~~11666
▁70~~3246
▁73~~8088
▁72~~10310
▁75~~110
▁74~~1724
▁Nine~~2016
▁encouraging~~1468
▁Gamma~~17115
▁factories~~4466
▁Joh~~16473
▁tender~~4898
▁proportional~~1807
▁Ha~~3210
some~~5910
▁conspiracy~~1027
▁tribe~~10868
economic~~1922
▁judgments~~13194
▁tenden~~10853
▁Hope~~6268
▁occurred~~3140
▁Michel~~11032
▁zones~~5406
▁rely~~2110
▁Qatar~~14227
▁speakers~~10658
▁quest~~2866
ushing~~13301
▁dam~~10988
▁launching~~10802
▁knowing~~2093
▁grandparents~~2646
▁printing~~8345
▁Bunker~~16993
▁reli~~10365
▁Baseball~~17544
▁clinics~~8928
▁rele~~11573
▁staring~~9236
▁consideration~~3469
▁constraints~~7890
▁Detail~~16833
▁keeping~~6179
ocke~~16187
▁failed~~5985
run~~6605
▁Pest~~8801
sted~~8171
rum~~13326
acht~~12333
▁Magic~~12130
osen~~9252
sten~~16035
rug~~12253
▁winds~~6554
achs~~4509
ster~~9020
step~~10268
ocks~~7224
▁dad~~3000
stet~~16367
▁humanitarian~~5536
rup~~16064
ateful~~17342
▁sorts~~95
▁publicly~~11078
working~~8952
▁plaus~~14454
▁strategies~~7120
▁waters~~851
idt~~14560
▁meat~~4651
ids~~7279
▁Nun~~17340
▁no~~146
▁Nur~~17648
kap~~15645
idi~~10559
▁problematic~~13385
idd~~9255
ide~~502
▁Gold~~9773
block~~12922
ida~~15241
▁offic~~6683
rats~~15624
▁recovery~~10551
▁entertaining~~9299
▁cycles~~858
aya~~15531
▁Benki~~16663
Ele~~2976
ön~~16708
öl~~18084
ources~~15884
ök~~17942
icans~~13249
▁Supp~~8408
kay~~18147
▁möglich~~17814
▁guess~~1014
▁Meyer~~13018
.,~~974
.-~~12877
..~~16744
▁guest~~6158
▁inches~~374
▁Code~~3375
."~~225
diagn~~11411
ience~~3139
.:~~15934
▁Vel~~16539
reprene~~11802
▁limb~~13168
.?~~6249
▁empty~~685
mach~~15465
▁Ho~~16016
▁vol~~6443
▁ordered~~11675
▁wack~~15317
▁distribution~~4714
▁prey~~313
▁Daw~~8721
▁Fore~~11348
▁Ford~~11213
▁unfortunately~~4470
▁pres~~895
▁prep~~3418
▁Form~~14012
▁prev~~14686
▁Bert~~13936
▁Sergey~~7666
▁hypothetical~~11122
▁advertising~~12195
▁decided~~3306
▁prem~~3852
▁prec~~5243
iculture~~9666
acity~~15575
reen~~9363
▁pred~~6386
▁substant~~13296
▁Sweeney~~17594
▁DVDs~~15141
▁bank~~11099
▁basket~~6347
ute~~2726
▁bang~~3945
uth~~14548
▁band~~276
osmet~~13499
▁imper~~9405
uts~~10069
▁architectural~~8291
irmed~~8016
utt~~14439
utz~~14091
▁horizontal~~8864
▁Afrika~~14022
▁loo~~11817
▁layer~~3175
▁annivers~~13546
uber~~11440
ubes~~3837
▁Stuart~~13482
▁investigating~~13290
▁emphas~~7603
▁Pand~~10840
▁static~~5885
zure~~16884
To~~2708
▁done~~1535
▁scream~~7633
Th~~8439
▁entertainment~~10135
Te~~16029
uben~~17408
▁ooh~~14298
▁abusive~~14494
▁missing~~5636
▁airplanes~~10370
▁Tesla~~15706
▁guidance~~10907
▁includes~~8588
▁extract~~12141
▁leap~~6817
TP~~15493
nam~~14782
▁Have~~4920
▁disturb~~11409
▁lean~~6392
Alla~~18211
▁leak~~8642
▁lead~~5718
▁leaf~~6145
▁voy~~16215
▁included~~9795
▁Remember~~1862
▁although~~2316
▁Human~~11619
AC~~7463
veled~~14957
▁nud~~8838
▁ritual~~13513
weise~~17796
ases~~1440
aser~~16216
▁surprise~~1015
▁Pepsi~~686
▁nun~~14542
▁automobiles~~9822
▁1900~~13126
▁nur~~5622
est~~37
▁TEDTalk~~10610
▁Penel~~8564
▁finds~~7534
▁Alexis~~9190
ased~~6175
▁convert~~6137
ructive~~14917
e~~4522
Ad~~17031
▁superior~~5729
▁unfortunate~~10311
quently~~6710
▁fog~~11165
▁One~~469
An~~2835
▁Bit~~11297
▁INCRA~~18201
As~~6327
Ar~~9471
▁washing~~12685
▁Bits~~16870
▁histor~~8015
▁algorithm~~8303
cribe~~11994
oop~~4554
▁spin~~9294
▁Lay~~16856
gs~~5628
gr~~672
▁figures~~3804
▁Joe~~12288
gy~~1559
▁whis~~14680
ge~~1554
▁Mike~~7331
ga~~10394
▁mapping~~5637
go~~2157
gn~~17052
▁cult~~6674
gl~~4762
▁figured~~3946
▁Facebook~~3615
▁explaining~~2669
▁revealing~~5444
▁solved~~3320
▁neighbor~~9851
▁Already~~6170
aria~~15416
▁Ente~~17134
▁Station~~13080
▁impaired~~8661
umble~~7389
▁pushing~~9479
▁resident~~3871
▁ru~~8794
▁mathematical~~7856
▁CAPTCHA~~16799
▁paintings~~2480
▁recycling~~13370
▁terr~~8384
Now~~10657
friendly~~10018
▁bun~~14682
fly~~4894
▁pro~~2746
▁increasing~~3378
▁got~~76
▁Make~~3555
▁Speed~~7200
▁goo~~1312
▁opera~~3642
▁Virgin~~16829
▁fash~~15363
cellular~~13214
▁Lak~~7321
▁god~~6051
▁sculptures~~13862
▁mitz~~8984
▁planning~~6933
roke~~7232
▁articles~~10671
▁augmented~~8034
▁hallway~~10896
atable~~14677
▁inventors~~10625
▁mesh~~13974
▁Cr~~12501
▁engag~~16917
▁slower~~6676
olar~~13228
olas~~17480
▁Able~~14019
▁Heroin~~17570
▁view~~411
▁reliable~~6428
▁Univers~~14939
urch~~10114
▁Malawi~~13163
▁Stock~~16689
▁dumped~~791
▁anten~~15918
▁Hybrid~~17248
▁trivial~~5089
▁emphasize~~9075
zi~~11740
▁celebrity~~12409
▁triumph~~6258
za~~12737
▁connections~~10191
▁liter~~11242
▁Amt~~17788
zy~~3714
zz~~6823
oder~~7586
zt~~9721
▁outcomes~~1707
▁leading~~4427
▁beginnings~~11230
▁Interface~~11290
oking~~4357
▁Vict~~16686
▁flog~~16480
▁exhib~~9296
▁ears~~368
▁improvisation~~14705
▁Sala~~7963
aining~~7491
▁150~~248
cell~~3857
▁15.~~12371
▁15-~~1627
▁15,~~11498
then~~13679
▁democratic~~13841
▁earn~~3059
;~~951
▁electric~~4105
▁joining~~12001
▁director~~2448
▁respiratory~~14745
▁shit~~6898
▁Cra~~4270
▁subsid~~2101
▁ship~~5017
▁Reporter~~10639
▁energy~~581
▁Foot~~12493
▁moist~~10074
▁absolute~~11532
▁shif~~18130
▁Cru~~12652
Our~~8686
iable~~9899
▁Sand~~8688
▁Sec~~16288
anies~~12379
▁Leon~~15702
Ich~~14087
▁Food~~6664
▁obese~~4688
▁seats~~5875
▁pull~~2403
▁pretend~~5902
fle~~14017
gent~~11593
▁Sang~~16444
▁messen~~1547
▁Britann~~14508
▁collaborative~~8180
▁Michael~~8282
▁Bible~~3368
gend~~10231
ule~~11186
▁puls~~10190
istence~~12145
▁agric~~17069
▁threw~~12415
wid~~16789
▁extremely~~4868
▁globale~~18251
ogether~~16286
win~~11618
▁embrace~~2024
▁Balk~~10474
▁aerial~~14466
▁floating~~4353
▁tubes~~9386
▁three~~337
wis~~16712
▁larger~~3800
▁Having~~9492
▁Source~~17625
▁calc~~17560
▁organizing~~12497
▁lands~~10972
▁Near~~4696
icular~~8693
ötz~~17792
▁consistent~~4971
▁student~~1815
▁Christian~~4138
▁embracing~~4694
▁kidneys~~13502
▁Puff~~7181
▁significance~~10133
▁Nash~~3996
▁Before~~6994
isan~~12494
▁attra~~309
▁However~~7108
▁Zw~~15056
ien~~6872
weeney~~8966
▁separated~~4540
▁gross~~6350
▁codes~~11301
▁Mahatma~~13577
▁autonomous~~15157
▁17,~~8436
▁Billion~~17180
▁Ze~~11202
boards~~13270
▁perfe~~14409
quez~~15664
▁Potential~~18038
▁excer~~9476
lapse~~13940
▁presenting~~11478
▁borders~~11460
▁Jonas~~15111
▁biodiversity~~161
▁elephant~~8032
▁zoom~~8041
Video~~17320
▁others~~1620
▁magnific~~16832
▁intention~~9135
osphor~~15973
ricane~~8729
▁SETI~~15774
▁Send~~9029
▁Environ~~12653
dung~~18021
▁planet~~112
▁schooling~~288
▁sole~~8711
▁general~~1564
▁interconnected~~10192
hir~~16112
awater~~17364
wandering~~13291
▁icon~~461
▁becomes~~3810
▁Hannah~~17227
▁woo~~15474
▁Solar~~14147
▁motor~~10487
▁deficit~~11127
▁granted~~106
▁corpor~~16730
falls~~16246
▁kindness~~12033
▁through~~362
▁Brasil~~17330
eit~~11259
anthrop~~10119
▁existent~~17820
▁Allan~~16809
▁argued~~11054
▁creativity~~1065
▁Lake~~6483
▁obstacles~~5480
HIN~~16957
▁places~~166
▁Spra~~16676
▁poems~~11141
▁detect~~11481
▁tier~~7416
▁firmly~~7191
▁Stick~~16465
▁characters~~3832
▁bike~~3009
▁tied~~5835
▁music~~879
▁Talent~~16025
▁connecting~~7412
▁placed~~8272
▁adolescence~~14191
ired~~2993
▁approached~~8597
uelle~~18095
▁thinks~~5538
▁plane~~2279
▁tax~~1881
▁appropri~~10780
▁Materials~~10023
▁toilet~~5154
▁tap~~3721
▁tat~~11262
▁Hopkins~~13147
▁plant~~4420
▁tak~~4537
▁tal~~17345
▁plans~~9947
▁tab~~14321
▁Kin~~17037
▁drift~~16583
▁tag~~2323
▁tad~~15599
▁charity~~11100
▁diagnosis~~6191
▁improve~~1613
▁criticism~~1530
▁Franklin~~6646
▁while~~1688
▁child~~1985
▁approx~~13491
▁narratives~~2531
▁distort~~5146
▁HG~~18116
eins~~14552
▁overhead~~11200
▁tracks~~6467
▁constitution~~10804
▁staff~~6730
▁Children~~5066
▁math~~990
ahen~~13872
▁case~~384
▁gods~~4718
▁singular~~14141
▁than~~167
alence~~16772
▁mate~~8612
▁cash~~3409
▁that~~79
▁cast~~5233
▁educated~~6184
▁driven~~6666
▁note~~887
▁Stage~~9733
▁predicting~~7114
▁Marcus~~12888
▁contents~~11195
▁verb~~7559
▁700~~509
ically~~2654
▁ultra~~10544
frontal~~1333
▁typically~~2014
▁events~~5010
▁whale~~14033
▁vern~~16243
▁Cou~~9902
▁Sufi~~15648
▁vers~~5978
▁Milch~~13025
▁weigh~~1978
▁Con~~3541
▁Com~~5655
▁vert~~5136
front~~12806
▁Hud~~9547
▁very~~188
▁rewards~~8890
ifest~~16376
▁Cod~~13145
▁lung~~5493
▁logo~~4292
▁Rosling~~12267
▁active~~823
▁fate~~5289
▁surgical~~9414
▁realizing~~6729
Why~~3250
▁edited~~14596
▁paralysis~~11821
gely~~10912
▁canopy~~2291
▁beginning~~634
▁poison~~4583
▁lasting~~11497
▁Captain~~11887
illy~~4036
map~~6892
▁wrote~~2171
mas~~3606
▁epiphan~~8033
iology~~7787
▁TED~~13
mar~~10545
▁works~~816
illi~~15992
ateboard~~17104
ille~~11908
▁Again~~3340
▁Green~~10041
▁corner~~5701
▁Hil~~10866
▁panc~~13868
▁stabil~~8487
▁Hig~~11837
ipend~~16627
▁triple~~11938
▁chromosomes~~7097
▁Rockefeller~~14630
▁empower~~1525
▁Farm~~13734
▁evolved~~795
wich~~12906
▁forms~~583
▁animations~~14173
▁His~~5615
▁Hip~~17561
▁crocod~~13166
acken~~15187
▁horror~~8786
spot~~12792
▁disappears~~3809
▁molecular~~9404
▁Designs~~17631
▁professionals~~1306
▁examine~~3267
▁Wort~~15432
ect~~6499
▁photosynth~~12791
x~~8266
acker~~6799
▁happ~~17828
umented~~15671
▁57~~9593
▁56~~12202
▁55~~7754
▁54~~11732
▁stri~~4975
▁Death~~3539
Ja~~18220
▁50~~2592
▁stadium~~4122
▁prevalent~~12017
▁stra~~3873
▁59~~17149
▁58~~8085
itor~~15031
▁friendly~~8923
▁Orleans~~4525
▁overl~~12143
▁give~~717
▁5-~~14358
▁5,~~7201
eters~~9660
▁architecture~~3963
▁challenges~~1792
mag~~12237
▁wearing~~3426
▁certain~~3860
▁offered~~2520
▁generations~~1669
yons~~11011
▁Venezu~~17665
▁Gamble~~16582
▁challenged~~1925
▁Ang~~10619
▁Reputation~~16117
▁Gang~~15325
quality~~7809
▁element~~3414
▁romance~~13414
asi~~18102
▁appreciation~~10529
▁fascinated~~7325
▁microsc~~11475
▁heck~~11485
▁schedule~~1156
▁musicians~~3736
olitan~~13070
▁died~~2813
▁Norm~~7401
▁geese~~14080
▁spiders~~16293
gment~~10342
oice~~8782
▁Nord~~6724
▁diet~~2521
▁testing~~3465
!~~400
▁dies~~4419
urfing~~8844
ultan~~15642
▁pigeon~~12616
▁correl~~12700
▁Number~~9774
▁broke~~7386
bek~~16687
beh~~16118
bei~~16841
ben~~3325
onse~~15522
bel~~13759
▁Patricia~~14931
▁completed~~1639
bec~~12705
▁transformation~~6501
▁Listen~~5841
bed~~2949
bee~~14400
eting~~7461
▁Exactly~~4338
▁propag~~13094
▁Suddenly~~10773
ber~~2237
ard~~2876
▁Ear~~5477
bet~~11169
▁hin~~16804
▁filmmaker~~2526
▁him~~2989
▁hij~~10397
otonin~~15229
▁Washington~~2639
▁respond~~1886
matic~~10435
▁Sund~~9027
Mama~~16150
▁wip~~839
▁hit~~4767
omed~~13180
▁respons~~1907
▁hip~~4116
iba~~14967
▁facility~~5043
▁sums~~4879
▁painting~~7997
ainer~~4518
▁youngest~~9691
▁weighs~~8358
▁collaboration~~1467
▁Barack~~11221
▁enterpr~~12317
ably~~2500
▁himself~~3750
▁fuzzy~~13184
▁cand~~15213
▁slogan~~11803
sequen~~12002
▁farther~~5514
▁rough~~3169
▁Equ~~12441
▁cann~~8825
▁reinfor~~12340
sm~~9832
▁shoulder~~3917
ocratic~~1186
aws~~2764
▁promote~~1332
ingo~~9742
iscover~~1515
▁aggregate~~14317
▁regrets~~10587
washing~~16628
▁Basketball~~18053
▁specialized~~7469
urd~~16659
ure~~2853
urf~~8314
▁Dias~~16249
ura~~3690
urb~~15928
insky~~12367
urm~~11160
urn~~4941
▁superher~~9062
▁bald~~7543
▁terminal~~6527
▁secure~~7243
inde~~3017
uru~~16220
▁deeper~~3797
▁association~~11503
▁exhaus~~12844
urr~~9936
urs~~10392
gest~~4582
▁Brother~~12885
ury~~8207
urz~~16072
▁extensive~~14301
ulator~~9245
▁Somebody~~9507
▁Ver~~15269
▁unexpected~~7714
▁bats~~14258
▁Lama~~10352
▁flash~~9493
▁Emotion~~15026
▁ingenious~~14311
▁frank~~14121
▁Team~~16952
▁Name~~15830
▁Geist~~17789
▁oil~~3154
▁illustr~~5107
▁hardest~~3551
▁Baby~~7814
▁City~~4835
based~~3097
▁moving~~138
(~~16350
lings~~10251
rast~~7821
rass~~10533
ayer~~9350
▁Armstrong~~6115
▁Hut~~10068
ylac~~17973
▁poss~~12261
▁opened~~6556
Stud~~16837
▁protocol~~7393
▁outl~~12812
▁odor~~12684
▁mice~~7052
ingt~~17635
▁possibilities~~8340
▁Georg~~17860
ingu~~15097
▁intim~~13031
▁col~~12694
▁Technology~~2594
▁atrazine~~8568
▁organs~~9628
▁symbolic~~7196
immel~~18145
▁indoor~~15138
▁turned~~3882
gras~~16430
grat~~3597
▁Airport~~7262
▁qualified~~9330
▁ov~~8604
▁visualize~~8672
itra~~16404
ification~~4022
▁continuously~~1318
▁bankers~~11103
▁evolution~~7086
▁engineer~~7477
▁output~~6420
▁vagina~~15030
▁Bene~~16572
▁according~~3617
▁Benj~~13570
▁Sus~~13372
▁Sur~~6186
▁Benn~~6188
▁Redwoods~~17144
▁facial~~12086
▁Messer~~12216
▁looking~~404
computer~~7670
▁Sum~~10090
▁Plast~~4386
▁Jord~~17321
▁connects~~5129
▁metric~~7923
▁Sud~~12151
▁Sug~~16719
▁Suf~~15644
▁contradiction~~14916
▁faster~~1664
▁generous~~10701
▁sleeping~~13398
▁confusion~~8479
▁Brooklyn~~8943
▁Tori~~18119
tend~~12150
Ok~~18131
▁Regen~~14628
state~~9226
▁virgin~~9501
▁magnet~~13220
▁wise~~5930
▁hated~~3248
tens~~1264
▁wish~~5313
▁eco~~9587
aron~~9068
tent~~1063
ken~~7573
▁aggreg~~5328
kei~~17493
▁compressed~~13026
▁Movember~~16045
▁Youtube~~17628
▁Mama~~14021
key~~4930
▁nasty~~6074
▁flick~~11089
▁gib~~11598
kes~~10454
ker~~5246
▁Mamm~~9097
▁gif~~9014
abetes~~16985
▁probability~~3327
▁trapped~~8681
▁commit~~3333
▁serves~~6514
▁anxiety~~11508
▁Like~~5758
ternet~~17943
▁North~~1740
ihad~~16948
▁Prad~~5671
▁geometric~~8319
▁perform~~1671
▁tissues~~7159
▁Pran~~16185
▁regul~~6536
Orig~~13708
▁served~~4623
▁performer~~13608
▁lar~~15273
▁breathe~~5494
▁appear~~7130
▁Roots~~15586
▁Spen~~11590
▁issued~~9324
▁simultaneously~~11406
▁lap~~10415
Fiction~~18017
▁issues~~1883
▁challenge~~1531
untary~~14005
aur~~12606
▁evolve~~3964
onomic~~15423
▁mud~~3152
orie~~4683
▁effort~~2019
iny~~5967
▁Barbie~~16177
▁Ord~~15181
▁Richter~~16433
▁eats~~9589
▁overseas~~15525
quis~~5269
▁flag~~4231
▁130~~2288
▁loop~~4118
▁lau~~10612
▁fed~~2811
▁fee~~6758
cent~~4698
quent~~14848
yal~~2344
▁Sarg~~5323
ulate~~2767
▁13,~~6759
▁trend~~3291
▁headquarters~~12722
▁key~~1399
▁fer~~8465
▁flat~~4028
▁Given~~2547
▁few~~2213
oth~~6764
▁immer~~13269
▁Lass~~13515
▁1.5~~7803
▁collection~~10687
ickets~~8071
oto~~12154
ota~~10526
▁Nicole~~9231
ote~~7075
▁creation~~4146
pie~~7976
▁branch~~8243
▁engage~~2926
▁theoret~~9167
▁Kern~~17831
▁tomorrow~~886
▁reduction~~5584
▁destro~~14580
▁cricket~~16600
ots~~3831
ott~~4452
▁immen~~10433
And~~4281
▁firing~~7676
▁January~~7739
▁Once~~2932
rence~~14817
▁exhausted~~8476
▁Ug~~17536
▁bloss~~14195
heads~~13390
ownt~~17093
▁Brazilian~~13313
▁input~~3912
▁doubt~~5736
▁Bonnie~~15355
▁cement~~10035
▁geschützt~~17798
▁triang~~10213
ini~~7932
▁corals~~15421
▁alarming~~13434
▁Virtual~~8056
▁exquis~~9357
▁piss~~10831
▁Anwar~~16586
▁deck~~13440
▁memes~~15007
You~~3029
ibr~~13999
otyp~~15090
▁Spin~~16113
▁sick~~954
oughs~~9077
asant~~14167
▁estim~~9591
agra~~17120
adows~~12914
▁pricing~~12470
▁TB~~15281
▁2015~~16110
oons~~12187
▁defe~~6303
▁slow~~1480
urable~~2116
party~~14576
▁shelf~~9046
▁inmates~~8227
bein~~12679
▁Spir~~15035
ahren~~17640
▁helic~~10984
▁Guatemala~~16044
▁camera~~635
▁Saturn~~8809
▁drinking~~4063
fol~~10563
▁gotta~~8972
ieties~~13298
anks~~2904
▁concentrate~~4575
],~~3653
isco~~9725
lymp~~17028
▁degree~~543
isch~~5261
keep~~12401
rift~~16964
▁chick~~4502
▁cul~~5434
▁categor~~11611
i~~1093
▁piece~~2899
▁cub~~8823
well~~2615
sche~~17481
welt~~17047
▁cup~~9477
▁cur~~2561
ified~~2525
▁cut~~4983
/1~~11264
▁reserv~~5604
pense~~13473
▁partnership~~5505
erve~~11796
▁advances~~7015
▁certified~~4590
BA~~15657
onde~~17036
▁Pakistan~~5703
▁select~~2043
BM~~15081
▁gram~~9605
BI~~17451
▁cards~~6846
dose~~5794
onds~~13016
▁Times~~7758
▁harder~~4815
▁advanced~~3537
aning~~3197
▁incom~~18183
ensive~~16612
▁orch~~10973
ocative~~6886
▁gray~~12932
eline~~9325
Be~~9088
▁Janine~~17291
▁Reed~~14222
▁mars~~12918
▁satisfied~~14623
Bl~~8100
▁trailer~~4933
▁twins~~14458
\~~17531
▁Dub~~17198
▁circuit~~12779
▁Without~~3195
Br~~13112
▁Eli~~11279
▁icons~~9809
▁facilities~~8153
▁squid~~350
iovascular~~18066
imes~~5073
ureka~~14510
ledge~~11785
▁capable~~1998
▁routes~~4629
▁Plus~~15236
▁Puber~~17956
▁spoken~~8902
imee~~17457
▁dick~~13422
▁Instrument~~15662
▁charge~~5376
▁empowering~~11482
▁smartphone~~7912
▁veh~~16147
▁Brooks~~12265
alysis~~13231
▁engaged~~3660
▁serious~~1079
▁Democratic~~6860
▁survivors~~2858
▁sur~~7499
rott~~6750
▁orders~~5998
sized~~4053
▁battery~~6028
▁capture~~6563
▁sum~~6682
▁21.~~11697
▁sun~~578
▁suc~~15042
▁sub~~381
rote~~9086
page~~12230
▁sug~~607
▁pot~~9708
▁Ik~~17450
▁pop~~4144
▁Columb~~8382
▁breath~~7203
▁pos~~13580
▁Israel~~2804
▁pedest~~13771
▁effect~~3650
▁quer~~16774
▁modern~~4630
▁successes~~9447
▁calculated~~6456
▁traces~~10123
▁pol~~4467
home~~5465
▁Glass~~7668
mother~~13464
▁differently~~1860
▁immigr~~1892
▁disapp~~17280
ubs~~12045
wned~~4069
▁wires~~5118
▁Better~~13629
▁CEOs~~12304
▁Ele~~9824
▁duck~~15969
iese~~18109
▁Mell~~16800
▁wired~~7483
▁Animation~~16710
▁kilos~~8359
?~~254
▁unsustainable~~4695
▁Genome~~11668
▁cotton~~6092
▁hidden~~2780
journal~~17151
rock~~8577
ocated~~7361
Up~~4528
Um~~11016
▁Rel~~15454
▁astonishing~~3095
Un~~9517
▁observing~~3752
▁alarm~~7629
▁crushed~~5871
▁Vol~~12274
▁patents~~9312
▁particular~~3294
▁late~~4239
▁Its~~2505
▁Curt~~10240
▁Programme~~17636
▁separate~~4465
▁grace~~369
▁shout~~12155
US~~13625
▁Together~~10698
onder~~13153
▁thinking~~1375
▁bott~~12055
mudd~~17293
ervat~~16592
oring~~6741
▁vicious~~10395
uba~~16438
py~~16564
▁Ariely~~3212
▁ignored~~13125
▁fundraising~~10083
▁Tests~~16988
▁Koch~~17883
▁worms~~590
▁cyber~~7332
▁Seid~~18166
▁nets~~5591
▁factors~~962
▁Ir~~10803
▁prepare~~5900
▁seemed~~4210
essor~~16511
▁twenty~~15457
▁interesting~~489
▁arab~~4676
▁Rule~~15343
museum~~16968
▁similarities~~9735
▁distribute~~8922
▁letting~~1085
pa~~10046
inner~~8130
▁7,000~~2752
▁Bruno~~9675
▁tested~~11449
Plan~~12559
hy~~6078
▁finished~~2575
hr~~1348
▁bluefin~~7425
▁running~~1102
▁hero~~2653
ht~~7652
ades~~9496
hh~~12157
▁expectations~~6413
hn~~12681
ho~~11046
▁discovering~~5236
▁bridge~~7691
ola~~12064
itable~~11672
ha~~1939
▁cellular~~11973
▁complained~~13646
cting~~310
▁Grow~~5725
▁contributions~~10312
▁Honey~~14974
▁IM~~15296
▁join~~2578
▁therefore~~6383
▁designing~~4986
▁Bion~~4410
▁agricultural~~6416
phase~~17383
’~~7937
owing~~9120
▁random~~9128
▁Our~~1416
piece~~4819
▁Sach~~16599
itiv~~15715
▁crosses~~7899
▁nuts~~9678
▁reached~~8433
▁advantages~~9577
▁Sheryl~~16840
▁Stre~~16362
▁Shr~~11556
▁perspect~~14421
▁Stra~~4607
▁Nigerian~~7698
erin~~17199
▁shallow~~7219
▁excited~~3184
▁consc~~13884
▁9/11,~~16131
▁slave~~11332
▁graphics~~8850
▁asthma~~8580
erie~~14806
▁overcome~~4000
▁reforms~~6414
▁astronomers~~11004
▁wind~~3129
▁wine~~3023
arre~~17491
▁Brian~~4616
acle~~2454
▁celebrating~~1418
▁strengths~~7336
▁standing~~184
▁mult~~6131
heric~~2134
▁Wor~~16924
▁wins~~7517
▁Eisen~~12663
▁environmentally~~13213
▁knock~~9193
edian~~7248
▁Gaza~~11676
▁College~~8092
▁belly~~5955
star~~5843
ocol~~15380
▁clients~~4234
ients~~12358
▁frontal~~8517
stag~~16864
stad~~16518
▁describing~~14110
▁Note~~17157
▁Maps~~11909
iente~~3998
▁Eighty~~12381
stal~~5840
N~~3015
▁communications~~7449
▁Ther~~15869
hne~~7720
ieve~~12982
using~~6080
▁They~~262
iode~~17825
▁decades~~5602
▁biases~~14356
▁critic~~1706
akthrough~~16345
▁Zer~~10116
tten~~17112
portion~~13789
▁editors~~8959
▁designs~~7375
formance~~15285
▁Them~~7263
▁gorge~~17289
▁Then~~3049
▁Val~~8920
▁Diabetes~~14627
▁threats~~11091
▁Research~~4347
▁share~~1586
inning~~5358
▁shark~~12453
▁Millenn~~16310
asure~~12406
▁enable~~2057
▁bumps~~13406
▁conduct~~3880
▁sharp~~12303
gested~~17030
ansion~~17659
▁outdoor~~3970
▁Sexual~~17957
▁Var~~15504
▁morph~~5159
▁prin~~15238
▁prim~~3593
▁hypothet~~15489
aud~~10898
aug~~13122
▁exponentially~~9621
▁argues~~6895
aum~~13852
aul~~15414
pped~~4613
▁experimen~~13603
aup~~18080
aus~~7183
usive~~7568
aut~~6969
▁call~~536
▁calm~~8278
pper~~9769
uity~~8945
▁Gehry~~12188
▁squ~~1059
▁larvae~~14418
▁Neil~~8940
raising~~13363
▁email~~3581
cepted~~9568
▁'50~~11446
▁Matthew~~12612
▁7,~~15911
▁approaches~~5652
▁Comic~~15164
▁whoever~~12883
▁ghost~~11517
▁incomp~~9989
▁pessim~~10629
▁Wurzel~~17426
▁Dop~~15571
▁shap~~17359
▁camps~~8445
▁shells~~624
▁body~~745
▁Dow~~14855
▁income~~12282
▁laid~~2122
▁Dom~~16726
▁Don~~3558
▁studio~~6586
▁young~~1673
▁Dod~~14793
ups~~8660
upp~~6069
▁Dog~~9140
▁Vert~~18207
▁libr~~14829
▁soul~~7346
force~~5452
▁breat~~7651
enth~~11610
▁students~~1698
▁Republicans~~9690
▁bubbles~~1812
ents~~540
plet~~11270
▁nein~~15594
▁bread~~8129
▁Tech~~10876
cence~~13971
enty~~14873
▁Morgan~~16373
▁break~~937
▁save~~5288
▁soup~~4560
▁Charter~~14624
nel~~5883
asil~~18146
▁trust~~1522
ned~~1878
nee~~9542
▁absence~~6424
▁expressed~~10806
▁useless~~11030
▁Collider~~15463
▁jeans~~9998
ney~~2722
▁zer~~12817
net~~11383
▁shaping~~10288
ner~~1558
▁hopes~~6335
▁sections~~3944
▁collect~~669
med~~5716
▁rats~~1258
centric~~10902
▁cr~~683
mel~~5913
men~~3047
▁cy~~6119
▁catching~~7028
▁surge~~13359
▁ce~~5559
met~~13444
▁county~~14789
▁rate~~6865
mer~~9257
▁counts~~2012
▁cl~~694
▁co~~2086
plex~~14043
▁ch~~537
▁Galileo~~14199
▁yesterday~~4422
▁Story~~6626
▁Kong~~12228
artment~~13822
oman~~9722
▁Pent~~15310
▁Bronx~~5724
▁Eric~~3519
▁happier~~1429
omat~~8617
omas~~17736
dro~~12825
▁stands~~8643
dra~~7077
▁Natalie~~10045
▁Pittsburgh~~3429
▁traject~~7035
▁Pend~~15971
▁messy~~6122
▁concentration~~8519
▁altern~~14031
▁proced~~17010
▁physiolog~~9137
▁road~~5566
▁Francis~~9726
ippe~~16857
moral~~16523
▁tempor~~10696
org~~13289
▁Caribbean~~433
▁Version~~17027
▁dialogue~~9734
tels~~17542
▁Impl~~15772
rix~~15601
▁batteries~~8735
▁rebell~~10462
▁schn~~17721
antage~~1894
▁Luck~~15866
▁labels~~10431
ellow~~17333
▁equals~~5829
▁glucose~~16009
▁infer~~11424
tell~~12429
▁whenever~~9973
▁fabulous~~10980
Ste~~9746
▁Kupp~~17467
▁flies~~2286
lungs~~17906
▁pursuing~~8883
▁calend~~13874
wart~~16460
▁dot~~715
▁dou~~6564
▁cause~~3417
▁intentions~~3284
▁Lion~~13442
▁Mald~~16440
ivation~~4840
osp~~13532
▁dom~~11763
▁don~~413
V~~6767
warf~~8441
▁vastly~~15134
ward~~2617
ware~~12867
▁burden~~8720
▁dog~~4848
▁Force~~5877
rochem~~14663
oler~~16617
oles~~1973
▁delivers~~3926
adem~~16351
▁Michigan~~6484
spec~~11615
▁Dawkins~~16411
▁networks~~4854
▁analy~~14877
▁Date~~16939
▁light~~285
▁doors~~5155
▁utility~~4974
▁episode~~10538
▁seek~~14462
▁mixing~~8917
ikaner~~13003
neum~~17393
enium~~13828
▁talks~~2988
▁11.~~10410
▁11-~~12772
▁11,~~12643
▁reflects~~14056
▁110~~3132
▁wort~~10684
rid~~12699
▁caves~~12291
aging~~6957
agement~~16140
▁resistance~~10399
▁indicates~~14035
quot~~17223
endent~~4823
▁dealing~~1432
▁coined~~11614
▁marvel~~5471
▁neuroscient~~8539
▁Thomas~~4191
▁implant~~14320
▁TBP~~15427
strom~~5268
▁fungus~~15000
▁saying~~850
▁Gig~~15808
ForShe~~18107
▁crow~~10828
▁Internet~~1205
ologist~~6284
▁item~~6088
▁skip~~8821
▁skin~~5005
▁toilets~~8792
▁cases~~454
▁accumulate~~6977
ove~~1412
▁Andy~~8555
▁applic~~9847
▁potent~~5546
▁expose~~10163
▁crops~~2205
▁definitely~~5728
▁trials~~2425
▁Bez~~15450
ativity~~17745
third~~4572
▁interactive~~8175
▁date~~5461
▁escap~~11272
▁data~~403
think~~12060
▁conspir~~12597
▁Griff~~15151
▁escal~~4655
osaurus~~12585
▁fingers~~3718
▁fingert~~5100
iences~~12673
apse~~14449
▁chop~~13058
▁Patri~~14341
opes~~9572
▁Hospital~~3779
▁convin~~17006
▁cous~~15844
▁cour~~12994
▁refuge~~16445
▁promised~~4814
▁coun~~10861
▁statistically~~13545
▁vivid~~8022
▁mutual~~15367
▁promises~~6043
▁luxury~~12301
ructure~~7968
▁choo~~13328
▁heritage~~7985
▁squared~~15977
▁BP~~15479
personal~~16355
▁Smart~~16065
▁assumption~~10558
,~~27
▁slip~~5890
▁Extra~~15896
▁squares~~11392
▁Vill~~16722
▁inexpensive~~13738
▁avail~~14013
pass~~11181
▁Element~~17029
oole~~15684
ises~~6713
iser~~14707
anim~~11734
▁teeth~~7561
▁speaks~~2634
▁marathon~~10330
▁Nik~~11115
▁chapters~~2317
▁Airbnb~~14875
ania~~16071
▁digital~~6014
▁Gore~~12481
▁Zone~~17189
crib~~14148
▁ironic~~8791
ised~~7877
one~~3845
isen~~1663
▁fatal~~6234
▁pedestrian~~14944
▁religions~~10763
▁content~~3497
bons~~11599
wend~~17895
▁counter~~7303
▁towel~~6610
▁labor~~6390
▁tower~~2276
▁cannot~~820
▁anatomy~~2370
▁Abst~~18071
▁Anyway~~4764
break~~8753
▁mythology~~11212
▁counted~~659
uated~~10106
side~~6938
bone~~8876
▁predator~~7569
▁slowing~~6654
▁These~~274
afel~~17436
ieval~~14654
Wow~~10584
▁operated~~15578
▁cym~~17742
▁rug~~10725
▁certainly~~3188
▁Stefan~~13238
▁faint~~9412
▁pointing~~8771
▁example~~960
urers~~15170
▁achieved~~1930
▁BM~~16743
▁productive~~4708
▁camels~~14558
▁chaotic~~14217
▁logarithm~~15852
▁curiosity~~3495
Ge~~16678
▁restaurants~~7276
▁assign~~7816
▁since~~1796
▁refugees~~9905
plete~~12483
▁banjo~~16759
▁passes~~1122
▁swe~~3366
city~~7738
utch~~8814
▁things~~253
▁Babbage~~12526
▁Beijing~~10422
▁boards~~8271
▁passed~~3396
▁IDEO~~15202
▁Transition~~13337
▁users~~8874
▁passen~~4782
▁unlock~~3634
▁Danny~~16030
▁identify~~5407
▁Stress~~18205
▁divided~~1827
▁Rather~~9367
iss~~10915
▁simulated~~12753
▁Finan~~17760
isp~~2857
▁colleagues~~1384
▁fellow~~6083
ist~~2335
isk~~12180
▁evol~~5969
ish~~4511
▁neural~~1324
ism~~522
isl~~11104
isc~~10749
▁wasted~~1766
▁gold~~9620
isf~~7110
ise~~3990
▁Ushah~~17626
▁Rob~~8456
▁outward~~14366
▁strangers~~10300
▁partly~~9022
▁pay~~1981
grade~~4384
▁models~~2247
andin~~11645
▁par~~2484
▁adjust~~5869
▁pan~~6559
▁pal~~2533
▁Eng~~17020
▁daily~~4625
cher~~12471
▁pad~~6071
iling~~6757
▁pac~~5437
hood~~5743
▁Rog~~16970
▁transmitted~~8541
OT~~14499
▁flourish~~10305
▁damaged~~9543
▁Ment~~4380
▁Modern~~11205
▁reflective~~3177
▁planted~~11870
▁smooth~~3172
▁prosper~~15545
▁edges~~8321
▁ambitious~~2034
▁accompan~~5182
▁vent~~494
growth~~11228
▁Sich~~10093
▁diam~~15512
uable~~17751
ronym~~15074
▁Ba~~4441
▁surviving~~10817
▁exposure~~8627
▁enhance~~14906
▁Slow~~6660
▁concent~~15247
olester~~16342
▁Bo~~9069
ference~~6991
▁neuroscience~~10229
▁chemist~~2135
steins~~16544
▁instances~~7974
▁pupp~~8007
▁version~~8919
▁advoc~~9446
▁Cheryl~~17584
▁Georget~~17856
bits~~11237
▁sees~~3183
▁musical~~1307
▁shows~~1667
▁shown~~1070
▁couch~~2393
▁upset~~10621
▁seem~~4009
▁finite~~6643
▁Toyota~~11281
▁seen~~82
▁Prince~~3668
▁seed~~12095
▁children~~1765
▁Ireland~~7440
▁Exxon~~15481
▁trait~~13886
▁2012~~11767
▁textbooks~~9980
▁crowd~~10873
▁mammography~~9307
mind~~9753
▁fell~~5087
▁Kanzi~~17933
▁keen~~9713
▁aff~~9099
▁keep~~3564
▁biotechnology~~9204
▁achievements~~14995
▁felt~~3476
▁AV~~16370
▁train~~1100
▁opp~~9804
▁trail~~4985
▁nerv~~15124
▁opt~~7414
▁oven~~13512
inie~~16741
▁arch~~319
chem~~10466
▁fence~~12348
▁noticed~~3757
ighten~~13037
▁victory~~6300
▁invented~~1713
chest~~17664
▁upward~~10711
▁definition~~764
▁Oakland~~8713
▁dinosaur~~12580
▁over~~430
▁axis~~504
▁brings~~3785
abelle~~8116
▁Book~~9024
▁tune~~8829
oft~~17166
▁Diego~~7984
▁girl~~4249
▁15,000~~2185
▁Kenya~~11304
▁Rest~~13087
▁ban~~9171
▁Resp~~11527
▁NASA~~7660
iterate~~10707
▁census~~15365
▁stroke~~3821
▁99~~5583
▁98~~7911
▁unit~~7429
▁Morton~~2124
dom~~11049
▁angles~~6809
▁ensure~~2090
▁90~~2560
m~~62
dog~~2629
▁95~~5674
▁94~~13752
▁prosec~~15638
▁precon~~8292
usters~~280
▁9.~~12486
▁joke~~4839
nder~~17571
▁rediscover~~1502
▁Set~~17554
▁unim~~5139
▁unin~~4445
▁spra~~5059
kut~~17244
▁escape~~4970
▁Prote~~12718
▁senior~~6015
▁welche~~17799
▁draws~~1644
▁scal~~13596
▁Proto~~16036
▁Independent~~1489
▁opposition~~10441
▁focusing~~8536
▁freeze~~11940
▁feature~~1872
▁2011~~16552
thirds~~9335
▁cameras~~201
bsites~~17226
▁will~~649
▁bri~~16051
▁Japan~~2005
▁Fil~~10500
▁recess~~1151
▁wild~~4593
ama~~8381
▁afford~~1775
athemat~~16956
▁observations~~10255
▁Maitreya~~14614
ctors~~6381
▁Alask~~17573
▁Kunst~~17459
▁wrink~~17073
hent~~16904
▁absurd~~888
▁dial~~6528
▁Mark~~3085
wers~~12935
▁Marg~~15469
▁Amsterdam~~16403
stop~~9478
▁gene~~1103
▁transported~~4638
▁Hubble~~14213
ston~~5099
▁stressed~~9878
▁Marx~~10504
▁Mary~~11722
▁highly~~1982
▁Mart~~9095
quarters~~11968
▁sorry~~1169
▁genu~~6904
▁profession~~1836
▁drinks~~10615
▁speaker~~9706
▁soccer~~1364
child~~13475
bar~~10532
bas~~5241
▁300~~333
▁employee~~14835
▁employed~~9770
▁exceptions~~10336
bad~~6803
▁virt~~3639
▁Inf~~17336
▁versions~~3279
▁volume~~3999
iety~~13762
ban~~2435
▁pharm~~6877
bal~~11128
▁remind~~3439
▁bombard~~13966
iets~~12781
▁brown~~5131
▁Hillary~~6116
▁suic~~14768
▁like~~126
▁Indonesia~~13169
▁puber~~17958
▁bodies~~7206
▁suit~~3283
▁Apple~~10703
▁50,000~~3148
▁Problems~~12173
▁Prize~~7122
▁Business~~991
▁observe~~3829
▁lear~~16660
▁FOXO~~17697
00~~10712
▁floors~~8973
▁reflect~~5970
▁renew~~14517
▁je~~5802
▁WorldWide~~17873
▁Wann~~17930
▁desperate~~6672
▁villages~~8714
▁supports~~568
▁Wang~~15534
0.~~4780
0,~~353
Form~~15999
▁ing~~16149
omb~~7479
C~~2166
▁Dia~~17861
▁death~~305
▁Did~~3137
▁Die~~15083
▁personal~~1544
▁secular~~2489
▁scripts~~15668
omm~~15920
▁richest~~2567
oms~~2619
▁Dis~~8751
omp~~6415
adian~~10715
▁Box~~16100
▁romantic~~12037
▁Neanderthals~~11652
omy~~5521
▁professor~~6157
ometown~~17630
▁spreading~~8543
uns~~12456
unt~~6446
▁leather~~10679
▁jury~~6691
▁Each~~2898
▁universal~~927
1-~~13160
▁principle~~2674
▁ultim~~11263
▁mistake~~4515
▁needle~~13183
una~~14608
ulous~~13883
und~~7537
une~~7784
▁Palm~~15893
ung~~8880
unk~~8110
▁stepped~~4951
▁encountered~~12778
▁Pale~~10118
▁lake~~7188
▁Remix~~14333
▁humble~~8862
▁Batter~~12915
▁disappearing~~7342
▁exquisite~~6332
cyclop~~14507
▁crowded~~12136
▁entered~~1484
▁employ~~1487
▁Band~~3236
▁poetry~~6315
▁Teen~~9689
▁rural~~2548
▁legs~~3290
relig~~15951
ether~~15244
▁reveals~~7546
itions~~1964
▁India~~5598
▁politically~~13402
▁contribute~~7508
sal~~14299
▁inten~~7445
ting~~3187
▁inter~~2986
▁Dennett~~14089
▁grounded~~14048
interest~~9329
▁dolphins~~16543
▁Tyrann~~12179
▁supern~~13915
▁wandering~~4750
▁server~~13721
▁traff~~13563
▁as~~222
▁ar~~4043
▁Ellen~~10497
▁aw~~3573
▁av~~7255
▁au~~8994
▁at~~121
CA~~5373
▁ax~~13885
▁medic~~14933
CE~~5090
▁media~~1988
▁ac~~6696
▁exactly~~1849
▁Monster~~14286
▁ag~~6964
▁af~~14804
▁coding~~3916
▁ad~~5836
▁ak~~12063
▁Avel~~16735
▁medit~~10353
▁helps~~5860
▁an~~388
▁am~~1326
▁al~~4487
figuration~~3542
▁owns~~5015
▁blown~~8455
Ch~~2331
▁Unfortunately~~5415
▁USB~~16327
Dollar~~16994
▁damage~~6604
▁argue~~2103
▁County~~11948
▁tangible~~14909
Cs~~8885
▁formul~~16088
utical~~16695
balance~~8613
▁implic~~12763
▁fo~~7554
▁marry~~10574
ix~~6221
▁addicted~~9045
▁plan~~4849
▁Scottish~~12184
ustain~~14422
ip~~2865
is~~2685
ir~~2584
it~~2724
▁spot~~2375
iv~~1405
ii~~14283
ih~~12747
ik~~9698
ij~~9601
▁play~~906
il~~904
io~~2582
in~~2365
ia~~908
▁rock~~721
ic~~789
ib~~2665
▁careers~~1920
id~~1950
ig~~1146
if~~3385
▁gem~~9519
▁gel~~10901
▁geo~~13116
▁gen~~2509
▁privat~~16193
▁entr~~8739
▁did~~561
▁die~~4323
▁candy~~12345
▁delighted~~11315
▁Bush~~7782
▁dil~~5264
▁Forty~~13300
▁dis~~670
▁Gisela~~18135
▁div~~15196
emes~~13366
▁antidepress~~16911
▁get~~195
▁crows~~10809
▁stepping~~8982
▁Instr~~3672
▁Taschen~~16222
▁ger~~6982
ternal~~13704
▁butt~~13191
elli~~13801
ello~~15970
▁constant~~3884
▁fruit~~11691
ella~~14795
ouston~~17951
ugos~~10463
elle~~2984
▁sque~~9584
▁gradually~~11624
elly~~4913
keley~~17008
▁presidential~~9802
kin~~6067
kil~~5309
▁drivers~~14026
▁discussed~~7751
kelet~~15464
aneous~~8796
▁operational~~11453
▁investigation~~11971
▁message~~928
▁Pres~~4137
▁Pret~~16865
verage~~4428
rome~~13962
▁Prem~~12690
▁baseline~~13894
programm~~14009
800~~11477
▁viol~~7503
▁rises~~14562
▁Pred~~5429
▁electron~~10963
agon~~5956
▁parameters~~13613
▁Teszler~~18043
just~~11026
frast~~12328
isses~~7522
agog~~2028
▁compos~~1963
▁capability~~10942
▁Dum~~14105
▁Clearly~~13668
psych~~15556
human~~9528
▁claims~~5367
▁figure~~2058
▁seine~~17513
yes~~8096
yer~~8284
▁racial~~11138
▁Jeep~~13013
agos~~16439
▁detail~~1830
amour~~11545
ortun~~1760
▁stays~~9856
▁builds~~2313
▁flew~~2782
▁activ~~2390
▁shoe~~12227
▁fat~~9333
▁influence~~7294
▁flex~~2409
condu~~13726
▁far~~718
▁area~~840
▁fal~~11925
▁fam~~12113
▁fan~~1584
▁demonstrate~~7839
▁show~~84
▁shot~~2613
▁ABC~~16701
antom~~18078
▁George~~5197
▁Save~~11337
▁advent~~11872
▁fac~~8289
opt~~11292
▁circuits~~2404
opp~~9650
▁angiogenesis~~17255
assic~~12594
ops~~2796
▁ambiguity~~11509
▁goods~~9739
▁Michoac~~16688
opy~~7990
unting~~6915
▁airport~~4412
ope~~6288
▁club~~9512
▁divine~~10787
▁diving~~7182
ETI~~17689
▁7-~~9096
▁homes~~770
oph~~3744
▁designers~~4264
▁Sym~~3709
bro~~16251
▁Syn~~14455
Art~~11009
▁much~~218
▁bigger~~1260
performing~~1946
▁Square~~11322
Are~~13395
uage~~17722
▁glory~~11554
Prince~~16205
▁Sys~~17749
▁patience~~6612
▁Pull~~14535
▁projected~~6411
▁chat~~5975
▁underneath~~7197
▁chap~~11743
▁benef~~9424
▁char~~6828
▁cham~~15917
▁abuse~~5721
▁tagged~~5455
▁believe~~1500
▁epidemics~~10943
▁Evolution~~1233
▁carefully~~11395
▁exec~~14032
▁Qual~~15275
▁gravit~~11985
▁Rap~~15392
▁gonna~~4280
▁Mathematica~~16771
▁Absol~~17087
▁Quad~~11129
ollen~~12030
▁translate~~1690
▁prescription~~2055
▁Australian~~15677
▁Flag~~11806
▁beam~~7456
een~~17506
▁Another~~6395
▁approved~~9349
▁theirs~~2564
genöss~~17786
▁hammer~~5122
▁revel~~10535
▁sign~~3370
▁Obama~~10869
burg~~3038
▁Village~~12907
stel~~15791
astic~~946
▁Schn~~17653
burn~~11267
▁Niger~~16842
▁warmer~~13643
▁Ans~~15451
▁manifest~~905
▁pays~~5539
▁cables~~7371
▁Schw~~15785
▁traveled~~2803
▁amongst~~2079
▁disappeared~~3393
obiles~~15810
bury~~3778
▁hierarchy~~11978
▁noticing~~10815
zur~~15735
▁kids~~1047
oren~~7944
▁Cambodia~~8213
ored~~172
▁Nic~~14133
▁tuberculosis~~11372
▁14-~~15028
zub~~17095
▁emotion~~3594
▁14.~~11499
oret~~16357
▁76~~6867
▁kidn~~11751
▁Cynthia~~16021
ores~~4667
▁beauty~~6141
▁blindness~~10539
lief~~12549
▁Fiction~~15640
lied~~13260
▁Photosh~~9154
opters~~16002
▁irony~~2532
▁inside~~380
lies~~6070
stall~~16227
▁grew~~2565
ocken~~15242
▁hyperbol~~7790
▁perceived~~13073
agger~~12507
imic~~18214
▁banned~~6087
▁tick~~2954
wa~~12321
imin~~2703
▁computational~~7419
▁York~~4944
otte~~18020
▁Bull~~13554
unters~~17405
▁til~~12170
▁loads~~8365
▁Short~~2662
▁experiments~~8696
▁slope~~12993
▁appet~~2939
▁sym~~10969
bert~~13944
periment~~14803
▁syn~~6801
DNA~~11636
▁flags~~8560
form~~1619
▁too~~817
▁apartments~~9871
▁Denmark~~6727
uted~~4586
kop~~17704
iture~~4942
▁crashed~~11651
▁expert~~3890
▁toy~~3858
berg~~8075
▁agreement~~11362
▁fantast~~13612
▁Flor~~16897
▁top~~427
▁tor~~5079
▁fantasy~~2738
▁tot~~7384
▁tou~~3693
fort~~10448
ique~~11455
▁sometimes~~4007
▁attrib~~8018
▁dense~~587
iqu~~1127
▁academics~~7731
▁Mount~~8419
▁nin~~14742
▁Population~~17343
ulose~~6130
▁evil~~10287
▁gab~~17483
heimer~~15062
▁transformative~~2571
▁drill~~12596
▁Commons~~9778
▁percentage~~1000
▁resolve~~5692
▁Rives~~14284
▁went~~1142
▁shake~~3575
▁Techn~~12200
▁domestic~~6562
▁reconc~~10374
ship~~9714
▁Medicine~~10889
▁butter~~9607
▁analyzing~~14230
▁covers~~3101
▁crawl~~7230
▁pleasure~~4177
▁caus~~12701
▁chart~~1728
▁40,000~~424
▁primitive~~10182
▁Mehr~~17687
▁Blind~~15316
handed~~9807
▁drought~~13008
▁responsible~~9331
▁magnetic~~13717
▁whales~~5389
▁regener~~9564
▁sing~~1311
▁Tweets~~14801
▁charm~~11007
▁harmony~~10467
▁witnessed~~2941
▁langu~~15041
▁SARS~~5588
▁protein~~7105
▁else~~1642
ply~~16090
▁experiment~~3307
▁financial~~2100
sterdam~~18070
▁instruments~~1308
▁painful~~3244
itative~~14095
▁unpredict~~17744
▁Marshall~~9039
aware~~4774
▁violin~~14689
▁Inuit~~16479
▁cre~~6039
▁intrigued~~15109
▁task~~3312
chestra~~15314
erves~~11182
▁poorer~~11363
▁fans~~3545
▁Nest~~17605
▁refined~~3153
▁experiences~~2432
▁ladder~~13720
▁Suppose~~13994
erved~~9780
▁suburban~~13430
▁descend~~12581
▁pulled~~5916
▁idea~~147
▁experienced~~2768
▁Patent~~16018
▁airline~~15453
▁analog~~10012
ishman~~15277
▁tast~~11883
▁dressed~~8472
iously~~1582
▁structure~~2046
▁bottles~~4429
rating~~12862
▁Antarctica~~11647
▁might~~1256
▁—~~3534
▁–~~16343
▁overse~~16059
▁ord~~9222
mile~~425
▁add~~3656
▁ade~~10821
▁orb~~9295
▁Seen~~11086
▁fights~~910
▁adj~~6404
▁motorcycle~~9549
▁wrong~~2777
▁adm~~7743
▁journalist~~4277
▁Antar~~5390
▁Hot~~9112
▁doctor~~1414
▁How~~1037
father~~5221
▁hired~~1524
▁Hor~~12579
▁Hos~~8887
▁Hol~~7689
0~~5861
▁Hon~~2978
▁countries~~1611
▁padd~~3180
▁Hod~~7247
▁relie~~11396
▁phenomena~~12554
▁precious~~8899
▁Hob~~9070
▁practice~~1965
▁private~~3459
▁gang~~9207
▁relig~~10451
▁account~~9815
onie~~17086
ieth~~14914
▁dioxide~~13235
▁bother~~3232
▁quotes~~9370
▁SOPA~~16868
icted~~5825
▁neocortex~~16908
prof~~1209
▁Philip~~12101
▁,~~7725
▁its~~1645
▁problem~~101
▁conservation~~4362
▁Jason~~463
▁expend~~14267
▁4.000~~9845
▁monkeys~~9164
▁precip~~11648
▁Tier~~15701
▁Agr~~9665
▁Hussein~~14621
die~~17421
dig~~8723
▁Energy~~11843
▁tut~~6740
iter~~11296
ites~~5270
▁Age~~6814
▁combining~~1784
iten~~16752
▁execution~~14860
anna~~13876
▁distant~~1623
▁profound~~2570
ited~~734
▁embed~~13731
ries~~10605
round~~5402
dis~~6530
riest~~13681
ville~~3997
▁academic~~2930
▁distrib~~11777
▁abstract~~3266
▁mammoth~~15722
▁bra~~6305
▁Harry~~10276
Test~~17089
▁tree~~8241
▁Pitts~~9101
Gra~~15070
▁Give~~1562
▁wherever~~4289
▁vacc~~5541
▁Femin~~13034
heres~~9227
▁Tibet~~8218
addy~~5750
▁stell~~16674
▁Wander~~16853
▁careful~~2041
▁mixed~~12068
▁nostalg~~8761
▁Math~~13019
▁extension~~6903
▁adapted~~3862
ummer~~9364
▁convinced~~1990
▁dict~~9900
▁supercondu~~17527
▁250,000~~16208
▁sacrifice~~9459
▁openness~~1395
▁30,000~~11799
▁dunes~~12992
▁That~~643
▁routinely~~9425
▁cheese~~12074
▁Cass~~14538
rud~~6884
erm~~5350
▁blows~~9025
▁mortality~~9443
▁inn~~11265
▁restricted~~1215
▁Matt~~13283
▁detection~~9304
▁fully~~7653
box~~4113
boy~~12734
▁sensing~~8430
▁military~~2296
▁procedure~~9567
▁alert~~6608
▁Argentin~~17782
alth~~12575
my~~3008
bor~~4149
bot~~9210
bou~~10513
▁Verm~~11198
bow~~10479
▁Vers~~15694
▁phone~~1202
▁specifically~~4115
bon~~756
▁unreal~~13492
▁swap~~12657
▁asleep~~4916
▁Wur~~9488
bod~~14347
▁ted~~13028
ummel~~18001
▁sta~~12183
▁Wald~~16285
▁lunch~~4776
elect~~13364
iana~~13846
ufact~~12108
▁Hu~~9659
▁hot~~528
▁humility~~7233
▁Sheila~~5810
▁how~~233
When~~4900
▁Walk~~10269
▁hor~~9948
▁Allen~~9038
iant~~3007
▁hom~~1957
▁everywhere~~930
▁traged~~13998
ians~~1018
ailing~~14687
▁Mö~~3546
▁hob~~9018
▁lies~~149
▁mentally~~5811
▁Jew~~14064
▁feared~~10909
▁wake~~1571
▁diamonds~~2819
▁Lippen~~14984
pers~~9916
▁trusted~~7502
▁thin~~7442
▁Alexander~~10766
arier~~17916
aries~~8605
▁grad~~15713
▁EEG~~15729
▁Jes~~17649
▁Nerv~~17894
ays~~4500
ood~~830
▁Africa~~4012
sharing~~14827
▁flavor~~5321
oom~~5278
ool~~8867
▁frustr~~16844
oon~~6003
▁analysis~~1490
apper~~16356
ook~~4553
▁Hy~~7158
▁holding~~1042
oot~~9118
▁pleasant~~1852
▁sympathy~~11326
▁nobody~~3359
▁Dollar~~16326
Ber~~16333
▁previously~~5473
apped~~8047
▁altered~~8762
▁Beach~~4418
▁suppress~~9741
▁teenagers~~2810
▁enabled~~4095
▁southern~~5666
▁thoughtful~~2728
uls~~10378
▁Taliban~~6005
▁mention~~4732
flu~~16290
▁initially~~6524
ult~~6396
ulu~~12473
ulk~~16491
▁enables~~6517
ull~~8977
growing~~10168
making~~1342
▁1997,~~16793
ula~~4532
ulf~~501
uld~~17925
▁pass~~2609
▁Bali~~13389
mented~~1952
▁underst~~9399
▁Intuition~~16883
▁Ball~~9287
▁seal~~15721
▁exciting~~99
▁frightening~~7171
uan~~10094
▁Bald~~13807
agent~~17389
▁found~~799
▁image~~4230
▁tele~~5973
aurus~~15982
▁pioneer~~5238
▁selected~~1234
▁tell~~68
▁rape~~10634
▁size~~1280
▁college~~5185
rays~~9388
▁discovered~~2572
▁recession~~12461
▁policies~~1899
▁philosoph~~2511
ping~~723
▁affected~~1074
▁architect~~7374
▁Simon~~3826
▁Will~~2845
▁shift~~3924
mat~~16720
ena~~11764
▁interact~~1268
erst~~14282
▁Wild~~8261
▁gr~~1568
▁gu~~10208
ioxid~~17620
▁desert~~10148
▁gh~~6960
▁societal~~12349
mad~~4826
▁go~~372
▁gn~~15509
▁fantastic~~3679
▁pants~~5820
▁environment~~343
▁ge~~6816
mal~~493
▁guten~~17424
man~~3083
▁Galax~~14208
omen~~9418
▁Georgia~~12535
geb~~13824
▁Nelson~~11354
q~~10373
▁industrialized~~6504
▁Golf~~17250
▁Alright~~7051
onders~~5460
omes~~8209
omer~~5889
▁exter~~4956
▁territory~~11309
omet~~6251
▁reactors~~15927
▁monthly~~6068
ische~~17787
▁unite~~10924
▁releasing~~5130
▁Sylvia~~5312
▁specialist~~9379
▁Bruce~~5482
immer~~136
▁Mus~~4125
▁units~~7831
enn~~8363
▁tracked~~12845
▁unity~~11709
ourced~~15875
▁target~~11444
estern~~9249
▁Sim~~11585
rh~~12794
▁Rad~~1621
▁mum~~11874
▁Stockholm~~5336
▁envy~~5224
▁Raj~~16780
▁jewelry~~8882
▁vertical~~8865
▁Ram~~10384
gen~~565
▁Cyber~~12859
▁Government~~4888
ollywood~~17537
▁Ras~~9452
▁Rat~~16306
gem~~12199
▁sexual~~5733
▁mus~~8121
World~~5423
▁visually~~6497
▁mut~~2807
▁neurogenesis~~18097
▁organisms~~6989
▁praying~~14318
▁taught~~2021
▁skills~~1262
▁Toilet~~13741
▁coffee~~4316
beit~~13950
anson~~15449
▁larv~~17555
She~~7587
▁vacuum~~15065
iments~~853
enz~~15330
inity~~14839
▁13.~~14698
isions~~12539
▁activity~~567
▁Trick~~17505
▁breed~~8053
ancies~~8706
▁für~~17485
olit~~12689
▁acknowled~~6302
beg~~17703
▁Stan~~15049
ually~~4203
▁most~~38
olia~~8914
▁EDI~~18181
▁reduce~~1943
nick~~14060
▁crossed~~12621
▁40-~~9408
▁40,~~9578
▁DNA~~5149
▁partner~~227
▁fatty~~9338
▁ende~~11377
▁Imper~~16503
▁motors~~7623
▁broadly~~13600
▁addition~~7703
angible~~15816
▁400~~2176
▁pushed~~1911
▁nuc~~17872
▁bonds~~6048
▁restore~~3765
▁groundbreaking~~16257
▁talent~~1652
▁Strat~~16130
haps~~10785
ateur~~17592
▁punish~~11274
▁Keith~~13710
▁fish~~287
▁shar~~14830
▁number~~800
atics~~11061
▁FreeSpeech~~18198
▁clos~~12353
G~~1441
ory~~4439
▁basis~~5405
ort~~5951
▁electronics~~10692
ors~~2806
orp~~12541
▁hometown~~10575
orn~~5805
▁metabolic~~8537
orm~~9319
ork~~11034
orf~~16378
▁basic~~1461
ord~~5927
ore~~4045
orb~~7148
▁hoped~~10661
ora~~2977
▁obsessed~~6595
▁Mich~~4276
ertain~~12525
▁sequences~~13222
▁Lugo~~18170
▁millenn~~6555
▁descriptions~~14250
▁consent~~14717
thing~~9277
▁relation~~11771
▁Tempest~~12235
▁sadness~~11189
▁dancers~~4084
igers~~12741
▁grateful~~10776
▁genocide~~2682
▁conver~~604
▁appearing~~15010
▁dele~~11542
ence~~6935
▁convey~~3920
▁maintaining~~8656
▁Ethn~~17495
▁Dave~~63
▁everybody~~1004
▁mammal~~9160
▁worth~~2274
▁BF~~9467
▁BG~~5705
▁Somet~~17821
afen~~16788
▁BC~~10730
▁imagined~~5296
▁frequencies~~10999
▁BL~~547
.'~~9898
▁BJ~~15938
▁streets~~1687
▁profile~~8454
▁conven~~10862
▁corporations~~4692
▁Br~~7667
estand~~16849
▁replaced~~12455
▁guitar~~11055
▁By~~944
▁Sport~~13813
▁Be~~1080
▁disorder~~12331
▁coordin~~5412
▁Britain~~6913
▁slum~~2614
▁Bl~~7367
las~~8148
▁Bh~~16588
▁Bi~~8362
▁regulation~~9174
anus~~14165
▁idiot~~1196
▁Ven~~13635
▁commercial~~5513
ented~~8964
▁Pentagon~~14989
ighted~~9781
▁1995,~~10076
▁cruel~~4910
▁airplane~~13014
eyed~~5992
▁sensitive~~846
▁cousin~~14547
ighter~~5188
▁useful~~2856
▁submers~~7606
10~~11682
▁wrist~~2862
12~~13683
15~~13511
▁relativity~~13933
▁toast~~15420
▁Fusion~~14465
▁crawling~~774
orge~~5206
▁calendar~~11733
▁developments~~8361
lag~~16914
▁chief~~10588
1,~~4301
1.~~5918
lich~~15915
iform~~10716
▁Secondly~~7062
mitte~~5656
DE~~15292
▁decides~~4318
▁September~~3854
DA~~16284
▁ordinary~~2031
▁bought~~3272
rees~~10557
▁Analy~~17160
▁collaps~~15335
▁heavy~~5863
DP~~15886
Do~~5801
▁Licht~~14447
agina~~17379
able~~751
▁reflected~~13412
efficient~~10022
▁time~~468
ouses~~11068
De~~9860
imon~~7886
▁profitable~~12313
▁essence~~9369
▁Inside~~9061
▁affection~~11155
▁magical~~7715
▁themes~~11188
▁elect~~12788
▁alike~~6313
▁Imagine~~1360
▁psychologists~~13327
rages~~14128
Dr~~15088
▁properly~~4687
▁proteins~~5151
201~~7673
200~~8397
▁tip~~615
▁surgeon~~6225
▁tit~~8467
▁recept~~12627
track~~4405
sych~~15994
▁Grad~~15487
▁humming~~10970
▁Show~~13068
▁tid~~13694
▁tie~~6197
▁typical~~3525
▁Lynn~~16425
▁tin~~13543
▁apartment~~10677
ering~~6321
▁tim~~6675
▁Craig~~9265
▁friendship~~8122
▁interview~~6587
▁2008.~~10856
▁sheet~~3308
▁sheer~~8468
▁River~~5643
▁sheep~~4784
▁flipped~~11518
▁Johanna~~17474
stre~~11997
▁delivered~~2059
▁hybrid~~8366
▁drink~~4042
▁donated~~13751
▁Fort~~5851
▁cracks~~523
▁Benjamin~~6645
▁distingu~~14464
shot~~6829
▁firsthand~~6283
▁Archimedes~~16471
▁demonstrates~~2337
▁seawater~~4461
▁über~~14955
▁Barbara~~11857
▁addicts~~13392
▁alph~~12256
▁Banglades~~15132
▁nightmare~~5060
rokes~~3767
▁demonstrated~~7761
▁Legos~~11057
▁stink~~13528
We~~2698
▁predators~~5438
▁peaceful~~7222
▁Pist~~11679
▁2008,~~9927
▁this~~127
▁repair~~7087
former~~15192
kilometer~~5342
umen~~12695
▁billion~~3144
ges~~47
ger~~4546
▁starts~~4267
▁dictionaries~~13181
▁optim~~1896
▁concert~~10101
▁fall~~3712
▁trading~~6523
▁seaf~~16496
▁acting~~3421
▁decl~~3511
imul~~12335
▁activists~~8691
zel~~14490
ged~~4107
▁tightly~~12076
▁seat~~5077
geh~~18186
▁Schizophren~~17054
▁concern~~2611
▁seas~~4359
gel~~12568
▁Shang~~17712
▁bask~~14731
▁allow~~3898
intuitive~~10917
▁schemat~~13939
▁Portrait~~15653
▁holy~~8553
▁Transcript~~17
▁valuable~~2887
▁base~~4580
▁generic~~11471
▁Bau~~17097
▁Kahn~~16141
▁event~~4806
▁variation~~1817
ould~~10978
▁managing~~3206
▁bass~~4132
▁grain~~4652
▁sold~~4639
▁cattle~~6220
▁destroying~~5284
▁dece~~10976
oven~~15728
fghan~~16027
▁fried~~12069
rimination~~17937
▁abs~~6055
▁solo~~3078
uana~~17422
▁reflex~~4253
▁accomp~~15635
▁hollow~~14964
▁Angeles~~7261
rall~~10723
▁fraud~~13086
▁legally~~14531
ency~~5180
▁hole~~7476
▁hold~~1353
rade~~6040
▁Organization~~10931
▁Grab~~3561
▁learning~~876
oved~~10689
▁including~~6127
▁commodity~~4857
▁heavens~~7202
gage~~3449
▁Yah~~11185
▁Gras~~14442
rem~~14651
▁Lanka~~10089
rupt~~12900
▁forum~~7883
flation~~17381
▁Journalist~~6574
ima~~11749
▁cage~~9235
▁carbon~~5250
▁turt~~5318
▁ter~~8807
ju~~7000
▁curves~~13653
▁turb~~6934
▁listened~~7211
ji~~13504
tun~~13368
▁envision~~2353
je~~12116
▁generally~~3455
ja~~4442
▁turn~~1945
uty~~15032
▁ped~~2027
▁stand~~120
▁lamp~~8869
▁cathedral~~4026
▁pen~~7324
▁evolving~~9720
▁well~~814
▁per~~573
▁revenue~~12500
▁turns~~243
▁patch~~5262
▁pet~~3408
▁slaughter~~4785
holders~~1459
ignant~~15149
▁Greece~~11379
▁colony~~14277
▁conversations~~12412
▁drast~~10149
reatic~~16919
izer~~8630
izes~~8534
▁Evergl~~18100
▁conne~~17577
▁Kerala~~11798
▁transform~~1032
atell~~17865
▁fastest~~14695
▁Joel~~14412
ized~~1178
▁foundations~~2123
▁queen~~13692
▁Bridge~~12905
ately~~7558
▁spoke~~6215
▁marks~~4797
ision~~2077
▁checking~~3580
▁encounter~~11520
▁assum~~9486
▁individuals~~5279
criptions~~6471
ocal~~16124
▁garden~~5287
▁hire~~1010
ueller~~17877
mark~~1678
mart~~8147
▁Three~~7441
▁stigmat~~13409
acre~~8055
arth~~3872
▁Derek~~15113
▁recruit~~2042
▁Wend~~13049
▁Dean~~12521
▁computing~~12796
▁surgery~~6227
▁measures~~8528
▁manipulate~~9165
▁Ein~~17334
▁inputs~~10203
▁Schach~~14828
▁Sudhir~~18003
mans~~7347
▁Eis~~13808
iversity~~17083
▁circumst~~12435
▁million~~2751
▁vehicle~~12762
^~~17617
▁Odys~~15901
▁Some~~2756
ivity~~3570
▁Forbes~~13510
▁cabin~~4967
▁rational~~3343
▁Ost~~16105
ilty~~11171
▁Gross~~4649
▁word~~3252
▁wore~~6118
▁showed~~4240
ifer~~15428
▁Galapagos~~5409
▁smartest~~5700
▁worm~~609
▁work~~891
iolog~~9407
▁getting~~458
▁Switzerland~~8846
▁ethnic~~11137
▁examples~~3416
▁eradic~~5532
▁Aer~~15607
ials~~7887
▁network~~3554
▁Islam~~15346
▁categories~~7093
▁RB~~17558
osion~~18239
bags~~10642
par~~11623
pat~~9579
▁kitchen~~7302
▁singers~~4096
▁prot~~8044
▁prov~~2076
s~~35
▁reminds~~6883
▁prom~~1592
▁prol~~11172
▁fundament~~12923
▁recognize~~3759
▁relevant~~10003
bage~~4350
▁wait~~3522
▁prof~~11933
pal~~16488
▁Republican~~9682
pan~~14581
▁prob~~7953
▁Arab~~11727
oil~~15520
▁Dur~~11575
▁Dus~~16377
imeter~~9389
▁individual~~275
hrase~~10002
oid~~4799
appen~~16763
▁parallel~~7018
▁biology~~7064
▁Doha~~14225
olith~~7828
▁Unlike~~7317
▁limitation~~9652
aughters~~9451
ois~~12980
oir~~5605
▁mother~~2472
appropri~~5814
▁anecd~~10153
▁eng~~12434
▁end~~436
band~~11254
▁Susan~~9417
▁damn~~7115
▁universes~~13918
bens~~17273
▁pursue~~1919
▁features~~7305
▁ens~~1752
▁Music~~3705
▁habe~~14088
▁Osm~~18115
▁ent~~6330
▁Macintosh~~15812
▁measure~~1606
▁regret~~8760
▁exercise~~1355
▁operate~~5558
▁contracts~~14486
▁wouldn~~1561
▁eB~~13202
▁inqu~~13467
▁tent~~264
▁individually~~7836
▁confirm~~7538
▁tens~~455
backs~~9494
stronaut~~17833
▁terrifying~~5057
▁admit~~3024
▁wedding~~10225
▁Wy~~16142
▁participants~~12953
▁tend~~327
▁Chip~~11970
▁eg~~15519
▁obtained~~15237
▁Indep~~10918
▁ec~~6921
▁hundred~~542
▁injuries~~9536
▁Whereas~~6542
▁en~~5451
▁em~~743
▁el~~6322
▁ground~~735
▁neuron~~10195
▁ev~~6965
▁Tut~~8999
▁et~~7519
▁es~~8845
▁er~~557
▁ep~~8229
▁Cholera~~17880
▁display~~2420
elihood~~6385
▁ey~~8980
▁ex~~8189
▁routine~~5852
▁tennis~~7518
▁reasonable~~5450
▁geograph~~7889
▁equality~~5834
mot~~10705
▁Denis~~13854
mon~~9643
▁mitt~~17108
▁poorly~~14718
▁Lesters~~13890
▁wished~~2577
mod~~5161
▁reasonably~~13119
nost~~12181
▁makeup~~6593
▁infrastructure~~5575
▁silicon~~13217
▁instance~~3755
▁comprom~~12561
▁intricate~~4016
▁Obs~~16500
▁Hacking~~17116
▁asked~~1455
▁Dick~~12102
▁switches~~7373
TA~~13514
anth~~15546
AA~~2285
▁pattern~~2391
▁Norden~~17428
▁UNAIDS~~16530
korn~~16406
▁flowers~~4331
ingly~~55
ante~~7793
▁60,000~~9242
▁Deutsch~~17616
▁possibility~~2352
▁countryside~~4787
▁Matthieu~~14897
icism~~9398
New~~13701
organizing~~13357
▁Dro~~11514
▁lions~~10158
▁centers~~4715
▁gap~~1742
▁gas~~7214
▁gar~~5109
▁alive~~3813
▁Ocean~~5362
alem~~14561
▁sidewalk~~8998
ieder~~17923
sper~~16195
▁Schachtel~~17713
▁dug~~7716
▁due~~6435
▁cooperative~~11247
▁gad~~10653
▁cups~~8637
outh~~6286
▁dum~~11558
▁gam~~3517
▁gal~~9552
▁gan~~17488
▁Prin~~3681
▁Prim~~15608
▁invade~~10569
▁Bis~~14744
▁online~~3856
olog~~13216
AM~~9974
▁DARPA~~9211
arts~~11795
quem~~17886
▁Sydney~~14273
▁Call~~12327
▁Priv~~12886
dings~~11197
▁Operations~~12750
▁Lyn~~16619
ologies~~10818
▁Pennsylvania~~9705
▁lessons~~1786
othe~~4109
agell~~13975
AS~~12833
▁acceler~~14362
▁balance~~8810
AR~~10947
othy~~12771
ouble~~12860
▁Soph~~13647
▁nut~~10834
▁criminals~~12760
road~~12138
asen~~17449
▁Hygiene~~14073
▁stab~~15628
lands~~8264
▁century~~2501
▁thorough~~7029
▁psych~~5176
▁collectively~~5827
▁hills~~12587
▁excit~~11404
▁spider~~13719
▁polar~~10393
ultiv~~15568
▁integrate~~10210
ortis~~16093
▁Bal~~9090
▁Ind~~15407
▁Guardian~~13383
▁Fest~~15658
▁Inc~~10934
▁truths~~2483
▁connectome~~14443
▁Inn~~8996
▁furniture~~4947
▁clinical~~2424
▁Ink~~9103
▁["'~~17546
▁Santa~~7979
▁official~~3600
▁Int~~16550
▁monster~~15418
ymah~~10478
▁Coast~~4169
▁pairs~~7897
arte~~16527
▁Using~~12238
▁Histor~~13564
▁excellent~~7664
▁clip~~2220
▁litt~~16459
itation~~4497
▁creators~~14334
▁Khal~~17511
▁Khan~~16395
▁tropics~~5544
▁---~~14557
▁Egyptian~~16331
▁anything~~1859
Ab~~17060
▁Gele~~17361
lder~~13519
▁weapon~~12740
▁Recycling~~15921
▁exponent~~16935
▁Pandem~~18024
▁clim~~8420
▁clin~~11822
▁swarm~~11150
▁roof~~8141
▁flexibility~~9464
▁cube~~8305
ctive~~4873
▁fight~~651
▁room~~465
ember~~13319
▁root~~5191
▁dark~~36
Ah~~14264
manuel~~7775
▁mechanisms~~6975
▁Franc~~16294
▁Run~~12577
▁Kabul~~11754
▁stops~~3164
▁Charlie~~12938
▁interf~~3254
▁Julius~~14780
▁Recy~~15923
Am~~15857
▁intern~~1680
▁separ~~8653
Al~~11400
▁deny~~13403
▁manage~~893
velope~~17462
▁dent~~10166
▁pound~~12082
▁dens~~5556
fill~~1595
▁Quer~~17675
▁following~~3404
▁Thr~~16754
▁Thu~~3208
▁Cassini~~8201
know~~12537
▁copying~~11628
▁buttons~~13190
▁navigate~~10514
field~~4757
▁The~~87
▁insight~~7571
▁regain~~15206
At~~16068
▁Community~~8091
▁lets~~3730
▁cluster~~14136
▁authority~~1532
▁NO~~15976
▁pigs~~4783
▁phones~~6734
aster~~11949
verted~~6897
▁destroyed~~7104
▁socio~~1921
asted~~4141
itches~~10549
anse~~134
sequent~~10333
▁corruption~~10095
tete~~17038
▁lett~~12048
Yeah~~4330
▁budd~~17305
▁poem~~6042
▁unre~~9907
▁deter~~5543
▁worrying~~12424
▁expanding~~14685
u~~731
▁rice~~10501
▁poet~~6316
▁easiest~~3621
▁rich~~532
▁evening~~4923
▁Spirit~~17179
oral~~3216
▁antib~~12257
dollar~~3389
gu~~10659
▁cocktail~~10813
€~~18223
zing~~4162
Station~~16428
▁1960.~~12269
▁Jordan~~4432
▁evaluate~~8598
▁Christ~~6876
children~~15543
▁items~~9614
ochem~~16557
ochen~~17301
▁ethanol~~13115
▁polit~~13677
▁cabinet~~11956
▁signal~~7427
▁satisf~~15652
▁pension~~14734
▁amazing~~4327
▁Dutch~~3036
▁compassion~~4310
▁player~~3491
immy~~18243
▁polic~~1797
▁ecosystem~~811
pless~~14071
▁Extrem~~3731
▁conflict~~4188
▁played~~633
▁Wal~~13051
▁Rehabilitation~~18167
uits~~12843
▁polio~~5483
emat~~15309
▁bar~~1846
▁bas~~5292
▁bat~~692
▁your~~626
glie~~17976
▁bay~~5363
▁orange~~9163
▁seems~~3784
▁amounts~~4610
▁Secretary~~14810
▁victim~~6096
▁bab~~1095
▁bad~~1022
▁inflation~~14684
fall~~8446
▁Council~~14432
ius~~3547
▁Shaw~~3086
▁bal~~9282
▁ever~~80
▁prisons~~8225
▁cosm~~8183
▁lists~~11120
hyd~~3114
▁identities~~11073
▁chef~~1187
▁disasters~~10064
▁distur~~11513
▁Bangalore~~6095
▁chem~~584
▁Jamie~~14309
iban~~18007
▁cher~~6841
▁Victor~~13188
▁weekends~~10708
▁cost~~3324
gor~~14870
▁Anschluss~~18044
unes~~14884
▁Biom~~16561
▁frequently~~13477
izzy~~15996
▁motiv~~1400
▁Within~~5578
▁immense~~10447
▁controls~~1330
▁Master~~7913
▁spectrum~~1928
ritten~~11625
▁Rang~~15533
zero~~11939
▁controll~~3910
aque~~13942
▁genial~~8031
▁guarantee~~9979
▁gall~~15945
▁leaves~~5626
aba~~1104
abb~~12042
▁experiencing~~8533
abe~~11342
▁values~~1131
inos~~14691
abl~~14869
▁Cour~~7724
▁Isa~~15699
▁Coun~~17207
abr~~4541
abs~~2948
▁spir~~11310
▁understood~~355
▁clubs~~2555
aby~~11705
gh~~7940
▁valued~~1216
onium~~14920
▁Isn~~9123
▁arrow~~8770
▁sober~~14843
itarian~~14404
K~~2556
▁negot~~7404
▁puppet~~14130
▁grass~~9649
▁exagger~~12220
▁South~~5425
free~~5525
▁naked~~8106
arin~~14524
▁Sieg~~15262
▁greatest~~371
▁LOL~~10013
ario~~15756
▁taxes~~1012
▁preventing~~8626
▁venture~~2096
▁sle~~5108
▁billions~~815
▁backwards~~1389
▁Berkeley~~4950
aku~~17025
▁Improv~~12940
▁congest~~17015
stelle~~17764
▁either~~450
▁adop~~9812
▁putting~~4308
▁gestures~~7316
▁Dumm~~17644
▁stereotyp~~13021
▁threshold~~7089
▁competitive~~1245
▁song~~938
oux~~16449
ineering~~16918
armen~~16146
rical~~11418
▁fishermen~~7647
▁test~~1609
▁sons~~5833
obile~~4135
▁Bihar~~5673
▁insult~~13575
▁electricity~~3717
▁Find~~8781
▁Ninety~~9439
▁disappear~~8816
asty~~10790
▁assigned~~9950
▁Programm~~11289
▁Organ~~14589
brot~~15895
▁applies~~10601
astr~~13503
▁athle~~14918
▁still~~1270
▁Almost~~5486
▁Mill~~17404
▁preced~~14879
▁rigid~~6723
▁failure~~5847
ital~~920
itan~~13533
Not~~4322
American~~8702
▁relations~~6201
▁20,000~~8399
▁ultimate~~5681
▁Fifty~~7776
uation~~11790
▁authoritarian~~15535
anga~~14611
▁Riverside~~8090
▁Ghana~~7465
fore~~15072
▁Princeton~~7880
hour~~6721
▁Fossil~~13165
▁Shirky~~14823
der~~7565
▁nort~~10131
ility~~6444
▁Act~~9757
▁beaten~~8389
odox~~15384
bron~~16495
dem~~10406
den~~163
▁Caltech~~13226
▁the~~10
▁Acc~~14265
▁emails~~6744
ded~~3337
▁Zeit~~14993
def~~6549
▁enzyme~~8615
▁Mother~~13463
▁swimming~~7170
▁Nicholas~~8900
▁inst~~12958
▁trap~~8849
produ~~4872
▁Well~~1223
▁hugely~~10350
▁datab~~15978
▁infection~~5070
▁insisted~~6400
▁operating~~1030
▁inse~~8134
▁trag~~5761
▁bom~~10309
▁trad~~6500
▁hits~~3163
▁reclaim~~13887
stil~~8664
▁juice~~7472
▁li~~11249
ilosop~~13678
▁archite~~17823
▁burn~~2402
▁wife~~4251
stit~~3173
▁Happy~~12213
Typ~~18031
▁diox~~16640
▁abh~~16570
▁Jesus~~9487
▁Lisa~~15264
Don~~9877
▁materials~~3098
▁exper~~17378
▁database~~11149
▁Garden~~4834
▁Medical~~8417
▁focused~~7960
▁aging~~6893
▁talked~~6007
▁represents~~7832
▁360~~12450
▁Hang~~14288
▁fashion~~4954
▁focuses~~7598
▁athletes~~15846
get~~12013
▁ridic~~14461
▁European~~5333
▁Vent~~7610
▁stigma~~8930
▁create~~1011
▁Browne~~12245
oit~~16775
iens~~16183
ient~~2325
▁Soon~~2349
coal~~18077
▁vulnerable~~5408
▁telephone~~13012
indert~~17423
▁Smith~~2638
alph~~9179
iend~~14285
iene~~17717
What~~3569
cken~~17237
▁Californ~~16658
ahle~~17662
▁tuber~~17401
▁Nature~~1246
▁slightly~~1936
▁Grace~~16949
▁philosopher~~13672
É~~17128
▁standards~~1661
▁hatred~~15626
▁throwing~~6004
industrial~~4737
▁lungs~~8545
▁astronomy~~13706
▁suck~~7297
cket~~14962
▁such~~1625
▁Work~~8253
cker~~3939
▁RISD~~12128
▁audience~~2327
▁rockets~~12226
ement~~2707
▁Organs~~15235
arian~~9627
▁fantas~~12639
▁Abraham~~12556
▁crafts~~13777
▁each~~2209
▁neighbors~~4247
pend~~13818
▁Third~~9442
▁generation~~2351
2,~~7693
2-~~5977
2.~~6460
▁migration~~10699
▁Alfred~~10811
▁Hold~~5752
▁Arch~~12614
▁phenomenal~~9113
▁myst~~10317
▁deliberately~~4838
gthen~~15615
▁Holl~~2994
▁adoles~~13461
▁bold~~2138
▁check~~3479
▁reality~~3443
▁measuring~~1683
oke~~2790
Å~~18143
▁copy~~1970
dad~~11715
▁Over~~2184
▁agnostic~~15964
oko~~13252
▁lucky~~5526
▁relative~~980
▁mosquit~~17274
▁smaller~~773
ashed~~4257
▁Nanote~~17406
▁eld~~15383
▁losses~~6490
▁shopping~~1995
▁teaching~~1835
▁Girl~~14192
▁calculating~~2254
ashes~~13321
inding~~6387
▁hadn~~5506
gender~~13927
▁digest~~591
▁push~~5392
▁Gallery~~8014
▁Neocortex~~17264
▁continents~~860
idel~~6881
▁Dame~~15040
iden~~2861
▁fascin~~12114
mental~~2159
arded~~8663
ided~~10034
house~~6237
fish~~5382
hard~~12789
▁glorious~~6262
▁destruction~~10570
▁brilli~~9886
▁Premier~~11344
▁liberty~~15218
aller~~15190
cture~~6697
orient~~15614
ider~~6181
ides~~143
▁km~~14207
▁kl~~16805
▁ko~~17975
▁binary~~2942
▁Twe~~8780
▁Lotto~~17771
▁ke~~13374
▁kg~~9639
▁inclusive~~13764
▁Two~~677
eling~~1436
▁magnificent~~8030
▁nose~~8376
liche~~16648
▁absorb~~11000
print~~11187
pping~~1041
▁kr~~5370
▁second~~1356
ë~~16861
EN~~17303
▁biosphere~~13951
▁desktop~~11251
ED~~13199
EG~~16823
▁comments~~4266
▁Ground~~14991
EC~~8515
▁songs~~3986
rated~~8618
▁physician~~9371
ET~~16269
holt~~18171
mma~~17322
ES~~8671
ER~~15328
▁terrorism~~11359
El~~17432
En~~14968
▁economist~~3217
▁shipped~~14543
▁redesign~~10030
▁creatures~~302
Spe~~14926
omin~~10632
Ex~~1423
â~~17882
▁AG~~7131
▁extr~~7267
á~~13573
Es~~17154
odka~~16531
..."~~17524
▁Audio~~16869
▁Universal~~12882
▁namely~~6901
▁grabbed~~7225
ulture~~4878
▁Dun~~10241
▁Kindergarten~~17970
cade~~10488
▁elevator~~10887
▁forgive~~13776
▁members~~2645
▁Skycar~~14495
▁Ret~~11109
▁socially~~1269
▁excuse~~11163
Okay~~4275
kol~~17188
▁mix~~1684
▁Transformation~~18133
▁aesthetics~~12724
▁sleep~~4242
▁mit~~7098
▁mis~~5113
▁mir~~2008
▁Rez~~18246
illas~~11601
▁Red~~1514
▁min~~9668
▁mim~~8572
▁mil~~7053
▁interest~~3229
▁controversy~~11930
ze~~7774
▁mig~~14961
▁Rem~~10731
▁Ren~~11551
▁mid~~386
▁mic~~4100
▁flor~~15564
opening~~14912
lease~~17167
▁Mario~~17741
▁enc~~3287
▁cleaned~~4534
▁dimensions~~4993
park~~16522
▁answered~~8562
▁though~~92
▁started~~559
▁mainstream~~6694
▁multinational~~4691
▁inade~~16231
ylinder~~10719
Problem~~17984
▁ministers~~11748
▁99.~~8318
▁cleaner~~14741
b~~881
▁noises~~8877
▁institutional~~1075
▁straightforward~~13592
▁stated~~10899
orgen~~15100
▁funds~~6125
seen~~17439
▁justify~~11027
▁mood~~8872
▁moon~~5213
▁meanings~~12343
▁enh~~9156
▁states~~5281
▁clock~~5751
▁battle~~5949
▁198~~662
▁keyboard~~8908
▁193~~2642
▁associate~~2628
▁191~~10783
▁190~~7009
cept~~4881
ager~~4167
▁195~~2579
▁194~~2800
▁actor~~3423
▁accident~~4024
▁Masse~~15233
▁nonverb~~14134
▁enl~~8963
▁millimeter~~4573
zu~~14814
▁instead~~1069
▁Viol~~13325
▁documenting~~7991
zw~~10052
built~~5045
▁numerous~~14688
▁divide~~2759
▁dominant~~9748
ation~~2198
▁purely~~11634
▁Ill~~9454
▁exploration~~5218
acing~~8544
Arab~~16615
▁leader~~6019
▁shed~~3645
▁farmer~~6382
▁drunk~~13419
▁shel~~5641
▁Archite~~4624
▁mobil~~10496
essp~~17673
▁prime~~10099
▁honor~~2661
▁State~~4416
▁resonance~~8680
▁Frustr~~14659
▁gratitude~~13007
▁Tie~~16226
▁blur~~7855
▁sauce~~15245
▁Hur~~8728
▁based~~6334
▁Fund~~8247
esse~~17247
mosp~~2240
▁Defense~~8402
▁Sixt~~2620
▁Carter~~8145
▁Funk~~18179
▁reacting~~12620
▁afternoon~~6842
▁partnerships~~9109
ka~~9395
▁developed~~204
▁6,~~16402
ke~~4112
kk~~17346
▁Hong~~13241
ki~~15755
ko~~1119
▁Beth~~8114
km~~11929
kl~~13658
ks~~3777
▁Bett~~13553
▁kinds~~1882
▁solutions~~1537
▁Am~~6354
kt~~11252
▁unique~~5345
ky~~7266
▁side~~291
▁enorm~~11564
▁chose~~2603
▁Ober~~13516
oots~~3993
▁fMRI~~2338
▁rooted~~5240
▁safer~~10955
▁depr~~1266
▁website~~6745
designer~~16409
▁cream~~12059
▁forts~~17241
▁FI~~2461
▁bench~~1677
▁Dark~~12325
▁University~~3431
ooth~~11937
fine~~12576
▁FG~~17420
▁Plan~~12558
▁explosions~~2241
▁Ped~~4543
▁London~~2827
▁Fr~~10258
▁Intern~~16091
▁flow~~1413
▁surely~~5660
▁Apart~~13814
being~~971
▁sought~~10640
▁Fi~~12797
▁Play~~1229
▁Cambridge~~2193
▁Fl~~7943
▁unbelie~~10024
▁American~~4932
8~~4300
▁Kiribati~~15805
▁Fa~~8689
▁depression~~1390
seller~~11927
▁Fe~~11144
▁flock~~6718
▁imm~~6956
▁ideological~~14865
▁kind~~256
▁mentors~~3888
▁Douglas~~8237
▁küssen~~14985
▁zeit~~11210
▁fluid~~602
▁programming~~7858
▁depended~~11271
▁anticipate~~1715
▁Sally~~16551
▁challenging~~1533
oster~~392
attle~~7939
▁imp~~2496
▁Although~~803
▁Greenland~~13656
▁informed~~10169
▁athe~~3365
▁stuck~~4133
▁Jesse~~16136
▁2.0~~9581
▁traditions~~10390
▁2.5~~13128
▁career~~1116
▁organized~~1475
▁resurre~~12633
▁blend~~10461
▁Kids~~1289
▁Puls~~16727
▁defen~~10799
▁leads~~1438
▁pumps~~10951
▁newspapers~~13198
vind~~15831
ving~~3156
▁Freit~~17523
▁circles~~6429
▁breakthroughs~~7003
▁Foundation~~4348
▁Argentina~~15198
▁theory~~3323
▁inherited~~12337
▁Na~~13041
▁meters~~2290
fang~~14348
oreal~~11208
▁Gulf~~10554
▁Health~~8921
▁Gate~~16365
▁summary~~1578
vascular~~15794
▁machines~~9276
hritis~~9525
atures~~8238
▁enemies~~4272
▁Netra~~15829
▁philosophy~~5200
▁Trust~~6882
▁urgent~~4891
▁spect~~11846
▁Walmart~~13350
▁Flex~~3869
▁mobile~~1201
hill~~9573
ika~~10130
▁ed~~12733
▁displ~~14077
ike~~2128
▁Barrel~~15871
▁raped~~5815
iki~~16282
▁Cro~~10404
▁Yemen~~16043
▁compete~~6169
▁treaty~~11459
▁yards~~8273
▁opportunity~~2918
▁woke~~4244
▁miracles~~11500
▁honesty~~3438
anders~~5936
tempor~~15265
▁endeavor~~7879
▁come~~324
cyclopedia~~15876
▁eradication~~5520
▁comb~~2243
▁ages~~2001
Yes~~5449
▁Snow~~13602
▁retired~~13062
▁midnight~~6248
▁dump~~786
▁Index~~12713
▁macro~~11834
point~~4392
▁Symb~~16937
▁Pix~~16656
rad~~5932
▁equations~~14202
▁button~~3735
andal~~11360
▁dumb~~1220
▁suburbs~~10836
▁topics~~2192
▁volunteer~~6094
▁Gapminder~~14251
▁eh~~10581
▁dumm~~15334
▁shame~~7926
▁couple~~373
▁Denn~~17706
▁doodling~~16490
▁paradigm~~1924
rete~~8752
▁exists~~231
▁Similar~~16259
▁Schwarzen~~4545
▁necess~~10307
▁mining~~11454
ibly~~8313
▁Bilder~~17940
perto~~16415
▁reflecting~~2002
rett~~7945
▁Tur~~13262
▁pocket~~3317
ithmet~~15073
▁scared~~5247
ral~~12583
4~~2283
▁available~~3108
▁slide~~4847
▁acids~~13224
▁gl~~1369
ason~~13074
gas~~16923
▁mobility~~4984
▁Wen~~17023
markets~~9661
gan~~13487
▁guilt~~10643
gal~~4344
▁present~~4431
▁voices~~5608
▁spontaneous~~5103
▁bring~~476
Ding~~16902
▁tumor~~5069
▁physiology~~13867
chten~~17929
▁ignorant~~8718
▁condition~~6292
▁Sympt~~17014
▁recycled~~4471
▁tail~~6512
▁heroin~~5793
fense~~13969
▁Must~~11695
▁heroic~~5572
▁Natasha~~15162
ful~~1211
▁Sag~~14166
▁Philanthrop~~16670
▁moons~~13945
▁Ethanol~~17215
▁collabor~~7882
▁Whether~~2478
century~~2605
cents~~16083
▁rooft~~10645
▁Minnesota~~13795
▁roofs~~12936
▁Adopt~~18015
▁Tower~~12838
▁Idee~~5016
▁Cousins~~17851
▁Anton~~6319
▁imagine~~1358
▁imaging~~2379
▁Haiti~~10055
engu~~9089
acher~~2474
aches~~8634
▁Guatem~~18137
eland~~10800
▁Gren~~16301
▁objective~~8020
▁revealed~~8679
raz~~15394
itors~~11595
isted~~5738
▁Greg~~11021
itals~~8799
▁ide~~13549
▁Grey~~6891
▁Tor~~15948
iends~~11819
ached~~10922
▁dangerous~~2292
▁only~~230
issance~~14437
▁Seattle~~11644
achel~~17068
▁assure~~6534
▁fission~~16034
ademy~~17549
▁hopeful~~10631
itch~~4153
keys~~14414
arrhea~~13744
▁steep~~8460
esch~~13522
▁motivate~~8540
moment~~13288
▁80%~~18209
▁replace~~7152
▁hoping~~7748
▁Flow~~17314
▁integrated~~5030
▁tribute~~13941
▁Cohen~~12841
laden~~17618
▁communication~~3002
▁empir~~13489
ppe~~11660
▁PRI~~12852
▁Nam~~6906
y~~1298
amps~~11716
▁advers~~11896
▁Casey~~15820
▁joined~~2264
▁wide~~2190
▁unhappy~~1021
▁glau~~15836
▁native~~13069
▁necessary~~6425
▁trips~~11781
▁Mohammed~~17016
▁illegal~~12310
▁Kampf~~17142
izations~~11800
▁without~~1359
▁Johannes~~7740
▁contemporary~~4949
▁Otherwise~~7513
▁controversial~~11931
▁girlfriend~~14142
ultur~~11710
▁deserve~~5634
cus~~9529
iation~~5953
cup~~16278
▁Rabb~~16114
▁center~~1884
▁Reserve~~14953
▁Rus~~17926
source~~12242
▁Duke~~7972
uche~~18161
Life~~10879
▁phthal~~18054
▁flight~~2144
cul~~10986
▁schizophren~~13793
app~~6241
izational~~16590
bin~~14541
ield~~3131
iele~~18138
apest~~14183
▁harvesting~~12984
Did~~10888
▁Emb~~16247
inson~~14178
▁agile~~12364
▁angry~~5782
▁genius~~2015
▁anxious~~11022
apt~~10423
▁ridge~~423
▁photo~~8353
▁Sein~~18111
bit~~8503
▁Emp~~7524
bir~~8609
▁preserved~~8356
▁ann~~2545
fron~~10882
▁Norweg~~17938
▁ank~~14797
▁photograph~~5082
▁realization~~7547
▁intensive~~5175
▁ane~~13043
▁anc~~17759
▁Pollen~~17870
▁constructed~~7733
▁pesticides~~8593
▁Watson~~14034
inction~~15709
▁anx~~13297
▁any~~85
▁ant~~1126
▁oxy~~17739
▁arbitrary~~13192
akistan~~16585
wir~~269
▁globalization~~10637
▁Mont~~11161
aution~~5244
▁maybe~~1374
▁gaps~~11136
▁glac~~7166
▁Sack~~16977
back~~3450
▁switched~~6808
▁prototyp~~16008
▁announced~~6462
▁PET~~4459
▁insect~~9208
rimin~~11473
gypt~~14597
scale~~5470
▁Salman~~16394
▁leopard~~14956
▁attempts~~15446
per~~1618
pes~~8449
pel~~15516
▁prejud~~10449
pen~~11804
Her~~16826
ped~~8453
▁Republ~~17138
▁natur~~15660
▁Dig~~11603
▁disabilities~~3781
▁arrive~~7002
ively~~2367
icro~~14394
▁realize~~2030
oes~~159
▁infra~~8267
▁cheap~~6857
▁phenomenon~~5106
▁bone~~10155
▁bond~~3591
O~~3470
▁Wright~~15155
▁acts~~3094
▁mensch~~17601
▁terms~~1637
uft~~18228
▁PISA~~1608
uff~~701
▁triggered~~7635
okus~~13856
▁searching~~5631
▁err~~10565
▁clever~~6973
▁senten~~14112
&~~10032
ications~~6423
▁checks~~5867
▁erg~~9462
ounce~~4361
▁Passage~~13641
▁era~~7282
▁compar~~1630
▁Minister~~9664
▁expressing~~13931
▁treated~~5368
omatic~~13408
▁sometime~~6247
inea~~15287
▁fortunately~~5443
▁fisheries~~5383
al~~1050
▁despite~~1003
▁conditions~~2778
▁creature~~245
idge~~5029
gments~~15373
▁untouch~~15259
Speech~~17950
▁thirds~~11125
▁implanted~~12786
▁iP~~16166
Sauce~~17966
▁Carolina~~3039
▁Cornell~~12459
▁Doesn~~11052
▁Quite~~2799
▁dress~~10256
▁in~~9
▁im~~4211
▁scale~~292
▁ic~~16298
essions~~14728
▁if~~521
▁travels~~10438
▁id~~5032
▁boys~~5717
▁lesbian~~10444
▁is~~51
▁ir~~5594
Come~~11064
▁correlation~~1277
▁camel~~9149
▁it~~86
gert~~16940
aner~~18180
▁Peps~~18010
▁changing~~2104
▁platform~~6558
ccoli~~13064
emin~~6540
▁travel~~4311
▁Parliament~~6924
";~~16802
ines~~26
▁chord~~14702
▁famously~~4745
▁favelas~~2632
▁inventing~~13178
▁columns~~8330
▁enfor~~10267
▁Subs~~18224
chron~~13245
neys~~539
▁anthrop~~11266
planet~~14852
TV~~16024
▁Geld~~15254
▁pride~~3494
▁Lust~~18040
▁continually~~10197
▁authorities~~9922
▁laughed~~6714
▁Design~~3203
▁predicted~~12079
▁Parks~~17582
▁fluct~~14729
▁Diana~~11441
ationally~~1681
engineering~~7084
cure~~8135
▁vision~~2602
MED~~18218
▁division~~8286
▁Pharm~~16417
lyn~~15033
▁fract~~14555
▁investigate~~6632
▁beanspr~~17118
▁symmetry~~10218
Mar~~9240
%~~14656
▁download~~3805
▁reconstru~~10065
eller~~16037
▁mos~~16434
▁mor~~10285
▁inte~~18238
▁mot~~1425
▁mov~~14970
irty~~14982
▁Ign~~15675
▁mom~~8837
▁mol~~12454
Mag~~17647
▁mon~~5217
▁accomplished~~10908
irts~~4803
▁spends~~1850
▁mod~~5145
Man~~7696
▁Zu~~16878
▁equilibrium~~10011
lene~~16960
Med~~16329
ibera~~16814
▁600~~508
▁shifting~~6815
ervation~~896
ynam~~9293
fraid~~17438
▁press~~420
▁60,~~11654
▁dur~~10073
▁prototyping~~14908
▁sake~~8783
▁Kepler~~14692
▁moms~~12036
▁widespread~~10150
▁Titan~~8205
▁Sensor~~15957
▁corrid~~16363
wards~~2078
▁noise~~7614
▁gay~~10349
▁upon~~5031
uption~~558
bergs~~16563
▁important~~969
▁Abs~~17466
▁intense~~4263
igur~~15201
▁determined~~9334
Men~~16280
▁Mosk~~18009
▁practically~~11502
▁iPods~~9361
▁season~~2635
▁sooner~~5771
▁incidentally~~6649
▁achieve~~1789
leist~~16690
▁determines~~10174
▁Most~~113
▁guar~~9196
▁ultimately~~1597
▁theater~~1361
mitten~~16825
▁Khalid~~18114
▁our~~318
▁eat~~4041
▁Tattoo~~13015
igens~~9559
▁scientists~~410
atsch~~17162
▁clapping~~13601
▁dependence~~10173
▁champions~~3041
▁dub~~13010
vasive~~16255
▁allows~~2385
oute~~17509
▁Atlantic~~431
▁1,3~~13695
▁fem~~15786
▁Judith~~14840
moud~~17714
sage~~17075
▁executed~~15381
▁prior~~5303
▁Start~~5058
▁Stars~~13919
▁Farmer~~16892
▁transpl~~9259
▁Full~~8089
▁Astrolab~~17228
▁receptor~~15361
▁fen~~13773
▁devil~~11065
lter~~17746
▁transpar~~14550
wait~~17952
▁coastal~~11655
▁rains~~6464
▁experience~~2443
▁sense~~970
▁Da~~13038
▁upload~~12818
▁De~~2583
ilde~~17701
▁economy~~922
▁unsch~~17279
▁Do~~3239
▁Dr~~7583
cellen~~18233
▁Du~~15897
vely~~10275
▁attempt~~7208
velt~~12296
▁sched~~12416
▁orgas~~17374
▁DD~~17109
▁DG~~356
▁DH~~9465
▁DI~~14488
▁DJ~~5021
▁correctly~~3319
▁DM~~9792
ening~~12387
▁hurts~~6058
▁DR~~6854
▁orientation~~12092
▁Walter~~14175
▁DV~~15565
▁phen~~14518
▁organ~~742
▁scientist~~8567
igent~~12698
▁ZK~~13713
body~~4282
▁cat~~8509
ration~~6278
▁mostly~~170
▁cap~~8798
▁kill~~1094
▁car~~2245
▁awake~~7885
▁visiting~~6156
▁hug~~7344
▁cheaper~~9872
▁video~~21
▁caf~~13781
▁anonym~~12943
▁sharing~~3795
▁cab~~11074
▁cam~~12637
▁cal~~4682
▁can~~360
▁obesity~~8589
▁aliens~~13946
▁Namibia~~11787
▁Alle~~14699
▁Company~~9058
30~~4773
▁Hyderabad~~15526
▁exh~~15339
cert~~13823
cers~~8884
3,~~7674
▁breakfast~~7800
▁deadly~~9634
▁rect~~11140
▁synchron~~11534
▁archive~~8813
▁planes~~11116
▁colored~~1804
▁executives~~12375
▁rece~~6492
▁diagnose~~10952
▁first~~331
▁curren~~12496
▁combat~~5917
▁rain~~8079
▁communic~~7450
ety~~11759
▁denial~~6279
▁reck~~14493
▁bed~~2671
▁slices~~8349
▁bef~~16078
▁beg~~7917
che~~4551
acement~~8633
▁attraction~~11744
▁bel~~5248
▁substantial~~13137
▁ben~~8738
▁Ethiop~~6453
▁beh~~13855
chn~~17496
cho~~9094
▁bet~~5489
▁abund~~9655
imeters~~4571
▁depressed~~14007
▁comment~~2586
▁house~~3001
Fi~~8906
▁Easter~~11894
▁tradition~~9481
Fl~~11019
▁bez~~15819
▁bands~~3671
▁human~~827
▁back~~479
kun~~17518
▁narrow~~2212
▁delight~~2668
▁period~~3473
▁knife~~2395
▁verse~~13539
▁miner~~12517
▁Intel~~15289
▁smiling~~3576
▁Inter~~2156
▁collaborator~~3885
▁machinery~~8616
▁disciplines~~7770
▁lens~~9686
▁wealth~~1831
▁premise~~5612
▁feeding~~4627
▁19.~~12050
▁eval~~11789
▁Famil~~12284
▁Amate~~15883
oses~~10965
▁rolled~~6104
f~~1212
alia~~16261
alie~~11388
▁kilograms~~6377
▁aside~~12040
▁dodo~~11900
ognitive~~15959
▁cook~~4809
▁cool~~1294
▁Pacific~~438
▁settings~~16162
▁paint~~3151
unate~~16359
▁Op~~7381
▁Yorker~~4059
▁analyzed~~3953
▁Eduardo~~17286
▁"]~~17547
▁Institut~~17774
▁watts~~14164
▁vort~~18029
bere~~17682
▁overwhelming~~6336
afi~~12640
Yo~~3665
▁abroad~~5832
afe~~9925
aff~~7755
holds~~5596
,000~~2388
▁picture~~490
▁begin~~317
forest~~14403
aft~~11884
▁Antonio~~16426
▁scarce~~6393
▁Maryland~~13457
▁Yellowstone~~12927
afr~~16313
▁2002,~~4931
frag~~16976
▁funny~~768
▁Rosen~~12229
▁take~~103
▁long~~250
▁Tanz~~11456
▁laundry~~12315
▁introduced~~9378
▁meals~~4622
▁authors~~7348
▁sensit~~17583
▁Charlotte~~14913
▁Tank~~17691
▁Point~~9743
ressed~~10396
ression~~9410
▁randomness~~8339
bing~~7705
lines~~2149
ffer~~17206
▁beast~~7574
▁thing~~555
▁Thirty~~3553
▁Handel~~18159
bins~~14896
▁think~~102
igarette~~16175
▁becoming~~6180
▁Bombe~~18184
ature~~7252
▁arms~~936
▁Base~~12266
meter~~7646
▁Adam~~3864
ality~~1496
▁feelings~~5773
▁Supern~~18121
▁Bass~~15356
▁Bast~~2125
▁Ok~~14644
▁swamp~~12920
▁varied~~2194
▁Bern~~15490
▁supply~~6363
ld~~6658
le~~1240
▁overwhel~~14003
la~~4443
▁personality~~3838
ll~~282
esser~~17139
itar~~17900
▁appreciate~~11877
▁cliff~~447
▁philosophical~~6685
lt~~4761
▁surplus~~6185
ls~~12246
Na~~11808
▁council~~13375
ly~~1064
▁'9~~10142
▁'8~~13806
▁habits~~7343
▁funded~~7699
dam~~3056
▁explorers~~8380
orenz~~4885
Ne~~9008
▁vegetables~~4827
▁Darwinian~~9125
▁chemotherapy~~11569
dar~~14234
▁positive~~1039
▁beat~~10321
▁bear~~6445
day~~10145
▁Isaac~~13281
▁requ~~9432
▁Ens~~15013
ulating~~3788
▁Keller~~16545
▁nurture~~11487
▁father~~2591
▁pretty~~1284
▁library~~9032
▁Urban~~12224
▁impulse~~10345
▁federal~~1887
▁programmer~~14837
aters~~5431
fare~~14566
▁strateg~~6548
▁tolerant~~10801
▁condu~~7706
▁Fut~~8687
▁EM~~16483
▁Rover~~11669
rok~~16134
▁outer~~5453
▁CPU~~16901
▁Absolutely~~15690
▁underest~~7071
▁whatever~~4003
rey~~6890
▁hotel~~6873
▁trib~~15278
▁Gand~~13578
res~~2510
rep~~3092
▁virtually~~5371
▁Zucker~~14595
rew~~3258
ret~~7439
▁highlight~~4991
▁wives~~6110
mate~~12309
ren~~6006
cious~~14862
rel~~2933
▁optimize~~4952
▁rides~~14113
reg~~8601
red~~2010
ree~~2892
▁Carol~~12323
▁Est~~11340
▁cartoonist~~12142
▁veloc~~12609
▁vocabulary~~4969
rung~~17082
▁athletic~~10600
▁New~~4058
▁demonstration~~3134
▁standard~~1135
▁This~~58
ires~~5561
▁criter~~17470
▁brush~~13981
que~~4110
▁Neg~~16158
iper~~8552
▁successfully~~7236
▁all~~94
NN~~17755
esented~~13027
▁literacy~~10428
bern~~17358
▁tourist~~15180
▁Term~~9756
▁sage~~15177
▁trace~~4473
▁Terr~~11943
▁societies~~1959
NA~~14324
▁next~~1225
▁journalism~~14841
▁intensity~~3242
▁coinc~~11533
▁track~~3067
▁split~~9879
▁shelter~~8745
▁holds~~5189
▁Watt~~14679
▁Sioux~~17842
▁industries~~15527
▁renov~~8976
▁tricks~~10957
alleys~~44
▁Fundament~~7007
▁Laufen~~17377
▁mouths~~2783
itively~~14696
▁tricky~~14239
▁talented~~2083
▁accelerating~~14029
▁rising~~4663
▁Android~~14354
▁Club~~7682
▁complex~~2868
▁frustrated~~10620
▁iconic~~2451
▁Mrs~~10798
▁winner~~7521
▁thick~~3147
▁wash~~6056
▁wasn~~1895
▁adding~~9583
▁util~~11761
▁Romant~~4179
▁Ins~~11786
▁hungry~~4665
ogy~~12924
▁attacked~~2360
ller~~15793
▁Learning~~7764
▁Si~~17869
achter~~17045
▁Sh~~3715
hel~~12146
▁AIMS~~17386
uda~~5351
▁Sk~~10841
udd~~12669
ude~~2987
oge~~16667
ammad~~15143
▁irrigation~~13117
▁false~~5611
▁delivering~~12696
mechan~~16969
resist~~14521
▁TEDTalks~~12270
NS~~17019
▁lawyer~~1987
▁Berg~~17419
▁automobile~~4130
izon~~17051
▁exploring~~7597
▁tar~~11466
▁octopus~~13978
▁encourage~~1528
▁CEO~~8888
▁Turk~~8836
▁dates~~7271
augh~~15670
▁Sp~~1813
▁looked~~1635
Pat~~15286
▁Homosex~~17471
▁Pixel~~17066
iday~~8995
▁represent~~3842
▁Herz~~16810
▁Autom~~4134
▁replied~~6073
▁dreams~~4919
▁frustrating~~10159
ovae~~15775
▁roads~~4724
Pal~~4226
▁drawing~~4356
▁op~~2419
▁ner~~8879
▁or~~123
▁net~~415
iste~~16768
▁ow~~6195
min~~4212
▁oy~~4733
▁ox~~7310
▁Tanzania~~11369
▁Young~~9688
▁Peru~~9619
ists~~1302
▁Oliver~~3741
▁Pers~~10739
▁of~~32
▁oh~~5041
▁shine~~491
▁across~~432
▁om~~12084
mit~~785
▁on~~154
▁rede~~5741
utan~~15442
▁insurance~~6338
▁upd~~8199
omme~~18074
▁revenues~~15837
▁Mahmoud~~17249
▁upl~~6810
▁expected~~5780
▁hackers~~15064
▁ups~~14844
▁exploit~~5232
▁amput~~17266
ommy~~12499
▁Hopefully~~9864
million~~12603
▁Ethiopia~~6344
▁Vul~~17503
▁SC~~8174
▁sudden~~3304
▁orang~~11600
gather~~13864
tential~~18162
▁Jim~~2906
▁cloth~~6075
▁expl~~14160
ossible~~9499
▁port~~4752
▁Cuban~~13050
▁Astronom~~14000
▁strategic~~11093
▁stress~~4321
antast~~16509
text~~12555
▁anesthesia~~13745
▁tuna~~7426
▁ELA~~17927
▁rhythm~~875
▁Greeks~~11203
▁entreprene~~18081
umbling~~12384
▁longevity~~7061
▁genuine~~7047
▁front~~281
▁meditation~~14605
▁Wolfram~~15089
▁minority~~7735
▁Rit~~14339
▁blank~~5019
▁controlled~~1214
▁circle~~8137
controll~~15332
▁Harbor~~8394
▁Vision~~12536
▁maintain~~4598
Mom~~11014
▁Rio~~2633
▁tips~~6623
▁keeps~~5704
▁Ric~~12209
isha~~11954
akes~~157
aker~~2537
▁hel~~10996
▁reform~~6418
▁tru~~5562
▁Proz~~16691
beat~~8526
▁bush~~13127
▁try~~762
▁Prov~~10522
▁Prop~~16553
▁Prom~~13369
beam~~14168
bean~~4647
▁Guinea~~11591
▁risky~~2143
▁tre~~5433
aked~~6761
▁recorded~~3980
▁Prof~~9110
▁tro~~10977
aken~~7575
▁broken~~1013
▁immers~~8757
mun~~16267
▁contrast~~3388
organ~~11311
▁homeless~~8927
rage~~6547
▁gras~~15798
▁discussion~~3893
▁commonly~~8570
▁simpl~~8298
oliath~~9213
esthesia~~16281
erem~~16115
▁Learn~~892
icket~~14416
▁greater~~452
▁along~~520
▁alone~~1600
▁brain~~1279
▁duty~~5304
▁masses~~3686
▁Galvao~~17817
▁DVD~~2552
▁Boliv~~15133
▁partners~~475
▁weird~~1447
vania~~17566
▁actually~~361
ammer~~16546
▁notes~~4027
▁Maria~~4547
blatt~~13935
▁genoc~~13747
▁prostate~~8659
▁bee~~9603
▁1930~~11686
ammed~~6768
yright~~9737
apor~~16761
anium~~7709
▁duration~~3241
vation~~6369
ington~~12511
▁string~~3819
▁type~~550
▁obst~~17398
▁belief~~1997
▁antibiotics~~7021
▁secondary~~5678
▁engineering~~3903
belie~~1026
▁moments~~6656
▁marvelous~~12126
อร่อย~~7695
▁mutations~~7096
▁dare~~12634
▁absolutely~~5186
cribed~~14704
▁Archim~~16125
▁nonprofit~~9776
▁Senegal~~14670
▁Robo~~15312
isible~~11366
▁rout~~15813
▁court~~11524
▁Ryan~~7811
enaissance~~6671
▁Kra~~7572
▁saving~~8485
▁Tam~~16926
▁buying~~4807
▁Kre~~16368
▁purposes~~407
▁artifacts~~2787
▁indigen~~15988
Design~~16325
▁blink~~5695
▁automat~~16777
▁blind~~6437
▁gentlemen~~5676
vent~~3633
▁rotating~~14101
▁Effect~~13417
▁independently~~9057
ousa~~17452
▁Jh~~11825
▁juggling~~9474
▁tonight~~6253
▁Je~~11028
▁acc~~10495
ohn~~13802
▁Ja~~12996
▁option~~7853
▁]~~16836
▁Kore~~1842
▁Libby~~11225
▁deta~~18117
▁Ju~~13583
▁Korn~~17252
▁dete~~10204
▁JL~~18049
iges~~12668
iger~~9151
▁Lesterland~~13888
ounted~~7669
▁glowing~~8871
▁JC~~12842
▁JA~~16999
▁sterile~~9115
▁Mode~~17840
▁collaborators~~3891
▁retina~~12807
▁vegetable~~4853
ah~~2841
rump~~17743
▁cass~~11472
▁conversation~~5937
▁JR~~14369
▁JS~~9727
▁JP~~17609
▁Nikola~~15705
▁rates~~792
rition~~16057
▁Yellow~~1732
▁default~~6826
▁humanity~~6368
▁ums~~18172
am~~2236
▁metal~~4397
▁design~~3911
▁earth~~4643
▁range~~426
finished~~8008
cor~~3191
▁metap~~17392
▁cybercr~~15329
▁pict~~16145
▁became~~2663
▁argument~~6943
▁unconscious~~14098
▁poor~~691
▁Monterey~~13989
▁friend~~4295
▁orchestra~~3678
How~~5778
imination~~6908
agan~~12978
▁positions~~7742
defin~~2936
▁informal~~15569
ograph~~7345
▁arrest~~12764
au~~6657
IT~~12683
▁22.~~14767
▁pool~~1653
▁expecting~~9883
at~~2268
▁single~~1155
▁draft~~8290
eries~~16638
▁movements~~3948
▁aspir~~2589
▁minim~~14646
unction~~5120
av~~6317
▁frequent~~11170
▁Palestine~~4283
▁impacts~~13642
▁Rica~~5399
▁survey~~3371
▁Freud~~11408
▁Poet~~14174
▁defin~~13561
▁Rich~~12919
▁reag~~17387
▁read~~3352
▁Rick~~13765
entle~~13703
ilities~~11762
▁Mediter~~10744
▁fictional~~11535
)~~3983
▁reveal~~8027
▁helping~~2406
▁Image~~16925
▁companies~~6339
▁Costa~~5398
▁distinguish~~9345
▁strictly~~12123
▁Cor~~8252
▁desperately~~5630
▁chimpanzee~~10164
▁enters~~3849
▁priorit~~14706
atural~~12023
▁Cop~~9736
▁conferen~~17271
▁apparently~~8512
iox~~17734
▁vehicles~~7607
iot~~5050
ios~~5033
ior~~4957
▁Pant~~16435
iop~~16338
ion~~2244
▁Saf~~11758
aking~~5204
▁leaders~~1516
elos~~17568
▁drive~~467
▁finally~~5237
▁cumul~~6026
▁snow~~8222
ferences~~5974
▁consequence~~7736
▁melting~~4393
▁Sac~~13780
▁facts~~1023
▁Humanity~~16499
▁traum~~13947
:"~~15496
ious~~912
▁bele~~17353
▁wood~~7921
▁UNA~~11742
▁refriger~~3381
▁coin~~7802
▁Sal~~11302
position~~11850
con~~4880
▁dank~~17859
usual~~13538
▁believes~~6575
▁2000,~~1871
abad~~15257
▁2000.~~1861
▁preparation~~8444
▁Col~~8327
▁mat~~11635
▁Pretty~~9234
▁believed~~6224
▁route~~6781
▁Cost~~6267
▁made~~301
▁remember~~1120
itely~~9358
▁Sau~~11858
adt~~18176
▁multi~~3484
ads~~3807
▁Sat~~15899
▁IMF~~15222
▁glue~~8875
ady~~8005
add~~3847
ade~~2641
▁protect~~5209
ada~~5096
▁Rights~~10603
▁towards~~2714
grow~~14636
▁gosh~~9505
ought~~12058
▁hack~~15685
▁even~~91
▁speech~~1227
▁attend~~7719
▁boun~~3105
akery~~15253
▁skilled~~1983
▁meant~~2595
icit~~6550
▁lazy~~10543
▁serve~~2870
icip~~12965
▁fade~~11402
▁autistic~~8583
▁Engel~~17718
▁personalities~~3764
▁heroes~~5573
like~~7661
▁beaut~~15692
▁Say~~10916
▁LED~~13230
▁positives~~13550
annes~~12268
▁Holocaust~~14752
iesen~~17556
▁nam~~16188
▁metaphors~~11512
bane~~16107
iza~~15404
athy~~7525
▁illnesses~~14312
soft~~15761
▁Montana~~12586
ulse~~17603
▁worried~~2527
▁Mitchell~~7783
▁Got~~9084
▁willingness~~9458
▁voc~~11540
▁performing~~1679
▁von~~11608
▁turning~~6371
▁vom~~7215
ivals~~13579
▁eigen~~17521
▁monument~~7300
▁attacks~~10792
▁Pinker~~15004
▁warming~~8716
▁worries~~9622
▁man~~3801
▁staying~~7025
▁axes~~10217
▁seiz~~11492
ogram~~9348
▁utter~~7223
▁re~~1299
ess~~6573
▁mite~~14408
▁ra~~2544
▁ro~~391
▁rh~~5623
▁characteristic~~6911
ese~~1239
▁platforms~~7604
esc~~10891
esa~~15507
▁gift~~6202
▁multipl~~8242
ogen~~2418
active~~7658
esh~~5672
leton~~15350
▁Propaganda~~15386
▁libraries~~8211
▁Saudi~~15860
▁separation~~10290
▁excellen~~17251
ident~~10935
▁loneliness~~4924
▁Scientists~~7640
▁Amy~~6849
▁Terence~~6214
▁diamond~~6099
▁mail~~7306
▁shouldn~~1098
▁Amb~~4883
worthy~~11293
▁musician~~13266
▁autonomy~~9229
▁appeared~~2826
▁review~~2175
asten~~17502
isex~~17878
▁legacy~~3812
ateg~~14015
▁cleaning~~4606
andem~~15186
andel~~3815
▁received~~3027
▁taking~~2142
▁400,000~~8306
▁dictator~~10573
ander~~5942
stitute~~11631
▁receiver~~15574
▁space~~339
▁segment~~8352
▁dramatic~~546
▁Internets~~9697
!"~~6777
▁demanding~~12475
▁intersection~~12929
▁officials~~9921
▁Zimmer~~18189
▁persist~~10297
App~~15301
▁Inform~~18004
▁symbol~~8009
▁Passion~~16366
▁Thanksgiving~~12395
esteem~~12427
eing~~15158
▁march~~5939
▁importance~~2601
▁resilient~~53
▁opposed~~7151
▁Science~~7840
bees~~14399
▁Scient~~12117
▁myth~~5214
▁Gall~~5
raft~~16593
annel~~15730
▁fruits~~6389
▁confused~~11164
imony~~10597
bur~~8065
ills~~7785
brand~~10732
▁other~~296
but~~14293
▁Evans~~17676
▁pause~~8038
▁recycl~~10021
▁helpful~~2920
▁hunting~~11657
▁collecting~~10832
bul~~14428
▁innoc~~12708
▁viruses~~5511
▁spirit~~7759
bud~~13332
▁pencil~~3406
▁Finland~~1738
ially~~6684
▁names~~2576
wise~~11063
▁Long~~4417
j~~5203
▁Synth~~13142
▁odd~~12047
▁Sher~~6053
▁named~~3503
▁August~~9926
▁agrees~~1977
seil~~15336
▁fra~~6930
▁fre~~6760
▁software~~3726
▁Div~~13531
▁Lego~~13624
▁Wars~~3544
pid~~13960
▁1.3~~6866
▁fro~~8502
▁treat~~1179
▁transparency~~1463
▁snake~~5954
vable~~6308
▁Warn~~17855
▁celebr~~10789
▁Next~~9484
▁seafood~~17611
pit~~11907
▁Ware~~8969
eper~~4524
▁tread~~6751
▁utop~~16714
▁providing~~409
▁responsibility~~3896
▁Greek~~3827
oac~~12670
▁penalty~~12645
▁adolescents~~6746
▁swing~~14159
▁Lawrence~~9679
45~~13907
40~~4286
▁Syria~~16382
4.~~9554
4,~~3003
4-~~16235
▁homosex~~10445
illa~~10358
▁wrest~~3514
umbled~~11667
▁uniform~~7011
▁institutions~~6426
otrans~~9263
▁shared~~2438
aginas~~17775
▁Susie~~17729
▁thanks~~3867
▁transit~~13447
▁distorted~~3444
▁shares~~2464
ube~~8802
▁Hoff~~8369
▁StoryCorps~~18125
ubl~~14274
▁teenager~~8841
▁jung~~16504
▁interface~~2376
▁intact~~3989
▁thousands~~456
▁catastrophic~~14474
▁motivation~~7702
▁Jonathan~~10956
▁Somalia~~5564
▁highway~~6783
‘~~17671
”~~7941
“~~18174
▁Albert~~7928
▁species~~660
▁compet~~12968
iddle~~14655
erne~~16271
▁CL~~15291
▁She~~1121
▁trou~~10473
▁Cola~~16533
▁Burn~~13797
▁encouraged~~6679
▁adults~~1048
inary~~11308
▁produce~~2206
▁contributed~~2141
▁margins~~15991
▁Feynman~~14046
ders~~5038
▁contem~~15949
▁dimin~~9047
dern~~6581
▁vocab~~17460
▁Turns~~3357
▁product~~710
usted~~6405
embererana~~17779
▁vocal~~11413
▁Bonobo~~17932
▁my~~238
▁referred~~15460
▁Inst~~15379
▁spending~~1825
▁mo~~1647
under~~8078
▁transition~~13136
▁me~~680
▁Inse~~9590
▁Trag~~13700
▁ma~~2860
@~~11300
▁worlds~~5207
▁hemisphere~~12588
▁rarely~~4633
▁Teller~~12133
omon~~14600
▁Peking~~6193
▁climbers~~5039
▁Jerusalem~~10734
▁DAR~~15290
▁president~~4567
▁cultivate~~6668
▁Guten~~16571
rist~~13308
▁wallet~~14556
▁Hit~~15433
neur~~17727
▁terrorists~~12878
school~~14809
▁unbe~~10453
▁Jon~~5503
▁discipl~~3957
▁Optim~~17174
▁continent~~5364
▁Job~~14923
embly~~11731
▁Take~~7229
venue~~12811
atlant~~12729
▁balloons~~9482
▁couldn~~315
▁cle~~14615
▁pops~~9975
▁Joy~~13930
uten~~16407
▁growth~~1325
Go~~5888
▁Alber~~13148
Gl~~15439
oming~~5397
▁effects~~3737
▁major~~1938
▁itself~~234
▁Brun~~16882
▁least~~1841
▁domin~~5726
▁Rod~~9108
▁Roh~~17967
▁1960,~~12272
▁Ron~~4206
▁oldest~~10120
▁Ros~~11387
▁linear~~5134
▁origins~~11592
▁Row~~14872
▁Rot~~3054
▁credit~~7541
writing~~7322
▁Roy~~14794
▁participation~~7589
▁gallery~~4174
▁Sap~~17705
ustainable~~13429
▁manual~~11458
▁Cold~~12731
▁hung~~2272
▁memor~~1133
▁Edison~~14921
apses~~14456
▁Str~~11690
ain~~5633
esome~~3610
▁hunt~~1271
▁charts~~11814
ograp~~12909
▁theme~~10058
▁obsession~~9981
▁Hindu~~11576
▁abst~~16651
lers~~13315
▁calories~~4681
▁shy~~3883
▁Kibera~~14380
stitu~~12881
▁shr~~8764
▁filling~~7920
▁football~~1365
▁documentary~~2734
▁Magazine~~4371
▁Discovery~~7580
ften~~15511
▁galaxies~~8185
▁she~~2460
▁Forum~~11960
▁Fried~~13047
▁USA~~4685
▁less~~1695
▁religion~~1292
Ze~~18016
▁benefits~~996
iminal~~16606
▁torn~~10480
▁topic~~2174
▁lesb~~10403
▁Nobel~~6358
▁inferior~~5730
▁sequencing~~5510
ointed~~12127
▁Venezuela~~16383
offs~~7542
▁emerged~~6226
▁Moor~~16436
imme~~16384
▁fought~~6256
ts~~605
▁digits~~12122
▁emerges~~9220
▁partial~~11536
▁earthquake~~10078
▁Moon~~8198
des~~14337
▁Fahren~~7177
▁upright~~10122
▁dispar~~1777
▁homin~~11605
tte~~15231
▁banking~~5915
▁Conne~~15778
▁Marke~~18158
▁price~~1779
▁interpretation~~3675
assen~~17726
▁Iranians~~4220
asses~~13303
asser~~15744
▁sanitation~~11778
▁extreme~~637
▁minds~~2399
▁accepted~~7536
▁sticking~~11914
ifically~~7866
▁succeeded~~5497
▁iceberg~~3704
önen~~15318
▁cognitive~~7156
▁job~~1238
▁packaging~~4604
phony~~3710
▁method~~3264
phone~~7616
▁lust~~10372
▁joy~~416
▁workplace~~1371
▁53~~10729
▁fuel~~9826
▁52~~9033
me~~6584
▁succeed~~2007
te~~2982
ma~~526
onia~~10455
▁Odysseus~~16650
onic~~2401
mm~~7697
ml~~1577
mo~~6580
▁elites~~11349
mi~~6177
▁plug~~7438
▁anniversary~~15169
warn~~17525
▁stre~~12262
▁insist~~6282
mp~~11425
ms~~1794
▁choices~~1992
▁plus~~4324
ta~~13149
▁enormous~~2246
▁plut~~14919
▁8,000~~8469
▁recht~~17797
▁Simpson~~9800
▁drawings~~9891
▁genetic~~1346
▁oppos~~10490
▁elsewhere~~1665
▁speed~~2627
▁He~~612
▁past~~2020
▁international~~1629
▁drove~~4801
ium~~6543
▁alter~~9136
▁Hi~~2342
▁capitalism~~10665
▁HT~~15492
▁suicide~~10308
end~~4050
ene~~4457
eng~~11530
iance~~2072
enk~~15832
▁birthday~~2593
ockey~~4124
▁ceremony~~10039
gets~~10654
ens~~5430
ent~~3093
▁phil~~10991
aching~~947
▁insulin~~12671
▁Believe~~11568
▁shorter~~7137
▁combined~~4066
▁HI~~15880
▁tong~~16718
aments~~708
▁Labs~~15707
▁ridiculous~~1219
▁Solly~~14954
▁chicken~~8610
▁Schne~~16022
▁officers~~6030
▁prosth~~12776
▁convicted~~12644
▁ign~~1518
▁campaign~~2265
▁honest~~3006
▁5.~~9509
rians~~10795
▁languages~~2508
▁filmed~~12942
▁balanced~~9785
▁countless~~8368
amil~~190
amin~~4936
▁Computers~~7017
amie~~14330
▁Aristotle~~13285
▁observed~~7907
▁Partner~~13102
▁203~~15912
▁202~~9662
▁201~~10246
▁200~~332
▁biochem~~3592
▁20.~~14645
▁electrical~~3282
▁20,~~3655
▁recyc~~14661
enter~~3274
▁finishing~~5684
▁Spanish~~8803
▁healing~~6690
▁observer~~11506
amis~~16337
vity~~342
▁maximum~~11641
▁interpre~~11431
▁Athe~~17695
▁condom~~6089
over~~3628
oves~~3136
▁rationale~~10324
▁nicely~~10839
▁delicate~~13881
▁Apoll~~17416
▁Development~~10607
pression~~1068
▁skill~~3595
▁Symbol~~17849
▁molecule~~2146
▁working~~241
▁dorm~~8083
acities~~10641
video~~17021
imb~~6155
ime~~3386
▁hormones~~8658
▁bin~~13486
▁bio~~162
imi~~9615
cle~~3196
▁chances~~1756
▁Fall~~12326
imm~~6261
▁cancers~~6240
Here~~10156
▁big~~131
imp~~2909
▁Linus~~16224
▁shocking~~13484
issions~~7744
400~~9019
▁bip~~12087
▁Linux~~11285
▁bir~~1347
▁bis~~8628
▁bit~~3227
▁riding~~8804
CHA~~16811
▁anger~~5727
▁Orient~~15966
▁Rift~~13157
▁lights~~308
▁eff~~17190
▁farmers~~6345
▁microw~~8187
▁Jill~~13107
▁austral~~11607
▁microb~~12518
▁lectures~~8255
▁angel~~16245
▁Social~~1052
▁joyful~~11038
▁awe~~2623
utely~~13274
▁amaz~~678
aler~~17259
ales~~2258
▁compassionate~~7509
alen~~3848
▁dirty~~6795
▁Fantast~~15122
aled~~9081
▁occupy~~10446
▁Goliath~~13788
▁workers~~1163
▁bubble~~1805
▁2006,~~5298
▁domain~~6183
▁Tal~~9224
▁Comp~~4989
▁bell~~11541
▁mammogram~~9305
▁divorce~~6128
▁nat~~16567
▁ought~~6932
▁Wood~~472
▁Come~~9002
zte~~16579
▁Ages~~10472
▁portable~~15280
▁commands~~5878
▁Comm~~6477
▁Winter~~15593
▁Language~~10371
▁verte~~11916
▁brib~~12972
▁encry~~12864
▁graduate~~7756
▁voted~~11712
nitt~~14049
ancers~~16812
▁assets~~1180
▁votes~~13838
",~~15437
▁Ye~~15732
▁cardiac~~9380
▁sectors~~11706
▁device~~7309
▁Dete~~14107
▁Building~~7264
▁English~~2991
▁bowl~~3339
▁tags~~12948
▁Spring~~8684
icke~~9582
▁Clear~~11436
▁voting~~13847
ied~~2808
▁grasp~~2530
▁happened~~3053
ever~~9030
▁Drake~~15780
▁pregnancy~~8657
▁scare~~7663
formation~~11244
W~~2874
▁secondly~~9011
▁Agent~~16062
nie~~16886
▁intriguing~~7722
icks~~4498
▁likes~~10139
▁equipped~~8473
▁behav~~1031
▁Kind~~13811
▁King~~10859
▁scenario~~5020
▁denied~~7526
utes~~10136
▁Tas~~13859
▁samples~~4559
onte~~18076
▁zig~~12560
▁Babies~~1046
▁king~~2523
onto~~17119
▁necessarily~~7088
rand~~13937
▁equator~~14509
▁sending~~3578
▁Guy~~14435
▁Gut~~14345
▁Ane~~16591
rank~~15892
▁Gur~~4320
▁geomet~~11417
rant~~1771
▁accept~~1781
rans~~12697
nis~~13766
700~~8357
▁eastern~~4768
▁Virginia~~10875
▁pl~~831
ê~~2981
é~~6571
▁po~~3908
▁ph~~5369
í~~13571
▁during~~3018
▁odds~~9503
▁pe~~378
top~~4820
à~~16207
▁deleg~~1526
▁race~~1291
▁matched~~9789
▁Silver~~13302
ú~~17780
▁Psych~~11412
ø~~16558
ton~~2914
▁comfortable~~6473
▁sal~~4677
auber~~11018
▁independence~~2651
ñ~~2196
▁Roth~~13934
▁pr~~1145
ô~~17651
▁beer~~1556
▁bees~~10967
▁beet~~16817
▁contra~~9934
▁climbed~~11358
▁studying~~3261
▁installations~~6148
onges~~15413
▁pressure~~570
▁beef~~9141
▁93~~14693
▁asks~~3967
▁Akk~~10714
▁been~~81
▁islands~~15408
▁captain~~5384
▁acknowledge~~11410
burger~~16299
▁farming~~4825
▁choosing~~2678
▁wa~~14415
▁Input~~15071
▁BMW~~9816
ology~~4972
▁suits~~12186
expl~~1137
▁compare~~9861
opolit~~15475
▁incent~~7875
▁sap~~12595
rag~~3170
▁tragic~~5282
▁gallons~~8732
rab~~12611
▁neurons~~7153
▁angels~~14276
ran~~4216
▁enem~~6693
▁halluc~~11381
ram~~11012
▁Transplantation~~17669
▁aerodynam~~15960
rah~~10774
▁91~~12949
rat~~9116
ible~~6021
ras~~3670
▁Jenny~~7319
▁sadly~~10628
▁promotion~~1509
▁Small~~4574
ray~~7993
▁Nad~~8223
▁products~~4370
▁Nag~~10079
▁1989~~16191
▁significant~~5306
▁Association~~6208
▁Nan~~15983
-~~293
▁Naj~~17292
oriented~~14036
▁individ~~17105
▁1999~~11721
▁significantly~~8699
▁Nap~~14290
▁Nar~~14360
▁1993~~12599
▁Chor~~16822
▁1991~~8068
▁1990~~1655
▁epidemic~~5831
▁1996~~8421
▁1995~~11932
▁1994~~15807
▁magazines~~8968
▁Yves~~8830
though~~17418
bst~~11559
▁efficiently~~15455
▁Egypt~~4725
▁peaks~~10316
▁97~~11110
äum~~17803
▁different~~252
▁2050.~~4668
▁unpredictable~~14822
▁inherently~~9289
illance~~17756
▁bizarre~~52
▁stones~~13167
▁local~~5167
▁noisy~~4083
ully~~12478
▁wr~~13910
▁achievement~~2931
oton~~16392
▁Noah~~16466
▁96~~12856
flow~~14838
▁1985~~13574
▁infectious~~9839
▁soft~~10614
R~~2233
▁1986~~12385
▁off~~724
▁fold~~8299
▁folk~~10458
▁prefer~~7285
rupted~~2559
▁boundaries~~2507
▁biomed~~9396
▁investing~~1834
▁gains~~13431
api~~16144
▁Cous~~17681
▁1,2~~17784
▁scenes~~2452
▁CIA~~12720
▁health~~967
▁invitation~~8779
▁formation~~12830
asis~~8230
▁seemingly~~6271
▁Tai~~16610
▁Soviet~~8373
▁assembly~~10649
▁knowledge~~1073
och~~3505
ock~~2702
▁Vancouver~~10245
oca~~16850
▁crash~~7147
▁Cartoons~~16489
▁Kö~~17623
▁networking~~10928
opter~~12615
▁Right~~6276
▁Should~~7701
▁businesses~~1002
iale~~11753
▁Polit~~12977
▁etc~~4023
▁fathers~~15022
▁Shin~~15544
▁Iowa~~13135
uate~~8790
▁eth~~14093
fluid~~10950
▁Democ~~9752
▁half~~429
▁Coach~~10678
▁Only~~4385
aught~~4594
▁patients~~2429
▁Polio~~5484
▁hall~~6134
▁Kid~~2436
angers~~12193
▁trip~~7295
▁triv~~14520
▁considered~~5222
▁Botswana~~16529
▁Kim~~11006
▁Kil~~15250
▁inform~~9298
▁Freder~~10936
▁Beck~~8477
▁Kit~~1263
titudes~~11867
▁trig~~12676
▁Kir~~10084
▁diagram~~7079
▁engines~~12211
oenix~~17606
▁popul~~12035
▁historic~~10759
▁Se~~4341
ducing~~13341
▁appropriately~~6535
▁Sa~~15678
▁Sc~~4039
▁sustained~~2088
▁Sm~~2235
▁Sl~~8948
▁So~~512
▁inject~~2357
▁nah~~16795
▁hyper~~3661
Per~~2761
▁finance~~11111
▁Su~~11346
▁St~~3548
▁Sw~~7487
▁nap~~6066
▁stealing~~3336
▁nar~~11501
inu~~16179
▁devoted~~3637
▁Sy~~17148
▁disrupt~~14279
habil~~6821
mut~~8342
▁Lagos~~16508
▁SA~~16106
▁bleeding~~13399
mus~~6833
▁SB~~15723
▁SM~~15682
▁unpleasant~~13295
▁SO~~13205
▁SI~~13219
▁Stephen~~7482
▁SJ~~13724
▁SU~~9225
▁ST~~13413
▁attract~~2081
▁scholar~~6199
▁matches~~10222
▁SP~~7845
▁SS~~14445
▁SR~~15452
ishn~~14609
ucker~~15800
▁pale~~10124
▁verges~~16548
▁Rou~~15981
▁recognizes~~11423
▁procedures~~14722
▁toward~~3289
▁Definition~~16485
▁situation~~3300
▁usual~~6635
▁Crash~~15322
eli~~12819
▁recognized~~5352
wear~~10589
bes~~14849
istine~~16241
▁Sier~~17332
▁Normal~~15724
▁Norman~~13121
▁pandem~~16178
▁decentral~~14990
▁Phoenix~~13443
▁scientifically~~14238
orts~~7631
▁actual~~3571
▁Redwood~~17143
▁logging~~14431
▁200,000~~5341
orte~~17461
▁Miss~~14808
▁viewer~~12153
▁41~~14632
▁clouds~~8076
▁approval~~6695
▁mas~~15633
▁mar~~6606
▁map~~4738
endence~~10919
▁Zealand~~5385
▁woods~~14079
▁may~~808
▁max~~14525
▁mag~~525
▁mad~~5781
▁consumption~~1993
stens~~16099
▁translation~~13593
▁setting~~545
▁mam~~16723
▁mal~~9645
▁mak~~16361
▁maj~~11062
▁thermal~~4404
▁nerve~~5128
▁inequality~~13386
▁chunk~~6591
cohol~~15563
▁observ~~14218
▁completely~~838
▁rubber~~8909
▁plot~~7898
▁dating~~7394
▁balloon~~12840
▁encryption~~12863
▁backyard~~8142
▁buff~~9143
board~~2773
▁Utop~~4831
▁stagger~~17197
▁prediction~~10975
▁microscopic~~8334
appiness~~6352
▁laund~~16972
iums~~15470
hythm~~15148
▁together~~277
▁Route~~12513
▁relevance~~12004
craft~~14902
▁Hotels~~17777
▁constantly~~5454
▁reputation~~12516
▁democ~~17007
▁gasoline~~14030
Trans~~13663
▁concentrated~~9021
▁senses~~11415
▁agre~~9811
▁arose~~14709
▁pigment~~12808
▁Bono~~9755
▁tort~~6824
▁Volk~~16349
▁Detroit~~12197
▁Bond~~16388
n~~2735
▁Junk~~17176
▁migrate~~10638
▁forest~~4157
▁gorgeous~~11683
anten~~15717
▁Jung~~12538
▁elements~~5142
▁June~~5662
▁stored~~8817
▁Less~~9680
aras~~11562
▁Misch~~17234
▁enough~~682
▁explosion~~6670
▁stores~~8733
▁conclude~~10913
▁Hipp~~11467
▁skys~~12831
▁dropping~~11649
▁Hund~~4504
otive~~12194
▁honored~~9048
▁legislation~~9814
▁symmetrical~~8896
▁Stone~~7278
▁locations~~5980
▁awkward~~2655
▁believing~~4997
▁his~~363
▁outbreak~~9633
"]~~12329
▁Anti~~13902
▁Anth~~16998
▁opportun~~16698
▁Ide~~12783
▁lined~~7746
▁Spiegel~~12870
▁rightly~~11324
▁Arthur~~13542
▁outc~~6525
▁bathroom~~5766
"-~~16023
".~~3746
▁reluct~~13468
schel~~9881
▁footprint~~9300
schen~~9473
▁called~~464
legen~~15009
▁frog~~8263
scher~~12118
▁nonetheless~~6650
"?~~9274
▁meaning~~1599
▁Manipulation~~18191
":~~13346
cycle~~5317
▁simulate~~12717
▁watt~~11688
▁bitten~~17329
▁carcin~~15476
▁Analysis~~12874
▁kidding~~7636
▁Method~~14618
▁pollen~~10959
▁lobe~~8518
▁organic~~2217
leg~~10243
▁bitter~~1867
▁orth~~9531
iche~~9130
▁graphic~~3952
▁interior~~4959
▁Nu~~15926
▁whereas~~11474
▁weight~~2219
▁involve~~7085
▁Ny~~15375
▁1500~~14281
▁launch~~5348
▁Cambod~~8214
▁Italy~~6243
▁paus~~7844
▁repet~~4154
▁Ne~~1574
ption~~12019
▁Free~~9003
▁appe~~15726
▁Ni~~2195
▁No~~849
▁chemical~~486
▁Lester~~13889
▁NR~~15867
▁lion~~9152
▁Negroponte~~8901
uild~~16225
ell~~322
▁outs~~12712
▁NY~~13853
elf~~6366
eld~~9186
ele~~11812
rien~~16997
ely~~3732
▁NG~~11664
ris~~6663
els~~2208
▁vitamin~~5589
▁acres~~14420
elt~~4396
▁NM~~17276
▁meter~~3145
▁styl~~8857
D~~2211
▁Hung~~1953
unter~~13391
▁Ath~~8483
bands~~8143
▁Myhrvold~~14672
fast~~13670
unted~~14765
owntown~~16818
▁Att~~16524
▁Hunt~~16921
▁western~~8236
▁engaging~~9984
▁Experiments~~17356
▁paraly~~14066
ige~~13616
vir~~8058
herent~~2087
▁emotional~~1339
▁comes~~872
▁eure~~15116
▁naive~~4329
▁summ~~8427
▁powered~~6506
5-~~10031
5,~~6804
▁Russia~~5515
▁Johnson~~7617
ained~~12999
hung~~18204
itet~~17351
▁ste~~5991
ushed~~2829
▁politics~~7378
vit~~12393
▁Catholic~~10082
▁Server~~15324
▁efficiency~~6516
▁stim~~12421
▁participating~~2928
50~~7070
▁opportunities~~1772
▁surviv~~16536
▁December~~10036
HO~~2232
▁returning~~16004
HC~~17995
▁spouse~~13557
▁shortly~~10883
auch~~17864
adies~~16133
ick~~1420
specific~~14638
▁Heads~~3981
ich~~4313
ico~~14067
▁bow~~6121
▁bot~~9209
▁impose~~12974
imulation~~17018
▁box~~96
▁boy~~2765
ice~~2410
umer~~15076
▁violent~~39
icy~~7288
5.~~6998
▁particle~~11152
olis~~13455
▁Doctor~~14892
ics~~3985
▁wages~~9931
▁invisible~~7625
Ha~~1153
▁bon~~10979
▁boo~~13035
▁bol~~1164
He~~1157
iled~~2718
core~~3729
-4~~16013
▁Quest~~10286
corn~~12422
▁Olympic~~14229
ilet~~17205
▁population~~588
▁Arkansas~~13842
iler~~5018
iles~~4238
rent~~11298
ths~~10824
▁Whenever~~9506
▁schol~~17922
▁Ident~~15639
▁golden~~11892
▁2012,~~16506
▁exhibit~~8182
▁Wikipedia~~9702
▁aud~~11891
▁inhabit~~9138
▁portray~~4948
plus~~2177
span~~16184
▁value~~966
▁medicine~~1415
▁aut~~1376
▁undergra~~3382
abet~~14639
aha~~13091
▁nucle~~9202
▁Vietnam~~5929
▁Southern~~5361
▁viral~~9993
▁irrit~~3005
▁2004,~~6510
ianist~~3749
▁2004.~~3042
ahn~~15620
▁glasses~~6196
ahl~~2848
aste~~9450
ahr~~14867
▁Francisco~~2187
fers~~11457
fert~~14973
▁scenarios~~15131
aben~~17202
abel~~9037
▁live~~336
▁Cool~~13075
▁depend~~6889
▁master~~7810
▁Norwegian~~11888
▁beloved~~10056
▁oblig~~9834
▁sticks~~5774
▁appl~~10897
▁Taylor~~9873
▁Therefore~~7505
▁sticky~~10990
▁Avenue~~8742
▁Jacqu~~13699
gig~~7431
gie~~7283
awa~~10110
▁double~~1932
lage~~2727
Amer~~15488
▁correct~~3035
head~~5357
▁sensor~~9291
▁bags~~4552
otal~~14784
▁hunter~~11238
▁Breit~~17987
▁adopted~~7315
aper~~11053
hear~~3069
inas~~13559
▁imple~~17494
▁Stewart~~2677
▁Katrina~~14759
▁ball~~4128
atts~~13106
▁Vegas~~9867
osystem~~14979
▁Panz~~15018
▁Andre~~1601
▁quo~~7848
▁Ministry~~15743
atte~~11934
▁zoo~~4523
union~~15590
▁silk~~13005
▁percept~~15466
▁cutting~~3202
▁que~~10459
▁reactor~~14650
Com~~17645
▁Rivers~~16760
▁unbelievable~~787
▁concepts~~9892
▁peers~~10837
uri~~14523
valent~~17220
▁wants~~3802
▁188~~13071
▁realm~~8184
▁Schrö~~11849
▁heavily~~12021
ni~~3510
▁vi~~16416
▁vo~~11543
▁tackle~~2513
no~~9764
tit~~2732
na~~11216
nd~~8892
ne~~2836
whel~~15552
ng~~8725
▁glimpse~~2136
ny~~4207
▁International~~4935
▁185~~8082
▁wheels~~8139
inda~~11773
▁elbow~~5102
techn~~15889
nt~~5026
–~~14237
tic~~9976
iction~~5354
▁bor~~9076
▁Air~~5876
▁adopt~~5420
▁Check~~9986
▁panel~~7982
aceutical~~16418
▁sensors~~487
▁ton~~13507
pson~~17964
▁Charl~~15868
[...]
