<unk>	0
<s>	0
</s>	0
▁,	-2.90911
▁.	-3.14521
s	-3.6897
▁the	-3.88923
;	-4.05723
▁&	-4.05998
▁and	-4.3697
▁in	-4.4221
▁to	-4.51476
▁	-4.52993
▁und	-4.53494
apos	-4.5462
n	-4.55393
▁die	-4.58301
▁of	-4.63331
▁a	-4.64838
en	-4.75617
▁that	-4.85767
▁I	-4.96696
▁it	-5.03498
▁das	-5.0375
quot	-5.06358
▁der	-5.06544
▁ich	-5.10402
▁you	-5.11785
y	-5.14936
▁we	-5.18009
▁is	-5.2009
▁ist	-5.20302
▁wir	-5.23064
▁es	-5.25729
▁zu	-5.31497
▁so	-5.3232
t	-5.35544
ing	-5.36769
▁sie	-5.409
ed	-5.41157
▁was	-5.44828
▁this	-5.48091
-	-5.55259
▁?	-5.58996
▁:	-5.61402
▁ein	-5.64368
▁eine	-5.67804
d	-5.71829
▁an	-5.73536
ly	-5.73878
▁nicht	-5.80328
▁von	-5.80392
▁--	-5.82879
e	-5.86325
▁den	-5.88938
▁dass	-5.89373
m	-5.94756
▁mit	-5.97433
▁for	-5.98409
▁diese	-5.98916
▁auf	-6.03674
▁are	-6.05975
▁wie	-6.06498
▁have	-6.0862
▁what	-6.09568
▁Sie	-6.11221
▁on	-6.12722
▁but	-6.13262
▁with	-6.13312
▁man	-6.16843
▁be	-6.20101
▁can	-6.2254
▁sich	-6.22678
▁war	-6.24745
▁all	-6.25176
▁sind	-6.26654
▁aber	-6.28563
▁für	-6.28908
▁haben	-6.31512
re	-6.32975
▁wenn	-6.33061
▁about	-6.33356
▁there	-6.35961
▁also	-6.39032
▁als	-6.39398
▁at	-6.45736
▁do	-6.46852
▁not	-6.47717
▁um	-6.49042
▁er	-6.49728
▁one	-6.51104
▁im	-6.55534
▁as	-6.5725
er	-6.57457
▁like	-6.58
▁my	-6.58036
▁people	-6.60005
▁-	-6.62753
▁from	-6.64296
▁if	-6.6458
▁dem	-6.64804
▁he	-6.67383
r	-6.69635
▁now	-6.70321
▁uns	-6.72181
▁aus	-6.72882
▁these	-6.75329
▁just	-6.77154
▁our	-6.78004
▁or	-6.78006
▁können	-6.78212
▁einen	-6.78647
▁oder	-6.7995
▁über	-6.81505
▁hier	-6.82608
▁werden	-6.82695
▁when	-6.83295
▁des	-6.84882
▁hat	-6.85087
▁because	-6.85389
▁think	-6.87561
▁know	-6.88191
▁how	-6.89043
▁out	-6.89938
▁me	-6.9026
▁get	-6.90811
▁by	-6.91999
▁auch	-6.92841
▁up	-6.93215
▁kann	-6.93689
▁einer	-6.94467
▁going	-6.95751
very	-6.96978
.	-6.99527
▁einem	-6.9978
▁them	-7.00547
▁nur	-7.01418
▁more	-7.01704
▁see	-7.02719
es	-7.02933
▁us	-7.03078
▁dann	-7.03278
▁sehr	-7.03453
▁etwa	-7.03726
ve	-7.04349
▁had	-7.04698
▁who	-7.05665
▁which	-7.06084
▁here	-7.06463
▁wird	-7.07178
▁your	-7.0796
▁some	-7.08102
▁would	-7.08424
▁Menschen	-7.10151
▁were	-7.10759
▁their	-7.10906
▁will	-7.11823
▁sein	-7.12092
▁want	-7.12519
▁nach	-7.12789
▁gibt	-7.13817
▁mich	-7.14424
▁meine	-7.17145
▁look	-7.17723
▁da	-7.18617
▁vor	-7.20885
▁go	-7.2104
▁time	-7.22566
▁has	-7.22904
▁sehen	-7.24107
▁dieser	-7.24233
▁actual	-7.24391
▁world	-7.25152
▁noch	-7.25187
▁other	-7.27217
▁habe	-7.29204
▁bei	-7.2977
▁into	-7.30679
▁way	-7.3182
▁mir	-7.32457
▁could	-7.32605
▁ihre	-7.32624
▁don	-7.32662
▁where	-7.32859
▁no	-7.34298
▁alle	-7.34875
▁did	-7.37508
▁things	-7.38235
▁mehr	-7.3849
▁years	-7.38881
▁Welt	-7.39728
▁unsere	-7.41612
▁make	-7.44858
▁viele	-7.46849
▁say	-7.47424
▁am	-7.47852
▁right	-7.49225
▁well	-7.49849
▁then	-7.50068
▁viel	-7.50076
▁zum	-7.51262
▁every	-7.51606
▁been	-7.51719
▁durch	-7.51906
▁start	-7.51927
▁weil	-7.52473
▁wurde	-7.52702
▁keine	-7.52705
▁reall	-7.53196
▁sai	-7.53818
▁würde	-7.55028
▁Ihnen	-7.55305
▁she	-7.554
▁something	-7.55651
▁machen	-7.56429
▁wirklich	-7.5682
▁first	-7.57241
▁two	-7.57524
▁ihn	-7.59198
▁immer	-7.60008
▁those	-7.60757
▁nun	-7.61723
um	-7.62181
▁wo	-7.62269
▁much	-7.62764
▁call	-7.63037
▁kind	-7.63606
▁than	-7.63688
▁real	-7.64025
▁andere	-7.64116
▁got	-7.64248
▁over	-7.65095
▁thing	-7.65234
▁take	-7.65394
▁little	-7.66004
▁need	-7.6606
▁tun	-7.66888
▁ihr	-7.67036
▁come	-7.67883
▁back	-7.68084
▁his	-7.68172
ll	-7.6835
▁most	-7.68524
▁jetzt	-7.68708
▁talk	-7.70257
▁TED	-7.70619
▁work	-7.71143
▁sagte	-7.7159
▁Dinge	-7.71952
▁hatte	-7.72426
▁her	-7.74427
▁T	-7.74608
▁life	-7.75012
▁bis	-7.75205
▁wissen	-7.75686
▁Zeit	-7.75851
▁only	-7.77242
▁even	-7.77644
▁Leben	-7.78097
▁Leute	-7.78748
▁einfach	-7.79265
a	-7.80698
▁zwei	-7.81036
st	-7.81782
▁new	-7.82018
in	-7.82483
▁good	-7.83216
▁müssen	-7.84373
▁lot	-7.84973
▁many	-7.84988
▁sagen	-7.85788
▁does	-7.85973
▁;	-7.87128
▁different	-7.87256
▁Art	-7.88767
▁through	-7.89184
▁bin	-7.89834
▁du	-7.89867
▁Jahren	-7.9013
▁waren	-7.90633
▁denn	-7.91116
▁why	-7.91143
▁change	-7.91444
▁alles	-7.92385
▁seine	-7.9271
▁diesen	-7.93392
▁down	-7.94207
▁damit	-7.94463
▁let	-7.94751
▁mein	-7.95169
▁gut	-7.96251
around	-7.96894
▁anderen	-7.97494
▁give	-7.97909
▁use	-7.97989
▁may	-7.98128
▁vielleicht	-7.98319
▁zur	-7.98511
▁any	-7.98815
ies	-7.99544
▁selbst	-7.99553
day	-8.00205
▁show	-8.00769
▁being	-8.01195
▁same	-8.01583
▁ob	-8.02552
▁ganz	-8.02596
▁try	-8.0344
▁Jahre	-8.04428
▁geht	-8.05481
▁three	-8.05515
▁great	-8.05988
▁put	-8.06402
▁wieder	-8.06908
▁doing	-8.09215
▁tell	-8.09397
be	-8.11359
▁muss	-8.1162
▁einige	-8.12333
▁kleine	-8.12867
▁part	-8.13734
al	-8.13812
▁20	-8.14524
▁schon	-8.14653
▁10	-8.15721
▁day	-8.1683
▁Talk	-8.17358
▁möchte	-8.17606
heute	-8.179
▁human	-8.18074
▁konnte	-8.19405
▁percent	-8.19968
▁un	-8.20622
tles	-8.21159
▁Subti	-8.21668
ranscript	-8.21783
▁after	-8.22036
▁made	-8.22039
▁find	-8.2214
▁tatsächlich	-8.2218
▁fact	-8.22526
▁Geschichte	-8.23194
▁Kinder	-8.2407
▁davon	-8.24562
▁ja	-8.25058
▁welche	-8.25359
▁thank	-8.26458
▁own	-8.26772
▁year	-8.26807
▁ge	-8.27082
▁turn	-8.27431
▁should	-8.27535
▁genau	-8.27656
▁drei	-8.27801
▁happen	-8.28169
▁idea	-8.28347
▁dort	-8.2855
other	-8.28824
▁dies	-8.28991
▁Ihre	-8.29242
▁ask	-8.29939
▁könnte	-8.30399
▁last	-8.30836
▁create	-8.32385
▁ab	-8.3246
▁thought	-8.32495
h	-8.33739
▁ver	-8.33781
▁unter	-8.33829
▁hatten	-8.34219
▁important	-8.34393
▁kein	-8.34966
▁end	-8.35334
▁darüber	-8.35334
▁big	-8.35485
l	-8.35655
▁him	-8.35657
dem	-8.36071
▁before	-8.36253
▁Jahr	-8.36947
▁werde	-8.37351
▁course	-8.37672
▁wollen	-8.37969
▁design	-8.3802
▁paar	-8.38285
▁gehen	-8.38499
body	-8.38609
▁ganze	-8.38719
▁again	-8.38939
▁zurück	-8.39258
▁Problem	-8.39617
▁gab	-8.3977
▁problem	-8.39929
▁live	-8.40041
▁never	-8.40483
▁denken	-8.40684
▁point	-8.41004
▁might	-8.41108
▁meiner	-8.41121
▁je	-8.41401
▁still	-8.41525
▁better	-8.41548
o	-8.41912
▁help	-8.41936
▁wollte	-8.42705
▁neue	-8.42709
▁bit	-8.42828
▁wurden	-8.42935
▁brain	-8.43314
▁lassen	-8.43433
▁story	-8.43821
▁love	-8.43984
▁weiter	-8.44061
▁off	-8.44598
▁A	-8.44655
▁nie	-8.44667
▁sondern	-8.45198
▁weiß	-8.45236
ung	-8.45249
▁million	-8.45828
▁next	-8.45903
▁dazu	-8.45922
▁jeder	-8.46173
▁...	-8.46185
▁natürlich	-8.46192
▁sort	-8.46241
ally	-8.46336
▁Beispiel	-8.46449
▁während	-8.46626
▁place	-8.46792
▁few	-8.46983
▁system	-8.47247
▁play	-8.47958
▁doch	-8.48028
▁able	-8.48146
▁each	-8.4818
▁unserer	-8.48257
▁mean	-8.4844
▁Teil	-8.4864
▁ago	-8.49022
▁wäre	-8.49032
▁water	-8.4932
▁vom	-8.49444
went	-8.49784
us	-8.50344
▁unser	-8.50606
▁sogar	-8.50636
▁together	-8.50686
▁long	-8.50717
▁macht	-8.51473
▁technology	-8.51858
▁große	-8.52021
▁learn	-8.52685
ther	-8.52718
▁denke	-8.53195
▁kam	-8.53661
▁came	-8.54199
▁gerade	-8.54226
▁kommen	-8.54742
▁zusammen	-8.54933
▁finden	-8.55252
▁ersten	-8.55378
▁ohne	-8.55904
▁question	-8.56017
▁zwischen	-8.56186
▁einmal	-8.56191
▁gemacht	-8.56582
▁eigene	-8.56661
▁found	-8.57234
▁B	-8.57415
▁between	-8.57789
▁Tag	-8.58213
▁Arbeit	-8.58478
▁dafür	-8.58489
▁geben	-8.59151
▁glaube	-8.59599
▁data	-8.59619
▁used	-8.59821
▁kommt	-8.59887
on	-8.59925
▁jede	-8.59997
S	-8.60004
▁ging	-8.60023
▁example	-8.60042
▁women	-8.60065
▁Frage	-8.60071
▁okay	-8.60473
w	-8.60487
▁erste	-8.60514
▁second	-8.60637
te	-8.60835
▁Internet	-8.61129
▁too	-8.61247
▁become	-8.61522
▁Frauen	-8.61527
▁believe	-8.61558
▁zeigen	-8.62066
▁mal	-8.6253
▁New	-8.62665
▁done	-8.62859
able	-8.63272
▁sagt	-8.63576
▁understand	-8.6393
▁passiert	-8.64606
ity	-8.64631
ok	-8.65911
▁Prozent	-8.66247
▁Wasser	-8.66429
▁per	-8.66836
▁light	-8.67115
▁verstehen	-8.67121
ten	-8.67249
▁meisten	-8.67253
▁whole	-8.67637
▁30	-8.68039
▁S	-8.68126
▁sollte	-8.68295
▁four	-8.68313
▁Land	-8.68465
▁school	-8.68781
▁daran	-8.69132
▁50	-8.69794
▁jemand	-8.69959
▁dabei	-8.70571
▁Millionen	-8.70579
▁working	-8.70586
▁person	-8.7102
ting	-8.71378
▁ever	-8.71383
▁besser	-8.71456
▁dachte	-8.71678
▁always	-8.72137
▁building	-8.72305
▁children	-8.72405
▁nehmen	-8.72418
ion	-8.72955
▁fast	-8.72998
ic	-8.73063
▁Idee	-8.73104
▁sollten	-8.73987
▁feel	-8.7446
▁letzten	-8.75267
▁wichtig	-8.75626
▁reason	-8.75663
▁könnten	-8.7603
k	-8.76237
▁Bild	-8.76395
▁everything	-8.76417
▁ziemlich	-8.76625
▁five	-8.76729
▁U	-8.76887
▁power	-8.77023
▁away	-8.77115
▁small	-8.77605
▁stellen	-8.77641
▁Mal	-8.77726
▁darauf	-8.7782
▁möglich	-8.77859
▁Daten	-8.78029
▁kids	-8.78153
▁country	-8.78459
▁basic	-8.78594
▁Weg	-8.78688
▁Gehirn	-8.79197
▁picture	-8.79809
▁number	-8.79829
▁sprechen	-8.79975
▁Geld	-8.8017
▁100	-8.80202
▁experience	-8.80827
▁high	-8.80982
▁information	-8.81385
▁bekommen	-8.81506
▁eigentlich	-8.81585
▁al	-8.81642
▁Ende	-8.81915
▁ihrer	-8.81927
▁leben	-8.82081
▁OK	-8.82207
▁home	-8.8253
▁space	-8.82799
▁old	-8.83182
▁verschiedene	-8.83556
i	-8.83646
▁E	-8.84156
▁arbeiten	-8.84548
▁food	-8.84623
▁money	-8.85039
91	-8.85162
▁seit	-8.85269
making	-8.85296
▁project	-8.85772
▁means	-8.85839
▁half	-8.85965
▁meinen	-8.86473
▁open	-8.86527
▁best	-8.86871
▁moment	-8.86896
▁case	-8.87294
▁interesting	-8.87527
▁left	-8.87578
ation	-8.88132
▁sense	-8.88149
▁future	-8.88191
93;	-8.88425
quite	-8.88682
▁Technologie	-8.88919
▁weniger	-8.89042
▁15	-8.89302
▁global	-8.89517
▁Information	-8.89582
ld	-8.89619
th	-8.90132
▁China	-8.90163
▁heraus	-8.90481
▁enough	-8.90482
▁Dollar	-8.9073
▁vier	-8.90759
▁G	-8.90842
▁200	-8.90936
ever	-8.91411
▁health	-8.91736
▁probabl	-8.91849
▁bedeutet	-8.91866
▁Raum	-8.91871
▁Grund	-8.92287
▁develop	-8.92335
▁move	-8.92348
▁hard	-8.92673
▁normal	-8.93011
▁Sache	-8.93028
▁danke	-8.93277
▁begann	-8.93416
▁musste	-8.93466
▁ihm	-8.93895
▁energy	-8.93913
▁zeigt	-8.9396
▁stand	-8.94135
▁social	-8.94255
▁Dank	-8.94324
▁hand	-8.94968
▁large	-8.95125
ht	-8.95411
▁pro	-8.95414
▁hin	-8.9546
▁car	-8.95533
▁less	-8.95748
▁simple	-8.95881
▁stuff	-8.959
▁without	-8.95909
▁Mann	-8.96051
▁bringen	-8.96174
▁Oh	-8.96523
▁science	-8.96848
▁gesehen	-8.96955
erweise	-8.97087
▁group	-8.9736
c	-8.97451
▁C	-8.97481
▁richtig	-8.97507
▁Africa	-8.97579
▁Möglichkeit	-8.97859
▁brauchen	-8.98265
▁unseren	-8.98417
▁imagine	-8.98473
▁build	-8.9863
▁bring	-8.98636
▁business	-8.98732
▁process	-8.98937
▁Seite	-8.99186
▁keep	-8.99609
ork	-8.99918
▁prett	-8.99946
▁beide	-9.0006
▁such	-9.00081
▁jedes	-9.00117
▁else	-9.00209
▁room	-9.00356
▁Weise	-9.00475
▁lange	-9.01118
▁grow	-9.01212
▁coming	-9.01317
▁anything	-9.01449
▁Computer	-9.01764
▁sicher	-9.01828
▁sei	-9.01973
▁piece	-9.02011
▁jeden	-9.02029
ness	-9.02204
▁student	-9.02362
▁beim	-9.0242
an	-9.02432
▁versuchen	-9.03073
▁dollars	-9.03098
▁body	-9.03314
▁allow	-9.03746
▁Frau	-9.0382
▁später	-9.04004
▁heiß	-9.04043
▁wenig	-9.04474
▁countries	-9.04528
▁Zukunft	-9.0453
▁The	-9.04542
▁side	-9.04718
schen	-9.04878
▁großen	-9.05136
▁System	-9.05202
▁gegen	-9.05358
est	-9.05478
▁Menge	-9.05701
▁glauben	-9.05745
▁wer	-9.05884
▁across	-9.05922
▁gleich	-9.06234
▁line	-9.06294
▁face	-9.06488
▁once	-9.06495
▁gute	-9.06518
▁billion	-9.06591
▁lernen	-9.06886
f	-9.07164
▁lives	-9.07382
▁bad	-9.07396
▁government	-9.07443
▁hätte	-9.07452
▁far	-9.07458
▁Körper	-9.07751
▁hav	-9.08007
▁close	-9.08041
▁gesagt	-9.08403
▁living	-9.0848
▁computer	-9.08507
▁set	-9.08581
▁later	-9.08615
▁saw	-9.08981
▁yet	-9.09043
▁seem	-9.09172
ie	-9.0918
▁funktioniert	-9.0952
▁Person	-9.09809
▁wahrscheinlich	-9.09938
▁form	-9.09982
▁answer	-9.10339
▁Ort	-9.10348
▁test	-9.10394
▁weg	-9.10449
▁times	-9.10555
▁particular	-9.10691
▁while	-9.1076
one	-9.10977
▁language	-9.11188
▁care	-9.11218
▁Erde	-9.11931
▁makes	-9.11939
▁Kind	-9.11972
▁Probleme	-9.12288
D	-9.12425
▁remember	-9.1249
▁book	-9.12757
de	-9.12812
▁D	-9.129
▁lang	-9.12952
▁mind	-9.13024
▁seiner	-9.13208
▁nein	-9.13271
▁six	-9.13454
▁schaffen	-9.13636
wohl	-9.13667
▁fünf	-9.1374
▁einzige	-9.13812
▁Ihr	-9.13953
▁nichts	-9.13973
▁Energie	-9.14027
▁Männer	-9.14075
▁inside	-9.14105
▁schnell	-9.14243
ce	-9.14378
▁Stadt	-9.14516
▁thousand	-9.14592
▁watch	-9.14595
mals	-9.14664
▁family	-9.15089
▁young	-9.15535
▁single	-9.15605
▁happens	-9.15637
▁Earth	-9.15808
▁almost	-9.15808
as	-9.15936
▁Moment	-9.15992
▁top	-9.16028
▁Fall	-9.16646
▁both	-9.1677
▁anders	-9.16922
▁whe	-9.1695
▁walk	-9.16956
▁sure	-9.17057
▁interest	-9.17286
▁American	-9.17372
▁certain	-9.17468
▁40	-9.17493
▁planet	-9.17908
▁level	-9.18003
▁video	-9.18036
▁b	-9.18196
zu	-9.18301
▁seen	-9.18353
▁helfen	-9.18365
▁nothing	-9.18522
sten	-9.18701
▁Licht	-9.18707
▁nutzen	-9.19117
▁guy	-9.19219
▁problems	-9.1945
▁study	-9.20016
▁under	-9.20134
▁schauen	-9.20155
z	-9.20235
▁men	-9.20279
einander	-9.20474
▁erzählen	-9.20584
▁realize	-9.20623
▁hope	-9.2067
▁wrong	-9.20983
▁possible	-9.21287
▁matter	-9.21314
▁entwickelt	-9.21333
▁figure	-9.21423
ready	-9.21452
▁ungefähr	-9.21526
▁Mutter	-9.21633
til	-9.21731
▁cancer	-9.21863
▁R	-9.22172
▁exact	-9.22182
▁share	-9.22309
▁final	-9.22385
▁neuen	-9.22475
▁child	-9.22542
▁days	-9.22623
▁ideas	-9.22629
▁amazing	-9.22732
▁Buch	-9.22975
▁true	-9.23019
▁history	-9.23064
▁run	-9.23542
▁music	-9.23554
▁DNA	-9.23755
▁saying	-9.23779
▁USA	-9.23845
▁sah	-9.23873
▁age	-9.23944
▁beautiful	-9.23953
▁Natur	-9.24209
▁disease	-9.24401
▁city	-9.24678
▁Bilder	-9.24718
le	-9.24728
▁State	-9.24742
▁self	-9.24767
ern	-9.24952
▁control	-9.24965
▁ways	-9.25041
▁genug	-9.25189
▁someone	-9.254
▁read	-9.25438
ment	-9.2587
chmal	-9.26021
▁nächsten	-9.26219
▁order	-9.26556
▁Ideen	-9.26868
▁often	-9.27084
▁couple	-9.27361
▁überall	-9.27735
▁Hand	-9.28241
▁kennen	-9.28663
▁patient	-9.28684
ge	-9.28694
▁bauen	-9.28838
▁since	-9.28875
▁H	-9.28881
▁universe	-9.29062
▁head	-9.29204
▁heard	-9.29209
▁stop	-9.29291
▁solche	-9.29536
▁erst	-9.29564
▁ra	-9.29879
▁Projekt	-9.29884
▁stories	-9.29939
▁looked	-9.30231
▁myself	-9.30476
▁Ich	-9.30504
▁market	-9.3076
▁instead	-9.30769
rum	-9.30911
▁public	-9.30917
▁liegt	-9.31147
▁klar	-9.31222
▁built	-9.3128
den	-9.31374
▁sometimes	-9.31493
▁Schule	-9.31502
▁Planeten	-9.3151
▁Design	-9.31529
▁Afrika	-9.31667
▁bevor	-9.3172
▁land	-9.31894
▁3	-9.31978
▁community	-9.32182
▁Fähigkeit	-9.32221
▁nature	-9.32228
▁issue	-9.32346
▁gehört	-9.32395
▁hundred	-9.32457
▁difference	-9.32953
▁mov	-9.3296
▁words	-9.33214
▁hoch	-9.33331
▁species	-9.33335
▁environment	-9.33512
▁deshalb	-9.33572
▁cells	-9.33621
▁Unite	-9.33674
▁art	-9.33677
▁Erfahrung	-9.33693
▁word	-9.33697
▁education	-9.33731
▁job	-9.33798
▁niemand	-9.34053
▁besonder	-9.34064
▁Punkt	-9.34112
▁verändern	-9.34114
b	-9.34144
or	-9.3419
▁research	-9.34244
▁M	-9.34562
▁bitte	-9.34592
▁follow	-9.35084
▁individual	-9.35089
▁months	-9.3519
▁term	-9.35338
▁entire	-9.35418
▁Antwort	-9.35521
▁woman	-9.35603
▁force	-9.35669
▁weit	-9.35698
▁12	-9.35744
▁Augen	-9.35864
▁letzte	-9.3608
▁nennen	-9.36081
▁Lebens	-9.3616
▁India	-9.36407
▁80	-9.36411
taking	-9.36578
▁gleiche	-9.3671
▁Musik	-9.36831
▁model	-9.36897
▁K	-9.36981
▁natural	-9.37643
▁America	-9.37666
▁spend	-9.37703
▁completely	-9.37945
▁reden	-9.38001
▁game	-9.38078
▁braucht	-9.38134
▁Milliarden	-9.38451
▁Fragen	-9.38463
▁2	-9.38654
▁Wissenschaft	-9.38726
▁60	-9.38765
▁CA	-9.38866
▁stehen	-9.38871
▁quick	-9.38988
▁Form	-9.39255
▁name	-9.39294
▁hören	-9.39362
▁Mädchen	-9.39654
▁nächste	-9.39779
▁hear	-9.3987
▁alt	-9.39892
▁spielen	-9.40073
▁sound	-9.40182
▁house	-9.40243
g	-9.40299
▁Auto	-9.40512
2	-9.40526
▁heart	-9.40532
came	-9.40674
▁decided	-9.40697
▁euch	-9.41221
▁Leuten	-9.41242
▁huge	-9.41366
▁Google	-9.4149
▁though	-9.41547
▁Lösung	-9.41647
▁yes	-9.41687
▁Geschichten	-9.41833
▁Arten	-9.41887
em	-9.41915
▁animals	-9.42105
▁friends	-9.42222
▁halten	-9.42241
▁God	-9.42247
▁gar	-9.42427
▁itself	-9.42498
▁darin	-9.42565
▁bereits	-9.42705
▁soziale	-9.42755
▁clear	-9.43109
u	-9.43386
▁steht	-9.43582
▁leave	-9.43636
▁benutzen	-9.43765
▁Minuten	-9.43889
▁ourselves	-9.43916
▁25	-9.44154
▁herum	-9.44221
▁sechs	-9.44293
▁happening	-9.44304
▁must	-9.44491
▁Gebäude	-9.45285
to	-9.45383
▁machte	-9.45407
▁erreichen	-9.4545
▁Kopf	-9.45498
▁along	-9.45525
lich	-9.45588
▁places	-9.45602
▁past	-9.45623
▁weitere	-9.45655
▁hätten	-9.45711
▁third	-9.45938
▁oben	-9.45956
▁fragen	-9.46068
▁re	-9.4609
▁Gesellschaft	-9.46101
▁themselves	-9.46121
▁Kunst	-9.46195
▁night	-9.46214
▁society	-9.46416
▁minutes	-9.46465
▁Familie	-9.46476
▁erkennen	-9.46592
▁bigge	-9.46683
▁namens	-9.46843
▁plant	-9.46852
▁front	-9.46884
land	-9.46901
▁company	-9.46954
▁program	-9.46967
▁works	-9.472
A	-9.47339
▁Freunde	-9.47365
▁mother	-9.47436
▁Unternehmen	-9.47625
▁Sprache	-9.47643
▁Gefühl	-9.47766
▁stellt	-9.47818
▁discover	-9.47906
▁pay	-9.47952
▁kne	-9.4802
▁free	-9.48029
▁dich	-9.48049
▁kurz	-9.48103
▁machine	-9.48472
ability	-9.48729
▁state	-9.48755
▁schwer	-9.49163
▁innerhalb	-9.49229
el	-9.49293
▁Indien	-9.49344
▁focus	-9.49398
haps	-9.49575
K	-9.49772
der	-9.49821
dessen	-9.49902
▁Spiel	-9.49972
▁unglaublich	-9.50035
▁soll	-9.50042
▁Film	-9.50423
▁paper	-9.50695
▁irgendwie	-9.50823
▁Gruppe	-9.50837
▁hours	-9.51137
▁questions	-9.51268
▁audience	-9.51277
▁teacher	-9.513
▁object	-9.51533
7	-9.5154
▁cause	-9.51855
▁Krankheit	-9.51866
▁versucht	-9.52253
▁learning	-9.52372
ou	-9.52648
▁guys	-9.52654
▁base	-9.52679
▁Entwicklung	-9.52726
▁menschliche	-9.52764
▁gesamte	-9.52953
▁buy	-9.53075
ste	-9.531
▁statt	-9.53163
▁cool	-9.53177
▁seven	-9.53196
▁air	-9.53352
▁local	-9.53367
▁oil	-9.53394
▁Chris	-9.53402
▁least	-9.53487
▁team	-9.53501
▁early	-9.53529
▁experiment	-9.53735
▁difficult	-9.53939
▁happy	-9.53939
▁color	-9.53973
▁explain	-9.54102
▁cell	-9.54157
man	-9.5418
▁HIV	-9.54392
▁Angst	-9.54407
▁18	-9.54506
▁absolute	-9.54527
▁Haus	-9.54585
▁Gott	-9.54599
▁worked	-9.54612
▁einzelne	-9.548
nach	-9.5499
▁poor	-9.55009
▁vorstellen	-9.55213
▁Hause	-9.55278
▁structure	-9.55637
▁Macht	-9.5569
amp	-9.55711
▁listen	-9.55767
▁obvious	-9.56079
▁daher	-9.56134
▁entwickeln	-9.5614
▁schön	-9.56249
▁Vater	-9.56345
▁interessant	-9.56525
▁P	-9.56684
▁bewegen	-9.5675
▁erhalten	-9.56967
▁short	-9.56981
▁Verbindung	-9.5703
▁Roboter	-9.5725
▁90	-9.57267
▁common	-9.57309
▁yea	-9.57312
▁amount	-9.57343
▁c	-9.57432
▁Video	-9.57511
▁wonderful	-9.57626
▁sieh	-9.57685
▁Stunden	-9.57723
▁full	-9.57833
ämlich	-9.57936
geben	-9.58193
▁Wort	-9.58251
▁death	-9.58254
▁won	-9.58256
▁Regierung	-9.58267
▁wahr	-9.58297
▁neu	-9.58586
▁outside	-9.58786
▁David	-9.58897
▁nahm	-9.58997
B	-9.59046
either	-9.59511
▁Vorstellung	-9.59518
▁gav	-9.59628
5	-9.59659
▁ändern	-9.5993
▁culture	-9.60121
▁act	-9.60131
▁deal	-9.6017
▁beginnen	-9.60227
▁modern	-9.60345
▁damals	-9.60439
▁fragte	-9.60562
▁powerful	-9.60647
▁Glück	-9.60651
eher	-9.6066
▁sage	-9.60786
▁oft	-9.60849
▁Eltern	-9.60947
▁drive	-9.61257
gerne	-9.6126
▁verändert	-9.61322
▁behind	-9.61323
ers	-9.61324
▁produce	-9.61368
▁pattern	-9.6147
▁fish	-9.61522
▁during	-9.61614
▁systems	-9.61683
▁verwenden	-9.61692
▁online	-9.61844
▁J	-9.61878
▁Sachen	-9.61938
▁view	-9.62005
▁area	-9.62023
▁send	-9.62106
▁Ver	-9.62114
▁image	-9.6214
▁Patienten	-9.62154
▁pick	-9.62211
▁menschlichen	-9.62349
▁personal	-9.62426
▁exist	-9.62468
▁black	-9.62601
▁cost	-9.62678
▁falsch	-9.6269
▁einigen	-9.62753
▁middle	-9.62756
▁manche	-9.62832
▁Lehrer	-9.62914
▁Stück	-9.632
▁century	-9.63231
keit	-9.63515
▁news	-9.63653
zustellen	-9.63677
▁riesige	-9.63726
▁Universum	-9.63752
▁beginning	-9.63767
▁besten	-9.63966
▁scale	-9.6436
▁Beziehung	-9.64443
▁fand	-9.64445
▁hinter	-9.64457
▁population	-9.64503
nimmt	-9.64511
▁Sinn	-9.64517
▁Kindern	-9.64524
▁wait	-9.64752
▁überhaupt	-9.65092
▁eight	-9.65106
▁aller	-9.6519
▁economic	-9.65358
▁groß	-9.65372
▁getan	-9.65619
▁Luft	-9.65733
▁Wirtschaft	-9.6587
▁began	-9.65915
▁na	-9.66001
4	-9.66014
▁shows	-9.66052
mal	-9.66088
▁ocean	-9.66112
▁führen	-9.66237
▁easy	-9.66274
▁fest	-9.66417
▁An	-9.66564
▁F	-9.66594
heit	-9.66621
▁support	-9.66642
▁de	-9.66798
▁size	-9.669
▁Ziel	-9.67063
▁friend	-9.67116
▁eyes	-9.67141
doch	-9.67151
▁zwa	-9.67258
▁feeling	-9.67278
year	-9.67356
ver	-9.67511
▁lots	-9.67623
▁choice	-9.67648
▁doctor	-9.67648
▁begin	-9.678
▁Länder	-9.67826
▁physical	-9.67994
▁eat	-9.68301
▁Lage	-9.68625
▁yourself	-9.68777
▁Dr	-9.69038
▁extreme	-9.69042
▁media	-9.69215
▁liebe	-9.69254
▁tut	-9.69286
▁1	-9.69309
up	-9.69348
▁notice	-9.69403
▁treffen	-9.6954
▁present	-9.69576
▁rate	-9.69583
▁deine	-9.69587
▁führt	-9.69589
▁rest	-9.6961
against	-9.69664
8	-9.69669
▁perfect	-9.69727
3	-9.69731
▁Publikum	-9.69768
▁Tiere	-9.7005
▁value	-9.70143
▁taken	-9.70257
▁John	-9.70265
▁father	-9.70276
▁70	-9.70299
▁Well	-9.70357
▁wohl	-9.70393
▁dir	-9.704
▁Herausforderung	-9.7063
▁Anfang	-9.70633
▁film	-9.70857
▁hands	-9.70869
▁green	-9.71114
▁major	-9.71358
▁total	-9.71399
gebracht	-9.71493
▁d	-9.71496
it	-9.71512
▁11	-9.7171
ch	-9.71746
old	-9.71775
▁Wissenschaftler	-9.72088
▁dar	-9.72102
▁Hilfe	-9.72103
▁add	-9.72215
▁behavior	-9.72389
gehen	-9.7244
▁befinde	-9.72493
▁falls	-9.72619
erst	-9.72644
felt	-9.72738
▁Krebs	-9.72747
▁companies	-9.72791
▁surface	-9.72791
▁stay	-9.72792
▁allem	-9.72796
▁week	-9.728
▁center	-9.72841
so	-9.729
▁near	-9.72975
▁zweite	-9.73544
▁L	-9.7364
▁lässt	-9.73641
▁complex	-9.73687
▁movement	-9.73726
▁parents	-9.73759
▁save	-9.73773
▁safe	-9.73924
▁Kultur	-9.73985
▁longer	-9.74007
▁seeing	-9.74109
▁Regel	-9.74134
ja	-9.74184
▁World	-9.74268
▁genauso	-9.74286
▁slow	-9.74445
▁reach	-9.74526
ous	-9.74537
▁Liebe	-9.74724
schließlich	-9.74799
▁jene	-9.74868
▁völlig	-9.74911
▁Ab	-9.75097
▁access	-9.75129
▁blue	-9.75205
▁Situation	-9.75226
▁digital	-9.75291
▁phone	-9.75298
▁fühlen	-9.75333
▁bringt	-9.75363
ieren	-9.75399
▁acht	-9.75456
▁Verhalten	-9.75465
▁glücklich	-9.75512
▁mag	-9.75517
ra	-9.75608
fangen	-9.75637
▁direkt	-9.75741
▁Gemeinschaft	-9.75814
▁Unterschied	-9.75827
▁unten	-9.75842
▁sudden	-9.75933
▁cities	-9.75936
▁simpl	-9.75981
▁political	-9.75999
▁stage	-9.76276
▁speak	-9.76337
▁anzu	-9.76351
▁tried	-9.76364
▁betrachten	-9.76782
▁auszu	-9.76812
▁erinnern	-9.76877
▁z	-9.77126
▁anderer	-9.772
▁treat	-9.77229
▁bereit	-9.77246
▁plötzlich	-9.77262
▁artist	-9.77278
▁challenge	-9.77476
▁wusste	-9.7754
wegen	-9.7767
▁ground	-9.77892
where	-9.77918
▁canno	-9.77964
▁resource	-9.78019
ist	-9.7802
▁positive	-9.78116
ig	-9.78377
▁Grunde	-9.78399
▁low	-9.78568
▁Reihe	-9.78598
▁junge	-9.78818
▁toward	-9.78885
sch	-9.7896
▁wonder	-9.78991
▁condition	-9.79008
▁eben	-9.79042
▁step	-9.79072
▁Gedanken	-9.79109
▁reality	-9.79137
▁spen	-9.79244
▁Z	-9.79519
▁Gesundheit	-9.79588
▁organization	-9.79602
▁nice	-9.79632
▁los	-9.79742
▁Tage	-9.79755
▁red	-9.79775
ü	-9.79781
F	-9.79932
▁write	-9.79939
▁Vortrag	-9.79941
▁Richtung	-9.79957
▁Selbst	-9.8014
credible	-9.80341
▁expect	-9.80342
▁alte	-9.80407
out	-9.80516
▁feet	-9.80588
▁record	-9.8079
▁animal	-9.8081
▁recht	-9.80833
▁opportunity	-9.80939
▁Thema	-9.81075
▁worden	-9.81146
▁girl	-9.81243
▁lead	-9.81315
▁Essen	-9.8133
▁service	-9.81396
▁growth	-9.81403
▁sieben	-9.81465
▁schreiben	-9.81485
▁lösen	-9.81493
▁product	-9.81781
▁O	-9.81905
▁bestimmte	-9.81918
▁bekannt	-9.8197
▁heut	-9.82036
▁sollen	-9.82053
▁Al	-9.82108
▁humans	-9.82373
▁cut	-9.82422
less	-9.82582
la	-9.82606
chen	-9.82657
gone	-9.82693
▁teilen	-9.82872
▁field	-9.82916
▁South	-9.82933
▁einfache	-9.82996
▁solve	-9.83023
▁hold	-9.83083
▁Wochen	-9.83119
▁fight	-9.83146
lt	-9.83198
▁wären	-9.83383
▁lost	-9.83636
▁weeks	-9.83688
▁Staaten	-9.83696
▁English	-9.83742
▁bestimmt	-9.83794
▁shape	-9.83831
▁Krieg	-9.83889
▁innovation	-9.83956
▁Bewegung	-9.84273
▁Woche	-9.84339
▁economy	-9.84353
▁attention	-9.84357
▁Be	-9.84509
▁impact	-9.84558
▁schwierig	-9.84628
ä	-9.84718
▁Boden	-9.84766
▁bottom	-9.84784
aught	-9.84818
▁travel	-9.84894
▁besteht	-9.84996
▁result	-9.8503
▁größte	-9.8505
▁zweiten	-9.85069
▁Prozess	-9.85469
M	-9.8553
▁suchen	-9.85571
▁anyone	-9.85663
▁14	-9.85697
▁Chinese	-9.86001
▁stellte	-9.86002
▁Markt	-9.86015
▁schlecht	-9.86198
▁action	-9.86338
▁Mensch	-9.8642
▁voice	-9.86437
▁Monate	-9.8648
▁memor	-9.86529
▁stark	-9.86536
▁approach	-9.86564
▁Wissen	-9.86587
▁bleiben	-9.86606
▁needs	-9.86847
▁sitt	-9.87018
▁hohe	-9.87055
▁climate	-9.87064
▁unterschiedlich	-9.87213
▁größer	-9.87237
ance	-9.87336
▁zuvor	-9.87479
▁Namen	-9.87605
▁general	-9.87655
▁increase	-9.87888
▁average	-9.87901
▁knowledge	-9.87912
giving	-9.87917
▁schrieb	-9.87944
▁weltweit	-9.88049
▁g	-9.88055
▁pass	-9.88079
ry	-9.88081
▁fun	-9.88128
▁Umwelt	-9.88377
▁erzählt	-9.88409
▁areas	-9.88485
▁pull	-9.88527
▁risk	-9.88569
▁fly	-9.88594
▁forward	-9.88601
▁material	-9.88643
▁key	-9.88773
▁dark	-9.88775
▁benutzt	-9.88798
▁map	-9.88802
C	-9.88853
▁Mars	-9.88909
▁Labor	-9.88964
▁gefunden	-9.89071
ische	-9.89115
▁born	-9.89122
▁Du	-9.89161
▁W	-9.89251
▁Meinung	-9.89299
▁Ein	-9.89319
▁deep	-9.89335
▁lesen	-9.89404
▁klein	-9.89505
▁theory	-9.89601
▁Typ	-9.89612
▁Amerika	-9.89612
▁fall	-9.89775
▁Muster	-9.89782
▁technologies	-9.89817
▁images	-9.89873
▁bessere	-9.89896
▁Forschung	-9.89985
▁Umgebung	-9.90035
▁measure	-9.90184
▁camera	-9.90274
▁potential	-9.9028
▁Freund	-9.90313
▁Ländern	-9.90478
▁amerikanische	-9.90479
▁consider	-9.90512
▁scientists	-9.90561
▁books	-9.90659
▁gelernt	-9.90747
▁darau	-9.90817
00	-9.90824
▁San	-9.90882
▁größten	-9.9092
▁Tages	-9.90967
▁Nacht	-9.91097
▁What	-9.91116
p	-9.91209
▁Wahrheit	-9.91333
▁essential	-9.91333
▁Innovation	-9.91358
▁Modell	-9.91436
▁sea	-9.91544
▁raise	-9.9156
▁cover	-9.91772
▁white	-9.92023
▁continue	-9.92044
▁fundamental	-9.92102
▁hit	-9.92107
▁ent	-9.92262
▁Revolution	-9.92279
▁arm	-9.92649
▁zehn	-9.92708
▁5	-9.92743
▁strong	-9.92775
durch	-9.92881
▁similar	-9.92888
▁Schritt	-9.92932
mit	-9.93068
▁verwendet	-9.93086
raußen	-9.93101
▁understanding	-9.9324
▁Jahrhundert	-9.93418
▁network	-9.93515
▁wrote	-9.93548
▁scheint	-9.93549
▁Zellen	-9.93562
▁Medien	-9.93566
her	-9.93614
▁movie	-9.93651
▁beginn	-9.93663
▁London	-9.93816
▁erschaffen	-9.93818
▁hast	-9.94
▁literally	-9.94018
▁connect	-9.94216
▁Bedeutung	-9.94222
▁morning	-9.94222
▁Autos	-9.94259
▁verbunden	-9.94274
▁National	-9.943
▁16	-9.94314
▁Bildung	-9.94345
▁tools	-9.94444
▁neben	-9.94449
▁Erfolg	-9.94481
▁Organisation	-9.94488
▁Technik	-9.94503
▁genannt	-9.94672
▁Tier	-9.94749
ily	-9.9482
▁train	-9.94866
▁chance	-9.94946
▁großartige	-9.9496
▁somebod	-9.95042
kaufen	-9.95047
▁sterben	-9.9512
tage	-9.95128
▁runn	-9.95187
▁gemeinsam	-9.95243
x	-9.95349
▁guess	-9.95356
▁Hände	-9.9536
ber	-9.95368
▁late	-9.95381
▁source	-9.95427
,000	-9.95464
▁numbers	-9.9552
▁creating	-9.95595
▁Herz	-9.95634
▁miles	-9.95686
▁erklären	-9.95706
▁passier	-9.95776
▁funktionieren	-9.95808
▁egal	-9.95813
is	-9.95814
ia	-9.95856
▁gebaut	-9.9588
9	-9.95893
▁meet	-9.961
6	-9.96338
▁gewesen	-9.96509
▁bewusst	-9.9663
▁kid	-9.96643
selbe	-9.96782
▁gern	-9.96798
▁leicht	-9.96804
▁national	-9.96881
▁p	-9.9704
▁sehe	-9.97081
▁sit	-9.97094
▁West	-9.97127
▁frei	-9.97177
▁met	-9.97272
▁fear	-9.97287
▁CO	-9.97375
▁Kraft	-9.97393
▁break	-9.97416
▁entfernt	-9.9755
▁4	-9.9755
▁500	-9.97627
▁solution	-9.97734
N	-9.97782
▁activit	-9.97826
▁fair	-9.98086
▁kleiner	-9.98089
▁current	-9.9813
▁richtige	-9.98142
▁aufzu	-9.98163
▁mache	-9.98183
nstatt	-9.98269
▁Wert	-9.9837
▁Bücher	-9.98387
▁geworden	-9.98622
▁blood	-9.98645
▁möchten	-9.98658
▁page	-9.98759
▁main	-9.98843
▁Technologien	-9.98967
age	-9.99007
▁No	-9.99031
ar	-9.99047
▁hospital	-9.99073
▁among	-9.99091
▁stimmt	-9.99156
▁Tatsache	-9.99195
▁soon	-9.99288
▁Europe	-9.99298
▁essen	-9.99329
▁recently	-9.99481
▁Team	-9.99641
▁village	-9.99659
▁politische	-9.99681
▁wish	-9.99786
▁fanden	-9.99831
▁relationship	-9.99922
▁Afghanistan	-10.0002
▁Anzahl	-10.0004
▁Studenten	-10.0006
▁telling	-10.0006
▁provide	-10.0012
▁Foto	-10.002
▁Zahl	-10.0032
▁Gründe	-10.0042
▁sell	-10.0044
ur	-10.0045
▁Stimme	-10.0068
▁private	-10.0068
▁ähnlich	-10.0075
▁lab	-10.0104
setzen	-10.0111
▁office	-10.0134
▁N	-10.0135
▁Reise	-10.0142
▁international	-10.0142
▁ice	-10.0149
▁track	-10.0156
R	-10.017
▁specific	-10.0179
▁17	-10.019
▁special	-10.019
▁situation	-10.0198
▁gezeigt	-10.0199
▁einzu	-10.0221
▁Web	-10.0223
▁Bevölkerung	-10.0238
▁blind	-10.024
▁We	-10.024
▁öffentliche	-10.0244
▁bekommt	-10.0259
▁represent	-10.0267
▁smart	-10.0267
▁Sicherheit	-10.0268
incredibly	-10.0269
1	-10.0272
▁Aufgabe	-10.0288
▁robot	-10.0294
▁tat	-10.03
▁Rest	-10.0308
pecial	-10.0313
▁solar	-10.0325
▁protect	-10.0331
▁generation	-10.0332
▁alone	-10.0347
▁Rolle	-10.0351
available	-10.0355
▁touch	-10.0363
▁Platz	-10.0364
▁street	-10.0373
▁findet	-10.0383
H	-10.0386
▁300	-10.0387
▁Gewalt	-10.0388
▁non	-10.0394
▁dead	-10.0414
▁Teile	-10.0421
▁truth	-10.0421
▁easi	-10.0421
▁Familien	-10.0439
▁effective	-10.0448
▁offensichtlich	-10.0457
▁known	-10.0457
▁development	-10.0458
▁teach	-10.0464
▁gegenüber	-10.0469
▁type	-10.047
▁kurze	-10.0477
▁guten	-10.0493
▁aussehen	-10.0502
▁Veränderung	-10.0506
▁worth	-10.0531
▁suggest	-10.0541
▁industry	-10.0542
▁allein	-10.0549
▁eye	-10.055
self	-10.0552
▁attack	-10.0568
▁gas	-10.0569
▁mass	-10.0576
▁komplett	-10.0578
▁involve	-10.0592
▁success	-10.0592
▁please	-10.0595
▁African	-10.0599
▁links	-10.0629
▁cars	-10.0633
▁box	-10.0634
▁several	-10.0644
▁search	-10.0644
▁rich	-10.0653
▁writing	-10.0655
▁vision	-10.0666
▁beyond	-10.0669
spricht	-10.0675
▁message	-10.0676
▁Universität	-10.0678
▁changing	-10.068
.000	-10.0682
▁massive	-10.0689
▁Hälfte	-10.0695
▁evidence	-10.0695
▁Europa	-10.0695
ought	-10.0697
▁ca	-10.0698
▁law	-10.071
▁erreicht	-10.071
▁sonst	-10.0744
▁push	-10.0746
▁evolution	-10.0748
▁sun	-10.0751
▁Generation	-10.0767
▁Mittel	-10.0792
▁effect	-10.0808
ß	-10.0823
▁scientific	-10.0824
▁asking	-10.0845
▁versuchte	-10.0858
▁affect	-10.0859
▁interessiert	-10.0863
▁verloren	-10.0876
▁Größe	-10.0879
▁usual	-10.0886
▁Tod	-10.089
▁fire	-10.0893
▁absolut	-10.0895
▁arbeitete	-10.0898
▁bist	-10.0898
▁größere	-10.0904
▁Haupt	-10.0917
▁direct	-10.0924
ta	-10.0928
▁nine	-10.093
▁rules	-10.0933
▁Material	-10.0941
▁setzen	-10.0948
▁bekam	-10.095
▁vorher	-10.0954
▁medical	-10.0954
▁zeige	-10.0956
▁City	-10.0967
▁putting	-10.0969
deed	-10.0971
▁beste	-10.0972
▁Hoffnung	-10.0981
▁sofort	-10.0989
▁Re	-10.0991
▁wichtige	-10.1
▁post	-10.1006
▁Facebook	-10.1007
▁Realität	-10.1007
▁Künstler	-10.1017
▁Wahl	-10.1027
▁nenn	-10.1028
▁link	-10.103
rought	-10.1031
▁Straße	-10.1031
▁Richard	-10.1033
▁Tat	-10.1038
▁ziehen	-10.1042
▁Vor	-10.1045
▁Bereich	-10.1054
▁hoffe	-10.1061
▁traf	-10.1068
T	-10.1097
▁Theorie	-10.1097
▁Ding	-10.1102
▁Mitte	-10.1111
▁software	-10.1119
▁Eis	-10.112
▁arbeitet	-10.1123
▁period	-10.1126
hand	-10.1128
how	-10.1136
▁forest	-10.1138
▁compassion	-10.114
▁21	-10.1142
hin	-10.1148
▁practice	-10.1154
▁brachte	-10.1155
▁Experiment	-10.1167
▁describe	-10.1186
▁region	-10.1187
▁computers	-10.1196
▁Schüler	-10.1196
▁So	-10.1197
▁früher	-10.1199
▁function	-10.1202
▁conversation	-10.1221
▁gleichzeitig	-10.1221
▁schneller	-10.1225
▁Städte	-10.1227
▁wind	-10.1229
▁trust	-10.1255
▁fing	-10.126
▁Preis	-10.1261
führen	-10.1269
▁invent	-10.127
▁fahren	-10.1272
▁laufen	-10.1279
▁Maschine	-10.1297
▁device	-10.1297
▁list	-10.1302
▁price	-10.1302
tiny	-10.1304
▁Gebiet	-10.1304
▁connection	-10.1304
▁baby	-10.1304
▁month	-10.1309
▁finding	-10.1318
bar	-10.132
▁24	-10.1333
▁wall	-10.1334
▁degree	-10.1335
bei	-10.1337
▁draw	-10.1341
▁visual	-10.1343
▁carbon	-10.1357
▁creative	-10.1386
▁Straßen	-10.1386
▁19	-10.1388
▁Kosten	-10.1389
halten	-10.1397
▁nation	-10.14
isch	-10.1409
▁role	-10.1411
▁sign	-10.1421
▁Entscheidungen	-10.1434
▁subject	-10.1439
▁hole	-10.1444
▁position	-10.1451
▁recognize	-10.1456
time	-10.1459
▁13	-10.1461
▁AIDS	-10.1467
▁geschieht	-10.1467
▁favorite	-10.1467
▁further	-10.1467
▁geboren	-10.1475
▁speed	-10.1481
▁Un	-10.1494
▁genommen	-10.1494
▁199	-10.1503
▁Studie	-10.1511
▁Ebene	-10.1519
▁Vereinigte	-10.1522
▁store	-10.1522
▁revolution	-10.1524
▁länger	-10.1525
▁War	-10.1527
▁Gesicht	-10.1539
▁wann	-10.1551
▁Evolution	-10.1551
▁gegeben	-10.1551
▁übrigen	-10.1555
▁lose	-10.1559
▁response	-10.1578
▁Fehler	-10.1585
▁journey	-10.1606
▁Demokratie	-10.1606
▁benefit	-10.1609
▁song	-10.1625
▁Hey	-10.1638
iert	-10.164
▁molecule	-10.1662
▁Mitgefühl	-10.1664
▁Versuch	-10.1671
denkt	-10.1685
▁meaning	-10.1687
head	-10.1691
▁Firma	-10.1696
▁Papier	-10.1697
▁bewegt	-10.1701
▁collect	-10.1714
▁North	-10.1718
▁equal	-10.1719
▁Struktur	-10.1722
▁Japan	-10.1731
▁kill	-10.1735
▁Zahlen	-10.1736
▁concept	-10.1744
▁tend	-10.1745
▁extraordinar	-10.1747
▁dream	-10.1765
▁selbe	-10.1767
▁wichtiger	-10.1768
▁langsam	-10.1785
▁Karte	-10.1799
▁anyway	-10.1807
▁sounds	-10.1808
▁liegen	-10.1809
▁institution	-10.1816
▁wichtigste	-10.1816
▁TV	-10.1817
stellen	-10.1817
▁fliegen	-10.1823
▁Sonne	-10.1828
▁Ergebnis	-10.1833
▁ones	-10.1837
▁games	-10.1845
▁girls	-10.185
▁materials	-10.1854
▁University	-10.1862
▁Auswirkung	-10.1862
▁treatment	-10.1863
▁V	-10.1871
▁mehrere	-10.1888
▁hab	-10.189
▁000	-10.189
▁Nachrichten	-10.1908
▁bald	-10.1911
▁require	-10.1915
▁hinaus	-10.1918
▁Aufmerksamkeit	-10.1919
▁herauszufinden	-10.1919
▁successful	-10.192
▁Alter	-10.1929
▁count	-10.1933
▁geschrieben	-10.1936
▁großartig	-10.1942
▁Oberfläche	-10.1952
P	-10.1982
▁globale	-10.1987
ism	-10.1996
▁Job	-10.2002
▁raus	-10.2006
▁adult	-10.2007
bald	-10.2019
▁Aus	-10.202
▁predict	-10.2021
▁character	-10.2023
▁hinein	-10.2028
▁vergessen	-10.2045
▁transform	-10.2049
▁onto	-10.2055
▁ständig	-10.2062
▁throw	-10.2065
▁carry	-10.2067
▁medicine	-10.2067
▁US	-10.2078
cy	-10.2081
▁quality	-10.2087
▁Kontrolle	-10.2092
▁198	-10.2092
▁necessar	-10.2094
▁tragen	-10.21
▁Produkt	-10.2107
▁violence	-10.2126
▁außerdem	-10.2126
▁trotzde	-10.213
▁everywhere	-10.2132
▁class	-10.2139
L	-10.2139
▁traditional	-10.2147
▁außer	-10.2151
▁Man	-10.2168
▁road	-10.217
▁zumindest	-10.2183
▁lieben	-10.2186
▁happiness	-10.2187
▁e	-10.2202
▁skin	-10.2207
ab	-10.2209
▁wild	-10.2213
the	-10.2215
ischen	-10.2217
▁lebt	-10.2223
more	-10.2231
ter	-10.224
▁6	-10.2263
▁version	-10.2268
ma	-10.2271
▁Einfluss	-10.2273
▁Blick	-10.2275
▁security	-10.2281
▁Gruppen	-10.2284
▁join	-10.2286
▁finde	-10.2297
▁boy	-10.23
▁remain	-10.2303
▁democracy	-10.231
▁super	-10.2313
▁plan	-10.2316
▁Ergebnisse	-10.2334
▁großer	-10.2336
▁führte	-10.2342
▁Orte	-10.2357
▁Konzept	-10.2361
▁toll	-10.2362
▁leaders	-10.2364
▁flow	-10.2372
▁Gemeinde	-10.2372
▁Pflanzen	-10.2373
▁led	-10.239
▁eventually	-10.2393
▁exciting	-10.2393
▁nuclear	-10.2393
▁direction	-10.2401
E	-10.2426
▁neues	-10.2431
▁moral	-10.2435
▁table	-10.2436
▁gearbeitet	-10.2439
▁Schulen	-10.2444
▁offer	-10.2454
▁unseres	-10.2465
ful	-10.247
▁machten	-10.2475
▁Paul	-10.2476
▁Bill	-10.2476
▁Meter	-10.2477
bringen	-10.2479
▁block	-10.2485
▁Menschheit	-10.2486
▁verlassen	-10.2494
▁hour	-10.251
▁Behandlung	-10.2518
▁beobachten	-10.2523
▁trees	-10.2527
▁etc	-10.2531
▁diejenige	-10.2531
▁schools	-10.2539
▁Medizin	-10.2541
▁passierte	-10.2542
▁appear	-10.2546
▁trial	-10.2547
▁Region	-10.2548
▁results	-10.255
▁Entscheidung	-10.2552
▁finish	-10.2555
▁fail	-10.2561
▁wussten	-10.2562
▁Objekt	-10.2563
▁Ozean	-10.2566
▁perspective	-10.2577
▁dein	-10.2582
▁wachsen	-10.2597
▁gesprochen	-10.2621
▁näher	-10.2623
▁mental	-10.2627
▁echte	-10.2636
▁depend	-10.2636
▁sprach	-10.2636
▁Reaktion	-10.2639
▁earlie	-10.2641
▁waste	-10.2641
▁unglaubliche	-10.2655
▁screen	-10.2659
ary	-10.2671
ier	-10.2672
▁sex	-10.2676
▁publish	-10.2678
gen	-10.2688
▁poverty	-10.2702
▁tru	-10.2711
▁foot	-10.2713
by	-10.2731
▁card	-10.2732
▁content	-10.2734
▁drug	-10.2734
geht	-10.2735
▁früh	-10.2737
com	-10.2737
▁secret	-10.274
▁spielt	-10.276
and	-10.2763
▁context	-10.2763
▁2000	-10.2769
▁Monat	-10.2774
ro	-10.2776
son	-10.2801
▁standard	-10.2826
▁photograph	-10.2828
rry	-10.283
▁jobs	-10.2836
▁Software	-10.2837
▁mine	-10.284
▁tool	-10.285
▁Mr	-10.286
▁square	-10.2868
▁critical	-10.2872
zeit	-10.2879
jährige	-10.288
▁Grenzen	-10.2888
▁crazy	-10.2891
▁fine	-10.2892
▁Eigenschaft	-10.2892
▁Dorf	-10.2895
▁sahen	-10.2916
▁Twitter	-10.2923
▁return	-10.2923
falls	-10.2923
▁lesson	-10.293
▁supposed	-10.2937
▁possibilit	-10.2955
▁Washington	-10.2955
▁worse	-10.2955
▁Fälle	-10.2955
▁spread	-10.2956
▁Seiten	-10.296
▁verbesser	-10.2971
▁Iran	-10.298
▁gre	-10.2982
▁wear	-10.2985
▁connected	-10.2992
rzte	-10.3019
▁Erinnerung	-10.302
▁immediate	-10.302
▁Spaß	-10.302
▁bleibt	-10.3023
▁Politik	-10.3023
▁erlaubt	-10.3036
▁door	-10.304
▁400	-10.3047
▁higher	-10.3049
▁account	-10.305
▁architecture	-10.3052
ant	-10.3053
▁examples	-10.3062
ive	-10.3064
▁warm	-10.3076
▁impossibl	-10.3078
▁plastic	-10.3083
▁series	-10.3085
▁rise	-10.3086
▁Zugang	-10.3086
▁Amerikaner	-10.31
▁35	-10.3103
▁East	-10.3105
▁code	-10.3111
▁Stelle	-10.3115
▁Er	-10.3117
▁dieselbe	-10.3131
▁hörte	-10.3139
▁interact	-10.3148
▁Sohn	-10.315
▁ready	-10.315
▁anschaue	-10.3153
▁fit	-10.3167
ismus	-10.318
▁enjoy	-10.3182
▁fuel	-10.3188
▁verlieren	-10.3189
ol	-10.3204
▁named	-10.3205
▁Monaten	-10.3208
▁launch	-10.3215
▁sitzen	-10.3215
▁Sicht	-10.3218
▁Mathematik	-10.3221
▁aufgrund	-10.3223
▁hielt	-10.3225
▁Programm	-10.3226
at	-10.3227
wissenschaftlich	-10.3229
▁letter	-10.3229
▁kau	-10.3239
habt	-10.324
▁Gene	-10.3241
▁Beispiele	-10.3253
▁bilden	-10.3253
▁original	-10.3253
▁extra	-10.3254
▁deliver	-10.3256
▁schaut	-10.3268
▁includ	-10.3278
▁bacteria	-10.328
am	-10.328
▁George	-10.3281
▁choose	-10.3281
▁Gerät	-10.3284
ne	-10.3284
▁communit	-10.3291
li	-10.3302
▁schöne	-10.3307
▁England	-10.3315
▁task	-10.3315
▁unfortunate	-10.3315
▁serious	-10.3316
▁betrachtet	-10.3317
▁minute	-10.3327
▁goal	-10.3329
▁Studien	-10.3341
▁negative	-10.3344
▁Vergangenheit	-10.3348
▁James	-10.3348
▁faster	-10.3351
▁schlechte	-10.3359
▁offen	-10.3359
▁Spezies	-10.336
▁voller	-10.3363
▁larger	-10.3364
weise	-10.3368
▁models	-10.3369
ton	-10.3378
ling	-10.3378
▁irgendwo	-10.3382
ha	-10.3387
▁ho	-10.3389
▁St	-10.3404
go	-10.3408
▁relative	-10.3413
▁Wirklichkeit	-10.3415
▁principle	-10.3415
▁aussieh	-10.3419
▁manage	-10.3424
▁dritte	-10.3443
▁Armut	-10.3449
▁crisis	-10.3451
▁vorbei	-10.3456
▁studies	-10.3456
sitzt	-10.3462
▁150	-10.3475
▁ultimate	-10.3483
▁wife	-10.3485
▁site	-10.3487
satz	-10.3487
▁Tür	-10.3505
▁El	-10.3507
▁interessante	-10.3507
ian	-10.3509
▁tree	-10.3512
▁Sinne	-10.3512
▁drugs	-10.3515
▁colleague	-10.3516
▁complicated	-10.3516
▁produzieren	-10.3516
▁above	-10.3516
▁leider	-10.3523
▁tolle	-10.3526
▁sleep	-10.3529
▁products	-10.3535
▁strange	-10.3537
▁Wind	-10.3539
▁hot	-10.3542
▁Bakterien	-10.355
▁Englisch	-10.355
▁electricity	-10.3551
▁gewinnen	-10.3553
▁peace	-10.3555
▁enter	-10.3559
▁shot	-10.3566
▁rein	-10.3572
▁fund	-10.3575
▁hilf	-10.3579
▁bunch	-10.3584
▁MIT	-10.3585
▁nachzudenken	-10.3585
▁pre	-10.3591
▁Wh	-10.3591
▁Arm	-10.3604
▁none	-10.3604
▁lag	-10.3605
▁Nachricht	-10.3635
▁writ	-10.364
▁unmöglich	-10.3642
▁Personen	-10.3651
▁emotional	-10.3652
▁college	-10.3653
▁fill	-10.3654
▁lower	-10.3679
▁Flugzeug	-10.368
▁except	-10.3686
▁versuche	-10.3686
▁medizinische	-10.3687
▁fantastic	-10.3688
kept	-10.3691
▁sent	-10.3691
▁neurons	-10.3692
▁famous	-10.3693
▁Uhr	-10.3694
▁male	-10.3708
▁argument	-10.3709
▁Das	-10.3715
▁decision	-10.3715
▁abzu	-10.3717
▁expert	-10.3722
▁Morgen	-10.3722
▁concern	-10.3724
▁reading	-10.3727
though	-10.3729
▁Orten	-10.3736
▁invest	-10.3757
▁communication	-10.3757
▁entscheiden	-10.3759
▁De	-10.3767
▁afford	-10.3767
▁genetic	-10.3787
▁nenne	-10.3793
▁website	-10.3793
▁ebenso	-10.3793
▁police	-10.3797
▁Kamera	-10.3797
▁folgen	-10.3807
▁Designer	-10.3807
▁erzeugen	-10.3816
▁complete	-10.3819
▁visit	-10.3824
▁families	-10.3827
▁Bäume	-10.3828
▁echt	-10.3846
▁ermöglicht	-10.3847
▁rund	-10.3847
▁zero	-10.386
▁Leistung	-10.3863
▁Times	-10.3864
▁Architektur	-10.3866
▁clean	-10.3868
▁performance	-10.3869
▁shift	-10.3869
▁Strom	-10.387
sehen	-10.3872
▁Dan	-10.3873
▁Einstein	-10.3897
▁meant	-10.3898
▁increasing	-10.3898
▁Bau	-10.3904
▁wave	-10.391
▁Worte	-10.3919
▁Linie	-10.3933
▁robots	-10.3937
ler	-10.3942
▁eure	-10.3955
▁Zeug	-10.396
▁oh	-10.3967
▁surprising	-10.3968
▁physics	-10.3968
▁military	-10.3968
▁verbinden	-10.3971
▁Charles	-10.3977
▁Bewusstsein	-10.3978
▁stick	-10.3979
▁training	-10.3982
▁check	-10.399
G	-10.3991
▁Systeme	-10.3996
ood	-10.4006
▁Firmen	-10.4007
▁zeigte	-10.4016
▁reduce	-10.4018
▁erklärt	-10.4019
▁killed	-10.4024
▁erzählte	-10.4035
ntweder	-10.404
▁fertig	-10.4043
▁Projekte	-10.4047
▁Israel	-10.4054
▁sing	-10.4054
▁pain	-10.4061
refore	-10.4069
▁press	-10.4073
▁beauty	-10.4075
▁charge	-10.4075
▁accept	-10.4075
▁geschehe	-10.4078
▁wirtschaftliche	-10.4093
▁o	-10.4093
▁math	-10.4094
▁career	-10.4099
nächst	-10.4106
▁tief	-10.4106
▁Sex	-10.4107
▁8	-10.4109
▁floor	-10.4111
▁address	-10.4111
aus	-10.4111
▁alive	-10.4113
▁excited	-10.4114
▁entdecken	-10.4114
ziehen	-10.4116
O	-10.4117
▁Ressourcen	-10.4126
▁anfange	-10.4128
▁Bürger	-10.4129
▁range	-10.4131
W	-10.4133
▁entdeckt	-10.4138
▁smaller	-10.4147
▁cheap	-10.4147
▁urban	-10.4153
▁policy	-10.4155
▁Fotos	-10.4161
▁ehrlich	-10.4161
▁sodas	-10.4163
▁Sekunden	-10.4183
▁Wörter	-10.4183
▁terribl	-10.4183
▁Anderson	-10.4184
▁Aktivität	-10.4184
▁path	-10.4202
▁forms	-10.4203
▁perform	-10.4208
▁biolog	-10.4212
▁older	-10.4216
▁br	-10.4219
los	-10.4234
▁herausfinde	-10.4239
▁brains	-10.4239
▁mobile	-10.4239
▁particle	-10.4256
ri	-10.4263
▁extrem	-10.4264
▁Wachstum	-10.4272
▁explore	-10.4279
▁rechts	-10.4283
▁erfolgreich	-10.429
▁expensive	-10.4293
▁Ja	-10.4298
▁mom	-10.4299
▁Die	-10.4307
▁handelt	-10.4316
▁hört	-10.4317
▁Bühne	-10.4323
▁progress	-10.4327
▁persönliche	-10.4327
▁Freiheit	-10.433
ir	-10.4331
▁legal	-10.4334
treten	-10.4339
▁irgendwa	-10.4343
▁decide	-10.4343
▁schwarze	-10.4346
▁gekommen	-10.4354
▁erstaunlich	-10.4355
▁neun	-10.4356
▁Baby	-10.4358
▁purpose	-10.4366
▁respond	-10.4366
▁virtual	-10.4366
▁retten	-10.4367
▁Bezug	-10.4367
▁dangerous	-10.4367
ized	-10.437
way	-10.4373
▁f	-10.4374
▁wunderbare	-10.4375
▁hält	-10.4376
▁lernte	-10.4378
▁läuf	-10.4385
▁gestellt	-10.4387
▁Regierungen	-10.4388
▁wenige	-10.4403
▁vehicle	-10.4403
▁Himmel	-10.4411
▁Auf	-10.4421
art	-10.4425
▁skills	-10.4428
▁Museum	-10.4432
▁interview	-10.4433
▁teaching	-10.4436
▁Ordnung	-10.4441
▁Robert	-10.4443
▁anywhere	-10.4448
▁Tagen	-10.4454
▁achieve	-10.4456
▁Formen	-10.4466
▁web	-10.4475
▁compare	-10.4477
▁constant	-10.4478
▁freedom	-10.4478
▁trotz	-10.4478
▁prevent	-10.4479
▁slight	-10.4479
▁report	-10.4485
▁bank	-10.4486
system	-10.4498
▁arbeite	-10.4512
▁instance	-10.4516
▁Prinzip	-10.4519
▁decisions	-10.4523
ik	-10.4524
▁jungen	-10.4537
▁Punkte	-10.4537
▁Druck	-10.4538
▁Kollegen	-10.454
▁heat	-10.4543
▁amp	-10.4546
▁improve	-10.4546
▁keiner	-10.4549
▁runter	-10.455
▁Nummer	-10.4553
▁9	-10.4554
▁gefragt	-10.4555
▁School	-10.4557
▁cold	-10.4559
▁untersuchen	-10.4561
▁bodi	-10.4569
▁Ge	-10.457
▁fühlte	-10.4576
▁stars	-10.4577
▁voll	-10.4578
▁daughter	-10.4591
▁jemande	-10.4595
▁protein	-10.4597
▁Interesse	-10.4597
▁Landes	-10.4598
aid	-10.46
▁verrückt	-10.4601
▁income	-10.4607
▁humanity	-10.4608
▁Wege	-10.4618
▁entschieden	-10.4618
nehmen	-10.4628
▁German	-10.4629
▁saß	-10.4629
▁production	-10.4635
▁Chance	-10.4637
▁Netzwerk	-10.4642
▁Gegen	-10.4647
▁Methode	-10.4648
▁Michael	-10.466
▁verstanden	-10.4663
▁effort	-10.4666
▁babies	-10.4667
▁außerhalb	-10.4667
▁Artikel	-10.4669
▁Indian	-10.4681
▁sammeln	-10.4686
os	-10.47
▁convince	-10.4705
▁leisten	-10.4705
▁temperature	-10.4705
▁Nigeria	-10.4714
▁Park	-10.4714
▁Sch	-10.4715
▁Fisch	-10.472
▁Nahrung	-10.472
▁erfahren	-10.4725
▁legs	-10.4729
▁Los	-10.474
▁Ganze	-10.4742
▁unique	-10.4742
ungen	-10.4749
like	-10.4749
▁text	-10.4755
▁Wand	-10.4759
mögen	-10.477
▁warten	-10.4771
ö	-10.4781
▁Recht	-10.479
▁transport	-10.4809
lassen	-10.4813
▁Mo	-10.4819
▁shark	-10.482
▁Plan	-10.4821
▁Bank	-10.4821
▁Krankenhaus	-10.4824
▁Meer	-10.4825
▁organism	-10.4826
▁driving	-10.4828
▁bone	-10.4831
▁Bienen	-10.4833
▁Blut	-10.4841
▁drop	-10.4841
au	-10.4851
▁schützen	-10.4862
▁park	-10.4876
▁machines	-10.4878
▁leg	-10.4897
▁female	-10.4898
▁enormous	-10.4898
ish	-10.4899
▁Netz	-10.4905
▁familiar	-10.4906
▁starb	-10.4908
▁ansehe	-10.4916
▁genes	-10.4933
▁weight	-10.4936
▁Schönheit	-10.4937
▁financial	-10.4937
▁irgendeine	-10.4943
▁La	-10.4953
▁hundert	-10.496
▁Kampf	-10.4971
▁conflict	-10.4972
▁Gen	-10.4974
▁Gelegenheit	-10.4976
▁intelligence	-10.4976
▁Religion	-10.4979
▁Wesen	-10.498
▁drink	-10.4981
▁wohin	-10.4983
▁forget	-10.4984
▁stopp	-10.4985
▁Finger	-10.4988
▁Herr	-10.4997
▁scar	-10.5003
▁magic	-10.5007
▁geschaffen	-10.5009
▁Farbe	-10.5017
▁2008	-10.5023
▁active	-10.5025
▁environmental	-10.5034
▁Million	-10.5039
▁solutions	-10.5043
▁Darwin	-10.5055
▁Beginn	-10.5055
▁remarkable	-10.5062
▁Ma	-10.5068
ko	-10.5069
▁messen	-10.5088
▁separate	-10.5095
▁target	-10.5097
▁müsste	-10.51
▁significant	-10.5106
▁Ha	-10.5114
▁Auge	-10.5116
▁bat	-10.5119
▁win	-10.5124
▁Haut	-10.5127
▁funny	-10.5136
▁meeting	-10.5164
▁cook	-10.5164
ul	-10.5174
▁Fuß	-10.5175
▁getroffen	-10.5176
ualität	-10.5187
▁Version	-10.5188
▁fix	-10.5201
▁influence	-10.5206
▁respect	-10.5214
▁September	-10.5216
▁board	-10.5219
bo	-10.5225
▁meter	-10.5234
▁rule	-10.5235
stand	-10.5242
▁politic	-10.5242
▁Verständnis	-10.5246
▁Telefon	-10.5248
▁taten	-10.5248
▁Büro	-10.525
▁herstellen	-10.5261
▁aid	-10.5265
▁catch	-10.5268
▁Freude	-10.5275
▁bisher	-10.5288
▁Leidenschaft	-10.5296
▁gain	-10.5297
▁pressure	-10.5299
▁hart	-10.53
▁dance	-10.5303
▁7	-10.5305
▁Name	-10.5313
uch	-10.5314
▁remind	-10.5326
▁town	-10.5329
▁km	-10.5334
▁Werkzeuge	-10.5339
▁finger	-10.5342
▁erwarten	-10.5355
noch	-10.536
▁Botschaft	-10.5363
▁Arzt	-10.5367
▁fallen	-10.5368
il	-10.5369
▁survive	-10.5384
▁Gesetz	-10.5386
▁Zeitpunkt	-10.5392
▁cross	-10.5402
▁brauchte	-10.5405
▁Geist	-10.5406
▁cap	-10.5408
▁Harvard	-10.5418
▁genome	-10.5418
▁insect	-10.5418
▁sand	-10.542
▁Grad	-10.542
▁useful	-10.5423
▁feed	-10.5428
▁flying	-10.543
▁walked	-10.543
▁demand	-10.5435
▁Abend	-10.5437
▁nahe	-10.5439
▁laut	-10.545
▁Produkte	-10.5452
▁creativity	-10.5459
▁interaction	-10.5461
▁trade	-10.5462
▁saving	-10.5474
▁Geschäft	-10.5474
skraft	-10.5474
▁Tisch	-10.548
▁sat	-10.549
▁becom	-10.5491
▁decade	-10.5499
▁various	-10.5501
▁email	-10.5501
▁lokale	-10.5535
▁nannte	-10.5542
▁umzu	-10.5544
▁race	-10.5546
▁costs	-10.555
▁dritten	-10.5551
▁slide	-10.5558
welt	-10.556
▁tissue	-10.5584
▁fällt	-10.5584
▁Fluss	-10.5589
▁dog	-10.5592
▁sky	-10.5603
▁nachdenk	-10.5613
zubringen	-10.5613
▁erinnere	-10.5625
▁geschah	-10.5625
▁honest	-10.5626
▁k	-10.5637
▁wide	-10.5639
▁Stunde	-10.5646
▁speaking	-10.5653
▁Ben	-10.566
▁television	-10.5667
ley	-10.5669
▁starke	-10.5673
▁forth	-10.5676
▁Kern	-10.568
▁zufällig	-10.5682
ut	-10.5683
▁fühlt	-10.5684
▁unit	-10.569
▁circle	-10.5695
▁hair	-10.5709
▁trouble	-10.5709
▁failure	-10.571
▁popular	-10.5712
co	-10.5715
▁virus	-10.5718
▁unterstützen	-10.5724
▁Steve	-10.5731
▁wealth	-10.574
▁nochmal	-10.5747
▁Feuer	-10.575
▁central	-10.5752
▁California	-10.5752
▁heutigen	-10.5753
▁types	-10.5757
▁Bast	-10.5759
▁brand	-10.5764
▁intelligent	-10.5765
▁apply	-10.5774
▁engine	-10.578
▁rock	-10.5781
eath	-10.5786
▁konzentriere	-10.5795
▁supply	-10.5795
▁NASA	-10.5795
▁erfunden	-10.5795
▁99	-10.5795
▁conference	-10.5797
▁passion	-10.5797
▁Gesundheits	-10.5797
▁Risiko	-10.5799
▁verkaufen	-10.5802
▁Jungen	-10.5805
▁Werte	-10.5805
▁Veränderungen	-10.5814
▁sequence	-10.5819
▁45	-10.5821
id	-10.5827
▁außergewöhnlich	-10.5837
▁iPhone	-10.5837
▁coral	-10.5838
▁shared	-10.5838
▁summer	-10.584
▁engineering	-10.5848
▁document	-10.5851
▁edge	-10.5857
▁breath	-10.5861
ft	-10.5867
▁schafft	-10.5868
▁paint	-10.5875
dimensional	-10.5877
▁Partner	-10.588
▁behandeln	-10.588
▁Western	-10.5889
▁Tom	-10.5895
ti	-10.5898
▁erzeugt	-10.5898
▁halbe	-10.5898
▁Band	-10.5899
▁co	-10.5902
igen	-10.5909
▁Ton	-10.5919
ien	-10.5921
▁sexual	-10.5926
▁Thom	-10.593
▁stress	-10.5935
▁ran	-10.5951
wissenschaft	-10.5952
▁fragt	-10.5952
▁seat	-10.5955
und	-10.5958
▁Karriere	-10.5967
▁Morton	-10.5967
▁Peter	-10.597
▁aktiv	-10.5972
▁Maschinen	-10.5972
▁consumer	-10.5979
▁cultural	-10.5983
iv	-10.5985
▁rain	-10.5986
ine	-10.5986
▁Osten	-10.5989
tic	-10.5994
▁infrastructure	-10.6011
sharing	-10.6012
▁197	-10.6012
schaft	-10.6018
▁Test	-10.6029
▁factor	-10.603
wise	-10.6034
▁hinzu	-10.6034
▁schicken	-10.6035
▁Suche	-10.6037
legen	-10.6046
ouTube	-10.6054
▁Ahnung	-10.6054
▁gedacht	-10.6054
▁distance	-10.6059
▁values	-10.6059
▁sowie	-10.606
▁triff	-10.6062
▁Do	-10.6067
▁alternative	-10.6077
▁Schlüssel	-10.6077
▁double	-10.6093
▁grundlegende	-10.6095
ige	-10.6096
▁Traum	-10.6097
▁straight	-10.6098
▁speech	-10.6098
▁Francisco	-10.6098
▁angefangen	-10.6098
▁balance	-10.61
tragen	-10.6104
▁surgery	-10.6109
▁possibl	-10.6114
▁spot	-10.6115
tra	-10.6118
▁tausende	-10.6118
▁gehe	-10.6123
▁radio	-10.6124
▁hell	-10.6126
▁endlich	-10.613
▁Liste	-10.613
▁Westen	-10.6132
▁station	-10.6138
▁Verantwortung	-10.614
▁Sommer	-10.6142
▁Position	-10.6143
▁belief	-10.615
▁communicate	-10.615
▁natürliche	-10.6153
▁detail	-10.6157
▁sample	-10.6164
▁professional	-10.6166
▁Schul	-10.6168
▁höher	-10.6185
▁Kreativität	-10.6186
▁decades	-10.6187
▁feature	-10.6188
▁blaue	-10.6193
▁accident	-10.6193
▁star	-10.6202
▁existiert	-10.6208
▁All	-10.6211
▁Anwendung	-10.6218
▁aware	-10.6219
▁Jahrhunderts	-10.622
▁anti	-10.6221
schreibt	-10.6229
▁neighborhood	-10.623
▁Institution	-10.6236
▁thanks	-10.6236
▁Zustand	-10.6237
▁instrument	-10.6237
▁öffnen	-10.6238
▁recent	-10.6243
▁prison	-10.6247
▁layer	-10.625
▁ship	-10.6256
▁Kommunikation	-10.6256
▁define	-10.6271
▁dynamic	-10.6275
▁196	-10.6275
▁chair	-10.6275
▁societies	-10.6275
kommt	-10.6287
ei	-10.6293
▁worst	-10.632
▁Materialien	-10.632
▁below	-10.6325
▁2010	-10.6325
▁event	-10.6331
▁bed	-10.6336
▁Wald	-10.6338
▁Gefängnis	-10.6342
▁Adam	-10.6342
▁See	-10.6345
▁dunkle	-10.6346
▁sub	-10.6347
▁release	-10.6365
▁Verfügung	-10.6365
▁Nähe	-10.6365
▁Biologie	-10.6365
▁verkauft	-10.6371
▁genutzt	-10.638
I	-10.6383
▁Objekte	-10.6388
▁wählen	-10.6389
▁sentence	-10.639
▁glass	-10.6407
▁identit	-10.641
▁profound	-10.641
▁careful	-10.6412
▁nachdenke	-10.6414
▁birth	-10.6415
▁überleben	-10.642
▁lief	-10.642
▁agree	-10.6421
▁photo	-10.6431
▁introduce	-10.6433
▁Es	-10.6437
▁sch	-10.6437
▁Spitze	-10.6442
▁beat	-10.6453
▁komme	-10.6453
▁komplexe	-10.6455
▁responsibilit	-10.6456
▁technique	-10.6456
▁destroy	-10.6456
▁civilization	-10.6456
▁capacity	-10.6459
▁paid	-10.6467
▁Physik	-10.6474
round	-10.6478
▁Worten	-10.6478
▁scientist	-10.648
ble	-10.6484
▁advance	-10.649
▁normale	-10.6494
▁Klima	-10.6497
▁oxygen	-10.6501
▁tremendous	-10.6501
zusag	-10.6501
▁kontrollieren	-10.6503
▁ließ	-10.6504
▁atmosphere	-10.6505
tion	-10.6506
▁roll	-10.6512
ities	-10.6517
▁glaubt	-10.6521
▁aufgenommen	-10.6522
▁Islam	-10.6528
▁erlaub	-10.6536
▁gewisse	-10.6537
▁rote	-10.6544
▁Fenster	-10.6547
▁Opfer	-10.6547
▁underst	-10.6548
▁Gehirns	-10.6551
▁Professor	-10.6553
▁elektrische	-10.6561
▁capital	-10.6564
▁researcher	-10.6567
▁method	-10.6577
▁serve	-10.6581
▁sister	-10.6593
▁flight	-10.6593
▁Bedingung	-10.6596
▁sustainabl	-10.6613
▁Herzen	-10.6615
▁produziert	-10.6619
▁gelang	-10.662
▁argue	-10.6621
▁mountain	-10.6621
▁spreche	-10.6622
▁sad	-10.6632
▁Vergleich	-10.6637
▁Street	-10.664
▁bridge	-10.664
▁allerding	-10.664
▁75	-10.664
▁Forscher	-10.6644
▁citizens	-10.6648
▁falsche	-10.6658
all	-10.6663
▁chemical	-10.6669
▁minds	-10.6672
▁beeinflusst	-10.6677
▁capture	-10.6677
▁Tieren	-10.6686
▁twice	-10.6686
▁muscle	-10.6686
▁rapid	-10.6687
▁consciousness	-10.6687
▁veröffentlicht	-10.6687
▁Wow	-10.6687
▁Geschwindigkeit	-10.6687
▁Werkzeug	-10.6689
▁boat	-10.6694
▁brilliant	-10.6695
▁Center	-10.6705
▁workers	-10.6711
punkt	-10.6713
▁willing	-10.6729
▁Tochter	-10.6733
▁ancient	-10.6733
▁entlang	-10.6733
▁begonne	-10.6733
▁How	-10.6734
▁sicherlich	-10.6738
▁kling	-10.6739
▁Ansatz	-10.6742
▁folgende	-10.6749
▁highly	-10.6754
▁Konferenz	-10.6755
▁perfekt	-10.676
stern	-10.676
▁wahre	-10.6763
form	-10.677
gebaut	-10.6778
▁smell	-10.678
▁threat	-10.6787
▁verursacht	-10.6787
▁Beine	-10.6788
▁challenges	-10.6789
▁Zelle	-10.679
▁miss	-10.6795
▁benötigt	-10.6806
▁grosse	-10.6811
▁gegangen	-10.6812
▁Sauerstoff	-10.6824
▁afr	-10.6824
▁ähnliche	-10.6825
▁Schutz	-10.6826
▁10,000	-10.6833
▁Neuronen	-10.6841
▁Jung	-10.6844
▁Operation	-10.6856
hält	-10.6871
▁Wikipedia	-10.6874
▁classroom	-10.6874
▁Infrastruktur	-10.6879
zunehmen	-10.6888
▁generate	-10.6888
▁Gefühle	-10.6889
▁Denken	-10.689
▁birds	-10.6892
▁noise	-10.6893
erstellen	-10.6894
ka	-10.6895
▁Go	-10.6896
▁ändert	-10.6897
▁Green	-10.6897
schaftliche	-10.6898
▁nutzt	-10.6911
▁Großbritannien	-10.6922
▁letztendlich	-10.6922
▁sector	-10.6922
▁lack	-10.6922
▁Ansicht	-10.6922
▁dying	-10.6923
▁networks	-10.6929
pite	-10.6938
▁effects	-10.6953
▁gebe	-10.6958
bild	-10.6962
▁Industrie	-10.6963
▁geschaff	-10.6966
▁täglich	-10.6969
▁Chicago	-10.697
▁article	-10.697
▁collective	-10.697
▁Wandel	-10.6971
▁weiss	-10.6974
▁net	-10.6995
▁rare	-10.6997
für	-10.7
▁Polizei	-10.7004
▁drawing	-10.7004
▁Pakistan	-10.7013
▁gil	-10.7013
▁architect	-10.7018
▁ermöglichen	-10.7018
▁disappear	-10.7019
▁hopeful	-10.7019
richten	-10.702
trägt	-10.7022
▁rot	-10.7024
▁Antworten	-10.7031
▁Geräte	-10.7033
rufen	-10.7036
▁inspired	-10.7038
▁broken	-10.7042
▁apart	-10.7045
▁setzt	-10.7046
▁landscape	-10.7057
ität	-10.7064
▁beeinflussen	-10.7066
▁campaign	-10.7066
▁Ausbildung	-10.7066
▁imagination	-10.7067
▁gutes	-10.7067
▁Wunder	-10.7068
▁dagegen	-10.7069
▁complexity	-10.7071
▁relevant	-10.7071
ac	-10.7072
▁Strategie	-10.7075
▁Bett	-10.7077
▁notion	-10.7086
ate	-10.7086
▁King	-10.7088
▁Big	-10.7089
ical	-10.7089
▁states	-10.709
▁Unterschiede	-10.7093
▁spät	-10.7101
▁laws	-10.7103
▁moralische	-10.7107
▁erinnert	-10.7112
ierung	-10.7113
▁Ausdruck	-10.7113
▁dorthin	-10.7119
▁switch	-10.7122
▁Medikamente	-10.7129
▁boys	-10.713
▁legen	-10.7132
▁mach	-10.7139
▁Ecke	-10.7139
base	-10.7143
▁cycle	-10.7145
▁Gold	-10.7148
▁eating	-10.7158
▁Gegend	-10.7159
▁corner	-10.7161
▁bestehen	-10.7162
▁reagiere	-10.7163
▁handeln	-10.7165
▁flu	-10.717
▁Spiele	-10.7175
▁erstaunliche	-10.7178
▁Fortschritt	-10.7191
▁Rede	-10.7193
op	-10.7195
▁illegal	-10.7198
▁prove	-10.7205
▁Farben	-10.7207
▁Ka	-10.7207
▁Komplexität	-10.7213
▁Middle	-10.7213
▁investment	-10.7214
▁Identität	-10.7214
▁continent	-10.7215
▁darf	-10.7216
▁afrikanische	-10.7219
▁praktisch	-10.7228
▁Teilen	-10.7248
▁Klasse	-10.7257
▁graph	-10.7259
▁hervor	-10.7261
▁giant	-10.7262
▁satellite	-10.7262
▁Sa	-10.7275
▁mission	-10.7278
▁kostet	-10.7287
▁ideal	-10.7291
▁behandelt	-10.7293
▁ball	-10.7294
▁grade	-10.7298
leben	-10.7304
▁Muslim	-10.7308
▁Norden	-10.7311
▁airplane	-10.7311
▁universal	-10.7311
▁monkey	-10.7311
▁yellow	-10.7311
▁GPS	-10.7312
▁1,000	-10.7313
▁micro	-10.7313
▁College	-10.7314
▁westliche	-10.7316
▁Vielfa	-10.7324
▁option	-10.7329
▁moderne	-10.7331
▁Jobs	-10.7339
▁contain	-10.734
▁engage	-10.7347
▁einfacher	-10.7353
line	-10.7353
▁nehme	-10.736
▁window	-10.736
▁reveal	-10.7361
▁ecosystem	-10.7361
▁sogenannte	-10.7363
▁religion	-10.7364
▁sick	-10.7369
▁Sand	-10.7377
▁traditionelle	-10.7378
▁relationships	-10.7384
▁Insekten	-10.7386
▁entsteh	-10.7386
diversity	-10.7388
▁lebte	-10.7394
▁whale	-10.7401
▁gap	-10.7402
kommen	-10.741
▁Boston	-10.7411
▁reward	-10.7411
▁Temperatur	-10.7412
▁Loch	-10.7412
▁jump	-10.7415
▁Wunsch	-10.7421
▁fold	-10.7423
▁entschied	-10.7425
▁Berg	-10.7428
▁biological	-10.7429
▁weiterhi	-10.7444
▁grüne	-10.7447
▁engineer	-10.7449
industrie	-10.7451
▁missing	-10.7461
▁vast	-10.7462
▁bear	-10.7471
▁definition	-10.7472
pe	-10.7472
▁chinesische	-10.7476
▁Lernen	-10.7491
ffentlich	-10.7494
▁inner	-10.7495
U	-10.7496
ak	-10.7503
▁designers	-10.7512
▁Mütter	-10.7512
▁Zusammenarbeit	-10.7512
▁earth	-10.7512
▁kenne	-10.7513
▁evolve	-10.7517
▁Zeiten	-10.7519
▁kämpfen	-10.7519
▁basis	-10.7526
▁avoid	-10.7528
▁Wir	-10.753
▁überzeugt	-10.7538
na	-10.7542
▁Kontakt	-10.7542
▁loss	-10.7553
▁My	-10.7554
▁rough	-10.756
▁neighbor	-10.7562
▁Intelligenz	-10.7563
▁component	-10.7563
▁application	-10.7563
▁Lebensmittel	-10.7563
▁wunderbar	-10.7563
▁Hi	-10.7566
ial	-10.7577
▁Thi	-10.7577
liche	-10.7584
innen	-10.7596
▁Junge	-10.7598
stehen	-10.7604
term	-10.7606
▁enable	-10.7607
▁fühle	-10.7607
▁tough	-10.7608
▁23	-10.7611
▁Higgs	-10.7614
▁crime	-10.7614
▁radical	-10.7614
▁Ah	-10.7615
▁Obama	-10.7616
▁Paris	-10.7616
ssystem	-10.7616
▁investieren	-10.7618
▁Zentrum	-10.7628
DP	-10.7632
▁zog	-10.7639
▁fuhr	-10.7639
▁random	-10.7659
▁benötige	-10.7665
▁president	-10.7665
▁leadership	-10.7665
▁Plastik	-10.7667
▁davor	-10.7668
▁Klimawandel	-10.7671
▁European	-10.7673
▁Virus	-10.7679
▁Baum	-10.7686
ivity	-10.7688
▁fossil	-10.7692
▁hearing	-10.7694
▁Waffen	-10.7708
ende	-10.7709
▁Asia	-10.7715
▁Gewicht	-10.7716
▁breast	-10.7716
▁interessiere	-10.7716
▁opportunities	-10.7716
▁vermutlich	-10.7716
▁technical	-10.7716
▁dramatic	-10.7717
▁Satz	-10.7717
▁Einsatz	-10.7717
wächst	-10.7718
▁algorithm	-10.7718
▁unlike	-10.772
▁devices	-10.7726
▁Bo	-10.7727
▁surprise	-10.7735
of	-10.7743
▁creatures	-10.7753
▁farm	-10.7754
▁hunderte	-10.7755
▁lass	-10.7756
▁rid	-10.776
▁bees	-10.7761
▁neuer	-10.7762
▁Zusammenhang	-10.7768
▁competition	-10.7768
▁express	-10.7768
▁background	-10.7771
laden	-10.7773
▁blieb	-10.7776
▁Frieden	-10.7781
▁commercial	-10.7785
▁desert	-10.7791
▁Kunden	-10.7795
▁Pro	-10.7797
▁musst	-10.7797
▁Vertrauen	-10.7802
isierung	-10.7806
▁controll	-10.7809
▁farmers	-10.7811
▁wert	-10.7817
▁He	-10.7819
▁coffee	-10.782
▁Unterstützung	-10.782
▁husband	-10.782
▁Great	-10.782
▁recover	-10.782
▁British	-10.782
▁outcome	-10.7821
▁scene	-10.7821
▁Zeichen	-10.7823
▁1990	-10.7824
▁Life	-10.7825
▁Zeitung	-10.7829
▁tumor	-10.7831
▁efficient	-10.7836
▁Vision	-10.7836
▁painting	-10.7837
▁Was	-10.7844
▁dreht	-10.7845
▁designer	-10.7847
▁verbreitet	-10.785
▁lernt	-10.7857
▁vote	-10.7863
▁core	-10.787
▁Materie	-10.7872
▁1960	-10.7873
▁weird	-10.7873
▁Handy	-10.7875
▁dis	-10.7876
▁operat	-10.7879
▁Sekunde	-10.7881
▁erforschen	-10.7884
▁bubble	-10.7884
▁worry	-10.7886
▁Institute	-10.7886
▁schaute	-10.7887
▁gemeinsame	-10.7898
▁bar	-10.7905
▁trick	-10.7906
ible	-10.7916
▁bloß	-10.792
side	-10.7921
▁Atmosphäre	-10.7925
▁Sun	-10.7926
J	-10.7927
▁gewonnen	-10.7929
▁wood	-10.793
▁solch	-10.7937
▁invite	-10.7942
▁beschäftigt	-10.795
▁produc	-10.7956
▁rational	-10.7959
▁digitale	-10.7962
▁persönlich	-10.7971
▁Städten	-10.7976
▁Wahrscheinlich	-10.7978
▁Martin	-10.7978
▁damage	-10.7979
▁steckt	-10.7982
▁600	-10.7983
▁click	-10.7985
▁Zu	-10.7991
▁fashion	-10.7994
▁entstehen	-10.7999
▁Gute	-10.8007
▁fully	-10.8016
▁Basis	-10.8018
▁Feld	-10.8018
▁Fernsehen	-10.8021
▁streets	-10.8024
12	-10.8026
▁quote	-10.8027
▁plann	-10.803
▁Höhe	-10.803
▁Universums	-10.8033
▁halte	-10.8033
▁Häuser	-10.8033
▁Kilometer	-10.8034
▁include	-10.8038
▁industrial	-10.8039
▁enorme	-10.8039
▁Brot	-10.8046
▁ernst	-10.8048
▁relativ	-10.8048
▁reflect	-10.8058
▁Affen	-10.8065
▁werfen	-10.8068
▁contact	-10.8085
▁fascinating	-10.8085
▁stem	-10.8087
▁durchgeführt	-10.8087
▁2009	-10.8088
ize	-10.8089
▁Gesellschaften	-10.8097
▁graduate	-10.8098
▁beschreiben	-10.8098
▁Lieblings	-10.8113
▁Ne	-10.8125
▁kümmer	-10.8128
ship	-10.813
▁Einkommen	-10.8135
▁High	-10.8138
▁Knochen	-10.8139
▁phenomeno	-10.8139
▁Hintergrund	-10.8139
▁surviv	-10.8147
▁übertragen	-10.8152
▁alleine	-10.8153
genommen	-10.8154
▁Soldaten	-10.8156
▁Phänomen	-10.8163
erleben	-10.8175
▁promise	-10.8186
▁Diskussion	-10.8192
▁begeistert	-10.8193
▁opposite	-10.8193
▁Bildschirm	-10.8193
▁Valley	-10.8195
▁signal	-10.8202
▁bottle	-10.8204
▁verdienen	-10.8206
▁Gang	-10.8208
rausgefunden	-10.8218
▁Mond	-10.823
▁dad	-10.8233
▁geführt	-10.8235
▁kreative	-10.8238
▁Online	-10.8247
▁unbedingt	-10.8248
▁entwickelte	-10.8248
▁Kräfte	-10.8249
▁deutlich	-10.8251
ang	-10.8251
▁Aufgaben	-10.8252
▁st	-10.8262
▁combine	-10.8264
ale	-10.8271
▁Ameisen	-10.8283
▁answers	-10.8286
▁Karten	-10.8286
▁notwendig	-10.829
▁drehen	-10.8291
▁umgehen	-10.8293
▁gene	-10.8298
fall	-10.8299
▁Gewebe	-10.8301
▁buchstäblich	-10.8302
▁kommunizieren	-10.8302
▁Kontext	-10.8302
steigt	-10.8302
▁vollkommen	-10.8302
▁Untersuchung	-10.8303
▁Depression	-10.8305
▁Sterne	-10.8306
▁coast	-10.8307
▁versu	-10.8307
▁lautet	-10.8313
▁plus	-10.8313
▁lucky	-10.8322
tally	-10.8336
▁lebende	-10.8342
▁Stein	-10.8346
▁Titel	-10.8351
▁encourage	-10.8356
▁hauptsächlich	-10.8357
▁magazine	-10.8357
▁French	-10.8357
▁chose	-10.8357
▁Politiker	-10.8357
▁Drittel	-10.8357
▁kulturelle	-10.8357
▁erhielt	-10.8359
▁stolz	-10.836
▁mouth	-10.8368
▁trip	-10.838
▁receive	-10.8399
▁22	-10.8404
un	-10.8409
▁Zivilisation	-10.8412
▁advantage	-10.8412
▁Apple	-10.8413
▁religious	-10.8416
▁aspect	-10.8427
▁Masse	-10.8434
▁hinweg	-10.8436
▁Motor	-10.8439
▁baute	-10.8448
▁metaphor	-10.8451
▁behaupte	-10.8461
▁Iraq	-10.8463
▁Begriff	-10.8465
▁Ghana	-10.8467
▁Science	-10.8467
▁Golf	-10.8468
▁Gesetze	-10.8469
▁forever	-10.8475
▁Faktor	-10.8476
▁fantastisch	-10.8476
berg	-10.8477
▁älter	-10.8479
▁Flug	-10.8479
lichkeit	-10.8488
▁Jahrzehnt	-10.8497
▁date	-10.8508
▁verbracht	-10.8513
▁Unter	-10.8516
▁To	-10.8517
▁Holz	-10.8521
▁labor	-10.8522
▁responsibl	-10.8523
▁bright	-10.8524
▁sold	-10.8546
▁dahin	-10.8547
bau	-10.8548
▁multi	-10.8548
▁spin	-10.8551
▁members	-10.856
▁suffering	-10.8567
▁internationale	-10.8569
auf	-10.857
▁drin	-10.8576
▁ex	-10.8577
▁erwartet	-10.8578
▁Code	-10.8579
▁Sebastian	-10.8579
▁Themen	-10.8581
▁gestalten	-10.8584
▁soil	-10.8588
▁besitzen	-10.8592
me	-10.8593
▁Co	-10.8602
▁adapt	-10.8604
▁untersucht	-10.8604
▁vollständig	-10.8606
▁Glas	-10.8611
▁la	-10.8616
▁Island	-10.8617
▁lustig	-10.8626
▁schließen	-10.8627
▁crowd	-10.8634
▁Haiti	-10.8635
▁reaction	-10.8637
▁Irak	-10.8637
▁Angeles	-10.8638
band	-10.8638
▁Milliarde	-10.8644
▁location	-10.8647
▁Beste	-10.8656
▁Modelle	-10.8658
▁electric	-10.8667
▁dot	-10.868
▁photos	-10.8681
▁Hirn	-10.8684
▁island	-10.8688
▁Präsident	-10.8689
zeichen	-10.8692
▁Erklärung	-10.8693
▁And	-10.8699
▁Experimente	-10.8707
▁mess	-10.8712
▁20.	-10.8719
▁Konflikt	-10.8724
▁häufig	-10.873
▁bird	-10.8734
sche	-10.8736
▁biologische	-10.8738
▁Mexic	-10.874
fer	-10.8744
▁Mission	-10.8749
▁Microsoft	-10.875
▁1980	-10.875
▁scheinen	-10.8751
▁Müll	-10.8754
▁according	-10.8754
▁27	-10.8757
▁expression	-10.8761
▁bezahle	-10.8761
▁leading	-10.8771
▁überrascht	-10.8773
ah	-10.8774
durchschnittlich	-10.8774
▁stecken	-10.8775
▁brother	-10.8791
▁gesund	-10.8794
▁erkannte	-10.8804
▁mathematics	-10.8807
▁Wahrnehmung	-10.8807
▁kürzlich	-10.8808
▁schien	-10.8808
▁held	-10.8808
▁cognitive	-10.8809
▁moon	-10.8813
▁related	-10.8815
▁Drogen	-10.8816
▁hängt	-10.8816
▁töten	-10.8816
▁talks	-10.8817
▁laugh	-10.8818
▁las	-10.8832
per	-10.8833
heben	-10.8834
▁Spielen	-10.8839
▁dollar	-10.884
▁motor	-10.8848
▁verbringe	-10.8856
▁Tumor	-10.8858
▁ausge	-10.886
do	-10.8861
▁Tausende	-10.8864
▁attempt	-10.8865
▁childhood	-10.8866
▁wuchs	-10.8874
▁Laptop	-10.8876
▁Le	-10.888
▁Me	-10.8884
▁extend	-10.8884
▁rechten	-10.8884
▁insight	-10.8889
▁Fische	-10.8893
▁typical	-10.8894
▁filter	-10.8898
▁Rand	-10.8905
▁spezielle	-10.8913
▁fantastische	-10.8914
▁ha	-10.8917
▁weapons	-10.8924
▁interagieren	-10.8925
▁Bob	-10.8934
▁selten	-10.8943
▁poll	-10.8944
▁Jim	-10.8944
▁expand	-10.8948
▁bus	-10.8954
▁cloud	-10.8966
▁Babys	-10.8968
desto	-10.8968
har	-10.8969
rüber	-10.8971
▁wider	-10.8976
▁elements	-10.8977
▁fresh	-10.8982
▁leaving	-10.8982
▁exercise	-10.8982
▁Lektion	-10.8982
▁bread	-10.8983
▁verantwortlich	-10.8985
▁Rahmen	-10.8985
fährt	-10.8991
hi	-10.9004
▁Funktion	-10.901
seits	-10.9013
▁pop	-10.9018
▁emerg	-10.9022
▁Filme	-10.9023
▁mittler	-10.9031
▁perfekte	-10.9035
night	-10.9036
▁correct	-10.9039
▁newspaper	-10.9041
▁dürfe	-10.9041
▁verhindern	-10.9041
▁fiel	-10.9041
▁depression	-10.9041
▁conscious	-10.9047
▁kilometer	-10.9051
ization	-10.9055
▁operation	-10.9059
▁score	-10.9066
▁aktuelle	-10.9066
test	-10.9072
▁innovative	-10.9076
ging	-10.9078
▁gefährlich	-10.9078
▁tausend	-10.9082
▁Geburt	-10.9085
▁Staat	-10.9087
▁studie	-10.9094
▁ihres	-10.9096
▁regular	-10.91
▁interface	-10.91
▁display	-10.91
▁Großteil	-10.91
▁stuck	-10.91
▁proud	-10.9101
▁lachen	-10.9105
▁entwerfen	-10.9107
▁öffentlich	-10.9107
io	-10.911
▁verfolgen	-10.9119
▁Nicht	-10.9123
▁invisible	-10.9123
que	-10.9135
▁Tim	-10.9135
▁vergleichen	-10.914
lichen	-10.9143
▁überzeugen	-10.9154
▁überraschend	-10.9157
▁civil	-10.9158
▁strategy	-10.9159
▁mouse	-10.9159
▁hidden	-10.916
▁events	-10.9161
▁Fleisch	-10.9162
▁Landwirtschaft	-10.9164
▁Fabrik	-10.9164
▁discovery	-10.9165
▁bestimmen	-10.9165
▁sorgen	-10.9171
▁independent	-10.9172
▁Hund	-10.9176
▁genetische	-10.9178
▁copy	-10.9181
▁Moleküle	-10.9183
▁harm	-10.9185
▁usw	-10.9187
▁deeply	-10.919
▁Gespräch	-10.9191
▁Gefahr	-10.9192
▁wesentlich	-10.9195
lange	-10.9199
ise	-10.9201
▁pump	-10.9204
▁Na	-10.9206
▁traffic	-10.9208
▁Frank	-10.921
▁spirit	-10.9216
▁platform	-10.9219
▁pair	-10.9219
▁election	-10.922
▁Verstand	-10.922
▁Joe	-10.9225
▁Ziele	-10.923
▁odd	-10.9233
▁writer	-10.9238
▁robotic	-10.924
▁könnt	-10.9241
ein	-10.9244
▁em	-10.9245
▁einsetzen	-10.9246
▁mitten	-10.9251
ho	-10.9251
11	-10.9254
▁occur	-10.9258
▁folgt	-10.9262
▁debate	-10.9263
▁Laden	-10.9268
▁party	-10.9268
▁Ca	-10.9273
▁tie	-10.9275
▁seriously	-10.9278
▁Sport	-10.9278
▁economist	-10.9279
▁hurt	-10.9279
▁Schluss	-10.9279
▁mindesten	-10.928
▁stammt	-10.928
▁verwandeln	-10.928
ffentlichkeit	-10.928
▁That	-10.9281
▁honor	-10.9282
▁Kindheit	-10.9283
▁herunter	-10.9285
▁river	-10.929
▁suffer	-10.9293
▁holding	-10.9299
▁university	-10.9306
▁row	-10.9308
▁arrive	-10.931
▁Neuro	-10.931
▁stream	-10.9313
▁Interaktion	-10.9318
▁Genom	-10.9336
▁roof	-10.934
▁Schwierigkeit	-10.934
▁Zimmer	-10.934
▁w	-10.9344
▁Strukturen	-10.9344
▁Unternehmer	-10.9346
▁claim	-10.9348
▁curve	-10.9351
▁Nutzen	-10.9358
▁struggle	-10.9359
ierte	-10.9361
▁Radio	-10.9364
▁setzte	-10.9365
▁Sprachen	-10.9367
▁lie	-10.9374
▁match	-10.9382
▁Neu	-10.9386
▁250	-10.9391
▁BG	-10.9391
▁empower	-10.9401
▁Bruder	-10.9401
▁Absicht	-10.9402
▁irgendetw	-10.9402
▁Rätsel	-10.9403
▁Regen	-10.9411
zukommen	-10.9412
V	-10.9416
▁baut	-10.9424
▁Entdeckung	-10.9437
▁clever	-10.9441
▁era	-10.9448
▁tue	-10.9453
▁topic	-10.9454
▁mid	-10.9455
▁ordinar	-10.9462
▁wisdom	-10.9462
▁getötet	-10.9462
▁disaster	-10.9464
▁Bush	-10.9465
hilfe	-10.9467
▁Su	-10.9469
▁museum	-10.9472
▁multiple	-10.9475
▁bemerkt	-10.9476
▁foundation	-10.9477
▁zurückzu	-10.9478
▁Kenya	-10.9479
▁Minute	-10.9481
▁meat	-10.9482
▁foreign	-10.9496
▁replace	-10.9497
▁practical	-10.9506
buch	-10.9514
▁pure	-10.9515
▁crash	-10.9516
recht	-10.9517
▁metal	-10.9519
0,000	-10.9523
▁Kalifornien	-10.9524
▁Augenblick	-10.9525
▁truck	-10.9529
▁motion	-10.9531
▁galaxie	-10.9533
bi	-10.9533
po	-10.9535
▁Folgende	-10.9536
▁names	-10.9536
▁eingesetzt	-10.9537
▁divide	-10.955
▁closed	-10.9554
▁verfügbar	-10.9563
▁desire	-10.9564
▁unabhängig	-10.957
▁planets	-10.9571
▁dreams	-10.9572
if	-10.9577
▁Individu	-10.9581
▁Amazon	-10.9585
off	-10.9586
▁Uganda	-10.9586
▁beschäftige	-10.9586
▁General	-10.9586
▁engineers	-10.9586
▁Handlung	-10.9586
▁schlimmer	-10.9587
▁discussion	-10.9588
▁transformation	-10.9589
▁remove	-10.9597
▁budget	-10.9598
▁morgen	-10.9598
▁Nation	-10.96
▁Schimpansen	-10.9603
▁Charakter	-10.9608
▁translate	-10.9611
▁erzähle	-10.9613
ina	-10.9616
▁strength	-10.9624
ated	-10.9629
▁leader	-10.9629
kt	-10.963
enden	-10.9633
50	-10.9635
▁lunch	-10.9639
▁wunderschöne	-10.964
▁krank	-10.9644
▁alter	-10.9645
▁Texas	-10.9649
▁narrative	-10.9649
▁voraus	-10.9651
▁Mund	-10.9651
▁pounds	-10.9654
▁clip	-10.966
▁Ent	-10.9662
▁fac	-10.9666
▁mix	-10.9667
▁chemische	-10.9671
▁Pa	-10.9671
▁Maus	-10.9672
▁Beweis	-10.9674
▁angesehen	-10.9676
▁genauer	-10.9692
▁Landschaft	-10.9694
izing	-10.9697
gang	-10.9703
▁Mark	-10.9705
▁Super	-10.9708
▁faith	-10.9711
▁Investition	-10.9712
▁variet	-10.9712
▁anfing	-10.9713
▁Klang	-10.9713
▁Tradition	-10.9713
▁DH	-10.9714
▁Militär	-10.972
▁precise	-10.9721
▁app	-10.9722
▁hergestellt	-10.9723
▁dozen	-10.9729
▁profit	-10.9729
▁round	-10.9738
raum	-10.9739
▁rief	-10.9739
▁remote	-10.9742
▁basiert	-10.9744
schalten	-10.9749
▁gold	-10.9749
▁oceans	-10.9754
▁visuelle	-10.9762
▁offene	-10.9772
▁bieten	-10.9773
▁quiet	-10.9775
▁mirror	-10.9775
▁equivalent	-10.9775
▁1970	-10.9775
▁1950	-10.9775
▁smile	-10.9776
▁höhere	-10.9776
▁grandmother	-10.9777
▁evolv	-10.978
▁garden	-10.978
▁2006	-10.9785
▁walls	-10.9785
▁cry	-10.9787
▁Inhalt	-10.9796
▁shock	-10.9796
▁factory	-10.9797
▁Hunde	-10.9812
▁Experten	-10.9814
▁Schmerz	-10.9815
▁Gehirne	-10.9816
▁seltsam	-10.9818
▁creation	-10.9824
▁driver	-10.9826
▁einiger	-10.9834
▁Umstände	-10.9839
▁Einstellung	-10.9839
▁Jack	-10.9842
▁talent	-10.9842
▁frame	-10.9843
▁consumption	-10.9845
▁involv	-10.9846
▁Volk	-10.9847
▁Mitarbeiter	-10.9848
▁Bio	-10.985
▁bezahlt	-10.985
▁brief	-10.9854
▁knowing	-10.9855
▁spielte	-10.9855
▁Wirtschafts	-10.9857
▁Erkenntnis	-10.9858
▁Gedanke	-10.9861
▁unles	-10.9863
▁Ed	-10.9871
▁nötig	-10.9872
wenden	-10.9876
▁halb	-10.9881
teilen	-10.9883
orker	-10.9883
▁inspiriert	-10.9894
▁Erd	-10.9895
rin	-10.9897
▁Mar	-10.9901
▁Januar	-10.9903
▁Stanford	-10.9903
▁entworfen	-10.9903
▁dinner	-10.9903
▁politician	-10.9903
▁erlebt	-10.9912
▁hop	-10.9914
▁gift	-10.9918
▁Perspektive	-10.9936
▁plane	-10.9937
▁proper	-10.9939
gegangen	-10.9946
▁Stimmen	-10.995
▁Boot	-10.9956
he	-10.9959
ga	-10.9959
▁realiz	-10.9963
▁dauert	-10.9966
▁Netzwerke	-10.9967
▁elephant	-10.9967
▁opinion	-10.9967
▁Haufen	-10.9967
▁unterscheiden	-10.9968
▁Videos	-10.9969
▁emotion	-10.9971
▁Metapher	-10.9973
▁distribution	-10.9973
▁stelle	-10.9973
▁Zeitalter	-10.9976
▁string	-10.9976
▁authorit	-10.9977
▁verbrachte	-10.9979
▁mögliche	-10.998
▁erster	-10.9982
▁organic	-10.9988
life	-10.9989
▁holen	-10.9989
▁Folge	-10.9994
▁master	-11.0002
▁Grenze	-11.0008
▁due	-11.0008
▁surprised	-11.0009
▁brings	-11.0014
▁Sorgen	-11.002
▁enorm	-11.0022
▁band	-11.0028
▁identify	-11.0032
▁laptop	-11.0032
▁Stress	-11.0032
▁Dinosaurier	-11.0032
▁weather	-11.0032
▁error	-11.0033
▁Grafik	-11.0039
ad	-11.004
kennt	-11.004
▁Mikro	-11.0046
▁sensor	-11.0048
▁Der	-11.0049
▁taste	-11.0056
▁Kreis	-11.0057
▁Nationen	-11.0058
▁occurr	-11.0058
▁Standard	-11.0063
▁Jahrzehnte	-11.0063
▁load	-11.0064
▁Gas	-11.0087
▁zukünftige	-11.0094
▁Elemente	-11.0095
▁dolphin	-11.0097
▁nervous	-11.0097
▁curious	-11.0098
▁beantworten	-11.0098
arbeit	-11.0099
▁Laufe	-11.0101
▁collapse	-11.0101
▁Führung	-11.0102
▁65	-11.0104
▁joy	-11.0106
▁Hans	-11.0111
▁Galaxien	-11.0117
▁pack	-11.0117
▁passt	-11.0126
▁Sozial	-11.0131
▁journalist	-11.014
▁dry	-11.014
▁Produktion	-11.0146
▁equip	-11.0146
▁Glauben	-11.0147
▁unterstützt	-11.015
plan	-11.0152
▁Mary	-11.0158
▁galax	-11.0158
stadt	-11.0163
▁Räume	-11.0163
▁Brown	-11.0163
▁Märkte	-11.0163
▁grand	-11.0163
▁Zuschauer	-11.0165
▁2,000	-11.0166
▁Lied	-11.017
▁Ph	-11.0171
▁Website	-11.0172
▁erhält	-11.0174
▁bedeuten	-11.0181
▁surround	-11.0182
▁Vorteil	-11.0187
▁zoom	-11.0188
▁spoke	-11.019
▁professor	-11.019
▁statistics	-11.0199
▁gehalten	-11.02
▁organize	-11.0202
▁Bein	-11.0209
▁Sea	-11.021
kl	-11.0213
kosystem	-11.0213
▁emotions	-11.022
▁32	-11.0225
▁abhängig	-11.0226
▁discuss	-11.0228
▁Kaffee	-11.0228
▁Brazil	-11.0229
▁channel	-11.023
▁rural	-11.023
▁awful	-11.023
▁marriage	-11.0232
▁II	-11.0234
uhause	-11.0237
▁besondere	-11.0246
▁hoffen	-11.025
▁Schwester	-11.0257
▁killing	-11.0273
▁versteh	-11.0285
▁intellectual	-11.0296
▁Weil	-11.0297
▁marri	-11.0297
▁gäbe	-11.0299
▁Aspekt	-11.03
▁120	-11.0305
▁fourth	-11.0311
▁beobachtet	-11.0313
▁winzige	-11.0314
▁succeed	-11.0315
▁dran	-11.0316
▁associate	-11.0328
▁Nach	-11.0331
▁wundervolle	-11.0334
▁feels	-11.0338
▁cure	-11.0353
▁indische	-11.0361
▁crack	-11.0363
▁perception	-11.0364
▁justice	-11.0364
▁frage	-11.0364
▁Wettbewerb	-11.0365
▁fortunate	-11.0365
▁Kohle	-11.0366
▁zugänglich	-11.0368
▁10.000	-11.0371
▁gesunde	-11.0372
▁Massen	-11.0374
▁theater	-11.0374
▁highest	-11.0375
▁Und	-11.0376
▁schrecklich	-11.0376
▁bag	-11.0376
▁actor	-11.0378
uelle	-11.0383
gekommen	-11.0384
▁glaubte	-11.0385
▁21.	-11.0386
▁erfinden	-11.039
▁bekamen	-11.0392
▁Insel	-11.0393
▁Arbeits	-11.0398
▁Ko	-11.0399
▁erstellt	-11.0409
weisen	-11.0413
▁govern	-11.0428
▁exchange	-11.0428
▁tens	-11.0433
▁analog	-11.0434
▁Sh	-11.0439
▁Viren	-11.0439
▁Groß	-11.0445
ken	-11.0449
▁seines	-11.0449
▁Brust	-11.0449
▁Kontinent	-11.0456
seite	-11.0459
eck	-11.0459
egenteil	-11.0464
ca	-11.0467
▁mentioned	-11.047
▁existieren	-11.0473
▁schwarz	-11.0475
▁verbreiten	-11.049
▁survey	-11.0499
▁sugar	-11.0499
▁Hollywood	-11.0499
▁feedback	-11.0499
▁Wie	-11.0503
▁fördern	-11.0503
▁Null	-11.0504
▁Annahme	-11.0509
▁speziell	-11.0511
ändern	-11.0516
▁suit	-11.0517
▁gehören	-11.0518
▁aufbauen	-11.0519
fahren	-11.0524
▁member	-11.0529
rie	-11.0529
▁reichen	-11.053
▁electrical	-11.0532
▁note	-11.0534
▁Mu	-11.0536
▁limited	-11.0542
zi	-11.0543
▁Eric	-11.0548
▁tail	-11.0553
▁Gleiche	-11.056
gestellt	-11.056
▁Lebewesen	-11.0567
▁Oxford	-11.0567
▁Wesentliche	-11.0567
▁Derek	-11.0568
▁SMS	-11.0568
▁Japanese	-11.0568
▁employee	-11.0568
selber	-11.0569
▁construction	-11.0569
▁yester	-11.057
wisst	-11.0571
▁entstanden	-11.0573
▁blau	-11.0574
▁100,000	-11.0575
▁wenigsten	-11.0576
▁fell	-11.0577
▁stone	-11.0588
▁Teilchen	-11.0593
▁speaker	-11.0593
▁phones	-11.0594
▁Bauern	-11.0595
▁erwähnt	-11.0601
▁brauche	-11.0602
▁Korea	-11.0604
▁parallel	-11.0607
▁Beweise	-11.0613
ard	-11.0614
▁soldiers	-11.0614
▁Krise	-11.0615
▁zerstört	-11.0617
ke	-11.0619
▁virtuelle	-11.0621
▁consequences	-11.0625
▁agricultur	-11.0625
▁ließen	-11.063
ger	-11.0636
▁Brasilien	-11.0636
▁Wirkung	-11.0636
▁Foundation	-11.0636
▁lay	-11.0636
▁Einrichtung	-11.0637
▁Eindruck	-11.0637
▁entspricht	-11.0638
▁kannte	-11.0638
▁Kohlenstoff	-11.0639
▁Project	-11.0639
▁zerstören	-11.064
▁Abschluss	-11.0645
om	-11.0655
▁Bedürfnisse	-11.0656
▁nah	-11.066
▁chain	-11.0661
▁Meilen	-11.0666
▁operate	-11.0668
▁Reich	-11.0669
ki	-11.067
▁ring	-11.067
▁Träume	-11.0671
▁technische	-11.0673
▁Organismen	-11.0674
▁inter	-11.0691
lo	-11.0699
▁users	-11.07
▁nützlich	-11.0703
struktur	-11.0705
▁tomorrow	-11.0706
▁evil	-11.0706
pi	-11.0714
wegs	-11.072
▁Dach	-11.0732
▁detect	-11.0733
▁Werk	-11.075
▁harder	-11.0756
▁Um	-11.0756
▁blow	-11.0758
▁Bar	-11.0759
▁Air	-11.0765
▁Methoden	-11.0766
▁frühe	-11.0767
▁volunteer	-11.0776
▁property	-11.0776
▁kick	-11.0778
▁Kapital	-11.0778
▁verbindet	-11.0779
▁steigen	-11.078
▁fäng	-11.0784
▁lifetime	-11.0787
▁Text	-11.0789
▁setting	-11.079
▁chicken	-11.0793
acy	-11.0803
gt	-11.0806
▁demonstrate	-11.0809
▁schlagen	-11.0823
spiel	-11.0824
▁mothers	-11.0824
▁gather	-11.0828
▁bomb	-11.0829
▁95	-11.083
▁climb	-11.0838
▁drübe	-11.084
▁erscheinen	-11.0843
▁behalten	-11.0844
▁Top	-11.0844
▁vorhanden	-11.0844
▁ancestor	-11.0846
▁empty	-11.0846
▁fellow	-11.0846
▁Füße	-11.0847
▁abge	-11.0847
▁toilet	-11.0853
▁reicht	-11.0853
▁collection	-11.0854
▁extract	-11.0857
tag	-11.0857
▁physische	-11.0858
▁ride	-11.0863
▁Star	-11.0868
▁shapes	-11.087
ap	-11.0871
▁hide	-11.0875
getragen	-11.0875
▁künstliche	-11.0875
▁shoot	-11.0878
rew	-11.0882
▁angenommen	-11.089
▁komm	-11.0897
▁economics	-11.0897
▁dimensions	-11.09
Mail	-11.0904
▁weiteren	-11.0904
▁bio	-11.0904
▁burn	-11.0911
▁zahlen	-11.0911
▁Elektrizität	-11.0917
▁Malaria	-11.0917
▁Zucker	-11.0917
▁malaria	-11.0917
▁applie	-11.0917
▁TEDTalk	-11.0918
▁initial	-11.0918
▁musician	-11.0919
▁berührt	-11.092
▁pleasure	-11.0921
▁shop	-11.0921
▁Ehe	-11.0929
▁gelesen	-11.0932
▁Open	-11.0932
Gesundheitswesen	-11.0935
▁shoes	-11.0935
▁wheel	-11.0937
▁entdeckte	-11.0942
▁Generationen	-11.0944
probieren	-11.0944
▁Act	-11.0945
▁Gates	-11.0945
▁zählen	-11.0946
▁losing	-11.0947
greifen	-11.0948
▁entertain	-11.0952
▁camp	-11.0964
▁fat	-11.0967
▁legt	-11.0968
▁spaces	-11.0968
▁Uni	-11.0972
▁Ball	-11.0972
▁Tanz	-11.0973
▁Arab	-11.0978
▁matters	-11.0985
▁stupid	-11.0988
▁Smith	-11.0988
▁geändert	-11.0988
▁Hinsicht	-11.0989
▁reduzieren	-11.0989
▁flies	-11.0989
▁Wohlstand	-11.0991
▁patent	-11.0993
▁2001	-11.0993
▁infect	-11.0995
▁Mac	-11.0996
▁Si	-11.0997
▁definieren	-11.1001
pa	-11.1005
▁Bewegungen	-11.1009
▁skill	-11.1015
▁pig	-11.102
▁meinte	-11.1023
zahl	-11.1024
▁h	-11.1026
▁artificial	-11.103
▁Arbeiter	-11.1034
▁kompliziert	-11.1041
▁verschieden	-11.1049
▁Per	-11.1051
▁verbessert	-11.1058
▁Kombination	-11.106
▁Union	-11.1067
ney	-11.1067
bel	-11.1067
▁Weltraum	-11.1067
▁Post	-11.1073
▁Jahres	-11.1074
▁grid	-11.1075
▁teuer	-11.1076
▁Car	-11.1078
▁seek	-11.1078
▁geschickt	-11.1082
di	-11.1084
▁Spieler	-11.1086
we	-11.1088
▁Fakten	-11.1094
▁biete	-11.1095
▁continu	-11.1097
▁battle	-11.11
▁Helden	-11.1105
▁folks	-11.1108
maßen	-11.111
▁Vogel	-11.1113
▁meiste	-11.1115
▁stoo	-11.1118
▁Hai	-11.1118
▁verschwinden	-11.112
org	-11.1121
▁26	-11.1123
▁Rücken	-11.1128
▁brachten	-11.1129
▁Mexiko	-11.1133
▁chimpanzee	-11.1133
▁equation	-11.1133
▁gestorben	-11.1133
▁Florida	-11.1133
▁Heimat	-11.1133
▁Theater	-11.1136
▁flat	-11.1136
▁enem	-11.1139
▁generations	-11.1143
▁arme	-11.1144
▁clinical	-11.1145
▁wake	-11.1145
▁verteilt	-11.1155
▁linke	-11.1158
▁grün	-11.1163
▁Details	-11.1166
lin	-11.118
▁whom	-11.1182
▁auseinander	-11.1189
▁print	-11.1192
▁happi	-11.1205
▁Definition	-11.1206
▁Manhattan	-11.1206
▁joke	-11.1206
▁Korruption	-11.1206
▁corruption	-11.1206
▁studieren	-11.1221
▁viruses	-11.1223
▁meist	-11.1226
▁management	-11.1228
▁verhalten	-11.1228
▁klassische	-11.1229
▁gegenseitig	-11.1229
▁th	-11.1231
▁rights	-11.1236
▁seltsame	-11.1242
▁ten	-11.1243
▁Kerl	-11.1244
▁Australia	-11.1246
▁comfortabl	-11.1247
▁Zitat	-11.1248
ster	-11.1248
bare	-11.125
▁gay	-11.125
▁prime	-11.1256
ich	-11.1256
▁International	-11.1257
▁ursprünglich	-11.1262
▁übrig	-11.1265
▁Freundin	-11.1269
▁dealing	-11.1273
▁Planet	-11.1278
▁rede	-11.1278
▁permanent	-11.1279
▁official	-11.1279
▁vessel	-11.128
▁Homo	-11.128
▁poem	-11.128
▁combination	-11.128
▁leid	-11.1281
▁review	-11.1281
▁Arbeiten	-11.1283
▁besuche	-11.1284
▁Werbung	-11.1285
▁grain	-11.1296
▁opening	-11.13
▁players	-11.1307
▁Canad	-11.1313
▁Gore	-11.1315
▁zone	-11.1317
gezogen	-11.1317
Z	-11.1318
▁suppose	-11.132
▁broke	-11.1323
▁anstelle	-11.1323
▁Armen	-11.1334
▁construct	-11.1351
ach	-11.1353
▁spider	-11.1353
▁pocket	-11.1353
▁quasi	-11.1353
▁heavy	-11.1354
▁Darstellung	-11.1354
▁gender	-11.1354
▁Gebiete	-11.1354
▁beispiels	-11.1354
▁illness	-11.1354
▁Garten	-11.1357
▁battery	-11.1358
▁beschlossen	-11.1366
▁leiden	-11.1371
▁pen	-11.1379
▁credit	-11.1379
▁fields	-11.1387
▁spring	-11.1392
▁fähig	-11.1404
gibt	-11.1407
▁derselbe	-11.1409
▁Molekül	-11.1412
▁assume	-11.1413
▁beschloss	-11.1418
mus	-11.142
▁steps	-11.1421
▁Patient	-11.1421
▁zentrale	-11.1425
▁Linien	-11.1426
▁Cent	-11.1427
▁Chemie	-11.1428
▁maintain	-11.1428
▁physicist	-11.1428
▁incentive	-11.1428
▁humor	-11.1428
▁poetry	-11.1429
▁morgens	-11.1429
weile	-11.143
▁transition	-11.143
▁trillion	-11.1432
▁crop	-11.1434
▁erschein	-11.1444
▁Emotionen	-11.1447
▁Brita	-11.1447
▁Ausmaß	-11.1452
▁Signal	-11.1455
▁Ereignisse	-11.1464
▁grundsätzlich	-11.1468
▁typically	-11.147
▁signals	-11.1474
power	-11.1474
▁geh	-11.1476
▁deeper	-11.1477
▁tape	-11.1478
▁Sam	-11.1479
▁stärker	-11.1488
▁partner	-11.1494
▁nurse	-11.1498
▁ange	-11.1499
▁tall	-11.1501
▁Alzheimer	-11.1503
▁Cambridge	-11.1503
▁explanation	-11.1503
▁sweet	-11.1503
▁definite	-11.1503
▁Saturn	-11.1503
▁Okay	-11.1503
▁teeth	-11.1503
wissenschaftler	-11.1504
▁Berechnung	-11.1504
▁Deutschland	-11.1505
▁accurate	-11.1507
▁äußerst	-11.1508
▁gewählt	-11.151
▁appropriate	-11.1512
▁Anteil	-11.1512
▁bill	-11.1513
▁Schrift	-11.1514
▁tear	-11.1516
▁parent	-11.1522
▁determine	-11.1522
▁Zweck	-11.1522
▁versteckt	-11.1524
▁momentan	-11.153
▁hate	-11.153
v	-11.1539
over	-11.1544
▁ignore	-11.1552
▁Musiker	-11.1556
▁Bereiche	-11.1556
▁scan	-11.1559
kind	-11.1564
sp	-11.1564
▁van	-11.1564
▁nett	-11.1574
▁voices	-11.1578
▁schlechter	-11.1579
▁Second	-11.1579
▁encounter	-11.1579
▁sculpture	-11.1579
▁Winter	-11.1579
▁carrie	-11.158
▁Köpfe	-11.1581
▁Maßstab	-11.1581
fish	-11.1585
▁plate	-11.159
▁Gesichter	-11.1592
▁Kurs	-11.1592
bility	-11.1596
▁director	-11.1599
▁conduct	-11.16
eah	-11.1601
▁status	-11.1602
▁Ozeane	-11.1606
▁moves	-11.161
▁Steven	-11.1616
▁aufregend	-11.1617
▁properti	-11.1618
▁judge	-11.1621
kraft	-11.1622
board	-11.1622
▁bike	-11.1623
▁Prozesse	-11.1626
▁ersetzen	-11.1627
▁epidemic	-11.163
▁Gesamt	-11.1633
▁provid	-11.1635
▁invention	-11.1637
▁transparent	-11.1638
▁winzig	-11.1639
▁derzeit	-11.1641
wo	-11.1644
▁annehmen	-11.1647
▁UN	-11.165
ana	-11.165
▁grown	-11.1655
▁Schatten	-11.1655
▁Potential	-11.1655
▁irgendjemand	-11.1655
▁convert	-11.1655
▁vermitteln	-11.1655
▁Swed	-11.1656
▁Auswahl	-11.1656
▁valuable	-11.1656
▁Umfeld	-11.1656
▁title	-11.1657
▁erforscht	-11.1658
▁Daniel	-11.166
▁presentation	-11.1661
▁Aktion	-11.1665
▁customer	-11.1666
▁aufzubauen	-11.1668
▁broad	-11.1669
▁obere	-11.1679
fi	-11.1682
▁vertraut	-11.1685
▁Instrument	-11.1689
▁mention	-11.1689
▁jung	-11.1694
tech	-11.1696
▁jedenfall	-11.1698
▁Stufe	-11.1703
▁tea	-11.1711
gi	-11.1721
▁Muskel	-11.1724
ug	-11.1732
▁prototype	-11.1732
▁regard	-11.1732
▁existence	-11.1732
▁gebraucht	-11.1732
▁unglücklich	-11.1733
▁hotel	-11.1734
▁Entwicklungsl	-11.1734
▁Hallo	-11.1735
▁analysis	-11.1736
▁Batterie	-11.1738
▁Präsentation	-11.1739
▁biologist	-11.1739
▁cutting	-11.174
▁einge	-11.1743
▁33	-11.1747
▁Geheimnis	-11.1747
▁Wal	-11.175
▁arms	-11.1751
▁vorne	-11.1754
▁beinhaltet	-11.1763
ub	-11.1773
▁Nachbarn	-11.1776
arten	-11.1778
scale	-11.1782
▁Erwachsene	-11.1782
▁gang	-11.1787
▁Mit	-11.1789
▁verwandelt	-11.1793
▁soviel	-11.18
sie	-11.18
igkeit	-11.1804
▁kalt	-11.1807
▁silence	-11.181
▁Löcher	-11.181
▁passionate	-11.181
▁lawyer	-11.181
▁worldwide	-11.1812
▁Zufall	-11.1814
▁protection	-11.1815
▁85	-11.1816
▁solv	-11.1816
▁Ra	-11.1819
▁sozial	-11.1821
▁effektiv	-11.1825
▁erkennt	-11.1827
unterschiedliche	-11.1829
ong	-11.183
▁One	-11.1833
▁gelöst	-11.1834
▁Satelliten	-11.1836
▁studio	-11.1836
▁Mai	-11.1855
ci	-11.1856
▁Lauf	-11.1857
▁beweis	-11.1859
▁Vögel	-11.1859
▁teilt	-11.1861
▁Effekt	-11.1862
▁Architekten	-11.1862
▁Kulturen	-11.1866
▁peak	-11.1869
▁konzentriert	-11.1872
▁sichtbar	-11.1873
▁celebrate	-11.1875
▁attract	-11.1886
▁Organ	-11.1888
▁Februar	-11.1888
▁liquid	-11.1888
▁implication	-11.1888
▁Dunkel	-11.1888
▁collaboration	-11.1888
▁silk	-11.1888
▁Stand	-11.1893
▁gross	-11.1916
▁gespielt	-11.1917
▁chemistr	-11.192
bewegung	-11.192
▁betr	-11.192
▁addition	-11.1921
▁player	-11.1921
▁195	-11.193
verständlich	-11.1931
ese	-11.1932
▁gewissen	-11.1933
▁button	-11.1941
▁contribute	-11.1949
ng	-11.1955
platz	-11.1955
▁lies	-11.1955
▁Erfindung	-11.1958
▁gebete	-11.196
▁novel	-11.1964
▁technological	-11.1967
▁conclusion	-11.1967
▁Großmutter	-11.1967
▁LED	-11.1967
▁Howard	-11.1967
▁außen	-11.1967
▁facilit	-11.1967
▁attach	-11.197
▁Entfernung	-11.1971
▁soft	-11.1981
▁emergenc	-11.1982
▁Rat	-11.1983
▁mortality	-11.1983
▁Zug	-11.1987
▁tank	-11.1988
haus	-11.2007
isten	-11.2012
▁mathematical	-11.2013
▁zusammenarbeite	-11.2017
2-	-11.202
▁relate	-11.2023
▁sites	-11.2031
▁Sp	-11.2031
▁Aufnahme	-11.2032
gesehen	-11.2036
▁Nor	-11.2036
▁restaurant	-11.2041
▁clinic	-11.2042
▁heran	-11.2043
rat	-11.2044
foot	-11.2045
▁calculate	-11.2046
▁illusion	-11.2046
▁vulnerabl	-11.2046
▁Stuhl	-11.2046
▁CEO	-11.2046
▁Bedrohung	-11.2046
▁hydrogen	-11.2046
▁psychology	-11.2046
▁north	-11.2046
▁Brian	-11.2046
▁lady	-11.2046
▁Don	-11.2048
▁Camp	-11.2053
▁Ausstellung	-11.2056
▁Erste	-11.2058
ph	-11.2062
pan	-11.2063
▁Unterhaltung	-11.2065
▁comment	-11.2065
organisation	-11.2068
▁habitat	-11.2069
▁peer	-11.2071
▁symmetr	-11.2075
ud	-11.208
weg	-11.2081
▁Show	-11.2085
▁Medikament	-11.209
▁entscheidend	-11.209
▁Har	-11.2091
▁zusätzlich	-11.2095
▁politisch	-11.2096
▁iron	-11.2097
▁TEDx	-11.2098
leistung	-11.2102
▁Zwei	-11.2104
▁Start	-11.2105
schläg	-11.2108
▁chart	-11.2111
▁Spiegel	-11.2111
▁Stärke	-11.2112
▁horse	-11.2114
▁unge	-11.2115
▁root	-11.2116
▁programm	-11.2116
▁entstand	-11.212
teil	-11.2124
▁south	-11.2125
▁danger	-11.2126
▁Atem	-11.2126
▁Existenz	-11.2126
▁unusual	-11.2126
▁weibliche	-11.2127
▁Teenager	-11.2127
▁seid	-11.2127
▁Verhältnis	-11.2128
▁sucht	-11.2128
▁Mut	-11.2129
▁28	-11.2129
▁10-	-11.2131
▁feststelle	-11.2132
▁tap	-11.2132
ville	-11.2132
▁komplex	-11.2133
▁vermeiden	-11.2135
▁soul	-11.2136
▁194	-11.2138
▁Neues	-11.214
▁historical	-11.2147
▁cat	-11.2154
▁con	-11.2154
▁Momente	-11.2156
▁individuelle	-11.2157
▁categor	-11.2169
▁trug	-11.2176
▁embrace	-11.2176
▁Ch	-11.2181
▁reform	-11.2186
▁zieht	-11.2187
▁antwortete	-11.2191
▁manufactur	-11.2192
▁gun	-11.2192
▁Steuer	-11.2194
▁Verlust	-11.2205
▁Gemälde	-11.2207
▁Studio	-11.2207
▁fiber	-11.2207
▁verglich	-11.2207
▁Viertel	-11.2207
▁Rio	-11.2209
▁beinahe	-11.2209
▁Klinik	-11.2213
▁Buchstaben	-11.2219
▁fern	-11.222
▁solcher	-11.2221
▁sight	-11.2224
▁volume	-11.2225
▁weltweite	-11.2226
▁kreativ	-11.2229
▁Gras	-11.2239
▁überlegen	-11.2241
▁Diagramm	-11.2243
▁hierher	-11.2246
war	-11.225
▁musical	-11.2252
▁faszinierend	-11.2252
▁Statistiken	-11.2256
daten	-11.2257
▁details	-11.226
▁Bereichen	-11.2261
▁maps	-11.2264
▁eindeutig	-11.2266
▁Kenia	-11.2269
alität	-11.2272
▁Geräusche	-11.2282
▁Echtzeit	-11.2288
▁President	-11.2288
▁client	-11.2288
▁kreieren	-11.2288
▁steel	-11.2288
▁loud	-11.2288
▁britische	-11.2288
▁Koran	-11.2288
▁teilweise	-11.2289
▁Long	-11.2289
ifft	-11.2291
▁Aussage	-11.2291
▁Handel	-11.2292
▁heisst	-11.2292
▁teenager	-11.2293
▁emerge	-11.2295
▁Wetter	-11.2296
▁winter	-11.2297
▁anschaut	-11.2299
▁industrielle	-11.23
▁aufhör	-11.2307
▁sparen	-11.2316
▁chemicals	-11.2319
ba	-11.2319
▁steuern	-11.2321
▁estimate	-11.2326
▁quant	-11.2328
▁Kev	-11.233
▁passen	-11.233
versorgung	-11.2331
▁willst	-11.2332
source	-11.2332
▁cultures	-11.2337
▁boom	-11.235
ground	-11.2352
▁Ju	-11.2355
▁adopt	-11.2356
▁mathematische	-11.2359
▁Australien	-11.237
▁Anführer	-11.237
▁healthcare	-11.237
▁solid	-11.2371
▁Look	-11.2372
▁gefällt	-11.2372
▁Pacific	-11.2373
▁prediction	-11.2375
▁infinite	-11.2375
▁statement	-11.2375
▁überwinden	-11.2376
▁veränderte	-11.2377
mann	-11.2377
▁nest	-11.2384
▁entfern	-11.2385
weite	-11.2386
▁tradition	-11.239
ff	-11.2393
▁liberal	-11.2394
▁heads	-11.2395
▁chip	-11.2402
▁Se	-11.2406
▁author	-11.2407
▁victims	-11.2411
▁11.	-11.2412
▁former	-11.2414
▁Amy	-11.2417
▁belong	-11.2418
▁liefer	-11.242
endlich	-11.242
▁menschlicher	-11.2427
▁emotionale	-11.2429
▁darstellen	-11.2435
▁dank	-11.2438
well	-11.244
ors	-11.2441
▁rocket	-11.245
▁formen	-11.2452
berraschung	-11.2453
▁Verbesserung	-11.2453
▁gelebt	-11.2453
▁Congress	-11.2453
▁Hunger	-11.2453
▁ladies	-11.2453
▁reference	-11.2453
▁dahinter	-11.2453
▁rat	-11.2453
▁drone	-11.2454
▁nerve	-11.2455
▁Wurzel	-11.2455
▁efficienc	-11.2458
▁Südafrika	-11.2458
▁coal	-11.2458
▁Ausnahme	-11.246
▁decline	-11.2462
▁Lab	-11.2469
▁automatisch	-11.2469
▁Geräusch	-11.2469
▁White	-11.2472
lose	-11.2474
▁Lu	-11.2474
▁heißen	-11.2479
eh	-11.249
▁Folgen	-11.249
stein	-11.2493
▁Anti	-11.2495
▁measur	-11.2496
pp	-11.25
▁previous	-11.2503
▁Finanz	-11.2504
▁weak	-11.251
▁zer	-11.2511
▁beach	-11.2511
▁aging	-11.2511
▁Sal	-11.2511
▁user	-11.2512
▁sprachen	-11.252
bauen	-11.2521
▁automatic	-11.2523
▁Süd	-11.2527
▁obes	-11.2531
▁Gi	-11.2533
konom	-11.2533
▁Risik	-11.2533
▁NGO	-11.2536
▁symptom	-11.2536
▁Taliban	-11.2536
▁worauf	-11.2536
▁ledig	-11.2538
▁Süden	-11.2539
▁height	-11.254
▁telephone	-11.2542
▁fasziniert	-11.2543
▁icon	-11.2544
▁fake	-11.2544
▁label	-11.2545
▁shoulder	-11.2552
▁ergibt	-11.2553
▁quarter	-11.2558
▁bare	-11.2559
▁Wein	-11.256
▁besorgt	-11.2572
▁hall	-11.2573
▁Lager	-11.2578
▁hinten	-11.2587
che	-11.259
▁schwieriger	-11.2592
▁aufnehmen	-11.2594
▁Belohnung	-11.2596
▁Grundlage	-11.26
▁Wi	-11.2601
▁Di	-11.2602
▁besagt	-11.2602
▁Schritte	-11.2609
▁criminal	-11.2611
ow	-11.2616
▁threaten	-11.2618
▁FBI	-11.262
▁darstellt	-11.262
▁kitchen	-11.262
▁darunter	-11.262
▁evolutionary	-11.2621
▁PM	-11.2623
▁Kongress	-11.2623
▁gravity	-11.2623
geschichte	-11.2624
▁erkannt	-11.2624
▁Lee	-11.2625
▁Geschäfts	-11.2625
▁Nein	-11.2627
▁length	-11.2627
▁Wall	-11.2627
▁script	-11.2629
▁schickte	-11.2629
holfen	-11.2631
▁schwierige	-11.2632
ists	-11.2638
▁weiße	-11.2642
▁Gewinn	-11.2644
▁Körpers	-11.2645
▁orange	-11.2648
▁therap	-11.2651
▁hire	-11.2654
▁prepared	-11.2657
im	-11.2659
▁sheet	-11.2659
fa	-11.2663
material	-11.2665
isiert	-11.2666
▁hack	-11.2671
▁myth	-11.2674
▁Meeres	-11.2684
▁Galaxie	-11.2686
▁mistake	-11.2687
▁Ray	-11.2687
▁react	-11.2691
▁kosten	-11.2693
▁photographs	-11.2695
mehr	-11.2696
▁circumstance	-11.2705
▁lecture	-11.2705
▁Blatt	-11.2705
▁charit	-11.2705
▁Willen	-11.2705
▁prize	-11.2705
▁Andrew	-11.2706
▁observation	-11.2706
▁privilege	-11.2707
▁Kabel	-11.271
▁seht	-11.271
▁fiction	-11.2712
▁forgot	-11.2713
▁doubt	-11.2713
▁sphere	-11.2715
▁möge	-11.2722
▁season	-11.2727
▁nimm	-11.2738
rate	-11.274
▁Sprach	-11.2761
▁dirt	-11.2765
▁Brücke	-11.2774
▁cave	-11.2775
▁king	-11.278
▁Red	-11.2781
▁kollektive	-11.279
▁psychological	-11.279
▁molecular	-11.279
holen	-11.2791
▁v	-11.2791
▁sustainability	-11.2791
▁Unfall	-11.2795
▁Erwachsenen	-11.2799
▁grab	-11.2801
▁organ	-11.2805
schlag	-11.2805
▁verstehe	-11.2807
▁bemerken	-11.2807
▁5,000	-11.2807
tun	-11.281
lage	-11.2811
▁trend	-11.2812
▁element	-11.2812
▁19.	-11.282
▁schreckliche	-11.2825
▁Blumen	-11.2827
▁schätzen	-11.2829
gesellschaftlich	-11.2834
▁Rechte	-11.2839
▁kriegen	-11.2839
bereich	-11.2846
▁Tests	-11.2855
▁Hall	-11.2856
▁dinosaurs	-11.2858
graben	-11.2859
uck	-11.286
▁kontrolliert	-11.2862
▁Interview	-11.2862
▁nachhaltige	-11.2863
▁Schicksal	-11.2876
▁scheinbar	-11.2876
▁Jesus	-11.2876
▁Jeff	-11.2877
▁reduziert	-11.2877
▁Rock	-11.2877
▁primary	-11.2877
▁variation	-11.2877
▁hang	-11.2878
▁Nutzung	-11.2878
▁Persönlichkeit	-11.2878
▁Christian	-11.2879
▁shame	-11.2879
▁3,000	-11.288
▁terrorism	-11.2886
▁animation	-11.2887
▁erhöh	-11.2887
▁gefangen	-11.2888
▁cup	-11.289
▁Wo	-11.2891
▁Weltkrieg	-11.2894
▁Herren	-11.2895
visible	-11.2896
▁situations	-11.29
▁atoms	-11.2901
▁mittel	-11.2907
▁Ba	-11.291
▁800	-11.291
feld	-11.2916
▁wine	-11.2927
▁700	-11.2933
wa	-11.2935
des	-11.2941
▁thin	-11.2942
spüren	-11.2946
▁Day	-11.2947
▁angle	-11.295
triff	-11.2951
hören	-11.2952
▁höre	-11.2953
▁organs	-11.2955
▁marketing	-11.2956
▁wirkliche	-11.2958
▁gründete	-11.2959
▁kaufte	-11.2962
▁Gar	-11.2962
▁Vi	-11.2962
▁Nachhaltigkeit	-11.2963
▁Respekt	-11.2963
▁advice	-11.2963
▁spectrum	-11.2963
▁unexpected	-11.2963
▁gegründet	-11.2963
▁witness	-11.2964
▁Verbrechen	-11.2964
▁Pfund	-11.2964
▁Schulter	-11.2964
▁allgemeine	-11.2965
▁ernsthaft	-11.2967
▁Debatte	-11.2967
▁drill	-11.2969
▁akzeptieren	-11.2969
▁inform	-11.2971
▁arabische	-11.2972
▁agent	-11.2973
arbeiten	-11.2974
▁Plattform	-11.2974
▁sowas	-11.2975
▁Chemikalien	-11.2978
▁Ken	-11.298
ru	-11.298
▁Erkrankung	-11.2981
▁split	-11.2982
for	-11.2984
▁Ruf	-11.2988
▁Stellen	-11.2991
▁beschrieben	-11.2998
▁emissions	-11.3
▁Schau	-11.3003
work	-11.3005
▁injur	-11.3007
werk	-11.3018
▁Signale	-11.3029
▁Große	-11.3032
▁Küste	-11.3032
verhalten	-11.3032
▁intelligente	-11.3034
▁explor	-11.3037
▁Ar	-11.3039
▁Phase	-11.304
▁Fahrrad	-11.3041
▁handle	-11.3047
▁Gegenwart	-11.3051
▁Stephen	-11.3051
▁apparent	-11.3051
▁erweitern	-11.3051
▁inevitabl	-11.3051
▁insbesonder	-11.3051
▁sophisticated	-11.3051
▁staff	-11.3051
▁Zähne	-11.3051
▁courage	-11.3051
▁radiation	-11.3052
▁Interessen	-11.3053
▁academic	-11.3053
▁attitude	-11.3056
▁Newton	-11.3056
▁marine	-11.3056
▁church	-11.3058
▁Nord	-11.306
▁gewaltige	-11.3063
▁Einheit	-11.3071
ort	-11.3075
▁Armee	-11.3081
▁recording	-11.3084
berleben	-11.309
▁tour	-11.309
▁App	-11.3092
▁inspiration	-11.3095
sity	-11.3099
▁input	-11.31
▁monitor	-11.31
ze	-11.3103
▁license	-11.3106
▁Rot	-11.3107
▁homes	-11.3111
▁reverse	-11.3112
con	-11.3119
▁Kirche	-11.3119
water	-11.3119
▁behaviors	-11.3121
vor	-11.3122
ib	-11.3128
▁englische	-11.3134
▁Gericht	-11.3135
▁contract	-11.3135
▁mistakes	-11.3135
▁Li	-11.3137
▁Rad	-11.3138
▁Gerechtigkeit	-11.314
▁Kanada	-11.314
▁Klassenzimmer	-11.314
▁fruit	-11.314
▁Saudi	-11.314
▁böse	-11.314
▁pollution	-11.314
▁Marketing	-11.3141
▁Law	-11.3144
▁medium	-11.3148
▁puzzle	-11.3155
cortex	-11.3158
▁unsichtbar	-11.3164
▁tiefer	-11.3164
len	-11.3166
▁abuse	-11.3167
▁electronic	-11.3168
▁earn	-11.3172
zug	-11.3178
▁Fortschritte	-11.3179
▁Unterricht	-11.3192
▁appreciate	-11.3196
▁challeng	-11.3198
▁Durchschnitt	-11.3199
▁zunehmend	-11.3201
▁mechanical	-11.3202
▁participate	-11.3207
▁zeichnen	-11.3208
▁Titan	-11.3211
▁Folie	-11.3212
▁Wüste	-11.322
▁dropp	-11.3221
shalb	-11.3222
▁bor	-11.3223
▁harte	-11.3226
▁Zeichnung	-11.3229
▁false	-11.3229
▁piano	-11.3229
▁Inspiration	-11.3229
▁drauf	-11.3229
▁meaningful	-11.323
▁Johnson	-11.3231
▁Tor	-11.3231
▁Wälder	-11.3231
markt	-11.3234
▁Therapie	-11.3234
barkeit	-11.3239
▁Space	-11.3243
▁Samen	-11.3246
▁investiert	-11.3248
▁Hotel	-11.3253
▁unterrichten	-11.3256
vi	-11.3256
▁phase	-11.3265
tro	-11.3265
▁Ingenieure	-11.3265
▁cent	-11.3267
▁goals	-11.328
▁beteiligt	-11.328
▁photographer	-11.3284
▁Berge	-11.3292
▁hunt	-11.3294
▁receiv	-11.3299
ek	-11.3299
▁Russia	-11.3304
ack	-11.3308
▁videos	-11.331
▁Frei	-11.3316
▁erhöht	-11.3316
▁select	-11.3318
▁Kapitel	-11.3319
▁chapter	-11.3319
destruction	-11.3319
▁Stammzellen	-11.3319
▁Teilnehmer	-11.3319
▁admit	-11.332
▁severe	-11.332
▁verließ	-11.3321
▁alien	-11.3323
▁funktionierte	-11.3323
▁ritual	-11.3325
▁loop	-11.3326
▁Hill	-11.3327
▁Mama	-11.3328
▁vertrauen	-11.3328
▁grundlegend	-11.3335
▁Gleichung	-11.3337
▁pilot	-11.3337
ure	-11.3339
▁Betti	-11.3342
j	-11.3347
▁bildet	-11.335
▁Jona	-11.3354
▁mark	-11.3355
▁organisiert	-11.3359
▁comfort	-11.3359
ot	-11.3362
▁Konflikte	-11.3363
ip	-11.3364
▁eggs	-11.3364
▁innen	-11.3366
▁innere	-11.3367
▁melt	-11.3369
led	-11.337
gesamt	-11.3372
da	-11.3375
▁clock	-11.3376
mittel	-11.3377
▁dr	-11.3377
▁lift	-11.3377
▁Moore	-11.3379
▁burning	-11.3379
ob	-11.3379
▁Vorteile	-11.338
▁ältere	-11.338
▁risks	-11.3385
▁undern	-11.3387
literatur	-11.3388
▁messages	-11.3392
▁Fliegen	-11.3399
ite	-11.3408
▁assumption	-11.341
▁iPod	-11.341
▁telescope	-11.341
▁predator	-11.341
▁Henry	-11.341
▁Terrorismus	-11.341
▁Media	-11.341
▁Wagen	-11.341
▁Stock	-11.341
▁exploration	-11.3411
▁dogs	-11.3412
▁pile	-11.3413
▁elektronische	-11.3414
▁bemerkenswert	-11.3414
▁mad	-11.3414
▁expectation	-11.3416
ebene	-11.3417
▁flexible	-11.3418
▁orbit	-11.342
▁percentage	-11.3421
▁1000	-11.3422
▁Po	-11.3422
▁umgeben	-11.3424
▁hunger	-11.3429
▁worrie	-11.343
raten	-11.3432
▁Damen	-11.3433
▁basierend	-11.3434
▁William	-11.3434
▁Bus	-11.3439
▁Ford	-11.3439
▁propose	-11.344
▁leichter	-11.3441
sichtlich	-11.3442
▁Rose	-11.3444
▁finanzielle	-11.3448
▁Rück	-11.345
▁doppelt	-11.3452
RB	-11.3453
berzeugung	-11.3455
▁blog	-11.3455
▁behave	-11.3458
▁nor	-11.3461
▁Physiker	-11.3464
▁kostenlos	-11.3466
▁Gottes	-11.3468
är	-11.347
▁sag	-11.3481
half	-11.3487
▁stehe	-11.3493
machen	-11.3495
ck	-11.3497
▁perceive	-11.3502
▁Alexander	-11.3502
▁ingredient	-11.3502
▁psychologist	-11.3502
▁Literatur	-11.3502
▁Benjamin	-11.3502
▁Nachbarschaft	-11.3502
▁sp	-11.3503
▁apartment	-11.3503
▁Komponente	-11.3504
▁afternoon	-11.3505
bildung	-11.3506
▁Mike	-11.3507
▁empathy	-11.3507
▁sink	-11.3508
▁engaged	-11.3508
▁Schuld	-11.3508
▁vorbereitet	-11.3509
▁Proteine	-11.3511
▁fle	-11.3514
▁ought	-11.3514
nis	-11.3518
▁lebendig	-11.3518
▁Eier	-11.352
▁bezeichnen	-11.3526
▁creature	-11.3529
fach	-11.3532
▁ansieh	-11.3535
▁intuitive	-11.3536
▁mountains	-11.3539
▁allgemein	-11.3546
▁Lern	-11.357
▁style	-11.3572
▁religiöse	-11.3577
▁Beruf	-11.3584
▁Verwendung	-11.3592
▁abstract	-11.3593
▁snow	-11.3594
▁Gedächtnis	-11.3594
▁Nelson	-11.3594
▁cluster	-11.3594
▁Ursprung	-11.3594
▁froh	-11.3594
▁department	-11.3594
▁Mehrheit	-11.3594
▁Russland	-11.3595
▁elder	-11.3595
▁democratic	-11.3595
▁instruction	-11.3595
▁underwater	-11.3595
ator	-11.3597
▁paradigm	-11.3599
▁Protein	-11.36
▁interessanter	-11.3601
▁vermute	-11.3604
▁di	-11.3612
isieren	-11.3612
▁Geschenk	-11.3615
▁Scott	-11.3615
▁club	-11.3619
▁Tonnen	-11.362
stock	-11.362
technologie	-11.3627
▁Schuhe	-11.3633
▁behavioral	-11.3633
▁compar	-11.3635
▁sexuelle	-11.3641
▁Ernährung	-11.3641
nden	-11.3645
table	-11.3646
▁wovo	-11.3653
▁Grand	-11.3654
stoßen	-11.3655
▁Erlebnis	-11.3656
▁Jo	-11.3663
▁dictionar	-11.3679
▁Magie	-11.368
▁Lincoln	-11.3688
▁Square	-11.3688
▁Symmetrie	-11.3688
▁concrete	-11.3688
▁mathematician	-11.3688
▁repair	-11.3688
▁intervention	-11.3688
▁Wände	-11.3688
▁Humor	-11.3688
▁sunlight	-11.3688
▁Streit	-11.3688
▁erneut	-11.3688
15	-11.3689
▁host	-11.369
▁establish	-11.369
▁Element	-11.3692
▁Geburtstag	-11.3696
▁activist	-11.3696
▁wachsende	-11.3699
▁awareness	-11.37
▁route	-11.3707
▁section	-11.3716
▁bemerkte	-11.3717
▁shake	-11.3718
▁berühmte	-11.3722
▁unbe	-11.3726
▁Her	-11.3734
▁Jun	-11.3736
▁dauerte	-11.3737
▁Wellen	-11.3741
▁wieviel	-11.3743
▁philosoph	-11.3744
▁schwere	-11.3745
schein	-11.3746
▁Jane	-11.3748
fe	-11.375
▁55	-11.3752
sprache	-11.3763
▁wora	-11.3766
oberfläche	-11.3767
▁Sicherheits	-11.3769
gleichen	-11.3777
▁Akt	-11.3779
politik	-11.3781
▁Webseite	-11.3782
▁Hoch	-11.3782
▁Abraham	-11.3782
▁Silicon	-11.3782
▁physician	-11.3782
▁balloon	-11.3782
▁Mangel	-11.3782
▁Angestellte	-11.3783
▁Rick	-11.3783
▁Lachen	-11.3783
▁Abfall	-11.3785
▁Jones	-11.3787
▁consume	-11.3791
not	-11.3795
▁Mc	-11.3795
▁Schiff	-11.3795
ility	-11.3796
▁42	-11.3797
▁vorzu	-11.3803
▁männliche	-11.3803
▁drücken	-11.3804
▁swimm	-11.381
▁freie	-11.381
▁Elefanten	-11.3811
halb	-11.3814
▁liebte	-11.3817
ied	-11.3825
▁desk	-11.3831
▁repeat	-11.3832
▁Resultat	-11.3836
▁mechanism	-11.3839
uellen	-11.3843
▁definiert	-11.3843
▁singen	-11.3847
ran	-11.3848
▁meal	-11.3848
▁Versuche	-11.3849
vis	-11.385
▁swim	-11.3851
wesen	-11.3853
▁langsamer	-11.3853
▁Solar	-11.3854
▁reisen	-11.3857
▁Seele	-11.3861
▁Mi	-11.3862
▁Stern	-11.3862
▁Nase	-11.3866
▁Sitz	-11.3866
▁Symbol	-11.3869
▁üblich	-11.3871
▁bekomme	-11.3876
ue	-11.3877
▁contrast	-11.3877
▁durfte	-11.3877
▁wüsste	-11.3877
▁trigger	-11.3877
▁frank	-11.3877
▁framework	-11.3877
▁Mikroben	-11.3877
▁afterward	-11.3878
▁lifestyle	-11.3879
▁backward	-11.3879
▁präsentiert	-11.388
▁motivation	-11.388
▁einzigartige	-11.3882
▁bezeichnet	-11.3882
▁Student	-11.3883
▁gekauft	-11.3883
▁France	-11.3884
▁Verbreitung	-11.3884
▁presence	-11.3886
▁Prize	-11.3886
▁productive	-11.3887
▁Wohnung	-11.3887
▁pour	-11.3888
▁violent	-11.3889
▁cable	-11.389
▁verstand	-11.3891
▁anger	-11.3891
▁upper	-11.3893
zen	-11.39
▁König	-11.3901
▁House	-11.3902
▁verdient	-11.3906
pf	-11.391
▁fan	-11.3912
▁schlafen	-11.3916
▁diverse	-11.3924
▁border	-11.3927
sis	-11.3929
▁Ereignis	-11.3929
▁Instrumente	-11.3931
▁Not	-11.3934
▁Programme	-11.3936
▁welcome	-11.3941
▁sustain	-11.3944
▁nationale	-11.3944
▁Ohren	-11.3944
▁entrepreneurs	-11.3945
▁stieg	-11.3951
▁Restaurant	-11.3951
▁Bay	-11.3952
▁Rob	-11.3959
▁shut	-11.3962
▁Fach	-11.3963
▁Verhaltens	-11.3967
stoff	-11.3969
▁protected	-11.397
▁begrenzt	-11.3972
▁Health	-11.3973
▁computing	-11.3973
▁Asien	-11.3974
größe	-11.3974
▁Chaos	-11.3974
▁Bronx	-11.3974
▁acid	-11.3974
▁Spielzeug	-11.3975
▁cheat	-11.3976
▁hinauf	-11.3976
▁Milch	-11.3977
▁Führer	-11.3977
▁Doktor	-11.3979
▁hook	-11.3979
▁urge	-11.3979
▁participat	-11.398
▁birthday	-11.3981
▁gesammelt	-11.3981
▁2002	-11.3987
ories	-11.3988
▁Grippe	-11.3989
▁Tee	-11.3993
▁refugee	-11.3994
▁arts	-11.4003
▁Konsequenzen	-11.4004
▁heilen	-11.4005
▁Bell	-11.4005
▁armen	-11.401
▁logic	-11.4016
▁zusätzliche	-11.4018
▁circuit	-11.402
▁Lo	-11.4022
▁Stücke	-11.4027
▁eigen	-11.4033
▁overcom	-11.4039
ani	-11.4039
▁Gedicht	-11.4043
füllen	-11.4052
▁pink	-11.4052
▁gefallen	-11.4054
▁Mathematiker	-11.4054
▁Haar	-11.4058
Dollar	-11.406
tor	-11.4063
▁langweilig	-11.4065
▁36	-11.4066
▁Gandhi	-11.407
▁Shanghai	-11.407
▁milk	-11.407
▁gewann	-11.407
▁genius	-11.4071
▁Schaden	-11.4071
▁Mandela	-11.4071
▁Alex	-11.4071
▁Prinzipien	-11.4071
▁interactive	-11.4071
▁exhibition	-11.4072
▁Störung	-11.4072
▁Afrikaner	-11.4073
▁Sichtweise	-11.4075
▁counter	-11.4078
▁clothes	-11.4079
fallen	-11.408
▁organisieren	-11.4082
▁bizarre	-11.4082
▁infiziert	-11.4083
▁verfolgt	-11.4084
ray	-11.4085
▁Roman	-11.4085
▁ausgesetzt	-11.4094
▁fehlt	-11.4095
▁clouds	-11.4097
bu	-11.4101
▁Mengen	-11.4102
▁Aufnahmen	-11.4102
ification	-11.4108
▁Korallen	-11.411
▁berichten	-11.4112
▁Noten	-11.4113
▁Trick	-11.4115
▁Pflege	-11.4115
▁Decke	-11.4117
▁weigh	-11.412
cken	-11.4122
▁kognitive	-11.4123
▁symbol	-11.4128
od	-11.413
▁faszinierende	-11.4134
▁Beobachtung	-11.4146
▁Zauber	-11.4146
▁Pat	-11.4147
▁resistan	-11.4155
level	-11.4158
▁lebe	-11.4159
what	-11.416
house	-11.416
▁rescue	-11.4161
▁Aspekte	-11.4162
▁aufge	-11.4163
▁Nadel	-11.4168
▁Arthur	-11.4169
▁phrase	-11.4169
▁heaven	-11.4169
▁Ruhe	-11.4169
▁knapp	-11.4169
schlagen	-11.4169
▁wireless	-11.4169
▁Aufbau	-11.417
▁linear	-11.417
▁horrible	-11.4172
▁Budget	-11.4174
▁shadow	-11.4176
▁städtische	-11.4178
▁frequenc	-11.4178
▁Bang	-11.4178
▁intense	-11.4181
▁Kongo	-11.4181
▁exception	-11.4182
▁enthalten	-11.4183
▁ruhig	-11.4183
▁teure	-11.4187
▁schlug	-11.4191
▁Geistes	-11.4191
▁Mauer	-11.4191
▁minister	-11.4191
▁Billionen	-11.4195
wand	-11.4197
ear	-11.42
▁Da	-11.4209
▁vaccine	-11.4213
sfähigkeit	-11.4213
▁robust	-11.4215
▁lying	-11.4219
▁internal	-11.422
unter	-11.4221
▁Wolken	-11.4222
▁finance	-11.4227
▁hieß	-11.4228
du	-11.4247
▁Fokus	-11.425
▁besucht	-11.4251
▁Mode	-11.4251
lasst	-11.4258
bezüglich	-11.426
▁obsess	-11.4261
genügend	-11.4261
funktion	-11.4264
▁Flügel	-11.4266
▁Feynman	-11.4268
▁centuries	-11.4268
▁depth	-11.4268
▁Christmas	-11.4268
▁Widerstand	-11.4268
▁frog	-11.4268
▁Leonardo	-11.4268
▁Herstellung	-11.4268
Central	-11.4268
▁Strand	-11.4268
▁unknown	-11.4269
▁Hu	-11.4269
▁improvement	-11.427
▁DNS	-11.4272
▁flog	-11.4273
▁jail	-11.4274
▁reich	-11.4274
technik	-11.4275
▁Status	-11.4278
▁But	-11.4279
eg	-11.4281
▁lehren	-11.4284
▁genießen	-11.4285
▁Blog	-11.4286
▁For	-11.4289
▁typische	-11.4297
▁besuchte	-11.4297
▁Paar	-11.4302
▁Bi	-11.4305
voll	-11.431
▁verrückte	-11.4312
fin	-11.4322
▁betreiben	-11.4322
▁bi	-11.4322
▁sum	-11.433
clear	-11.4334
▁betrieben	-11.4349
▁refer	-11.435
▁nose	-11.435
▁Moral	-11.4352
▁Sir	-11.4357
▁traurig	-11.4358
▁Transport	-11.4361
▁einzigartig	-11.4363
ben	-11.4366
▁Chef	-11.4367
▁Konsum	-11.4367
▁busy	-11.4367
▁Dörfer	-11.4368
▁Lebenserwartung	-11.4368
▁inzwischen	-11.4368
▁nachgedacht	-11.4368
▁nervös	-11.4368
▁wütend	-11.4368
▁autism	-11.4368
▁verschwunden	-11.4368
▁Stahl	-11.4368
▁Schweden	-11.4368
▁Kleidung	-11.4368
▁vertical	-11.4368
▁Vorhersage	-11.4368
▁revenue	-11.4368
▁mis	-11.4368
▁hinunter	-11.4369
▁Psychologie	-11.4371
▁Heim	-11.4372
▁Animation	-11.4375
▁Knie	-11.4376
▁Pollen	-11.4381
bricht	-11.4383
▁eng	-11.4385
▁limit	-11.4387
▁apple	-11.4387
▁durchführen	-11.4388
▁Mitglieder	-11.4394
surance	-11.4394
▁Epidemie	-11.4396
▁sensitive	-11.4398
▁processing	-11.4407
▁Entdeckungen	-11.441
▁Einzelne	-11.4411
▁beside	-11.4411
▁Con	-11.4413
▁Minister	-11.4416
▁cartoon	-11.4417
unternehmen	-11.4418
▁harvest	-11.4421
▁hero	-11.4422
▁court	-11.4423
macht	-11.4427
▁Ach	-11.4428
tude	-11.443
▁pitch	-11.4435
ile	-11.444
kultur	-11.4445
▁Chancen	-11.4446
ison	-11.445
▁Jugend	-11.4456
▁beenden	-11.4459
grund	-11.4464
▁conservation	-11.4465
▁confront	-11.4467
▁hyper	-11.4468
geschwindigkeit	-11.4468
▁Anruf	-11.4468
▁Gemüse	-11.4468
▁Kreatur	-11.4469
▁Mäuse	-11.4469
▁suspect	-11.4469
▁shall	-11.4469
▁grateful	-11.4469
▁polio	-11.4469
▁microbes	-11.4469
▁besessen	-11.4469
▁Hong	-11.447
zone	-11.447
▁getrennt	-11.4471
▁beachten	-11.4472
▁europäische	-11.4477
▁Kindes	-11.4478
▁wechseln	-11.4479
▁gentlem	-11.4479
▁Serie	-11.4482
▁suchte	-11.4485
▁Schlaf	-11.4486
▁Kampagne	-11.4487
down	-11.4488
▁empfinde	-11.4489
▁conventional	-11.4493
▁penguins	-11.4494
▁escape	-11.4497
▁staatliche	-11.4501
▁partners	-11.4502
▁danc	-11.4503
ufgewachsen	-11.4503
▁Klein	-11.4504
gruppe	-11.4517
muster	-11.4523
▁surgeon	-11.4524
▁Detail	-11.4525
▁weiterer	-11.453
▁Arme	-11.4531
gruppen	-11.4535
▁wahrnehme	-11.4538
▁Leiden	-11.4538
▁herein	-11.4543
tin	-11.4547
▁nachts	-11.4558
▁Nano	-11.456
▁wünschte	-11.4565
▁guide	-11.4569
licht	-11.457
▁Illusion	-11.4571
▁Verletzung	-11.4571
▁aufgeregt	-11.4571
▁irgendwelche	-11.4571
▁Weisheit	-11.4571
▁plent	-11.4571
▁eingeladen	-11.4571
▁anscheinen	-11.4571
▁characteristic	-11.4571
▁commitment	-11.4571
▁Sarah	-11.4571
▁mile	-11.4571
▁Potenzial	-11.4572
▁Kuh	-11.4573
▁bekämpfen	-11.4573
▁freue	-11.4574
▁Angriff	-11.4575
▁Neuigkeit	-11.4575
▁Population	-11.4576
▁brutal	-11.4577
rgestellt	-11.4577
▁organiz	-11.4577
▁kleinere	-11.4577
▁bestand	-11.4578
▁regime	-11.4578
▁100.000	-11.4579
▁reagiert	-11.4579
▁ears	-11.4582
▁2.	-11.4582
▁37	-11.4585
▁wunderschön	-11.4585
truck	-11.4588
▁River	-11.4588
▁bias	-11.4588
▁laboratory	-11.4588
▁verbring	-11.4592
▁grass	-11.4592
programm	-11.4597
▁electron	-11.4599
▁folgenden	-11.46
▁Metall	-11.4609
▁roads	-11.4614
▁quit	-11.4615
▁trink	-11.4616
▁Algorithmen	-11.462
▁classic	-11.4629
▁tiefe	-11.4639
▁öffnet	-11.4642
▁wash	-11.4643
▁Afrikas	-11.4645
▁Wissens	-11.4647
▁bemerkenswerte	-11.4648
▁command	-11.4649
▁berühmt	-11.465
haft	-11.4654
▁dumm	-11.4654
▁Riesen	-11.4666
▁Am	-11.4667
▁zufrieden	-11.4672
▁typisch	-11.4672
▁betroffen	-11.4674
▁versorgen	-11.4674
▁Tätigkeit	-11.4674
▁session	-11.4674
iger	-11.4675
▁download	-11.4675
▁bedroht	-11.4675
▁Atom	-11.4678
▁Erzählung	-11.4679
▁Kurve	-11.468
▁entgegen	-11.468
ches	-11.4681
▁overall	-11.4684
▁primitive	-11.4685
▁Analyse	-11.4686
▁End	-11.4686
▁aim	-11.4688
▁raw	-11.469
▁x	-11.469
▁passive	-11.469
▁Schicht	-11.4694
rand	-11.4701
5.000	-11.4701
▁Allgemein	-11.4707
ierten	-11.4715
▁heutige	-11.4717
▁positiv	-11.4719
▁seal	-11.472
▁Ro	-11.4721
▁SW	-11.4724
hal	-11.4726
ide	-11.4734
▁educational	-11.4735
▁Witz	-11.4736
▁Grün	-11.4736
▁install	-11.4741
gesellschaft	-11.4742
▁studiert	-11.4745
▁poet	-11.4746
▁gewisser	-11.4747
nderungen	-11.4749
swachstum	-11.475
bung	-11.4752
▁advertis	-11.4753
van	-11.4753
▁Forschungs	-11.4756
▁beibring	-11.4757
ete	-11.4758
▁Videospiele	-11.4761
▁wirkt	-11.4762
▁Bericht	-11.4769
▁Zell	-11.4773
▁Fläche	-11.4777
▁Detroit	-11.4778
▁Gulf	-11.4778
▁Stewart	-11.4778
▁konfrontiert	-11.4778
▁Erfinder	-11.4778
▁kreiert	-11.4778
▁neugierig	-11.4778
▁Geruch	-11.4778
▁Sonnenlicht	-11.4778
▁Larry	-11.4779
▁deserve	-11.4779
▁1.000	-11.478
▁pill	-11.478
▁vorsichtig	-11.4781
▁lion	-11.4781
▁verliert	-11.4782
▁dankbar	-11.4783
▁Business	-11.4787
back	-11.4787
arm	-11.4789
▁import	-11.4792
▁Blue	-11.4792
▁Box	-11.4795
ex	-11.4795
▁Nerven	-11.48
▁stoppen	-11.4801
kreis	-11.4802
ory	-11.4806
▁einst	-11.4808
▁flowers	-11.481
▁classes	-11.4812
▁laser	-11.4813
▁Tiefe	-11.4817
▁boxes	-11.4818
▁Boy	-11.482
▁wartet	-11.4821
▁starten	-11.4822
zellen	-11.4823
▁August	-11.4824
eln	-11.4826
▁Geschäfte	-11.4828
▁implement	-11.4828
▁legte	-11.4834
▁bekannte	-11.4835
▁Ho	-11.4835
folge	-11.4836
▁Who	-11.4837
▁cow	-11.4838
▁theme	-11.4839
▁geteilt	-11.484
▁leer	-11.4849
▁mode	-11.485
tisch	-11.4851
▁Dimensionen	-11.4852
▁schluss	-11.4854
▁Haie	-11.4854
▁ländliche	-11.4859
theorie	-11.486
▁Pr	-11.4861
▁voneinander	-11.4863
▁manager	-11.4865
▁transplant	-11.4865
▁technologische	-11.4866
▁29	-11.4881
▁Congo	-11.4881
▁clue	-11.4883
▁corporate	-11.4883
▁curiosity	-11.4883
▁ernähre	-11.4883
▁fascinate	-11.4883
▁identical	-11.4883
▁kaputt	-11.4883
▁Zerstörung	-11.4883
▁Joseph	-11.4883
▁strike	-11.4883
▁Watson	-11.4883
▁Redwood	-11.4883
▁toxic	-11.4883
▁Nobel	-11.4883
▁Carolina	-11.4885
▁Sonnensystem	-11.4885
gel	-11.4891
▁übernehme	-11.4892
▁bewirken	-11.4892
let	-11.4893
▁Dienstleistung	-11.4894
▁Fort	-11.4895
steigen	-11.4897
▁feeding	-11.4898
▁confidence	-11.4902
▁inequalit	-11.4904
än	-11.4904
▁wiederholen	-11.4911
flogen	-11.4913
▁smoke	-11.4914
▁Philip	-11.4915
▁Can	-11.4919
▁pool	-11.4923
▁Brief	-11.4929
▁breathe	-11.493
▁trat	-11.4932
▁gezogen	-11.4934
raising	-11.4945
über	-11.4951
▁flip	-11.4963
▁Fahrzeug	-11.4963
▁rely	-11.4964
geschlagen	-11.4964
▁tube	-11.4966
▁regret	-11.4973
▁Wa	-11.498
sicht	-11.4982
▁Latin	-11.4982
▁Außen	-11.4989
▁diagram	-11.4989
▁agenda	-11.499
▁Zweifel	-11.499
▁knock	-11.499
▁Frankreich	-11.499
▁painful	-11.4991
▁cloth	-11.4991
zentrum	-11.4991
▁Harry	-11.4991
▁selection	-11.4991
▁vital	-11.4991
call	-11.4992
▁begegnen	-11.4994
▁durchzu	-11.4994
▁awesome	-11.4998
▁absorb	-11.5005
▁reserve	-11.5012
▁Fahrer	-11.5014
problem	-11.5015
▁item	-11.5015
▁philosopher	-11.5016
▁Wild	-11.5024
▁films	-11.5027
▁herauszu	-11.5033
▁eigentliche	-11.5037
▁hinterlasse	-11.5045
▁Diagnose	-11.5049
car	-11.5055
▁inspire	-11.5064
ew	-11.5066
merken	-11.5067
▁analyze	-11.5069
▁stock	-11.5073
▁poster	-11.5076
▁Marke	-11.5077
▁bedeutete	-11.5078
▁Motivation	-11.5079
▁Brustkrebs	-11.509
▁narrat	-11.5091
▁ergeben	-11.5094
▁Stift	-11.5094
gypten	-11.5095
▁veröffentlichen	-11.5097
▁Erdbeben	-11.5097
▁privacy	-11.5097
▁Neugier	-11.5097
▁Option	-11.5097
▁Berlin	-11.5097
▁greenhouse	-11.5098
▁Chile	-11.5098
▁Krankenhäuser	-11.5098
▁continuous	-11.5098
▁Egypt	-11.5098
ogen	-11.5099
▁importan	-11.5099
▁Schnee	-11.51
▁gründen	-11.51
▁Blätter	-11.51
▁Bibel	-11.5104
▁County	-11.5106
▁Fernseh	-11.5107
▁Dame	-11.511
▁Level	-11.5111
▁anwende	-11.5115
▁Russian	-11.5115
▁Presse	-11.5122
▁voran	-11.5126
▁Bord	-11.5127
▁lokal	-11.5128
▁Stiftung	-11.5131
tries	-11.5134
mp	-11.5144
▁Or	-11.5146
than	-11.5147
▁Argument	-11.5148
▁technisch	-11.5154
▁hous	-11.5158
▁favor	-11.5161
cht	-11.5163
ari	-11.5164
▁prisoner	-11.5165
ischer	-11.5178
▁plans	-11.5183
▁edit	-11.5184
▁laughing	-11.5185
sprozess	-11.5192
▁Achse	-11.5196
▁wirken	-11.5197
▁rück	-11.5198
▁Rwanda	-11.5206
▁SETI	-11.5206
▁chocolate	-11.5206
▁library	-11.5206
▁musikalische	-11.5206
▁vegetable	-11.5206
▁mushroom	-11.5206
▁arrest	-11.5206
▁Sektor	-11.5206
▁miracle	-11.5206
▁cooperation	-11.5206
▁Denkweise	-11.5207
▁breed	-11.5207
▁slides	-11.5209
▁hängen	-11.5211
▁till	-11.5213
heim	-11.5214
▁mate	-11.5215
▁Vorträge	-11.5217
schule	-11.5219
del	-11.5219
ating	-11.5224
▁anzusehen	-11.5226
▁She	-11.523
▁traged	-11.523
▁flag	-11.523
▁shell	-11.5233
light	-11.5234
▁Tony	-11.5237
ez	-11.5242
▁antworte	-11.5251
▁Hunderte	-11.5251
▁kritische	-11.5251
▁spreading	-11.5256
▁Autor	-11.5257
▁intensive	-11.5257
▁elegant	-11.5261
▁attend	-11.5262
▁implant	-11.5265
▁tax	-11.5265
▁höchsten	-11.527
▁dress	-11.5271
▁suck	-11.5274
▁kleinste	-11.5277
▁Lego	-11.5283
▁flower	-11.5287
▁Schnitt	-11.5296
▁mächtig	-11.5297
▁spiritual	-11.53
▁secure	-11.5306
▁Handys	-11.5307
▁astonishing	-11.5316
▁distant	-11.5316
▁letztlich	-11.5316
▁earthquake	-11.5316
▁angry	-11.5316
▁Wärme	-11.5316
▁verursachen	-11.5316
▁Geographic	-11.5316
▁barrier	-11.5316
▁footprint	-11.5316
▁mystery	-11.5316
▁neural	-11.5316
▁stack	-11.5316
▁reduction	-11.5316
ließ	-11.5316
▁2030	-11.5316
▁Euro	-11.5316
▁salt	-11.5318
film	-11.5319
▁liefert	-11.5321
▁Sequenz	-11.5321
▁Kategorie	-11.5321
▁Vorfahre	-11.5325
▁dense	-11.5325
▁magnetic	-11.5328
▁fixed	-11.5328
▁CD	-11.5329
▁Party	-11.533
▁Fett	-11.5333
▁Erwartungen	-11.534
▁halt	-11.5341
▁Gesichts	-11.5341
▁ursprüngliche	-11.5342
▁eingeführt	-11.5344
▁klinische	-11.5347
▁dauern	-11.5348
▁Toten	-11.5354
▁bla	-11.5355
box	-11.5357
▁recogni	-11.5359
▁Organe	-11.5361
▁letzter	-11.5362
▁berichtet	-11.5363
ified	-11.5367
▁Louis	-11.5368
▁trace	-11.5377
▁army	-11.5384
▁erklärte	-11.5385
sterblichkeit	-11.5391
fällt	-11.5391
▁ugl	-11.5392
▁genetisch	-11.5395
▁lung	-11.54
nsas	-11.5403
▁engag	-11.5409
▁irgendein	-11.5409
▁Preise	-11.5412
▁immense	-11.5412
▁Pinguine	-11.5413
drücken	-11.5415
schutz	-11.5422
▁steal	-11.5426
schneiden	-11.5426
▁DVD	-11.5427
▁November	-11.5427
▁Vagina	-11.5427
▁berühren	-11.5427
▁globe	-11.5427
▁bicycle	-11.5427
▁Angelegenheit	-11.5427
▁rush	-11.5427
▁flood	-11.5427
sprechen	-11.5427
▁Clinton	-11.5427
▁Penn	-11.5427
▁2020	-11.5431
▁Gleichgewicht	-11.5431
▁Gipfel	-11.5432
▁Schlag	-11.5433
▁Initiative	-11.5435
▁colony	-11.5436
ball	-11.5436
▁Delhi	-11.5437
▁rebuild	-11.5438
▁bedeckt	-11.5441
▁erfüllen	-11.5444
▁Viel	-11.5447
▁Warum	-11.5447
▁Cel	-11.5448
▁parking	-11.545
▁bedenken	-11.5453
ative	-11.5463
▁worm	-11.5463
streben	-11.5466
▁leere	-11.5471
▁springen	-11.5474
▁unteren	-11.5478
▁Ingenieur	-11.5479
▁Fe	-11.5485
▁ga	-11.5489
nderung	-11.5491
ris	-11.5494
▁printing	-11.5499
▁min	-11.5502
▁Sonnen	-11.5505
▁Feind	-11.5505
ji	-11.5507
▁exten	-11.5507
▁agreed	-11.5509
systeme	-11.5522
Fi	-11.5529
▁sides	-11.5537
▁frustrat	-11.5537
▁extinct	-11.5537
▁hormone	-11.5538
▁Parkinson	-11.5539
▁economies	-11.5539
▁IBM	-11.5539
▁jegliche	-11.5539
▁Medium	-11.5539
▁Aufstieg	-11.5539
▁causing	-11.5539
▁befand	-11.5539
▁simplicity	-11.5539
▁Rettung	-11.5539
▁narrow	-11.5539
▁Fellow	-11.5539
▁Männchen	-11.5539
▁fluid	-11.554
▁pyramid	-11.554
▁hinzufügen	-11.554
▁Vietnam	-11.5541
▁Link	-11.5541
▁Gletscher	-11.5545
ett	-11.5546
▁autonomous	-11.5546
▁Krieges	-11.5546
schau	-11.5549
hour	-11.5552
▁Live	-11.5552
falten	-11.5552
▁schnelle	-11.5553
elle	-11.5556
kehren	-11.5556
ria	-11.5557
gemacht	-11.5562
▁neutral	-11.5567
pox	-11.5567
▁Durch	-11.5567
▁Stil	-11.5568
▁schlimm	-11.5568
▁Hinweise	-11.5571
▁stretch	-11.5573
▁Bier	-11.5577
▁startete	-11.5577
▁brothers	-11.5579
▁vi	-11.5583
▁teil	-11.5585
▁Schweine	-11.5596
▁Brit	-11.56
0	-11.5602
▁figur	-11.5604
▁conclude	-11.5604
forschung	-11.5605
▁spoken	-11.5607
▁Blau	-11.5608
▁borders	-11.5608
▁Versorgung	-11.5615
▁wise	-11.5617
ping	-11.562
▁ok	-11.5622
▁firm	-11.5627
▁accelerat	-11.5629
▁saubere	-11.563
0.000	-11.5631
▁citizen	-11.5632
▁dig	-11.5634
▁350	-11.5636
▁personalit	-11.5638
▁Inneren	-11.5638
▁pan	-11.5639
▁erstmal	-11.5643
gewiesen	-11.5644
▁stor	-11.5646
▁donor	-11.5648
▁Fund	-11.5651
▁Polio	-11.5653
▁Gebrauch	-11.5653
▁Cartoon	-11.5653
▁Charlie	-11.5653
▁dazwischen	-11.5653
▁obstacle	-11.5653
▁participant	-11.5653
▁rainforest	-11.5653
▁Entwurf	-11.5653
▁Ungleichheit	-11.5653
▁concert	-11.5653
▁shelter	-11.5653
▁discipline	-11.5653
▁judgment	-11.5653
▁household	-11.5653
▁Verlauf	-11.5653
▁cash	-11.5654
▁thick	-11.5654
▁schuf	-11.5655
▁stirb	-11.5656
▁database	-11.5657
▁golf	-11.5658
▁Niveau	-11.5658
▁optimistisch	-11.5659
Projekt	-11.5659
▁defense	-11.566
ica	-11.566
cher	-11.566
▁Wichtigste	-11.5661
▁ignorieren	-11.5662
▁älteste	-11.5664
▁dump	-11.5667
▁zurückgehen	-11.5667
▁Terroristen	-11.5667
▁stepp	-11.5668
▁neigen	-11.5668
▁bond	-11.567
▁zählt	-11.5671
▁beeindruckend	-11.5671
passen	-11.5677
denken	-11.5678
▁eröffnet	-11.5679
▁Nutzer	-11.568
▁microscope	-11.5682
▁Human	-11.5683
▁brach	-11.5687
▁vierte	-11.5692
▁tag	-11.5696
▁pit	-11.5698
▁Richtige	-11.57
▁shipp	-11.5704
▁wundervoll	-11.5704
▁Maß	-11.5714
▁plot	-11.5717
ious	-11.5718
▁Summe	-11.5723
▁romantic	-11.5723
▁umher	-11.5725
▁Male	-11.5726
▁tip	-11.5727
▁shooting	-11.5729
fressen	-11.5734
schauen	-11.5734
mber	-11.5737
▁physikalische	-11.5742
▁Teufel	-11.5744
▁paintings	-11.5747
▁Trend	-11.5747
kopf	-11.5749
net	-11.5751
▁bend	-11.5758
▁illustrate	-11.5759
▁Kopie	-11.5764
▁Albert	-11.5766
▁Angebot	-11.5768
▁Shakespeare	-11.5768
▁Joshua	-11.5768
▁asteroid	-11.5768
▁pretend	-11.5768
bank	-11.5768
▁Spannung	-11.577
▁Islamic	-11.5772
▁Klavier	-11.5772
▁lens	-11.5776
▁heroes	-11.5779
▁hip	-11.5781
▁komplizierte	-11.5781
▁Leiter	-11.5782
▁Haare	-11.5785
▁PC	-11.5786
▁sales	-11.5791
tier	-11.5792
▁gray	-11.5793
▁Pole	-11.5794
Zeitraum	-11.5797
eb	-11.5798
wagen	-11.5798
ami	-11.5798
▁anpassen	-11.5802
▁Figur	-11.5807
▁niedrig	-11.5808
▁Schmerzen	-11.581
▁48	-11.5811
▁younger	-11.5811
▁regelmäßig	-11.5812
▁tech	-11.5813
▁lock	-11.5815
▁committ	-11.5819
zahlen	-11.5825
▁leiten	-11.5829
fisch	-11.5831
▁historische	-11.5832
schicht	-11.5832
▁SS	-11.5833
▁liver	-11.5834
▁domestic	-11.5842
▁lo	-11.5845
▁Computern	-11.5846
▁Kriegs	-11.5848
▁benutzte	-11.5851
▁sports	-11.5852
▁Cha	-11.5855
our	-11.5857
▁billig	-11.5859
▁Spektrum	-11.5864
▁Ihres	-11.5868
hu	-11.587
▁Nick	-11.5873
▁mosquito	-11.5874
▁functional	-11.5875
▁Dutzend	-11.5876
kel	-11.5878
tritt	-11.588
gegen	-11.5883
lauf	-11.5884
▁Futter	-11.5884
▁Einfachheit	-11.5884
▁adjust	-11.5884
▁ceiling	-11.5884
▁ersetzt	-11.5884
▁gerettet	-11.5884
▁erfand	-11.5884
▁fliegt	-11.5884
▁excuse	-11.5884
▁silent	-11.5884
▁Virginia	-11.5884
▁promote	-11.5884
▁Vorschlag	-11.5885
▁Greek	-11.5885
▁defend	-11.5886
▁1900	-11.5886
▁windows	-11.5886
▁Todes	-11.5887
▁Mio	-11.5888
▁demographic	-11.5889
▁demokratische	-11.589
maschine	-11.589
▁Saal	-11.5891
▁suicide	-11.5891
class	-11.5892
▁50,000	-11.5893
▁Infektion	-11.5894
rus	-11.5894
made	-11.5898
▁Sternen	-11.5898
▁Jugendliche	-11.5898
▁jährlich	-11.59
▁distribute	-11.5901
▁May	-11.5904
▁portrait	-11.5908
▁Bibliothek	-11.5912
▁floating	-11.5912
▁neuron	-11.5919
▁Child	-11.5919
▁breaking	-11.5923
brechen	-11.5923
▁Stoff	-11.5924
▁Ex	-11.5925
▁Marken	-11.5925
druck	-11.5927
ziel	-11.5928
▁nachhaltig	-11.5928
▁file	-11.5931
▁argu	-11.5932
Ver	-11.5933
▁tu	-11.5933
▁Wieder	-11.5936
▁worker	-11.5938
▁glücklicher	-11.594
▁benutze	-11.5944
stellung	-11.5945
rice	-11.5945
▁limits	-11.5948
▁rechte	-11.5948
▁höchste	-11.5954
▁Gespräche	-11.5958
▁killer	-11.5963
▁Mach	-11.5967
cut	-11.5969
▁wiederholt	-11.5978
▁blame	-11.5978
▁cord	-11.599
▁trans	-11.5991
▁entscheidende	-11.5999
▁column	-11.6
▁Flüssigkeit	-11.6002
▁crucial	-11.6002
▁furniture	-11.6002
▁geschützt	-11.6002
▁gestartet	-11.6002
▁procedure	-11.6002
▁senior	-11.6002
▁transparency	-11.6002
▁Würde	-11.6002
▁Hölle	-11.6002
▁gesture	-11.6002
▁Brooklyn	-11.6002
▁skeleton	-11.6003
▁Verfahren	-11.6003
▁ausgewählt	-11.6003
▁Philosophie	-11.6003
▁LG	-11.6004
▁headline	-11.6004
▁minus	-11.6004
▁Miss	-11.6004
▁optimistic	-11.6005
▁dignit	-11.6005
▁Psychologe	-11.6005
pro	-11.6006
▁horizontal	-11.6007
▁sang	-11.6008
▁erfuhr	-11.601
▁disorders	-11.601
▁Mathe	-11.6012
▁Brüder	-11.6013
laufen	-11.6013
zero	-11.6014
▁ausmacht	-11.6016
▁AB	-11.6017
▁ausmachen	-11.6017
▁Andere	-11.6018
▁Treffen	-11.6018
▁evening	-11.6019
▁inspirieren	-11.6019
schreiben	-11.602
▁chest	-11.6024
schw	-11.6027
▁dienen	-11.6031
▁Eve	-11.6035
▁überraschende	-11.6038
▁axis	-11.6041
▁prefer	-11.6041
▁tick	-11.6042
▁fo	-11.6043
rising	-11.6043
▁immune	-11.605
projekt	-11.6053
System	-11.6063
▁drehte	-11.6065
quelle	-11.6069
▁Speicher	-11.6071
▁indicate	-11.6073
▁mere	-11.6075
▁verletzt	-11.6078
▁Ross	-11.6079
▁ökonomische	-11.6089
▁ausgebildet	-11.6091
▁ear	-11.6095
▁dominant	-11.6099
▁Medica	-11.6099
▁photography	-11.61
▁abhäng	-11.6102
upp	-11.6108
▁Symptome	-11.6112
▁Let	-11.6113
▁Hinter	-11.6117
bücher	-11.612
▁Täuschung	-11.6121
▁desperate	-11.6121
▁yield	-11.6121
▁bulb	-11.6121
▁origami	-11.6121
▁McDonald	-11.6121
▁Verteilung	-11.6121
▁Vorgang	-11.6121
▁Flächen	-11.6122
▁Ethiopia	-11.6122
▁Papa	-11.6122
▁Einwohner	-11.6123
▁exploit	-11.6123
▁Au	-11.6125
▁objective	-11.6126
▁Hypothese	-11.6127
▁repräsentiert	-11.6127
▁representation	-11.6127
dependent	-11.6128
ör	-11.6128
▁frighten	-11.613
▁corn	-11.613
dollar	-11.6132
▁coin	-11.6132
▁tower	-11.6133
letzt	-11.6134
▁Fliege	-11.6136
▁professionelle	-11.6137
▁20,000	-11.6138
▁consistent	-11.6139
▁cast	-11.614
▁Wut	-11.6141
wirtschaft	-11.6144
▁inspiring	-11.6147
▁Böse	-11.615
geschaut	-11.6153
▁Juli	-11.6154
▁nieder	-11.6158
▁Spa	-11.6163
soweit	-11.6164
▁inventor	-11.6168
aging	-11.618
▁psychische	-11.6181
▁Ve	-11.6183
▁Good	-11.6186
istic	-11.6189
ase	-11.6192
▁complain	-11.6193
▁educate	-11.6193
▁cute	-11.6197
▁pet	-11.6201
istische	-11.6203
▁Tal	-11.6205
▁schaue	-11.6206
being	-11.6206
▁ethical	-11.6212
▁Vergnügen	-11.6216
bt	-11.6219
▁Fan	-11.6222
▁dive	-11.6224
▁sexy	-11.6224
▁disorder	-11.6233
▁planen	-11.6236
uadrat	-11.6238
▁30-	-11.6239
▁Autismus	-11.6241
▁Transparenz	-11.6241
▁gebildet	-11.6241
▁scenario	-11.6241
▁übersetzt	-11.6241
▁Dialog	-11.6241
▁Logik	-11.6241
▁Globalisierung	-11.6241
▁Olympic	-11.6241
▁Lewi	-11.6242
▁Coca	-11.6242
▁ticket	-11.6242
▁queen	-11.6243
▁Verteidigung	-11.6243
▁sheep	-11.6246
üben	-11.6247
▁April	-11.6247
▁observ	-11.6248
za	-11.625
▁mächtige	-11.6255
▁Küche	-11.6256
linie	-11.6257
▁könne	-11.6257
dioxide	-11.6258
▁Kameras	-11.626
▁gewöhnt	-11.6261
gegeben	-11.6262
menge	-11.6265
▁Entwicklungs	-11.6272
sta	-11.628
▁intend	-11.628
▁Laufen	-11.6285
▁Pferd	-11.6289
▁adventure	-11.6289
fassen	-11.6296
ember	-11.6298
▁gelbe	-11.63
ank	-11.6302
▁motivate	-11.6303
▁ungewöhnlich	-11.6308
▁Verkehr	-11.6316
▁signed	-11.6318
rlei	-11.6322
▁invit	-11.6326
▁norm	-11.6336
erlei	-11.6339
▁Staats	-11.6343
▁verschiedener	-11.635
qui	-11.6352
▁Ur	-11.6354
gleich	-11.6357
▁Stamm	-11.6358
▁description	-11.6363
▁Bruno	-11.6363
▁Einschränkung	-11.6363
▁flash	-11.6363
▁Umgang	-11.6363
▁feiern	-11.6363
▁aside	-11.6364
▁kochen	-11.6364
▁Nachfrage	-11.6364
▁angepasst	-11.6364
▁landete	-11.6365
▁Rover	-11.6365
▁Werbe	-11.6366
▁Santa	-11.6366
▁boss	-11.6366
▁Höhepunkt	-11.6367
▁geschlossen	-11.6368
▁Bible	-11.6368
▁Ausrüstung	-11.6369
▁compell	-11.637
▁Wenn	-11.6374
▁opposed	-11.6375
▁72	-11.6377
station	-11.6378
century	-11.6378
minute	-11.6378
point	-11.6379
▁Szene	-11.6379
▁strategi	-11.6389
▁erwähnen	-11.6393
▁elect	-11.6397
▁Fin	-11.6399
▁resist	-11.6412
▁Training	-11.6415
▁Schreiben	-11.6419
▁l	-11.6425
▁1.	-11.6426
▁dramatisch	-11.6427
▁niedrige	-11.6427
▁änderte	-11.6428
▁wa	-11.6428
▁Präsidenten	-11.6428
▁imagin	-11.6434
▁priorit	-11.6439
▁überlebt	-11.644
▁gesetzt	-11.644
▁Meere	-11.644
▁Jay	-11.6441
▁Carl	-11.6442
erlangen	-11.6443
▁seed	-11.6447
ax	-11.6447
▁node	-11.645
▁stimmen	-11.645
▁rating	-11.6455
▁Schauspieler	-11.646
▁schlau	-11.6463
▁pray	-11.6464
▁ko	-11.6468
▁occasional	-11.6472
▁brechen	-11.6478
▁Schlacht	-11.6478
ola	-11.6483
▁weapon	-11.6485
▁accomplish	-11.6486
▁senses	-11.6486
▁Indus	-11.6486
▁Soviet	-11.6487
▁calculation	-11.6487
▁irrational	-11.6487
▁reputation	-11.6487
▁unbelievabl	-11.6487
▁embedded	-11.6487
▁Effizienz	-11.6487
▁Nahrungsmittel	-11.6487
▁Wright	-11.6487
▁verbraucht	-11.6487
▁sensation	-11.6487
▁gewinn	-11.6487
▁Weltbevölkerung	-11.6488
▁engagement	-11.6489
akt	-11.6489
▁einzig	-11.6489
▁mold	-11.649
▁Standpunkt	-11.6491
▁authentic	-11.6491
val	-11.6491
richtung	-11.6491
▁atmen	-11.6492
▁Atlantic	-11.6493
fragen	-11.6494
▁Umfrage	-11.6496
▁Pan	-11.6497
▁Ehre	-11.6502
version	-11.6505
▁aggressive	-11.6505
▁gefährliche	-11.6506
▁loan	-11.6506
▁Teams	-11.6507
▁improv	-11.6508
kosten	-11.651
▁Katastrophe	-11.6513
use	-11.6517
▁Fahrzeuge	-11.6518
▁38	-11.652
▁Wahlen	-11.6522
▁uncle	-11.6522
town	-11.6526
ick	-11.6527
schließen	-11.653
▁conflicts	-11.6535
▁dunkel	-11.6538
▁Resultate	-11.6541
▁tanzen	-11.6549
▁gelangt	-11.655
möglichkeit	-11.6561
▁gelb	-11.6562
▁gelassen	-11.6569
mut	-11.6571
▁TEDster	-11.6574
▁Sahara	-11.6575
▁smok	-11.6575
▁umso	-11.6578
▁Proben	-11.6585
ult	-11.6586
gesichts	-11.6589
▁Last	-11.6591
▁höchst	-11.6593
icht	-11.6599
sgeschichte	-11.6601
wasser	-11.6601
▁exakt	-11.6603
▁Nordamerika	-11.6605
▁Hitze	-11.6606
ov	-11.6609
esearch	-11.6611
▁compound	-11.6612
▁reparieren	-11.6612
▁ridiculous	-11.6612
▁scratch	-11.6612
▁drove	-11.6612
▁request	-11.6612
▁sharp	-11.6612
▁terrifi	-11.6612
▁vermittelt	-11.6612
▁systematic	-11.6612
▁Größenordnung	-11.6612
▁Richter	-11.6612
▁brown	-11.6612
▁Entstehung	-11.6612
▁aussah	-11.6612
▁lake	-11.6612
▁laughter	-11.6612
▁Pause	-11.6613
▁Schätzung	-11.6613
▁Simon	-11.6613
▁Gestaltung	-11.6613
▁schwimmen	-11.6615
▁Daumen	-11.6616
▁berechnen	-11.662
▁treiben	-11.6621
▁Milo	-11.6622
▁mice	-11.6622
▁BIP	-11.6623
▁Pass	-11.6625
breite	-11.6626
▁erfolgreiche	-11.6626
▁fürchte	-11.6628
▁limb	-11.6634
▁pie	-11.6638
▁storm	-11.6639
▁Seil	-11.664
▁aufrecht	-11.6645
wert	-11.6647
▁Eastern	-11.6648
▁mat	-11.665
atur	-11.6651
tz	-11.6655
▁meetings	-11.6656
▁quer	-11.666
▁Dichter	-11.6662
▁Leid	-11.6666
▁external	-11.6677
▁uh	-11.6679
erei	-11.6679
urchschnittliche	-11.6686
geschäft	-11.6693
▁struggl	-11.6699
pt	-11.67
▁graphic	-11.671
▁spezifische	-11.6712
▁Fischer	-11.6716
▁boundar	-11.6717
▁jeweil	-11.6722
▁ski	-11.6725
▁Dienst	-11.6725
▁Brand	-11.6727
▁bother	-11.6734
▁löst	-11.6736
▁Atlant	-11.6736
▁reject	-11.6736
▁Anstieg	-11.6738
▁Anstrengung	-11.6738
▁Church	-11.6738
▁Fantasie	-11.6738
▁Tragödie	-11.6738
▁circa	-11.6738
▁fulfill	-11.6738
▁öfter	-11.6738
▁Monterey	-11.6738
▁mutation	-11.6738
▁domain	-11.6738
▁verschwand	-11.6738
▁MRI	-11.6738
▁aircraft	-11.6739
▁observe	-11.6739
▁translation	-11.6739
▁capitalism	-11.6739
▁limitation	-11.674
▁Vermögen	-11.674
▁spell	-11.674
▁zurückkehren	-11.6741
▁Ballon	-11.6741
▁gear	-11.6756
▁airport	-11.6758
▁Will	-11.6763
▁Konsumenten	-11.6764
▁granted	-11.6764
abilities	-11.6768
▁Informations	-11.6769
▁drum	-11.6769
▁reduc	-11.6771
▁golden	-11.6771
▁rum	-11.6772
Be	-11.6773
hood	-11.6775
tel	-11.678
▁130	-11.6784
▁Fa	-11.6786
▁Funktionen	-11.68
can	-11.6805
einhalb	-11.681
▁komplette	-11.6811
▁Leber	-11.6815
▁restore	-11.6818
iz	-11.6819
unwahrscheinlich	-11.6821
▁Einzel	-11.6828
▁Stille	-11.6831
▁seeds	-11.6831
▁reiste	-11.6836
▁Aber	-11.6846
grade	-11.685
▁Oberflächen	-11.6854
▁bow	-11.6856
▁trends	-11.6857
▁Inhalte	-11.686
leite	-11.6861
▁enden	-11.6861
▁Bedarf	-11.6866
▁Mumbai	-11.6866
▁guarantee	-11.6866
▁guilt	-11.6866
▁Everest	-11.6866
▁Lächeln	-11.6866
▁Rosling	-11.6866
▁appeal	-11.6866
▁borrow	-11.6866
▁erfasst	-11.6866
▁Edward	-11.6866
▁Seattle	-11.6866
▁copyright	-11.6866
▁probabilit	-11.6866
▁Sätze	-11.6866
▁slice	-11.6867
▁Geoff	-11.6867
▁gemessen	-11.6867
▁profile	-11.6868
▁resident	-11.6868
▁Auftrag	-11.6871
▁lane	-11.6873
▁Hacker	-11.6874
▁Kar	-11.6877
▁Ron	-11.688
▁Weltall	-11.6883
▁Maßnahmen	-11.6885
▁asset	-11.6885
▁Waffe	-11.6886
▁explosion	-11.6887
American	-11.6888
▁Ursache	-11.6889
▁fifth	-11.689
▁Patent	-11.689
▁Sorge	-11.689
▁reicher	-11.6894
▁resolution	-11.6895
log	-11.69
▁preserve	-11.6905
▁Friedens	-11.6908
▁Durchschnitts	-11.6909
▁Architekt	-11.6911
▁tauchen	-11.692
▁schlimmsten	-11.6936
▁knee	-11.6937
▁französische	-11.6943
▁Sehen	-11.6947
rad	-11.6948
▁Tour	-11.6953
▁origin	-11.6955
▁tribes	-11.6959
▁wach	-11.696
▁tuna	-11.6964
▁Taschen	-11.6965
olds	-11.6965
pot	-11.6967
inblick	-11.6975
tät	-11.698
▁mammals	-11.6982
▁rhythm	-11.6984
erfassen	-11.6984
ker	-11.6984
gerät	-11.6984
▁wette	-11.6989
tung	-11.6992
▁Tri	-11.6994
▁Käfer	-11.6996
▁Buddha	-11.6996
▁Elizabeth	-11.6996
▁Erziehung	-11.6996
▁Tränen	-11.6996
▁intrigu	-11.6996
▁intuition	-11.6996
▁candidate	-11.6996
▁Kooperation	-11.6996
▁gezwungen	-11.6996
long	-11.6996
▁skull	-11.6996
▁football	-11.6997
▁Alice	-11.6997
▁demonstration	-11.6997
▁Menschlichkeit	-11.6997
▁Block	-11.6997
▁Force	-11.6998
▁gestaltet	-11.6998
▁activate	-11.6999
▁Arabic	-11.6999
▁diabetes	-11.7
▁globalization	-11.7
▁erfordert	-11.7001
▁Anweisung	-11.7002
▁Frequenz	-11.7003
▁komisch	-11.7005
▁bold	-11.7005
basierte	-11.7005
▁upset	-11.7005
▁Sammlung	-11.7006
▁Terror	-11.7007
stück	-11.7009
▁Löwen	-11.7011
▁These	-11.7012
schrift	-11.7014
▁unternehmen	-11.7014
▁Anzeige	-11.7014
▁Kugel	-11.7015
▁verdammt	-11.7016
▁industrie	-11.7016
ane	-11.7016
▁fabric	-11.7019
▁mochte	-11.702
▁Katze	-11.7026
▁190	-11.7027
▁intention	-11.7027
▁subtle	-11.7032
▁audio	-11.7036
▁gebrochen	-11.7044
▁Partei	-11.7048
▁befreien	-11.7051
▁Lichter	-11.7051
▁redet	-11.7053
▁depress	-11.7054
▁gemein	-11.7056
▁Eisen	-11.7058
teils	-11.7062
bot	-11.7062
nna	-11.7063
▁Handeln	-11.7069
▁geo	-11.7072
▁fehlende	-11.7074
▁20-	-11.7077
▁Time	-11.7078
▁Ski	-11.7084
▁soap	-11.7086
▁moralisch	-11.7086
▁Erkenntnisse	-11.7088
▁schaffte	-11.7089
▁Felder	-11.7098
▁orchestra	-11.7099
▁Ohr	-11.71
▁electronics	-11.7103
▁murder	-11.7106
▁offenbar	-11.7107
▁Katastrophen	-11.7108
▁angehen	-11.7109
▁nahezu	-11.711
tail	-11.7112
▁Bab	-11.7118
ped	-11.7119
sätze	-11.7125
▁Beijing	-11.7128
▁Mozart	-11.7128
▁Polizist	-11.7128
▁absurd	-11.7128
▁analysiere	-11.7128
▁diskutiere	-11.7128
▁geöffnet	-11.7128
▁identifie	-11.7128
▁inklusive	-11.7128
▁smooth	-11.7128
▁spectacular	-11.7128
▁twist	-11.7128
▁neuroscience	-11.7128
▁pioneer	-11.7128
▁leap	-11.7128
▁Mount	-11.7128
▁Blickwinkel	-11.7128
▁Onkel	-11.7128
▁abandon	-11.7128
▁partnership	-11.7128
▁indigen	-11.7129
▁lamp	-11.7129
▁Ausland	-11.7131
▁Chen	-11.7135
▁darkness	-11.7135
les	-11.7135
▁Diabetes	-11.7136
▁geeignet	-11.714
▁hello	-11.7141
▁Sendung	-11.7142
▁simulation	-11.7144
▁vergangen	-11.7145
▁Matt	-11.7145
▁minimal	-11.7146
▁Konzepte	-11.7147
▁Service	-11.7147
▁Alternative	-11.7158
▁Gel	-11.7161
artige	-11.7161
▁Sensoren	-11.7161
▁31	-11.7164
▁integrate	-11.7167
▁Flugzeuge	-11.7167
▁coat	-11.717
▁molekulare	-11.7171
▁wing	-11.7174
▁Werke	-11.7178
▁Marc	-11.7181
nahmen	-11.7183
▁hindurch	-11.7185
▁verlangt	-11.7187
▁193	-11.719
▁Wichtige	-11.7197
▁Up	-11.7198
▁erfüllt	-11.7199
▁Seh	-11.7202
▁universit	-11.7203
Spiel	-11.721
▁körperliche	-11.7211
▁15-	-11.7218
▁Benutzer	-11.7218
treffen	-11.7226
▁Ok	-11.7228
▁tricks	-11.7231
▁ill	-11.7232
▁wow	-11.7236
▁physisch	-11.7239
Ge	-11.7239
▁fragment	-11.7242
▁fu	-11.7245
▁örtliche	-11.7245
▁transfer	-11.7245
▁sweat	-11.7246
▁unendlich	-11.7246
▁192	-11.7246
▁decrease	-11.7255
▁There	-11.7256
▁stet	-11.7257
energie	-11.7259
▁excellen	-11.726
▁Skelett	-11.7261
▁Anpassung	-11.7261
▁Ocean	-11.7261
▁diskutiert	-11.7261
▁herausfand	-11.7261
▁Privatsphäre	-11.7261
▁freak	-11.7261
▁japanische	-11.7261
▁Weibchen	-11.7261
▁Mountain	-11.7261
▁Lord	-11.7261
▁hungry	-11.7261
▁textbook	-11.7261
▁fortune	-11.7261
▁hardware	-11.7262
▁passenger	-11.7262
erkeley	-11.7262
▁Juni	-11.7262
▁Ze	-11.7262
▁northern	-11.7263
▁Nations	-11.7264
▁achievement	-11.7265
▁geraten	-11.7265
▁Jami	-11.7266
▁Brother	-11.7266
▁Dean	-11.7266
▁vorwärts	-11.7266
▁Farm	-11.7266
▁Abenteuer	-11.7267
▁Scham	-11.7269
▁Drei	-11.7271
▁resolve	-11.7271
last	-11.7272
▁Explosion	-11.7274
▁klug	-11.7276
▁Global	-11.7279
möglich	-11.7281
▁stammen	-11.7281
kon	-11.7282
identifizieren	-11.7285
▁plain	-11.7285
▁verschwinde	-11.7285
▁Dinger	-11.7287
Bahn	-11.7287
▁Lake	-11.7288
▁biologisch	-11.729
▁pace	-11.7291
fache	-11.7292
wood	-11.7293
▁Dad	-11.7297
▁Julian	-11.7297
▁Probe	-11.7305
▁anbieten	-11.7306
▁Spur	-11.731
▁Koch	-11.7312
▁treib	-11.7316
punkte	-11.7319
▁langfristige	-11.7329
▁experimental	-11.7331
▁span	-11.7332
▁terrorists	-11.7333
▁Geschlecht	-11.7335
▁Ratten	-11.7336
mitten	-11.7339
▁Schwestern	-11.734
▁Wachstums	-11.734
gefallen	-11.7341
▁copie	-11.7341
▁pregnan	-11.7342
▁schöner	-11.7344
gar	-11.7345
▁kaufe	-11.7346
▁Fremden	-11.7348
▁43	-11.7349
▁Kreise	-11.735
▁wertvoll	-11.735
strom	-11.7365
▁pose	-11.7369
alter	-11.7373
▁Mitglied	-11.7375
▁jüngste	-11.7377
formen	-11.7392
▁Kilo	-11.7392
▁Funk	-11.7392
▁Pre	-11.7392
tig	-11.7393
▁Wasserstoff	-11.7395
▁deploy	-11.7395
▁Beton	-11.7396
▁trajector	-11.7396
▁Abhängigkeit	-11.7396
▁Dynamik	-11.7396
▁Intuition	-11.7396
▁Urknall	-11.7396
▁chief	-11.7396
▁pandemic	-11.7396
▁ärmste	-11.7396
▁Keith	-11.7396
▁Entschuldigung	-11.7396
▁stroke	-11.7396
▁getestet	-11.7396
▁Sierra	-11.7396
▁isoliert	-11.7396
▁Enkel	-11.7396
▁Lärm	-11.7397
▁Hügel	-11.7397
▁keyboard	-11.7397
▁Luther	-11.7399
▁editor	-11.74
▁pipe	-11.74
▁kauft	-11.74
▁gradual	-11.7401
▁Simulation	-11.7401
state	-11.7403
▁hilfreich	-11.7404
▁Len	-11.7405
▁intellektuelle	-11.7406
▁unterhalten	-11.7408
▁rent	-11.7409
▁gewöhnlich	-11.7409
ants	-11.7412
▁präsentiere	-11.7412
▁schwerer	-11.7412
▁zuhören	-11.7413
▁willkommen	-11.7418
▁bezieh	-11.7418
▁consequence	-11.7419
▁Dec	-11.742
▁protest	-11.7425
force	-11.7425
▁pause	-11.7426
▁dicht	-11.7427
▁liebt	-11.7428
▁Schriftsteller	-11.7428
▁glad	-11.743
rctic	-11.7431
▁blend	-11.7432
▁deck	-11.7435
bersetzung	-11.7435
▁kn	-11.7437
▁wirtschaftlich	-11.7437
▁Pflanze	-11.7438
▁polici	-11.7438
▁puts	-11.7444
▁Ri	-11.7446
▁verlor	-11.7446
▁Alpha	-11.7447
▁ethic	-11.7448
▁beschränkt	-11.7449
▁geistige	-11.7453
par	-11.7453
▁package	-11.7456
tial	-11.7458
▁ausreichend	-11.746
▁profession	-11.746
▁officer	-11.7466
ag	-11.7476
▁Zusammen	-11.7478
▁kümmert	-11.748
ably	-11.7482
▁Eins	-11.7483
▁besonderen	-11.7483
▁Ang	-11.7486
▁surrounding	-11.7493
ät	-11.7494
▁Hinweis	-11.7496
▁diagnose	-11.7499
▁Chip	-11.7504
kam	-11.7509
leg	-11.7511
rger	-11.7512
▁stabil	-11.7516
▁sinnvoll	-11.7517
ade	-11.7518
produktion	-11.7518
▁Ideal	-11.7519
▁fed	-11.7522
entwicklung	-11.7524
▁Ober	-11.7524
handel	-11.7525
▁Besitz	-11.7525
▁via	-11.7527
▁heb	-11.7528
▁utter	-11.7533
▁Variation	-11.7533
▁Wohlbefinden	-11.7533
▁aesthetic	-11.7533
▁außerordentlich	-11.7533
▁helicopter	-11.7533
▁paralyz	-11.7533
▁uncomfortabl	-11.7533
▁Ruanda	-11.7533
▁Reichtum	-11.7533
▁Aufzeichnung	-11.7533
▁reinvent	-11.7533
▁Beschreibung	-11.7533
▁verstecken	-11.7534
▁laid	-11.7534
▁Schock	-11.7534
▁festgestellt	-11.7534
▁variable	-11.7535
▁ehemalige	-11.7536
▁Norm	-11.7536
▁glacier	-11.7536
▁Lebensraum	-11.7537
▁Fotografie	-11.7537
▁essence	-11.754
▁Regenwald	-11.754
▁KB	-11.7541
▁initiative	-11.7543
▁Filter	-11.7545
treiben	-11.7545
▁verurteilt	-11.755
▁fisher	-11.7551
▁Brad	-11.7553
▁Hindernisse	-11.7553
▁bewahren	-11.7555
▁agricultural	-11.7555
▁Now	-11.7556
In	-11.7559
▁pr	-11.756
▁psychologische	-11.7565
▁Toilette	-11.7566
▁discoveries	-11.7567
▁flach	-11.7567
sam	-11.7569
▁wound	-11.757
wirtschaftliche	-11.7577
▁fließ	-11.7578
▁Blase	-11.758
field	-11.759
▁magical	-11.7591
ology	-11.7594
kurs	-11.7595
▁pursue	-11.7597
▁farmer	-11.7598
▁sozialer	-11.7599
design	-11.76
▁pin	-11.76
▁Reis	-11.7604
▁polar	-11.7605
▁craft	-11.761
▁führende	-11.7611
▁Prototypen	-11.7613
▁mo	-11.7614
▁dreidimensional	-11.7615
▁zurecht	-11.7621
▁fotografiert	-11.7623
▁Inter	-11.7628
▁Talent	-11.7629
▁Farb	-11.763
▁beer	-11.7631
pflanzen	-11.7632
▁approv	-11.7642
▁reefs	-11.7643
▁abstrakte	-11.7647
geführt	-11.7653
▁Age	-11.766
▁wings	-11.7662
unterricht	-11.7668
▁Hawaii	-11.7671
xytocin	-11.7672
▁recruit	-11.7672
▁relax	-11.7672
▁sorgfältig	-11.7672
▁zwölf	-11.7672
▁automobile	-11.7672
▁gelehrt	-11.7672
▁Tempo	-11.7672
▁breakthrough	-11.7672
▁Gegenstände	-11.7672
▁trash	-11.7672
▁Verhandlung	-11.7672
▁Craig	-11.7672
▁Jewish	-11.7672
▁Wilson	-11.7672
▁Frühling	-11.7672
▁vorhersagen	-11.7673
▁Oxytocin	-11.7673
▁boil	-11.7673
wi	-11.7673
▁Zero	-11.7673
▁extinction	-11.7674
▁Danny	-11.7675
▁südlich	-11.7675
▁erkunden	-11.7676
▁genocide	-11.7677
▁grandfather	-11.7677
▁output	-11.7679
▁Ki	-11.7679
▁Knopf	-11.7679
▁bump	-11.7681
▁generat	-11.7681
▁vieler	-11.7681
▁Par	-11.7682
▁lud	-11.7683
ose	-11.7685
▁Planung	-11.7685
▁Pläne	-11.7685
gh	-11.7686
▁Bert	-11.7686
▁Bauch	-11.7688
▁burst	-11.769
person	-11.7691
▁Laser	-11.7692
ruft	-11.7692
▁Trends	-11.7697
▁Steine	-11.7701
▁reef	-11.7702
▁dinosaur	-11.7702
losen	-11.7706
▁printer	-11.7708
▁profitier	-11.7715
▁logisch	-11.7716
▁Tasche	-11.7717
▁Nervenzellen	-11.7721
▁po	-11.7722
▁unabhängige	-11.7725
▁verb	-11.7726
▁interpret	-11.7729
hus	-11.7729
▁98	-11.773
modell	-11.7733
▁Metern	-11.7736
redet	-11.7736
ius	-11.774
▁wage	-11.7742
Mails	-11.7747
▁fange	-11.7748
fund	-11.7755
▁agenc	-11.7755
dienst	-11.7758
ock	-11.7762
▁ausschließlich	-11.7763
▁Ni	-11.7765
▁ma	-11.7774
▁Höhlen	-11.7775
▁Mess	-11.7778
▁Schwarze	-11.7779
▁hid	-11.778
▁Thu	-11.7781
nseits	-11.7785
▁Gut	-11.7786
▁viral	-11.7787
▁dient	-11.7789
▁anfäng	-11.7789
▁magische	-11.779
ita	-11.7797
▁coole	-11.7797
▁Br	-11.7798
▁Fünf	-11.7799
▁Ad	-11.7801
▁Teleskop	-11.7805
▁Pe	-11.7805
leidenschaftlich	-11.7805
▁branch	-11.7805
▁geringe	-11.7805
oo	-11.7807
störung	-11.7808
nde	-11.781
▁east	-11.7812
▁Früh	-11.7812
▁Kong	-11.7813
▁Besondere	-11.7813
▁Department	-11.7813
▁fabulous	-11.7813
▁herstellt	-11.7813
▁surveill	-11.7813
▁currenc	-11.7813
▁Tesla	-11.7813
▁Schwanz	-11.7813
▁clay	-11.7813
▁herzlich	-11.7813
▁chaos	-11.7813
▁comparison	-11.7813
▁synthetic	-11.7813
▁Produktivität	-11.7813
▁Treibstoff	-11.7813
▁Kuchen	-11.7813
▁biodiversity	-11.7813
▁Antrieb	-11.7814
▁Schädel	-11.7814
▁winner	-11.7814
▁portion	-11.7814
▁1995	-11.7816
▁Vorder	-11.7817
▁Studium	-11.7818
▁attractive	-11.7821
▁locate	-11.7823
▁Güter	-11.7824
▁trivial	-11.7824
▁Winkel	-11.7827
▁Mad	-11.7828
▁vorgestellt	-11.7828
▁ausgegeben	-11.7829
▁cliff	-11.7831
▁verteilen	-11.7831
cellular	-11.7836
▁entsprechend	-11.7838
▁Lama	-11.7843
▁Original	-11.7846
▁ausgehen	-11.7847
amerikanische	-11.7849
hafte	-11.785
mäßig	-11.7851
▁dimension	-11.7853
▁leverage	-11.7854
▁schreibe	-11.7855
▁Beach	-11.7856
▁proof	-11.7856
rung	-11.786
met	-11.7862
bul	-11.7865
▁tötet	-11.7868
▁Kreuz	-11.7868
▁locked	-11.7869
▁gefahren	-11.7871
▁dish	-11.7872
▁beträgt	-11.7873
▁Bildungs	-11.7874
▁expos	-11.7875
▁camel	-11.7876
▁Ausgaben	-11.7884
▁ruin	-11.7884
lösen	-11.7886
▁underly	-11.7887
▁Weiß	-11.7887
▁erneuerbare	-11.7895
▁Benzin	-11.7897
team	-11.7906
▁Spring	-11.7907
essen	-11.7915
ehr	-11.7918
▁sammelt	-11.792
▁bedeutende	-11.7921
zieht	-11.7925
wei	-11.7926
▁Reisen	-11.7936
▁programmiere	-11.7938
▁müsst	-11.7944
▁Feedback	-11.7954
▁quest	-11.7955
▁Apollo	-11.7955
▁Antarctic	-11.7956
▁Jerusalem	-11.7956
▁Phoenix	-11.7956
▁begleitet	-11.7956
▁kombiniert	-11.7956
▁motiviert	-11.7956
▁shrimp	-11.7956
▁Canyon	-11.7956
▁Praxis	-11.7956
▁dialogue	-11.7956
▁convey	-11.7956
bedingung	-11.7956
▁elite	-11.7956
▁federal	-11.7956
▁stunt	-11.7956
▁1930	-11.7956
▁bullet	-11.7956
▁Balance	-11.7956
▁Bürgermeister	-11.7956
▁Ehemann	-11.7956
▁ooh	-11.7956
▁Ernst	-11.7956
▁tragic	-11.7956
▁Länge	-11.7956
▁verhindert	-11.7957
▁Erforschung	-11.7957
▁debt	-11.7957
▁neat	-11.7957
▁leak	-11.7957
bergang	-11.7957
▁southern	-11.7958
▁echtes	-11.7958
▁Amazonas	-11.7958
▁tropic	-11.7959
▁Susan	-11.796
▁Staub	-11.796
▁garage	-11.7961
▁ensure	-11.7961
▁erinnerte	-11.7964
▁nutrient	-11.7965
▁Emil	-11.7968
achtet	-11.797
▁tired	-11.797
▁globally	-11.7971
▁Kir	-11.7973
▁kg	-11.7976
▁trenne	-11.7985
ition	-11.7989
▁tension	-11.799
Cola	-11.7992
▁geling	-11.7993
▁Song	-11.7994
▁Höhle	-11.7994
▁Asteroiden	-11.7996
▁komplexer	-11.7999
▁duck	-11.7999
▁negativ	-11.8
▁widme	-11.8
gerufen	-11.8001
▁Statistik	-11.8001
▁opera	-11.8006
▁geworfen	-11.8009
▁Lieder	-11.801
▁programmer	-11.801
▁resilienc	-11.8012
▁award	-11.8018
▁Einblick	-11.8021
▁Gefahren	-11.8022
▁schief	-11.8026
▁angetrieben	-11.8027
kan	-11.8028
▁Ital	-11.8029
▁Denk	-11.8029
▁wollt	-11.8031
▁Front	-11.8031
▁beetle	-11.8032
▁defin	-11.8032
reichen	-11.8041
gan	-11.8042
spitze	-11.8046
wachsen	-11.8048
▁Wale	-11.805
▁schließ	-11.8051
▁ratio	-11.8052
enz	-11.8053
sländer	-11.8056
▁glückliche	-11.8056
▁beliebt	-11.8057
▁realm	-11.8057
▁sport	-11.806
▁finanziert	-11.806
▁Van	-11.8064
bett	-11.8064
▁habit	-11.8076
ür	-11.8085
▁entdeckten	-11.8085
▁einschließlich	-11.8089
▁populations	-11.8095
▁inject	-11.81
kunst	-11.8101
▁Alaska	-11.8101
▁Bewohner	-11.8101
▁Disziplin	-11.8101
▁Jupiter	-11.8101
▁mysterious	-11.8101
▁recipe	-11.8101
▁substance	-11.8101
▁verdoppelt	-11.8101
▁verringern	-11.8101
▁besaß	-11.8101
▁Sylvia	-11.8101
▁inherent	-11.8101
▁Kennedy	-11.8101
▁Beitrag	-11.8101
▁naked	-11.8101
▁expectanc	-11.8101
▁collaborative	-11.8101
▁entwarf	-11.8101
▁supermarket	-11.8101
▁Elektronik	-11.8101
▁colonies	-11.8101
▁Einsicht	-11.8102
▁walks	-11.8102
▁impression	-11.8104
▁vulnerability	-11.8105
▁präzise	-11.8106
▁dear	-11.8106
▁zurückkommen	-11.8107
▁Orchester	-11.8108
▁verzweifelt	-11.8109
▁käme	-11.8111
▁Alan	-11.8112
▁zwang	-11.8112
▁installation	-11.8116
▁ausdrücken	-11.8117
züge	-11.8117
▁roots	-11.8119
▁Bruc	-11.8122
▁tunnel	-11.8122
▁entrepreneur	-11.8124
ßen	-11.8124
▁militärische	-11.8126
▁highway	-11.8133
▁investor	-11.8135
▁sacrifice	-11.8137
third	-11.8139
▁Stämme	-11.8141
wellen	-11.8142
▁tribe	-11.8146
▁lächerlich	-11.8149
▁Poster	-11.815
▁Mom	-11.8157
Energieverbrauch	-11.8158
leiter	-11.8159
▁i	-11.8163
▁volle	-11.8166
▁ungewöhnliche	-11.8167
ep	-11.8171
▁fragile	-11.8174
▁überprüf	-11.8176
▁schwach	-11.8179
▁faci	-11.818
▁hanging	-11.8181
▁gewöhnliche	-11.8181
▁symbols	-11.8181
wort	-11.8182
▁Nun	-11.8182
verbrauchen	-11.8182
▁fanc	-11.8185
▁weh	-11.8187
port	-11.8189
▁Journal	-11.819
▁Bitte	-11.8192
räume	-11.8193
20	-11.8194
gua	-11.8194
▁Oel	-11.8195
schluss	-11.8197
▁statistical	-11.8198
▁Dichte	-11.82
zuwenden	-11.8201
▁Raketen	-11.8203
fälle	-11.8206
▁determined	-11.8208
▁fordert	-11.8209
ington	-11.821
▁plug	-11.8222
▁experienc	-11.8226
▁gewaltig	-11.8228
ps	-11.8231
▁Pi	-11.8231
▁computation	-11.8231
▁Besuch	-11.8232
▁dust	-11.8234
▁paradox	-11.8238
▁vagina	-11.8239
tta	-11.824
▁nachzu	-11.824
gestoßen	-11.8247
▁Bangladesh	-11.8248
▁Empathie	-11.8248
▁Schöne	-11.8248
▁akzeptiert	-11.8248
▁district	-11.8248
▁medication	-11.8248
▁simultaneous	-11.8248
▁verknüpft	-11.8248
▁Pocken	-11.8248
▁Schreibtisch	-11.8248
▁ignorance	-11.8248
▁verlangen	-11.8248
▁Nike	-11.8248
▁Anhänger	-11.8248
▁burie	-11.8248
▁Strahlung	-11.8248
▁devil	-11.8248
▁jelly	-11.8249
▁Erwärmung	-11.8249
▁Gegenstand	-11.8249
▁highlight	-11.825
▁cheese	-11.825
▁tendenc	-11.8251
▁4,000	-11.8251
▁Tiger	-11.8254
▁Hyper	-11.8254
strahl	-11.8255
▁Mikroskop	-11.8255
▁Konstruktion	-11.8255
▁march	-11.8256
▁Behinderung	-11.8257
▁suggestion	-11.8257
▁capita	-11.8258
vin	-11.8258
▁Mechanismus	-11.8259
▁balls	-11.8259
▁Manager	-11.8262
▁ermutigen	-11.8264
▁riesig	-11.8268
▁spray	-11.8268
▁trainiere	-11.8269
▁erect	-11.8271
▁Fernseher	-11.8274
▁Station	-11.8278
▁Meme	-11.8279
▁effizient	-11.8281
▁umgekehrt	-11.8283
▁gefüllt	-11.8285
▁greifen	-11.8287
▁relations	-11.8289
▁marker	-11.829
▁verblüffend	-11.8292
▁thumb	-11.8292
▁Betracht	-11.8294
book	-11.8295
▁soldier	-11.8296
▁Bei	-11.83
▁concentrate	-11.8303
▁Evan	-11.8303
▁hearts	-11.8307
▁Chirurg	-11.8308
▁mail	-11.8309
forscher	-11.8316
▁repeated	-11.8318
▁acquire	-11.8319
▁recycle	-11.8322
▁ökologische	-11.8323
▁34	-11.8324
▁washing	-11.8324
▁strangers	-11.8327
▁Emission	-11.8328
▁neueste	-11.833
jury	-11.833
▁organische	-11.8332
▁Arabisch	-11.8333
fen	-11.8334
meister	-11.8336
▁auto	-11.834
zustand	-11.8344
eit	-11.8348
▁Ku	-11.835
▁strip	-11.8351
▁Bedürfnis	-11.8355
▁Dia	-11.8359
änge	-11.836
▁Held	-11.8361
▁Kid	-11.8365
▁verrate	-11.8368
▁rocks	-11.8369
▁employ	-11.8369
▁sh	-11.8369
▁viewer	-11.837
▁Techniken	-11.8376
▁heirate	-11.8376
▁sensory	-11.8381
gedreht	-11.8381
▁beobachtete	-11.8383
▁Kim	-11.8388
▁Watt	-11.8389
▁Black	-11.8397
▁consist	-11.8397
▁Council	-11.8397
▁Väter	-11.8397
▁kombiniere	-11.8397
▁schmerzhaft	-11.8397
▁Nährstoffe	-11.8397
▁Octo	-11.8397
▁erledige	-11.8397
▁contemporar	-11.8397
▁rope	-11.8397
▁Arbeitsplätze	-11.8397
▁condom	-11.8397
▁NSA	-11.8397
▁Zahn	-11.8397
▁Arbeitsplatz	-11.8397
▁array	-11.8397
▁Gleichheit	-11.8398
▁Right	-11.8398
▁Heilung	-11.8398
▁geliebt	-11.8398
▁Glühbirne	-11.84
▁Prüfung	-11.84
▁Bescheid	-11.84
▁tägliche	-11.84
▁expansion	-11.8401
▁EU	-11.8401
▁addict	-11.8403
▁Kapazität	-11.8403
▁demo	-11.8403
boden	-11.8404
▁verwandt	-11.8408
▁sir	-11.8408
▁verarbeiten	-11.8408
▁Management	-11.8411
▁Free	-11.8413
▁20.000	-11.8415
▁personaliz	-11.8416
▁Spenden	-11.8418
▁crossing	-11.8419
▁sin	-11.8421
▁alltägliche	-11.8425
▁damn	-11.8426
▁Lungen	-11.8432
▁Leser	-11.8433
▁verliebt	-11.8437
interest	-11.844
fläche	-11.844
look	-11.8441
▁bang	-11.8444
▁assembl	-11.8444
▁reported	-11.8445
arbeiter	-11.8447
bit	-11.8448
▁sicherer	-11.8454
ill	-11.8459
▁panels	-11.8466
▁unbekannte	-11.8468
▁Maße	-11.8469
▁Tricks	-11.848
kb	-11.8487
q	-11.8488
▁climbing	-11.8498
▁gathering	-11.8498
▁bars	-11.8503
▁gemeinnützige	-11.8504
▁shopp	-11.8508
▁consum	-11.8509
▁Mont	-11.8511
getreten	-11.8517
▁tri	-11.8519
▁pole	-11.8519
temperatur	-11.8525
▁lasse	-11.8526
▁rüber	-11.8527
zubauen	-11.8527
▁aufregende	-11.8536
▁Katzen	-11.8538
bekommen	-11.8539
▁96	-11.8541
▁simp	-11.8547
▁Völker	-11.8549
matrix	-11.8549
▁Flughafen	-11.8549
▁combat	-11.8549
▁unterscheidet	-11.8549
▁valley	-11.8549
▁Himalaya	-11.8549
▁Optimismus	-11.8549
▁multinational	-11.8549
▁unfair	-11.8549
▁Baseball	-11.8549
▁generell	-11.8549
▁beschützen	-11.8549
▁architectural	-11.8549
▁Ladung	-11.8549
▁Austausch	-11.8549
gegriffen	-11.8549
▁Abendessen	-11.8549
▁slavery	-11.8549
▁euer	-11.8549
▁primari	-11.855
▁Apfel	-11.855
▁mask	-11.855
▁homework	-11.8551
rine	-11.8551
▁berechnet	-11.8552
▁1994	-11.8552
▁Haltung	-11.8552
▁mood	-11.8554
▁weitermache	-11.8554
▁interpretation	-11.8555
▁pathway	-11.8555
▁honey	-11.8558
▁routine	-11.8559
▁Personal	-11.856
kin	-11.8561
▁Individuum	-11.8561
sonst	-11.8563
▁palm	-11.8565
mar	-11.8565
oid	-11.857
▁Mannes	-11.857
▁strand	-11.8572
▁confus	-11.8573
▁Columbia	-11.8587
▁Mall	-11.8592
merk	-11.8593
Sahara	-11.8594
▁warf	-11.8595
generation	-11.8596
iges	-11.8601
insel	-11.8606
▁stands	-11.8612
▁Magazin	-11.8613
▁Anreize	-11.8614
▁erschien	-11.8614
▁beliebige	-11.8617
▁Mais	-11.8618
▁Sub	-11.8619
Me	-11.8619
▁niedriger	-11.8626
▁Gewinner	-11.8628
▁failing	-11.8628
auto	-11.8629
graph	-11.863
▁gerecht	-11.863
▁cop	-11.8634
▁dancer	-11.8637
erkennung	-11.864
▁acknowledge	-11.8641
▁schießen	-11.8645
shelf	-11.8645
▁Spuren	-11.8649
▁reliabl	-11.8652
▁poison	-11.8654
smal	-11.866
▁Bur	-11.8662
firma	-11.8662
erung	-11.8665
▁needle	-11.8667
▁Min	-11.8672
iness	-11.8672
▁expanding	-11.8672
▁unmittelbar	-11.8681
▁merkte	-11.8689
▁drift	-11.8689
▁Blind	-11.8689
▁Eigentum	-11.8691
meter	-11.8691
gabe	-11.8692
▁drivers	-11.8696
▁ego	-11.8698
▁suspend	-11.87
rous	-11.87
▁Magnet	-11.8701
rich	-11.8701
ership	-11.8702
▁Francis	-11.8702
▁Alkohol	-11.8702
Jährige	-11.8702
▁Analogie	-11.8702
▁Kohlendioxid	-11.8702
▁Privileg	-11.8702
▁creator	-11.8702
▁cricket	-11.8702
▁gegessen	-11.8702
▁sacred	-11.8702
▁scheitern	-11.8702
▁vacuum	-11.8702
▁Dutch	-11.8702
▁geplant	-11.8702
▁Autorität	-11.8703
▁Gift	-11.8703
▁abgeschlossen	-11.8703
▁assignment	-11.8703
bilder	-11.8704
▁Iranian	-11.8704
▁native	-11.8704
▁grasp	-11.8705
▁bribe	-11.8705
▁Faser	-11.8705
▁neck	-11.8706
▁teilnehmen	-11.8706
▁bewirkt	-11.8706
▁Lehre	-11.8707
▁radikal	-11.8708
▁grandchildren	-11.8708
▁Geschäftsmodell	-11.8709
▁measurement	-11.8709
ender	-11.871
▁trage	-11.8711
▁Institut	-11.8711
▁expedition	-11.8712
▁ethnische	-11.8712
▁50.000	-11.8713
trieb	-11.8714
▁pi	-11.8714
▁Kapitalismus	-11.8714
▁prepare	-11.8717
▁Julia	-11.8721
▁Biologe	-11.8725
▁gewissermaß	-11.8728
wärts	-11.8732
▁capabilit	-11.8734
▁aufeinander	-11.8738
▁spannend	-11.8738
▁deutsche	-11.8739
▁blicken	-11.8741
▁Salz	-11.8741
▁Wohn	-11.8742
▁Oper	-11.8742
thane	-11.8743
▁producer	-11.8745
sucht	-11.875
▁geleitet	-11.8753
sein	-11.8754
▁parasite	-11.8756
stan	-11.8762
uff	-11.8765
space	-11.8765
▁comic	-11.8768
▁arriv	-11.8776
zer	-11.8777
fern	-11.8778
▁Unterwasser	-11.8781
▁terror	-11.8782
▁Flasche	-11.8782
▁gering	-11.8782
▁Tele	-11.8784
ju	-11.8784
▁manual	-11.8788
mat	-11.8788
▁toys	-11.879
▁joint	-11.8793
▁Pla	-11.8794
▁korrekt	-11.8795
uanten	-11.8799
trag	-11.8799
▁Rollen	-11.8799
▁believ	-11.88
▁mechanisms	-11.8802
▁coordinat	-11.8803
▁Nichts	-11.8803
lic	-11.8805
▁el	-11.8806
▁eingebaut	-11.8808
▁proportion	-11.8813
▁beendet	-11.8815
zentr	-11.8817
▁islamische	-11.8817
▁shocking	-11.8818
▁fate	-11.8818
sort	-11.8828
▁heiße	-11.8828
stelle	-11.883
▁allzu	-11.8832
▁integrat	-11.8833
▁stattfinden	-11.8836
▁Hals	-11.8836
▁warning	-11.884
▁Pen	-11.884
▁se	-11.8845
▁fliegende	-11.8847
schieben	-11.8849
sagen	-11.8851
▁Judi	-11.8853
▁dose	-11.8853
▁heilige	-11.8855
▁erweitert	-11.8856
▁recommend	-11.8857
▁klare	-11.8857
▁Einheiten	-11.8858
gewebe	-11.8859
▁Engagement	-11.8859
▁Jefferson	-11.8859
▁Portugal	-11.8859
▁Sputnik	-11.8859
▁TEDGlobal	-11.8859
▁choosing	-11.8859
▁hypothesis	-11.8859
▁threshold	-11.8859
▁thrill	-11.8859
▁tweet	-11.8859
▁Tendenz	-11.8859
▁Treppe	-11.8859
▁iPad	-11.8859
▁Bindung	-11.8859
▁Kelly	-11.8859
▁Mühe	-11.8859
▁extension	-11.8859
▁Sprung	-11.8859
▁Bonobo	-11.8859
▁Thailand	-11.8859
▁Where	-11.8859
▁versagt	-11.8859
▁Namibia	-11.8859
▁Republican	-11.8859
▁contribution	-11.886
▁primate	-11.886
ivität	-11.8863
▁Wörterbuch	-11.8864
▁definitiv	-11.8865
▁Weltbank	-11.8867
▁Are	-11.8868
▁Betrieb	-11.8869
▁Säugetiere	-11.8869
▁helpful	-11.887
▁Dave	-11.8872
▁Verbraucher	-11.8873
▁Rechner	-11.8875
▁uncertaint	-11.8875
▁Erfindungen	-11.8875
▁dumb	-11.8876
ähnliche	-11.8876
▁Genie	-11.8877
▁geblieben	-11.8879
▁Programmierer	-11.888
▁harmon	-11.8881
▁involviert	-11.8882
▁AK	-11.8882
▁dreimal	-11.8883
▁lenken	-11.8884
▁Welle	-11.8886
▁Cal	-11.8889
▁compromise	-11.8894
▁tackle	-11.8902
hai	-11.8904
▁mobil	-11.8906
▁li	-11.8906
▁mechanic	-11.8907
▁studierte	-11.8908
rei	-11.891
▁Lücke	-11.8911
▁billiger	-11.8911
▁Schlange	-11.8911
stage	-11.8913
▁Kriege	-11.8913
▁Ru	-11.8914
netz	-11.8915
ino	-11.8917
top	-11.8922
▁Kiste	-11.8928
▁Kon	-11.8929
▁wieviele	-11.893
▁shirt	-11.8934
▁grob	-11.8934
▁cartoons	-11.8936
▁introduc	-11.8937
▁agency	-11.894
▁Fahrt	-11.8947
▁Autoren	-11.895
room	-11.896
▁spiele	-11.896
▁Italien	-11.896
ium	-11.896
pho	-11.8961
▁Stan	-11.8963
▁praktische	-11.8967
cal	-11.8968
eur	-11.8969
▁Hut	-11.897
▁Alters	-11.8971
▁Designs	-11.8974
zelle	-11.8976
▁owner	-11.8976
▁Figuren	-11.8978
deckt	-11.8984
ark	-11.8984
▁luck	-11.8986
▁verkaufte	-11.8997
▁eingehen	-11.8999
▁liest	-11.9
▁manipulate	-11.9001
▁soup	-11.9003
▁Genome	-11.9006
▁mimic	-11.9007
▁bound	-11.9008
▁Wunde	-11.9009
▁compete	-11.9015
▁anonym	-11.9017
▁instinct	-11.9017
▁Thank	-11.9017
▁Oktober	-11.9017
▁dopamine	-11.9017
▁erledigt	-11.9017
▁nördlich	-11.9017
▁civic	-11.9017
▁Voraussetzung	-11.9017
▁Schwerkraft	-11.9017
▁Substanz	-11.9017
▁fraction	-11.9017
▁optimism	-11.9017
▁Mentor	-11.9017
▁Venus	-11.9018
▁Auffassung	-11.9018
▁Montana	-11.9018
▁nonprofit	-11.9018
▁chromosome	-11.9018
▁Egyptian	-11.9018
▁Versagen	-11.9018
▁concentration	-11.9018
▁permission	-11.9018
▁kidney	-11.9019
▁strategic	-11.9019
▁formal	-11.902
▁stake	-11.902
▁Pazifik	-11.902
▁appearance	-11.902
▁Mutation	-11.902
▁selfish	-11.9021
▁zweieinhalb	-11.9022
▁filmmaker	-11.9024
▁Rauch	-11.9025
,	-11.9026
▁imager	-11.9026
▁Sunday	-11.9028
▁30,000	-11.9032
▁stieß	-11.9032
▁Route	-11.9033
▁anzuschauen	-11.9035
▁Cloud	-11.9036
▁47	-11.9044
▁upside	-11.9048
▁sendet	-11.9048
position	-11.9049
▁projection	-11.9051
▁tags	-11.9054
ueen	-11.9055
▁Kreislauf	-11.9057
▁Griff	-11.9058
▁describ	-11.9061
▁folgender	-11.9064
haut	-11.9065
▁autonom	-11.9069
▁whistle	-11.907
HC	-11.9071
▁Ameise	-11.9073
orientierte	-11.9073
▁Rezept	-11.9074
alt	-11.9075
▁verbreitete	-11.9077
oon	-11.9077
isches	-11.9078
▁17.	-11.9078
▁trainiert	-11.908
rag	-11.9083
chten	-11.9084
▁spill	-11.9084
ind	-11.9085
smöglichkeit	-11.9086
▁ausführen	-11.9089
▁Geschmack	-11.909
▁Prototyp	-11.9091
▁muslimische	-11.9093
▁Journalisten	-11.9095
▁Organism	-11.9096
▁pot	-11.9097
▁3.	-11.9099
▁classical	-11.9103
▁Carol	-11.9103
▁Nahrungs	-11.9104
▁achiev	-11.9106
▁expose	-11.9108
▁Schild	-11.9111
▁Poe	-11.9111
fu	-11.9112
▁Pferde	-11.9115
▁abend	-11.9118
part	-11.9121
▁mixed	-11.9133
▁Unternehmens	-11.9133
▁unsichtbare	-11.9134
kette	-11.9138
▁ungeheuer	-11.9141
13	-11.9144
spieler	-11.9145
ali	-11.9145
▁replicate	-11.9145
▁Veranstaltung	-11.9145
srate	-11.9147
Geheimnisse	-11.9148
ai	-11.9149
▁sanit	-11.9151
▁instant	-11.9152
uer	-11.9158
flug	-11.9158
tte	-11.9159
▁Bergen	-11.916
▁woke	-11.9163
▁tritt	-11.9167
sinn	-11.9169
▁spark	-11.917
▁horizon	-11.9171
▁Lesen	-11.9172
▁fe	-11.9172
▁Schall	-11.9174
▁Rechen	-11.9175
▁Disney	-11.9178
▁slave	-11.9178
▁Töchter	-11.9179
▁anxiety	-11.9179
▁aufmerksam	-11.9179
▁curriculum	-11.9179
▁wheelchair	-11.9179
▁snake	-11.9179
▁Stoffwechsel	-11.9179
▁broadcast	-11.9179
▁spontaneous	-11.9179
▁Italian	-11.9179
▁regulation	-11.9179
▁Liberia	-11.918
▁Tafel	-11.918
▁bediene	-11.918
▁verfügen	-11.9181
▁mindset	-11.9181
▁infant	-11.9182
▁electrode	-11.9182
▁amaze	-11.9182
▁Rachel	-11.9184
▁Johnny	-11.9184
▁aufwuchs	-11.9184
▁Deutsch	-11.9185
▁Kranken	-11.9185
▁Ego	-11.9186
▁shit	-11.9187
▁endet	-11.9187
▁Horizont	-11.9188
▁prior	-11.9189
▁glow	-11.9193
▁hitting	-11.9193
▁Sprecher	-11.9197
some	-11.9201
▁heal	-11.9201
▁stattfinde	-11.9203
▁86	-11.9206
▁klingen	-11.9207
▁fusion	-11.921
▁Besitzer	-11.921
▁Kontroll	-11.9212
▁Ber	-11.9215
▁zahlreiche	-11.9218
▁Fo	-11.9219
▁züchte	-11.922
▁Elektronen	-11.922
etz	-11.9221
▁Juan	-11.9225
▁tile	-11.9227
▁memes	-11.9228
▁durchgehen	-11.9228
related	-11.9229
▁Bud	-11.923
▁incident	-11.9232
▁Neil	-11.9232
ham	-11.9234
▁entschlossen	-11.9236
▁insist	-11.9238
och	-11.9239
lang	-11.9242
ush	-11.9242
gainst	-11.9242
▁verständlich	-11.9244
gefühl	-11.9245
▁Pilot	-11.9247
▁öffnete	-11.9249
▁Fest	-11.925
▁terrorist	-11.9252
▁Nächste	-11.9255
gebiet	-11.9256
▁Falt	-11.9259
▁Ger	-11.927
▁mild	-11.9273
uel	-11.9274
sia	-11.9275
▁shine	-11.9279
mine	-11.9284
▁450	-11.9289
▁konstruiert	-11.9294
xi	-11.9295
flu	-11.9296
▁singer	-11.9296
ardino	-11.9297
▁lehrt	-11.9299
▁dünne	-11.9302
▁shin	-11.9303
▁Magazine	-11.9303
▁Toiletten	-11.9304
low	-11.9304
▁Inseln	-11.9304
▁Kan	-11.9305
pri	-11.9305
▁Cola	-11.9306
▁Effekte	-11.9308
▁Regierungs	-11.931
▁echter	-11.9312
▁stranger	-11.9315
▁vergangene	-11.9321
▁ink	-11.9326
▁senk	-11.9327
▁sauce	-11.933
▁Güte	-11.933
▁unterrichtet	-11.9335
▁tar	-11.934
▁cosm	-11.934
▁Wechsel	-11.9341
▁disturb	-11.9342
stöß	-11.9343
▁Bangalore	-11.9343
▁Bedauern	-11.9343
▁Cameron	-11.9343
▁FDA	-11.9343
▁Getreide	-11.9343
▁Phosphor	-11.9343
▁analysiert	-11.9343
▁antibiotic	-11.9343
▁theoretical	-11.9343
▁tsunami	-11.9343
▁verheiratet	-11.9343
▁Nepal	-11.9343
▁twin	-11.9343
▁Flüsse	-11.9343
▁closing	-11.9343
▁endanger	-11.9343
▁Streben	-11.9343
▁Töne	-11.9343
▁Wolfram	-11.9343
▁Distanz	-11.9343
▁Tanzania	-11.9343
▁Direktor	-11.9343
▁Hilfsmittel	-11.9343
▁fool	-11.9343
▁Seife	-11.9343
▁erstaunt	-11.9343
▁Möbel	-11.9343
▁brave	-11.9343
▁Coke	-11.9343
▁befasse	-11.9343
▁tongue	-11.9343
▁Kluft	-11.9343
▁marketplace	-11.9343
▁nerd	-11.9343
▁Jackson	-11.9344
▁collaborator	-11.9344
▁Mischung	-11.9344
▁Lago	-11.9344
isela	-11.9345
ulation	-11.9346
▁capabilities	-11.9347
▁Konzentration	-11.9347
▁Stone	-11.9349
▁sticks	-11.9352
▁confident	-11.9353
▁Demonstration	-11.9353
▁aktive	-11.9353
▁dick	-11.9353
▁beantwortet	-11.9353
▁traditionell	-11.9354
▁homeless	-11.9355
ual	-11.9357
▁Kunststoff	-11.9357
▁anhalten	-11.9358
▁Sta	-11.936
förmige	-11.9365
▁cats	-11.9367
krise	-11.9368
▁Messer	-11.9369
volle	-11.937
▁komplizierter	-11.937
▁Impfstoff	-11.9371
▁interior	-11.9372
▁Interessante	-11.9373
▁Formel	-11.9374
▁specialize	-11.9375
▁refuse	-11.9375
▁konzentrierte	-11.9376
free	-11.9377
thiopien	-11.9378
▁rap	-11.9378
▁häufiger	-11.9384
▁dung	-11.9384
schi	-11.9386
▁Medikamenten	-11.9386
▁Mel	-11.939
lässt	-11.939
▁Offenhe	-11.9391
▁Pop	-11.9392
▁mittlere	-11.9393
▁evolutionäre	-11.9395
▁fr	-11.9395
▁185	-11.9398
▁Ei	-11.9399
▁views	-11.9401
▁pulse	-11.9402
baren	-11.9402
▁Kolonie	-11.9403
▁Fundament	-11.9406
play	-11.9409
▁wartete	-11.941
▁Net	-11.9411
▁erziel	-11.9412
▁herrscht	-11.9413
▁rotate	-11.9414
löschen	-11.9415
▁44	-11.9422
▁hasse	-11.9423
▁Kommunikations	-11.9425
▁victim	-11.9425
▁egg	-11.9426
ire	-11.9428
strecken	-11.9434
▁nuts	-11.9435
▁betreten	-11.9435
▁anzugeh	-11.9436
▁eröffne	-11.9437
▁Skulptur	-11.9439
▁rats	-11.944
▁motivieren	-11.9441
▁Maya	-11.9447
▁glamor	-11.9449
▁sc	-11.9452
▁finanzier	-11.9453
▁regional	-11.9457
Technologie	-11.9462
▁einfachste	-11.9465
▁künstlerische	-11.9466
▁grave	-11.9469
▁bewegte	-11.9474
▁restliche	-11.9476
cus	-11.9478
▁Cu	-11.9483
king	-11.9485
▁formula	-11.9485
produkt	-11.949
dom	-11.949
gelegt	-11.9493
▁Wohl	-11.9497
▁komische	-11.9499
▁tent	-11.9499
no	-11.95
▁exhibit	-11.9507
▁distinct	-11.9507
▁Technolog	-11.9508
▁Digital	-11.9508
▁Gewohnheit	-11.9509
▁Installation	-11.9509
▁PowerPoint	-11.9509
▁Verwaltung	-11.9509
▁Verzweiflung	-11.9509
▁eBay	-11.9509
▁hybrid	-11.9509
▁Widerspruch	-11.9509
▁troop	-11.9509
▁chamber	-11.9509
▁Mittagessen	-11.9509
▁Gehör	-11.9509
▁vereint	-11.9509
▁Gewässer	-11.9509
▁Nicole	-11.9509
▁Plätze	-11.9509
▁pride	-11.9509
▁ultra	-11.951
▁signature	-11.951
▁Nathan	-11.951
▁barrel	-11.951
▁Unfälle	-11.951
▁Dauer	-11.951
▁draus	-11.951
▁Rhythmus	-11.951
▁versorgt	-11.951
▁baseball	-11.951
▁subway	-11.9511
▁cake	-11.9511
▁addiction	-11.9511
▁Alltag	-11.9511
▁crew	-11.9511
▁Deze	-11.9511
▁Tropf	-11.9512
▁Jill	-11.9512
▁stamp	-11.9512
▁Jenni	-11.9513
▁sandwich	-11.9514
▁Interpretation	-11.9514
▁March	-11.9514
▁PR	-11.9514
▁detector	-11.9516
▁lucki	-11.9517
▁distinguish	-11.9518
▁innocent	-11.952
▁Fischerei	-11.9522
▁magni	-11.9523
▁auftauchen	-11.9525
▁factories	-11.9527
▁constraint	-11.9532
▁sixth	-11.9533
▁announc	-11.9534
▁Master	-11.954
▁fastest	-11.9541
▁ending	-11.9544
▁Bel	-11.9544
▁rape	-11.9549
▁Origami	-11.9549
▁Play	-11.9552
▁Lis	-11.9552
führung	-11.9552
▁psycho	-11.9557
▁Lang	-11.9558
artig	-11.9564
Hu	-11.9565
▁mm	-11.9565
ncy	-11.957
while	-11.957
▁suchten	-11.9571
oc	-11.9572
▁radikale	-11.9574
▁46	-11.9582
▁tone	-11.9587
aday	-11.959
omi	-11.959
▁miserable	-11.9599
▁süß	-11.9605
▁Verkauf	-11.9606
▁Anreiz	-11.9607
▁logical	-11.9608
▁Chirurgen	-11.9608
lf	-11.9608
▁youth	-11.9609
▁folgte	-11.9609
▁Pink	-11.9612
▁Vereinte	-11.9612
▁Port	-11.9612
turm	-11.9617
▁additional	-11.962
cent	-11.9622
▁Afghan	-11.9627
▁habits	-11.963
▁correspond	-11.963
▁bats	-11.9631
▁hill	-11.9637
han	-11.9639
▁Demokrat	-11.9644
▁Eigen	-11.9648
die	-11.965
▁beam	-11.9655
▁wrap	-11.9655
▁Küchen	-11.9658
▁Bomben	-11.9658
▁attribute	-11.9668
▁Bewusstseins	-11.9674
▁alcohol	-11.9676
ociety	-11.9676
▁Altern	-11.9677
▁Erscheinung	-11.9678
▁Zuhörer	-11.9679
▁amateur	-11.9679
▁jazz	-11.9679
▁Gerüst	-11.9679
▁Gravitation	-11.9679
▁glamour	-11.9679
▁jahrelang	-11.9679
▁Trinkwasser	-11.9679
▁Großvater	-11.9679
▁Herkunft	-11.9679
▁Führungskräfte	-11.9679
▁cyber	-11.9679
▁intimate	-11.9679
▁garbage	-11.9679
▁banana	-11.9679
▁MoMA	-11.9679
▁Unsicherheit	-11.9679
▁bestätigt	-11.9679
▁Supermarkt	-11.9679
▁repräsentiere	-11.968
▁mapping	-11.968
ika	-11.968
▁dawn	-11.9681
▁Abstand	-11.9681
▁Doug	-11.9682
▁commission	-11.9683
gesetzt	-11.9684
▁annual	-11.9685
▁Königin	-11.9685
▁verhält	-11.9686
▁Bewertung	-11.9689
reicht	-11.9689
▁Partnerschaft	-11.9689
▁unsicher	-11.969
▁träumen	-11.9693
▁register	-11.9695
▁Meister	-11.9699
▁12-	-11.9701
▁Bildungssystem	-11.9705
lager	-11.9707
▁integriert	-11.9709
▁lobe	-11.971
▁Werten	-11.9712
▁format	-11.9715
▁ewig	-11.9716
▁Mother	-11.9723
▁Such	-11.9724
▁bewerte	-11.9726
▁Diplomat	-11.9728
reißen	-11.9729
gehört	-11.9731
ologie	-11.9739
▁vergleich	-11.9741
Kopf	-11.9743
figur	-11.9743
▁Korean	-11.9744
▁furchtbar	-11.9745
▁Profit	-11.9748
Tech	-11.9751
▁wünschen	-11.9752
▁benötigte	-11.9753
▁Sag	-11.9759
▁kurzer	-11.9762
spielen	-11.9767
▁erwähnte	-11.9767
▁existierende	-11.977
▁geheime	-11.977
▁panel	-11.9773
▁flowing	-11.9774
▁52	-11.9777
ada	-11.9784
▁umsetzen	-11.9787
gelaufen	-11.9792
zig	-11.9794
▁effektiver	-11.9796
▁herauskomm	-11.9796
air	-11.9798
▁Extra	-11.9803
squalität	-11.9806
alai	-11.9806
▁Tode	-11.9807
▁gefährdet	-11.9809
▁Führungs	-11.981
▁vot	-11.981
tern	-11.9811
▁Blasen	-11.9812
▁preserv	-11.9812
▁versicher	-11.9813
▁exponential	-11.9818
right	-11.9821
▁rivers	-11.9821
▁zusammenzu	-11.9836
▁Zwischen	-11.9837
analyse	-11.9839
▁reale	-11.9842
▁export	-11.9843
▁graphics	-11.9848
▁Kurze	-11.9848
▁god	-11.9849
▁On	-11.9849
▁160	-11.985
bertragung	-11.9851
▁Kosov	-11.9851
▁wertvolle	-11.9851
▁1,5	-11.9851
▁Knoten	-11.9851
▁Währung	-11.9851
▁Academ	-11.9851
▁Ignoranz	-11.9851
▁Michigan	-11.9851
▁Natasha	-11.9851
▁Ushahidi	-11.9851
▁chaotisch	-11.9851
▁chronic	-11.9851
▁contrar	-11.9851
▁diamond	-11.9851
▁überqueren	-11.9851
▁chimp	-11.9851
▁triangle	-11.9851
▁verboten	-11.9851
▁Unabhängigkeit	-11.9851
▁fence	-11.9851
▁Solarenergie	-11.9851
EDI	-11.9851
▁Cyber	-11.9852
▁representative	-11.9852
▁Flagge	-11.9852
▁enforce	-11.9852
▁generous	-11.9852
▁Diego	-11.9853
▁Menschenrechte	-11.9853
▁Barry	-11.9853
▁weekend	-11.9854
▁Mist	-11.9855
ram	-11.9855
▁schenke	-11.9855
▁detection	-11.9855
▁workplace	-11.9855
▁Regal	-11.9856
▁compassionate	-11.9857
▁included	-11.9858
▁Northern	-11.9858
rotten	-11.9859
▁traditions	-11.986
▁gelähmt	-11.986
▁enhance	-11.9861
▁genetically	-11.9862
▁reflection	-11.9862
▁lügen	-11.9863
▁misst	-11.9864
▁vergewaltigt	-11.9865
▁reproduce	-11.9868
▁zwingen	-11.9868
▁Norwegen	-11.9872
reich	-11.9876
lagen	-11.9877
▁Leone	-11.9879
▁Bären	-11.9879
▁schw	-11.9883
▁Muslime	-11.9885
▁interessantes	-11.9887
▁institutional	-11.9888
rang	-11.9888
born	-11.9888
▁bored	-11.9891
ibera	-11.9891
▁ironic	-11.9893
chu	-11.9898
▁Taten	-11.9903
page	-11.9906
link	-11.9907
leute	-11.991
▁Glaubens	-11.9911
▁Besten	-11.9913
fühlen	-11.9914
▁Zweiten	-11.9916
▁53	-11.9917
oh	-11.9917
Modell	-11.9918
▁Maria	-11.9918
▁derzeitige	-11.9919
clock	-11.9921
▁Felsen	-11.9921
▁spinn	-11.9924
▁merkwürdig	-11.9926
▁dringend	-11.9927
staat	-11.9929
▁purchase	-11.9931
▁Hell	-11.9933
▁Genen	-11.9935
▁landet	-11.9935
▁direkte	-11.9937
▁Insekt	-11.994
▁eingestellt	-11.9941
▁Oma	-11.9943
▁Ring	-11.995
▁exponentiell	-11.9951
▁conservative	-11.9957
▁Mögliche	-11.9959
▁magnet	-11.9959
▁Ga	-11.9959
▁tin	-11.996
▁überwach	-11.9962
ook	-11.9963
▁qualit	-11.9969
▁combin	-11.9972
ives	-11.9977
ui	-11.9978
▁Williams	-11.9979
statt	-11.9981
▁div	-11.9987
real	-11.999
▁Kam	-11.9991
losigkeit	-11.9993
▁dedicat	-11.9996
▁Schichten	-11.9999
▁geometr	-12.0007
lvani	-12.0008
▁sa	-12.001
▁Far	-12.001
achtung	-12.0012
▁Han	-12.0016
▁irgend	-12.0017
▁sketch	-12.0017
▁blink	-12.0017
▁virtue	-12.0022
Welt	-12.0023
▁exam	-12.0023
▁180	-12.0025
▁beginne	-12.0026
vergrößern	-12.0027
Herangehensweise	-12.0027
▁Bakterium	-12.0027
▁Margaret	-12.0027
▁Matrix	-12.0027
▁Michelangelo	-12.0027
▁Philadelphia	-12.0027
▁bräuchte	-12.0027
▁burden	-12.0027
▁crawl	-12.0027
▁dilemma	-12.0027
▁glimpse	-12.0027
▁remix	-12.0027
▁verwirrt	-12.0027
▁Dopamin	-12.0027
▁confirm	-12.0027
▁tattoo	-12.0027
▁Goliath	-12.0027
▁cotton	-12.0027
▁versetzt	-12.0027
▁Court	-12.0027
▁twenty	-12.0027
▁crush	-12.0027
▁impressive	-12.0027
▁rethink	-12.0027
▁Königreich	-12.0027
▁fotografiere	-12.0027
▁akademische	-12.0027
▁phosphorus	-12.0027
▁canopy	-12.0027
▁Panik	-12.0027
▁speichern	-12.0027
▁uralte	-12.0027
▁shout	-12.0027
▁Garage	-12.0028
Krankenschwester	-12.0028
▁Ernte	-12.0028
▁Sorte	-12.0028
▁Sturm	-12.0028
▁Warren	-12.0028
Gordon	-12.0029
▁ausgezeichnet	-12.0029
landschaft	-12.003
▁Liter	-12.003
▁Vega	-12.003
▁nano	-12.0031
▁geek	-12.0032
▁slime	-12.0033
▁Autobahn	-12.0034
▁jet	-12.0034
▁Astronom	-12.0034
▁prevention	-12.0034
▁pad	-12.0035
▁LKW	-12.0035
▁rubber	-12.0037
▁eingeschlossen	-12.0037
▁programmiert	-12.0038
▁1991	-12.0039
▁effizienter	-12.0039
▁Hmm	-12.004
geräte	-12.0041
▁aktivier	-12.0041
▁Hersteller	-12.0041
▁competitive	-12.0043
▁blogs	-12.0046
▁winning	-12.0047
▁cod	-12.0048
▁serving	-12.0049
▁Symbole	-12.0049
▁streiten	-12.005
wir	-12.0052
▁static	-12.0054
▁arrow	-12.0056
▁97	-12.0057
▁tagg	-12.006
▁instantly	-12.0062
▁nutzte	-12.0068
▁wedding	-12.007
▁Grab	-12.0071
▁anticipate	-12.0075
▁settle	-12.0076
▁hunter	-12.0076
▁navigate	-12.008
ago	-12.0081
▁verbrennen	-12.0082
▁6.	-12.0082
▁Bach	-12.0083
bereiten	-12.0085
▁lauter	-12.0093
▁ultimative	-12.0093
▁körperlich	-12.0094
urg	-12.0095
ros	-12.0097
▁Abu	-12.0098
four	-12.0099
▁naive	-12.0102
▁5.	-12.0102
▁rose	-12.0103
▁Listen	-12.0104
Test	-12.0105
▁gleicher	-12.0106
▁schau	-12.0108
▁aktiviert	-12.0109
▁tödliche	-12.0117
▁rennen	-12.0125
set	-12.0128
hnen	-12.013
transportieren	-12.0131
teile	-12.0131
ddy	-12.0131
▁par	-12.0132
▁Zentral	-12.0132
▁Jon	-12.0133
Ma	-12.0134
▁infection	-12.0136
▁Dis	-12.0137
▁meint	-12.014
▁redete	-12.0144
prozess	-12.0148
▁chas	-12.0148
▁corporations	-12.0148
sse	-12.0151
▁Verb	-12.0151
▁Welten	-12.0153
▁basieren	-12.0158
▁bath	-12.0159
▁ankommen	-12.016
▁140	-12.0167
urkey	-12.0167
▁kluge	-12.0167
park	-12.0167
▁explode	-12.0168
leitung	-12.0168
▁bot	-12.017
▁Privat	-12.017
▁ethnic	-12.0172
▁ecological	-12.0172
▁ne	-12.0173
jo	-12.0173
frozen	-12.0176
▁Gestalt	-12.0179
▁angel	-12.018
▁makers	-12.0182
mitglieder	-12.0182
▁organisierte	-12.0182
▁Schiffe	-12.0184
▁Fußball	-12.0184
▁vari	-12.0185
netzwerk	-12.0195
▁Falle	-12.0195
▁dial	-12.0197
▁Ann	-12.0197
fordern	-12.0198
▁UV	-12.0202
▁jüngere	-12.0203
rwärmung	-12.0204
aktivität	-12.0204
▁luxur	-12.0204
▁Sudan	-12.0204
▁Tibet	-12.0204
▁Phantom	-12.0205
▁territor	-12.0205
▁CRISPR	-12.0205
▁Palestinian	-12.0205
▁Spanish	-12.0205
▁Teppich	-12.0205
▁Tsunami	-12.0205
▁Zentimeter	-12.0205
▁awkward	-12.0205
▁beeindruckt	-12.0205
▁beschleunigen	-12.0205
▁bewältigen	-12.0205
▁gefolg	-12.0205
▁pharmaceutical	-12.0205
▁pizza	-12.0205
▁prosthetic	-12.0205
▁shrink	-12.0205
▁steigern	-12.0205
▁unprecedented	-12.0205
▁wörtlich	-12.0205
▁Expedition	-12.0205
▁schwanger	-12.0205
▁Hawking	-12.0205
▁ubiquitous	-12.0205
▁Immunsystem	-12.0205
▁straightforward	-12.0205
▁Kühe	-12.0205
▁Auflösung	-12.0205
▁Selektion	-12.0205
▁cruel	-12.0206
▁Luxus	-12.0206
bruch	-12.0206
▁marry	-12.0206
▁betonen	-12.0206
▁Redner	-12.0206
▁gods	-12.0206
▁Ram	-12.0206
▁watt	-12.0207
▁sponsor	-12.0207
▁visualization	-12.0207
▁terrifying	-12.0207
blatt	-12.0208
▁Anwälte	-12.0208
▁Chor	-12.0208
gereist	-12.0209
▁agreement	-12.0209
slosigkeit	-12.0209
▁intensiv	-12.021
▁archive	-12.021
▁gewohnt	-12.021
▁Hilfs	-12.0211
▁disconnect	-12.0211
▁stärkste	-12.0214
▁Asian	-12.0214
▁Rollstuhl	-12.0214
▁funktionierende	-12.0216
▁Galerie	-12.0216
▁athlete	-12.0217
▁enterprise	-12.0218
▁geprägt	-12.0221
▁Dick	-12.0223
▁versch	-12.0224
▁200,000	-12.0225
▁Journalist	-12.0225
▁brillante	-12.0226
▁endless	-12.0227
cost	-12.0227
▁2,5	-12.023
▁scanner	-12.0231
▁Schw	-12.0232
▁gesucht	-12.0233
dia	-12.0234
▁dedicate	-12.0236
▁transportiert	-12.0237
fiel	-12.0246
▁Brücken	-12.025
▁Banken	-12.0253
▁Türke	-12.0257
▁umfassende	-12.026
▁Bombe	-12.0263
▁Christ	-12.0273
▁previously	-12.0276
▁ba	-12.0278
▁Wichtig	-12.0279
klang	-12.0282
▁100-	-12.0283
▁Fehl	-12.0283
▁Schokolade	-12.0284
▁Nature	-12.0285
▁Glaube	-12.029
▁behauptet	-12.0296
▁Blogs	-12.0298
▁Handels	-12.0299
loved	-12.0301
▁zuzu	-12.0301
▁Briefe	-12.0309
▁Weiße	-12.0314
▁universelle	-12.0314
▁educat	-12.0314
iff	-12.0315
▁Merkmale	-12.0316
▁Algorithm	-12.0317
▁Marine	-12.032
▁Nadi	-12.032
ford	-12.0323
▁gigantische	-12.0323
▁Eu	-12.0324
▁freiwillig	-12.0327
▁goat	-12.0336
▁gib	-12.0341
cker	-12.0345
läuf	-12.0346
▁Neanderthal	-12.0349
tick	-12.0351
kamen	-12.0351
▁Slums	-12.0353
▁Vorbild	-12.0354
▁Parlament	-12.0355
▁spontan	-12.0358
▁unver	-12.0359
▁Danke	-12.0364
▁glamourös	-12.0368
▁Nest	-12.0369
therapie	-12.037
▁1.2	-12.0374
▁genaue	-12.0374
▁supplie	-12.0374
▁seas	-12.0375
▁Mär	-12.038
▁blank	-12.0386
geschrieben	-12.0386
fabrik	-12.0387
▁OECD	-12.0387
▁Babbage	-12.0387
▁Behauptung	-12.0387
▁Edinburgh	-12.0387
▁Fettleibigkeit	-12.0387
▁Nichol	-12.0387
▁Peace	-12.0387
▁RNA	-12.0387
▁Sowjet	-12.0387
▁Venezuela	-12.0387
▁ausgestorben	-12.0387
▁benannt	-12.0387
▁ceremon	-12.0387
▁despair	-12.0387
▁ermutigt	-12.0387
▁neuroscientist	-12.0387
▁verstärkt	-12.0387
▁zutiefst	-12.0387
▁Power	-12.0387
▁spiral	-12.0387
▁storytelling	-12.0387
▁Stabilität	-12.0387
▁cousin	-12.0387
▁harness	-12.0387
▁zwanzig	-12.0387
▁daneben	-12.0387
▁flourish	-12.0387
▁releas	-12.0387
▁geformt	-12.0387
▁prüfen	-12.0387
entropy	-12.0387
▁Audio	-12.0387
▁Einführung	-12.0388
▁Roger	-12.0388
▁stole	-12.0388
▁Vertrag	-12.0388
▁Gleich	-12.0388
▁Tiefsee	-12.0388
nfolge	-12.0388
▁Blitz	-12.0388
▁Leban	-12.0388
▁compress	-12.0388
▁Somalia	-12.0389
▁steer	-12.0389
▁Barbar	-12.039
▁Food	-12.039
aeda	-12.0391
▁punch	-12.0391
▁bislang	-12.0392
▁Pfad	-12.0392
▁wahrhaftig	-12.0394
▁shore	-12.0396
▁Regime	-12.0396
gelassen	-12.0402
fähigkeit	-12.0402
▁Kino	-12.0403
ennig	-12.0403
▁dynamisch	-12.0403
▁Israeli	-12.0407
▁arise	-12.0408
▁occasion	-12.0409
▁guns	-12.0409
▁ironisch	-12.0409
▁Club	-12.041
▁Wüsten	-12.0411
▁sill	-12.0412
▁Reform	-12.0412
▁Flut	-12.0412
▁Interface	-12.0414
räumen	-12.0415
▁teilte	-12.0415
▁125	-12.0416
▁reine	-12.0417
hren	-12.0417
▁1,2	-12.0417
▁Schlagzeilen	-12.0419
▁leise	-12.0421
probleme	-12.0421
▁contribut	-12.0423
▁mitzu	-12.0425
▁overwhelming	-12.0426
▁visuell	-12.0433
▁flipp	-12.0434
▁Ta	-12.0435
▁Grundlagen	-12.0436
▁18.	-12.0436
▁update	-12.0438
▁cooperate	-12.0438
▁SP	-12.0438
▁wiegt	-12.0445
▁Selbstmord	-12.0451
lock	-12.0453
▁fokussier	-12.0454
▁Lehrerin	-12.0461
fällig	-12.0464
human	-12.0465
▁Spitzen	-12.0466
▁hierarch	-12.0466
▁liebste	-12.0466
worth	-12.0466
▁gewachsen	-12.0467
▁beteilig	-12.0471
▁hervorruf	-12.0471
ierende	-12.0472
▁strongly	-12.0473
▁langfristig	-12.0478
▁1.5	-12.0479
▁lese	-12.0483
▁mechanische	-12.0483
▁billige	-12.0485
rö	-12.0487
▁59	-12.0488
anz	-12.0489
▁uniform	-12.0498
▁bell	-12.0503
▁burned	-12.0504
▁Khan	-12.0505
▁Palm	-12.0505
▁survived	-12.0507
▁mentor	-12.0509
vo	-12.051
▁theoretisch	-12.0512
▁journal	-12.0513
▁Mur	-12.0516
▁Kr	-12.0518
▁Ost	-12.052
▁schneide	-12.0522
▁Gründer	-12.0526
öl	-12.0528
weit	-12.053
▁communicat	-12.053
▁IT	-12.0533
▁blogg	-12.054
▁alarm	-12.054
▁fließen	-12.054
effekt	-12.0541
gründe	-12.0543
▁Fahr	-12.0543
▁breit	-12.0546
▁begu	-12.0547
▁compet	-12.0551
▁taucht	-12.0552
unt	-12.0554
▁auswähle	-12.0555
▁slums	-12.0556
▁Gelände	-12.056
nutzung	-12.0563
▁Pra	-12.0563
▁einnehmen	-12.0563
▁fassen	-12.0567
gun	-12.0567
▁crystal	-12.0572
▁Glamour	-12.0572
▁Götter	-12.0572
▁Jäger	-12.0572
▁Notwendigkeit	-12.0572
▁Portrait	-12.0572
▁Spanien	-12.0572
▁bzw	-12.0572
▁encouraging	-12.0572
▁gorgeous	-12.0572
▁konsumieren	-12.0572
▁kosmische	-12.0572
▁microphone	-12.0572
▁precious	-12.0572
▁Ethik	-12.0572
▁Tokyo	-12.0572
▁gelegentlich	-12.0572
▁ähnelt	-12.0572
▁Cousin	-12.0572
▁Graham	-12.0572
▁delay	-12.0572
▁Murray	-12.0572
▁Nachmittag	-12.0572
▁Vieh	-12.0572
▁Feder	-12.0572
▁silver	-12.0573
▁Transformation	-12.0573
▁ongoing	-12.0573
▁Nervensystem	-12.0573
▁redesign	-12.0573
▁tiger	-12.0573
▁Tinte	-12.0574
▁schuldig	-12.0574
▁proposition	-12.0574
▁Zelt	-12.0575
▁Friday	-12.0575
▁gentleman	-12.0575
▁zusammenfassen	-12.0575
▁1975	-12.0575
▁unfold	-12.0575
▁sail	-12.0576
▁frontier	-12.0577
▁aufgezeichnet	-12.0577
▁jedermann	-12.0577
▁loose	-12.0578
▁ernste	-12.0578
▁Tempe	-12.0578
▁campus	-12.0578
▁Kalorien	-12.0579
▁upload	-12.058
führer	-12.0581
▁interconnected	-12.0582
▁Inder	-12.0583
▁Investoren	-12.0584
kologi	-12.0585
▁log	-12.0586
▁leaf	-12.0588
▁nette	-12.0589
▁bewiesen	-12.059
▁externe	-12.0591
▁markiert	-12.0592
▁identifiziert	-12.0595
▁transformative	-12.0595
▁Love	-12.0597
▁Peru	-12.0597
▁bowl	-12.0598
iest	-12.0601
▁hardest	-12.0601
▁Klassen	-12.0603
kampf	-12.0605
verkehr	-12.0606
denkst	-12.0608
▁drüber	-12.0609
▁administration	-12.0613
fügen	-12.0615
▁7.	-12.0616
▁jagen	-12.0617
kosysteme	-12.0621
▁internet	-12.0621
▁server	-12.0623
▁Energien	-12.0624
dis	-12.0625
▁900	-12.0626
▁Nachbar	-12.0628
▁chef	-12.0637
▁Drohnen	-12.0644
▁Mott	-12.0645
▁kostenlose	-12.0646
▁simulate	-12.0647
▁Pub	-12.0649
venue	-12.065
Zahl	-12.0652
▁Eine	-12.0653
filter	-12.0653
▁entscheide	-12.0653
▁jaw	-12.0654
äre	-12.0654
▁Kommentare	-12.0656
▁mayor	-12.0657
ini	-12.0657
place	-12.0659
▁Walk	-12.066
▁schwache	-12.066
lit	-12.0664
▁Vorfahr	-12.0667
drive	-12.0667
▁Fakt	-12.0669
ain	-12.0669
erin	-12.0673
pel	-12.0676
known	-12.0676
▁offering	-12.0679
▁Dimension	-12.0681
nahme	-12.0683
▁Pri	-12.0684
▁Schafe	-12.0687
tu	-12.0689
▁Here	-12.0694
▁Schwein	-12.0695
▁bedeutend	-12.0696
zeitig	-12.0699
allererst	-12.07
▁wandern	-12.0702
▁Atome	-12.0705
▁Bürgerkrieg	-12.0705
ahn	-12.0706
dad	-12.0711
▁founder	-12.0712
▁disgust	-12.0713
▁tooth	-12.0717
are	-12.0721
lon	-12.0722
▁bless	-12.0724
▁erlaubte	-12.0725
▁sorgt	-12.0727
▁Archiv	-12.0727
▁tight	-12.0728
trinken	-12.0729
▁geringer	-12.0732
▁headed	-12.0732
▁drag	-12.0736
▁Treibhausgase	-12.0739
▁Schreib	-12.0744
fliegen	-12.0745
▁temporar	-12.0746
▁Hang	-12.0747
lium	-12.0747
▁teenage	-12.0749
risiko	-12.0749
▁ag	-12.0752
▁beizu	-12.0754
▁klick	-12.0755
▁Model	-12.0755
▁Berührung	-12.0756
▁veröffentlichte	-12.0756
▁Golden	-12.0757
urchmesser	-12.0757
▁phenomena	-12.0757
oung	-12.076
rechnung	-12.076
hantom	-12.076
▁mineral	-12.0761
krebs	-12.0761
▁leather	-12.0761
kapital	-12.0761
▁Armstrong	-12.0761
▁Gegner	-12.0761
▁Pittsburgh	-12.0761
▁Republikaner	-12.0761
▁Richtlinie	-12.0761
▁Swiss	-12.0761
▁Urlaub	-12.0761
▁Verletzlichkeit	-12.0761
▁Verpflichtung	-12.0761
▁angewandt	-12.0761
▁ausgestattet	-12.0761
▁intrinsic	-12.0761
▁substantial	-12.0761
▁synthetische	-12.0761
▁vergrößert	-12.0761
▁Anliegen	-12.0761
▁multiply	-12.0761
▁protocell	-12.0761
▁flavor	-12.0761
▁Wohnzimmer	-12.0761
▁Renaissance	-12.0761
▁BMW	-12.0761
▁Lester	-12.0761
▁Zehen	-12.0761
▁defeat	-12.0761
▁Methan	-12.0761
▁Verlangen	-12.0761
▁texture	-12.0762
▁unconscious	-12.0762
▁witzig	-12.0762
▁align	-12.0762
▁punishment	-12.0762
▁Brazilian	-12.0762
▁tätig	-12.0762
▁Vinci	-12.0762
▁jewel	-12.0762
▁Data	-12.0763
▁Entropie	-12.0763
▁proposal	-12.0763
▁Oliver	-12.0763
▁Tempel	-12.0763
stream	-12.0763
▁ecolog	-12.0764
▁sank	-12.0765
▁Ana	-12.0766
▁Völkermord	-12.0766
▁thus	-12.0768
einheit	-12.0768
▁Jazz	-12.0768
▁drought	-12.0769
▁upward	-12.0769
▁Graph	-12.077
▁erschafft	-12.077
▁Rechnung	-12.077
▁mesh	-12.0772
▁JA	-12.0772
▁ka	-12.0773
▁altitude	-12.0773
▁lowest	-12.0773
▁Hindu	-12.0775
▁Primaten	-12.078
▁menschlich	-12.0781
▁Diät	-12.0781
▁Seide	-12.0783
▁Gebäudes	-12.0784
▁zehntausende	-12.0784
face	-12.0784
▁Cape	-12.0786
menschen	-12.0788
▁unendliche	-12.0789
▁häufigste	-12.0789
je	-12.079
▁beschleunigt	-12.0791
▁restaurants	-12.0792
▁Kritiker	-12.0792
▁Tipp	-12.0792
▁fault	-12.0795
lösung	-12.0796
▁gesünder	-12.0801
▁beating	-12.0802
▁manag	-12.0803
▁heim	-12.0804
▁Geschlechts	-12.0805
▁Wochenende	-12.0805
▁worri	-12.0807
▁giftige	-12.0808
▁wrapp	-12.0816
▁ausser	-12.0816
union	-12.0817
af	-12.0818
▁pursui	-12.0819
▁bucks	-12.0819
isierte	-12.082
erfolg	-12.0823
▁Einkommens	-12.0824
▁Erbe	-12.0827
▁Feinde	-12.083
fold	-12.0835
▁Hol	-12.0836
nerkennung	-12.0837
karte	-12.0839
▁grati	-12.0843
luft	-12.0845
▁Strecke	-12.0845
▁Lebensform	-12.0848
▁cue	-12.0849
▁formt	-12.0859
▁destiny	-12.0861
▁ankam	-12.0861
▁bombs	-12.0861
▁holte	-12.0862
▁lit	-12.0862
▁herab	-12.0864
frei	-12.0867
▁Texte	-12.0867
utzung	-12.0871
▁Wolke	-12.0871
icher	-12.0873
▁sichere	-12.0877
▁Restaurants	-12.0879
▁maxim	-12.0881
stechnologie	-12.0884
bye	-12.0884
▁Beck	-12.0885
▁Kochen	-12.0886
freund	-12.0889
▁Rome	-12.089
regen	-12.089
▁spirituelle	-12.0892
▁announce	-12.0893
wan	-12.0894
▁tale	-12.0895
▁Mil	-12.0896
▁64	-12.0899
▁Ham	-12.09
werten	-12.0902
▁recogniz	-12.0905
▁traits	-12.0906
▁float	-12.0906
▁Stu	-12.091
▁gemeint	-12.0912
▁Mittlere	-12.0913
▁kit	-12.0916
▁Innere	-12.0918
▁Hof	-12.0919
▁cube	-12.092
tischen	-12.092
▁Tit	-12.0922
▁Züge	-12.0924
▁Anlage	-12.0926
▁Les	-12.0929
▁danken	-12.0931
▁jumped	-12.0934
geber	-12.0949
gefunden	-12.0949
▁lap	-12.0951
▁reconstruct	-12.0952
▁Vernunft	-12.0953
▁Käse	-12.0953
▁Dschihad	-12.0953
▁Fledermäuse	-12.0953
▁Intervention	-12.0953
▁Nairobi	-12.0953
▁Securit	-12.0953
▁Social	-12.0953
▁Wünsche	-12.0953
▁beschädigt	-12.0953
▁cigarette	-12.0953
▁executive	-12.0953
▁pencil	-12.0953
▁potato	-12.0953
▁smartphone	-12.0953
▁wahnsinnig	-12.0953
▁woanders	-12.0953
▁Schöpfung	-12.0953
▁Sklaverei	-12.0953
▁censor	-12.0953
▁garantiert	-12.0953
▁peinlich	-12.0953
▁temple	-12.0953
▁verarbeitet	-12.0953
▁Pizza	-12.0953
▁insulin	-12.0953
▁russische	-12.0953
▁beängstigend	-12.0953
▁calorie	-12.0953
▁Zimbabwe	-12.0953
▁Durchbruch	-12.0953
▁hungrig	-12.0953
▁torture	-12.0953
▁breakfast	-12.0953
▁Atomenergie	-12.0953
▁Princeton	-12.0953
▁Einladung	-12.0953
▁excitement	-12.0954
▁Partikel	-12.0954
▁elementary	-12.0954
▁calm	-12.0954
▁microbi	-12.0954
▁relief	-12.0954
▁glue	-12.0954
▁Arian	-12.0955
▁recall	-12.0955
▁peaceful	-12.0955
▁Milk	-12.0955
▁Massac	-12.0956
▁ausländische	-12.0957
▁DJ	-12.0957
lapse	-12.0957
▁wheat	-12.0959
▁grandparents	-12.0961
▁durchlaufen	-12.0962
▁ethische	-12.0965
lei	-12.0965
▁Trade	-12.0966
immer	-12.0967
reise	-12.0969
▁branches	-12.0969
▁comedy	-12.0969
▁determin	-12.097
▁beherrschen	-12.097
▁Dokument	-12.0976
etts	-12.0978
▁Flüchtlinge	-12.0981
chte	-12.0985
▁Mari	-12.0985
▁bescheiden	-12.0986
▁metric	-12.0987
▁Messung	-12.0987
▁natürlicher	-12.0989
▁vierten	-12.099
▁Hass	-12.099
▁prayer	-12.099
▁Zunge	-12.0992
▁klappt	-12.0993
Women	-12.0993
sani	-12.0995
va	-12.0996
▁allererste	-12.0998
▁brush	-12.1
▁Straf	-12.1
▁coach	-12.1003
▁wipe	-12.1004
▁Gedichte	-12.1009
▁Tiefen	-12.1009
▁ignoriert	-12.101
▁fundamentale	-12.1011
▁verpflichtet	-12.1013
eil	-12.1013
▁Peer	-12.1014
▁Home	-12.1017
tik	-12.1018
▁pos	-12.102
▁Enc	-12.1023
▁Brennstoffe	-12.1028
▁manufacturer	-12.1028
▁Tra	-12.1028
▁riech	-12.1029
▁Vorlesung	-12.103
▁atom	-12.103
▁formation	-12.1032
▁Rakete	-12.1035
▁interaktive	-12.1035
▁bestehende	-12.1038
craft	-12.1039
ay	-12.1039
▁historisch	-12.104
▁Islands	-12.1041
▁Kauf	-12.1041
lagert	-12.1043
▁Kollege	-12.1043
▁sauber	-12.1045
▁container	-12.1045
▁Rituale	-12.1048
code	-12.1049
▁abschließen	-12.1049
scanning	-12.1053
▁loszu	-12.1055
▁camps	-12.1055
▁Skulpturen	-12.1056
▁Philosoph	-12.1059
ori	-12.1059
▁Biolog	-12.1062
▁einig	-12.1065
versuch	-12.1069
▁surf	-12.1073
eben	-12.1075
▁unerwartete	-12.1079
▁Datenbank	-12.1079
itis	-12.1083
▁hob	-12.1084
zusehen	-12.1084
wind	-12.1084
haltung	-12.1085
aba	-12.1085
▁relation	-12.1086
egel	-12.1089
▁probe	-12.1093
▁rasch	-12.1094
von	-12.1095
▁versteckte	-12.1095
text	-12.1097
▁delivery	-12.1102
▁tödlich	-12.1103
▁angemessen	-12.1107
▁Spin	-12.1109
zuarbeiten	-12.1111
▁puzzles	-12.1115
werfen	-12.1116
▁Bausteine	-12.1117
bus	-12.1118
▁Bestandteil	-12.1121
▁unhapp	-12.1126
▁Klimawandels	-12.1127
▁Minen	-12.1127
zumachen	-12.1129
ngste	-12.1129
▁origins	-12.1134
▁socially	-12.1134
▁meme	-12.1139
▁tiefste	-12.1139
cca	-12.114
▁ernsthafte	-12.1142
▁zugrunde	-12.1146
▁Höhen	-12.1147
haufen	-12.1148
▁disagree	-12.1148
▁Bezirk	-12.1149
▁Industrial	-12.1149
▁Melodie	-12.1149
▁Smartphone	-12.1149
▁divorce	-12.1149
▁eingeschränkt	-12.1149
▁stomach	-12.1149
▁swallow	-12.1149
▁verletzen	-12.1149
▁absence	-12.1149
▁beruht	-12.1149
▁crab	-12.1149
▁minimum	-12.1149
▁Erlaub	-12.1149
▁Coast	-12.1149
▁Dankeschön	-12.1149
▁Einzige	-12.1149
▁carpet	-12.1149
▁transmission	-12.1149
▁division	-12.1149
▁Morgan	-12.1149
▁collision	-12.1149
▁descend	-12.1149
▁Schweigen	-12.1149
uadratmeter	-12.1149
verbindung	-12.1149
▁Neigung	-12.1149
▁angeboten	-12.115
▁kingdom	-12.115
▁Barack	-12.115
▁membrane	-12.115
▁steuert	-12.115
▁Klänge	-12.115
▁Lead	-12.115
▁antenna	-12.115
▁Matz	-12.1151
▁zuhause	-12.1151
▁Leder	-12.1152
▁Christopher	-12.1152
▁Royal	-12.1152
▁doors	-12.1152
▁insane	-12.1154
▁Cuba	-12.1154
▁58	-12.1155
▁hinterher	-12.1155
▁fertilizer	-12.1156
▁3.000	-12.1156
▁Rente	-12.1157
▁Gross	-12.1157
▁drunk	-12.1157
▁Antarktis	-12.1158
▁Filmemacher	-12.1159
▁Word	-12.116
▁Logo	-12.1161
▁Freundschaft	-12.1163
▁dependenc	-12.1164
▁controversial	-12.1164
▁Pandemie	-12.1166
▁Versprechen	-12.1167
▁Stammes	-12.1167
▁tutor	-12.1168
▁umfasst	-12.117
ette	-12.1171
▁Pier	-12.1171
▁specialist	-12.1175
▁Best	-12.1179
▁Ufer	-12.1181
▁anschließend	-12.1181
▁celebrat	-12.1181
▁Rod	-12.1183
igung	-12.1184
▁Point	-12.1185
▁gebunden	-12.1185
▁referr	-12.1188
▁landscapes	-12.1188
▁Geburts	-12.119
▁steam	-12.1191
▁Lehr	-12.1193
▁transmit	-12.1194
▁Farmer	-12.1197
Kortex	-12.1199
jenige	-12.12
▁analyz	-12.1201
lag	-12.1203
▁günstig	-12.1213
▁spike	-12.1213
▁derjenige	-12.1213
▁dating	-12.1214
zeichnen	-12.1218
▁tubes	-12.1221
▁Agn	-12.1223
▁cows	-12.1227
▁Landschaften	-12.1227
▁replac	-12.1233
nia	-12.1233
▁mutig	-12.1238
▁Studierenden	-12.1238
▁Impuls	-12.1241
▁prepar	-12.1241
Up	-12.1244
▁kommende	-12.125
▁Moon	-12.1251
▁kommerzielle	-12.1253
▁vollständige	-12.1254
▁schlimmste	-12.1258
▁commit	-12.1258
▁Kommentar	-12.1259
dichte	-12.126
▁trap	-12.1265
▁überlegt	-12.1266
▁geb	-12.1266
▁kritisch	-12.1266
▁reiche	-12.1268
▁merkt	-12.1274
ath	-12.1276
AC	-12.1279
▁radi	-12.1281
▁gegenwärtige	-12.1287
▁bug	-12.1292
▁schlechtes	-12.1292
▁outer	-12.1294
smethode	-12.1294
▁penguin	-12.13
▁eradicat	-12.1303
▁Marco	-12.1307
bai	-12.1312
▁Interessantes	-12.1312
▁materielle	-12.1313
▁kiss	-12.1314
ways	-12.1314
▁fatal	-12.1317
▁distribut	-12.1317
NG	-12.1318
tiere	-12.1322
hang	-12.1325
▁Haushalt	-12.1327
▁remarkabl	-12.1328
▁worrying	-12.1329
▁Kurse	-12.133
▁visualize	-12.1332
▁farming	-12.1334
▁Las	-12.1336
▁Bro	-12.1338
▁caves	-12.1339
information	-12.134
spiegel	-12.1341
▁psychopath	-12.1343
▁trauma	-12.1346
szeit	-12.1348
▁punish	-12.1348
▁terra	-12.1348
eopard	-12.1349
▁Virgin	-12.1349
▁leuchten	-12.1349
▁Anwalt	-12.1349
▁Bhutan	-12.1349
▁Buddhist	-12.1349
▁Carnegie	-12.1349
▁Geometrie	-12.1349
▁Hospital	-12.1349
▁Kyoto	-12.1349
▁angeblich	-12.1349
▁approximate	-12.1349
▁cocaine	-12.1349
▁deliberate	-12.1349
▁genuine	-12.1349
▁gestohlen	-12.1349
▁stattfand	-12.1349
▁verdoppeln	-12.1349
▁Applau	-12.1349
▁Schizophren	-12.1349
▁Vorgehensweise	-12.1349
▁Windows	-12.1349
▁Zipcar	-12.1349
▁Tunnel	-12.1349
▁strict	-12.1349
▁Taiwan	-12.1349
▁Großeltern	-12.1349
▁mutual	-12.1349
▁backyard	-12.1349
▁Biosphäre	-12.1349
▁venture	-12.1349
▁Linux	-12.1349
▁Mytho	-12.1349
▁foster	-12.135
▁Standort	-12.135
▁Monster	-12.135
▁anfangs	-12.135
▁fördert	-12.135
▁mainstream	-12.135
▁Franklin	-12.135
▁Weizen	-12.135
▁Iceland	-12.135
▁Antibiotika	-12.135
▁unklar	-12.135
▁Snowden	-12.135
-2	-12.135
▁Aristotel	-12.135
▁retirement	-12.135
▁brick	-12.135
▁negotiation	-12.135
▁translator	-12.1351
▁Rauschen	-12.1351
▁Four	-12.1351
▁Zoo	-12.1351
▁distinction	-12.1351
▁Jew	-12.1351
▁jünger	-12.1351
▁Aussehen	-12.1351
▁Stimmung	-12.1352
▁Konkurrenz	-12.1353
▁phenomenal	-12.1353
▁Bogen	-12.1354
▁heavi	-12.1354
▁Andy	-12.1357
▁gallon	-12.1359
▁schickt	-12.136
▁Ratte	-12.136
▁Swa	-12.1361
▁CC	-12.1363
freie	-12.1366
▁rannte	-12.1367
glasses	-12.1367
▁ueber	-12.1368
liste	-12.1369
▁überdenken	-12.1369
▁intent	-12.1369
pont	-12.1371
▁Nu	-12.1371
▁astronomer	-12.1372
▁dispos	-12.1372
▁Hausaufgaben	-12.1372
ake	-12.1376
▁Schalter	-12.1378
ept	-12.138
▁Rate	-12.1381
▁beeindruckende	-12.1383
▁convenient	-12.1384
makers	-12.1384
▁anonymous	-12.1384
eryl	-12.1385
▁Cooper	-12.1386
▁realistic	-12.1386
▁negotiate	-12.1387
▁recycling	-12.1388
ome	-12.1388
cast	-12.139
▁Denker	-12.1391
▁verleihen	-12.1391
▁zeichnete	-12.1391
▁Leon	-12.1392
gli	-12.1392
▁Pin	-12.1392
14	-12.1394
fahrt	-12.1394
▁Fremde	-12.1397
witz	-12.1399
▁richtet	-12.1401
▁packen	-12.1403
▁healing	-12.1411
▁Verkehrs	-12.1411
▁Rande	-12.1412
▁manner	-12.1418
lesen	-12.142
aida	-12.1422
sel	-12.1425
▁Rennen	-12.1425
▁embrac	-12.1425
▁interpretiere	-12.1427
ngesicht	-12.1428
etic	-12.143
▁infections	-12.1432
▁rechtliche	-12.1433
two	-12.1436
uan	-12.1437
▁Affe	-12.1438
▁gate	-12.1439
▁ac	-12.144
▁badly	-12.144
▁surgeons	-12.1444
coli	-12.1445
▁Mehr	-12.1446
▁Freiwilligen	-12.1451
▁Branche	-12.1451
▁Fl	-12.1455
ohn	-12.1458
drew	-12.1459
liches	-12.1461
egeister	-12.1464
▁untersuchte	-12.1466
▁circuits	-12.147
▁Vortrags	-12.1471
▁systematisch	-12.1478
▁Platten	-12.148
▁gelegt	-12.148
▁vorherige	-12.1491
emen	-12.1496
▁historic	-12.1499
Boot	-12.1506
▁pflanzen	-12.1508
▁Künstlerin	-12.1511
sprogramm	-12.1511
▁teurer	-12.1515
▁gesch	-12.1516
▁rettet	-12.1516
merkt	-12.1517
▁Meeting	-12.1517
▁remov	-12.1518
▁psychiatr	-12.1524
ridge	-12.1525
▁aufhört	-12.1525
▁port	-12.1528
▁Chi	-12.153
▁Roh	-12.1534
▁54	-12.1535
drehen	-12.1535
klären	-12.1538
medizin	-12.154
▁wesentliche	-12.1542
▁kon	-12.1543
▁optische	-12.1548
▁vorkommen	-12.1549
körper	-12.1551
vity	-12.1552
wick	-12.1553
kräfte	-12.1553
▁acoustic	-12.1553
▁schlicht	-12.1553
Veröffentlichung	-12.1553
▁DARPA	-12.1553
▁Dallas	-12.1553
▁Orleans	-12.1553
▁Pepsi	-12.1553
▁Premierminister	-12.1553
▁Stolz	-12.1553
▁Teszler	-12.1553
▁Tweet	-12.1553
▁artifact	-12.1553
▁demonstriert	-12.1553
▁empfangen	-12.1553
▁jihad	-12.1553
▁kopieren	-12.1553
▁nirgendwo	-12.1553
▁retreat	-12.1553
▁satisfy	-12.1553
▁structural	-12.1553
▁Konversation	-12.1553
▁storyteller	-12.1553
▁warrior	-12.1553
▁Tower	-12.1553
▁album	-12.1553
▁composition	-12.1553
▁assign	-12.1553
▁Skype	-12.1553
▁exposure	-12.1554
▁diagnostic	-12.1554
▁loving	-12.1554
▁Hafen	-12.1554
▁Lebensstil	-12.1554
▁canvas	-12.1554
▁Finanzierung	-12.1554
▁Rückenmark	-12.1554
▁Klar	-12.1554
mutter	-12.1554
▁Story	-12.1554
▁Nebel	-12.1555
▁prostate	-12.1555
▁Delfine	-12.1556
▁Out	-12.1556
▁Verstehen	-12.1556
aged	-12.1556
post	-12.1557
▁6,000	-12.1557
▁umgewandelt	-12.1557
▁Norman	-12.1558
▁logo	-12.1559
▁Würfel	-12.1559
▁nukleare	-12.156
▁planetary	-12.156
▁Teller	-12.1562
▁40,000	-12.1564
▁ta	-12.1565
▁AO	-12.1565
▁Rom	-12.1566
▁Reaktor	-12.1566
▁Sklaven	-12.1568
▁strain	-12.157
ronto	-12.1572
▁empfindlich	-12.1573
▁Histor	-12.1574
▁schwamm	-12.1575
▁Anders	-12.1579
▁millimeter	-12.158
▁Betrachter	-12.158
lte	-12.1581
▁kalte	-12.1581
▁eliminate	-12.1582
blasen	-12.1584
▁simpler	-12.1585
bou	-12.1586
frage	-12.1586
▁Ali	-12.1586
▁Algen	-12.1586
▁disability	-12.1588
▁Verhaltensweise	-12.1589
▁useless	-12.1589
RL	-12.1591
▁Trag	-12.1593
▁Roll	-12.1593
▁potentielle	-12.1595
▁zustimmen	-12.1595
▁stabilit	-12.1598
▁frisch	-12.1598
▁zuzuhören	-12.1599
▁planes	-12.1599
▁accelerate	-12.1602
zeug	-12.1605
▁Bahn	-12.1608
▁masse	-12.161
▁gerichtet	-12.1611
▁assist	-12.1613
lampe	-12.1615
oma	-12.1615
▁Betrachtung	-12.1621
▁frontal	-12.1621
aw	-12.1621
gas	-12.1622
fertig	-12.1624
▁identisch	-12.1629
▁hingeg	-12.1632
▁einfallen	-12.1632
▁Krebszelle	-12.1632
▁Kunstwerk	-12.1634
▁dünn	-12.1637
▁Elektro	-12.1637
▁betreffen	-12.1639
▁guck	-12.1641
▁mitgebracht	-12.1642
▁bite	-12.1643
▁24-	-12.1643
▁kämpft	-12.1644
▁Wei	-12.1649
▁hingeh	-12.165
▁raped	-12.1652
esis	-12.1654
▁rechnen	-12.1655
▁getrieben	-12.1655
▁gest	-12.1659
▁wi	-12.1662
▁Nahe	-12.1663
▁Skal	-12.1667
uß	-12.1669
▁existierte	-12.167
uit	-12.1671
▁Automobil	-12.1673
▁zweiter	-12.1676
▁Nigerian	-12.1677
▁comics	-12.168
ED	-12.1683
,500	-12.1685
▁Kolonien	-12.1686
▁greif	-12.1688
▁Brennstoff	-12.169
▁bush	-12.1691
▁hervorbring	-12.1695
▁Schrei	-12.1698
▁Comics	-12.1698
▁reporter	-12.1698
▁Army	-12.17
sammeln	-12.17
▁Wortes	-12.1704
▁diploma	-12.1706
labor	-12.1707
▁banker	-12.1709
anda	-12.171
▁Scot	-12.1714
▁hi	-12.1718
▁Robotern	-12.172
produkte	-12.1724
ically	-12.1726
liefert	-12.1727
▁fortgeschritten	-12.1728
zufügen	-12.173
▁sale	-12.1732
▁aspiration	-12.1733
▁donation	-12.1733
▁hum	-12.175
unk	-12.1751
lar	-12.1752
estate	-12.1756
▁Netze	-12.1756
▁frische	-12.1756
branche	-12.1756
▁bon	-12.1757
ante	-12.1759
▁Erfolge	-12.176
generieren	-12.1761
▁Beethoven	-12.1762
▁Behälter	-12.1762
▁Galapagos	-12.1762
▁Grösse	-12.1762
▁Medicine	-12.1762
▁Zealand	-12.1762
▁allgegenwärtig	-12.1762
▁cylinder	-12.1762
▁occupy	-12.1762
▁philanthropy	-12.1762
▁prescription	-12.1762
▁chunk	-12.1762
▁Hardware	-12.1762
▁verbrannt	-12.1762
▁suppress	-12.1762
▁syndrome	-12.1762
▁Meeresspiegel	-12.1762
▁Zustände	-12.1762
uh	-12.1762
▁Robotik	-12.1762
▁Office	-12.1762
▁bedroom	-12.1762
▁Intel	-12.1762
▁Mitleid	-12.1762
▁Freizeit	-12.1762
▁ausprobiert	-12.1763
▁Artenvielf	-12.1763
▁gefühlt	-12.1763
▁candle	-12.1764
▁frustration	-12.1765
assembl	-12.1765
▁sake	-12.1765
▁ansah	-12.1765
▁Beleuchtung	-12.1765
front	-12.1765
▁Titanic	-12.1766
▁boost	-12.1766
leau	-12.1767
▁Brett	-12.1767
nahm	-12.1768
▁übernommen	-12.1768
▁philosophical	-12.1768
▁cooler	-12.1768
▁atomic	-12.1769
▁grabb	-12.1769
▁tourist	-12.1769
▁Water	-12.177
▁Everglades	-12.177
▁religions	-12.1771
▁Gehalt	-12.1772
▁Cricket	-12.1775
▁breite	-12.1776
▁Indonesia	-12.1776
tausend	-12.1777
bringt	-12.1778
▁estimates	-12.1779
▁Kleider	-12.1779
▁weise	-12.1779
▁summarize	-12.1781
▁agieren	-12.1781
▁vertreten	-12.1783
selves	-12.1784
bergen	-12.1784
verteilung	-12.1784
istan	-12.1785
manda	-12.1792
▁verpasst	-12.1794
▁Runde	-12.1794
▁Jean	-12.1795
▁diagnostiziert	-12.1796
▁Mexican	-12.1799
▁Type	-12.1799
▁Balk	-12.1799
▁anfällig	-12.18
▁betrachte	-12.18
▁persönlicher	-12.1801
trick	-12.1802
▁Nieren	-12.1804
▁Dienste	-12.1806
▁erwischt	-12.1809
▁optimal	-12.181
▁gras	-12.1811
fried	-12.1812
▁cri	-12.1812
berfluss	-12.1821
▁illegale	-12.1822
ima	-12.1823
▁Schwimmen	-12.1824
wechsel	-12.1829
▁Korallenriffe	-12.1834
▁Ausschnitt	-12.184
geist	-12.1841
▁Pilz	-12.1842
▁bedeutsam	-12.1843
▁Med	-12.1846
▁Stop	-12.1846
▁Julie	-12.1848
▁ermöglichte	-12.185
▁auftreten	-12.1856
▁custom	-12.1857
▁Bart	-12.1857
▁weite	-12.186
▁Fahren	-12.186
▁mische	-12.1861
▁dressed	-12.1862
Source	-12.1864
▁rang	-12.1864
Feld	-12.1866
ehlen	-12.1867
Regierung	-12.1867
▁Freiwillige	-12.1868
view	-12.1868
▁Rasse	-12.187
block	-12.187
▁Ausgabe	-12.1877
krieg	-12.188
▁semi	-12.1881
▁weinen	-12.1882
▁finanziell	-12.1884
▁erreichte	-12.1884
▁Blume	-12.1885
▁Standards	-12.1887
▁Kurz	-12.1888
tanz	-12.1889
▁Alle	-12.1889
▁zueinander	-12.1889
▁sexuell	-12.1893
anlagen	-12.1895
wal	-12.1895
▁austausch	-12.1896
▁divid	-12.1899
ets	-12.1901
▁documentar	-12.1906
▁Geo	-12.1906
▁Tai	-12.1914
▁wirksam	-12.1914
gemeinschaft	-12.1927
▁Whit	-12.1929
▁dauerhaft	-12.193
sprochen	-12.1933
▁renewable	-12.1937
▁erlebte	-12.1943
▁shoe	-12.1943
▁Mau	-12.195
▁Te	-12.195
pfel	-12.1955
▁Kredit	-12.1955
▁reactor	-12.1957
▁äußere	-12.1957
haben	-12.1958
▁shak	-12.1958
lot	-12.1961
La	-12.1962
row	-12.1963
▁steigende	-12.1965
▁bust	-12.1965
zogen	-12.1968
lehnen	-12.1969
▁zusammenbring	-12.1971
▁skelet	-12.1973
▁distort	-12.1973
▁corrupt	-12.1973
ibati	-12.1974
▁AIMS	-12.1974
▁Beschäftigung	-12.1974
▁Hektar	-12.1974
▁Herbst	-12.1974
▁Hühner	-12.1974
▁Jersey	-12.1974
▁Katrina	-12.1974
▁Leinwand	-12.1974
▁Stickstoff	-12.1974
▁Sydney	-12.1974
▁Söhne	-12.1974
▁delicious	-12.1974
▁devastating	-12.1974
▁drastisch	-12.1974
▁encrypt	-12.1974
▁execute	-12.1974
▁explicit	-12.1974
▁gesunken	-12.1974
▁guitar	-12.1974
▁harbor	-12.1974
▁receptor	-12.1974
▁smiling	-12.1974
▁Lakota	-12.1974
▁gespeichert	-12.1974
▁pigeon	-12.1974
▁Jetzt	-12.1974
▁Librar	-12.1975
▁bathroom	-12.1975
▁Zusammenbruch	-12.1975
▁magnificent	-12.1975
▁stereotype	-12.1975
▁drown	-12.1975
▁beseitigen	-12.1975
▁proceed	-12.1975
▁priest	-12.1975
▁Jerry	-12.1975
▁pirate	-12.1975
▁lifespan	-12.1975
▁deception	-12.1975
▁pipeline	-12.1975
▁integrieren	-12.1975
▁salar	-12.1975
▁Lady	-12.1975
▁civilian	-12.1976
▁Notfall	-12.1976
▁Brook	-12.1976
▁Bemühung	-12.1978
▁ausgedrückt	-12.1978
▁coverage	-12.1979
▁erschwinglich	-12.198
▁examine	-12.1981
streifen	-12.1983
verläuf	-12.1983
▁Hin	-12.1984
▁romantische	-12.1985
▁Orbit	-12.1985
▁hub	-12.1986
▁Gesetzen	-12.1986
dauert	-12.199
▁Isa	-12.1992
▁interrupt	-12.1993
▁Acht	-12.1996
▁sensible	-12.1998
▁Brenn	-12.1999
▁Kandidaten	-12.2
qualität	-12.2003
▁Behörden	-12.2003
▁spezialisiert	-12.2005
▁Riff	-12.2006
take	-12.201
▁schütteln	-12.2014
▁Pinguin	-12.2016
grat	-12.2016
▁Trainings	-12.2018
▁proven	-12.2025
▁hervorragend	-12.2025
▁leitet	-12.203
▁Joel	-12.203
▁moralit	-12.203
zeigen	-12.2031
▁shower	-12.2033
phy	-12.2033
▁Verwandten	-12.2033
▁optical	-12.2035
▁processor	-12.2037
dra	-12.2046
▁aufgestellt	-12.205
▁effektive	-12.2053
nce	-12.2054
▁vorschlage	-12.2055
▁aktuell	-12.2056
▁shy	-12.2057
▁automat	-12.2059
schiff	-12.206
banish	-12.206
▁critic	-12.206
▁gek	-12.2062
▁mall	-12.2062
fehler	-12.2065
▁Glass	-12.2069
NN	-12.207
▁acre	-12.207
▁Stufen	-12.2076
▁BL	-12.2077
▁0	-12.2078
gram	-12.2081
▁litt	-12.2086
▁monitoring	-12.209
zimmer	-12.209
typ	-12.2091
▁begreife	-12.2093
kul	-12.2095
▁Zone	-12.2097
▁nützliche	-12.2097
▁Johann	-12.2097
▁Wissenschafts	-12.2098
aub	-12.2099
▁abschließend	-12.2101
FG	-12.2101
▁Naturschutz	-12.2103
kill	-12.2104
▁57	-12.2105
fest	-12.2106
▁printed	-12.2109
feuer	-12.2111
▁fordern	-12.2113
▁schlimme	-12.2114
▁weiterentwickel	-12.2114
▁beschrieb	-12.2114
▁Real	-12.2119
▁Parteien	-12.2119
▁2.0	-12.2123
see	-12.2125
▁Pilze	-12.2128
PL	-12.2132
▁Tu	-12.2132
▁retire	-12.2137
▁lustige	-12.2137
▁Darm	-12.214
ano	-12.2141
▁grant	-12.2147
▁1,3	-12.2148
▁Strafe	-12.2153
faktor	-12.2154
▁Sterben	-12.2166
▁Kämpfe	-12.2169
▁grad	-12.2174
uad	-12.2174
▁dynamische	-12.2174
fahr	-12.2175
▁Tauch	-12.2175
racing	-12.2175
▁Volks	-12.2177
▁dramatische	-12.2178
▁Gal	-12.2181
▁Rohstoffe	-12.2184
ssig	-12.2186
▁glu	-12.2189
▁jar	-12.2189
pläne	-12.2192
▁Pharma	-12.2192
kugel	-12.2192
▁Darfur	-12.2192
▁Dilemma	-12.2192
▁Dylan	-12.2192
▁Georgia	-12.2192
▁Guatemala	-12.2192
▁Matthew	-12.2192
▁Singapore	-12.2192
▁Tamiflu	-12.2192
▁Wahnsinn	-12.2192
▁demonstrieren	-12.2192
▁diarrhea	-12.2192
▁elevator	-12.2192
▁knife	-12.2192
▁purple	-12.2192
▁verwirklichen	-12.2192
▁Probanden	-12.2192
▁Atheist	-12.2192
▁Empire	-12.2192
▁Gramm	-12.2192
▁obtain	-12.2192
▁algae	-12.2192
▁Gaza	-12.2192
▁Künste	-12.2192
▁RIS	-12.2192
▁Bono	-12.2192
▁Nordpol	-12.2192
▁Panzer	-12.2192
▁Ryan	-12.2192
▁verdeutlich	-12.2192
▁emphasize	-12.2192
▁legitimate	-12.2192
▁trennt	-12.2192
▁Anwesenheit	-12.2192
▁hallucination	-12.2192
▁towel	-12.2192
▁Zuhören	-12.2192
▁girlfriend	-12.2192
▁Compan	-12.2192
▁Diana	-12.2193
▁Aussicht	-12.2193
▁Atlantik	-12.2193
▁prosperity	-12.2193
▁schützt	-12.2193
▁volcano	-12.2193
▁drucken	-12.2194
▁eventuell	-12.2194
▁scheme	-12.2194
▁investigation	-12.2194
dding	-12.2195
▁wahrgenommen	-12.2195
▁progressive	-12.2195
▁unlock	-12.2195
▁workshop	-12.2196
▁jungle	-12.2196
▁Erfolgs	-12.2196
▁angewendet	-12.2197
▁festhalten	-12.2197
▁kürzer	-12.2197
▁atheist	-12.2198
▁Action	-12.2198
▁Ground	-12.2199
▁Wähler	-12.2199
▁unheimlich	-12.2199
▁Kamel	-12.2199
▁disable	-12.2199
▁ausgelöst	-12.22
▁Amsterdam	-12.22
▁lächeln	-12.22
loch	-12.2202
▁confine	-12.2203
▁Erzähler	-12.2203
▁playful	-12.2207
▁Festival	-12.2208
▁monster	-12.2208
▁screw	-12.2208
▁30.000	-12.2208
▁quantit	-12.2209
▁Amerikanische	-12.221
▁umgesetzt	-12.2211
▁Kanal	-12.2213
▁zeichnet	-12.2213
▁Fels	-12.2215
▁Make	-12.2215
▁realization	-12.2216
▁hinab	-12.2218
▁depressiv	-12.2219
▁Fotograf	-12.2222
gerechnet	-12.2224
▁Elektroden	-12.2224
▁herkömmliche	-12.2229
▁embarrassing	-12.2236
▁trocken	-12.2241
▁jüdische	-12.2242
▁advanc	-12.2243
▁Mose	-12.2245
▁Videospiel	-12.2247
▁FO	-12.2259
▁regulate	-12.226
▁indoor	-12.2261
▁wählt	-12.2261
▁drahtlose	-12.2262
▁fett	-12.2264
▁informal	-12.2264
▁manipulier	-12.2268
▁Beute	-12.227
▁Magen	-12.227
▁Schach	-12.2271
▁handelte	-12.2274
▁Raumschiff	-12.2274
schnitt	-12.2276
▁germ	-12.2278
▁isolat	-12.228
KA	-12.2282
▁Kal	-12.2284
step	-12.2284
▁Cor	-12.2284
fuhr	-12.2291
▁vermischt	-12.2294
▁Rebe	-12.2299
organiz	-12.2302
Industrie	-12.2305
▁Pyramide	-12.2305
Team	-12.2305
glaubt	-12.2305
▁Argumente	-12.2305
gearbeitet	-12.2306
Seite	-12.2306
▁fee	-12.2307
▁unbekannt	-12.231
▁Roy	-12.2311
▁kindness	-12.2312
finden	-12.2313
▁interessierte	-12.2314
Mo	-12.2315
bungen	-12.2315
▁unangenehm	-12.232
▁beschäftigte	-12.2321
▁maker	-12.2323
▁trad	-12.2323
▁juice	-12.2324
willig	-12.2324
▁Paare	-12.2325
▁individuell	-12.2327
▁riechen	-12.2328
▁Fried	-12.2328
▁bringe	-12.2337
▁Bali	-12.2338
jahr	-12.234
ellen	-12.2343
▁überlasse	-12.2347
▁ideolog	-12.2355
world	-12.2356
▁fremde	-12.2362
▁fires	-12.2363
issen	-12.2363
80	-12.2364
foto	-12.2364
▁overwhelm	-12.2367
pul	-12.237
Karte	-12.2371
▁Rechts	-12.2376
▁Kram	-12.2379
cke	-12.238
▁kreativer	-12.2385
▁Dokumente	-12.2386
▁50-	-12.2386
▁attraktiv	-12.24
▁Anfänge	-12.2401
▁sw	-12.2404
nerzähler	-12.2406
▁Pf	-12.2406
zugleich	-12.2409
▁squeeze	-12.2412
▁Ersatz	-12.2413
▁champion	-12.2414
▁Feuerwehr	-12.2414
▁Gummi	-12.2414
gelöscht	-12.2414
▁Agenda	-12.2414
▁Arizona	-12.2414
▁Dürre	-12.2414
▁bestätigen	-12.2414
▁diameter	-12.2414
▁errichtet	-12.2414
▁frustriert	-12.2414
▁gewalttätig	-12.2414
▁humanitarian	-12.2414
▁parachute	-12.2414
▁verringert	-12.2414
frequenz	-12.2414
▁Hierarchie	-12.2414
▁enlighten	-12.2414
▁Guardian	-12.2414
▁libert	-12.2414
▁Schachtel	-12.2414
▁Republik	-12.2414
▁criteri	-12.2414
▁sprang	-12.2414
▁Zufriedenheit	-12.2414
▁nonverbal	-12.2414
▁platziert	-12.2414
▁Zugriff	-12.2414
▁horror	-12.2414
▁Dächer	-12.2414
▁Rückseite	-12.2414
▁sperm	-12.2415
▁contest	-12.2415
coming	-12.2415
▁seeming	-12.2415
▁110	-12.2415
▁Carter	-12.2415
▁Eingang	-12.2416
▁magician	-12.2416
▁Saul	-12.2416
▁fasst	-12.2416
schaften	-12.2416
▁Szenario	-12.2417
▁bonus	-12.2417
▁verschiedenste	-12.2417
▁impulse	-12.2417
brachte	-12.2418
▁Aufruf	-12.2418
▁83	-12.2418
▁vent	-12.2418
▁Bond	-12.242
▁outdoor	-12.242
▁Keller	-12.242
▁Visualisierung	-12.2423
▁eigenartig	-12.2423
az	-12.2423
▁Ruder	-12.2424
▁Verschm	-12.2424
▁Fä	-12.2426
itter	-12.2427
▁hör	-12.2427
▁übliche	-12.2428
▁stunning	-12.243
▁frequently	-12.243
▁banal	-12.2431
▁Befehl	-12.2431
▁vergleichbar	-12.2432
▁Swee	-12.2433
▁erheblich	-12.2433
▁Zehn	-12.2433
▁developer	-12.2434
▁Größen	-12.2445
▁versetze	-12.2448
▁Techniker	-12.2448
▁ausbilde	-12.2449
svermögen	-12.245
▁gestiegen	-12.2451
▁schloss	-12.2451
▁cart	-12.2452
▁overhead	-12.2452
▁diagnosi	-12.2453
hnlichkeit	-12.2454
▁Cyr	-12.2455
▁broader	-12.2456
▁tide	-12.2456
▁mud	-12.2458
▁Jose	-12.2459
rman	-12.2459
pflanzt	-12.2459
▁Clay	-12.2461
opfer	-12.2461
musik	-12.2462
▁bewegende	-12.2463
▁konkrete	-12.2464
izen	-12.2465
▁Sender	-12.2465
▁gesteuert	-12.2467
zel	-12.2468
▁verwende	-12.247
▁sammelte	-12.247
ward	-12.2471
▁triple	-12.2472
▁lungs	-12.2473
▁Sonntag	-12.2474
will	-12.2482
▁Comic	-12.2483
▁exhaust	-12.2484
▁cookie	-12.2485
▁aß	-12.2487
▁winds	-12.249
▁BP	-12.2491
press	-12.2493
▁unerwartet	-12.2495
▁Herde	-12.2495
▁gewöhnlichen	-12.2496
▁assemble	-12.2498
▁Lügen	-12.2499
▁82	-12.2501
▁Strassen	-12.2501
▁assum	-12.2501
zuhören	-12.2506
anischen	-12.2507
▁Indiens	-12.251
Programm	-12.2515
▁bitter	-12.2515
▁10.	-12.2516
▁ambition	-12.2518
▁lebendige	-12.2519
logging	-12.2519
▁Lese	-12.2521
▁mu	-12.2528
▁Produktions	-12.2531
shirt	-12.2532
digit	-12.2532
rhythm	-12.2532
population	-12.2533
Unternehmen	-12.2533
▁Doppel	-12.2533
scha	-12.2534
▁ambitio	-12.2535
▁irre	-12.2535
▁Produkten	-12.2536
▁Gefängnisse	-12.2538
own	-12.2539
food	-12.254
▁Experte	-12.254
ture	-12.2543
▁refine	-12.2548
▁isolate	-12.2551
bezogen	-12.2555
star	-12.2557
▁erheben	-12.2558
▁187	-12.2562
HO	-12.2565
▁Schlangen	-12.2566
▁autonome	-12.2567
▁tötete	-12.2567
▁Cost	-12.2567
▁Röntgen	-12.2568
▁scare	-12.2569
▁wählte	-12.2569
▁schönste	-12.257
five	-12.2572
bre	-12.2573
▁spine	-12.2581
büro	-12.2582
▁fehlen	-12.2588
▁grösser	-12.2589
phil	-12.2594
▁independen	-12.2594
▁Goldene	-12.2599
▁accumulate	-12.2599
berwachung	-12.26
▁rings	-12.2603
schenkt	-12.2606
▁herausstellt	-12.2612
▁Karo	-12.2612
▁erzähl	-12.2616
▁hässlich	-12.2617
▁ban	-12.2617
▁Lin	-12.2621
▁Mobiltelefon	-12.2621
wide	-12.2621
▁practic	-12.2623
▁geograph	-12.2627
▁Entwicklungen	-12.2627
leihen	-12.2628
▁spare	-12.2629
nick	-12.2631
ngelika	-12.2633
sex	-12.2633
▁crap	-12.2635
rapped	-12.2636
▁erhöhte	-12.2636
beziehen	-12.2636
▁Fallschirm	-12.2638
▁alphabet	-12.264
männer	-12.2641
objekt	-12.2641
▁Cassini	-12.2641
▁Erweiterung	-12.2641
▁Fiktion	-12.2641
▁Geschwister	-12.2641
▁Lueckert	-12.2641
▁Oregon	-12.2641
▁Pentagon	-12.2641
▁Rezession	-12.2641
▁StoryCorps	-12.2641
▁Tastatur	-12.2641
▁berücksichtigt	-12.2641
▁deforest	-12.2641
▁empire	-12.2641
▁famine	-12.2641
▁fluorescent	-12.2641
▁gescheitert	-12.2641
▁historian	-12.2641
▁principal	-12.2641
▁schedule	-12.2641
▁Priester	-12.2641
▁Rabbi	-12.2641
▁müde	-12.2641
▁schockiert	-12.2641
▁striking	-12.2641
▁Oscar	-12.2641
▁Universal	-12.2641
▁stumbl	-12.2641
▁Stapel	-12.2641
▁inherit	-12.2641
▁Desert	-12.2641
▁cooperative	-12.2641
▁Geschäftsführer	-12.2641
▁gründlich	-12.2641
▁Country	-12.2642
▁SARS	-12.2642
▁hostile	-12.2642
▁Frosch	-12.2642
▁Geheim	-12.2642
▁Nachdenken	-12.2642
▁befreit	-12.2642
▁flock	-12.2642
▁intact	-12.2642
▁destination	-12.2642
▁Ironie	-12.2642
▁Durchfall	-12.2642
▁sidewalk	-12.2642
▁zusammengefasst	-12.2642
▁schätzt	-12.2643
▁Clip	-12.2643
▁Chop	-12.2643
▁celebration	-12.2643
▁batteries	-12.2644
▁überholt	-12.2644
▁friendship	-12.2644
▁Tausend	-12.2644
▁Halluzination	-12.2645
▁Wide	-12.2646
kasten	-12.2646
▁therapist	-12.2647
▁Glücks	-12.2647
preis	-12.2647
▁Arabia	-12.2647
▁entry	-12.2647
▁Arzneimittel	-12.2648
▁downtown	-12.2648
▁Schale	-12.2648
▁requirement	-12.2649
ature	-12.2649
ware	-12.2649
▁Venter	-12.2649
▁Freitag	-12.2651
▁aggregate	-12.2652
▁operator	-12.2653
▁Grundstück	-12.2653
▁Clark	-12.2653
▁Detektor	-12.2655
▁Profil	-12.2656
▁passe	-12.2657
witzer	-12.2658
▁Index	-12.2658
▁Krähen	-12.266
▁Marathon	-12.266
▁Mobiltelefone	-12.2662
▁deaf	-12.2664
▁engagier	-12.2664
▁SR	-12.2665
▁Hemd	-12.2667
▁steckte	-12.2667
▁computational	-12.2667
▁guid	-12.2668
lehrer	-12.2669
ilität	-12.2672
▁Empfänger	-12.2674
▁stetig	-12.2676
▁Versicherung	-12.2678
▁15.	-12.2682
▁lieb	-12.2683
train	-12.2683
▁Aktivisten	-12.2684
put	-12.2685
chi	-12.2686
▁verschieben	-12.2687
▁Küsten	-12.2689
▁Besucher	-12.2689
▁4.	-12.269
▁migration	-12.2691
▁Tro	-12.2692
▁swing	-12.2694
▁Halb	-12.2694
▁8.	-12.2701
▁tatsächliche	-12.2702
rennen	-12.2704
Man	-12.2705
16	-12.2706
weitaus	-12.2709
karten	-12.271
▁pound	-12.2711
▁übersehen	-12.2716
▁Pu	-12.2717
▁vernetzt	-12.272
▁Bu	-12.272
▁intens	-12.2722
▁Modern	-12.2724
▁verwendete	-12.2724
iven	-12.2726
▁Pol	-12.2727
ffnung	-12.2729
ev	-12.2731
pflege	-12.2731
▁freundlich	-12.2732
anne	-12.2734
rollen	-12.2735
▁notic	-12.2737
▁advocate	-12.2744
gebiete	-12.2744
▁Allen	-12.2747
▁angezogen	-12.2747
▁Juden	-12.2747
▁DUM	-12.2747
▁begreif	-12.275
▁ökologisch	-12.2756
▁Apparat	-12.2757
bert	-12.2759
▁durcheinander	-12.2759
sky	-12.276
▁treu	-12.276
region	-12.2761
behörde	-12.2765
Konferenz	-12.2765
▁Tänzer	-12.2766
▁360	-12.2767
▁Za	-12.2767
▁wünsche	-12.2767
▁vaccines	-12.2768
▁schätze	-12.2768
▁denial	-12.2769
▁18-	-12.278
▁73	-12.2781
stab	-12.2781
▁spezifisch	-12.2783
▁collaborate	-12.2785
▁Christen	-12.2785
▁TR	-12.2785
sprung	-12.2786
▁randomly	-12.2788
▁dropping	-12.2796
▁normaler	-12.2801
▁performer	-12.2801
▁einladen	-12.2803
▁odor	-12.2804
pack	-12.2805
▁deposit	-12.2814
lzt	-12.2817
▁Jahrhunderte	-12.2817
▁DI	-12.2818
▁Game	-12.2822
▁clar	-12.2824
▁Gewinne	-12.2824
▁embarrass	-12.2826
zing	-12.2827
▁surger	-12.2829
rselves	-12.283
▁Cy	-12.283
programme	-12.2831
▁festzu	-12.2831
▁bereitet	-12.2832
▁Genetik	-12.2837
▁schwierigste	-12.2837
▁rank	-12.2838
aker	-12.2839
▁Alternativen	-12.284
▁instabil	-12.2841
▁unemploy	-12.2843
▁eliminat	-12.2843
baum	-12.2844
gramm	-12.285
teilung	-12.2852
▁Note	-12.2855
▁Schwelle	-12.2855
▁freez	-12.2856
▁Netzwerken	-12.2857
▁Indonesi	-12.2858
▁Hunt	-12.2861
▁herumzu	-12.2864
▁Ak	-12.2867
▁Gitter	-12.2867
▁Glob	-12.2871
[...]
