<pad>▁0
<unk>▁1
<s>▁2
</s>▁3
▁David▁4
▁Gallo▁5
▁:▁6
▁life▁7
▁in▁8
▁the▁9
▁deep▁10
▁oceans▁11
▁TED▁12
▁Talk▁13
▁Subti▁14
tles▁15
▁and▁16
▁T▁17
ranscript▁18
▁with▁19
▁vibran▁20
t▁21
▁video▁22
▁clip▁23
s▁24
▁capture▁25
d▁26
▁by▁27
▁submarine▁28
▁,▁29
▁take▁30
▁us▁31
▁to▁32
▁some▁33
▁of▁34
▁Earth▁35
▁&▁36
apos▁37
;▁38
▁dark▁39
est▁40
▁most▁41
▁violent▁42
▁toxic▁43
▁beautiful▁44
▁habitat▁45
▁valley▁46
▁volcan▁47
ic▁48
▁ridge▁49
▁depth▁50
▁where▁51
▁is▁52
▁bizarre▁53
▁resilien▁54
▁shocking▁55
ly▁56
▁abundant▁57
▁.▁58
▁this▁59
▁Bill▁60
▁Lange▁61
▁I▁62
m▁63
▁Dave▁64
▁we▁65
re▁66
▁going▁67
▁tell▁68
▁you▁69
▁stories▁70
▁from▁71
▁sea▁72
▁here▁73
ve▁74
▁got▁75
credible▁76
▁Titanic▁77
▁that▁78
▁ever▁79
▁been▁80
▁seen▁81
▁not▁82
▁show▁83
▁any▁84
▁it▁85
▁truth▁86
▁matter▁87
▁--▁88
▁even▁89
▁though▁90
▁breaking▁91
▁all▁92
▁sort▁93
▁box▁94
▁office▁95
▁record▁96
▁exciting▁97
▁story▁98
▁problem▁99
▁think▁100
▁ocean▁101
▁for▁102
▁granted▁103
▁when▁104
▁about▁105
▁are▁106
▁75▁107
▁percent▁108
▁planet▁109
▁water▁110
▁average▁111
▁two▁112
▁miles▁113
▁part▁114
▁stand▁115
▁at▁116
▁beach▁117
▁or▁118
▁see▁119
▁images▁120
▁like▁121
▁look▁122
▁out▁123
▁great▁124
▁big▁125
▁blue▁126
▁expanse▁127
▁sh▁128
immer▁129
ing▁130
▁mov▁131
▁there▁132
▁wave▁133
▁surf▁134
▁tide▁135
▁but▁136
▁have▁137
▁no▁138
▁idea▁139
▁what▁140
▁lies▁141
▁longest▁142
▁mountain▁143
▁range▁144
▁on▁145
▁animals▁146
▁earthquake▁147
▁volcano▁148
es▁149
▁bottom▁150
▁biodiversity▁151
▁bio▁152
den▁153
sity▁154
▁higher▁155
▁places▁156
▁than▁157
▁rainforest▁158
▁unexplo▁159
▁yet▁160
▁sight▁161
▁captivat▁162
e▁163
▁make▁164
▁become▁165
▁familiar▁166
▁want▁167
▁edge▁168
▁a▁169
▁▁170
very▁171
▁un▁172
familiar▁173
▁world▁174
▁special▁175
▁technology▁176
▁get▁177
▁into▁178
▁use▁179
▁Al▁180
vin▁181
▁camera▁182
▁something▁183
▁has▁184
▁develop▁185
ed▁186
▁help▁187
▁Sony▁188
▁Marcel▁189
▁Pro▁190
us▁191
▁sai▁192
quot▁193
▁The▁194
▁true▁195
▁voyage▁196
▁discovery▁197
▁so▁198
▁much▁199
▁seek▁200
▁new▁201
▁landscapes▁202
▁as▁203
▁hav▁204
▁eyes▁205
▁people▁206
▁partner▁207
▁give▁208
n▁209
▁only▁210
▁exist▁211
▁also▁212
▁how▁213
▁itself▁214
▁jelly▁215
▁one▁216
▁my▁217
▁favorite▁218
▁because▁219
▁working▁220
▁turn▁221
▁be▁222
▁creature▁223
▁up▁224
▁150▁225
▁feet▁226
▁long▁227
▁those▁228
▁different▁229
▁things▁230
▁?▁231
▁love▁232
▁kind▁233
▁stuff▁234
▁these▁235
▁fish▁236
▁lure▁237
y▁238
▁down▁239
▁tenta▁240
cles▁241
▁dangl▁242
▁swirl▁243
around▁244
colonial▁245
▁animal▁246
▁individual▁247
▁band▁248
▁together▁249
▁jet▁250
▁thrust▁251
ers▁252
▁front▁253
ll▁254
▁moment▁255
▁little▁256
▁light▁257
▁if▁258
▁school▁259
▁put▁260
▁them▁261
▁side▁262
▁scale▁263
-▁264
type▁265
▁other▁266
▁guys▁267
▁win▁268
▁hands▁269
▁bioma▁270
▁made▁271
▁creatures▁272
X▁273
wing▁274
▁death▁275
▁bioluminescence▁276
▁attract▁277
▁mate▁278
▁prey▁279
▁communicat▁280
▁could▁281
▁begin▁282
▁our▁283
archiv▁284
al▁285
▁je▁286
ies▁287
▁come▁288
▁size▁289
▁shapes▁290
▁tend▁291
▁forget▁292
▁fact▁293
▁real▁294
▁first▁295
▁200▁296
▁300▁297
▁way▁298
▁types▁299
▁live▁300
▁three▁301
dimensional▁302
▁space▁303
▁micro▁304
g▁305
ra▁306
vity▁307
▁environment▁308
▁reall▁309
▁explore▁310
▁hear▁311
▁giant▁312
▁squid▁313
▁approximate▁314
▁140▁315
▁160▁316
▁underst▁317
ood▁318
DG▁319
▁an▁320
other▁321
▁octop▁322
od▁323
▁can▁324
▁actual▁325
▁through▁326
▁his▁327
▁head▁328
▁he▁329
▁flap▁330
ping▁331
▁ears▁332
▁graceful▁333
▁go▁334
▁couple▁335
ches▁336
▁right▁337
▁their▁338
▁window▁339
▁peek▁340
▁inside▁341
▁sub▁342
in▁343
▁case▁344
▁pass▁345
▁mid▁346
ocean▁347
▁under▁348
sea▁349
▁roost▁350
er▁351
▁guy▁352
incredibly▁353
▁formal▁354
▁then▁355
▁face▁356
!▁357
▁basic▁358
ally▁359
▁scientific▁360
▁data▁361
▁foot▁362
age▁363
▁collect▁364
▁purpose▁365
▁doing▁366
▁provid▁367
▁scientists▁368
▁view▁369
▁belong▁370
▁don▁371
▁catch▁372
▁net▁373
▁joystick▁374
▁sit▁375
▁computer▁376
▁press▁377
▁forward▁378
▁fly▁379
▁40,000▁380
mile▁381
▁top▁382
▁mile▁383
▁half▁384
▁over▁385
▁Atlantic▁386
▁across▁387
▁Ca▁388
ribbe▁389
an▁390
Central▁391
▁America▁392
▁end▁393
against▁394
▁Pacific▁395
▁nine▁396
▁degree▁397
▁north▁398
▁maps▁399
▁sound▁400
nar▁401
▁coming▁402
▁cliff▁403
▁height▁404
▁mountains▁405
either▁406
▁Alp▁407
▁tens▁408
▁thousand▁409
▁mappe▁410
ting▁411
▁further▁412
▁eventually▁413
▁icon▁414
▁robot▁415
▁Ja▁416
son▁417
▁call▁418
▁room▁419
▁headset▁420
▁drive▁421
▁time▁422
▁try▁423
▁do▁424
▁Woods▁425
▁Hole▁426
▁partners▁427
▁bring▁428
▁virtual▁429
▁region▁430
▁back▁431
▁laboratory▁432
▁bit▁433
▁piece▁434
▁now▁435
▁photographs▁436
▁chemical▁437
▁sensor▁438
▁never▁439
▁interesting▁440
▁picture▁441
▁shine▁442
▁hydrothermal▁443
▁vent▁444
▁seeing▁445
▁cloud▁446
▁dense▁447
▁pack▁448
▁hydrogen▁449
ul▁450
fi▁451
de▁452
rich▁453
▁axis▁454
▁floor▁455
▁600▁456
▁700▁457
▁F▁458
where▁459
▁kne▁460
w▁461
▁was▁462
▁60▁463
▁70▁464
▁had▁465
▁hint▁466
▁along▁467
ism▁468
▁crack▁469
▁contact▁470
▁mag▁471
ma▁472
▁shooting▁473
▁hot▁474
▁were▁475
▁aware▁476
▁would▁477
▁rich▁478
▁sulfide▁479
▁did▁480
▁which▁481
▁chimney▁482
▁six▁483
▁hundred▁484
▁setting▁485
▁dramatic▁486
▁BL▁487
▁white▁488
▁material▁489
▁type▁490
▁bacteria▁491
▁thrive▁492
▁180▁493
▁C▁494
.▁495
▁thing▁496
▁after▁497
▁eruption▁498
▁start▁499
▁wonder▁500
▁find▁501
▁probabl▁502
genesis▁503
▁activit▁504
▁support▁505
▁colonies▁506
▁pressure▁507
▁4,000▁508
▁pounds▁509
▁per▁510
▁square▁511
▁inch▁512
▁surface▁513
▁sun▁514
ten▁515
▁energy▁516
▁forms▁517
▁chemo▁518
thesis▁519
▁population▁520
▁tube▁521
▁worm▁522
▁digesti▁523
▁system▁524
▁mouth▁525
gill▁526
▁structure▁527
▁extract▁528
▁oxygen▁529
▁house▁530
▁chemosyntheti▁531
c▁532
▁fluid▁533
▁saw▁534
▁convert▁535
▁simple▁536
▁sugar▁537
▁digest▁538
▁crab▁539
▁lives▁540
▁manage▁541
▁grab▁542
▁tip▁543
▁normal▁544
▁retrac▁545
▁soon▁546
▁touche▁547
▁Oh▁548
▁good▁549
▁shell▁550
▁just▁551
▁your▁552
▁fingernail▁553
▁whole▁554
▁being▁555
▁play▁556
▁beginning▁557
▁temperature▁558
▁extreme▁559
▁hand▁560
▁boil▁561
▁freez▁562
▁female▁563
▁male▁564
▁watch▁565
▁does▁566
▁before▁567
▁will▁568
▁fight▁569
▁everything▁570
▁pitch▁571
▁black▁572
▁except▁573
▁last▁574
▁dive▁575
▁series▁576
▁count▁577
▁species▁578
▁areas▁579
▁198▁580
▁problems▁581
▁biologist▁582
▁sites▁583
▁ra▁584
ther▁585
▁difficult▁586
▁disintegrat▁587
▁imager▁588
▁critical▁589
▁science▁590
▁amaze▁591
▁me▁592
▁enough▁593
▁crush▁594
▁empty▁595
▁Pepsi▁596
▁till▁597
▁shrimp▁598
▁harass▁599
▁poor▁600
▁bat▁601
▁away▁602
▁claw▁603
▁whack▁604
▁same▁605
▁food▁606
st▁607
uff▁608
▁strange▁609
▁harvest▁610
▁filament▁611
▁create▁612
▁product▁613
▁grow▁614
▁hair▁615
▁again▁616
▁red▁617
▁dot▁618
▁laser▁619
▁far▁620
▁cling▁621
▁rock▁622
▁scrap▁623
▁off▁624
tiny▁625
▁pillar▁626
▁several▁627
▁alien▁628
▁landscape▁629
▁spring▁630
▁inhabit▁631
▁ground▁632
▁need▁633
▁V▁634
shape▁635
▁mark▁636
en▁637
▁organ▁638
▁emitt▁639
▁body▁640
▁radiation▁641
R▁642
▁signature▁643
▁able▁644
▁consider▁645
able▁646
▁distance▁647
▁happening▁648
▁ribbon▁649
day▁650
▁speak▁651
▁generate▁652
▁tried▁653
▁place▁654
▁high▁655
▁definition▁656
▁tall▁657
▁lot▁658
▁funny▁659
▁plate▁660
▁homes▁661
▁close▁662
r▁663
▁community▁664
▁smaller▁665
▁crawl▁666
▁p▁667
ago▁668
da▁669
▁neat▁670
look▁671
▁sitt▁672
▁smok▁673
▁hell▁674
▁permit▁675
▁dump▁676
▁unbelievabl▁677
▁sulfur▁678
▁acid▁679
▁rate▁680
▁thriv▁681
▁came▁682
▁evolv▁683
▁talk▁684
▁form▁685
▁found▁686
▁number▁687
▁group▁688
▁propos▁689
▁al▁690
though▁691
▁short▁692
liv▁693
▁site▁694
▁may▁695
▁10▁696
▁years▁697
▁ecosystem▁698
▁st▁699
▁million▁700
▁well▁701
▁billion▁702
▁works▁703
▁too▁704
▁wait▁705
▁stick▁706
▁canno▁707
▁explain▁708
▁why▁709
▁active▁710
▁week▁711
ready▁712
▁human▁713
▁perspective▁714
blood▁715
▁plumb▁716
▁every▁717
▁year▁718
▁move▁719
▁order▁720
▁five▁721
▁completely▁722
▁wipe▁723
▁area▁724
▁des▁725
pite▁726
ities▁727
▁sensitive▁728
▁yes▁729
▁fragile▁730
▁saying▁731
▁sediment▁732
▁rocks▁733
▁history▁734
▁cycle▁735
▁rhythm▁736
▁continent▁737
▁apart▁738
▁glacier▁739
▁El▁740
▁Nino▁741
▁disaster▁742
▁rhythmic▁743
▁learning▁744
▁almost▁745
▁symphon▁746
▁music▁747
▁listen▁748
billion▁749
year▁750
▁say▁751
▁Stop▁752
▁tomorrow▁753
▁note▁754
▁absurd▁755
▁learn▁756
▁work▁757
▁concept▁758
▁preserv▁759
ation▁760
▁futil▁761
▁conservation▁762
▁tough▁763
▁thank▁764
▁Steve▁765
▁Keil▁766
▁manifesto▁767
▁Bulgaria▁768
▁beyond▁769
▁serious▁770
▁meme▁771
▁infect▁772
▁home▁773
▁return▁774
▁revitaliz▁775
▁economy▁776
▁education▁777
▁society▁778
▁sparkl▁779
▁universal▁780
▁message▁781
▁everywhere▁782
▁who▁783
▁reinvent▁784
▁workplace▁785
▁schools▁786
▁revolution▁787
▁arms▁788
▁break▁789
▁song▁790
▁pick▁791
▁color▁792
▁define▁793
▁mean▁794
▁drastic▁795
reach▁796
▁change▁797
▁behave▁798
▁;▁799
▁makes▁800
▁sad▁801
▁sick▁802
▁tired▁803
▁know▁804
▁living▁805
▁potential▁806
▁many▁807
▁example▁808
▁social▁809
▁factor▁810
▁Europe▁811
▁innovation▁812
▁culture▁813
▁value▁814
▁health▁815
▁care▁816
▁important▁817
▁sense▁818
being▁819
▁E▁820
U▁821
▁worst▁822
▁weeks▁823
▁ago▁824
▁Economi▁825
▁sadde▁826
▁relative▁827
▁G▁828
DP▁829
▁capita▁830
▁let▁831
▁rank▁832
▁report▁833
▁OECD▁834
▁reading▁835
▁math▁836
▁business▁837
▁lowest▁838
▁perception▁839
▁entrepreneurs▁840
▁provide▁841
▁benefit▁842
▁result▁843
▁happens▁844
▁percentage▁845
body▁846
▁small▁847
▁engine▁848
▁economies▁849
▁hire▁850
▁taxe▁851
▁broken▁852
▁guess▁853
▁surprise▁854
▁62▁855
▁optimistic▁856
▁future▁857
▁unhapp▁858
▁bad▁859
▁tale▁860
believe▁861
▁conspirac▁862
▁should▁863
▁clear▁864
▁operat▁865
▁behav▁866
▁transform▁867
▁better▁868
▁ourselves▁869
▁friends▁870
▁family▁871
▁happen▁872
▁positive▁873
▁handicap▁874
▁holding▁875
▁forgot▁876
▁babies▁877
▁kids▁878
▁adult▁879
▁de▁880
value▁881
▁45▁882
▁communis▁883
▁valu▁884
▁state▁885
▁squash▁886
▁inadvertent▁887
▁creativity▁888
▁self▁889
expression▁890
▁instead▁891
▁apply▁892
▁knowledge▁893
▁affect▁894
▁institutional▁895
▁context▁896
ld▁897
▁times▁898
▁sc▁899
old▁900
▁park▁901
▁heaven▁902
▁forbid▁903
▁dirt▁904
▁k▁905
▁worse▁906
▁l▁907
ok▁908
vi▁909
▁kill▁910
▁b▁911
aba▁912
▁d▁913
ado▁914
▁train▁915
ness▁916
▁runn▁917
▁gene▁918
▁step▁919
▁woman▁920
▁baby▁921
kam▁922
▁Woohoo▁923
▁career▁924
▁coffee▁925
b▁926
ko▁927
▁remember▁928
▁she▁929
▁passe▁930
▁virus▁931
wood▁932
▁trees▁933
▁antiqu▁934
ated▁935
▁100▁936
▁values▁937
▁rote▁938
▁memor▁939
ization▁940
▁standard▁941
xploration▁942
▁question▁943
▁crap▁944
went▁945
▁kid▁946
▁prestig▁947
ious▁948
▁study▁949
▁eight▁950
▁day▁951
▁Well▁952
▁recess▁953
▁Ha▁954
▁won▁955
▁single▁956
▁schedule▁957
▁He▁958
▁crime▁959
▁creating▁960
▁mindless▁961
▁robotic▁962
▁workers▁963
▁bolt▁964
▁pre▁965
drill▁966
▁hole▁967
rry▁968
▁Industrial▁969
▁Revolution▁970
▁adapt▁971
ability▁972
▁creative▁973
▁innovative▁974
▁mechaniz▁975
▁treat▁976
▁asset▁977
▁lever▁978
▁throw▁979
▁qualit▁980
▁autocrat▁981
▁chef▁982
▁boss▁983
rus▁984
▁obvious▁985
▁criminal▁986
▁install▁987
▁controll▁988
▁idiot▁989
▁zillion▁990
▁process▁991
▁follow▁992
▁restrict▁993
ive▁994
▁mobile▁995
▁phone▁996
▁laptop▁997
▁search▁998
▁Internet▁999
M▁1000
how▁1001
professional▁1002
ful▁1003
fill▁1004
▁fun▁1005
▁That▁1006
▁ridiculous▁1007
▁dumb▁1008
▁stupid▁1009
▁prove▁1010
▁next▁1011
▁speech▁1012
▁catalyst▁1013
▁brains▁1014
▁hardwir▁1015
▁evolution▁1016
▁select▁1017
▁humans▁1018
▁job▁1019
elect▁1020
▁traits▁1021
▁advantage▁1022
ous▁1023
▁competitive▁1024
▁nature▁1025
out▁1026
▁kingdom▁1027
be▁1028
▁dynamic▁1029
▁rats▁1030
▁might▁1031
▁known▁1032
▁more▁1033
▁bigge▁1034
▁task▁1035
▁skills▁1036
▁kitten▁1037
▁depriv▁1038
▁interact▁1039
▁socially▁1040
▁still▁1041
▁hunt▁1042
▁bear▁1043
▁survive▁1044
▁longer▁1045
▁ones▁1046
▁final▁1047
▁correlation▁1048
▁between▁1049
▁brain▁1050
▁dolphin▁1051
▁prett▁1052
▁players▁1053
▁tru▁1054
▁national▁1055
ity▁1056
▁race▁1057
▁religion▁1058
▁cool▁1059
▁term▁1060
▁neo▁1061
▁re▁1062
tention▁1063
▁juvenile▁1064
ists▁1065
▁sports▁1066
▁Olympia▁1067
▁professional▁1068
▁musical▁1069
▁instrument▁1070
▁dance▁1071
▁kiss▁1072
▁sing▁1073
▁goof▁1074
▁design▁1075
▁birth▁1076
▁old▁1077
▁age▁1078
▁continuous▁1079
▁stop▁1080
▁huge▁1081
▁stimulate▁1082
▁neural▁1083
▁growth▁1084
▁am▁1085
gdal▁1086
a▁1087
▁control▁1088
▁emotions▁1089
▁promote▁1090
frontal▁1091
cortex▁1092
▁development▁1093
▁cogniti▁1094
on▁1095
▁emotional▁1096
▁matur▁1097
▁decision▁1098
making▁1099
▁fiction▁1100
▁tales▁1101
▁cold▁1102
▁hard▁1103
▁genetic▁1104
right▁1105
▁walk▁1106
▁speaking▁1107
▁hold▁1108
▁exercise▁1109
▁second▁1110
▁imagine▁1111
▁without▁1112
▁theater▁1113
▁arts▁1114
▁danc▁1115
▁soccer▁1116
▁football▁1117
▁laughter▁1118
▁bleak▁1119
▁glu▁1120
▁playful▁1121
▁opposite▁1122
▁feel▁1123
▁guilt▁1124
▁colleague▁1125
▁laughing▁1126
▁must▁1127
▁hide▁1128
▁news▁1129
▁backward▁1130
▁depression▁1131
▁improve▁1132
▁increase▁1133
▁open▁1134
▁mastery▁1135
▁key▁1136
▁motivation▁1137
ivity▁1138
▁frivolous▁1139
▁athlete▁1140
▁ski▁1141
▁groove▁1142
▁flow▁1143
▁doctor▁1144
▁medicine▁1145
▁feeling▁1146
▁celebrat▁1147
▁quick▁1148
▁corporate▁1149
▁FedEx▁1150
▁easy▁1151
otto▁1152
▁service▁1153
▁profit▁1154
▁happi▁1155
▁fulfill▁1156
▁customer▁1157
▁dealing▁1158
▁happy▁1159
▁decisions▁1160
fee▁1161
ling▁1162
▁buy▁1163
▁lead▁1164
▁decrease▁1165
▁Ge▁1166
▁Unite▁1167
▁State▁1168
▁reason▁1169
▁nothing▁1170
▁weird▁1171
▁beside▁1172
▁kick▁1173
▁Sci▁1174
ant▁1175
▁zero▁1176
▁refer▁1177
▁ask▁1178
▁marginal▁1179
▁stakeholders▁1180
▁improv▁1181
▁transparency▁1182
▁promot▁1183
direct▁1184
ion▁1185
▁collaboration▁1186
▁encouraging▁1187
ut▁1188
ocracy▁1189
▁results▁1190
focus▁1191
▁morning▁1192
▁leave▁1193
▁team▁1194
▁organize▁1195
▁o▁1196
clock▁1197
▁sounds▁1198
▁slow▁1199
▁referr▁1200
▁above▁1201
▁industry▁1202
▁enter▁1203
▁best▁1204
▁employer▁1205
▁independent▁1206
▁analysis▁1207
▁anonymous▁1208
▁employee▁1209
▁survey▁1210
▁own▁1211
▁mentality▁1212
▁steps▁1213
▁finish▁1214
▁believe▁1215
▁rediscover▁1216
ever▁1217
▁used▁1218
▁enjoy▁1219
▁months▁1220
▁promotion▁1221
▁bik▁1222
▁book▁1223
▁game▁1224
▁leaders▁1225
▁thought▁1226
▁ignite▁1227
▁fire▁1228
▁Hey▁1229
▁trust▁1230
▁empower▁1231
▁delegate▁1232
▁level▁1233
▁encourage▁1234
▁constructive▁1235
▁criticism▁1236
▁challenge▁1237
▁authorit▁1238
▁challeng▁1239
▁always▁1240
▁done▁1241
▁rut▁1242
▁solutions▁1243
▁eradicate▁1244
▁fear▁1245
▁enem▁1246
▁eliminate▁1247
▁restriction▁1248
▁personal▁1249
▁instant▁1250
▁messenger▁1251
▁lunches▁1252
▁lunch▁1253
▁recharge▁1254
▁meet▁1255
▁beer▁1256
▁synerg▁1257
▁ideas▁1258
▁freedom▁1259
▁general▁1260
▁spend▁1261
▁supposed▁1262
▁miserable▁1263
▁grind▁1264
▁20▁1265
▁wake▁1266
▁unacceptabl▁1267
▁Ne▁1268
pri▁1269
em▁1270
▁summar▁1271
▁uprising▁1272
▁seriously▁1273
▁fan▁1274
▁flame▁1275
▁share▁1276
▁success▁1277
▁worked▁1278
▁rein▁1279
gora▁1280
▁promise▁1281
ment▁1282
▁ultimate▁1283
▁meaning▁1284
▁alone▁1285
▁Andrea▁1286
▁Schleich▁1287
▁build▁1288
▁measure▁1289
▁walks▁1290
▁PISA▁1291
▁test▁1292
▁global▁1293
▁measurement▁1294
▁countries▁1295
▁country▁1296
▁stack▁1297
▁systems▁1298
perform▁1299
▁radical▁1300
▁distant▁1301
▁field▁1302
▁such▁1303
▁figur▁1304
▁15-▁1305
olds▁1306
▁international▁1307
▁comparison▁1308
▁globaliz▁1309
▁usual▁1310
▁Look▁1311
▁looked▁1312
▁1960▁1313
▁proportion▁1314
▁complete▁1315
head▁1316
one▁1317
▁else▁1318
▁economic▁1319
▁draw▁1320
stand▁1321
▁1970▁1322
▁c▁1323
aught▁1324
▁1980▁1325
▁expansion▁1326
▁talent▁1327
▁pool▁1328
▁continue▁1329
▁1990▁1330
▁U▁1331
S▁1332
▁90▁1333
▁13▁1334
th▁1335
▁fallen▁1336
▁rise▁1337
▁faster▁1338
▁Korea▁1339
▁shows▁1340
▁possible▁1341
▁generations▁1342
▁Afghanistan▁1343
▁performer▁1344
▁young▁1345
▁Korean▁1346
▁improvement▁1347
▁benchmark▁1348
▁perform▁1349
▁internationally▁1350
▁trouble▁1351
▁measur▁1352
▁mix▁1353
▁unemploy▁1354
▁graduate▁1355
▁streets▁1356
▁while▁1357
▁automatic▁1358
▁translate▁1359
▁jobs▁1360
▁direct▁1361
▁angle▁1362
▁less▁1363
▁interest▁1364
▁whe▁1365
▁student▁1366
▁simpl▁1367
▁reproduce▁1368
▁extrapolat▁1369
▁novel▁1370
▁situations▁1371
▁criticize▁1372
▁outcome▁1373
▁terribl▁1374
▁unfair▁1375
▁logic▁1376
▁prepared▁1377
▁technologies▁1378
▁invent▁1379
▁solve▁1380
▁anticipate▁1381
▁once▁1382
▁contest▁1383
▁late▁1384
▁assessment▁1385
▁2009▁1386
▁74▁1387
▁cover▁1388
▁87▁1389
▁chart▁1390
▁performance▁1391
▁below▁1392
▁yellow▁1393
so▁1394
▁green▁1395
▁Shanghai▁1396
▁Singapore▁1397
▁Asia▁1398
▁Fin▁1399
land▁1400
▁Canad▁1401
▁North▁1402
▁Chile▁1403
▁gap▁1404
▁seven▁1405
▁include▁1406
▁difference▁1407
▁introduce▁1408
▁dimension▁1409
▁educator▁1410
▁equit▁1411
▁deliver▁1412
▁ensu▁1413
▁background▁1414
▁equal▁1415
▁chance▁1416
▁impact▁1417
▁strong▁1418
▁opportunities▁1419
▁unequal▁1420
▁distribute▁1421
▁children▁1422
▁waste▁1423
▁matters▁1424
▁born▁1425
▁upper▁1426
▁quadra▁1427
▁afford▁1428
▁large▁1429
▁disparit▁1430
▁debate▁1431
▁price▁1432
▁focus▁1433
▁accept▁1434
▁mediocr▁1435
▁combin▁1436
▁excellence▁1437
▁lesson▁1438
▁compromise▁1439
▁achieve▁1440
▁challenges▁1441
▁paradigm▁1442
▁main▁1443
▁since▁1444
▁policy▁1445
makers▁1446
▁researcher▁1447
▁behind▁1448
giving▁1449
▁bubble▁1450
▁proportional▁1451
▁amount▁1452
▁money▁1453
▁spen▁1454
▁quality▁1455
▁variation▁1456
▁among▁1457
▁Luxemb▁1458
o▁1459
urg▁1460
▁expensive▁1461
▁particular▁1462
▁similar▁1463
▁finding▁1464
▁divide▁1465
educate▁1466
▁badly▁1467
▁detail▁1468
▁wealth▁1469
▁pay▁1470
▁teacher▁1471
▁invest▁1472
▁teaching▁1473
▁profession▁1474
▁days▁1475
▁costs▁1476
▁least▁1477
▁teach▁1478
▁answer▁1479
▁classes▁1480
▁bar▁1481
▁driving▁1482
▁list▁1483
▁exact▁1484
▁parents▁1485
▁pleasant▁1486
▁class▁1487
▁paid▁1488
▁hours▁1489
▁anything▁1490
▁2000▁1491
▁iPod▁1492
▁35▁1493
▁yourself▁1494
▁bitter▁1495
▁impressive▁1496
▁German▁1497
▁feature▁1498
▁lower▁1499
▁disappoint▁1500
▁stunn▁1501
▁public▁1502
▁dominat▁1503
▁tax▁1504
▁issue▁1505
▁center▁1506
▁began▁1507
▁respond▁1508
▁federal▁1509
▁government▁1510
▁raise▁1511
▁investment▁1512
▁immigrant▁1513
▁disadvantage▁1514
▁optimiz▁1515
▁polici▁1516
▁belief▁1517
▁underly▁1518
▁traditional▁1519
▁women▁1520
▁neglect▁1521
▁responsibilit▁1522
▁sent▁1523
▁kindergarten▁1524
▁push▁1525
▁early▁1526
▁childhood▁1527
▁deem▁1528
▁pursue▁1529
▁socio▁1530
economic▁1531
▁line▁1532
▁later▁1533
▁taken▁1534
▁spectrum▁1535
▁concern▁1536
▁double▁1537
▁achiev▁1538
▁decade▁1539
▁bright▁1540
▁slight▁1541
▁direction▁1542
▁major▁1543
haul▁1544
▁Po▁1545
▁reduce▁1546
▁vari▁1547
▁Portugal▁1548
▁consolidate▁1549
▁fragment▁1550
▁Hungar▁1551
▁complain▁1552
▁artifact▁1553
▁homogene▁1554
▁societies▁1555
▁conc▁1556
▁composition▁1557
▁practice▁1558
▁course▁1559
▁model▁1560
▁copy▁1561
▁paste▁1562
ale▁1563
▁identifie▁1564
▁agree▁1565
▁weigh▁1566
▁priorit▁1567
▁highly▁1568
▁skill▁1569
▁child▁1570
▁lawyer▁1571
▁media▁1572
▁questions▁1573
▁convince▁1574
▁citizens▁1575
▁choice▁1576
▁consumption▁1577
▁attractive▁1578
▁shopp▁1579
▁plac▁1580
▁cap▁1581
▁segregat▁1582
▁reflect▁1583
class▁1584
▁link▁1585
▁Japan▁1586
▁expect▁1587
▁succeed▁1588
▁mirror▁1589
▁behavior▁1590
▁mathematics▁1591
▁typically▁1592
▁genius▁1593
▁Japanese▁1594
▁depend▁1595
▁effort▁1596
▁past▁1597
▁ways▁1598
▁embrace▁1599
diversity▁1600
▁differentiate▁1601
▁pedagog▁1602
ical▁1603
▁realize▁1604
▁ordinar▁1605
▁extraordinar▁1606
▁personaliz▁1607
▁ambitio▁1608
▁entire▁1609
▁require▁1610
▁successful▁1611
▁exceed▁1612
▁careful▁1613
▁recruit▁1614
▁struggl▁1615
▁frame▁1616
▁intelligent▁1617
▁pathway▁1618
▁bureaucratic▁1619
▁often▁1620
▁left▁1621
▁classroom▁1622
▁prescription▁1623
▁set▁1624
▁enable▁1625
▁figure▁1626
▁wisdom▁1627
▁user▁1628
generat▁1629
▁administrative▁1630
▁account▁1631
▁organization▁1632
▁goal▁1633
▁complian▁1634
ce▁1635
▁principal▁1636
ventive▁1637
▁provision▁1638
▁outward▁1639
▁systemic▁1640
▁resource▁1641
▁align▁1642
▁coherent▁1643
▁sustain▁1644
▁period▁1645
▁ensure▁1646
▁consistent▁1647
▁implement▁1648
▁knowing▁1649
▁limits▁1650
▁research▁1651
▁venture▁1652
▁telling▁1653
▁strength▁1654
▁powerful▁1655
▁financial▁1656
▁subsid▁1657
▁run▁1658
▁argue▁1659
▁changing▁1660
▁educational▁1661
▁administration▁1662
▁grave▁1663
ard▁1664
▁rely▁1665
▁excuse▁1666
▁complacen▁1667
▁meaningful▁1668
▁target▁1669
▁measurabl▁1670
▁goals▁1671
▁parent▁1672
▁sky▁1673
▁limit▁1674
▁laid▁1675
▁foundation▁1676
▁Morton▁1677
▁Bast▁1678
▁Rachel▁1679
▁Pik▁1680
▁climate▁1681
▁headline▁1682
▁4▁1683
▁minutes▁1684
▁atmospher▁1685
▁chemist▁1686
▁glimpse▁1687
▁massive▁1688
▁bold▁1689
▁her▁1690
▁contribute▁1691
taking▁1692
▁risk▁1693
▁flight▁1694
▁pursui▁1695
▁molecule▁1696
▁paper▁1697
▁air▁1698
mog▁1699
▁both▁1700
▁branches▁1701
▁recently▁1702
▁Inter▁1703
government▁1704
▁Panel▁1705
▁Climate▁1706
▁Change▁1707
▁IPC▁1708
C▁1709
▁understanding▁1710
▁writ▁1711
▁6▁1712
20▁1713
▁40▁1714
▁wrote▁1715
▁page▁1716
▁topic▁1717
▁review▁1718
▁400▁1719
plus▁1720
▁11▁1721
3▁1722
▁annual▁1723
▁gathering▁1724
▁meeting▁1725
▁15▁1726
,000▁1727
▁San▁1728
▁Francisco▁1729
▁studies▁1730
▁wide▁1731
▁variet▁1732
▁Cambridge▁1733
▁Ni▁1734
ñ▁1735
▁oscill▁1736
▁weather▁1737
▁assimilat▁1738
▁satellite▁1739
▁emissions▁1740
▁crop▁1741
▁produce▁1742
▁biofuel▁1743
▁each▁1744
▁PhD▁1745
▁narrow▁1746
▁few▁1747
op▁1748
ne▁1749
▁organic▁1750
▁heard▁1751
▁weight▁1752
▁900▁1753
▁z▁1754
ta▁1755
illion▁1756
▁21▁1757
▁atmosphere▁1758
thane▁1759
▁length▁1760
▁blow▁1761
▁EU▁1762
P▁1763
HO▁1764
E▁1765
▁S▁1766
▁Chamber▁1767
▁Spa▁1768
▁explosion▁1769
▁full▁1770
▁combusti▁1771
▁car▁1772
▁enormous▁1773
▁models▁1774
▁supercomputer▁1775
▁grid▁1776
▁boxes▁1777
▁calculating▁1778
▁variable▁1779
▁minute▁1780
scale▁1781
▁integration▁1782
▁dozen▁1783
▁understand▁1784
▁join▁1785
▁campaign▁1786
▁Malaysia▁1787
tower▁1788
▁middle▁1789
▁hung▁1790
▁dollars▁1791
▁worth▁1792
▁equip▁1793
▁tower▁1794
rought▁1795
▁aircraft▁1796
▁plane▁1797
▁BA▁1798
14▁1799
6▁1800
▁FAA▁1801
▁flies▁1802
▁120▁1803
▁130▁1804
▁flying▁1805
▁meter▁1806
▁canopy▁1807
▁dangerous▁1808
▁inclin▁1809
▁military▁1810
▁pilot▁1811
▁maneuver▁1812
ance▁1813
▁bank▁1814
▁force▁1815
▁harness▁1816
▁board▁1817
▁vacation▁1818
▁chemistr▁1819
▁write▁1820
▁subject▁1821
section▁1822
ub▁1823
▁chapter▁1824
▁ten▁1825
▁tag▁1826
▁non▁1827
cientific▁1828
▁audience▁1829
▁journalist▁1830
▁makers▁1831
▁Christopher▁1832
Charm▁1833
▁neuroscientist▁1834
▁inventor▁1835
▁demonstrate▁1836
▁fMRI▁1837
▁pain▁1838
▁words▁1839
▁Hi▁1840
▁royal▁1841
▁mimic▁1842
▁program▁1843
▁muscle▁1844
▁arm▁1845
▁mind▁1846
▁lab▁1847
▁generation▁1848
▁possibilit▁1849
▁envision▁1850
▁spaceship▁1851
▁shrink▁1852
▁inject▁1853
▁bloodstream▁1854
▁attack▁1855
▁blood▁1856
▁cells▁1857
▁arteries▁1858
▁Peter▁1859
invasive▁1860
▁MRI▁1861
▁anatomy▁1862
▁literally▁1863
▁moves▁1864
▁spot▁1865
▁interface▁1866
▁function▁1867
▁electrode▁1868
▁imag▁1869
▁scanner▁1870
▁collapse▁1871
▁millisecond▁1872
▁allow▁1873
▁65▁1874
▁point▁1875
▁activation▁1876
▁pattern▁1877
▁therapist▁1878
▁couch▁1879
▁pill▁1880
▁knife▁1881
▁fourth▁1882
▁alternative▁1883
▁channel▁1884
▁minds▁1885
▁chronic▁1886
▁burn▁1887
▁pull▁1888
▁circuits▁1889
▁produc▁1890
▁3▁1891
D▁1892
▁information▁1893
▁flex▁1894
▁bi▁1895
cep▁1896
▁patient▁1897
▁shock▁1898
▁person▁1899
▁release▁1900
ogen▁1901
▁opiate▁1902
▁display▁1903
▁investigation▁1904
▁clinical▁1905
▁trial▁1906
▁44▁1907
▁64▁1908
▁Matrix▁1909
▁aspect▁1910
▁experience▁1911
▁Bee▁1912
ba▁1913
▁Kid▁1914
ro▁1915
▁shared▁1916
▁film▁1917
▁movie▁1918
▁power▁1919
▁narrative▁1920
▁shape▁1921
▁worldview▁1922
▁British▁1923
▁director▁1924
▁invoke▁1925
▁scene▁1926
▁M▁1927
iracle▁1928
▁Milan▁1929
▁Boy▁1930
z▁1931
▁Hoo▁1932
▁FILMCLUB▁1933
▁films▁1934
▁evidence▁1935
▁suggest▁1936
▁cultures▁1937
▁identit▁1938
▁mother▁1939
▁daughter▁1940
▁preacher▁1941
▁con▁1942
gan▁1943
▁pupil▁1944
▁storyteller▁1945
▁cave▁1946
▁paintings▁1947
▁histories▁1948
▁parable▁1949
▁f▁1950
te▁1951
rate▁1952
▁increasing▁1953
▁secular▁1954
▁offer▁1955
▁communal▁1956
media▁1957
▁furious▁1958
▁consumer▁1959
▁moral▁1960
▁code▁1961
▁im▁1962
part▁1963
▁cinema▁1964
▁argu▁1965
ably▁1966
▁century▁1967
▁influen▁1968
tial▁1969
▁art▁1970
▁artist▁1971
▁boundar▁1972
▁language▁1973
▁ge▁1974
▁philosoph▁1975
deed▁1976
▁tackle▁1977
▁during▁1978
▁vast▁1979
▁Hollywood▁1980
▁blockbuster▁1981
▁die▁1982
▁sensation▁1983
▁king▁1984
▁common▁1985
ified▁1986
▁filmmaker▁1987
▁worrie▁1988
▁puts▁1989
▁God▁1990
▁grasp▁1991
▁iron▁1992
▁palpabl▁1993
▁technical▁1994
▁access▁1995
▁cultural▁1996
aker▁1997
▁2006▁1998
▁ran▁1999
▁screening▁2000
▁discussion▁2001
▁raid▁2002
▁restless▁2003
▁rural▁2004
▁ham▁2005
let▁2006
▁project▁2007
▁DVD▁2008
▁onto▁2009
▁25▁2010
▁club▁2011
K▁2012
▁18▁2013
interrupt▁2014
▁curate▁2015
▁contextualize▁2016
▁gre▁2017
▁choose▁2018
▁riches▁2019
▁immediate▁2020
▁profound▁2021
▁transformative▁2022
▁discover▁2023
▁names▁2024
▁wish▁2025
▁195▁2026
1▁2027
▁Vit▁2028
orio▁2029
▁De▁2030
ica▁2031
▁remarkable▁2032
▁comment▁2033
▁slums▁2034
▁poverty▁2035
▁aspiration▁2036
▁occasion▁2037
▁father▁2038
▁50▁2039
▁birthday▁2040
▁meant▁2041
▁viewing▁2042
▁print▁2043
▁projection▁2044
ist▁2045
▁importan▁2046
▁vision▁2047
▁chose▁2048
▁celebrate▁2049
century▁2050
▁teenage▁2051
▁30▁2052
▁hope▁2053
▁shot▁2054
▁slum▁2055
well▁2056
▁float▁2057
ward▁2058
room▁2059
▁Si▁2060
x▁2061
▁tilt▁2062
▁awe▁2063
▁incredul▁2064
▁match▁2065
▁mine▁2066
▁speed▁2067
▁associate▁2068
▁Slum▁2069
do▁2070
▁Million▁2071
air▁2072
▁favela▁2073
▁Rio▁2074
▁endur▁2075
▁season▁2076
▁democracy▁2077
▁screen▁2078
▁Mr▁2079
▁Smith▁2080
▁Go▁2081
▁Washington▁2082
▁193▁2083
9▁2084
▁older▁2085
▁members▁2086
▁grandparents▁2087
▁Frank▁2088
▁Cap▁2089
▁classic▁2090
▁independen▁2091
▁propriet▁2092
▁heroic▁2093
▁awkward▁2094
▁expression▁2095
▁faith▁2096
▁political▁2097
▁machine▁2098
▁honor▁2099
came▁2100
night▁2101
▁fil▁2102
i▁2103
buster▁2104
▁House▁2105
▁Lord▁2106
▁delight▁2107
▁def▁2108
▁bed▁2109
time▁2110
▁principle▁2111
▁Jim▁2112
▁Stewart▁2113
▁reel▁2114
▁choosing▁2115
▁Hotel▁2116
▁Rwanda▁2117
▁genocide▁2118
▁brutal▁2119
▁provoke▁2120
▁tear▁2121
ci▁2122
arm▁2123
▁peace▁2124
keep▁2125
▁Western▁2126
▁commoditi▁2127
▁Schindler▁2128
▁Lis▁2129
▁demand▁2130
▁consciousness▁2131
▁remark▁2132
▁We▁2133
wise▁2134
pock▁2135
▁dis▁2136
f▁2137
ran▁2138
ch▁2139
ise▁2140
▁Sir▁2141
▁Love▁2142
▁teen▁2143
▁attitude▁2144
▁toward▁2145
white▁2146
▁Brit▁2147
▁rail▁2148
▁collective▁2149
▁unlike▁2150
idney▁2151
iti▁2152
▁tut▁2153
lage▁2154
▁thoughtful▁2155
▁opinion▁2156
▁curious▁2157
▁tackl▁2158
▁subtitle▁2159
▁documentar▁2160
rative▁2161
▁fantasy▁2162
▁writing▁2163
▁compet▁2164
▁favor▁2165
▁passionate▁2166
▁sophisticated▁2167
▁pro▁2168
▁v▁2169
til▁2170
▁near▁2171
▁quarter▁2172
▁7,000▁2173
▁numbers▁2174
▁manner▁2175
▁held▁2176
▁Per▁2177
polis▁2178
▁Iranian▁2179
▁Jaw▁2180
▁boy▁2181
▁articulate▁2182
▁violence▁2183
▁killed▁2184
▁latter▁2185
board▁2186
▁boat▁2187
▁journey▁2188
▁wrong▁2189
▁condition▁2190
▁hidden▁2191
▁tsunami▁2192
▁fle▁2193
▁themselves▁2194
▁aunt▁2195
▁wonderful▁2196
▁bare▁2197
foot▁2198
▁Mountain▁2199
▁cop▁2200
▁robber▁2201
quite▁2202
▁194▁2203
8▁2204
▁sister▁2205
▁travel▁2206
▁Israel▁2207
▁sailor▁2208
mut▁2209
ini▁2210
▁teenager▁2211
▁fed▁2212
▁crew▁2213
▁mentioned▁2214
▁hurry▁2215
▁husband▁2216
▁diamond▁2217
▁sew▁2218
▁skirt▁2219
▁hid▁2220
▁grandfather▁2221
▁appear▁2222
▁London▁2223
▁hush▁2224
▁England▁2225
▁clean▁2226
▁slate▁2227
▁silence▁2228
▁Anne▁2229
▁Great▁2230
scape▁2231
▁Sho▁2232
ah▁2233
▁Triumph▁2234
▁Will▁2235
▁Len▁2236
▁Rie▁2237
fen▁2238
ahl▁2239
▁elegant▁2240
▁Nazi▁2241
ropaganda▁2242
▁gav▁2243
▁endure▁2244
▁hurt▁2245
▁loud▁2246
▁useful▁2247
▁whisper▁2248
▁survivors▁2249
▁occasional▁2250
▁tattoo▁2251
▁maid▁2252
▁wrist▁2253
▁Pur▁2254
▁dissipate▁2255
▁quest▁2256
▁crude▁2257
▁complex▁2258
▁serve▁2259
▁drama▁2260
▁lie▁2261
▁12-▁2262
▁W▁2263
izard▁2264
▁Oz▁2265
▁Every▁2266
▁unles▁2267
▁heart▁2268
▁passion▁2269
▁Citizen▁2270
▁Kan▁2271
▁valuable▁2272
▁Jane▁2273
▁Aust▁2274
▁brick▁2275
▁wall▁2276
▁okay▁2277
▁Tom▁2278
▁Hank▁2279
▁astronaut▁2280
▁Ben▁2281
▁King▁2282
ley▁2283
▁super▁2284
impose▁2285
▁Gandhi▁2286
▁Eve▁2287
▁Har▁2288
ington▁2289
▁Howard▁2290
▁Be▁2291
▁Mil▁2292
dred▁2293
▁Pier▁2294
▁opportunity▁2295
▁helpful▁2296
▁Shakespeare▁2297
▁illuminat▁2298
▁Elizabeth▁2299
literatur▁2300
▁engage▁2301
▁inspire▁2302
▁participat▁2303
▁foresee▁2304
▁confidence▁2305
▁academic▁2306
▁achievement▁2307
▁Once▁2308
l▁2309
u▁2310
▁playground▁2311
definition▁2312
▁ambition▁2313
▁appetite▁2314
▁engagement▁2315
▁witness▁2316
▁bin▁2317
ary▁2318
▁description▁2319
▁describe▁2320
fer▁2321
▁nor▁2322
▁myopic▁2323
absorb▁2324
▁negotiat▁2325
▁infinite▁2326
▁surprised▁2327
▁behaviors▁2328
▁tick▁2329
▁shoes▁2330
▁acquisition▁2331
▁essential▁2332
▁component▁2333
▁impossibl▁2334
▁Re▁2335
ar▁2336
▁Wind▁2337
ow▁2338
▁gaze▁2339
▁building▁2340
▁door▁2341
▁tools▁2342
▁Chatro▁2343
▁whistleblower▁2344
▁champion▁2345
▁whistle▁2346
▁whims▁2347
or▁2348
▁A▁2349
▁Ho▁2350
h▁2351
off▁2352
ê▁2353
▁la▁2354
▁Bell▁2355
▁fascinating▁2356
▁inter▁2357
lude▁2358
▁talks▁2359
▁him▁2360
▁craft▁2361
▁whistl▁2362
▁English▁2363
ubb▁2364
▁curl▁2365
hai▁2366
▁Holland▁2367
#▁2368
91▁2369
93;▁2370
▁four▁2371
▁dad▁2372
▁communication▁2373
▁34▁2374
▁annoy▁2375
▁irritat▁2376
▁honest▁2377
▁devi▁2378
▁bike▁2379
▁Christmas▁2380
▁party▁2381
law▁2382
▁Ru▁2383
ol▁2384
ph▁2385
▁Red▁2386
No▁2387
▁Rein▁2388
▁dinner▁2389
▁annoying▁2390
▁Pleas▁2391
▁wine▁2392
▁admit▁2393
▁receive▁2394
▁text▁2395
▁Google▁2396
▁World▁2397
▁Wh▁2398
Champion▁2399
ship▁2400
▁lost▁2401
▁correct▁2402
▁Dutch▁2403
▁Louis▁2404
burg▁2405
▁Carolina▁2406
▁southeast▁2407
▁championship▁2408
4▁2409
▁defend▁2410
▁title▁2411
▁ju▁2412
as▁2413
5▁2414
▁participate▁2415
▁2008▁2416
▁Tokyo▁2417
▁Rotterdam▁2418
▁city▁2419
▁stage▁2420
▁earn▁2421
▁quit▁2422
▁nurse▁2423
▁dream▁2424
▁Huh▁2425
▁track▁2426
▁80▁2427
▁rehearse▁2428
▁tone▁2429
▁promis▁2430
▁technician▁2431
▁ha▁2432
▁myself▁2433
▁solo▁2434
▁propose▁2435
▁Max▁2436
▁West▁2437
man▁2438
▁Shaw▁2439
▁dry▁2440
▁demo▁2441
▁demos▁2442
▁Ultra▁2443
ver▁2444
▁Dr▁2445
▁liquid▁2446
p▁2447
ellen▁2448
▁coat▁2449
▁act▁2450
▁astonishing▁2451
▁shield▁2452
base▁2453
▁materials▁2454
▁nano▁2455
▁spray▁2456
▁umbrella▁2457
▁bounce▁2458
minute▁2459
available▁2460
▁rethink▁2461
▁waterproof▁2462
der▁2463
▁block▁2464
▁nanotechnolog▁2465
▁applie▁2466
▁superhydrophobi▁2467
coat▁2468
▁por▁2469
▁absorb▁2470
more▁2471
po▁2472
rous▁2473
▁drop▁2474
▁round▁2475
▁hydrophob▁2476
▁fresh▁2477
▁wax▁2478
▁windshield▁2479
▁110▁2480
▁175▁2481
▁demonstration▁2482
▁pair▁2483
▁glove▁2484
science▁2485
▁occurr▁2486
▁atoms▁2487
▁nanometer▁2488
▁nanoparticle▁2489
▁thick▁2490
▁50,000▁2491
▁wid▁2492
▁concrete▁2493
▁paint▁2494
▁mud▁2495
▁refine▁2496
▁oil▁2497
▁afr▁2498
aid▁2499
▁fill▁2500
▁rough▁2501
ragg▁2502
▁smooth▁2503
ti▁2504
▁spaces▁2505
▁reach▁2506
▁layer▁2507
▁hit▁2508
▁glide▁2509
▁silver▁2510
▁reflectiv▁2511
▁protect▁2512
▁touch▁2513
▁paddle▁2514
▁application▁2515
▁excited▁2516
▁anti▁2517
wett▁2518
▁certain▁2519
▁ice▁2520
co▁2521
osion▁2522
▁corrosi▁2523
bacterial▁2524
clean▁2525
▁revolutionize▁2526
▁Chris▁2527
▁Anderson▁2528
▁cutting▁2529
▁Design▁2530
▁...▁2531
▁manag▁2532
▁medical▁2533
▁Thu▁2534
Hu▁2535
ong▁2536
▁Dan▁2537
▁Ariel▁2538
▁bugg▁2539
▁behavioral▁2540
▁economist▁2541
▁bugs▁2542
▁OK▁2543
▁cheat▁2544
▁steal▁2545
▁clever▁2546
▁predictabl▁2547
▁irrational▁2548
▁influence▁2549
▁hospital▁2550
▁burned▁2551
▁bother▁2552
▁department▁2553
▁bandage▁2554
▁Band▁2555
Aid▁2556
▁approach▁2557
▁rip▁2558
▁duration▁2559
▁intens▁2560
▁painful▁2561
▁ripp▁2562
▁hour▁2563
▁hat▁2564
▁minimize▁2565
▁word▁2566
▁suggestion▁2567
▁interfere▁2568
▁Hebr▁2569
ew▁2570
kept▁2571
▁university▁2572
▁experimental▁2573
▁method▁2574
▁replica▁2575
▁abstract▁2576
▁examine▁2577
▁original▁2578
▁hardware▁2579
▁store▁2580
ought▁2581
▁carpenter▁2582
▁vice▁2583
▁finger▁2584
▁crunch▁2585
▁version▁2586
▁fund▁2587
▁electrical▁2588
▁suit▁2589
▁intention▁2590
▁plent▁2591
the▁2592
less▁2593
▁encode▁2594
▁legs▁2595
▁trend▁2596
▁recuperat▁2597
▁mistakes▁2598
▁stock▁2599
▁market▁2600
▁situation▁2601
▁Enr▁2602
▁explode▁2603
▁sudden▁2604
▁apple▁2605
emic▁2606
▁decided▁2607
▁experiment▁2608
▁sheet▁2609
▁Pass▁2610
▁dollar▁2611
▁tempt▁2612
▁shred▁2613
▁pocket▁2614
▁backpack▁2615
▁theory▁2616
▁cost▁2617
benefit▁2618
▁probabilit▁2619
▁gain▁2620
▁punishment▁2621
▁option▁2622
▁decide▁2623
▁worthwhile▁2624
▁commit▁2625
▁cent▁2626
▁table▁2627
▁shredd▁2628
▁bowl▁2629
sensitive▁2630
▁incentive▁2631
▁rational▁2632
▁explanation▁2633
▁low▁2634
▁impression▁2635
▁fudge▁2636
▁initial▁2637
▁recall▁2638
▁books▁2639
▁read▁2640
▁Commandment▁2641
▁sample▁2642
▁religious▁2643
▁stopp▁2644
dec▁2645
lar▁2646
▁atheist▁2647
▁swear▁2648
▁Bible▁2649
▁sign▁2650
▁falls▁2651
▁MIT▁2652
▁Honor▁2653
▁Code▁2654
▁decreas▁2655
▁walked▁2656
pack▁2657
▁Coke▁2658
▁refrigerator▁2659
▁undergrad▁2660
life▁2661
▁contrast▁2662
dollar▁2663
▁bill▁2664
▁disappear▁2665
▁third▁2666
▁Experiment▁2667
▁token▁2668
▁12▁2669
▁exchange▁2670
▁intuition▁2671
▁pencil▁2672
▁compare▁2673
▁pet▁2674
▁cash▁2675
▁remove▁2676
▁element▁2677
▁examples▁2678
▁cause▁2679
paid▁2680
▁envelope▁2681
▁stoo▁2682
▁experimenter▁2683
▁actor▁2684
▁sweat▁2685
shirt▁2686
▁wear▁2687
▁Carnegie▁2688
▁Mellon▁2689
▁Pittsburgh▁2690
▁universit▁2691
▁University▁2692
Y▁2693
ou▁2694
▁norm▁2695
▁somebod▁2696
group▁2697
▁appropriate▁2698
▁awareness▁2699
▁remind▁2700
▁moralit▁2701
▁object▁2702
▁reality▁2703
▁distort▁2704
▁derivative▁2705
▁mortgage▁2706
back▁2707
▁secur▁2708
▁economics▁2709
▁private▁2710
▁No▁2711
▁Child▁2712
▁Left▁2713
▁Behind▁2714
▁remov▁2715
ie▁2716
▁consideration▁2717
▁Of▁2718
▁repeated▁2719
▁torture▁2720
felt▁2721
▁Give▁2722
▁check▁2723
▁willing▁2724
▁systematic▁2725
▁experimentation▁2726
▁McG▁2727
onig▁2728
▁multi▁2729
play▁2730
▁thumb▁2731
wrestl▁2732
▁connect▁2733
▁chaos▁2734
ultiplayer▁2735
▁player▁2736
▁joy▁2737
▁relief▁2738
▁pride▁2739
▁curiosity▁2740
▁excitement▁2741
▁content▁2742
▁span▁2743
▁volunteer▁2744
stage▁2745
▁Austria▁2746
▁named▁2747
▁Monochrom▁2748
person▁2749
▁Sunni▁2750
▁declare▁2751
▁war▁2752
▁wrestle▁2753
▁beat▁2754
▁gamer▁2755
▁thumbs▁2756
▁Eric▁2757
▁pin▁2758
▁someone▁2759
▁swoop▁2760
▁Ah▁2761
▁rule▁2762
▁typical▁2763
▁node▁2764
▁notice▁2765
▁involve▁2766
▁perfect▁2767
▁closed▁2768
▁1,500▁2769
▁connected▁2770
▁-▁2771
▁Thi▁2772
▁slides▁2773
▁advance▁2774
▁configuration▁2775
▁D▁2776
eath▁2777
▁Star▁2778
▁Con▁2779
figur▁2780
▁Wars▁2781
▁Möbius▁2782
trip▁2783
▁geek▁2784
▁hardest▁2785
▁thirty▁2786
▁network▁2787
▁easi▁2788
▁free▁2789
▁sure▁2790
▁keep▁2791
▁excellen▁2792
▁bask▁2793
▁glow▁2794
▁recap▁2795
▁What▁2796
▁surprising▁2797
while▁2798
▁physical▁2799
▁shake▁2800
▁smiling▁2801
▁send▁2802
▁messages▁2803
▁email▁2804
tally▁2805
▁awesome▁2806
▁connection▁2807
▁hormone▁2808
xytocin▁2809
▁bond▁2810
▁biochemical▁2811
▁prime▁2812
▁emotion▁2813
▁scratch▁2814
▁congratulat▁2815
▁according▁2816
▁official▁2817
▁rules▁2818
▁grandmaster▁2819
▁accelerate▁2820
▁ches▁2821
▁ready▁2822
▁update▁2823
▁Twitter▁2824
▁Facebook▁2825
▁status▁2826
▁legendar▁2827
▁attention▁2828
▁weak▁2829
▁crazy▁2830
▁wo▁2831
oo▁2832
▁Tod▁2833
▁Mach▁2834
over▁2835
+▁2836
▁Ells▁2837
▁unlock▁2838
▁Media▁2839
▁Lab▁2840
▁devoted▁2841
▁extend▁2842
▁virtuoso▁2843
▁amateur▁2844
▁diverse▁2845
▁opera▁2846
▁games▁2847
▁composer▁2848
▁deal▁2849
▁means▁2850
▁Mozart▁2851
▁effect▁2852
▁uter▁2853
Q▁2854
▁add▁2855
▁engaged▁2856
▁hyper▁2857
instrument▁2858
▁Ma▁2859
▁Gabriel▁2860
▁Prince▁2861
▁orchestra▁2862
▁built▁2863
▁interpretation▁2864
▁cello▁2865
▁voice▁2866
▁fantastic▁2867
▁collection▁2868
▁Brain▁2869
▁Opera▁2870
▁natural▁2871
▁gesture▁2872
▁masse▁2873
▁melod▁2874
▁aura▁2875
▁invite▁2876
▁collaborate▁2877
▁tour▁2878
▁permanent▁2879
▁Vienn▁2880
▁museum▁2881
▁led▁2882
▁guitar▁2883
▁Hero▁2884
▁proof▁2885
▁iceberg▁2886
▁Guitar▁2887
▁communicate▁2888
▁effects▁2889
▁Hyper▁2890
score▁2891
▁broader▁2892
▁fields▁2893
▁Oliver▁2894
▁Sack▁2895
▁Music▁2896
phil▁2897
ia▁2898
▁sale▁2899
▁bookstore▁2900
▁pianist▁2901
self▁2902
▁details▁2903
▁observ▁2904
▁unusual▁2905
▁instance▁2906
▁Alzheimer▁2907
▁recognize▁2908
▁anyone▁2909
▁shard▁2910
▁jump▁2911
▁chair▁2912
▁personalit▁2913
▁restore▁2914
▁stroke▁2915
▁movement▁2916
▁Parkinson▁2917
▁disease▁2918
▁schizophreni▁2919
▁Boston▁2920
▁Te▁2921
wksb▁2922
ury▁2923
▁Hospital▁2924
term▁2925
▁mental▁2926
▁disabilit▁2927
▁central▁2928
▁treatment▁2929
▁clam▁2930
ors▁2931
▁seem▁2932
▁brings▁2933
▁manipulat▁2934
▁paradoxical▁2935
▁nervous▁2936
sharing▁2937
haps▁2938
▁deeper▁2939
▁outside▁2940
▁Power▁2941
▁larger▁2942
▁man▁2943
▁forever▁2944
▁download▁2945
▁singer▁2946
▁character▁2947
▁leg▁2948
acy▁2949
▁alive▁2950
▁giganti▁2951
handel▁2952
ier▁2953
▁prototype▁2954
▁piano▁2955
▁string▁2956
▁bow▁2957
▁propeller▁2958
▁tickle▁2959
▁acoustic▁2960
▁signals▁2961
▁vibrate▁2962
▁army▁2963
▁robots▁2964
▁intermediar▁2965
▁Simon▁2966
▁Greek▁2967
▁chorus▁2968
▁observe▁2969
▁action▁2970
Bot▁2971
▁smart▁2972
▁bump▁2973
▁snap▁2974
▁cube▁2975
▁System▁2976
▁walls▁2977
▁represent▁2978
▁LED▁2979
▁spine▁2980
it▁2981
▁James▁2982
▁Mad▁2983
dale▁2984
na▁2985
▁sneak▁2986
▁preview▁2987
▁premier▁2988
▁Mona▁2989
▁September▁2990
▁online▁2991
▁grand▁2992
cell▁2993
▁squeez▁2994
▁stay▁2995
▁skillful▁2996
▁Adam▁2997
▁B▁2998
lange▁2999
▁Ph▁3000
▁thanks▁3001
▁Bomba▁3002
▁Fle▁3003
jet▁3004
▁resident▁3005
▁stray▁3006
▁motivate▁3007
▁hi▁3008
▁hello▁3009
▁name▁3010
erebral▁3011
▁pal▁3012
▁conduct▁3013
▁software▁3014
▁met▁3015
▁shy▁3016
▁constant▁3017
▁collaborator▁3018
▁CD▁3019
▁mentors▁3020
▁local▁3021
▁expert▁3022
▁nuance▁3023
▁precis▁3024
▁disability▁3025
▁engineering▁3026
▁solution▁3027
▁Fire▁3028
W▁3029
ire▁3030
▁infrar▁3031
▁metaphor▁3032
▁controller▁3033
▁input▁3034
▁cod▁3035
▁shoulder▁3036
▁extensive▁3037
▁expressive▁3038
▁motion▁3039
▁convey▁3040
▁parameter▁3041
▁fitting▁3042
▁stretch▁3043
▁fit▁3044
▁shift▁3045
▁express▁3046
▁relationship▁3047
▁lack▁3048
▁technological▁3049
▁sphere▁3050
▁path▁3051
▁TM▁3052
▁My▁3053
▁Eagle▁3054
▁Song▁3055
▁score▁3056
▁compose▁3057
▁fast▁3058
▁modest▁3059
▁section▁3060
▁bang▁3061
▁analyze▁3062
▁visual▁3063
▁literal▁3064
▁trac▁3065
▁graphic▁3066
▁purposeful▁3067
▁precise▁3068
▁discipline▁3069
▁hearing▁3070
▁AB▁3071
▁yea▁3072
▁Byr▁3073
▁architecture▁3074
▁evolve▁3075
▁CB▁3076
GB▁3077
▁Hall▁3078
▁venue▁3079
▁outdoor▁3080
▁drum▁3081
▁Wagner▁3082
ian▁3083
▁arena▁3084
▁remarkabl▁3085
▁uneven▁3086
▁Head▁3087
▁anyway▁3088
)▁3089
▁So▁3090
▁lyric▁3091
▁decent▁3092
▁reverberat▁3093
▁intact▁3094
▁Too▁3095
sie▁3096
▁Orchid▁3097
▁Lo▁3098
ung▁3099
▁Nash▁3100
ville▁3101
▁client▁3102
le▁3103
▁volume▁3104
▁overcom▁3105
▁fall▁3106
▁shout▁3107
▁nice▁3108
▁Disney▁3109
▁sometimes▁3110
▁hall▁3111
▁specific▁3112
▁Africa▁3113
▁popular▁3114
▁roots▁3115
▁intricate▁3116
▁confuse▁3117
▁amplification▁3118
▁etc▁3119
▁accident▁3120
▁mess▁3121
▁cathedral▁3122
▁flatter▁3123
▁Bach▁3124
▁keys▁3125
▁dissonance▁3126
▁17▁3127
70▁3128
▁rever▁3129
ber▁3130
▁frill▁3131
▁La▁3132
▁Scal▁3133
7▁3134
▁yell▁3135
▁eat▁3136
▁drink▁3137
ria▁3138
▁hol▁3139
ler▁3140
▁enco▁3141
▁bomb▁3142
▁pit▁3143
▁fair▁3144
ized▁3145
▁Alex▁3146
▁Ross▁3147
▁New▁3148
orker▁3149
▁quiet▁3150
▁eating▁3151
▁gossip▁3152
▁combine▁3153
▁drown▁3154
ural▁3155
▁Mahl▁3156
▁Bob▁3157
▁Dylan▁3158
▁jazz▁3159
▁Scott▁3160
▁Jo▁3161
plin▁3162
▁river▁3163
boat▁3164
▁nois▁3165
▁dancer▁3166
▁Play▁3167
▁improvise▁3168
▁Latin▁3169
▁primary▁3170
▁microphone▁3171
▁musician▁3172
▁radio▁3173
▁Sina▁3174
tra▁3175
▁mic▁3176
▁Ch▁3177
▁Baker▁3178
▁ear▁3179
▁electric▁3180
▁diverge▁3181
▁disco▁3182
que▁3183
ke▁3184
box▁3185
▁bars▁3186
▁hip▁3187
hop▁3188
▁loop▁3189
▁stadium▁3190
basketball▁3191
▁hockey▁3192
▁medium▁3193
speed▁3194
▁ball▁3195
ad▁3196
tempo▁3197
▁automobile▁3198
▁frequenc▁3199
▁bass▁3200
▁stuck▁3201
▁MP▁3202
▁presum▁3203
▁Christian▁3204
▁African▁3205
▁blast▁3206
▁passage▁3207
▁pop▁3208
▁exten▁3209
▁creation▁3210
▁adaptation▁3211
▁anywhere▁3212
▁Attenborough▁3213
▁birds▁3214
folia▁3215
ge▁3216
pi▁3217
tched▁3218
▁repetitive▁3219
▁forest▁3220
avannah▁3221
▁spa▁3222
rrow▁3223
▁buzz▁3224
▁efficient▁3225
▁practical▁3226
▁transmit▁3227
▁savanna▁3228
▁tan▁3229
ang▁3230
▁East▁3231
▁Coast▁3232
▁den▁3233
▁west▁3234
▁primari▁3235
▁galler▁3236
▁evolutionary▁3237
▁adaptive▁3238
▁pleasure▁3239
▁reverse▁3240
▁Romantic▁3241
pour▁3242
▁vessel▁3243
▁pour▁3244
▁instinctive▁3245
▁intuitive▁3246
▁conflict▁3247
▁views▁3248
▁writer▁3249
▁Thom▁3250
▁voter▁3251
▁vote▁3252
▁assume▁3253
▁gut▁3254
▁authentic▁3255
▁fake▁3256
▁mutual▁3257
▁exclusive▁3258
▁needs▁3259
▁Ron▁3260
▁Ed▁3261
ry▁3262
▁Iran▁3263
▁March▁3264
▁14▁3265
▁post▁3266
▁poster▁3267
▁image▁3268
▁Israeli▁3269
▁flag▁3270
▁grocer▁3271
▁owner▁3272
▁10,000▁3273
▁missile▁3274
▁designer▁3275
▁sleep▁3276
▁night▁3277
▁woke▁3278
▁w▁3279
aking▁3280
▁neighbor▁3281
▁girl▁3282
▁cry▁3283
▁wife▁3284
▁reflex▁3285
▁shoot▁3286
▁unleash▁3287
▁dude▁3288
▁Make▁3289
▁intense▁3290
▁designers▁3291
▁lots▁3292
▁spread▁3293
way▁3294
▁Israelis▁3295
▁verge▁3296
▁Middle▁3297
▁Okay▁3298
▁Mich▁3299
▁asking▁3300
▁Who▁3301
nna▁3302
▁Palestine▁3303
▁Syria▁3304
▁Leban▁3305
▁Chinese▁3306
▁popped▁3307
▁logo▁3308
Loves▁3309
Israel▁3310
ehran▁3311
▁dedicat▁3312
▁friend▁3313
typing▁3314
Iran▁3315
,8▁3316
▁photos▁3317
▁perceive▁3318
membran▁3319
▁soldier▁3320
▁putting▁3321
▁respect▁3322
▁compassion▁3323
▁Mu▁3324
ich▁3325
▁ex▁3326
position▁3327
▁France▁3328
▁arrive▁3329
ur▁3330
▁stress▁3331
▁Not▁3332
▁plus▁3333
/▁3334
▁minus▁3335
▁aggressiv▁3336
▁amazing▁3337
▁41▁3338
▁naive▁3339
eah▁3340
▁flowers▁3341
▁parat▁3342
oper▁3343
▁courage▁3344
▁inevitabl▁3345
▁avoid▁3346
▁es▁3347
pecial▁3348
▁ambassador▁3349
▁Charles▁3350
▁Moore▁3351
▁seas▁3352
▁plastic▁3353
gali▁3354
▁Marine▁3355
▁R▁3356
esearch▁3357
▁Foundation▁3358
arbage▁3359
▁Pat▁3360
▁endless▁3361
▁floating▁3362
▁trash▁3363
▁drawing▁3364
▁chok▁3365
▁debri▁3366
ounce▁3367
▁ethic▁3368
▁Depression▁3369
▁War▁3370
▁II▁3371
▁production▁3372
▁capacity▁3373
▁products▁3374
▁Magazine▁3375
▁announc▁3376
▁introduction▁3377
▁throwaway▁3378
▁liberate▁3379
wife▁3380
▁dr▁3381
ud▁3382
ger▁3383
▁dishe▁3384
▁liberat▁3385
▁biodegrad▁3386
▁recycle▁3387
five▁3388
percent▁3389
▁recover▁3390
▁stream▁3391
point▁3392
quat▁3393
▁melt▁3394
▁pur▁3395
el▁3396
▁glass▁3397
▁metal▁3398
▁contaminant▁3399
▁sponge▁3400
▁thermal▁3401
▁pellet▁3402
track▁3403
ru▁3404
▁fraction▁3405
ri▁3406
▁accumulation▁3407
▁Bio▁3408
Creek▁3409
▁L▁3410
A▁3411
▁airport▁3412
flo▁3413
sam▁3414
▁California▁3415
▁Long▁3416
▁Beach▁3417
▁diese▁3418
▁plant▁3419
▁visit▁3420
▁yester▁3421
▁spite▁3422
▁deposit▁3423
▁fee▁3424
▁leading▁3425
▁beverage▁3426
▁bottle▁3427
▁present▁3428
▁Jordan▁3429
▁document▁3430
▁mass▁3431
▁zoom▁3432
▁remote▁3433
▁island▁3434
ory▁3435
▁coast▁3436
▁Ba▁3437
ja▁3438
la▁3439
▁Ro▁3440
▁uninhabit▁3441
▁bird▁3442
ook▁3443
▁sparse▁3444
▁populate▁3445
▁caps▁3446
▁poly▁3447
len▁3448
ter▁3449
ep▁3450
ht▁3451
hal▁3452
ate▁3453
▁PET▁3454
▁sink▁3455
▁seawater▁3456
▁civilization▁3457
▁separate▁3458
▁factories▁3459
pro▁3460
py▁3461
▁unfortunate▁3462
▁trace▁3463
▁straight▁3464
▁current▁3465
▁latitude▁3466
bo▁3467
▁Luca▁3468
▁Eastern▁3469
▁litter▁3470
▁Philippine▁3471
▁emerg▁3472
▁zone▁3473
▁Gyr▁3474
lbatross▁3475
▁nest▁3476
▁Ku▁3477
▁Mid▁3478
to▁3479
▁Northwest▁3480
▁Hawaiian▁3481
▁Islands▁3482
▁National▁3483
▁Monument▁3484
▁forage▁3485
▁scaveng▁3486
gur▁3487
gi▁3488
▁chick▁3489
month▁3490
▁Albatross▁3491
▁stomach▁3492
▁goose▁3493
▁dying▁3494
▁rubb▁3495
ish▁3496
▁cigarette▁3497
▁lighter▁3498
▁mistake▁3499
▁retain▁3500
▁rings▁3501
▁consequences▁3502
quatic▁3503
▁Mae▁3504
▁zoo▁3505
▁Orleans▁3506
▁town▁3507
▁contribut▁3508
▁Clean▁3509
Up▁3510
▁Day▁3511
▁Pe▁3512
ninsula▁3513
▁east▁3514
▁cleaned▁3515
▁sw▁3516
ath▁3517
▁1,1▁3518
00▁3519
▁bucks▁3520
ab▁3521
llo▁3522
▁Aquarium▁3523
▁Pedr▁3524
▁governor▁3525
▁Schwarzen▁3526
gger▁3527
▁Maria▁3528
▁discuss▁3529
▁crochet▁3530
▁bag▁3531
▁sho▁3532
oplankton▁3533
▁trawl▁3534
▁gyr▁3535
▁Hawaii▁3536
▁plankton▁3537
▁soup▁3538
▁wash▁3539
▁Kai▁3540
ua▁3541
▁president▁3542
▁contain▁3543
▁millimeter▁3544
third▁3545
▁concentrate▁3546
▁persistent▁3547
▁pollutant▁3548
▁surrounding▁3549
▁base▁3550
▁chain▁3551
▁ingest▁3552
▁poison▁3553
▁ne▁3554
crop▁3555
▁pollut▁3556
hold▁3557
and▁3558
half▁3559
▁84▁3560
▁certifi▁3561
▁sell▁3562
▁wild▁3563
▁leaving▁3564
gone▁3565
▁maintain▁3566
▁fix▁3567
▁horses▁3568
▁men▁3569
▁gather▁3570
▁narrat▁3571
▁packag▁3572
▁proliferat▁3573
▁anchor▁3574
▁strain▁3575
▁budget▁3576
▁unto▁3577
▁source▁3578
▁land▁3579
rapped▁3580
▁package▁3581
▁Brian▁3582
▁Night▁3583
line▁3584
▁Carol▁3585
▁Steel▁3586
▁cities▁3587
▁meal▁3588
▁architect▁3589
▁da▁3590
ily▁3591
▁miracle▁3592
▁feeding▁3593
▁ancient▁3594
▁route▁3595
▁modern▁3596
▁feed▁3597
▁rare▁3598
▁shop▁3599
▁restaurant▁3600
▁fo▁3601
▁magical▁3602
▁transport▁3603
▁sold▁3604
▁cook▁3605
▁dispos▁3606
▁earth▁3607
dependent▁3608
▁ancestor▁3609
▁soybean▁3610
▁Gross▁3611
▁Brazil▁3612
▁meat▁3613
▁grain▁3614
▁globally▁3615
▁escalat▁3616
50▁3617
▁estimate▁3618
▁twice▁3619
ir▁3620
▁consume▁3621
▁urbanis▁3622
rising▁3623
▁pose▁3624
▁hungry▁3625
iv▁3626
▁carry▁3627
▁nineteen▁3628
▁hectare▁3629
▁losing▁3630
▁equivalent▁3631
▁salin▁3632
▁er▁3633
▁fossil▁3634
▁fuel▁3635
▁calorie▁3636
▁USA▁3637
▁proper▁3638
▁obes▁3639
▁starve▁3640
▁none▁3641
▁trade▁3642
▁multinational▁3643
▁corporations▁3644
▁grim▁3645
▁embrac▁3646
▁unsustainabl▁3647
▁Fer▁3648
▁Crescen▁3649
▁crescen▁3650
▁fertil▁3651
▁inventions▁3652
▁agricultur▁3653
▁bound▁3654
▁settlement▁3655
▁compact▁3656
▁surround▁3657
▁productive▁3658
▁farm▁3659
▁temple▁3660
▁Ur▁3661
▁effective▁3662
▁spiritual▁3663
▁distribution▁3664
▁gods▁3665
▁famous▁3666
▁Rome▁3667
▁import▁3668
▁roads▁3669
▁wage▁3670
▁Car▁3671
▁Egypt▁3672
▁paw▁3673
▁reserve▁3674
▁Empire▁3675
▁militari▁3676
▁sp▁3677
▁mention▁3678
▁oyster▁3679
▁hinter▁3680
industrial▁3681
▁map▁3682
ham▁3683
▁south▁3684
ap▁3685
side▁3686
▁Brea▁3687
▁Street▁3688
gate▁3689
ite▁3690
19▁3691
80▁3692
▁wandering▁3693
▁smell▁3694
▁port▁3695
▁establish▁3696
▁northwest▁3697
▁Scot▁3698
▁Wales▁3699
▁arriv▁3700
field▁3701
▁locate▁3702
▁po▁3703
ult▁3704
▁An▁3705
gli▁3706
▁northeast▁3707
▁protected▁3708
▁canvas▁3709
▁eastern▁3710
▁industrial▁3711
▁clue▁3712
▁Friday▁3713
▁previous▁3714
▁1830▁3715
aware▁3716
▁Sunday▁3717
▁moo▁3718
ble▁3719
ating▁3720
▁earlie▁3721
▁1840▁3722
▁passenger▁3723
▁pig▁3724
▁sheep▁3725
▁slaughter▁3726
▁constrain▁3727
▁geograph▁3728
▁emancipat▁3729
▁trains▁3730
▁blob▁3731
▁spl▁3732
▁cars▁3733
▁marks▁3734
▁apparent▁3735
void▁3736
▁dreamed▁3737
▁drove▁3738
▁outskirt▁3739
▁core▁3740
▁peripher▁3741
▁event▁3742
▁egg▁3743
▁cake▁3744
▁label▁3745
▁packet▁3746
▁harder▁3747
▁500▁3748
▁More▁3749
is▁3750
piece▁3751
▁Utopia▁3752
▁semi▁3753
state▁3754
▁remotely▁3755
▁farming▁3756
▁vegetable▁3757
▁garden▁3758
▁fundamental▁3759
▁Ebene▁3760
zer▁3761
▁Garden▁3762
▁City▁3763
▁metropolitan▁3764
▁railway▁3765
▁deliberate▁3766
▁joke▁3767
▁der▁3768
▁ideal▁3769
▁imagin▁3770
▁conceptual▁3771
▁tool▁3772
▁dwell▁3773
topia▁3774
os▁3775
▁slide▁3776
▁dog▁3777
▁plan▁3778
▁stare▁3779
▁pile▁3780
▁raw▁3781
▁networks▁3782
▁grown▁3783
um▁3784
▁commodity▁3785
▁uns▁3786
hole▁3787
▁cows▁3788
▁steam▁3789
▁hum▁3790
▁To▁3791
ronto▁3792
▁greenhouse▁3793
▁Kev▁3794
▁belonging▁3795
▁reconnect▁3796
▁recogniz▁3797
▁trick▁3798
productive▁3799
▁framework▁3800
▁symbiotic▁3801
culture▁3802
▁sum▁3803
con▁3804
ual▁3805
▁650▁3806
▁Am▁3807
ogi▁3808
Lorenz▁3809
etti▁3810
▁Alle▁3811
go▁3812
▁Good▁3813
▁Government▁3814
▁alle▁3815
▁urgent▁3816
▁Eddi▁3817
▁Reader▁3818
▁Kit▁3819
flyer▁3820
▁Hill▁3821
▁songwrit▁3822
▁tender▁3823
▁Dolby▁3824
▁Martin▁3825
▁Evan▁3826
▁Bo▁3827
ine▁3828
▁invit▁3829
▁blessing▁3830
am▁3831
irstream▁3832
▁rest▁3833
led▁3834
key▁3835
▁2002▁3836
▁American▁3837
▁trailer▁3838
▁Wilson▁3839
art▁3840
▁International▁3841
▁laminate▁3842
▁company▁3843
▁booth▁3844
▁exhibition▁3845
ontemporar▁3846
▁Fu▁3847
ure▁3848
▁Fair▁3849
ork▁3850
▁interior▁3851
▁furniture▁3852
▁portray▁3853
▁contemporar▁3854
erkeley▁3855
▁stepp▁3856
▁optimize▁3857
istic▁3858
▁fashion▁3859
▁disconnect▁3860
terior▁3861
▁conceive▁3862
▁lightweight▁3863
▁futurist▁3864
tech▁3865
▁freeway▁3866
▁sync▁3867
▁reference▁3868
▁cabin▁3869
▁crisis▁3870
▁vocabular▁3871
▁escape▁3872
▁archeolog▁3873
▁feels▁3874
▁utilit▁3875
▁stripped▁3876
vinyl▁3877
ola▁3878
▁alumin▁3879
visible▁3880
▁tri▁3881
drew▁3882
▁mock▁3883
▁card▁3884
▁cut▁3885
▁mobil▁3886
▁logical▁3887
▁ceiling▁3888
▁compound▁3889
▁highlight▁3890
▁bend▁3891
▁dimensions▁3892
▁curve▁3893
▁devise▁3894
▁fool▁3895
▁eye▁3896
▁believ▁3897
▁panels▁3898
▁skin▁3899
▁geometr▁3900
work▁3901
▁rewire▁3902
▁chase▁3903
▁commission▁3904
▁Designer▁3905
▁Block▁3906
▁events▁3907
▁Octo▁3908
uo▁3909
▁Kur▁3910
aki▁3911
▁Idee▁3912
▁ship▁3913
▁blank▁3914
▁scenario▁3915
▁DJ▁3916
table▁3917
▁fridge▁3918
▁integrat▁3919
▁idiosyncra▁3920
tic▁3921
▁migrate▁3922
▁consult▁3923
▁skateboard▁3924
▁surfer▁3925
▁climber▁3926
▁Bambi▁3927
▁Final▁3928
▁oh▁3929
▁mold▁3930
▁facilit▁3931
▁dilemma▁3932
built▁3933
scribe▁3934
▁unique▁3935
▁16▁3936
▁Elli▁3937
ot▁3938
▁Kran▁3939
▁mystery▁3940
▁symptom▁3941
▁feedback▁3942
▁terrifying▁3943
raine▁3944
▁nightmare▁3945
▁pediatrician▁3946
nesthesiologist▁3947
▁management▁3948
Packard▁3949
hildren▁3950
▁Stanford▁3951
▁Palo▁3952
▁Alto▁3953
▁tumor▁3954
▁infection▁3955
▁inflammat▁3956
▁operation▁3957
▁persist▁3958
▁str▁3959
▁feather▁3960
▁please▁3961
▁seat▁3962
▁torch▁3963
▁Chandler▁3964
▁whom▁3965
▁photograph▁3966
▁aspire▁3967
▁rehearsal▁3968
▁fell▁3969
stretch▁3970
▁trivial▁3971
▁wrap▁3972
▁ACE▁3973
ibu▁3974
prof▁3975
▁clinic▁3976
color▁3977
▁cadaver▁3978
ically▁3979
frozen▁3980
▁paralyz▁3981
onic▁3982
▁fingertip▁3983
▁elbow▁3984
▁spontaneous▁3985
▁24▁3986
nia▁3987
▁phenomeno▁3988
▁illustrate▁3989
▁sleeve▁3990
▁garment▁3991
▁excruciating▁3992
▁burning▁3993
▁mis▁3994
▁innocent▁3995
vo▁3996
▁wir▁3997
▁switch▁3998
junction▁3999
▁bulb▁4000
▁hammer▁4001
▁nerve▁4002
▁spin▁4003
▁cord▁4004
▁conscious▁4005
▁complicated▁4006
▁releas▁4007
▁brown▁4008
neurotransmitter▁4009
▁linear▁4010
▁spill▁4011
▁vertical▁4012
▁adjacen▁4013
important▁4014
▁structural▁4015
▁elements▁4016
▁vital▁4017
▁role▁4018
▁mo▁4019
ulation▁4020
▁distortion▁4021
▁sensory▁4022
▁activate▁4023
▁DNA▁4024
▁synthesize▁4025
▁protein▁4026
▁forth▁4027
▁toilet▁4028
▁flush▁4029
▁doors▁4030
▁dish▁4031
wash▁4032
▁monitor▁4033
▁plasticity▁4034
▁morph▁4035
▁response▁4036
▁stimuli▁4037
ifying▁4038
▁drugs▁4039
kill▁4040
▁frank▁4041
▁anesthetic▁4042
▁rigorous▁4043
▁uncomfortabl▁4044
▁therap▁4045
▁occupational▁4046
▁retrain▁4047
▁intensive▁4048
▁psychotherap▁4049
▁address▁4050
nden▁4051
cy▁4052
▁despair▁4053
▁accompani▁4054
▁severe▁4055
▁flip▁4056
▁college▁4057
▁absolute▁4058
▁prophet▁4059
▁George▁4060
▁Carl▁4061
▁Kris▁4062
ina▁4063
j▁4064
▁law▁4065
▁gorgeous▁4066
▁dose▁4067
▁PR▁4068
▁moon▁4069
▁myth▁4070
▁legend▁4071
▁marked▁4072
▁monster▁4073
▁exploration▁4074
▁discoveries▁4075
▁forefather▁4076
▁monstro▁4077
▁env▁4078
IUC▁4079
N▁4080
▁Madagas▁4081
car▁4082
▁seamount▁4083
▁legal▁4084
▁exploit▁4085
▁cast▁4086
dated▁4087
▁assumption▁4088
▁pioneer▁4089
▁govern▁4090
▁root▁4091
basin▁4092
wide▁4093
▁precaution▁4094
▁scar▁4095
▁notion▁4096
▁carbon▁4097
▁stor▁4098
▁heat▁4099
▁36▁4100
▁confront▁4101
▁laws▁4102
▁shipp▁4103
▁protection▁4104
▁shore▁4105
▁garbage▁4106
▁discharge▁4107
▁regulat▁4108
▁patche▁4109
Tex▁4110
▁pollution▁4111
▁dilut▁4112
▁Eli▁4113
▁Ostro▁4114
▁prerequisite▁4115
▁bind▁4116
▁monitoring▁4117
▁enforce▁4118
▁verify▁4119
▁doom▁4120
▁gloom▁4121
▁conservationist▁4122
▁photographer▁4123
▁states▁4124
▁tragic▁4125
▁trajector▁4126
▁destroy▁4127
▁coral▁4128
▁save▁4129
▁fate▁4130
▁basement▁4131
▁Nations▁4132
▁fisher▁4133
▁regime▁4134
▁prior▁4135
▁duty▁4136
▁prevent▁4137
▁significant▁4138
▁harm▁4139
▁progress▁4140
kilometer▁4141
▁Sylvia▁4142
▁leverage▁4143
▁hopeful▁4144
cycle▁4145
▁turtle▁4146
▁sampl▁4147
▁flavor▁4148
▁Sargasso▁4149
▁Sea▁4150
argassum▁4151
▁aggregate▁4152
▁spawn▁4153
▁eel▁4154
▁Northern▁4155
▁European▁4156
▁rivers▁4157
▁dwindl▁4158
▁Stock▁4159
holm▁4160
▁Februar▁4161
▁200,000▁4162
ggregat▁4163
▁lay▁4164
▁eggs▁4165
▁launch▁4166
▁initiative▁4167
▁thus▁4168
▁Bermuda▁4169
▁jurisdiction▁4170
▁spearhead▁4171
▁spinn▁4172
place▁4173
▁cooler▁4174
▁South▁4175
ern▁4176
▁Ocean▁4177
▁bay▁4178
▁territorial▁4179
▁claim▁4180
▁summer▁4181
phy▁4182
▁kri▁4183
ho▁4184
▁CC▁4185
ML▁4186
▁regional▁4187
▁charge▁4188
conserv▁4189
▁stocks▁4190
▁marine▁4191
▁authoriz▁4192
▁tooth▁4193
fish▁4194
▁captain▁4195
▁Zealand▁4196
▁decline▁4197
▁killer▁4198
▁whale▁4199
▁Antarctic▁4200
limits▁4201
▁Cost▁4202
▁Rica▁4203
▁Dome▁4204
round▁4205
▁winter▁4206
▁oceanograph▁4207
▁shifts▁4208
▁seasonal▁4209
▁basis▁4210
▁identify▁4211
▁vulnerabl▁4212
▁Galapagos▁4213
▁headed▁4214
▁Tropic▁4215
▁coordinat▁4216
▁Conservati▁4217
▁H▁4218
eritage▁4219
▁Convention▁4220
▁qualify▁4221
▁adopt▁4222
▁urge▁4223
▁Half▁4224
World▁4225
▁hook▁4226
catch▁4227
up▁4228
▁Tag▁4229
ging▁4230
▁Predator▁4231
ensus▁4232
▁Life▁4233
water▁4234
▁basin▁4235
▁kilometer▁4236
▁treasure▁4237
▁culminat▁4238
▁tun▁4239
▁tagg▁4240
▁pac▁4241
if▁4242
▁predator▁4243
▁column▁4244
▁cucumber▁4245
▁fortunate▁4246
▁reveal▁4247
▁workshop▁4248
▁sufficient▁4249
▁hotspot▁4250
▁outer▁4251
▁trans▁4252
▁date▁4253
▁rocket▁4254
▁mandate▁4255
▁privilege▁4256
home▁4257
▁avert▁4258
▁traged▁4259
▁collision▁4260
▁broad▁4261
▁marvel▁4262
light▁4263
▁previously▁4264
▁unknown▁4265
▁stake▁4266
▁communit▁4267
ng▁4268
▁Earle▁4269
▁penetrate▁4270
▁obstacle▁4271
▁sustainabl▁4272
▁Bruc▁4273
▁Ayl▁4274
▁polio▁4275
▁eradicat▁4276
▁vaccine▁4277
▁terrifi▁4278
▁panic▁4279
▁lung▁4280
▁breathe▁4281
▁breath▁4282
▁cure▁4283
▁twenty▁4284
▁hail▁4285
▁1950▁4286
▁awful▁4287
▁month▁4288
▁Jon▁4289
pox▁4290
▁oops▁4291
▁partnership▁4292
▁sides▁4293
▁globe▁4294
▁outbreak▁4295
▁sequenc▁4296
▁viruses▁4297
▁originate▁4298
▁commercial▁4299
lin▁4300
▁Russia▁4301
▁crippl▁4302
▁devastating▁4303
▁explosive▁4304
yelit▁4305
▁Polio▁4306
▁Partner▁4307
free▁4308
▁lucky▁4309
▁armor▁4310
▁vaccines▁4311
▁capital▁4312
▁risks▁4313
▁humanitarian▁4314
▁congress▁4315
▁26▁4316
▁vaccination▁4317
▁deteriorat▁4318
▁tropic▁4319
▁vi▁4320
▁expos▁4321
▁potent▁4322
rash▁4323
▁vaccinate▁4324
▁multiple▁4325
▁peak▁4326
vaccin▁4327
ator▁4328
long▁4329
▁urban▁4330
▁trek▁4331
welt▁4332
▁dodg▁4333
▁bullet▁4334
▁operate▁4335
▁shak▁4336
▁cease▁4337
fire▁4338
▁reporter▁4339
▁Somalia▁4340
infect▁4341
▁road▁4342
▁unfold▁4343
▁foreign▁4344
▁aid▁4345
▁heroes▁4346
▁Rot▁4347
trong▁4348
▁infrastructure▁4349
▁striking▁4350
▁rapid▁4351
▁exception▁4352
▁199▁4353
▁worldwide▁4354
▁99▁4355
▁reduction▁4356
▁1,000▁4357
▁pandemic▁4358
▁flu▁4359
▁SARS▁4360
▁vitamin▁4361
▁measl▁4362
▁malaria▁4363
▁irre▁4364
spective▁4365
▁northern▁4366
▁India▁4367
▁Nigeria▁4368
▁causing▁4369
▁horrific▁4370
▁decades▁4371
▁tenaci▁4372
▁reservoir▁4373
▁grip▁4374
▁frustration▁4375
▁voices▁4376
▁Hang▁4377
▁abandon▁4378
▁settle▁4379
▁seductive▁4380
▁false▁4381
▁premise▁4382
▁Umar▁4383
▁brothers▁4384
▁beating▁4385
▁crutch▁4386
▁rhyme▁4387
▁exceptional▁4388
▁circumstance▁4389
▁strike▁4390
▁drag▁4391
▁families▁4392
▁desperate▁4393
▁saving▁4394
▁va▁4395
▁deserve▁4396
▁buckl▁4397
▁missing▁4398
▁mapping▁4399
▁guide▁4400
▁shelter▁4401
▁K▁4402
oshi▁4403
▁River▁4404
▁Muslim▁4405
▁logistic▁4406
▁devices▁4407
GI▁4408
▁carrier▁4409
▁street▁4410
▁commitment▁4411
▁approache▁4412
ommittee▁4413
▁Cross▁4414
▁tactic▁4415
▁50-▁4416
▁buck▁4417
▁Jun▁4418
▁nin▁4419
changer▁4420
▁roll▁4421
▁southern▁4422
rserk▁4423
▁storm▁4424
▁500,000▁4425
ttar▁4426
▁Pr▁4427
adesh▁4428
▁Bi▁4429
har▁4430
▁sanit▁4431
▁95▁4432
▁ladies▁4433
▁gentlem▁4434
▁combination▁4435
▁secondar▁4436
▁stark▁4437
▁reminder▁4438
▁failing▁4439
▁justice▁4440
▁capitaliz▁4441
▁enthusias▁4442
▁Cameron▁4443
ingdom▁4444
▁There▁4445
▁crossroad▁4446
▁resolve▁4447
▁blink▁4448
▁lose▁4449
▁momentum▁4450
▁Gates▁4451
▁smartest▁4452
▁corner▁4453
▁border▁4454
▁Pakistan▁4455
▁BG▁4456
▁750▁4457
▁800▁4458
▁corners▁4459
▁genero▁4460
▁luck▁4461
▁Tony▁4462
▁Port▁4463
▁TEDWomen▁4464
▁boys▁4465
▁disrespect▁4466
▁mistreat▁4467
▁abuse▁4468
▁Harlem▁4469
▁Bronx▁4470
▁ingredient▁4471
▁doubt▁4472
▁twist▁4473
▁deconstruct▁4474
▁redefin▁4475
hood▁4476
▁Kendal▁4477
▁Jay▁4478
▁Ta▁4479
▁busy▁4480
▁whip▁4481
▁ba▁4482
▁boom▁4483
▁knee▁4484
not▁4485
ddy▁4486
▁clock▁4487
▁guideline▁4488
▁defin▁4489
▁Just▁4490
▁brother▁4491
▁Henry▁4492
▁burial▁4493
▁Island▁4494
▁prepar▁4495
▁bathroom▁4496
▁folks▁4497
▁ride▁4498
▁lim▁4499
▁empti▁4500
▁auntie▁4501
▁burst▁4502
▁sticks▁4503
▁apolog▁4504
izing▁4505
▁prop▁4506
▁lift▁4507
▁hostage▁4508
▁How▁4509
▁coach▁4510
▁mad▁4511
▁angry▁4512
▁girls▁4513
▁inner▁4514
▁Johnny▁4515
▁younger▁4516
▁hanging▁4517
▁16-▁4518
▁heroin▁4519
▁overdose▁4520
▁grandmother▁4521
▁fine▁4522
▁sex▁4523
stair▁4524
▁Anthon▁4525
▁opens▁4526
▁Do▁4527
▁jeopard▁4528
▁dear▁4529
▁swor▁4530
▁secre▁4531
▁sexual▁4532
▁neighborhood▁4533
heila▁4534
▁nude▁4535
▁ill▁4536
function▁4537
▁inappropriate▁4538
▁raped▁4539
▁offering▁4540
▁bust▁4541
▁zip▁4542
▁pant▁4543
▁lo▁4544
▁behold▁4545
▁remorse▁4546
▁tremendous▁4547
▁property▁4548
▁equation▁4549
ification▁4550
▁epidemic▁4551
broad▁4552
▁adhere▁4553
▁Stan▁4554
▁McChr▁4555
ystal▁4556
▁Four▁4557
star▁4558
▁leadership▁4559
▁failure▁4560
▁Tue▁4561
▁parachute▁4562
▁Fort▁4563
▁routine▁4564
▁training▁4565
▁27▁4566
▁Army▁4567
▁refresh▁4568
▁budd▁4569
-10▁4570
▁strap▁4571
▁heavy▁4572
rucksack▁4573
master▁4574
NC▁4575
O▁4576
▁checks▁4577
▁grabs▁4578
▁adjust▁4579
▁tight▁4580
▁chest▁4581
▁octave▁4582
▁load▁4583
▁lumber▁4584
▁Air▁4585
▁Force▁4586
▁command▁4587
▁warning▁4588
▁boost▁4589
▁Get▁4590
▁Out▁4591
nel▁4592
▁static▁4593
▁additional▁4594
▁flowing▁4595
om▁4596
▁slip▁4597
stream▁4598
▁lock▁4599
▁position▁4600
born▁4601
▁hypothesis▁4602
▁opening▁4603
▁thrill▁4604
▁prepare▁4605
▁delay▁4606
▁pretend▁4607
▁steer▁4608
▁teache▁4609
▁calve▁4610
▁thigh▁4611
buttock▁4612
▁30-▁4613
some▁4614
melon▁4615
▁eternal▁4616
bine▁4617
▁combat▁4618
▁2001▁4619
zone▁4620
▁soldiers▁4621
▁theoretical▁4622
▁46▁4623
▁br▁4624
ig▁4625
adi▁4626
▁Robert▁4627
▁Lee▁4628
▁John▁4629
▁Bu▁4630
ford▁4631
▁Getty▁4632
sburg▁4633
▁Vietnam▁4634
▁wise▁4635
▁brave▁4636
▁faithful▁4637
▁comrade▁4638
▁bunch▁4639
▁battalion▁4640
▁commander▁4641
▁conversation▁4642
▁march▁4643
▁chew▁4644
▁interaction▁4645
▁Training▁4646
▁Center▁4647
▁dawn▁4648
▁depart▁4649
▁battle▁4650
▁humiliation▁4651
▁snake▁4652
▁belly▁4653
▁wag▁4654
▁apologize▁4655
▁sentence▁4656
▁lifted▁4657
▁fail▁4658
▁9▁4659
▁Br▁4660
▁Gen▁4661
▁scrutin▁4662
▁sensitivit▁4663
▁dispers▁4664
▁technique▁4665
▁tele▁4666
ference▁4667
▁chat▁4668
▁22▁4669
▁versa▁4670
▁coordinate▁4671
▁location▁4672
▁intelligence▁4673
▁electronic▁4674
▁mission▁4675
▁rebuild▁4676
▁senior▁4677
▁requirement▁4678
▁steel▁4679
▁knuckle▁4680
▁fist▁4681
▁exoti▁4682
▁weapons▁4683
▁handshak▁4684
▁consensu▁4685
▁Ranger▁4686
pla▁4687
oon▁4688
▁Taliban▁4689
▁grenade▁4690
▁Where▁4691
▁wind▁4692
blown▁4693
▁Afghan▁4694
▁sixth▁4695
▁grade▁4696
▁digital▁4697
version▁4698
▁leader▁4699
▁legitimate▁4700
▁brand▁4701
▁transparent▁4702
▁cumulative▁4703
▁reset▁4704
▁battery▁4705
▁Iraq▁4706
▁officer▁4707
▁firefight▁4708
▁relationships▁4709
▁sin▁4710
▁2,000▁4711
stan▁4712
za▁4713
▁creed▁4714
▁poem▁4715
▁marriage▁4716
▁vow▁4717
▁ab▁4718
▁knock▁4719
nach▁4720
▁Mur▁4721
uga▁4722
nantha▁4723
sanitary▁4724
▁napkin▁4725
▁supplie▁4726
▁pad▁4727
▁fame▁4728
▁impress▁4729
▁replie▁4730
▁N▁4731
▁nast▁4732
▁rag▁4733
▁cloth▁4734
wheeler▁4735
▁milk▁4736
▁fellow▁4737
▁spreads▁4738
▁newspaper▁4739
▁banne▁4740
▁item▁4741
▁condom▁4742
▁29▁4743
▁substance▁4744
▁cotton▁4745
▁pen▁4746
▁Bangalore▁4747
▁victim▁4748
▁Sh▁4749
anti▁4750
▁ring▁4751
▁chocolate▁4752
insel▁4753
▁rolled▁4754
▁intimate▁4755
▁arrange▁4756
▁victims▁4757
▁wi▁4758
▁jealous▁4759
▁saint▁4760
▁refuse▁4761
▁Armstrong▁4762
zing▁4763
▁Everest▁4764
▁tie▁4765
cycling▁4766
▁lous▁4767
▁crises▁4768
▁includ▁4769
▁divorce▁4770
▁suspect▁4771
▁trump▁4772
▁cellulos▁4773
ived▁4774
▁pine▁4775
million▁4776
▁processing▁4777
▁di▁4778
▁invention▁4779
▁patent▁4780
▁dropp▁4781
▁beauty▁4782
▁bored▁4783
▁accumulat▁4784
▁philanthropy▁4785
▁leaf▁4786
▁husk▁4787
▁dust▁4788
30▁4789
▁installation▁4790
▁23▁4791
▁seventh▁4792
▁transnational▁4793
▁MBA▁4794
▁dropout▁4795
▁Co▁4796
imba▁4797
▁professor▁4798
▁guest▁4799
▁lecture▁4800
IM▁4801
cost▁4802
Women▁4803
▁Self▁4804
▁Hel▁4805
▁Group▁4806
▁pu▁4807
▁Harvard▁4808
▁Oxford▁4809
▁compete▁4810
▁100-▁4811
kin▁4812
▁lifetime▁4813
▁employment▁4814
▁chas▁4815
▁Mahal▁4816
ak▁4817
shmi▁4818
▁becom▁4819
▁provider▁4820
▁entit▁4821
▁domain▁4822
▁classify▁4823
▁educate▁4824
▁surplus▁4825
manda▁4826
ennett▁4827
▁China▁4828
▁Pek▁4829
▁sat▁4830
aged▁4831
▁owl▁4832
glasses▁4833
▁Fulbright▁4834
▁scholar▁4835
ino▁4836
ov▁4837
▁relations▁4838
▁gift▁4839
▁eager▁4840
▁correspondent▁4841
▁pump▁4842
ib▁4843
bling▁4844
▁representative▁4845
ssociation▁4846
▁jerk▁4847
▁Let▁4848
▁marri▁4849
erence▁4850
▁Fo▁4851
▁spoke▁4852
▁license▁4853
▁cable▁4854
▁operator▁4855
▁swin▁4856
▁nutrition▁4857
▁cattle▁4858
▁Di▁4859
xi▁4860
▁cancer▁4861
▁succeeding▁4862
▁surgeon▁4863
▁surgery▁4864
▁surgeons▁4865
▁setback▁4866
▁pathologist▁4867
▁kidney▁4868
▁aggressive▁4869
▁diagnosi▁4870
▁fatal▁4871
▁mysterious▁4872
▁Litt▁4873
eague▁4874
house▁4875
▁bury▁4876
▁specialist▁4877
▁reappear▁4878
▁Ital▁4879
▁Australia▁4880
▁horizon▁4881
▁sometime▁4882
midnight▁4883
▁2▁4884
something▁4885
▁drug▁4886
▁Keep▁4887
▁struggle▁4888
▁triumph▁4889
▁exhilarating▁4890
▁repeat▁4891
▁hesitation▁4892
▁glorious▁4893
of▁4894
▁healthcare▁4895
bye▁4896
pe▁4897
▁directive▁4898
▁seeming▁4899
cut▁4900
▁embarrass▁4901
▁strongly▁4902
▁denial▁4903
▁fac▁4904
uch▁4905
▁insist▁4906
hand▁4907
▁oncologist▁4908
▁Tell▁4909
ock▁4910
li▁4911
ative▁4912
▁Dar▁4913
mouth▁4914
▁immortal▁4915
▁borrow▁4916
▁phrase▁4917
▁redefine▁4918
▁bug▁4919
▁accommodate▁4920
▁illness▁4921
▁fighters▁4922
ible▁4923
▁heal▁4924
▁hospice▁4925
▁unprepared▁4926
▁noble▁4927
▁cur▁4928
like▁4929
▁acknowledg▁4930
▁hero▁4931
▁poetry▁4932
▁poet▁4933
ava▁4934
▁Mark▁4935
▁Anton▁4936
▁conquer▁4937
▁elude▁4938
▁Alexandr▁4939
▁defeat▁4940
▁desert▁4941
par▁4942
▁firm▁4943
▁ent▁4944
at▁4945
▁complaint▁4946
▁coward▁4947
▁exquisite▁4948
▁troop▁4949
▁bid▁4950
▁slim▁4951
▁overwhelming▁4952
▁presence▁4953
surance▁4954
▁companies▁4955
▁Elen▁4956
▁Gab▁4957
Ma▁4958
hin▁4959
▁Ethiopia▁4960
▁outline▁4961
▁farmers▁4962
▁recipient▁4963
▁basket▁4964
▁Himalaya▁4965
▁Bhutan▁4966
▁gross▁4967
▁happiness▁4968
▁Indian▁4969
▁award▁4970
▁Nobel▁4971
▁prize▁4972
▁demonstrat▁4973
▁famine▁4974
▁avail▁4975
▁supply▁4976
▁acquire▁4977
▁entitle▁4978
▁humanity▁4979
▁starv▁4980
capitalize▁4981
▁irrigat▁4982
▁kilogram▁4983
▁fertilizer▁4984
▁tractor▁4985
▁farmer▁4986
refore▁4987
▁livelihood▁4988
determined▁4989
▁fruit▁4990
▁labor▁4991
▁highest▁4992
▁lean▁4993
▁scarce▁4994
entrepreneurship▁4995
▁Theodor▁4996
▁Schul▁4997
tz▁4998
▁197▁4999
minded▁5000
▁liberal▁5001
▁inefficient▁5002
▁magic▁5003
▁hunger▁5004
▁mal▁5005
nutrition▁5006
▁stagna▁5007
▁expectation▁5008
▁reform▁5009
▁prompt▁5010
▁agricultural▁5011
▁interview▁5012
▁trader▁5013
▁Like▁5014
▁transaction▁5015
act▁5016
▁output▁5017
▁reache▁5018
elecommunication▁5019
▁absence▁5020
▁necessar▁5021
▁institution▁5022
▁reliabl▁5023
▁buyer▁5024
▁circle▁5025
▁sack▁5026
▁peculiar▁5027
▁quantit▁5028
▁implication▁5029
▁deficit▁5030
▁marketing▁5031
▁margin▁5032
▁due▁5033
▁handl▁5034
▁bulk▁5035
▁blind▁5036
▁merc▁5037
▁merchant▁5038
▁negotiate▁5039
▁volatil▁5040
unt▁5041
▁ma▁5042
ize▁5043
boggling▁5044
▁seeds▁5045
▁security▁5046
profit▁5047
▁calculate▁5048
0,000▁5049
▁rot▁5050
▁Ju▁5051
▁rains▁5052
▁withdraw▁5053
▁arrest▁5054
▁cookie▁5055
what▁5056
▁comfortabl▁5057
▁Bank▁5058
▁donor▁5059
▁Com▁5060
xchange▁5061
▁EC▁5062
48▁5063
▁82▁5064
▁Illinois▁5065
▁Lake▁5066
▁Michigan▁5067
▁Chicago▁5068
▁Board▁5069
▁Trade▁5070
▁Midwest▁5071
▁barge▁5072
▁loss▁5073
▁grad▁5074
▁receipt▁5075
▁warehouse▁5076
▁inspect▁5077
▁transformation▁5078
▁superpower▁5079
view▁5080
▁industrialize▁5081
▁co▁5082
▁dominance▁5083
▁270▁5084
SA▁5085
T▁5086
▁Dalia▁5087
▁tailor▁5088
▁integr▁5089
▁efficienc▁5090
▁Edge▁5091
me▁5092
▁sponsor▁5093
eh▁5094
▁trad▁5095
cry▁5096
▁cafe▁5097
▁terminal▁5098
▁dial▁5099
▁Addi▁5100
▁Ab▁5101
▁certificat▁5102
▁assure▁5103
▁payment▁5104
▁regulator▁5105
arch▁5106
clamation▁5107
▁parliament▁5108
▁disseminat▁5109
▁premi▁5110
▁limited▁5111
bit▁5112
▁strategic▁5113
▁sector▁5114
▁winds▁5115
illennium▁5116
▁platform▁5117
▁pan▁5118
can▁5119
▁domestic▁5120
▁producer▁5121
▁winning▁5122
▁proposition▁5123
é▁5124
▁praise▁5125
▁emphasi▁5126
▁erode▁5127
lash▁5128
▁brew▁5129
▁brake▁5130
modern▁5131
▁observation▁5132
▁supreme▁5133
▁publish▁5134
▁zipp▁5135
▁studio▁5136
▁serving▁5137
▁bite▁5138
size▁5139
▁chunk▁5140
NN▁5141
forward▁5142
▁obsess▁5143
▁cramm▁5144
▁Carrie▁5145
▁Fisher▁5146
▁These▁5147
▁gra▁5148
tification▁5149
▁gym▁5150
▁advertisement▁5151
▁evening▁5152
oga▁5153
▁salut▁5154
mus▁5155
▁laugh▁5156
▁das▁5157
▁damage▁5158
runner▁5159
▁marinate▁5160
▁toll▁5161
▁alert▁5162
▁towel▁5163
▁smoke▁5164
▁patien▁5165
▁tranquil▁5166
▁Cat▁5167
▁Hat▁5168
▁skipp▁5169
▁paragraph▁5170
▁qua▁5171
▁relax▁5172
▁glad▁5173
ial▁5174
▁clash▁5175
scanning▁5176
▁article▁5177
saving▁5178
▁tips▁5179
▁One▁5180
▁Story▁5181
▁reaction▁5182
▁Halleluja▁5183
▁thankful▁5184
▁Whoa▁5185
▁investigate▁5186
▁desir▁5187
▁accelerat▁5188
▁rear▁5189
▁heads▁5190
▁urbanization▁5191
▁driver▁5192
▁cycl▁5193
hu▁5194
rried▁5195
▁renew▁5196
▁finite▁5197
▁drain▁5198
▁Benjamin▁5199
▁Franklin▁5200
▁psychological▁5201
▁incidental▁5202
▁mindset▁5203
▁bus▁5204
▁unthink▁5205
▁conventional▁5206
▁ca▁5207
▁dece▁5208
▁Slow▁5209
▁Move▁5210
▁hypocri▁5211
▁Food▁5212
▁100,000▁5213
▁sensible▁5214
▁cultivate▁5215
▁pace▁5216
naissance▁5217
▁illustration▁5218
▁cultivat▁5219
Cities▁5220
▁towns▁5221
▁rose▁5222
▁curb▁5223
▁traffic▁5224
▁bench▁5225
▁philosophical▁5226
▁declaration▁5227
▁deeply▁5228
▁disillusion▁5229
▁complement▁5230
▁tap▁5231
▁gentle▁5232
▁holistic▁5233
▁healing▁5234
jury▁5235
▁therapie▁5236
▁mainstream▁5237
▁approv▁5238
▁acu▁5239
puncture▁5240
▁massage▁5241
chip▁5242
▁pun▁5243
▁intend▁5244
▁agent▁5245
▁magazine▁5246
▁orgasm▁5247
watch▁5248
▁bedroom▁5249
▁Point▁5250
▁Sister▁5251
▁eloquent▁5252
▁sang▁5253
▁lover▁5254
▁St▁5255
▁Tan▁5256
▁flock▁5257
▁Italian▁5258
▁Sex▁5259
hour▁5260
week▁5261
▁rigid▁5262
▁Nord▁5263
▁Nor▁5264
▁Swed▁5265
enmark▁5266
▁nation▁5267
▁weep▁5268
▁37▁5269
▁homework▁5270
▁tutor▁5271
▁extracurricular▁5272
trend▁5273
▁website▁5274
▁adolescent▁5275
▁hover▁5276
▁plea▁5277
ttle▁5278
▁treadmill▁5279
▁parenting▁5280
▁ban▁5281
com▁5282
press▁5283
▁pi▁5284
pa▁5285
ach▁5286
iev▁5287
▁freak▁5288
▁exam▁5289
▁elite▁5290
cited▁5291
lib▁5292
V▁5293
▁ja▁5294
▁spark▁5295
vy▁5296
▁letter▁5297
▁undergraduate▁5298
▁savor▁5299
▁Down▁5300
▁ticket▁5301
▁highway▁5302
▁various▁5303
▁sexy▁5304
▁adrenalin▁5305
▁rush▁5306
▁metaphysic▁5307
▁distraction▁5308
▁politician▁5309
▁taboo▁5310
▁erect▁5311
word▁5312
▁laz▁5313
▁slack▁5314
▁synonymous▁5315
25▁5316
▁revolutionar▁5317
▁TV▁5318
▁uplift▁5319
▁welcome▁5320
▁Age▁5321
▁brigade▁5322
gus▁5323
▁gear▁5324
sound▁5325
▁Ex▁5326
hi▁5327
▁rehabilitat▁5328
▁tortoise▁5329
▁overload▁5330
▁gratuitous▁5331
▁default▁5332
▁mode▁5333
▁wing▁5334
▁chariot▁5335
shot▁5336
▁healthie▁5337
racing▁5338
▁lit▁5339
ros▁5340
▁internal▁5341
▁dread▁5342
▁reward▁5343
▁cherish▁5344
▁ending▁5345
▁afternoon▁5346
▁taxi▁5347
▁stair▁5348
▁staple▁5349
▁sticker▁5350
tin▁5351
▁Dad▁5352
▁Aw▁5353
▁sweet▁5354
▁reader▁5355
▁Amy▁5356
▁Lock▁5357
▁Congo▁5358
▁HIV▁5359
▁DR▁5360
▁agenc▁5361
▁flood▁5362
▁cheap▁5363
▁marketer▁5364
▁Democratic▁5365
▁Republic▁5366
▁pave▁5367
RC▁5368
▁prevalence▁5369
▁1.3▁5370
▁76▁5371
▁93▁5372
▁receiv▁5373
▁Dami▁5374
▁hotel▁5375
▁Kinshasa▁5376
▁Joseph▁5377
▁Christin▁5378
▁pharmac▁5379
▁generic▁5380
▁financ▁5381
fidel▁5382
▁Vi▁5383
▁Trust▁5384
▁pr▁5385
spirational▁5386
▁provocati▁5387
▁miss▁5388
▁Au▁5389
bre▁5390
▁Grey▁5391
map▁5392
▁aging▁5393
▁mere▁5394
curable▁5395
▁shit▁5396
▁feasib▁5397
ility▁5398
▁extension▁5399
▁genuine▁5400
▁eliminat▁5401
▁intermediate▁5402
▁characteristic▁5403
▁considerabl▁5404
▁Brita▁5405
▁fox▁5406
▁sympathetic▁5407
▁persuade▁5408
▁ecologically▁5409
▁prevail▁5410
▁Parliament▁5411
▁conclusion▁5412
▁tolerate▁5413
▁civilized▁5414
▁spade▁5415
▁frail▁5416
▁trance▁5417
▁ought▁5418
▁plann▁5419
▁turbulen▁5420
▁argument▁5421
▁outweigh▁5422
▁downside▁5423
▁condemn▁5424
▁unnecessar▁5425
▁worry▁5426
population▁5427
▁crossing▁5428
▁Gile▁5429
▁answers▁5430
▁arise▁5431
▁reject▁5432
▁hesitate▁5433
▁cohort▁5434
▁indefinite▁5435
▁immoral▁5436
aging▁5437
vita▁5438
bility▁5439
▁gha▁5440
clear▁5441
▁agitat▁5442
▁eva▁5443
gel▁5444
▁regard▁5445
▁summ▁5446
▁metabolism▁5447
▁tau▁5448
ological▁5449
▁statement▁5450
animate▁5451
▁mechanisms▁5452
▁accumulate▁5453
▁patholog▁5454
▁gerontolog▁5455
▁geriatric▁5456
▁intervene▁5457
▁evident▁5458
▁sand▁5459
▁strategy▁5460
▁prevention▁5461
▁pitiful▁5462
▁organism▁5463
▁RNA▁5464
▁interference▁5465
▁intervention▁5466
▁convincing▁5467
▁suppose▁5468
▁confer▁5469
▁extra▁5470
▁55▁5471
▁robust▁5472
▁rejuvenat▁5473
▁breakthrough▁5474
▁incremental▁5475
▁differ▁5476
▁predict▁5477
▁190▁5478
▁stead▁5479
▁uniform▁5480
▁sequence▁5481
▁progression▁5482
▁imagination▁5483
▁computers▁5484
▁parallel▁5485
▁hygien▁5486
▁antibiotic▁5487
▁moderate▁5488
▁cu▁5489
sp▁5490
▁remain▁5491
▁imperfection▁5492
▁thorough▁5493
▁200-▁5494
▁longe▁5495
▁velocit▁5496
▁expectanc▁5497
▁80-▁5498
▁biologically▁5499
▁youthful▁5500
related▁5501
generation▁5502
▁catastrophe▁5503
lright▁5504
▁mice▁5505
▁corresponding▁5506
▁milestone▁5507
▁mouse▁5508
▁imaginative▁5509
▁fifth▁5510
▁lifespan▁5511
▁biolog▁5512
▁speculati▁5513
▁speculation▁5514
▁counsel▁5515
▁nonsens▁5516
▁irresponsibl▁5517
▁silent▁5518
▁assess▁5519
HR▁5520
▁underestimate▁5521
mbivalen▁5522
▁postpone▁5523
▁denote▁5524
▁ongoing▁5525
draw▁5526
▁diagram▁5527
tries▁5528
▁inhibit▁5529
▁And▁5530
▁continu▁5531
▁periodical▁5532
▁repair▁5533
▁threshold▁5534
▁pathogenic▁5535
complete▁5536
▁categor▁5537
▁cell▁5538
▁mutation▁5539
▁chromosome▁5540
▁mit▁5541
och▁5542
▁biological▁5543
▁undergo▁5544
sis▁5545
▁indication▁5546
▁partially▁5547
▁dissatisf▁5548
ied▁5549
▁cite▁5550
▁optimism▁5551
▁confident▁5552
▁damn▁5553
▁resistan▁5554
▁session▁5555
▁genome▁5556
▁strategi▁5557
▁Meth▁5558
use▁5559
lah▁5560
▁Mouse▁5561
▁Prize▁5562
▁innovate▁5563
▁proposal▁5564
▁institute▁5565
▁philanthropi▁5566
▁distract▁5567
▁biotech▁5568
▁ag▁5569
▁immune▁5570
create▁5571
tel▁5572
ase▁5573
mortality▁5574
▁brilliant▁5575
controversial▁5576
▁selection▁5577
▁sophistication▁5578
▁genes▁5579
▁carrie▁5580
creation▁5581
▁CA▁5582
▁crash▁5583
▁motorbike▁5584
▁embryo▁5585
▁opposed▁5586
▁replace▁5587
▁neurons▁5588
▁replac▁5589
▁degrade▁5590
▁cognitive▁5591
simplification▁5592
▁Hydra▁5593
▁tissue▁5594
▁Lewi▁5595
▁Pugh▁5596
shift▁5597
▁swim▁5598
▁Pole▁5599
▁frighten▁5600
▁1.7▁5601
▁centi▁5602
grade▁5603
▁Fahren▁5604
heit▁5605
▁flipp▁5606
▁pea▁5607
▁sausage▁5608
▁freeze▁5609
▁expand▁5610
▁lake▁5611
ground▁5612
▁instabil▁5613
▁Bangladesh▁5614
▁symbolic▁5615
▁undern▁5616
▁summit▁5617
▁28▁5618
▁Speed▁5619
▁altitude▁5620
▁5▁5621
,▁5622
300▁5623
▁hitting▁5624
▁bodi▁5625
▁attempt▁5626
▁swimm▁5627
▁humble▁5628
▁Kh▁5629
bu▁5630
▁Glacier▁5631
ggression▁5632
▁h▁5633
▁swam▁5634
▁gasp▁5635
▁vom▁5636
▁underwater▁5637
▁lucki▁5638
▁shallow▁5639
▁peaceful▁5640
▁utter▁5641
ollock▁5642
▁panick▁5643
▁grabb▁5644
▁camp▁5645
brief▁5646
▁tactical▁5647
▁hill▁5648
▁breast▁5649
tro▁5650
▁Sher▁5651
▁3.5▁5652
▁6.▁5653
▁grandchildren▁5654
▁safe▁5655
▁secure▁5656
▁blog▁5657
▁tweet▁5658
▁Hodg▁5659
▁comedian▁5660
▁unpack▁5661
▁Bachelor▁5662
▁Literatur▁5663
▁minor▁5664
▁television▁5665
▁avid▁5666
▁collector▁5667
▁With▁5668
▁catalog▁5669
▁landing▁5670
▁zeppelin▁5671
▁Los▁5672
▁Angeles▁5673
irport▁5674
▁Building▁5675
▁mu▁5676
rky▁5677
extraterrestrial▁5678
▁excavat▁5679
▁196▁5680
▁LA▁5681
for▁5682
▁Common▁5683
▁Era▁5684
▁coloniz▁5685
▁savage▁5686
▁revolv▁5687
▁restaurants▁5688
▁replacement▁5689
▁Stonehenge▁5690
ui▁5691
▁parking▁5692
▁uncover▁5693
her▁5694
▁era▁5695
▁streamlin▁5696
▁archaic▁5697
▁Goog▁5698
▁Jet▁5699
▁preferr▁5700
▁serpent▁5701
▁crystal▁5702
▁skull▁5703
▁juic▁5704
alif▁5705
▁Philipp▁5706
▁Starck▁5707
minent▁5708
k▁5709
▁ho▁5710
uvre▁5711
▁lobby▁5712
▁tripod▁5713
▁attach▁5714
▁suck▁5715
▁juice▁5716
▁monument▁5717
▁kitchen▁5718
▁counter▁5719
▁drawer▁5720
sleep▁5721
▁mail▁5722
chi▁5723
▁iPhone▁5724
▁tile▁5725
loved▁5726
▁device▁5727
induce▁5728
▁pervasive▁5729
▁instantly▁5730
▁threaten▁5731
▁Jenn▁5732
▁Zu▁5733
▁Lak▁5734
atur▁5735
writing▁5736
▁fascinate▁5737
▁Art▁5738
▁Buch▁5739
wald▁5740
▁humor▁5741
▁Mike▁5742
▁trip▁5743
▁cyber▁5744
space▁5745
▁handwrit▁5746
▁notebook▁5747
▁weaknesses▁5748
▁incident▁5749
▁disappearing▁5750
▁habits▁5751
▁hug▁5752
▁auto▁5753
graph▁5754
▁soul▁5755
▁inspired▁5756
▁authors▁5757
und▁5758
▁Trac▁5759
▁swallow▁5760
▁funeral▁5761
▁committ▁5762
▁compil▁5763
▁verse▁5764
▁cremat▁5765
▁linguist▁5766
▁par▁5767
don▁5768
▁grammar▁5769
he▁5770
▁confine▁5771
▁forc▁5772
▁sucked▁5773
▁suffocat▁5774
raging▁5775
▁craving▁5776
▁emerge▁5777
▁flourish▁5778
▁whirl▁5779
pool▁5780
aving▁5781
▁Andrew▁5782
▁Blu▁5783
▁internet▁5784
▁squirrel▁5785
fline▁5786
▁secret▁5787
▁switche▁5788
▁politic▁5789
▁screens▁5790
▁Op▁5791
▁Milk▁5792
▁Way▁5793
▁total▁5794
▁Apollo▁5795
▁marble▁5796
▁broke▁5797
▁clump▁5798
▁yard▁5799
▁jumble▁5800
▁astounding▁5801
▁transcendent▁5802
▁protocol▁5803
▁dating▁5804
qui▁5805
call▁5806
ank▁5807
▁sitcom▁5808
▁IT▁5809
▁Crowd▁5810
▁Big▁5811
▁reception▁5812
▁presentation▁5813
▁elder▁5814
▁amorph▁5815
▁sill▁5816
cast▁5817
▁Time▁5818
▁Warner▁5819
▁fiber▁5820
▁optic▁5821
▁Hudson▁5822
tier▁5823
▁village▁5824
hose▁5825
▁expansive▁5826
▁thickness▁5827
▁5,000▁5828
▁plug▁5829
ax▁5830
▁stretche▁5831
▁thin▁5832
▁Cooper▁5833
▁Tata▁5834
ommunication▁5835
ome▁5836
▁via▁5837
presence▁5838
▁42▁5839
▁proceed▁5840
▁belt▁5841
▁beam▁5842
wir▁5843
▁geographic▁5844
▁fleet▁5845
▁brief▁5846
▁plugg▁5847
AC▁5848
I▁5849
▁Ghana▁5850
▁Cameroon▁5851
ylon▁5852
▁9,000▁5853
▁bulldozer▁5854
▁specialize▁5855
buoy▁5856
▁engineers▁5857
▁station▁5858
▁hack▁5859
saw▁5860
▁jewel▁5861
pu▁5862
▁fuse▁5863
▁laborer▁5864
▁engineer▁5865
▁Momba▁5866
▁Mumbai▁5867
▁Stephen▁5868
anda▁5869
▁Sara▁5870
wa▁5871
▁unravel▁5872
▁attain▁5873
real▁5874
▁helpless▁5875
▁infanc▁5876
▁fearless▁5877
▁contributor▁5878
▁endow▁5879
▁instinct▁5880
▁foster▁5881
▁surrender▁5882
▁implie▁5883
▁violate▁5884
▁violat▁5885
▁violation▁5886
▁blame▁5887
bla▁5888
▁compassionate▁5889
▁wie▁5890
▁empathy▁5891
▁empathetic▁5892
▁Wimbledon▁5893
▁wins▁5894
tennis▁5895
▁et▁5896
iquette▁5897
▁winner▁5898
▁kisse▁5899
▁shirt▁5900
▁demolish▁5901
doc▁5902
rin▁5903
▁nationalis▁5904
▁empathiz▁5905
▁transcend▁5906
▁gender▁5907
▁slap▁5908
tick▁5909
▁scheme▁5910
▁universe▁5911
▁confirm▁5912
▁limitation▁5913
▁desire▁5914
▁credit▁5915
offs▁5916
▁bald▁5917
▁realization▁5918
▁recogni▁5919
tion▁5920
▁cheer▁5921
▁limitless▁5922
▁relate▁5923
▁manifestation▁5924
▁evoke▁5925
▁shortcut▁5926
▁foam▁5927
▁mattress▁5928
▁predecessor▁5929
▁verb▁5930
verb▁5931
▁teeth▁5932
▁pray▁5933
▁Edit▁5934
▁Wid▁5935
kind▁5936
▁elusive▁5937
▁insight▁5938
▁Krake▁5939
▁beast▁5940
▁devour▁5941
▁mistaken▁5942
▁merit▁5943
▁fairy▁5944
▁Discovery▁5945
▁Channel▁5946
▁expedition▁5947
un▁5948
▁O▁5949
She▁5950
▁owe▁5951
tor▁5952
▁2010▁5953
▁Mission▁5954
▁Blue▁5955
▁Lin▁5956
▁Explorer▁5957
▁explor▁5958
Gru▁5959
▁Shark▁5960
▁Week▁5961
ob▁5962
▁optical▁5963
▁emphasize▁5964
▁submersible▁5965
▁vehicle▁5966
▁wider▁5967
▁Tib▁5968
uron▁5969
▁Vent▁5970
ana▁5971
pulsion▁5972
▁suspicio▁5973
▁noise▁5974
▁hydro▁5975
▁Johnson▁5976
Link▁5977
isier▁5978
iving▁5979
▁ROV▁5980
hydr▁5981
au▁5982
lic▁5983
▁motor▁5984
power▁5985
▁invisible▁5986
wheel▁5987
▁Atoll▁5988
▁bioluminescen▁5989
▁burglar▁5990
▁alarm▁5991
▁defense▁5992
▁resort▁5993
by▁5994
▁scream▁5995
itch▁5996
▁gar▁5997
▁trigger▁5998
▁kidd▁5999
▁tea▁6000
▁appearance▁6001
▁wow▁6002
▁ooh▁6003
▁Bang▁6004
mont▁6005
▁e▁6006
je▁6007
▁mist▁6008
▁Tri▁6009
ton▁6010
▁bait▁6011
meter▁6012
▁jig▁6013
▁fisherm▁6014
▁intensifi▁6015
▁flashlight▁6016
resolution▁6017
▁breathtaking▁6018
▁fully▁6019
story▁6020
film▁6021
▁possibl▁6022
active▁6023
▁NASA▁6024
▁scare▁6025
▁adventure▁6026
▁Serge▁6027
▁Brin▁6028
▁Glass▁6029
mounted▁6030
named▁6031
201▁6032
▁hunch▁6033
▁firing▁6034
▁hang▁6035
▁Flying▁6036
▁Club▁6037
▁tiger▁6038
▁Hmm▁6039
▁beep▁6040
▁7▁6041
▁bridge▁6042
▁exit▁6043
▁8▁6044
12▁6045
▁delicious▁6046
▁Thai▁6047
อร▁6048
่▁6049
อย▁6050
Man▁6051
▁mm▁6052
▁Nigerian▁6053
▁prince▁6054
▁Project▁6055
▁addition▁6056
▁isolat▁6057
▁bone▁6058
rani▁6059
▁ironic▁6060
▁quer▁6061
▁phones▁6062
▁strapp▁6063
▁screaming▁6064
▁unexpected▁6065
▁dug▁6066
▁habit▁6067
▁But▁6068
▁attend▁6069
sec▁6070
▁Dap▁6071
hne▁6072
▁Koller▁6073
▁intrigu▁6074
▁Course▁6075
▁quiz▁6076
▁peer▁6077
peer▁6078
▁assignment▁6079
▁unprecedented▁6080
▁construct▁6081
partheid▁6082
▁minorit▁6083
▁consequence▁6084
▁scarc▁6085
▁Januar▁6086
▁Johannes▁6087
▁admission▁6088
▁registr▁6089
▁gate▁6090
▁hop▁6091
▁stamp▁6092
▁injur▁6093
▁tuition▁6094
fford▁6095
▁recent▁6096
▁Friedman▁6097
▁Times▁6098
▁spirit▁6099
▁enroll▁6100
▁Machine▁6101
▁Learning▁6102
▁cofounde▁6103
▁Ng▁6104
▁register▁6105
▁250▁6106
▁instructor▁6107
▁43▁6108
hri▁6109
▁Calcu▁6110
lus▁6111
ze▁6112
ki▁6113
uel▁6114
▁fifty▁6115
▁Page▁6116
▁Kle▁6117
mmer▁6118
▁Bush▁6119
▁Mitchell▁6120
▁Dun▁6121
▁mill▁6122
▁sociolog▁6123
▁RG▁6124
▁hyperbol▁6125
▁Nick▁6126
▁Par▁6127
ante▁6128
▁pixel▁6129
▁Paul▁6130
▁Off▁6131
ac▁6132
▁Jura▁6133
sky▁6134
▁Luft▁6135
han▁6136
▁breakfast▁6137
▁Jose▁6138
▁coin▁6139
▁computational▁6140
▁1.5▁6141
▁submitt▁6142
▁videos▁6143
▁Ak▁6144
quality▁6145
▁hone▁6146
▁master▁6147
▁Ryan▁6148
▁deficien▁6149
▁germ▁6150
▁correspondence▁6151
▁Shannon▁6152
▁deadline▁6153
▁usage▁6154
▁graph▁6155
▁spike▁6156
▁procrastinat▁6157
▁certificate▁6158
▁explicit▁6159
▁format▁6160
▁monolith▁6161
▁modular▁6162
▁unit▁6163
▁traverse▁6164
atory▁6165
▁enrich▁6166
▁individually▁6167
all▁6168
▁curriculum▁6169
▁passive▁6170
▁Science▁6171
▁retriev▁6172
▁pause▁6173
▁SP▁6174
▁prospect▁6175
▁discount▁6176
▁quo▁6177
▁bias▁6178
▁deviation▁6179
▁submit▁6180
▁optional▁6181
TA▁6182
▁mathematical▁6183
▁programm▁6184
▁Computer▁6185
▁101▁6186
correct▁6187
▁blurr▁6188
▁browser▁6189
▁Lady▁6190
ibert▁6191
ick▁6192
▁facult▁6193
▁Sa▁6194
▁reproduc▁6195
ssig▁6196
axis▁6197
▁correlate▁6198
▁x▁6199
▁incentivize▁6200
grad▁6201
▁pipeline▁6202
▁intellectual▁6203
▁endeavor▁6204
▁Princeton▁6205
ology▁6206
▁awake▁6207
▁testimon▁6208
assembl▁6209
▁geographical▁6210
▁constraint▁6211
▁multicultural▁6212
▁click▁6213
▁submission▁6214
drive▁6215
▁versu▁6216
▁misconception▁6217
▁plot▁6218
▁crosse▁6219
▁cross▁6220
▁error▁6221
▁bucket▁6222
▁virtue▁6223
▁solv▁6224
▁Bloom▁6225
▁populations▁6226
▁studie▁6227
▁instruction▁6228
▁98▁6229
▁hence▁6230
▁smartphone▁6231
▁obsolet▁6232
▁Twa▁6233
▁College▁6234
▁beg▁6235
▁P▁6236
▁filling▁6237
▁wood▁6238
▁ignit▁6239
▁le▁6240
ctu▁6241
solv▁6242
▁metric▁6243
▁standardize▁6244
▁summarize▁6245
▁shame▁6246
▁Albert▁6247
▁Einstein▁6248
▁Jobs▁6249
▁Mauri▁6250
zi▁6251
▁stone▁6252
▁Leonardo▁6253
▁Vinci▁6254
▁fr▁6255
▁Battle▁6256
▁Ang▁6257
ari▁6258
▁1975▁6259
▁Floren▁6260
▁Carlo▁6261
▁former▁6262
own▁6263
cent▁6264
▁related▁6265
▁masterpiece▁6266
▁Pala▁6267
▁Ve▁6268
cchio▁6269
engineer▁6270
▁mural▁6271
▁decorat▁6272
▁Va▁6273
sari▁6274
▁halt▁6275
▁Guinness▁6276
▁remodel▁6277
60▁6278
▁Grand▁6279
▁Duke▁6280
imo▁6281
▁Med▁6282
▁church▁6283
▁Santa▁6284
▁admire▁6285
▁antenna▁6286
▁panel▁6287
▁Fight▁6288
▁Standard▁6289
lma▁6290
▁Diego▁6291
▁heritage▁6292
ISA▁6293
▁archaeolog▁6294
11▁6295
▁Professor▁6296
▁Fal▁6297
▁Kueste▁6298
▁Madonna▁6299
▁Chair▁6300
▁shin▁6301
▁UV▁6302
▁lady▁6303
varnish▁6304
retouche▁6305
▁Uni▁6306
corn▁6307
▁painting▁6308
▁Ra▁6309
fa▁6310
▁unicorn▁6311
ray▁6312
▁puppy▁6313
▁examination▁6314
finishe▁6315
▁symbol▁6316
▁attribut▁6317
▁objective▁6318
▁subjective▁6319
▁admir▁6320
▁vivid▁6321
▁Ador▁6322
▁Mag▁6323
made▁6324
XY▁6325
Z▁6326
▁centuries▁6327
▁portrait▁6328
▁magnificent▁6329
▁genial▁6330
▁elephant▁6331
▁epiphan▁6332
▁tablet▁6333
▁augmented▁6334
▁simulat▁6335
▁aim▁6336
▁locked▁6337
▁scroll▁6338
▁staircase▁6339
▁iconograph▁6340
▁reconstruct▁6341
▁ruin▁6342
▁protagonist▁6343
▁museums▁6344
apped▁6345
▁Renaissance▁6346
▁blend▁6347
▁definite▁6348
▁breed▁6349
▁Whit▁6350
acre▁6351
▁Choir▁6352
▁Live▁6353
▁1991▁6354
▁victor▁6355
▁lap▁6356
▁choir▁6357
▁idylli▁6358
▁cricket▁6359
▁frog▁6360
▁Steven▁6361
▁Spielberg▁6362
▁clouds▁6363
▁thunder▁6364
▁rain▁6365
▁Mexican▁6366
avi▁6367
▁Pa▁6368
▁Cloud▁6369
burst▁6370
ouTube▁6371
▁Virtual▁6372
▁185▁6373
▁dorm▁6374
▁2,0▁6375
2▁6376
▁58▁6377
▁Sleep▁6378
▁Water▁6379
▁73▁6380
▁Skype▁6381
▁Cal▁6382
▁Fuller▁6383
▁Riverside▁6384
▁Community▁6385
ncy▁6386
▁Laura▁6387
▁Tric▁6388
▁deceptive▁6389
▁3-▁6390
▁muse▁6391
▁friendship▁6392
▁rehab▁6393
▁addiction▁6394
▁wound▁6395
▁proud▁6396
▁gentleman▁6397
▁Thank▁6398
▁breadwinner▁6399
▁April▁6400
▁chore▁6401
▁steak▁6402
▁Would▁6403
secure▁6404
▁wheel▁6405
▁warp▁6406
▁household▁6407
▁roof▁6408
▁backyard▁6409
▁mothers▁6410
▁sons▁6411
▁Carter▁6412
▁Emma▁6413
▁programmer▁6414
▁visualization▁6415
▁stunning▁6416
▁Digital▁6417
▁Universe▁6418
▁flat▁6419
bound▁6420
limited▁6421
▁Atlas▁6422
▁Museum▁6423
▁Natural▁6424
▁Histor▁6425
▁Planetarium▁6426
▁dome▁6427
▁internship▁6428
▁host▁6429
▁Link▁6430
SS▁6431
▁interactive▁6432
▁Matter▁6433
▁Low▁6434
▁Side▁6435
▁Manhattan▁6436
▁collaborative▁6437
▁Rubi▁6438
▁exhibit▁6439
▁comparative▁6440
▁cosmolog▁6441
▁realm▁6442
▁galaxie▁6443
glow▁6444
▁WMAP▁6445
▁microwave▁6446
▁meaningless▁6447
▁jumped▁6448
▁exo▁6449
planet▁6450
▁solar▁6451
▁magni▁6452
tude▁6453
▁Voyage▁6454
▁1▁6455
ioneer▁6456
▁spacecraft▁6457
▁orbit▁6458
▁Moon▁6459
▁Porc▁6460
▁Cassini▁6461
▁phase▁6462
▁ingenious▁6463
▁encounter▁6464
▁Titan▁6465
▁Merc▁6466
▁divert▁6467
Sahara▁6468
arium▁6469
▁librari▁6470
▁ghetto▁6471
▁Columbia▁6472
▁Cambodia▁6473
▁Saturday▁6474
▁Aqua▁6475
▁Nepal▁6476
▁Lhasa▁6477
▁Tibet▁6478
▁haze▁6479
▁fires▁6480
▁Ganges▁6481
▁closing▁6482
▁snow▁6483
▁Na▁6484
lini▁6485
▁Nad▁6486
arni▁6487
▁prison▁6488
▁inmates▁6489
▁epitom▁6490
asis▁6491
▁trunk▁6492
▁twig▁6493
▁paintbrush▁6494
▁western▁6495
▁Douglas▁6496
fir▁6497
▁Picasso▁6498
▁Monet▁6499
▁quantify▁6500
▁vine▁6501
▁tree▁6502
▁multipli▁6503
▁branch▁6504
▁186▁6505
,5▁6506
40▁6507
▁2.3▁6508
▁incarcerat▁6509
▁rehabilitati▁6510
▁declin▁6511
▁Department▁6512
▁Cor▁6513
ction▁6514
▁sustainability▁6515
lift▁6516
▁Nature▁6517
▁Conservanc▁6518
▁Sta▁6519
▁endanger▁6520
▁prairie▁6521
▁restoration▁6522
▁relic▁6523
▁Fish▁6524
▁Wild▁6525
▁Oregon▁6526
▁spott▁6527
▁wetland▁6528
▁begu▁6529
▁Super▁6530
action▁6531
▁guards▁6532
▁prisoner▁6533
▁meetings▁6534
▁boards▁6535
mobile▁6536
▁yards▁6537
pez▁6538
litary▁6539
▁seren▁6540
▁calm▁6541
pt▁6542
circle▁6543
▁g▁6544
rief▁6545
▁racis▁6546
▁Michael▁6547
▁Hans▁6548
▁unimaginabl▁6549
▁division▁6550
▁algorithm▁6551
▁outrageous▁6552
▁draft▁6553
▁architectural▁6554
▁origin▁6555
▁preconception▁6556
▁split▁6557
▁identical▁6558
▁distinct▁6559
▁asymmetric▁6560
▁simplify▁6561
▁fold▁6562
▁iteration▁6563
▁ratio▁6564
▁exert▁6565
▁specify▁6566
▁sculpt▁6567
▁intersect▁6568
pound▁6569
▁scope▁6570
▁99.9▁6571
▁geometric▁6572
▁curv▁6573
ature▁6574
▁radi▁6575
▁elaborate▁6576
▁minimal▁6577
▁archetype▁6578
▁algorithmic▁6579
▁cylinder▁6580
▁formation▁6581
▁visi▁6582
▁overall▁6583
▁microscop▁6584
▁elevation▁6585
▁determin▁6586
▁random▁6587
▁variant▁6588
▁analog▁6589
▁printing▁6590
vor▁6591
▁tradeoff▁6592
▁resolution▁6593
▁slice▁6594
▁unbe▁6595
known▁6596
▁segment▁6597
▁photo▁6598
▁rendering▁6599
▁intricac▁6600
,700▁6601
▁kilos▁6602
▁auditorium▁6603
▁machines▁6604
ju▁6605
▁hybrid▁6606
▁illusion▁6607
▁await▁6608
▁Hoffman▁6609
▁Sputnik▁6610
▁mania▁6611
length▁6612
▁Man▁6613
▁Soviet▁6614
▁Union▁6615
start▁6616
▁desolate▁6617
▁nose▁6618
▁Russian▁6619
▁explorers▁6620
▁Vasco▁6621
ama▁6622
▁Columb▁6623
▁fortune▁6624
▁terrestrial▁6625
▁snippet▁6626
▁Monday▁6627
▁bombs▁6628
▁IBM▁6629
▁loose▁6630
▁historian▁6631
▁Pearl▁6632
▁Harbo▁6633
▁Congress▁6634
▁1,2▁6635
▁nuclear▁6636
▁20,000▁6637
▁Civil▁6638
▁Defens▁6639
ill▁6640
▁78▁6641
▁Gallup▁6642
▁Poll▁6643
▁scholarship▁6644
▁Vint▁6645
▁ARPA▁6646
▁investor▁6647
▁TEDster▁6648
▁Walker▁6649
▁Ken▁6650
▁Kam▁6651
▁deadlie▁6652
▁Mount▁6653
▁climb▁6654
▁survived▁6655
▁burie▁6656
▁conference▁6657
▁surviv▁6658
▁summon▁6659
0▁6660
▁Geographic▁6661
▁tectonic▁6662
▁sens▁6663
aku▁6664
take▁6665
▁Mars▁6666
▁jacket▁6667
▁solid▁6668
,500▁6669
▁Two▁6670
▁Camp▁6671
▁Lhotse▁6672
▁dwarf▁6673
▁3,000▁6674
load▁6675
▁tent▁6676
MA▁6677
▁preparation▁6678
▁camps▁6679
fall▁6680
▁waterfall▁6681
▁rat▁6682
▁maze▁6683
▁tumbl▁6684
▁crevasse▁6685
▁ladder▁6686
▁rope▁6687
▁climbing▁6688
▁Thre▁6689
▁fixed▁6690
▁profile▁6691
▁scour▁6692
▁blown▁6693
▁Rob▁6694
ular▁6695
▁Face▁6696
▁steep▁6697
▁daylight▁6698
degree▁6699
blew▁6700
▁anticipat▁6701
▁ferocious▁6702
▁mask▁6703
▁rebreather▁6704
▁tank▁6705
itanium▁6706
ped▁6707
▁8,000▁6708
▁fierce▁6709
▁dressed▁6710
▁equipp▁6711
▁Doug▁6712
▁exhaust▁6713
▁Beck▁6714
▁Weather▁6715
▁dead▁6716
▁confusion▁6717
▁confus▁6718
unk▁6719
▁Bur▁6720
▁Pete▁6721
than▁6722
▁rescue▁6723
▁Hol▁6724
▁Leave▁6725
▁stabilize▁6726
▁advice▁6727
▁45-▁6728
▁syringe▁6729
▁steroid▁6730
▁lucid▁6731
▁injection▁6732
▁clothes▁6733
▁pregnan▁6734
▁patch▁6735
▁signed▁6736
▁impossibilit▁6737
▁kit▁6738
▁hypothermi▁6739
▁frostbit▁6740
▁warm▁6741
▁revive▁6742
▁stumbl▁6743
▁mum▁6744
coherent▁6745
▁cat▁6746
▁indicate▁6747
▁laying▁6748
▁irreversibl▁6749
▁speculate▁6750
▁SPECT▁6751
▁scan▁6752
▁frontal▁6753
▁lobe▁6754
▁concentration▁6755
▁temporal▁6756
▁posterior▁6757
▁cerebell▁6758
▁stem▁6759
tenance▁6760
▁heartbeat▁6761
spiration▁6762
▁portion▁6763
▁experienc▁6764
▁danger▁6765
▁metabolic▁6766
▁motivat▁6767
▁anterior▁6768
▁cingul▁6769
▁transmitt▁6770
▁spreading▁6771
▁lungs▁6772
▁epic▁6773
▁helicopter▁6774
▁Kath▁6775
du▁6776
▁memorial▁6777
ip▁6778
▁Fischer▁6779
▁Andy▁6780
▁Harris▁6781
mba▁6782
▁Tibetan▁6783
▁prayer▁6784
yrone▁6785
▁Haye▁6786
▁Penelope▁6787
▁Jag▁6788
▁Cha▁6789
ffer▁6790
▁chemicals▁6791
▁unbor▁6792
▁scientist▁6793
razine▁6794
▁herbicide▁6795
▁corn▁6796
▁joking▁6797
▁estrogen▁6798
▁Baby▁6799
▁statistics▁6800
▁skyrocket▁6801
incidence▁6802
leuk▁6803
emia▁6804
▁statistic▁6805
▁Canadian▁6806
▁asthma▁6807
fold▁6808
▁autism▁6809
▁autist▁6810
▁disorders▁6811
▁genital▁6812
▁defect▁6813
▁diabetes▁6814
▁premature▁6815
▁pubert▁6816
▁pesticide▁6817
▁evaluate▁6818
▁amphibian▁6819
▁EPA▁6820
register▁6821
▁0.1▁6822
▁dissect▁6823
▁ovari▁6824
▁Leopard▁6825
▁Frog▁6826
birth▁6827
▁chicken▁6828
▁testicle▁6829
▁consum▁6830
mat▁6831
oc▁6832
▁imbalance▁6833
▁testosterone▁6834
▁enzyme▁6835
▁aromat▁6836
rat▁6837
▁subsequent▁6838
▁fe▁6839
▁regulate▁6840
ozo▁6841
▁mutate▁6842
▁exposure▁6843
PJ▁6844
▁bis▁6845
phenol▁6846
PA▁6847
olycarbonat▁6848
▁synthetic▁6849
▁leach▁6850
▁formula▁6851
▁newborn▁6852
▁infant▁6853
▁sip▁6854
▁cup▁6855
▁Senate▁6856
▁police▁6857
▁proven▁6858
▁leak▁6859
▁stands▁6860
▁th▁6861
▁extinction▁6862
▁dinosaurs▁6863
▁indicator▁6864
hell▁6865
▁membrane▁6866
▁mammals▁6867
▁generat▁6868
ortion▁6869
▁pregnanc▁6870
ort▁6871
▁prostate▁6872
▁pup▁6873
▁impair▁6874
▁mamma▁6875
▁retard▁6876
▁nourish▁6877
estro▁6878
▁PCB▁6879
▁DDT▁6880
▁determine▁6881
▁womb▁6882
fspring▁6883
ES▁6884
▁visualize▁6885
▁Puff▁6886
uro▁6887
ano▁6888
▁Bli▁6889
▁fetus▁6890
▁artificial▁6891
▁van▁6892
guard▁6893
▁resonance▁6894
▁communicator▁6895
▁contaminat▁6896
▁activist▁6897
▁sperm▁6898
icular▁6899
▁tu▁6900
bule▁6901
▁reptile▁6902
▁coincidence▁6903
▁semen▁6904
▁urine▁6905
American▁6906
▁chlorop▁6907
▁gas▁6908
▁Carson▁6909
bug▁6910
abo▁6911
▁Uganda▁6912
▁sole▁6913
▁bath▁6914
▁environmental▁6915
▁Oakland▁6916
▁faucet▁6917
percussion▁6918
▁ignorant▁6919
▁burden▁6920
▁bearing▁6921
ha▁6922
▁Daw▁6923
▁novelist▁6924
truck▁6925
▁fixate▁6926
▁Hurricane▁6927
▁Sandy▁6928
▁Mau▁6929
▁haul▁6930
▁gallon▁6931
▁batteries▁6932
▁bread▁6933
▁shower▁6934
▁preoccupation▁6935
▁baker▁6936
▁entrance▁6937
ison▁6938
venue▁6939
charging▁6940
▁outlet▁6941
▁indirect▁6942
▁em▁6943
bell▁6944
▁arc▁6945
▁discrete▁6946
▁heartbreak▁6947
▁disappointment▁6948
frame▁6949
▁immersive▁6950
▁embedded▁6951
▁bud▁6952
▁regret▁6953
▁nostalgi▁6954
▁alter▁6955
runk▁6956
▁granular▁6957
▁comprehend▁6958
second▁6959
▁signal▁6960
▁arrow▁6961
wry▁6962
▁app▁6963
▁Delhi▁6964
▁reservation▁6965
▁plain▁6966
▁archive▁6967
▁distinction▁6968
▁prioritize▁6969
▁landmark▁6970
▁invitation▁6971
▁author▁6972
▁incessant▁6973
▁exile▁6974
▁sake▁6975
▁competition▁6976
▁absent▁6977
▁convenience▁6978
▁horror▁6979
▁Paris▁6980
▁shatter▁6981
▁displace▁6982
▁perpetuate▁6983
rift▁6984
▁rupture▁6985
▁simultaneous▁6986
vis▁6987
▁Bud▁6988
▁Spanish▁6989
▁rid▁6990
link▁6991
▁terrace▁6992
▁Jupiter▁6993
▁Saturn▁6994
▁Bear▁6995
▁balance▁6996
▁wrapp▁6997
war▁6998
▁deepest▁6999
▁clutch▁7000
▁soap▁7001
selves▁7002
▁encapsulate▁7003
▁skip▁7004
▁tuck▁7005
▁cub▁7006
▁chopp▁7007
▁tune▁7008
bb▁7009
▁Behar▁7010
▁dig▁7011
▁wit▁7012
$▁7013
▁Turkish▁7014
▁carpet▁7015
▁spear▁7016
▁mom▁7017
oyle▁7018
▁storytelling▁7019
surfing▁7020
witzer▁7021
▁mast▁7022
▁fin▁7023
▁trap▁7024
▁graphics▁7025
▁Silicon▁7026
▁Valley▁7027
▁consultanc▁7028
▁manager▁7029
PO▁7030
▁Luke▁7031
▁retrospect▁7032
▁styl▁7033
▁quote▁7034
▁advertis▁7035
project▁7036
▁functionalit▁7037
▁Mini▁7038
▁horizontal▁7039
▁manufacturer▁7040
stool▁7041
ture▁7042
▁Swa▁7043
▁lamp▁7044
▁Herman▁7045
▁Miller▁7046
▁mood▁7047
▁civic▁7048
▁users▁7049
▁glue▁7050
bone▁7051
▁tech▁7052
▁nerd▁7053
ories▁7054
▁pursu▁7055
▁slapp▁7056
▁sketch▁7057
ain▁7058
▁Rahm▁7059
▁CEO▁7060
▁Ali▁7061
▁dedicate▁7062
▁Ar▁7063
▁sodas▁7064
▁symmetric▁7065
▁upside▁7066
▁emulate▁7067
▁Laptop▁7068
▁precious▁7069
▁Nichol▁7070
▁Negro▁7071
pont▁7072
▁spoken▁7073
▁founder▁7074
▁OLPC▁7075
▁Wi▁7076
Fi▁7077
▁sunlight▁7078
▁keyboard▁7079
▁rubber▁7080
▁supplier▁7081
▁Uru▁7082
gua▁7083
▁Mongol▁7084
▁bei▁7085
▁manufactur▁7086
▁nephew▁7087
▁Valenti▁7088
▁Health▁7089
▁dispense▁7090
▁hydrant▁7091
▁Puer▁7092
▁homeless▁7093
▁announcement▁7094
▁stigma▁7095
▁Egg▁7096
▁Up▁7097
▁School▁7098
▁spell▁7099
bi▁7100
alencia▁7101
lept▁7102
▁Neil▁7103
▁compar▁7104
▁Brooklyn▁7105
▁flexible▁7106
▁Park▁7107
lop▁7108
▁inspiring▁7109
working▁7110
fund▁7111
▁multiply▁7112
▁clone▁7113
▁editor▁7114
▁assistant▁7115
▁professors▁7116
▁prima▁7117
▁nurtur▁7118
▁enlighten▁7119
▁conduit▁7120
▁rent▁7121
▁Mc▁7122
Swee▁7123
ney▁7124
uarter▁7125
▁landlord▁7126
▁Ware▁7127
▁printed▁7128
▁retail▁7129
▁fluorescent▁7130
▁renovat▁7131
▁hull▁7132
ucca▁7133
▁pirate▁7134
▁plank▁7135
▁peg▁7136
▁fitted▁7137
va▁7138
▁Jok▁7139
▁Pi▁7140
▁mop▁7141
▁salt▁7142
▁curtain▁7143
▁edit▁7144
▁tables▁7145
▁auction▁7146
▁Holi▁7147
▁sandwich▁7148
▁sidewalk▁7149
▁Free▁7150
▁Tutor▁7151
our▁7152
▁Come▁7153
▁All▁7154
▁discourag▁7155
▁Nine▁7156
▁Mexic▁7157
▁executive▁7158
▁pe▁7159
id▁7160
hat▁7161
Mo▁7162
H▁7163
▁insane▁7164
shoulder▁7165
ex▁7166
computer▁7167
▁gifted▁7168
▁modeling▁7169
▁feeds▁7170
pollinat▁7171
▁stall▁7172
▁hobbi▁7173
▁1,4▁7174
ster▁7175
▁corp▁7176
▁Book▁7177
▁Was▁7178
▁Never▁7179
▁Check▁7180
▁Cind▁7181
▁malleab▁7182
▁essay▁7183
▁staff▁7184
rett▁7185
▁Room▁7186
▁style▁7187
▁library▁7188
▁52▁7189
▁Stra▁7190
ight▁7191
▁News▁7192
▁Mayor▁7193
▁Gavi▁7194
▁Isabel▁7195
▁Allende▁7196
▁assign▁7197
good▁7198
▁Marshall▁7199
▁High▁7200
▁Bay▁7201
▁Area▁7202
▁Amazon▁7203
▁170▁7204
▁Might▁7205
▁Some▁7206
▁addict▁7207
shelf▁7208
▁diminish▁7209
gag▁7210
▁judge▁7211
▁member▁7212
▁gateway▁7213
▁web▁7214
▁parrot▁7215
▁protector▁7216
▁downtown▁7217
fight▁7218
uperhero▁7219
upp▁7220
▁Compan▁7221
▁Sam▁7222
▁Potts▁7223
smith▁7224
▁superhero▁7225
▁repurpos▁7226
▁villain▁7227
▁vault▁7228
▁recite▁7229
▁herois▁7230
▁sales▁7231
▁Sharo▁7232
▁Boon▁7233
▁Hob▁7234
▁Jersey▁7235
▁shelve▁7236
▁grappl▁7237
▁builder▁7238
no▁7239
borough▁7240
▁devotion▁7241
▁flick▁7242
▁Khal▁7243
▁Ham▁7244
dan▁7245
▁addictive▁7246
rot▁7247
Be▁7248
▁Penguin▁7249
▁Bal▁7250
▁penguin▁7251
▁Symphon▁7252
▁Space▁7253
▁evangelical▁7254
▁cousin▁7255
▁Echo▁7256
▁Tra▁7257
▁Mar▁7258
▁Are▁7259
▁7-▁7260
Eleven▁7261
▁traveler▁7262
▁mammoth▁7263
▁Slu▁7264
▁Ord▁7265
▁Back▁7266
esterda▁7267
ff▁7268
ili▁7269
▁Pitt▁7270
▁Massac▁7271
hus▁7272
etts▁7273
▁Spot▁7274
incin▁7275
nati▁7276
outh▁7277
▁Sp▁7278
▁Studio▁7279
▁Bat▁7280
▁Word▁7281
▁Dublin▁7282
▁Rod▁7283
▁leap▁7284
ttendee▁7285
▁Hot▁7286
▁phenomenal▁7287
▁sterile▁7288
▁unten▁7289
dding▁7290
▁Root▁7291
▁Wol▁7292
engineering▁7293
▁dogs▁7294
▁biotechnolog▁7295
▁Darwinian▁7296
▁ecological▁7297
▁nich▁7298
▁settl▁7299
▁intentional▁7300
▁intentionally▁7301
▁physiological▁7302
hirlwind▁7303
▁selective▁7304
design▁7305
▁beef▁7306
▁buffalo▁7307
ca▁7308
▁pat▁7309
▁supermarket▁7310
▁goat▁7311
▁cute▁7312
▁afterward▁7313
▁taste▁7314
▁camel▁7315
iness▁7316
▁li▁7317
▁lion▁7318
iger▁7319
▁Photoshop▁7320
▁enhancement▁7321
▁manipulation▁7322
▁mammalian▁7323
▁genetically▁7324
▁mammal▁7325
▁wavelength▁7326
▁orange▁7327
▁pupp▁7328
▁monkey▁7329
▁manipulate▁7330
▁apes▁7331
▁zebra▁7332
▁FDA▁7333
almon▁7334
▁Chi▁7335
▁regulation▁7336
▁identification▁7337
▁clon▁7338
▁Prome▁7339
▁horse▁7340
linger▁7341
▁gold▁7342
geld▁7343
▁stud▁7344
▁duplicate▁7345
lves▁7346
sta▁7347
▁Carre▁7348
▁Jani▁7349
▁Dotcom▁7350
ombin▁7351
▁modifie▁7352
▁Gene▁7353
gen▁7354
▁Institute▁7355
▁Animal▁7356
uar▁7357
outheast▁7358
▁Asian▁7359
ulate▁7360
matic▁7361
▁gest▁7362
▁cow▁7363
▁regular▁7364
▁nucle▁7365
▁mitochondrial▁7366
▁pure▁7367
▁cockroach▁7368
▁gang▁7369
▁transmitter▁7370
▁insect▁7371
▁bot▁7372
bot▁7373
▁DARPA▁7374
▁Agenc▁7375
liath▁7376
▁beetle▁7377
▁wings▁7378
▁chip▁7379
▁shut▁7380
pf▁7381
ft▁7382
▁moth▁7383
▁surveill▁7384
▁rob▁7385
▁Tal▁7386
▁SUN▁7387
▁hemisphere▁7388
▁ethical▁7389
▁autonom▁7390
▁Mig▁7391
▁Nicole▁7392
▁prosthetic▁7393
wave▁7394
▁cage▁7395
▁staring▁7396
▁primate▁7397
▁functional▁7398
▁Florida▁7399
▁60,000▁7400
▁mechanism▁7401
▁simulator▁7402
vald▁7403
▁nutrient▁7404
▁immun▁7405
▁polymer▁7406
▁scaffold▁7407
▁transplant▁7408
io▁7409
technolog▁7410
▁xeno▁7411
transplantation▁7412
▁Craig▁7413
▁Venter▁7414
▁synthesizer▁7415
▁Frankenstein▁7416
plasma▁7417
▁reign▁7418
▁Pet▁7419
▁Dach▁7420
hund▁7421
▁pink▁7422
▁fur▁7423
▁saliva▁7424
▁Fan▁7425
haus▁7426
zero▁7427
▁Autonom▁7428
▁Laborator▁7429
TH▁7430
▁Ball▁7431
▁balanc▁7432
▁inherent▁7433
▁counteract▁7434
pp▁7435
▁inform▁7436
▁entertain▁7437
▁footprint▁7438
▁Debora▁7439
▁Rhode▁7440
▁physicist▁7441
▁detection▁7442
▁mammogram▁7443
▁mammograph▁7444
▁rhetoric▁7445
▁radiologist▁7446
▁disclosure▁7447
▁survivor▁7448
▁lump▁7449
▁diagnose▁7450
▁ach▁7451
▁benign▁7452
logy▁7453
▁erupt▁7454
▁Pre▁7455
▁Service▁7456
Task▁7457
▁recommend▁7458
▁coverage▁7459
▁outrage▁7460
▁Post▁7461
interest▁7462
▁shortage▁7463
▁qualifie▁7464
▁interpret▁7465
▁sued▁7466
▁responsibl▁7467
▁fat▁7468
▁connectiv▁7469
▁epi▁7470
▁determined▁7471
▁menopaus▁7472
▁fatty▁7473
▁scatter▁7474
▁fibro▁7475
▁heterogen▁7476
lf▁7477
▁distinguish▁7478
▁obscure▁7479
▁physician▁7480
▁taxpayer▁7481
enopaus▁7482
▁ultrasound▁7483
biopsie▁7484
▁disruptive▁7485
▁ubiquitous▁7486
▁stereo▁7487
▁Hummer▁7488
▁Malco▁7489
lm▁7490
▁Gladwell▁7491
▁orchestrate▁7492
▁essence▁7493
▁innovator▁7494
▁cartoon▁7495
▁disturb▁7496
▁depiction▁7497
▁serendipit▁7498
▁Mayo▁7499
▁cardiac▁7500
amma▁7501
▁detector▁7502
▁tubes▁7503
▁sci▁7504
illa▁7505
▁ray▁7506
rays▁7507
▁centimeter▁7508
▁semiconductor▁7509
▁tape▁7510
▁hacked▁7511
olecular▁7512
▁MBI▁7513
ternis▁7514
ka▁7515
▁biomedic▁7516
rench▁7517
▁duct▁7518
▁skeptic▁7519
▁understate▁7520
▁modification▁7521
▁relie▁7522
▁molecular▁7523
per▁7524
log▁7525
▁40-▁7526
▁compress▁7527
▁faint▁7528
▁surgical▁7529
▁grant▁7530
▁Susan▁7531
▁Ko▁7532
▁el▁7533
▁investigator▁7534
▁83▁7535
centimeter▁7536
▁secretar▁7537
▁worri▁7538
▁correspond▁7539
▁golf▁7540
▁lymph▁7541
▁67▁7542
fifth▁7543
▁anatomic▁7544
ologist▁7545
▁accurate▁7546
im▁7547
▁prefer▁7548
▁manuscript▁7549
▁journal▁7550
▁rejection▁7551
▁request▁7552
▁reconsider▁7553
▁Radio▁7554
▁replicated▁7555
doption▁7556
▁Ninety▁7557
▁Connecti▁7558
▁heated▁7559
▁menstrua▁7560
▁rage▁7561
▁mortality▁7562
▁sword▁7563
▁advocate▁7564
together▁7565
ctic▁7566
ect▁7567
▁granddaughter▁7568
▁Raspyni▁7569
▁Brother▁7570
▁juggl▁7571
▁illustri▁7572
▁juggler▁7573
▁uncann▁7574
▁agil▁7575
▁sacrifice▁7576
▁Holz▁7577
bag▁7578
▁Barry▁7579
omics▁7580
▁comfort▁7581
▁flexibilit▁7582
▁DH▁7583
▁inspirational▁7584
F▁7585
▁Daniel▁7586
▁MacArthur▁7587
▁Mosche▁7588
▁excerpt▁7589
opper▁7590
▁Richard▁7591
▁tradition▁7592
▁bull▁7593
ps▁7594
▁balloon▁7595
▁incorporate▁7596
▁Jesus▁7597
▁Christ▁7598
▁Wurma▁7599
RW▁7600
▁hate▁7601
▁Wow▁7602
▁1,0▁7603
▁flash▁7604
▁Glori▁7605
▁razor▁7606
les▁7607
▁judg▁7608
▁blade▁7609
▁virgin▁7610
▁odd▁7611
▁eyeball▁7612
gosh▁7613
▁French▁7614
▁5.▁7615
▁rap▁7616
▁lying▁7617
▁twin▁7618
▁She▁7619
▁Jr▁7620
▁Olympic▁7621
▁pearl▁7622
▁tongue▁7623
▁Seven▁7624
club▁7625
▁Stone▁7626
fu▁7627
▁joint▁7628
▁arthritis▁7629
▁remed▁7630
step▁7631
human▁7632
iscus▁7633
▁carti▁7634
L▁7635
▁ligament▁7636
▁orthopedic▁7637
▁destin▁7638
▁assum▁7639
▁worn▁7640
▁midst▁7641
▁bionic▁7642
▁Doc▁7643
ograf▁7644
▁graft▁7645
▁regrow▁7646
king▁7647
▁Aspen▁7648
▁J▁7649
▁Hu▁7650
▁motorcycle▁7651
iful▁7652
▁barrier▁7653
▁immunolog▁7654
top▁7655
▁gal▁7656
▁Achilles▁7657
▁collage▁7658
▁strip▁7659
▁degrad▁7660
▁detergent▁7661
▁template▁7662
▁insert▁7663
▁procedure▁7664
approve▁7665
ccept▁7666
▁Gal▁7667
▁Tu▁7668
▁stripp▁7669
▁Master▁7670
hill▁7671
lig▁7672
▁tack▁7673
face▁7674
bul▁7675
patient▁7676
ware▁7677
▁2.0▁7678
▁Dicke▁7679
▁squea▁7680
▁delicac▁7681
cus▁7682
▁caterpillar▁7683
▁eco▁7684
friend▁7685
timation▁7686
▁conservative▁7687
▁57▁7688
▁contribution▁7689
▁dung▁7690
▁pollinate▁7691
▁reproduction▁7692
▁pest▁7693
▁chains▁7694
▁Li▁7695
ji▁7696
▁inhabitant▁7697
▁gram▁7698
▁tomato▁7699
▁peanut▁7700
▁butter▁7701
▁noodle▁7702
▁tomatoe▁7703
▁agency▁7704
▁balls▁7705
imi▁7706
▁dye▁7707
eat▁7708
▁Can▁7709
▁Peru▁7710
euros▁7711
▁exponentially▁7712
▁FA▁7713
▁wealthie▁7714
▁consist▁7715
stock▁7716
▁vegetarian▁7717
▁organs▁7718
therland▁7719
▁classical▁7720
▁fever▁7721
▁convers▁7722
▁entrepreneur▁7723
▁kg▁7724
▁bonus▁7725
mmonia▁7726
▁malign▁7727
analyse▁7728
▁comparabl▁7729
▁grasshopper▁7730
▁Mac▁7731
▁expense▁7732
▁vary▁7733
▁Arno▁7734
eter▁7735
▁2020▁7736
▁maker▁7737
▁Minister▁7738
▁Agri▁7739
▁menu▁7740
▁ministr▁7741
gue▁7742
▁hobby▁7743
▁1,7▁7744
▁Wagen▁7745
▁Bruno▁7746
▁Gius▁7747
sani▁7748
▁nuts▁7749
▁Lawrence▁7750
▁Le▁7751
ami▁7752
▁remix▁7753
▁Republican▁7754
▁Larry▁7755
▁Democrat▁7756
▁copyright▁7757
▁lens▁7758
▁conservatives▁7759
▁yearning▁7760
▁confess▁7761
oung▁7762
▁Teenage▁7763
ngest▁7764
legation▁7765
▁convention▁7766
▁elect▁7767
onald▁7768
▁Reagan▁7769
mine▁7770
▁Wikipedia▁7771
▁junk▁7772
▁Er▁7773
▁Penn▁7774
lvani▁7775
▁speaker▁7776
▁pot▁7777
luck▁7778
▁Wall▁7779
▁firms▁7780
▁believer▁7781
▁keen▁7782
▁ecolog▁7783
▁Teddy▁7784
▁Roosevelt▁7785
▁Julian▁7786
che▁7787
▁libertarian▁7788
▁evil▁7789
▁Bra▁7790
▁Pack▁7791
ania▁7792
▁viral▁7793
▁Fransisco▁7794
▁Francis▁7795
▁emulat▁7796
▁mashup▁7797
▁screw▁7798
▁resonate▁7799
LL▁7800
▁yield▁7801
▁mediate▁7802
▁dialogue▁7803
▁articulat▁7804
▁permeate▁7805
▁maximize▁7806
▁suppress▁7807
▁Mickey▁7808
team▁7809
▁Willi▁7810
▁dominant▁7811
▁Buster▁7812
▁Keat▁7813
▁celebration▁7814
ind▁7815
▁Sonn▁7816
▁Bono▁7817
▁Copyright▁7818
tension▁7819
▁Act▁7820
▁Grim▁7821
▁qui▁7822
bble▁7823
▁footnote▁7824
▁creator▁7825
▁star▁7826
▁Mash▁7827
▁rights▁7828
▁perpetual▁7829
▁employ▁7830
ership▁7831
▁Goldman▁7832
▁Sachs▁7833
protected▁7834
▁permission▁7835
▁nonprofit▁7836
▁Creative▁7837
▁requir▁7838
▁350▁7839
▁Wir▁7840
▁Chat▁7841
▁upload▁7842
MG▁7843
▁matched▁7844
▁DMCA▁7845
▁flaw▁7846
▁audio▁7847
▁included▁7848
▁Bart▁7849
▁Simpson▁7850
asse▁7851
▁election▁7852
▁opponent▁7853
▁refus▁7854
▁respectful▁7855
▁luna▁7856
▁agreement▁7857
▁Right▁7858
▁legislati▁7859
▁BMW▁7860
▁Deep▁7861
▁SUV▁7862
▁tote▁7863
▁pole▁7864
▁aesthetic▁7865
terminolog▁7866
▁Michelangelo▁7867
mov▁7868
▁elevator▁7869
▁congesti▁7870
▁avatar▁7871
▁anger▁7872
▁Chevy▁7873
▁Rock▁7874
▁sculpture▁7875
▁tension▁7876
▁craftsman▁7877
▁handle▁7878
▁obligation▁7879
▁clay▁7880
▁sensuality▁7881
▁infectious▁7882
▁Plato▁7883
▁Newton▁7884
▁quant▁7885
▁paradox▁7886
▁4.0▁7887
▁4.000▁7888
▁divergen▁7889
▁applica▁7890
chan▁7891
brush▁7892
substitut▁7893
▁intimacy▁7894
▁temperament▁7895
▁Pygm▁7896
▁killing▁7897
▁stole▁7898
▁fax▁7899
▁monumental▁7900
▁pollute▁7901
▁postcard▁7902
▁Las▁7903
▁Vega▁7904
▁Canyon▁7905
▁Niagara▁7906
▁Fall▁7907
▁apartment▁7908
▁Taylor▁7909
▁Mal▁7910
dozen▁7911
▁Don▁7912
▁holder▁7913
▁col▁7914
▁stressed▁7915
▁dialog▁7916
schel▁7917
▁successive▁7918
▁agenda▁7919
▁sketches▁7920
▁brillian▁7921
▁baffl▁7922
▁bullshit▁7923
▁fuck▁7924
▁ballistic▁7925
rad▁7926
▁holiday▁7927
▁Cathe▁7928
rine▁7929
▁priest▁7930
▁sermon▁7931
▁selfish▁7932
▁Guy▁7933
ifi▁7934
▁dictate▁7935
▁forge▁7936
▁coup▁7937
▁Coup▁7938
▁rendition▁7939
▁Magnus▁7940
▁brute▁7941
▁Sinclair▁7942
▁refugee▁7943
bus▁7944
▁TEDGlobal▁7945
reported▁7946
estate▁7947
▁mega▁7948
▁migrant▁7949
▁construction▁7950
▁strand▁7951
▁penni▁7952
tari▁7953
▁worker▁7954
▁skyscraper▁7955
AE▁7956
▁cancel▁7957
▁1.1▁7958
▁Pakistani▁7959
▁Sri▁7960
▁Lanka▁7961
ese▁7962
▁passport▁7963
▁Build▁7964
safe▁7965
▁August▁7966
98▁7967
▁minimum▁7968
▁protest▁7969
payment▁7970
adequate▁7971
▁hous▁7972
▁contractor▁7973
lever▁7974
▁arrival▁7975
▁developer▁7976
▁comp▁7977
carbon▁7978
ethical▁7979
▁Tyle▁7980
▁plans▁7981
▁horrify▁7982
▁textbook▁7983
▁clar▁7984
▁bor▁7985
▁um▁7986
▁smile▁7987
▁memorize▁7988
▁clueless▁7989
▁Listen▁7990
▁microscope▁7991
▁bacteri▁7992
▁spoil▁7993
▁horrible▁7994
▁slipp▁7995
▁blueprint▁7996
▁factory▁7997
pionage▁7998
▁cloak▁7999
▁terrorist▁8000
▁guarantee▁8001
▁obsession▁8002
▁publisher▁8003
▁engag▁8004
▁slime▁8005
ehen▁8006
▁copie▁8007
ophag▁8008
▁replication▁8009
▁initiat▁8010
▁13-▁8011
▁fault▁8012
▁tyrann▁8013
▁ugl▁8014
▁jean▁8015
gging▁8016
ually▁8017
▁darkness▁8018
▁Roh▁8019
▁paraphras▁8020
▁sentiment▁8021
▁relevant▁8022
▁disappointed▁8023
▁advocat▁8024
▁learner▁8025
perpetuat▁8026
ech▁8027
▁circumvent▁8028
▁equi▁8029
libri▁8030
▁misspell▁8031
▁LOLcat▁8032
▁appreciati▁8033
rgon▁8034
▁Sura▁8035
wall▁8036
▁EcoRock▁8037
▁recycl▁8038
efficient▁8039
▁Serious▁8040
▁Materials▁8041
rctic▁8042
▁CO▁8043
▁sushi▁8044
▁redesign▁8045
▁gyps▁8046
amp▁8047
▁amp▁8048
▁cement▁8049
▁Dec▁8050
ember▁8051
▁slur▁8052
▁President▁8053
▁Operation▁8054
▁signing▁8055
▁ceremon▁8056
▁Cradle▁8057
▁Gold▁8058
▁Green▁8059
▁Product▁8060
ear▁8061
In▁8062
▁Popular▁8063
lick▁8064
collar▁8065
▁Natalie▁8066
▁Grandpa▁8067
▁reduc▁8068
▁Windows▁8069
▁windows▁8070
▁Ban▁8071
▁emergenc▁8072
proof▁8073
▁temporar▁8074
▁330▁8075
▁diameter▁8076
▁expo▁8077
▁theme▁8078
▁pavilion▁8079
▁reus▁8080
▁Pomp▁8081
etz▁8082
▁historical▁8083
▁reconstruction▁8084
▁1994▁8085
▁tribes▁8086
▁Hut▁8087
▁Tutsi▁8088
▁blanket▁8089
▁deforest▁8090
▁pipe▁8091
▁barr▁8092
ack▁8093
▁du▁8094
▁moisture▁8095
▁termite▁8096
▁1995▁8097
▁Kobe▁8098
▁Nag▁8099
ata▁8100
▁district▁8101
▁Vietnamese▁8102
▁suffering▁8103
▁Catholic▁8104
▁commut▁8105
▁fundrais▁8106
▁crate▁8107
▁Kir▁8108
▁Asa▁8109
▁Taiwan▁8110
▁donate▁8111
▁dismantle▁8112
urkey▁8113
▁Sumatra▁8114
▁rebuil▁8115
▁Islamic▁8116
▁Cheng▁8117
▁Sich▁8118
uan▁8119
▁corruption▁8120
▁Prime▁8121
▁Ber▁8122
▁minister▁8123
▁concert▁8124
▁mayor▁8125
▁Haiti▁8126
▁Santo▁8127
▁Domin▁8128
door▁8129
▁evacuat▁8130
ium▁8131
▁privacy▁8132
▁suffer▁8133
ition▁8134
▁civil▁8135
▁On▁8136
gawa▁8137
iya▁8138
▁baseball▁8139
▁container▁8140
church▁8141
▁Zer▁8142
ay▁8143
eg▁8144
paleoanthropolog▁8145
▁skeleton▁8146
▁humanoid▁8147
▁converge▁8148
▁upright▁8149
▁Sela▁8150
▁3.3▁8151
▁Australopithec▁8152
fare▁8153
▁Luc▁8154
ik▁8155
ika▁8156
▁significan▁8157
▁digg▁8158
▁2.▁8159
▁flute▁8160
▁bead▁8161
▁chimpanzee▁8162
▁ancestr▁8163
▁gradual▁8164
▁hostile▁8165
▁shovel▁8166
▁paleontolog▁8167
▁extinct▁8168
▁rhino▁8169
spread▁8170
▁Homo▁8171
▁sapien▁8172
▁anecdote▁8173
▁Here▁8174
▁Ze▁8175
▁frustrat▁8176
▁sandstone▁8177
case▁8178
▁expose▁8179
tourism▁8180
▁hallmark▁8181
▁forehead▁8182
▁dim▁8183
▁CT▁8184
grow▁8185
▁chimp▁8186
▁cope▁8187
▁dependenc▁8188
▁unite▁8189
oid▁8190
▁ape▁8191
▁progressive▁8192
▁preserve▁8193
▁occupy▁8194
▁specimen▁8195
▁primitive▁8196
brain▁8197
▁needless▁8198
▁competent▁8199
▁guns▁8200
cogniz▁8201
▁Homer▁8202
▁hippocamp▁8203
▁seahorse▁8204
▁resemble▁8205
▁pulse▁8206
▁electricity▁8207
▁interconnected▁8208
▁spatial▁8209
▁recording▁8210
▁neuron▁8211
▁continual▁8212
▁epilep▁8213
▁impulse▁8214
▁detect▁8215
▁boundary▁8216
▁circular▁8217
▁marker▁8218
▁wander▁8219
▁integrate▁8220
▁array▁8221
▁triangula▁8222
▁longitud▁8223
▁triangle▁8224
▁axe▁8225
▁symmetr▁8226
▁orientation▁8227
▁remembering▁8228
detect▁8229
▁matche▁8230
▁cue▁8231
▁autobiograph▁8232
▁wedding▁8233
▁recreate▁8234
▁activat▁8235
▁interconnection▁8236
▁reactiv▁8237
▁viewpoint▁8238
▁compass▁8239
▁neuroscience▁8240
▁Jones▁8241
legged▁8242
plex▁8243
▁Josh▁8244
omi▁8245
▁Circle▁8246
▁Curt▁8247
▁Vanco▁8248
uver▁8249
15▁8250
▁Nige▁8251
▁marsh▁8252
▁stirring▁8253
▁encouragement▁8254
▁existence▁8255
▁Benedict▁8256
▁follower▁8257
▁warrior▁8258
▁thorn▁8259
force▁8260
▁dress▁8261
down▁8262
▁patern▁8263
▁incompatib▁8264
peration▁8265
▁Wide▁8266
▁Web▁8267
▁corporation▁8268
batt▁8269
intention▁8270
care▁8271
▁sport▁8272
▁pub▁8273
▁meditate▁8274
▁realistic▁8275
▁retire▁8276
▁commute▁8277
▁10-▁8278
▁daunting▁8279
▁Blood▁8280
▁Harry▁8281
▁swing▁8282
▁pizza▁8283
▁Batman▁8284
▁pajama▁8285
▁Roa▁8286
▁Giant▁8287
▁Playstation▁8288
▁upheaval▁8289
▁moron▁8290
▁simplistic▁8291
▁unanswer▁8292
▁shap▁8293
▁constitute▁8294
▁consequent▁8295
▁separation▁8296
rue▁8297
▁crucial▁8298
constru▁8299
▁complexity▁8300
▁etern▁8301
▁strangers▁8302
▁murder▁8303
▁indiscriminate▁8304
▁conceivabl▁8305
holera▁8306
▁arrangement▁8307
▁necessit▁8308
▁suicide▁8309
▁bomber▁8310
▁72▁8311
▁psychology▁8312
▁peaks▁8313
stical▁8314
▁deduct▁8315
▁cooperation▁8316
raising▁8317
▁bruise▁8318
▁blister▁8319
▁rationale▁8320
▁spare▁8321
▁rod▁8322
defin▁8323
▁Spec▁8324
▁statue▁8325
▁carve▁8326
▁marathon▁8327
▁donation▁8328
▁revision▁8329
uous▁8330
▁undermine▁8331
ueen▁8332
izen▁8333
▁voluntary▁8334
▁veil▁8335
▁detonat▁8336
▁youth▁8337
▁optimal▁8338
▁dem▁8339
ag▁8340
ogue▁8341
urance▁8342
▁gay▁8343
▁proliferation▁8344
▁conception▁8345
alai▁8346
▁Lama▁8347
▁meditat▁8348
▁integral▁8349
▁Ted▁8350
▁Bund▁8351
▁fond▁8352
▁abduct▁8353
▁Edward▁8354
▁Witt▁8355
▁theorist▁8356
▁physics▁8357
▁String▁8358
▁bog▁8359
▁exclude▁8360
▁ignorance▁8361
course▁8362
▁destructive▁8363
invent▁8364
▁airplane▁8365
wi▁8366
▁lust▁8367
▁imperialis▁8368
▁voluntar▁8369
▁burqa▁8370
▁reconcile▁8371
▁negative▁8372
▁insof▁8373
▁compuls▁8374
▁interrogate▁8375
▁judgment▁8376
modu▁8377
lo▁8378
▁delusion▁8379
ecause▁8380
▁boyfriend▁8381
▁ecsta▁8382
▁Kavita▁8383
▁Ram▁8384
style▁8385
▁Global▁8386
▁Fund▁8387
▁traditions▁8388
▁trends▁8389
ima▁8390
▁defi▁8391
▁blur▁8392
▁polar▁8393
▁First▁8394
▁Third▁8395
▁oppress▁8396
ga▁8397
▁vicious▁8398
▁hijab▁8399
▁headscar▁8400
▁maim▁8401
▁replant▁8402
violent▁8403
▁Chim▁8404
▁Adichie▁8405
▁puzzle▁8406
▁devou▁8407
▁harmon▁8408
▁lesbian▁8409
▁Croatia▁8410
▁Liberia▁8411
▁indebted▁8412
dem▁8413
eanor▁8414
▁bless▁8415
▁suspicious▁8416
▁uncle▁8417
▁Poor▁8418
▁widow▁8419
▁descend▁8420
di▁8421
ani▁8422
wild▁8423
▁begging▁8424
Ramu▁8425
mutter▁8426
▁feminist▁8427
▁chant▁8428
▁Hind▁8429
▁Beijing▁8430
turn▁8431
▁oppressi▁8432
▁Sake▁8433
oobi▁8434
▁Koran▁8435
▁litera▁8436
▁breeze▁8437
▁immense▁8438
▁pragmatic▁8439
▁assist▁8440
▁imam▁8441
▁mosque▁8442
ug▁8443
▁realiz▁8444
▁opposition▁8445
▁Lesbo▁8446
▁Z▁8447
▁homosexual▁8448
▁discomfort▁8449
▁prejudice▁8450
conflict▁8451
national▁8452
▁religios▁8453
▁unbearabl▁8454
▁Bosnia▁8455
▁Serbia▁8456
lov▁8457
▁folk▁8458
▁queer▁8459
▁Leah▁8460
▁rebellion▁8461
ugoslav▁8462
mp▁8463
rob▁8464
▁LGBT▁8465
▁alchemist▁8466
▁repertoire▁8467
them▁8468
▁grin▁8469
▁Church▁8470
balk▁8471
▁trou▁8472
bad▁8473
▁Balkan▁8474
▁Cro▁8475
▁Serb▁8476
lika▁8477
▁Ley▁8478
mah▁8479
we▁8480
▁torn▁8481
▁stri▁8482
fe▁8483
▁bloodsh▁8484
woman▁8485
▁distress▁8486
▁affair▁8487
cade▁8488
▁oppos▁8489
▁dragg▁8490
▁tense▁8491
▁deliberation▁8492
▁und▁8493
▁curse▁8494
▁accord▁8495
▁mobiliz▁8496
▁Ellen▁8497
leaf▁8498
▁acknowledge▁8499
▁Fil▁8500
rice▁8501
rag▁8502
▁parade▁8503
▁Marx▁8504
▁subvert▁8505
▁dreams▁8506
▁feminism▁8507
▁ruling▁8508
▁occupie▁8509
▁negotiation▁8510
▁marit▁8511
▁Michelle▁8512
▁Shiri▁8513
bou▁8514
▁navigate▁8515
militar▁8516
▁thread▁8517
▁fabric▁8518
▁Kathr▁8519
▁Schulz▁8520
▁compell▁8521
▁Providenc▁8522
▁Portland▁8523
▁Dakota▁8524
▁row▁8525
▁imitation▁8526
▁picnic▁8527
▁misunderst▁8528
▁appreciat▁8529
▁poll▁8530
▁emotionally▁8531
▁dreadful▁8532
▁embarrassing▁8533
▁rev▁8534
▁Tun▁8535
▁pathetic▁8536
▁coyote▁8537
▁episode▁8538
▁elementary▁8539
▁troublemaker▁8540
▁perfection▁8541
achi▁8542
▁CFO▁8543
trophy▁8544
▁ultra▁8545
marathon▁8546
▁virtuo▁8547
▁Beth▁8548
▁Medica▁8549
▁anesthetize▁8550
▁stitch▁8551
▁For▁8552
▁external▁8553
▁Gulf▁8554
▁torpedo▁8555
▁disagree▁8556
▁generous▁8557
▁attachment▁8558
▁misse▁8559
▁translucen▁8560
▁Descartes▁8561
▁Augustin▁8562
▁Public▁8563
crypto▁8564
▁revers▁8565
▁listener▁8566
▁readers▁8567
▁herring▁8568
▁invade▁8569
destruction▁8570
osni▁8571
bar▁8572
▁dictator▁8573
▁marry▁8574
heart▁8575
town▁8576
▁astonishe▁8577
▁offense▁8578
▁advancement▁8579
alter▁8580
▁eh▁8581
▁Peace▁8582
lt▁8583
▁chief▁8584
wear▁8585
▁Wei▁8586
▁companion▁8587
▁activis▁8588
▁Gender▁8589
▁bloat▁8590
▁pale▁8591
▁sibling▁8592
▁19▁8593
▁athletic▁8594
▁Millennium▁8595
evelopment▁8596
prostitution▁8597
▁gum▁8598
▁prostitute▁8599
▁dishearten▁8600
▁TEDTalk▁8601
▁laureate▁8602
▁Girl▁8603
▁Transform▁8604
▁soft▁8605
▁cellphone▁8606
▁Juan▁8607
ita▁8608
▁doughnut▁8609
▁upset▁8610
▁Texas▁8611
▁LG▁8612
▁Initiative▁8613
▁Ghanaian▁8614
▁pessimist▁8615
▁predominant▁8616
▁mobilize▁8617
▁rape▁8618
▁barbari▁8619
▁Lesl▁8620
▁Chang▁8621
▁globalization▁8622
ught▁8623
▁megacit▁8624
▁handbag▁8625
▁jumps▁8626
▁rooftop▁8627
▁assembl▁8628
▁iPad▁8629
▁beneficia▁8630
▁purchase▁8631
▁injustice▁8632
▁appeal▁8633
obsess▁8634
▁gadget▁8635
▁render▁8636
▁invisib▁8637
▁Chen▁8638
▁Wu▁8639
▁Chu▁8640
▁satisfy▁8641
▁Dong▁8642
▁nights▁8643
▁dormitor▁8644
▁Lu▁8645
▁q▁8646
▁abbreviat▁8647
▁Karl▁8648
▁capitalism▁8649
▁cabinet▁8650
▁satisfact▁8651
▁entry▁8652
level▁8653
▁calculation▁8654
▁Min▁8655
▁Coach▁8656
▁purse▁8657
▁leather▁8658
▁Doo▁8659
▁Bourke▁8660
▁mar▁8661
Sport▁8662
▁320▁8663
▁6,000▁8664
▁currenc▁8665
▁worthless▁8666
▁Signatur▁8667
▁luxurious▁8668
▁fla▁8669
▁ador▁8670
▁tendenc▁8671
▁electronics▁8672
▁luc▁8673
▁purchas▁8674
▁Buick▁8675
▁crane▁8676
▁temporari▁8677
▁migration▁8678
▁Nike▁8679
▁depressing▁8680
▁Apple▁8681
LC▁8682
▁impressed▁8683
motivat▁8684
▁resourceful▁8685
▁illiterate▁8686
▁weekend▁8687
▁rudiment▁8688
▁upward▁8689
▁downward▁8690
ways▁8691
Gregor▁8692
kka▁8693
iform▁8694
▁script▁8695
▁Cyr▁8696
▁Cy▁8697
▁tolerance▁8698
cultural▁8699
▁Director▁8700
▁perish▁8701
▁biograph▁8702
▁rug▁8703
▁bake▁8704
▁187▁8705
q▁8706
▁invasion▁8707
pot▁8708
▁ruler▁8709
▁Bel▁8710
sha▁8711
zzar▁8712
▁feas▁8713
▁53▁8714
▁BC▁8715
▁Rembrandt▁8716
▁Galler▁8717
▁illustrat▁8718
▁scripture▁8719
buch▁8720
▁Jerusalem▁8721
▁Jew▁8722
▁Babylon▁8723
sack▁8724
ile▁8725
sia▁8726
▁fest▁8727
▁Persian▁8728
▁Jewish▁8729
▁empire▁8730
▁Mediterrane▁8731
pple▁8732
▁Iraqi▁8733
▁Babylonian▁8734
▁consultant▁8735
▁enslave▁8736
▁confiscate▁8737
▁repress▁8738
▁altar▁8739
▁worship▁8740
▁decree▁8741
▁Chron▁8742
▁Ezra▁8743
▁reported▁8744
▁Juda▁8745
▁reshape▁8746
▁historic▁8747
▁Darius▁8748
ith▁8749
▁religions▁8750
▁stabilit▁8751
▁Alexander▁8752
pho▁8753
▁Found▁8754
▁Father▁8755
▁Jefferson▁8756
hurra▁8757
▁god▁8758
▁Bab▁8759
duk▁8760
▁shepherd▁8761
▁grateful▁8762
▁Old▁8763
▁Testament▁8764
▁Jehova▁8765
sai▁8766
▁unsettl▁8767
▁thou▁8768
▁hast▁8769
17▁8770
four▁8771
eclaration▁8772
▁imperial▁8773
▁1918▁8774
▁divine▁8775
▁Shah▁8776
Muslim▁8777
▁Zo▁8778
▁emblem▁8779
ue▁8780
▁cooperate▁8781
▁loan▁8782
▁tolerant▁8783
▁tyrant▁8784
▁rumbl▁8785
▁constitution▁8786
Magna▁8787
utum▁8788
▁Joshua▁8789
▁Klein▁8790
▁crows▁8791
▁hacker▁8792
▁cor▁8793
▁Alfred▁8794
▁Hitchcock▁8795
Bird▁8796
▁vend▁8797
▁cocktail▁8798
▁notic▁8799
anthrop▁8800
adapte▁8801
ept▁8802
▁parasit▁8803
▁responsive▁8804
tenth▁8805
▁indicat▁8806
▁exponential▁8807
▁Bett▁8808
▁crow▁8809
▁proportionate▁8810
▁campus▁8811
▁nett▁8812
▁piss▁8813
▁nut▁8814
endai▁8815
▁suburbs▁8816
▁Pandora▁8817
▁Skinner▁8818
▁tra▁8819
▁spit▁8820
▁sweep▁8821
▁slot▁8822
▁poke▁8823
▁peck▁8824
▁monopol▁8825
▁discard▁8826
▁exterminat▁8827
▁Logan▁8828
▁tribal▁8829
ureau▁8830
hatte▁8831
▁Bowl▁8832
▁Hale▁8833
▁council▁8834
▁convene▁8835
▁Budweiser▁8836
▁nach▁8837
▁candidate▁8838
▁Hilar▁8839
▁Clinton▁8840
mination▁8841
▁funnel▁8842
▁tribe▁8843
▁Obama▁8844
USC▁8845
▁magnific▁8846
▁crowd▁8847
▁rub▁8848
▁nudge▁8849
▁Stage▁8850
▁Five▁8851
▁Virginia▁8852
▁Tech▁8853
uck▁8854
▁Law▁8855
▁Performance▁8856
▁Za▁8857
▁hostilit▁8858
▁undermin▁8859
▁expire▁8860
▁Motor▁8861
▁TEDx▁8862
changing▁8863
il▁8864
▁Did▁8865
▁Journal▁8866
▁Medicine▁8867
▁condescen▁8868
▁surger▁8869
ball▁8870
▁residenc▁8871
▁Zapp▁8872
▁hallway▁8873
▁applaud▁8874
▁competenc▁8875
▁gel▁8876
centric▁8877
▁incongru▁8878
▁Truth▁8879
▁Des▁8880
mond▁8881
utu▁8882
▁atrocit▁8883
▁reconcili▁8884
▁guid▁8885
▁accomplish▁8886
▁conclude▁8887
▁DM▁8888
▁narcissist▁8889
intuitive▁8890
▁Independen▁8891
ali▁8892
▁orient▁8893
▁Luther▁8894
▁preach▁8895
▁48▁8896
▁Chief▁8897
▁Polic▁8898
▁Organization▁8899
BC▁8900
▁McCain▁8901
▁Sub▁8902
▁Frederic▁8903
agadd▁8904
lab▁8905
▁diagnostic▁8906
▁Senior▁8907
▁Fellow▁8908
wie▁8909
▁miniaturiz▁8910
▁AIDS▁8911
▁capabilit▁8912
▁epidemics▁8913
▁medication▁8914
resistan▁8915
▁popp▁8916
▁laborator▁8917
▁microfluidic▁8918
▁US▁8919
▁valve▁8920
▁Jona▁8921
ori▁8922
▁tricks▁8923
▁dazzling▁8924
▁flowering▁8925
▁ultraviolet▁8926
▁mimick▁8927
▁electron▁8928
▁forensic▁8929
▁chuck▁8930
▁flower▁8931
▁grass▁8932
▁cereal▁8933
▁transfer▁8934
▁bees▁8935
ectar▁8936
▁symbio▁8937
▁hummingbird▁8938
▁hawk▁8939
▁marking▁8940
spect▁8941
▁lands▁8942
▁orchid▁8943
▁jaw▁8944
▁pollinator▁8945
▁Darwin▁8946
▁prediction▁8947
evolv▁8948
▁deceive▁8949
▁botanist▁8950
▁trot▁8951
hould▁8952
▁texture▁8953
los▁8954
▁ob▁8955
idian▁8956
▁bon▁8957
▁fabulous▁8958
lang▁8959
▁perfume▁8960
▁smelt▁8961
▁ga▁8962
icero▁8963
rum▁8964
▁bri▁8965
acula▁8966
lord▁8967
pin▁8968
▁Dorse▁8969
mbient▁8970
▁volatile▁8971
▁metaboliz▁8972
▁starch▁8973
▁Cent▁8974
▁thermo▁8975
egulation▁8976
terflies▁8977
▁shade▁8978
▁filter▁8979
screen▁8980
▁prim▁8981
rose▁8982
▁Bjor▁8983
▁Ror▁8984
▁poetic▁8985
▁astronomer▁8986
▁Venus▁8987
▁Kim▁8988
▁charm▁8989
▁resist▁8990
▁associat▁8991
▁crayon▁8992
▁Dam▁8993
▁inflict▁8994
▁mono▁8995
rama▁8996
▁Mom▁8997
▁Hurra▁8998
huh▁8999
▁Bar▁9000
▁Flaubert▁9001
▁Gregor▁9002
▁anxious▁9003
▁ver▁9004
mino▁9005
▁Franz▁9006
▁Kafka▁9007
▁Meta▁9008
▁justify▁9009
▁Je▁9010
▁useless▁9011
▁Michel▁9012
urnier▁9013
isch▁9014
▁tire▁9015
▁fatigue▁9016
▁Wolf▁9017
gang▁9018
▁joyful▁9019
ime▁9020
▁ballet▁9021
▁eighth▁9022
▁Gyeong▁9023
kg▁9024
▁diligent▁9025
book▁9026
▁Real▁9027
cal▁9028
▁palace▁9029
hoe▁9030
▁mor▁9031
▁seldom▁9032
▁galleries▁9033
▁Base▁9034
▁punish▁9035
paper▁9036
▁Un▁9037
titl▁9038
▁void▁9039
▁Bull▁9040
▁urina▁9041
▁Fountain▁9042
▁Du▁9043
▁banishe▁9044
kara▁9045
▁mi▁9046
riff▁9047
▁Legos▁9048
▁castle▁9049
▁log▁9050
▁Drama▁9051
▁devil▁9052
▁creep▁9053
▁60-▁9054
▁na▁9055
▁spouse▁9056
▁alcohol▁9057
▁cab▁9058
▁backseat▁9059
▁Lear▁9060
▁banker▁9061
▁painter▁9062
▁publicly▁9063
▁Marth▁9064
▁Graham▁9065
▁Gi▁9066
spiring▁9067
▁Cla▁9068
▁Han▁9069
ucin▁9070
▁blogs▁9071
▁backbone▁9072
▁Belgrad▁9073
▁Sash▁9074
ucci▁9075
▁stars▁9076
92▁9077
▁threat▁9078
▁advertise▁9079
motion▁9080
▁Milo▁9081
evic▁9082
▁broadcast▁9083
▁Jackson▁9084
▁charit▁9085
▁handout▁9086
▁repay▁9087
rati▁9088
▁circulation▁9089
▁strangl▁9090
▁97▁9091
▁finance▁9092
▁lease▁9093
ris▁9094
▁Nikola▁9095
pol▁9096
ev▁9097
▁planes▁9098
▁subscription▁9099
▁hypothetical▁9100
heard▁9101
▁spectacular▁9102
▁deaf▁9103
bal▁9104
uadi▁9105
▁daydream▁9106
matrix▁9107
▁rating▁9108
▁Morning▁9109
▁marketplace▁9110
▁ethnicit▁9111
▁racial▁9112
▁rect▁9113
▁editorial▁9114
▁Feel▁9115
▁Fine▁9116
post▁9117
▁occurrence▁9118
▁deduce▁9119
▁database▁9120
▁swarm▁9121
▁particle▁9122
▁affection▁9123
▁lips▁9124
▁pond▁9125
▁cursor▁9126
▁Montage▁9127
▁Mob▁9128
▁Metric▁9129
▁Mo▁9130
▁murmur▁9131
▁chronological▁9132
pped▁9133
▁fog▁9134
montage▁9135
▁mob▁9136
▁statistical▁9137
▁breakdown▁9138
▁frequent▁9139
▁prolif▁9140
gram▁9141
▁twentie▁9142
▁numerical▁9143
▁mound▁9144
▁dataset▁9145
▁gelatin▁9146
gle▁9147
▁lonel▁9148
eck▁9149
▁naught▁9150
▁candid▁9151
ahoo▁9152
ule▁9153
▁fingerprint▁9154
ended▁9155
▁capsule▁9156
▁radiate▁9157
▁sift▁9158
▁Voice▁9159
▁punct▁9160
▁Albuquerque▁9161
ez▁9162
▁Pu▁9163
eb▁9164
▁consecutive▁9165
▁archetyp▁9166
▁depict▁9167
▁Ver▁9168
▁Orion▁9169
▁Hunter▁9170
▁overhead▁9171
▁Andromeda▁9172
▁battl▁9173
▁Olymp▁9174
▁constellation▁9175
▁debut▁9176
▁Our▁9177
▁Modern▁9178
▁Mytho▁9179
▁Aurora▁9180
▁API▁9181
▁zeit▁9182
geist▁9183
▁mytholog▁9184
▁Ford▁9185
▁isolate▁9186
▁alphabet▁9187
▁Anna▁9188
▁Ger▁9189
▁coffin▁9190
▁photographic▁9191
▁representation▁9192
▁Barack▁9193
▁Alabama▁9194
▁Jazeera▁9195
▁superstar▁9196
▁loom▁9197
cooter▁9198
▁Lib▁9199
▁timeline▁9200
▁Nairobi▁9201
▁Rhein▁9202
▁participator▁9203
growth▁9204
▁enlist▁9205
▁critter▁9206
▁interdependenc▁9207
test▁9208
▁Smart▁9209
▁nomad▁9210
▁hunter▁9211
▁rabbit▁9212
▁administer▁9213
▁hir▁9214
▁wheat▁9215
▁administrator▁9216
literate▁9217
▁Protestant▁9218
▁Reform▁9219
▁constitutional▁9220
▁democrac▁9221
▁commerc▁9222
▁cooperative▁9223
▁enabl▁9224
▁desktop▁9225
band▁9226
▁sociologist▁9227
▁Kelly▁9228
▁assured▁9229
▁payoff▁9230
▁probe▁9231
▁competitor▁9232
▁tournament▁9233
▁tat▁9234
▁innate▁9235
▁anthropologist▁9236
▁slash▁9237
burn▁9238
▁pastor▁9239
▁Garret▁9240
▁Hard▁9241
▁grazing▁9242
▁maxim▁9243
▁depletion▁9244
▁watershed▁9245
▁peripheral▁9246
▁neurophysiolog▁9247
▁altruistic▁9248
urowi▁9249
ochai▁9250
▁Benkler▁9251
▁HP▁9252
▁Sun▁9253
sourcing▁9254
▁Lil▁9255
▁pharmaceutical▁9256
▁Toyota▁9257
▁altruism▁9258
▁Linux▁9259
▁Mozilla▁9260
▁blogger▁9261
▁Ad▁9262
Sense▁9263
▁Appli▁9264
▁Programm▁9265
▁Interface▁9266
▁eBay▁9267
▁suboptimal▁9268
▁trustworth▁9269
▁encyclopedia▁9270
▁Think▁9271
cle▁9272
▁NGO▁9273
▁rehydrati▁9274
▁Bit▁9275
put▁9276
@▁9277
▁Salva▁9278
▁Kenya▁9279
organiz▁9280
▁SMS▁9281
disciplinar▁9282
▁territor▁9283
▁foreigner▁9284
▁microorganism▁9285
▁alleviate▁9286
Gordon▁9287
▁Brown▁9288
▁UK▁9289
▁delighted▁9290
▁White▁9291
apalm▁9292
▁awaken▁9293
▁conscience▁9294
▁Bir▁9295
▁Aid▁9296
▁Square▁9297
▁Sudanese▁9298
▁sympath▁9299
▁Palme▁9300
▁Social▁9301
▁communist▁9302
▁reply▁9303
▁abolish▁9304
▁instantaneous▁9305
▁frontier▁9306
▁slave▁9307
▁William▁9308
▁Wilb▁9309
▁protester▁9310
▁hearts▁9311
▁Egla▁9312
▁Save▁9313
strada▁9314
▁Zimbabwe▁9315
gabe▁9316
▁Burm▁9317
▁monk▁9318
▁blogg▁9319
▁persecut▁9320
▁Su▁9321
▁Kyi▁9322
▁slavery▁9323
▁welfare▁9324
mit▁9325
▁discriminati▁9326
▁Nelson▁9327
▁Mandela▁9328
▁Win▁9329
▁terrorism▁9330
openhagen▁9331
▁persuad▁9332
prime▁9333
▁transferr▁9334
▁Iceland▁9335
vision▁9336
▁prosperity▁9337
▁Sierra▁9338
▁Leone▁9339
ives▁9340
▁Tanzania▁9341
▁Mir▁9342
▁orphan▁9343
▁tuberc▁9344
ulosi▁9345
gged▁9346
▁eleven▁9347
▁export▁9348
▁Sudan▁9349
▁commemorat▁9350
▁peacekeep▁9351
idden▁9352
▁Ancient▁9353
▁Gree▁9354
▁Demo▁9355
▁hallucination▁9356
▁neurologist▁9357
Bonnet▁9358
▁syndrome▁9359
▁nur▁9360
ker▁9361
▁Rosali▁9362
▁sane▁9363
cular▁9364
People▁9365
▁drape▁9366
▁cats▁9367
▁hallucinat▁9368
▁oblivio▁9369
▁relieve▁9370
▁cataract▁9371
▁grandson▁9372
▁handkerchief▁9373
▁fade▁9374
▁miniatur▁9375
▁repetiti▁9376
opsi▁9377
▁hyperactiv▁9378
excit▁9379
▁hood▁9380
takeoff▁9381
pital▁9382
▁cartoons▁9383
▁Ker▁9384
▁Sesam▁9385
▁Freudian▁9386
ants▁9387
▁deform▁9388
▁reassur▁9389
▁misdiagnos▁9390
▁psycho▁9391
▁vocal▁9392
▁accus▁9393
▁seduce▁9394
▁humiliat▁9395
▁roast▁9396
▁senses▁9397
▁1982▁9398
sense▁9399
▁geometrical▁9400
▁fusiform▁9401
▁abnormal▁9402
ston▁9403
▁fig▁9404
▁inferior▁9405
▁cluster▁9406
▁interrupt▁9407
▁anarch▁9408
▁convuls▁9409
▁stimulation▁9410
▁coherenc▁9411
▁association▁9412
▁OS▁9413
▁tin▁9414
▁ignore▁9415
▁hexagon▁9416
▁migraine▁9417
namen▁9418
▁sniff▁9419
▁mines▁9420
▁landmine▁9421
▁rodent▁9422
▁hamster▁9423
bil▁9424
▁exuberan▁9425
▁princess▁9426
▁Diana▁9427
▁contrar▁9428
▁soil▁9429
▁allocate▁9430
▁reinforce▁9431
▁smash▁9432
▁banana▁9433
▁leash▁9434
▁ac▁9435
credit▁9436
▁Mine▁9437
▁Action▁9438
▁Standards▁9439
▁operational▁9440
▁min▁9441
▁Mozambi▁9442
▁manual▁9443
▁treaty▁9444
▁borders▁9445
▁1.▁9446
B▁9447
▁reli▁9448
▁detected▁9449
▁infections▁9450
positive▁9451
▁tar▁9452
▁Hippocrat▁9453
▁89▁9454
▁86▁9455
▁cassette▁9456
▁discriminate▁9457
▁1,6▁9458
▁custom▁9459
▁Sala▁9460
▁1,800▁9461
▁interval▁9462
automat▁9463
▁replicate▁9464
▁Value▁9465
▁Nothing▁9466
Something▁9467
▁18-▁9468
▁commandment▁9469
▁heck▁9470
▁censor▁9471
▁nurture▁9472
▁neurological▁9473
▁quirk▁9474
gh▁9475
▁seizure▁9476
▁spur▁9477
oodle▁9478
▁trauma▁9479
▁occupation▁9480
▁mechanic▁9481
▁uncertaint▁9482
▁observer▁9483
multidimensional▁9484
▁anxiety▁9485
▁ambiguit▁9486
▁Buddhist▁9487
▁From▁9488
▁morally▁9489
ambiguous▁9490
▁ghost▁9491
▁accidental▁9492
▁opium▁9493
▁Tai▁9494
▁Guil▁9495
▁randomly▁9496
tour▁9497
istine▁9498
▁ominous▁9499
▁court▁9500
uiz▁9501
hou▁9502
▁province▁9503
▁agreed▁9504
▁Westerner▁9505
▁ritual▁9506
▁links▁9507
▁Fe▁9508
erworld▁9509
▁superstitio▁9510
▁synchron▁9511
▁partial▁9512
▁Garniez▁9513
▁Rose▁9514
▁featur▁9515
▁bell▁9516
▁delightful▁9517
af▁9518
▁bilingual▁9519
▁Anand▁9520
▁Shankar▁9521
skrit▁9522
ode▁9523
▁goddess▁9524
▁choreograph▁9525
▁tapestr▁9526
▁crown▁9527
▁glory▁9528
▁civilian▁9529
▁Shri▁9530
oma▁9531
▁Canc▁9532
dia▁9533
▁unw▁9534
vara▁9535
val▁9536
▁disgust▁9537
▁enorm▁9538
owing▁9539
▁vor▁9540
tex▁9541
▁dried▁9542
▁ravage▁9543
▁chemotherap▁9544
▁overwhelm▁9545
▁miser▁9546
learn▁9547
ura▁9548
urga▁9549
▁Hindu▁9550
ndent▁9551
decke▁9552
▁rode▁9553
ide▁9554
▁battlefield▁9555
▁feminine▁9556
▁attribute▁9557
▁dismay▁9558
▁badge▁9559
▁animate▁9560
significant▁9561
▁Sim▁9562
▁resilienc▁9563
▁Spence▁9564
▁geneticist▁9565
ographic▁9566
jour▁9567
dra▁9568
v▁9569
vu▁9570
▁Guinea▁9571
question▁9572
▁origins▁9573
escent▁9574
▁gorilla▁9575
▁landmass▁9576
gar▁9577
▁Eurasi▁9578
▁gibbon▁9579
▁orangutan▁9580
▁mushroom▁9581
▁morpholog▁9582
▁hominid▁9583
▁Olduvai▁9584
▁Gorge▁9585
▁Leakey▁9586
▁hab▁9587
▁bo▁9588
▁aus▁9589
▁von▁9590
▁eighteen▁9591
▁categorize▁9592
▁Natur▁9593
▁disc▁9594
species▁9595
▁bla▁9596
▁racist▁9597
▁Mons▁9598
▁dismiss▁9599
rwin▁9600
▁anthropolog▁9601
Carlton▁9602
▁diver▁9603
▁genealog▁9604
parent▁9605
unit▁9606
▁hap▁9607
▁3.2▁9608
otid▁9609
▁typo▁9610
▁substitute▁9611
read▁9612
▁matern▁9613
DNA▁9614
▁lineage▁9615
▁simplifie▁9616
▁Mit▁9617
rial▁9618
chromosom▁9619
▁isotope▁9620
▁glaci▁9621
emisphere▁9622
▁Seattle▁9623
▁Scandinavia▁9624
▁85▁9625
▁precipitat▁9626
▁dropping▁9627
▁Sahara▁9628
▁Neanderthal▁9629
▁offen▁9630
▁locker▁9631
▁grassland▁9632
▁45,000▁9633
▁migrat▁9634
highway▁9635
▁Siberia▁9636
-100▁9637
▁Pal▁9638
eolith▁9639
ourne▁9640
produc▁9641
NG▁9642
▁coarse▁9643
▁indigen▁9644
▁Human▁9645
▁Genome▁9646
▁Rover▁9647
▁enterprise▁9648
▁plow▁9649
▁Lega▁9650
▁25,000▁9651
▁Grant▁9652
▁Gaza▁9653
▁Taj▁9654
istan▁9655
▁Pistol▁9656
▁album▁9657
▁Map▁9658
▁Flo▁9659
2010▁9660
▁evocati▁9661
▁quart▁9662
▁Nu▁9663
▁1930▁9664
▁restor▁9665
ark▁9666
G▁9667
▁450▁9668
▁watt▁9669
▁turbine▁9670
▁beacon▁9671
▁1947▁9672
▁Jerem▁9673
▁Gille▁9674
▁energetic▁9675
▁qualification▁9676
▁dyslexi▁9677
▁potter▁9678
▁irrelevant▁9679
violence▁9680
dad▁9681
▁Nagasaki▁9682
▁rang▁9683
▁Mat▁9684
▁Oscar▁9685
▁Mary▁9686
▁Robinson▁9687
▁Genev▁9688
▁hippie▁9689
▁Sal▁9690
▁Ahmed▁9691
▁Moussa▁9692
▁Arab▁9693
▁unwilling▁9694
▁General▁9695
▁Assembl▁9696
▁54▁9697
▁calendar▁9698
▁Glob▁9699
▁institutionaliz▁9700
▁nonviolence▁9701
▁cynic▁9702
undi▁9703
▁corridor▁9704
▁Ahmad▁9705
▁Fa▁9706
▁UN▁9707
ICE▁9708
▁chap▁9709
▁Jude▁9710
▁attraction▁9711
▁constituenc▁9712
SAF▁9713
▁NATO▁9714
▁Fat▁9715
▁Gail▁9716
▁instrumental▁9717
▁kidnappe▁9718
▁1.6▁9719
▁Dari▁9720
▁dialect▁9721
abul▁9722
▁offensive▁9723
▁Securit▁9724
▁Safe▁9725
utilize▁9726
▁Arena▁9727
▁petition▁9728
▁union▁9729
▁174▁9730
▁utiliz▁9731
himi▁9732
▁Ambassador▁9733
▁relation▁9734
▁365▁9735
▁Mel▁9736
inda▁9737
▁Coca▁9738
Cola▁9739
orporation▁9740
▁distribut▁9741
▁jar▁9742
flung▁9743
▁stagger▁9744
▁Goal▁9745
▁entrepreneuri▁9746
▁shareholder▁9747
nowledge▁9748
sight▁9749
▁Namibia▁9750
▁Sprit▁9751
▁evaluation▁9752
apping▁9753
▁192▁9754
▁truck▁9755
elling▁9756
distribution▁9757
▁bicycle▁9758
row▁9759
erala▁9760
▁30,000▁9761
▁immunization▁9762
▁advis▁9763
▁delivery▁9764
entrepreneur▁9765
▁slogan▁9766
▁Open▁9767
▁Happiness▁9768
▁localize▁9769
▁Cup▁9770
▁Wa▁9771
▁Flag▁9772
▁Somali▁9773
▁Teach▁9774
▁diarrhea▁9775
▁defecat▁9776
▁reuse▁9777
▁slab▁9778
▁entail▁9779
▁loo▁9780
▁circumcis▁9781
▁girlfriend▁9782
▁paralysi▁9783
▁clinician▁9784
ram▁9785
▁Type▁9786
▁Jh▁9787
▁transmission▁9788
▁endgame▁9789
cher▁9790
▁AlloSphere▁9791
▁echo▁9792
▁chamber▁9793
▁suspend▁9794
▁immer▁9795
▁atom▁9796
▁sculptor▁9797
▁lattice▁9798
train▁9799
▁macro▁9800
cop▁9801
Brain▁9802
▁rectangle▁9803
▁pitche▁9804
▁simulation▁9805
▁nanoscale▁9806
▁generative▁9807
▁atomic▁9808
▁Atom▁9809
▁Micro▁9810
▁Solid▁9811
▁Light▁9812
▁Energ▁9813
▁emission▁9814
▁Schrödinger▁9815
▁orbital▁9816
orbital▁9817
▁puls▁9818
▁contract▁9819
▁photon▁9820
▁Comp▁9821
▁Spin▁9822
ronic▁9823
▁Barbar▁9824
unders▁9825
▁explorer▁9826
cursion▁9827
▁sledge▁9828
▁spectator▁9829
▁contemplat▁9830
▁dich▁9831
gulf▁9832
▁Mallory▁9833
viation▁9834
▁shall▁9835
▁coal▁9836
▁embark▁9837
▁furthe▁9838
support▁9839
gun▁9840
▁Wil▁9841
▁drift▁9842
▁crust▁9843
▁vista▁9844
▁caution▁9845
▁tasting▁9846
▁macho▁9847
▁pancrea▁9848
▁postulate▁9849
▁Captain▁9850
▁unma▁9851
▁Amunds▁9852
▁Norwegian▁9853
▁demoralize▁9854
aday▁9855
▁cruise▁9856
▁audaci▁9857
▁golden▁9858
▁advisor▁9859
▁Easter▁9860
▁inspiration▁9861
▁adversit▁9862
pest▁9863
▁metaphorical▁9864
▁Savage▁9865
▁fascination▁9866
▁obsessive▁9867
▁Mauriti▁9868
▁assemble▁9869
zeal▁9870
▁dice▁9871
▁folder▁9872
ockpit▁9873
ette▁9874
ille▁9875
▁costume▁9876
▁gigabyte▁9877
▁Sculpey▁9878
edge▁9879
ane▁9880
tte▁9881
▁Episode▁9882
▁dragon▁9883
▁topolog▁9884
▁scaled▁9885
▁vertebra▁9886
▁imitate▁9887
▁button▁9888
▁pelvi▁9889
▁accura▁9890
lastic▁9891
▁obtain▁9892
▁div▁9893
▁Maltese▁9894
▁Falcon▁9895
▁Hammett▁9896
▁Kni▁9897
▁Haw▁9898
▁1700▁9899
▁Count▁9900
▁falcon▁9901
▁crapp▁9902
▁Christi▁9903
arian▁9904
eller▁9905
▁catalogue▁9906
ek▁9907
aya▁9908
▁resin▁9909
▁controvers▁9910
▁controversial▁9911
▁Profile▁9912
▁preference▁9913
▁mat▁9914
▁drip▁9915
▁triple▁9916
▁wool▁9917
▁reflection▁9918
▁Fred▁9919
del▁9920
▁Black▁9921
▁Grill▁9922
▁Cook▁9923
▁plaster▁9924
▁crazi▁9925
plica▁9926
▁Forum▁9927
ronze▁9928
▁Hux▁9929
▁silicon▁9930
quarter▁9931
▁Jan▁9932
▁Chip▁9933
▁Nokia▁9934
cellular▁9935
▁subconscious▁9936
▁blunt▁9937
▁stalk▁9938
▁warmth▁9939
▁Maslow▁9940
▁hierarch▁9941
rung▁9942
▁appreciate▁9943
▁PC▁9944
▁kiosk▁9945
▁convenient▁9946
▁gravity▁9947
▁gravitate▁9948
▁illitera▁9949
mail▁9950
pping▁9951
▁ATM▁9952
▁Grameen▁9953
bench▁9954
▁Ji▁9955
▁subscribe▁9956
▁churn▁9957
▁Viagra▁9958
street▁9959
pan▁9960
▁redistribute▁9961
▁shack▁9962
shop▁9963
chai▁9964
▁intertwine▁9965
nce▁9966
▁infuse▁9967
▁relevanc▁9968
▁se▁9969
▁Nixon▁9970
olocaust▁9971
▁desk▁9972
high▁9973
▁culprit▁9974
▁degradation▁9975
▁numb▁9976
▁Prius▁9977
atom▁9978
▁Ann▁9979
▁lifestyle▁9980
▁prevalent▁9981
consumption▁9982
▁carrot▁9983
▁heavi▁9984
▁unnatural▁9985
▁Ski▁9986
▁puppet▁9987
business▁9988
▁USDA▁9989
▁pyramid▁9990
▁carb▁9991
plan▁9992
▁lobbyist▁9993
wollen▁9994
▁unchang▁9995
fat▁9996
▁lamb▁9997
▁kindness▁9998
▁exemplif▁9999
▁locavore▁10000
▁Dictionar▁10001
▁popul▁10002
▁elitist▁10003
▁romantic▁10004
▁snack▁10005
▁Clare▁10006
eye▁10007
▁ethnic▁10008
▁fanc▁10009
▁aside▁10010
▁Julia▁10011
bbing▁10012
▁sanction▁10013
lak▁10014
▁Pop▁10015
▁Pringle▁10016
▁Chee▁10017
iz▁10018
▁railroad▁10019
▁hub▁10020
▁farmland▁10021
▁proto▁10022
bury▁10023
▁lettuce▁10024
▁salad▁10025
▁broc▁10026
coli▁10027
oil▁10028
▁subsidi▁10029
▁thro▁10030
▁planetary▁10031
▁dessert▁10032
▁mash▁10033
▁potato▁10034
▁Minute▁10035
▁Rice▁10036
▁cream▁10037
think▁10038
▁powers▁10039
phobi▁10040
▁yogurt▁10041
icker▁10042
▁coma▁10043
▁nugget▁10044
▁mixed▁10045
fried▁10046
▁nuke▁10047
▁zappe▁10048
▁horribl▁10049
▁spice▁10050
▁McNugget▁10051
cke▁10052
yourself▁10053
▁cheese▁10054
food▁10055
▁tightly▁10056
▁filth▁10057
▁Styro▁10058
foam▁10059
▁veg▁10060
▁gourmet▁10061
production▁10062
▁pound▁10063
▁nutritional▁10064
▁omni▁10065
▁ya▁10066
▁faci▁10067
▁hierarchical▁10068
▁pore▁10069
▁Advanc▁10070
▁Technolog▁10071
▁sentien▁10072
ception▁10073
haracter▁10074
Engine▁10075
▁frown▁10076
lit▁10077
▁seed▁10078
▁Robotic▁10079
▁Wired▁10080
▁Next▁10081
▁involv▁10082
fiction▁10083
▁Philip▁10084
▁Dick▁10085
▁Android▁10086
▁Dream▁10087
▁Electric▁10088
▁Bla▁10089
▁spook▁10090
▁puzzles▁10091
▁EG▁10092
maker▁10093
▁columnist▁10094
▁Discover▁10095
▁toys▁10096
jewele▁10097
▁fiddl▁10098
▁Gardner▁10099
▁devote▁10100
ritt▁10101
▁amuse▁10102
▁vase▁10103
▁Escher▁10104
▁digit▁10105
▁strict▁10106
▁marvelous▁10107
appointed▁10108
▁RIS▁10109
▁Maeda▁10110
▁magician▁10111
▁Teller▁10112
▁Rush▁10113
▁Hour▁10114
▁Rubik▁10115
▁slid▁10116
sequel▁10117
▁Gar▁10118
rude▁10119
▁investigative▁10120
▁cartoonist▁10121
▁overlap▁10122
▁persistence▁10123
▁squint▁10124
helix▁10125
▁Shuffle▁10126
Jo▁10127
▁casual▁10128
▁gam▁10129
▁Boom▁10130
exercis▁10131
▁Nintendo▁10132
▁DS▁10133
▁Sudoku▁10134
▁prescribe▁10135
▁viewer▁10136
▁Photo▁10137
▁Grab▁10138
hhh▁10139
▁Tulle▁10140
▁tinkering▁10141
▁Tinker▁10142
▁roller▁10143
▁nail▁10144
sch▁10145
▁ease▁10146
▁calamit▁10147
▁doodle▁10148
▁Robin▁10149
▁complet▁10150
▁decoration▁10151
▁incubat▁10152
▁mund▁10153
coast▁10154
▁McCall▁10155
▁retro▁10156
▁pol▁10157
▁RM▁10158
▁Tyrann▁10159
▁Thing▁10160
▁08▁10161
risk▁10162
▁faux▁10163
ache▁10164
▁painstaking▁10165
▁Scottish▁10166
▁indoor▁10167
▁After▁10168
pel▁10169
▁1953▁10170
▁Film▁10171
▁Gehry▁10172
▁lexico▁10173
▁hilarious▁10174
mal▁10175
▁Work▁10176
▁hangers▁10177
motive▁10178
write▁10179
venge▁10180
▁Detroit▁10181
▁Techno▁10182
▁brochure▁10183
enburg▁10184
▁56▁10185
▁bark▁10186
▁Norman▁10187
die▁10188
gyro▁10189
▁jo▁10190
▁1946▁10191
▁Mosc▁10192
▁Shir▁10193
▁Espe▁10194
▁sentimental▁10195
▁Hem▁10196
▁Fitzgerald▁10197
▁Hampton▁10198
▁IV▁10199
16▁10200
▁Ricard▁10201
▁105▁10202
▁Ritz▁10203
▁Tower▁10204
igar▁10205
▁billboard▁10206
▁1940▁10207
▁Messer▁10208
▁ME▁10209
10▁10210
▁exaggeration▁10211
▁bunk▁10212
▁cri▁10213
eur▁10214
▁shameless▁10215
▁Mississippi▁10216
hamed▁10217
print▁10218
▁Temple▁10219
▁Den▁10220
etropolitan▁10221
mber▁10222
PC▁10223
▁Euro▁10224
▁JFK▁10225
▁Tour▁10226
▁rockets▁10227
▁shoe▁10228
eigh▁10229
▁audition▁10230
▁Kong▁10231
▁hangover▁10232
erox▁10233
berg▁10234
▁Fay▁10235
▁Take▁10236
page▁10237
▁escalator▁10238
▁Marv▁10239
▁Sandwich▁10240
▁crum▁10241
▁Marco▁10242
▁Tempe▁10243
▁techno▁10244
mag▁10245
leigh▁10246
▁charming▁10247
▁introvert▁10248
▁inclusive▁10249
source▁10250
▁uh▁10251
▁Kar▁10252
▁Mulli▁10253
taph▁10254
▁anthr▁10255
winning▁10256
▁unveil▁10257
▁Philadelphia▁10258
▁alpha▁10259
▁antibod▁10260
▁invad▁10261
arijuana▁10262
▁possession▁10263
▁cl▁10264
ococcus▁10265
▁ramp▁10266
amer▁10267
▁Brook▁10268
▁Rosling▁10269
▁Canne▁10270
▁IKEA▁10271
▁Volvo▁10272
▁linguistic▁10273
▁Develop▁10274
▁upgrade▁10275
▁taxonom▁10276
▁destination▁10277
▁income▁10278
after▁10279
▁rainbow▁10280
enicillin▁10281
▁90-▁10282
▁optimist▁10283
ossi▁10284
▁analytical▁10285
▁Joe▁10286
▁Sabia▁10287
▁Lot▁10288
▁Meggendorfer▁10289
▁caves▁10290
▁ist▁10291
▁genug▁10292
▁snatch▁10293
ssors▁10294
▁rejoice▁10295
itis▁10296
creme▁10297
▁novelty▁10298
▁Jeff▁10299
▁ingenuity▁10300
▁sav▁10301
J▁10302
▁merg▁10303
▁luxur▁10304
eeming▁10305
▁sharp▁10306
▁Missou▁10307
living▁10308
▁toothpaste▁10309
▁hustle▁10310
mate▁10311
▁illegal▁10312
▁barber▁10313
▁smuggl▁10314
▁pornograph▁10315
▁riskier▁10316
▁profitable▁10317
fashion▁10318
▁concoct▁10319
▁toenail▁10320
oulder▁10321
▁laundr▁10322
▁limbs▁10323
▁prohibit▁10324
ender▁10325
▁Mi▁10326
trey▁10327
▁animation▁10328
▁shadow▁10329
▁meditative▁10330
▁Ox▁10331
▁Mira▁10332
▁Carolin▁10333
▁Mile▁10334
▁Ami▁10335
▁Kli▁10336
▁disorder▁10337
tree▁10338
▁gauge▁10339
uit▁10340
▁stance▁10341
stimulator▁10342
▁disruption▁10343
▁inherit▁10344
▁fragil▁10345
▁caregiver▁10346
▁reinforc▁10347
▁effortless▁10348
▁candy▁10349
▁developmental▁10350
▁disable▁10351
▁fence▁10352
▁relentless▁10353
▁societ▁10354
▁excess▁10355
▁attenuat▁10356
▁imperative▁10357
▁anomal▁10358
abilities▁10359
▁Warren▁10360
traction▁10361
▁stimul▁10362
▁evolutionarily▁10363
▁conserve▁10364
▁deploy▁10365
▁trench▁10366
▁intractable▁10367
▁isolation▁10368
eiler▁10369
▁agile▁10370
talk▁10371
▁bully▁10372
insky▁10373
▁Familie▁10374
▁scholars▁10375
▁Buffett▁10376
ets▁10377
▁Spring▁10378
daho▁10379
▁Starr▁10380
cross▁10381
▁Asperger▁10382
▁ADH▁10383
▁startup▁10384
▁Agil▁10385
▁Sutherland▁10386
▁technologist▁10387
▁trickle▁10388
▁Eight▁10389
three▁10390
cola▁10391
▁Business▁10392
▁Review▁10393
▁Game▁10394
knit▁10395
▁bunker▁10396
▁suite▁10397
▁Thanksgiving▁10398
▁greet▁10399
▁visitor▁10400
▁radiat▁10401
▁checklist▁10402
▁beds▁10403
▁Triangle▁10404
most▁10405
▁Stalin▁10406
▁Uta▁10407
▁Manifest▁10408
▁Famil▁10409
▁react▁10410
▁strait▁10411
jacke▁10412
help▁10413
▁guru▁10414
▁celebrity▁10415
etchup▁10416
▁psychologist▁10417
ush▁10418
▁discipl▁10419
bring▁10420
▁overreact▁10421
rew▁10422
▁Over▁10423
▁allowance▁10424
▁salar▁10425
rock▁10426
▁Colli▁10427
▁stimulat▁10428
▁retreat▁10429
▁tourist▁10430
▁worrying▁10431
▁Emory▁10432
esteem▁10433
confidence▁10434
▁Karen▁10435
▁Tolsto▁10436
▁Leo▁10437
▁engrav▁10438
run▁10439
zema▁10440
crisis▁10441
▁trillion▁10442
▁evaporate▁10443
▁semina▁10444
wind▁10445
▁Cliff▁10446
▁barrel▁10447
▁bailout▁10448
▁debt▁10449
isse▁10450
bomb▁10451
-20▁10452
▁rivet▁10453
large▁10454
▁remedi▁10455
income▁10456
▁135▁10457
▁leverag▁10458
▁visualiz▁10459
▁360▁10460
▁32▁10461
▁3.▁10462
▁dentist▁10463
tomie▁10464
▁shark▁10465
▁mola▁10466
▁gun▁10467
▁FBI▁10468
▁Cornell▁10469
▁recession▁10470
▁mindful▁10471
▁Brand▁10472
set▁10473
▁Val▁10474
cam▁10475
▁nimble▁10476
outique▁10477
▁ego▁10478
▁yacht▁10479
▁collar▁10480
▁Fri▁10481
La▁10482
▁pric▁10483
ups▁10484
ulu▁10485
▁byproduct▁10486
▁boomer▁10487
lumni▁10488
center▁10489
▁Microsoft▁10490
▁Gore▁10491
▁shun▁10492
▁intra▁10493
net▁10494
▁sprint▁10495
▁9.▁10496
▁68▁10497
▁DI▁10498
▁owners▁10499
▁cottage▁10500
▁duck▁10501
▁Line▁10502
▁reimagin▁10503
▁dividend▁10504
▁Patagonia▁10505
ootprint▁10506
▁Fide▁10507
▁parcel▁10508
▁artisan▁10509
▁organiz▁10510
cott▁10511
▁organizer▁10512
▁Zagat▁10513
▁divers▁10514
▁credential▁10515
▁elastic▁10516
▁revenue▁10517
lasting▁10518
Cloud▁10519
▁comics▁10520
miss▁10521
▁diversion▁10522
▁fuss▁10523
▁Nova▁10524
▁eclipse▁10525
▁Beat▁10526
▁Mick▁10527
▁Jagger▁10528
▁damaging▁10529
▁Lex▁10530
75▁10531
▁Ray▁10532
▁Route▁10533
▁rack▁10534
▁reputation▁10535
▁microbi▁10536
▁comic▁10537
▁Navy▁10538
▁Dean▁10539
▁Kamen▁10540
▁connotation▁10541
▁ascertain▁10542
▁Babbage▁10543
▁Ada▁10544
▁Lovelace▁10545
▁Van▁10546
evar▁10547
▁Meme▁10548
▁ko▁10549
▁Licklider▁10550
▁Baran▁10551
know▁10552
proven▁10553
▁manifest▁10554
last▁10555
▁Jung▁10556
▁subdivision▁10557
▁diagonal▁10558
▁symbols▁10559
▁resembl▁10560
▁properti▁10561
▁energiz▁10562
▁collid▁10563
▁Sc▁10564
lief▁10565
▁embroi▁10566
▁deer▁10567
▁88▁10568
linear▁10569
▁caption▁10570
ett▁10571
▁peel▁10572
ROM▁10573
▁McLuhan▁10574
▁phenomena▁10575
text▁10576
pati▁10577
▁Abraham▁10578
▁Lincoln▁10579
▁Penny▁10580
▁Plan▁10581
broken▁10582
▁zig▁10583
▁spiral▁10584
plate▁10585
▁Hea▁10586
▁Alan▁10587
▁Siegel▁10588
▁gobble▁10589
ellig▁10590
▁veteran▁10591
▁bli▁10592
▁simplicity▁10593
tod▁10594
▁computation▁10595
▁stealth▁10596
▁IRS▁10597
cumben▁10598
▁Jack▁10599
▁Horn▁10600
▁dinosaur▁10601
▁paleontologist▁10602
preserv▁10603
▁reactivate▁10604
▁tail▁10605
▁Chicken▁10606
osaurus▁10607
▁Montana▁10608
▁striving▁10609
▁hills▁10610
▁hypothese▁10611
▁herd▁10612
▁Jeep▁10613
▁Juras▁10614
▁drill▁10615
strich▁10616
▁conspir▁10617
▁mosquito▁10618
▁Tyrannosaur▁10619
rex▁10620
▁Schwei▁10621
moglobin▁10622
▁Hell▁10623
▁cubic▁10624
▁calci▁10625
▁fossilize▁10626
▁osteo▁10627
avian▁10628
▁clunk▁10629
grader▁10630
rap▁10631
▁classifie▁10632
▁puff▁10633
low▁10634
sort▁10635
▁Matthew▁10636
▁Wisconsin▁10637
▁Lars▁10638
▁McGil▁10639
▁Archae▁10640
opter▁10641
▁pigeon▁10642
▁arch▁10643
▁fu▁10644
finger▁10645
▁resorb▁10646
▁modify▁10647
▁Colon▁10648
▁Sand▁10649
cken▁10650
record▁10651
▁deception▁10652
belief▁10653
▁Samu▁10654
▁Cole▁10655
ridge▁10656
ptive▁10657
embl▁10658
▁suspens▁10659
▁theatric▁10660
▁dexter▁10661
▁Jean▁10662
Houdin▁10663
▁conjure▁10664
▁resurrect▁10665
▁dare▁10666
▁wholly▁10667
labor▁10668
▁amazement▁10669
▁sunset▁10670
▁campfire▁10671
▁fantasie▁10672
▁polish▁10673
▁Aich▁10674
Waf▁10675
yllis▁10676
▁Rodrig▁10677
▁forgiveness▁10678
▁Zaca▁10679
▁convict▁10680
▁Or▁10681
▁indict▁10682
▁penalt▁10683
▁November▁10684
patriot▁10685
▁Tree▁10686
▁hamburger▁10687
▁cruel▁10688
▁environmentally▁10689
chk▁10690
▁swap▁10691
rselves▁10692
▁Eisen▁10693
▁microbes▁10694
▁pathogen▁10695
▁TEDMED▁10696
▁thirst▁10697
▁Rag▁10698
▁puddle▁10699
▁diabetic▁10700
ido▁10701
▁insulin▁10702
▁fester▁10703
▁Academ▁10704
▁flesh▁10705
eating▁10706
communica▁10707
▁Georgetown▁10708
bei▁10709
▁Crohn▁10710
▁steriliz▁10711
IT▁10712
▁vagina▁10713
are▁10714
coloniz▁10715
▁odor▁10716
path▁10717
▁washing▁10718
▁excessive▁10719
▁probiotic▁10720
▁UC▁10721
▁Davi▁10722
▁poo▁10723
▁veterinarian▁10724
▁boot▁10725
▁ailment▁10726
igen▁10727
ridium▁10728
▁diff▁10729
▁fec▁10730
▁correlat▁10731
hru▁10732
ociety▁10733
▁End▁10734
uebec▁10735
▁pee▁10736
▁Tar▁10737
▁photography▁10738
world▁10739
▁haunt▁10740
▁Hama▁10741
▁Wal▁10742
▁innocuous▁10743
▁inward▁10744
▁citizen▁10745
▁outsider▁10746
▁Index▁10747
▁compris▁10748
cap▁10749
▁1,9▁10750
▁stainless▁10751
▁submerge▁10752
▁accompany▁10753
▁abstraction▁10754
▁Palestinian▁10755
▁bleed▁10756
▁simulate▁10757
▁adviser▁10758
▁advise▁10759
▁Custom▁10760
▁Bord▁10761
rotection▁10762
▁Kennedy▁10763
▁seize▁10764
▁libert▁10765
▁CIA▁10766
▁Langle▁10767
▁headquarter▁10768
▁diploma▁10769
▁elicit▁10770
▁Anthropo▁10771
▁acre▁10772
▁decompos▁10773
▁disorient▁10774
entropy▁10775
▁discern▁10776
▁vulnerability▁10777
▁Cold▁10778
▁Braille▁10779
▁edition▁10780
▁Librar▁10781
▁publication▁10782
quarant▁10783
▁Exo▁10784
castle▁10785
▁Disease▁10786
via▁10787
flu▁10788
▁Arm▁10789
▁deployment▁10790
▁weapon▁10791
issue▁10792
▁abnormalit▁10793
▁brass▁10794
▁acryl▁10795
▁facade▁10796
▁Galactic▁10797
▁annihilat▁10798
▁planets▁10799
▁Kentucky▁10800
▁Operations▁10801
▁Urban▁10802
Terrain▁10803
▁Me▁10804
▁Arabic▁10805
▁contradict▁10806
▁lethal▁10807
▁conviction▁10808
▁eyewitness▁10809
▁perpetrator▁10810
▁composite▁10811
▁Polaroid▁10812
▁mug▁10813
▁alibi▁10814
▁kidnapping▁10815
▁implicat▁10816
ake▁10817
▁Calvin▁10818
▁May▁10819
▁Indiana▁10820
▁Arizona▁10821
dom▁10822
▁Williams▁10823
▁Tim▁10824
othy▁10825
▁Dur▁10826
▁11-▁10827
▁Troy▁10828
▁Webb▁10829
▁47▁10830
▁reiterate▁10831
activate▁10832
▁implant▁10833
▁Enrique▁10834
▁circuit▁10835
▁inhibitor▁10836
trop▁10837
▁compute▁10838
▁initiate▁10839
▁incapa▁10840
lace▁10841
chle▁10842
precise▁10843
clinical▁10844
▁Gerhard▁10845
▁Nagel▁10846
lga▁10847
▁photosynthesi▁10848
channelrhodopsin▁10849
▁vector▁10850
▁fabricate▁10851
▁tweak▁10852
▁opt▁10853
etic▁10854
verse▁10855
▁computing▁10856
▁Fiore▁10857
▁dopamine▁10858
▁generalize▁10859
▁viv▁10860
through▁10861
traumatic▁10862
▁uncontroll▁10863
▁Pavlov▁10864
▁headlight▁10865
iva▁10866
▁delete▁10867
▁hal▁10868
▁epileptic▁10869
▁uncommon▁10870
▁Seventy▁10871
▁adverse▁10872
▁algae▁10873
▁fungi▁10874
front▁10875
▁photoreceptor▁10876
▁retina▁10877
▁relay▁10878
▁pigment▁10879
osa▁10880
▁commercializ▁10881
▁Neuro▁10882
▁NIH▁10883
sensor▁10884
des▁10885
▁neuro▁10886
▁JE▁10887
▁EB▁10888
process▁10889
▁augment▁10890
▁Gegen▁10891
schatz▁10892
▁wingsuit▁10893
▁feat▁10894
▁dar▁10895
▁skydiv▁10896
▁canyon▁10897
dropping▁10898
▁paraglid▁10899
country▁10900
▁aero▁10901
▁flier▁10902
▁helmet▁10903
flying▁10904
green▁10905
▁carving▁10906
▁Janeiro▁10907
▁Copa▁10908
cabana▁10909
SE▁10910
horn▁10911
▁Jungfrau▁10912
▁hike▁10913
▁Eiffel▁10914
▁stunt▁10915
urf▁10916
▁Coh▁10917
▁propell▁10918
ggle▁10919
▁applau▁10920
▁Mik▁10921
▁Hypp▁10922
▁NSA▁10923
▁betray▁10924
▁revelation▁10925
▁Snowden▁10926
▁PRISM▁10927
▁forecast▁10928
▁Orwell▁10929
famous▁10930
▁96▁10931
▁murderer▁10932
▁intercept▁10933
▁fears▁10934
▁Cyber▁10935
▁Double▁10936
▁Sky▁10937
▁infiltrat▁10938
tage▁10939
▁encrypt▁10940
▁file▁10941
▁decrypt▁10942
▁boggle▁10943
▁cooperat▁10944
▁Fl▁10945
ame▁10946
▁Update▁10947
▁Spiegel▁10948
▁Access▁10949
CH▁10950
▁Network▁10951
▁Analysis▁10952
▁telecom▁10953
▁Belgi▁10954
▁Thursday▁10955
▁chees▁10956
▁PowerPoint▁10957
▁LinkedIn▁10958
▁i▁10959
Box▁10960
▁terrorists▁10961
▁terror▁10962
▁existential▁10963
▁Constitu▁10964
mendment▁10965
▁Universal▁10966
▁naked▁10967
negotia▁10968
▁corrupt▁10969
▁Rou▁10970
sse▁10971
▁Marc▁10972
▁blam▁10973
▁rude▁10974
▁Meer▁10975
derson▁10976
▁harbor▁10977
▁Mannahatta▁10978
city▁10979
▁Carro▁10980
essen▁10981
▁sail▁10982
▁Nevada▁10983
▁meadow▁10984
▁topograph▁10985
▁abrupt▁10986
▁125▁10987
▁Highway▁10988
▁Audu▁10989
eight▁10990
▁Hook▁10991
▁Bridge▁10992
wich▁10993
▁Village▁10994
▁overlook▁10995
▁palm▁10996
▁cartograph▁10997
▁Archive▁10998
▁Broadway▁10999
▁vanish▁11000
▁Collect▁11001
▁Pon▁11002
▁Native▁11003
spen▁11004
▁Meadow▁11005
atter▁11006
▁Rich▁11007
tta▁11008
▁swamp▁11009
▁Gr▁11010
▁Murray▁11011
▁geo▁11012
block▁11013
▁digitize▁11014
▁shoreline▁11015
▁slope▁11016
▁horticultur▁11017
▁beans▁11018
ional▁11019
▁shrub▁11020
▁distinctive▁11021
▁Upper▁11022
osemite▁11023
ellowstone▁11024
▁Home▁11025
cted▁11026
▁Heath▁11027
▁beaver▁11028
▁reproductive▁11029
▁ecologist▁11030
▁intersection▁11031
▁gray▁11032
lichen▁11033
▁moss▁11034
▁timber▁11035
▁III▁11036
▁illuminate▁11037
▁Court▁11038
rough▁11039
▁sewer▁11040
▁windmill▁11041
▁abundance▁11042
▁Charlie▁11043
▁synchronize▁11044
▁subway▁11045
▁Improv▁11046
▁comedy▁11047
▁Pants▁11048
▁Ride▁11049
▁Rap▁11050
▁funnie▁11051
▁videotape▁11052
▁Brigade▁11053
▁Theater▁11054
▁fl▁11055
author▁11056
Jump▁11057
▁jack▁11058
▁stranger▁11059
kh▁11060
▁Best▁11061
▁Buy▁11062
▁tags▁11063
ueens▁11064
▁participant▁11065
▁leisure▁11066
▁valid▁11067
▁acceptable▁11068
EDI▁11069
▁Rama▁11070
▁Tira▁11071
▁Albania▁11072
▁instill▁11073
▁splash▁11074
▁reviv▁11075
▁sprang▁11076
▁63▁11077
▁Thirty▁11078
seven▁11079
▁municipal▁11080
▁shopkeeper▁11081
▁shutter▁11082
▁pavement▁11083
bank▁11084
▁bushe▁11085
▁queue▁11086
▁bribe▁11087
▁clerk▁11088
▁impose▁11089
▁pessimis▁11090
▁cohesi▁11091
tag▁11092
ç▁11093
ois▁11094
Sarko▁11095
zy▁11096
hari▁11097
▁ka▁11098
▁harvesting▁11099
▁Golden▁11100
▁Desert▁11101
▁superior▁11102
▁dunes▁11103
▁liter▁11104
▁courtyard▁11105
▁monsoon▁11106
core▁11107
▁Jaipur▁11108
▁Zero▁11109
▁distill▁11110
aisal▁11111
kan▁11112
ai▁11113
▁silk▁11114
▁grati▁11115
▁dries▁11116
▁drought▁11117
▁squeeze▁11118
▁telephone▁11119
▁planner▁11120
▁cart▁11121
liste▁11122
▁fragrance▁11123
oque▁11124
▁Kashmir▁11125
▁terra▁11126
▁Meyer▁11127
▁excel▁11128
umber▁11129
▁robb▁11130
hearted▁11131
▁stereotype▁11132
▁algebra▁11133
two▁11134
explain▁11135
▁persever▁11136
▁Milch▁11137
▁Dead▁11138
▁Men▁11139
▁impatient▁11140
opt▁11141
▁swapp▁11142
▁decode▁11143
▁skier▁11144
▁formulation▁11145
▁formulate▁11146
present▁11147
▁agonizing▁11148
▁tedious▁11149
ien▁11150
▁mathematically▁11151
▁intimidat▁11152
stall▁11153
▁semester▁11154
▁Nell▁11155
▁McK▁11156
▁Had▁11157
▁Mother▁11158
2008▁11159
alph▁11160
▁Jenni▁11161
▁Tso▁11162
▁McDonald▁11163
▁Burger▁11164
▁Fried▁11165
▁Cuba▁11166
▁Booth▁11167
▁assassination▁11168
▁Roll▁11169
stabilize▁11170
▁shuttle▁11171
▁pie▁11172
▁recognizabl▁11173
▁chop▁11174
▁sue▁11175
▁tasty▁11176
▁Kyoto▁11177
▁Nav▁11178
Admiral▁11179
▁horrifie▁11180
ao▁11181
▁1800▁11182
▁1920▁11183
▁native▁11184
▁cosmopolitan▁11185
▁cul▁11186
▁sui▁11187
18▁11188
▁188▁11189
▁pamphlet▁11190
▁Gom▁11191
clusion▁11192
▁Cool▁11193
▁mysteries▁11194
▁Lem▁11195
▁diplomat▁11196
▁recipe▁11197
▁McMurdo▁11198
▁Station▁11199
▁pepper▁11200
▁Alessandr▁11201
▁crisp▁11202
▁Jamaica▁11203
▁fraud▁11204
weight▁11205
▁Rest▁11206
▁Tennessee▁11207
▁lotter▁11208
▁Oma▁11209
▁Buffet▁11210
▁buffet▁11211
organization▁11212
effective▁11213
▁karma▁11214
▁propagat▁11215
▁Caj▁11216
▁alligator▁11217
ste▁11218
▁Atlant▁11219
▁Starbucks▁11220
▁Kr▁11221
▁Chef▁11222
▁Pen▁11223
▁Musical▁11224
▁Daf▁11225
▁LP▁11226
♪▁11227
energy▁11228
▁hydrocarbon▁11229
thanol▁11230
▁Nil▁11231
▁bush▁11232
▁2.5▁11233
▁subsidize▁11234
▁concentrat▁11235
▁amoeba▁11236
▁Ka▁11237
nsas▁11238
Athabasca▁11239
ludge▁11240
▁kernel▁11241
▁biog▁11242
▁differential▁11243
▁mountaintop▁11244
▁petroleum▁11245
▁substantial▁11246
ilton▁11247
▁hurdle▁11248
▁Rift▁11249
walk▁11250
intelligent▁11251
▁Hominid▁11252
▁4.▁11253
▁Turkana▁11254
consum▁11255
intensive▁11256
▁GPS▁11257
▁dental▁11258
▁Malawi▁11259
▁highland▁11260
exist▁11261
▁slender▁11262
▁crocodile▁11263
osi▁11264
▁pebble▁11265
▁limb▁11266
▁rib▁11267
▁Georgia▁11268
▁Indonesia▁11269
▁Flor▁11270
fledg▁11271
▁wasteful▁11272
▁shortest▁11273
lip▁11274
▁precipi▁11275
▁Wo▁11276
▁jungle▁11277
▁Seoul▁11278
craft▁11279
pressure▁11280
▁prehistor▁11281
▁mul▁11282
worm▁11283
▁kn▁11284
dust▁11285
▁bamboo▁11286
▁consol▁11287
conventional▁11288
▁Erin▁11289
▁McKe▁11290
▁lexicograph▁11291
▁dictionar▁11292
▁poise▁11293
▁needle▁11294
▁fuzz▁11295
▁snug▁11296
▁decid▁11297
▁Victoria▁11298
▁Victorian▁11299
▁Search▁11300
▁merge▁11301
▁Online▁11302
▁hedge▁11303
hog▁11304
▁Ooh▁11305
counterintuitive▁11306
▁arbitrar▁11307
▁charismati▁11308
▁megafauna▁11309
hammer▁11310
ED▁11311
▁Newsweek▁11312
▁greed▁11313
▁burrow▁11314
▁33▁11315
neous▁11316
▁electro▁11317
▁telescope▁11318
▁syne▁11319
doch▁11320
▁Angela▁11321
balone▁11322
breaking▁11323
▁carbonate▁11324
▁geological▁11325
▁counterpart▁11326
▁chalk▁11327
▁capabilities▁11328
▁Petri▁11329
structure▁11330
▁diatom▁11331
▁biomaterial▁11332
▁toolbox▁11333
▁Cambri▁11334
▁geologic▁11335
▁fluff▁11336
▁periodic▁11337
▁fracture▁11338
▁SI▁11339
▁magnet▁11340
ota▁11341
▁navigation▁11342
coming▁11343
▁Wel▁11344
▁PH▁11345
altech▁11346
13▁11347
▁skinny▁11348
▁nanotube▁11349
assemble▁11350
alysis▁11351
organic▁11352
wire▁11353
▁bubbl▁11354
dioxide▁11355
▁Stefan▁11356
▁Sag▁11357
meister▁11358
▁Hong▁11359
▁smack▁11360
inner▁11361
▁Walk▁11362
amaha▁11363
▁Synchroni▁11364
▁Bre▁11365
genz▁11366
▁situat▁11367
▁Australian▁11368
▁Swiss▁11369
▁Mori▁11370
▁inaugura▁11371
▁Beatles▁11372
▁Nir▁11373
vana▁11374
▁ink▁11375
Harmon▁11376
▁Tru▁11377
dnes▁11378
▁MTA▁11379
▁Transit▁11380
▁Authorit▁11381
▁subtle▁11382
▁Vik▁11383
uniz▁11384
ecker▁11385
razz▁11386
▁Nan▁11387
aries▁11388
▁divid▁11389
verything▁11390
▁Diaman▁11391
dis▁11392
▁Hawking▁11393
▁weightless▁11394
cho▁11395
▁PRI▁11396
ZE▁11397
▁Absolute▁11398
▁parabol▁11399
▁intent▁11400
▁parabola▁11401
ER▁11402
▁Byron▁11403
▁Licht▁11404
homa▁11405
▁Isa▁11406
▁wheelchair▁11407
▁Matt▁11408
▁Kill▁11409
worth▁11410
▁Track▁11411
▁Aristot▁11412
▁intrinsic▁11413
▁debat▁11414
resolve▁11415
▁demographic▁11416
moment▁11417
happiness▁11418
org▁11419
▁investigat▁11420
wandering▁11421
constrain▁11422
▁neutral▁11423
pleasant▁11424
wand▁11425
angle▁11426
▁preced▁11427
▁causal▁11428
▁brush▁11429
▁Silver▁11430
▁eyeglasses▁11431
▁lense▁11432
▁refract▁11433
▁correction▁11434
▁estimates▁11435
fifteen▁11436
▁Vision▁11437
▁nonviolen▁11438
▁olive▁11439
grove▁11440
▁Brazilian▁11441
▁Woman▁11442
▁Activis▁11443
▁Party▁11444
▁Front▁11445
▁Territori▁11446
lihood▁11447
▁disobe▁11448
▁plight▁11449
▁influenc▁11450
jeh▁11451
atten▁11452
▁villager▁11453
▁Solidar▁11454
▁solidari▁11455
budget▁11456
▁Sheikh▁11457
▁Jar▁11458
▁Sil▁11459
wan▁11460
▁Hopkins▁11461
▁transition▁11462
▁steadi▁11463
▁Transition▁11464
▁straw▁11465
▁moderat▁11466
tu▁11467
▁straddl▁11468
▁scrambl▁11469
▁underpin▁11470
▁breakup▁11471
ermafrost▁11472
▁offset▁11473
away▁11474
▁Boot▁11475
▁boots▁11476
▁stride▁11477
▁league▁11478
▁Por▁11479
▁Pot▁11480
▁Easy▁11481
▁Walmart▁11482
▁Second▁11483
▁exchang▁11484
▁server▁11485
▁mineral▁11486
▁radar▁11487
▁surge▁11488
istol▁11489
▁District▁11490
▁Marke▁11491
97▁11492
▁informative▁11493
▁renewable▁11494
▁Forest▁11495
tunnel▁11496
▁recycling▁11497
share▁11498
sex▁11499
note▁11500
▁Leicester▁11501
shire▁11502
▁Somerset▁11503
▁Str▁11504
▁lawn▁11505
▁loving▁11506
▁Oil▁11507
health▁11508
▁myriad▁11509
▁inconsistenc▁11510
▁junkie▁11511
▁Guardian▁11512
▁epidemiologist▁11513
▁problematic▁11514
▁inequalit▁11515
▁07▁11516
▁Frankie▁11517
▁jail▁11518
▁Bali▁11519
▁wip▁11520
▁needles▁11521
▁mismatch▁11522
▁Margaret▁11523
▁Jakarta▁11524
▁muck▁11525
▁Pope▁11526
▁stigmatiz▁11527
▁heterosexual▁11528
▁polygam▁11529
withstand▁11530
TI▁11531
▁romance▁11532
roman▁11533
▁darling▁11534
▁antiretroviral▁11535
▁Lazarus▁11536
▁Effect▁11537
▁drunk▁11538
▁transgress▁11539
▁transgender▁11540
▁dick▁11541
▁Dunham▁11542
▁retrofitt▁11543
▁suburbia▁11544
▁mall▁11545
inhabit▁11546
▁uninten▁11547
develop▁11548
sustainabl▁11549
▁suburban▁11550
▁detach▁11551
▁urbaniz▁11552
▁CDC▁11553
▁alarming▁11554
qua▁11555
▁retrofit▁11556
▁retir▁11557
▁Generation▁11558
▁asphalt▁11559
▁leapfrogg▁11560
▁sprawl▁11561
▁deck▁11562
▁troupe▁11563
serving▁11564
▁Lion▁11565
wal▁11566
▁Phoenix▁11567
▁proclaim▁11568
▁Orange▁11569
erial▁11570
▁Metro▁11571
rail▁11572
▁transit▁11573
▁Main▁11574
divid▁11575
▁buffer▁11576
▁funk▁11577
mar▁11578
▁Colorado▁11579
▁suburb▁11580
▁unsafe▁11581
▁undesir▁11582
▁Flint▁11583
urgeon▁11584
▁wav▁11585
transfer▁11586
▁Astroturf▁11587
▁layout▁11588
▁culturally▁11589
▁zon▁11590
▁Besser▁11591
▁reluctant▁11592
disproportionate▁11593
▁1.4▁11594
agwa▁11595
▁PMTCT▁11596
negativ▁11597
▁advent▁11598
▁sliver▁11599
▁devastate▁11600
▁sandwiche▁11601
▁mentor▁11602
child▁11603
▁educat▁11604
▁frequently▁11605
▁disclose▁11606
▁Narr▁11607
▁comprehensive▁11608
▁Cape▁11609
▁Stu▁11610
▁scandal▁11611
gro▁11612
cer▁11613
▁hemorrhag▁11614
▁landfill▁11615
▁loa▁11616
▁coloss▁11617
▁empirical▁11618
▁stat▁11619
▁prox▁11620
realistic▁11621
▁plott▁11622
▁biscuit▁11623
▁refrigerat▁11624
▁pasteuri▁11625
▁unofficial▁11626
▁whil▁11627
▁cosmetic▁11628
Potato▁11629
▁imperfect▁11630
▁Ecuador▁11631
▁plantation▁11632
▁liver▁11633
▁nutritio▁11634
astronom▁11635
▁halve▁11636
▁symbolize▁11637
▁roadside▁11638
▁insult▁11639
▁thrash▁11640
▁domesticate▁11641
▁448▁11642
▁lin▁11643
▁Forbes▁11644
Rev▁11645
▁Fix▁11646
▁oven▁11647
▁grace▁11648
▁Lass▁11649
▁Ober▁11650
▁Road▁11651
▁mama▁11652
▁Revel▁11653
▁overhear▁11654
▁sensib▁11655
▁Now▁11656
▁stir▁11657
▁Rabbi▁11658
▁Sel▁11659
▁assassinat▁11660
▁riot▁11661
▁affirmation▁11662
▁twelve▁11663
▁affirm▁11664
▁stink▁11665
▁Chag▁11666
▁despise▁11667
▁tang▁11668
bilitat▁11669
▁Samarit▁11670
▁charter▁11671
▁biblical▁11672
▁McCart▁11673
▁actress▁11674
▁Arthur▁11675
▁ballroom▁11676
bject▁11677
threaten▁11678
▁tinie▁11679
▁bastard▁11680
lb▁11681
▁snor▁11682
▁toaster▁11683
▁boo▁11684
▁anniversar▁11685
blind▁11686
▁placebo▁11687
controlle▁11688
▁monogam▁11689
▁pinpoint▁11690
▁honey▁11691
▁clarif▁11692
port▁11693
▁Betti▁11694
▁Joan▁11695
▁Cra▁11696
▁Berry▁11697
spoon▁11698
▁starr▁11699
▁plummet▁11700
▁contagio▁11701
▁brin▁11702
▁Emil▁11703
▁definitive▁11704
▁Gor▁11705
▁Zeta▁11706
▁traffick▁11707
▁apathy▁11708
▁disguise▁11709
▁Chihu▁11710
ahua▁11711
ó▁11712
▁Benjam▁11713
í▁11714
▁Juli▁11715
á▁11716
▁sacred▁11717
▁Mahatma▁11718
▁festival▁11719
ade▁11720
▁pos▁11721
ada▁11722
▁Roman▁11723
▁echoe▁11724
▁Monte▁11725
▁Sebastian▁11726
▁Glenn▁11727
▁eardrum▁11728
▁snare▁11729
▁Herbi▁11730
▁Hancock▁11731
▁straightforward▁11732
▁translation▁11733
eddy▁11734
▁cheek▁11735
▁scalp▁11736
▁tummy▁11737
▁kettle▁11738
▁vibration▁11739
▁Royal▁11740
▁resonat▁11741
▁rust▁11742
lei▁11743
oscope▁11744
▁acoustician▁11745
▁enhance▁11746
▁clap▁11747
▁clapp▁11748
lug▁11749
▁relat▁11750
▁practic▁11751
▁para▁11752
iddle▁11753
▁bagg▁11754
▁sorrow▁11755
▁Sado▁11756
▁Rube▁11757
▁Goldberg▁11758
▁labyrinth▁11759
▁Shall▁11760
▁Again▁11761
▁contraption▁11762
▁ascend▁11763
square▁11764
▁dock▁11765
▁oblige▁11766
▁synchroniz▁11767
▁timing▁11768
▁Heather▁11769
▁Knight▁11770
▁susceptib▁11771
▁humid▁11772
stress▁11773
▁Lego▁11774
▁Gramm▁11775
▁Cu▁11776
rios▁11777
abine▁11778
▁Kay▁11779
▁reticen▁11780
owa▁11781
▁Allen▁11782
osphere▁11783
▁Vene▁11784
▁resign▁11785
▁1850▁11786
▁gasse▁11787
▁conclud▁11788
▁0.▁11789
▁Cel▁11790
ius▁11791
▁Passage▁11792
▁testify▁11793
▁warmer▁11794
▁vapor▁11795
▁latent▁11796
▁storms▁11797
▁hoop▁11798
▁distracted▁11799
▁Sophi▁11800
▁Conno▁11801
▁criticiz▁11802
▁Geo▁11803
▁occur▁11804
▁explod▁11805
▁Hiroshima▁11806
ppm▁11807
▁snowflake▁11808
▁lag▁11809
mplified▁11810
▁amplify▁11811
90▁11812
▁devastation▁11813
▁monarch▁11814
▁butterfl▁11815
▁Ok▁11816
ket▁11817
▁Pla▁11818
▁Dust▁11819
▁Jake▁11820
▁enthusiastic▁11821
▁coauthor▁11822
▁Environmental▁11823
▁frack▁11824
▁shale▁11825
▁tipping▁11826
▁asteroid▁11827
▁Philosoph▁11828
▁Break▁11829
fast▁11830
passion▁11831
▁philosopher▁11832
▁inquiry▁11833
▁183▁11834
▁confrontation▁11835
▁ponder▁11836
▁cosmo▁11837
▁Whewell▁11838
▁polite▁11839
▁loft▁11840
▁Pri▁11841
▁literar▁11842
▁Lan▁11843
▁Herschel▁11844
▁mechanical▁11845
▁calculator▁11846
▁pledge▁11847
▁grandiose▁11848
▁wildest▁11849
ductive▁11850
▁generalization▁11851
▁queen▁11852
▁tid▁11853
▁lobbie▁11854
▁nauti▁11855
▁1,3▁11856
▁processor▁11857
▁punch▁11858
emost▁11859
▁discontinu▁11860
ungen▁11861
▁astronom▁11862
building▁11863
▁Origin▁11864
▁Zach▁11865
▁Kaplan▁11866
▁Keith▁11867
▁Schach▁11868
▁Invent▁11869
▁squish▁11870
▁Gel▁11871
Tech▁11872
▁slam▁11873
▁sneaker▁11874
▁Copp▁11875
ila▁11876
▁Adventure▁11877
▁magnetic▁11878
▁Rocket▁11879
▁rider▁11880
▁electromagnet▁11881
▁repel▁11882
▁brak▁11883
▁brainstorm▁11884
▁spider▁11885
▁sir▁11886
▁Target▁11887
▁squirt▁11888
▁Supercomputer▁11889
conduct▁11890
▁circulat▁11891
▁sprinkle▁11892
pression▁11893
▁Sek▁11894
hemical▁11895
▁stiff▁11896
▁embed▁11897
▁bent▁11898
▁Wat▁11899
▁Dai▁11900
▁Farm▁11901
kow▁11902
spun▁11903
Sensing▁11904
▁inexpensive▁11905
▁mesmeriz▁11906
▁plunge▁11907
▁poop▁11908
▁adequate▁11909
▁forty▁11910
▁cyst▁11911
▁contaminate▁11912
▁Her▁11913
▁Marie▁11914
▁260▁11915
▁anesthesi▁11916
cule▁11917
▁latrine▁11918
▁genocida▁11919
▁seal▁11920
exhausti▁11921
▁94▁11922
OP▁11923
▁bride▁11924
▁unspeakabl▁11925
▁disgusting▁11926
▁colon▁11927
huret▁11928
▁nozzle▁11929
▁crumbl▁11930
▁rebel▁11931
nice▁11932
onica▁11933
riet▁11934
▁porn▁11935
▁Loy▁11936
▁garage▁11937
▁accommodation▁11938
elimina▁11939
▁Rick▁11940
modernism▁11941
rand▁11942
▁Architectur▁11943
▁Record▁11944
▁scanne▁11945
lte▁11946
▁Colt▁11947
ladi▁11948
▁AT▁11949
▁forgive▁11950
▁collide▁11951
▁compos▁11952
▁Rauschen▁11953
▁Sacr▁11954
amento▁11955
▁cafeteria▁11956
▁galvanize▁11957
▁slopp▁11958
▁Tiger▁11959
▁simpler▁11960
▁guard▁11961
▁Goliath▁11962
▁prominent▁11963
arcelo▁11964
damm▁11965
▁defensive▁11966
▁schizophrenic▁11967
▁Minnesota▁11968
▁sculptural▁11969
▁Cleve▁11970
▁Burn▁11971
▁Mall▁11972
elli▁11973
▁Koh▁11974
▁Fox▁11975
▁underwa▁11976
▁Brent▁11977
▁servant▁11978
▁separat▁11979
▁Eis▁11980
▁Ana▁11981
heim▁11982
villa▁11983
▁Sein▁11984
▁Sport▁11985
▁Financ▁11986
▁balcon▁11987
estone▁11988
▁Baxter▁11989
skies▁11990
pend▁11991
shaw▁11992
▁cunning▁11993
▁skylight▁11994
vil▁11995
▁strengthen▁11996
OC▁11997
▁criteri▁11998
▁compartmentaliz▁11999
▁Concert▁12000
▁Berlin▁12001
carriage▁12002
▁introduc▁12003
sceni▁12004
▁crank▁12005
▁teapot▁12006
▁Interstate▁12007
▁Hal▁12008
▁Merri▁12009
▁pervert▁12010
▁Lou▁12011
ziger▁12012
▁Colombia▁12013
▁guerrilla▁12014
connected▁12015
▁Education▁12016
▁bombing▁12017
▁surfing▁12018
▁comprehensi▁12019
▁Bogota▁12020
▁inoculat▁12021
▁electora▁12022
Kerry▁12023
▁democratic▁12024
▁Arka▁12025
▁Appalachian▁12026
black▁12027
▁admitted▁12028
▁vot▁12029
▁Hamp▁12030
▁impoverish▁12031
▁Survey▁12032
▁affirmative▁12033
racial▁12034
▁oppose▁12035
▁facilitate▁12036
▁Schau▁12037
icious▁12038
▁Denis▁12039
▁animator▁12040
form▁12041
▁postmodern▁12042
▁critic▁12043
rnacle▁12044
▁uniformit▁12045
▁Beethoven▁12046
▁pl▁12047
eis▁12048
cene▁12049
gatherer▁12050
▁physiolog▁12051
▁horr▁12052
▁lik▁12053
▁ripe▁12054
▁barbecue▁12055
▁peacock▁12056
▁arous▁12057
magnetism▁12058
▁blu▁12059
▁artwork▁12060
aux▁12061
▁Chau▁12062
▁decorati▁12063
▁necklace▁12064
▁Acheul▁12065
▁oval▁12066
gast▁12067
▁roam▁12068
▁butcher▁12069
▁delicate▁12070
▁meticulous▁12071
scient▁12072
▁hairstyl▁12073
▁trait▁12074
▁reclaim▁12075
▁Lesterland▁12076
▁Lester▁12077
05▁12078
▁Supreme▁12079
▁camouflage▁12080
▁funder▁12081
▁Jerry▁12082
environmentalist▁12083
▁aristocra▁12084
▁coalition▁12085
▁baseline▁12086
▁republic▁12087
▁Federal▁12088
▁bipartisan▁12089
regulat▁12090
Capitol▁12091
▁invasive▁12092
▁pathological▁12093
▁polariz▁12094
▁dysfunction▁12095
▁Thor▁12096
▁translator▁12097
▁fusion▁12098
▁analytic▁12099
▁bureaucrat▁12100
▁homophob▁12101
▁hopeless▁12102
▁pundit▁12103
▁178▁12104
▁Ree▁12105
▁cosm▁12106
999▁12107
▁Express▁12108
▁twinkl▁12109
▁supernova▁12110
▁remnant▁12111
▁cosmologist▁12112
mud▁12113
▁galax▁12114
▁subtract▁12115
▁giga▁12116
▁irregular▁12117
▁nuclei▁12118
▁gravitational▁12119
▁synthesi▁12120
▁unifie▁12121
▁hazard▁12122
▁imprison▁12123
math▁12124
▁proton▁12125
▁engender▁12126
technologie▁12127
▁fanatic▁12128
▁Joy▁12129
grain▁12130
War▁12131
▁relativ▁12132
▁unify▁12133
▁Roth▁12134
blatt▁12135
▁Bert▁12136
▁Russell▁12137
▁schematic▁12138
lapse▁12139
▁vaporize▁12140
▁tribute▁12141
▁plaque▁12142
vig▁12143
far▁12144
▁4.5▁12145
eruption▁12146
▁wa▁12147
ession▁12148
▁vegetation▁12149
▁vigil▁12150
▁spasm▁12151
lose▁12152
▁biosphere▁12153
see▁12154
smal▁12155
▁tenth▁12156
▁engulf▁12157
strom▁12158
obalt▁12159
▁petal▁12160
▁Disneyland▁12161
▁hive▁12162
▁beehive▁12163
▁reefs▁12164
▁urchin▁12165
feld▁12166
▁snapshot▁12167
▁micrometeorite▁12168
▁constituent▁12169
▁powder▁12170
▁bombard▁12171
▁lava▁12172
kala▁12173
▁Blake▁12174
▁infinit▁12175
defense▁12176
▁glimmer▁12177
appreciate▁12178
▁firework▁12179
▁mesh▁12180
oubted▁12181
▁flask▁12182
ruder▁12183
▁chin▁12184
bel▁12185
▁knot▁12186
luminescence▁12187
▁octopus▁12188
sel▁12189
▁Avatar▁12190
▁Se▁12191
▁brittle▁12192
▁gentl▁12193
▁plume▁12194
▁Color▁12195
▁saber▁12196
▁imitat▁12197
▁Eye▁12198
▁bloom▁12199
▁Bah▁12200
amas▁12201
▁webcam▁12202
▁Monterey▁12203
▁Humboldt▁12204
▁Maybe▁12205
▁underestimat▁12206
▁Lesley▁12207
▁Astronom▁12208
▁astronomical▁12209
▁Vir▁12210
voluntary▁12211
▁capaciti▁12212
italin▁12213
▁depress▁12214
▁caffein▁12215
▁reprogram▁12216
▁rewrit▁12217
▁arithmetic▁12218
▁modalit▁12219
▁module▁12220
▁erotic▁12221
▁spiritualit▁12222
▁chatt▁12223
requisite▁12224
ffective▁12225
control▁12226
▁ramification▁12227
imini▁12228
▁vol▁12229
▁subset▁12230
▁Thula▁12231
▁Mama▁12232
▁Afrika▁12233
▁Lauder▁12234
▁Turn▁12235
▁drivers▁12236
▁multitasking▁12237
signal▁12238
▁crashe▁12239
▁roundabout▁12240
▁51▁12241
oline▁12242
▁8.▁12243
▁alternat▁12244
▁Scho▁12245
▁vigorous▁12246
▁execute▁12247
fabricat▁12248
▁Watson▁12249
orient▁12250
mole▁12251
▁compiler▁12252
▁electrochemi▁12253
strand▁12254
▁flopp▁12255
▁See▁12256
▁origami▁12257
▁intestine▁12258
thousand▁12259
circuit▁12260
tube▁12261
▁Erik▁12262
▁Winfre▁12263
▁Feynman▁12264
▁Mai▁12265
▁Kalman▁12266
itting▁12267
▁sweater▁12268
▁purple▁12269
▁elegan▁12270
personal▁12271
▁suitcase▁12272
Mann▁12273
▁Wood▁12274
▁condense▁12275
atz▁12276
▁Ferr▁12277
▁Taxi▁12278
▁Botox▁12279
uni▁12280
▁Rem▁12281
nick▁12282
▁Cod▁12283
▁Element▁12284
▁Style▁12285
▁Pol▁12286
▁WAS▁12287
▁Chan▁12288
▁Sit▁12289
▁stain▁12290
▁adore▁12291
▁Nico▁12292
▁Muh▁12293
▁Principle▁12294
▁Heisenberg▁12295
▁Hygiene▁12296
rump▁12297
pit▁12298
▁paranoid▁12299
▁fled▁12300
▁displacement▁12301
▁woods▁12302
▁Tel▁12303
▁Aviv▁12304
anguish▁12305
▁Kitt▁12306
▁Hart▁12307
▁Gersh▁12308
win▁12309
▁38▁12310
▁cemeter▁12311
oleum▁12312
ourgeois▁12313
▁Swee▁12314
witz▁12315
▁Chaplin▁12316
▁Ich▁12317
▁habe▁12318
▁Dennett▁12319
▁glaze▁12320
▁hoo▁12321
ckles▁12322
chu▁12323
ethos▁12324
▁Saul▁12325
▁Stein▁12326
▁Suzan▁12327
▁pointillis▁12328
▁unconscious▁12329
▁Net▁12330
natural▁12331
▁inflate▁12332
plain▁12333
▁Hawkins▁12334
▁sa▁12335
cca▁12336
▁Canaletto▁12337
▁Minsky▁12338
▁rotate▁12339
▁rotat▁12340
▁Roger▁12341
hepherd▁12342
▁angular▁12343
▁rotation▁12344
▁Bradley▁12345
▁Duma▁12346
▁Neck▁12347
paint▁12348
▁Detect▁12349
▁240▁12350
▁15.▁12351
▁Boeing▁12352
▁describ▁12353
▁Sandel▁12354
▁Fast▁12355
▁VIP▁12356
▁outsource▁12357
▁dominate▁12358
▁affluen▁12359
▁sting▁12360
▁Dallas▁12361
▁siz▁12362
ike▁12363
▁Mose▁12364
▁MS▁12365
▁Loft▁12366
EL▁12367
▁taint▁12368
material▁12369
market▁12370
▁disagreement▁12371
▁commonalit▁12372
▁anonym▁12373
▁dishonest▁12374
profil▁12375
▁Winnipeg▁12376
▁liar▁12377
tern▁12378
▁Confuci▁12379
▁Butler▁12380
▁Sock▁12381
▁Puppe▁12382
▁sock▁12383
▁coworker▁12384
▁nonverbal▁12385
▁idealiz▁12386
▁examin▁12387
▁subtl▁12388
▁Fif▁12389
▁Pinocchio▁12390
late▁12391
tooth▁12392
▁utterance▁12393
▁millennia▁12394
-50▁12395
▁singular▁12396
▁messag▁12397
▁Cox▁12398
HC▁12399
▁lud▁12400
▁CERN▁12401
▁0.6▁12402
▁Wonder▁12403
▁Solar▁12404
▁Enc▁12405
eladu▁12406
▁Isle▁12407
▁wisp▁12408
▁fountain▁12409
▁Europa▁12410
▁turbulent▁12411
destruct▁12412
▁Eco▁12413
metric▁12414
▁1880▁12415
▁1890▁12416
▁emit▁12417
lium▁12418
▁esoteri▁12419
▁transistor▁12420
gala▁12421
oxy▁12422
ndra▁12423
ekhar▁12424
▁majest▁12425
▁Uran▁12426
▁Neptun▁12427
▁Sagan▁12428
▁shaft▁12429
▁humbl▁12430
▁conceit▁12431
▁Humphrey▁12432
▁Da▁12433
▁assault▁12434
▁Billy▁12435
▁Poet▁12436
▁Laureate▁12437
▁Walter▁12438
▁Thompson▁12439
▁disast▁12440
▁verbal▁12441
▁Dickinson▁12442
▁Melodie▁12443
▁Bunn▁12444
▁Delta▁12445
▁Airline▁12446
▁deflect▁12447
apest▁12448
▁forager▁12449
▁knees▁12450
midst▁12451
dient▁12452
▁Para▁12453
▁lurk▁12454
▁Country▁12455
▁padd▁12456
▁flora▁12457
▁gripp▁12458
▁flare▁12459
▁eulog▁12460
grat▁12461
bottom▁12462
▁sch▁12463
▁adolescence▁12464
▁Favorit▁12465
▁17-▁12466
▁Partheno▁12467
▁Jud▁12468
▁Pascal▁12469
▁blossom▁12470
▁Sch▁12471
ubert▁12472
▁youngster▁12473
▁Oak▁12474
▁Call▁12475
▁Levin▁12476
▁soundtrack▁12477
▁sonic▁12478
▁Galileo▁12479
▁cel▁12480
estial▁12481
▁Schwarzschild▁12482
▁throat▁12483
▁harsh▁12484
▁Prussia▁12485
▁catastrophic▁12486
▁km▁12487
vantage▁12488
▁Galaxy▁12489
▁lumin▁12490
▁lane▁12491
▁tunnel▁12492
▁emanat▁12493
▁glamor▁12494
▁trail▁12495
▁chirp▁12496
▁industrious▁12497
▁LI▁12498
assi▁12499
▁Hubble▁12500
▁disturbance▁12501
▁Proton▁12502
▁chaotic▁12503
▁frantic▁12504
▁cacophon▁12505
▁reignite▁12506
▁multiverse▁12507
▁Ri▁12508
az▁12509
▁Presto▁12510
▁surreal▁12511
blowing▁12512
▁Kessl▁12513
condition▁12514
amount▁12515
▁TEDxS▁12516
mphitheater▁12517
▁mild▁12518
atar▁12519
22▁12520
▁stadi▁12521
▁Speer▁12522
▁Trans▁12523
▁cooling▁12524
▁analyz▁12525
▁Athen▁12526
mbra▁12527
▁overlay▁12528
▁diffuse▁12529
omfort▁12530
▁shad▁12531
▁hurricane▁12532
▁chill▁12533
▁stabil▁12534
▁energies▁12535
▁photovoltaic▁12536
▁Future▁12537
▁Emirate▁12538
▁Abu▁12539
habi▁12540
▁plaza▁12541
jo▁12542
aw▁12543
▁tabletop▁12544
▁apparatus▁12545
▁perceiv▁12546
▁emergent▁12547
obvious▁12548
mple▁12549
▁fractal▁12550
▁Gapminder▁12551
▁catalyze▁12552
▁bash▁12553
▁Pythagor▁12554
ean▁12555
▁theorem▁12556
▁mathematician▁12557
▁Lauren▁12558
▁Gilli▁12559
shi▁12560
▁bats▁12561
order▁12562
▁AK▁12563
99▁12564
Chat▁12565
▁expenditure▁12566
▁Tee▁12567
▁characterize▁12568
▁vertebrate▁12569
▁echolocati▁12570
▁horseshoe▁12571
▁teeny▁12572
▁Sydney▁12573
▁Sto▁12574
▁angel▁12575
acious▁12576
▁colony▁12577
ose▁12578
▁insecticide▁12579
▁genomic▁12580
▁disrupt▁12581
▁sie▁12582
▁1500▁12583
▁expend▁12584
▁Rive▁12585
▁Friend▁12586
▁Monster▁12587
▁interviewer▁12588
▁flirt▁12589
▁preoccup▁12590
apster▁12591
▁automat▁12592
chard▁12593
peror▁12594
▁Grandma▁12595
itz▁12596
still▁12597
Ch▁12598
▁mortal▁12599
▁penis▁12600
▁outlaw▁12601
▁spam▁12602
▁wireless▁12603
▁firewall▁12604
dah▁12605
data▁12606
medicine▁12607
▁aller▁12608
▁trekk▁12609
▁manufacture▁12610
zen▁12611
idio▁12612
articulate▁12613
▁ozone▁12614
▁wreck▁12615
▁Jami▁12616
▁ALS▁12617
▁aisle▁12618
▁scal▁12619
▁Patient▁12620
▁milligram▁12621
▁Flash▁12622
kinetic▁12623
▁tab▁12624
agnesium▁12625
▁rearrange▁12626
▁PNA▁12627
▁bra▁12628
ithium▁12629
▁bipolar▁12630
▁critique▁12631
▁Hum▁12632
berto▁12633
PL▁12634
▁Treat▁12635
▁69▁12636
▁cis▁12637
RB▁12638
▁outlier▁12639
▁Remix▁12640
▁pinnacle▁12641
sten▁12642
▁dissent▁12643
▁Burt▁12644
▁Album▁12645
amun▁12646
▁Town▁12647
▁idol▁12648
▁Woody▁12649
▁Gut▁12650
▁Land▁12651
▁concoction▁12652
touch▁12653
fang▁12654
ux▁12655
found▁12656
lock▁12657
▁exaggerat▁12658
▁mature▁12659
▁thermonu▁12660
▁predisposition▁12661
▁biase▁12662
▁lawsuit▁12663
▁Blind▁12664
liberation▁12665
▁quantifie▁12666
▁5-▁12667
▁61▁12668
▁Narcis▁12669
▁Personal▁12670
PI▁12671
▁0.3▁12672
▁quantitative▁12673
▁diaper▁12674
▁diffusion▁12675
▁biometri▁12676
ometer▁12677
▁Fit▁12678
EM▁12679
▁inhale▁12680
discover▁12681
awareness▁12682
knowledge▁12683
▁Ear▁12684
van▁12685
garde▁12686
▁JR▁12687
nonymous▁12688
▁graffiti▁12689
▁photocopie▁12690
▁Champ▁12691
lot▁12692
▁thug▁12693
▁curator▁12694
▁Heroe▁12695
▁detaine▁12696
▁cartel▁12697
▁Monro▁12698
ibera▁12699
▁Helen▁12700
▁Levitt▁12701
▁minaret▁12702
▁forbidd▁12703
▁Chernobyl▁12704
▁mafia▁12705
▁yeast▁12706
organism▁12707
▁ferment▁12708
▁dissolve▁12709
▁optim▁12710
rmostat▁12711
▁mini▁12712
▁indigo▁12713
▁dip▁12714
ompatible▁12715
▁excite▁12716
▁peeling▁12717
▁textile▁12718
▁SL▁12719
▁vibrat▁12720
▁bumblebee▁12721
uk▁12722
ellow▁12723
▁sovereign▁12724
evolution▁12725
▁totalitarian▁12726
▁Cannabis▁12727
▁Aldo▁12728
Leopold▁12729
▁Cartesian▁12730
▁biochemist▁12731
▁Joel▁12732
▁Salat▁12733
▁apprentice▁12734
▁Poly▁12735
▁turkey▁12736
▁graze▁12737
▁ricket▁12738
▁maggot▁12739
▁larva▁12740
▁hatch▁12741
▁nitrogen▁12742
▁fertiliz▁12743
▁rum▁12744
shoot▁12745
WF▁12746
▁2030▁12747
▁decisive▁12748
chester▁12749
▁lightbulb▁12750
logen▁12751
▁Cotton▁12752
people▁12753
logging▁12754
▁Steward▁12755
▁Council▁12756
▁certify▁12757
udi▁12758
▁auditor▁12759
▁wallet▁12760
▁Ngu▁12761
▁PBS▁12762
▁Nye▁12763
▁UCLA▁12764
click▁12765
▁Horizon▁12766
▁Pluto▁12767
▁700,000▁12768
▁Gras▁12769
▁ST▁12770
▁connectome▁12771
▁SS▁12772
▁intellect▁12773
uri▁12774
▁synapse▁12775
▁spaghetti▁12776
▁entangle▁12777
▁insignifican▁12778
otic▁12779
▁artificially▁12780
▁plausib▁12781
▁synapti▁12782
▁hypothesize▁12783
▁replay▁12784
orex▁12785
▁Autist▁12786
plausible▁12787
▁ridicule▁12788
▁erase▁12789
▁propel▁12790
▁Fusion▁12791
▁acrobatic▁12792
▁Aakash▁12793
▁Ode▁12794
▁choreographer▁12795
▁Major▁12796
▁Electronic▁12797
▁Jacque▁12798
▁Novo▁12799
▁mistrust▁12800
▁compliment▁12801
▁Mobutu▁12802
hren▁12803
ecision▁12804
spora▁12805
▁quack▁12806
▁Amitabha▁12807
▁bypass▁12808
emeral▁12809
IDE▁12810
iest▁12811
▁Sono▁12812
▁Khan▁12813
▁Textil▁12814
▁Manufactur▁12815
spring▁12816
▁Acumen▁12817
▁Ambulance▁12818
▁ambulance▁12819
▁Innovation▁12820
hani▁12821
finance▁12822
▁Sid▁12823
iqui▁12824
▁converse▁12825
▁judicia▁12826
▁sunflower▁12827
▁Raja▁12828
▁dignit▁12829
▁reckless▁12830
▁abusi▁12831
▁innovat▁12832
▁Moll▁12833
▁Skycar▁12834
▁volant▁12835
▁Volantor▁12836
passen▁12837
▁motivator▁12838
OT▁12839
▁redundan▁12840
▁recreation▁12841
400▁12842
▁adage▁12843
▁aeronautic▁12844
OL▁12845
▁Hawke▁12846
▁Harrie▁12847
▁Felix▁12848
kel▁12849
▁Maz▁12850
▁backup▁12851
▁Video▁12852
▁dispatch▁12853
▁aphorism▁12854
▁NAS▁12855
▁Twenty▁12856
▁Encyclop▁12857
▁Britanni▁12858
razo▁12859
▁Astro▁12860
chim▁12861
▁preferabl▁12862
▁equator▁12863
eureka▁12864
▁brows▁12865
▁unconta▁12866
▁leopard▁12867
tail▁12868
▁Volks▁12869
▁Egyptian▁12870
▁Pharao▁12871
tank▁12872
▁firefl▁12873
handed▁12874
rogl▁12875
▁Smithsonian▁12876
▁Gagarin▁12877
▁statu▁12878
▁max▁12879
nourishe▁12880
▁hut▁12881
▁cramp▁12882
▁spher▁12883
illiard▁12884
rella▁12885
▁Potter▁12886
▁playwright▁12887
▁breastfeed▁12888
▁Pip▁12889
▁Superman▁12890
ilda▁12891
▁Mor▁12892
pur▁12893
▁Refuge▁12894
▁Alice▁12895
▁Purpl▁12896
▁nun▁12897
▁utilitarian▁12898
▁patron▁12899
▁Hai▁12900
noch▁12901
▁Powell▁12902
▁Devil▁12903
▁Scripture▁12904
▁truthful▁12905
▁sinn▁12906
police▁12907
▁grape▁12908
truth▁12909
▁dysfunctional▁12910
▁versatil▁12911
▁reforest▁12912
▁reintegrat▁12913
▁gland▁12914
▁cocoon▁12915
▁weave▁12916
▁hologra▁12917
▁vein▁12918
▁effic▁12919
Cent▁12920
magine▁12921
▁Affair▁12922
▁Beyon▁12923
▁dubio▁12924
▁entitlement▁12925
▁Budget▁12926
▁Office▁12927
axe▁12928
partisan▁12929
▁kin▁12930
▁miraculous▁12931
▁circl▁12932
▁committee▁12933
▁Rom▁12934
party▁12935
▁dislike▁12936
polar▁12937
▁legislative▁12938
▁Label▁12939
▁supplement▁12940
▁Start▁12941
▁Hispanic▁12942
▁Asteroid▁12943
▁quadruple▁12944
overty▁12945
▁Grove▁12946
quist▁12947
▁bankrupt▁12948
▁fisc▁12949
▁Crime▁12950
ronin▁12951
▁printer▁12952
▁Bewa▁12953
▁strive▁12954
▁Zucker▁12955
▁logge▁12956
▁Huff▁12957
▁Schmidt▁12958
▁Netflix▁12959
▁Iron▁12960
▁Wait▁12961
▁impulsive▁12962
▁Ventur▁12963
▁Justin▁12964
▁Bieber▁12965
▁gatekeeper▁12966
rman▁12967
▁expanding▁12968
▁meditation▁12969
▁kar▁12970
una▁12971
centered▁12972
▁implicit▁12973
▁doorway▁12974
▁Saint▁12975
sanga▁12976
▁Buddha▁12977
▁doctrine▁12978
left▁12979
▁hin▁12980
▁wounds▁12981
▁mystic▁12982
rotten▁12983
▁cha▁12984
▁methodolog▁12985
▁Cau▁12986
▁Method▁12987
▁Compassion▁12988
▁defuse▁12989
▁Saddam▁12990
▁Hussein▁12991
▁mustache▁12992
▁satisfie▁12993
brow▁12994
▁ruthless▁12995
practical▁12996
▁Buddhism▁12997
▁Charter▁12998
▁regenerative▁12999
▁regenerate▁13000
▁Lindbergh▁13001
▁Rockefeller▁13002
reactor▁13003
▁ankle▁13004
onary▁13005
▁arter▁13006
▁mon▁13007
▁diagnos▁13008
▁induce▁13009
▁Bad▁13010
specific▁13011
▁Blackberr▁13012
▁ulcer▁13013
▁amputation▁13014
▁nostril▁13015
▁packing▁13016
attach▁13017
institution▁13018
▁randomize▁13019
▁laparoscopic▁13020
▁lip▁13021
uction▁13022
derive▁13023
▁reactor▁13024
▁fertilize▁13025
▁Terr▁13026
▁Turk▁13027
jebr▁13028
parate▁13029
▁translat▁13030
CK▁13031
ck▁13032
%▁13033
▁toddler▁13034
▁overlapp▁13035
environment▁13036
▁recreat▁13037
▁petrochemical▁13038
▁recombin▁13039
opping▁13040
▁residu▁13041
▁mixture▁13042
▁flake▁13043
▁sil▁13044
esh▁13045
▁Kat▁13046
▁Maker▁13047
rgis▁13048
▁Mya▁13049
first▁13050
▁Senegal▁13051
▁Nathan▁13052
▁Myhrvold▁13053
Ferran▁13054
▁Adria▁13055
▁Blumen▁13056
▁cutaway▁13057
▁spor▁13058
▁pickle▁13059
▁lavish▁13060
▁Hamburger▁13061
▁burger▁13062
▁charcoal▁13063
temperatur▁13064
osh▁13065
▁eyebrow▁13066
▁appliance▁13067
▁Watt▁13068
▁whiske▁13069
▁horn▁13070
▁CSI▁13071
▁2,4▁13072
▁Sophia▁13073
▁inflation▁13074
▁Edwin▁13075
▁numer▁13076
▁repulsive▁13077
▁unchar▁13078
▁subatom▁13079
▁violin▁13080
▁quark▁13081
▁neutrino▁13082
▁crumple▁13083
hospita▁13084
guide▁13085
▁Kepler▁13086
itter▁13087
hotter▁13088
▁fastest▁13089
▁telegram▁13090
▁beckon▁13091
izzy▁13092
▁13.7▁13093
ilson▁13094
▁notation▁13095
▁squeak▁13096
▁improvis▁13097
▁Pan▁13098
tat▁13099
▁craze▁13100
▁unf▁13101
▁Violin▁13102
▁Concerto▁13103
,7▁13104
29▁13105
▁chord▁13106
stone▁13107
▁Bor▁13108
▁improvisation▁13109
▁polyphon▁13110
▁Ptolem▁13111
▁1600▁13112
▁wicked▁13113
▁MTT▁13114
▁Fifth▁13115
student▁13116
udience▁13117
▁democratiz▁13118
▁Bess▁13119
▁impenetrab▁13120
▁Stern▁13121
ough▁13122
▁Score▁13123
▁Kabi▁13124
▁riddle▁13125
▁consent▁13126
▁litigation▁13127
▁ineffective▁13128
▁primordial▁13129
▁Diamond▁13130
▁dispute▁13131
▁scor▁13132
▁romanticize▁13133
▁retirement▁13134
bodie▁13135
▁fluctuat▁13136
▁babysitt▁13137
ocation▁13138
▁cult▁13139
▁pension▁13140
▁fluent▁13141
▁outstanding▁13142
▁multiplic▁13143
▁logarithm▁13144
digit▁13145
▁knob▁13146
▁caretakers▁13147
▁circum▁13148
interdisciplinar▁13149
▁synthesiz▁13150
▁plague▁13151
confident▁13152
▁cleaner▁13153
▁ninja▁13154
▁toxin▁13155
▁Bis▁13156
▁Control▁13157
▁formaldehyde▁13158
▁respirator▁13159
▁Infinit▁13160
▁Mushroom▁13161
▁compost▁13162
▁tastie▁13163
▁imprint▁13164
▁decay▁13165
▁decompi▁13166
▁Suit▁13167
▁myceli▁13168
▁Image▁13169
▁cliche▁13170
▁crucifi▁13171
schwitz▁13172
▁Holocaust▁13173
▁crucifix▁13174
Ghraib▁13175
▁Guant▁13176
amo▁13177
▁insurgenc▁13178
▁Guard▁13179
▁Ohio▁13180
▁Katrina▁13181
▁Eu▁13182
gene▁13183
▁Adams▁13184
▁Dori▁13185
▁Kearn▁13186
▁Goodwi▁13187
▁Lyndon▁13188
▁disregard▁13189
▁Sarah▁13190
▁Rut▁13191
▁legislature▁13192
▁suicid▁13193
▁rally▁13194
▁Erne▁13195
▁rival▁13196
▁peril▁13197
▁possess▁13198
parallele▁13199
▁subordinat▁13200
▁griev▁13201
▁brood▁13202
hak▁13203
ncip▁13204
▁1900▁13205
▁Caucas▁13206
▁barbaria▁13207
▁Napoleon▁13208
▁sunrise▁13209
▁encompass▁13210
▁memoir▁13211
▁psychic▁13212
▁ranch▁13213
▁anecdotal▁13214
▁Bai▁13215
check▁13216
cloth▁13217
▁trapping▁13218
▁sank▁13219
▁sailboat▁13220
▁replenish▁13221
▁Ethan▁13222
▁Dod▁13223
gers▁13224
▁fervent▁13225
▁Roy▁13226
ella▁13227
▁Communi▁13228
▁Ebbe▁13229
▁Field▁13230
▁indulgence▁13231
ankees▁13232
▁Serie▁13233
▁loyalt▁13234
&▁13235
lywood▁13236
▁superinte▁13237
▁Pam▁13238
▁County▁13239
▁Ridge▁13240
▁Tweet▁13241
wo▁13242
▁Southwest▁13243
mitten▁13244
▁robe▁13245
▁beard▁13246
▁concession▁13247
▁afro▁13248
▁supervisor▁13249
▁Far▁13250
▁visionar▁13251
▁Grad▁13252
▁Ach▁13253
testament▁13254
▁eeri▁13255
▁Polo▁13256
▁Miss▁13257
school▁13258
▁thinker▁13259
▁Plexiglas▁13260
▁Secretary▁13261
rolle▁13262
▁dealer▁13263
▁interlock▁13264
▁spills▁13265
▁Agn▁13266
▁misinform▁13267
zu▁13268
sighted▁13269
▁facilitator▁13270
▁Brenn▁13271
jec▁13272
▁unpredictabl▁13273
▁Shirk▁13274
▁Clay▁13275
▁fram▁13276
▁arrang▁13277
▁mermaid▁13278
ermaid▁13279
Parade▁13280
▁Flickr▁13281
▁Del▁13282
▁librarian▁13283
rang▁13284
▁exclusion▁13285
,4▁13286
average▁13287
▁merchandis▁13288
▁Psycho▁13289
▁bargain▁13290
▁su▁13291
▁captur▁13292
▁Ballmer▁13293
▁drank▁13294
▁overflow▁13295
▁Meet▁13296
▁affinit▁13297
▁Heife▁13298
litz▁13299
▁advised▁13300
▁Judi▁13301
▁Jury▁13302
journalism▁13303
▁Lance▁13304
▁bracelet▁13305
▁sober▁13306
▁allude▁13307
▁hijack▁13308
▁perpetrat▁13309
▁motive▁13310
▁Happy▁13311
▁Planet▁13312
▁statistician▁13313
▁apocalyptic▁13314
▁Economic▁13315
▁reasonably▁13316
▁Hobbes▁13317
▁brut▁13318
▁Dow▁13319
▁cornerstone▁13320
▁Promi▁13321
▁harassment▁13322
▁execution▁13323
▁commentar▁13324
▁reunite▁13325
▁ideological▁13326
▁embody▁13327
▁ideolog▁13328
▁martyr▁13329
▁Morocc▁13330
▁Parsi▁13331
▁Casa▁13332
blanc▁13333
tradition▁13334
ingham▁13335
▁Row▁13336
▁recurr▁13337
hoc▁13338
uddle▁13339
affe▁13340
▁retailer▁13341
▁31▁13342
▁Airbnb▁13343
▁TaskRabbit▁13344
▁microsecond▁13345
▁advert▁13346
▁disparity▁13347
▁licens▁13348
▁Craigslist▁13349
▁precedent▁13350
otter▁13351
▁specifi▁13352
▁gambl▁13353
▁enshrin▁13354
▁consorti▁13355
▁vet▁13356
▁earning▁13357
▁improbab▁13358
▁tur▁13359
▁iTunes▁13360
dley▁13361
▁Selig▁13362
▁practitioner▁13363
▁Psychologi▁13364
▁Doctor▁13365
▁rigor▁13366
▁psychiatr▁13367
▁psychiatrist▁13368
talent▁13369
▁Etc▁13370
▁Gilbert▁13371
ikszent▁13372
ihaly▁13373
▁weakness▁13374
▁hemispher▁13375
ulli▁13376
▁gig▁13377
▁Robbi▁13378
▁alleged▁13379
▁Matthieu▁13380
millionaire▁13381
▁consign▁13382
ardi▁13383
▁Deb▁13384
absorption▁13385
▁whipp▁13386
▁cherry▁13387
▁morbid▁13388
Marie▁13389
▁dough▁13390
▁prototyping▁13391
tangible▁13392
Doh▁13393
▁Shack▁13394
▁microprocessor▁13395
amme▁13396
opening▁13397
▁Charlotte▁13398
▁steward▁13399
▁pinch▁13400
▁archaeologist▁13401
▁Psalm▁13402
▁contradiction▁13403
▁powerless▁13404
▁Ora▁13405
▁Creat▁13406
▁pluck▁13407
▁plutonium▁13408
chev▁13409
▁Dobr▁13410
▁Job▁13411
▁Cli▁13412
odium▁13413
▁commentator▁13414
▁Mari▁13415
▁Clark▁13416
▁deathbed▁13417
▁Wer▁13418
▁Braun▁13419
▁antagonist▁13420
▁Chance▁13421
auer▁13422
zhen▁13423
▁seventeenth▁13424
▁astound▁13425
▁165▁13426
▁redeem▁13427
▁39▁13428
▁embodiment▁13429
atricia▁13430
EF▁13431
bai▁13432
▁medi▁13433
▁Kuwait▁13434
▁bandw▁13435
speaking▁13436
▁prophec▁13437
▁Dark▁13438
▁equate▁13439
▁Divide▁13440
▁Universi▁13441
limb▁13442
medium▁13443
▁Award▁13444
▁Kenyan▁13445
erose▁13446
▁Steff▁13447
▁Maps▁13448
uer▁13449
▁pedestrian▁13450
▁crowdsource▁13451
▁stockpile▁13452
▁vacan▁13453
▁bundle▁13454
shine▁13455
▁furnace▁13456
▁pollination▁13457
▁sequester▁13458
ozi▁13459
▁Reserve▁13460
▁safari▁13461
▁deterren▁13462
▁pa▁13463
▁slipper▁13464
ubunt▁13465
▁Solly▁13466
▁über▁13467
▁philanthropist▁13468
▁coincide▁13469
croc▁13470
▁slick▁13471
▁waist▁13472
▁migrator▁13473
▁invert▁13474
▁bracket▁13475
▁hollow▁13476
atriarch▁13477
▁psych▁13478
▁visibl▁13479
▁Oprah▁13480
▁Madi▁13481
▁PM▁13482
▁Dennis▁13483
Engels▁13484
arroa▁13485
isorder▁13486
▁almond▁13487
▁beekeeper▁13488
▁2.4▁13489
RA▁13490
▁beekeep▁13491
▁squa▁13492
▁Hacken▁13493
▁raft▁13494
▁Kate▁13495
▁diner▁13496
▁honeybee▁13497
▁colonialis▁13498
social▁13499
parasite▁13500
ara▁13501
systems▁13502
▁Nie▁13503
▁soprano▁13504
▁Meine▁13505
▁Lippen▁13506
▁küssen▁13507
▁heiss▁13508
▁Giudi▁13509
grid▁13510
▁Tongu▁13511
▁Emergenc▁13512
▁Pentagon▁13513
▁Twin▁13514
Bath▁13515
▁Jacobs▁13516
▁Horse▁13517
▁decentraliz▁13518
▁Ground▁13519
▁Soho▁13520
▁Clint▁13521
▁Zeitgeist▁13522
little▁13523
▁nav▁13524
▁widget▁13525
▁Wein▁13526
▁fungus▁13527
▁Share▁13528
▁Conference▁13529
▁Mola▁13530
▁0.5▁13531
▁Pink▁13532
▁Bauer▁13533
Hub▁13534
bard▁13535
scot▁13536
▁memes▁13537
▁1860▁13538
▁Ask▁13539
▁CE▁13540
pul▁13541
▁reframe▁13542
▁rapper▁13543
▁En▁13544
▁Namaste▁13545
Day▁13546
▁Vagina▁13547
▁Monolog▁13548
▁Buka▁13549
wege▁13550
▁shove▁13551
▁Kosov▁13552
nitha▁13553
custome▁13554
▁14-▁13555
▁Butter▁13556
▁oak▁13557
rie▁13558
▁teens▁13559
▁Dor▁13560
▁mutilat▁13561
▁Nar▁13562
itoris▁13563
▁deput▁13564
▁hyena▁13565
▁Emotion▁13566
▁pissed▁13567
▁coconut▁13568
▁dilute▁13569
rado▁13570
▁inconvenience▁13571
▁autops▁13572
▁Spirit▁13573
▁Rosa▁13574
uent▁13575
▁Mohamed▁13576
▁Alberto▁13577
▁Giacometti▁13578
▁franc▁13579
▁cryptic▁13580
▁Faro▁13581
▁Szymborska▁13582
▁Dame▁13583
▁succumb▁13584
▁gunshot▁13585
▁coincident▁13586
bert▁13587
Marge▁13588
▁0▁13589
▁puzzling▁13590
▁parse▁13591
▁Random▁13592
▁quad▁13593
ennial▁13594
▁Blair▁13595
▁Tipp▁13596
▁Delan▁13597
▁Dyson▁13598
▁Barricelli▁13599
▁Trinity▁13600
▁Neumann▁13601
▁Von▁13602
▁subtraction▁13603
▁Leib▁13604
▁Turing▁13605
▁qu▁13606
NI▁13607
▁Study▁13608
▁revise▁13609
RCA▁13610
▁Es▁13611
▁Morgen▁13612
stern▁13613
▁Oppenheim▁13614
▁hackers▁13615
▁vacuum▁13616
▁disk▁13617
▁Graph▁13618
Beam▁13619
reliabl▁13620
▁2,6▁13621
▁Arithmeti▁13622
▁Log▁13623
crony▁13624
▁Mathematica▁13625
▁Integr▁13626
Calculator▁13627
▁regain▁13628
▁Aha▁13629
▁stub▁13630
▁lightning▁13631
▁kilo▁13632
▁Mega▁13633
hertz▁13634
▁Wolfram▁13635
enotyp▁13636
▁phenotype▁13637
▁proteomics▁13638
▁Renn▁13639
▁Gle▁13640
▁strata▁13641
delt▁13642
▁grav▁13643
▁flank▁13644
▁Mandarin▁13645
▁grammatical▁13646
omorrow▁13647
▁regnet▁13648
▁cleav▁13649
▁visceral▁13650
▁Ag▁13651
etirement▁13652
▁Demograph▁13653
ID▁13654
▁Bru▁13655
ssels▁13656
▁Haus▁13657
▁Igbo▁13658
▁Tasmanian▁13659
▁virulent▁13660
▁marsupial▁13661
▁kangaroo▁13662
▁Tasmania▁13663
affect▁13664
▁grue▁13665
▁foul▁13666
▁cervi▁13667
inister▁13668
▁Chester▁13669
entia▁13670
▁Derek▁13671
vicini▁13672
ckel▁13673
doubt▁13674
▁AO▁13675
▁recorder▁13676
▁Philharmoni▁13677
ripped▁13678
umblebee▁13679
▁recalibrate▁13680
▁Chop▁13681
▁Tat▁13682
▁Lomborg▁13683
▁Skeptic▁13684
▁conflicts▁13685
▁Davos▁13686
rid▁13687
▁climatologist▁13688
06▁13689
▁enliven▁13690
nutrient▁13691
▁Schell▁13692
▁Brad▁13693
▁objection▁13694
▁posit▁13695
▁pneumo▁13696
▁temperat▁13697
▁afflict▁13698
▁parasite▁13699
▁vest▁13700
▁KIPP▁13701
▁66▁13702
▁tenure▁13703
▁Nice▁13704
heir▁13705
▁lend▁13706
▁mourn▁13707
ollateral▁13708
aa▁13709
▁outfit▁13710
▁Cluster▁13711
amel▁13712
▁lemon▁13713
▁malignan▁13714
acco▁13715
▁salv▁13716
▁rede▁13717
mption▁13718
▁Griffi▁13719
altitude▁13720
▁kite▁13721
▁Mak▁13722
cock▁13723
▁Wright▁13724
▁Flyer▁13725
▁relegate▁13726
awa▁13727
▁autonomous▁13728
▁kilowatt▁13729
▁megawatt▁13730
▁230▁13731
▁747▁13732
mega▁13733
▁1000▁13734
▁Natasha▁13735
▁multimedia▁13736
wake▁13737
▁decipher▁13738
visual▁13739
▁Anto▁13740
Exup▁13741
▁ta▁13742
▁attentive▁13743
▁clown▁13744
▁Zipcar▁13745
▁Buzz▁13746
▁Peer▁13747
▁Inc▁13748
▁customiz▁13749
▁TG▁13750
▁Top▁13751
Code▁13752
trivial▁13753
▁24-▁13754
▁yuck▁13755
▁Sure▁13756
veling▁13757
▁Garten▁13758
▁Know▁13759
▁sage▁13760
▁deluge▁13761
▁password▁13762
▁clutter▁13763
cluded▁13764
▁escap▁13765
▁notorious▁13766
▁levitat▁13767
imming▁13768
▁navigat▁13769
▁seamless▁13770
▁sq▁13771
▁rig▁13772
▁Mut▁13773
flow▁13774
▁stove▁13775
▁Coul▁13776
▁Paol▁13777
othing▁13778
▁MoMA▁13779
▁typeface▁13780
tica▁13781
enz▁13782
rotesk▁13783
▁knack▁13784
▁Argentin▁13785
erra▁13786
▁neck▁13787
▁proxim▁13788
▁Mutant▁13789
ogel▁13790
▁Livermore▁13791
▁IDEO▁13792
▁cubicle▁13793
▁Gui▁13794
▁Jong▁13795
▁maverick▁13796
▁loudspeaker▁13797
▁rifle▁13798
▁mount▁13799
▁Brem▁13800
▁impairment▁13801
▁Herald▁13802
▁Tribun▁13803
▁Paulo▁13804
Fernando▁13805
▁strangeness▁13806
ij▁13807
▁Eames▁13808
glas▁13809
thieu▁13810
▁Lehanneur▁13811
India▁13812
▁Telegraph▁13813
▁telegraph▁13814
▁Opium▁13815
▁sovereignt▁13816
▁Mao▁13817
▁Tse▁13818
▁Deng▁13819
iaoping▁13820
▁reformer▁13821
▁92▁13822
▁similarit▁13823
▁inequit▁13824
ahara▁13825
MF▁13826
▁Lehman▁13827
▁doorstep▁13828
▁interven▁13829
▁Gol▁13830
▁Ramon▁13831
explanat▁13832
▁serotonin▁13833
▁SSRI▁13834
▁palette▁13835
lon▁13836
▁Atala▁13837
▁Mass▁13838
▁bladder▁13839
▁Cultur▁13840
▁Organ▁13841
▁sutur▁13842
▁vascular▁13843
▁leaflet▁13844
▁volumetri▁13845
▁Kang▁13846
▁LM▁13847
ckenber▁13848
▁pendulum▁13849
inspired▁13850
▁tremor▁13851
▁interpla▁13852
▁cone▁13853
▁tether▁13854
satisfact▁13855
▁interpenetrat▁13856
▁spigot▁13857
▁Loui▁13858
▁sauce▁13859
▁centrifug▁13860
▁ripple▁13861
▁interfer▁13862
itude▁13863
▁persuasive▁13864
▁Seth▁13865
▁Kiliman▁13866
esis▁13867
▁Ki▁13868
▁jogg▁13869
▁contextual▁13870
▁circa▁13871
▁barter▁13872
▁confluen▁13873
▁absolut▁13874
▁Aura▁13875
gab▁13876
▁parch▁13877
▁Tabar▁13878
▁Sari▁13879
▁Tupperware▁13880
▁Pamel▁13881
▁Kurs▁13882
▁untouchable▁13883
phew▁13884
▁Theremin▁13885
▁bumm▁13886
▁Sieg▁13887
portrait▁13888
▁vague▁13889
▁Laur▁13890
lbert▁13891
▁Blog▁13892
▁Holly▁13893
closure▁13894
▁enclosure▁13895
▁Honey▁13896
▁qualitative▁13897
▁evaluat▁13898
▁psyche▁13899
ishman▁13900
▁Uh▁13901
eligi▁13902
▁Mobi▁13903
▁portable▁13904
iuk▁13905
uik▁13906
▁TB▁13907
ief▁13908
▁warrant▁13909
▁biopsy▁13910
acquire▁13911
▁appointment▁13912
▁graduat▁13913
▁counselor▁13914
▁Ash▁13915
performance▁13916
uinea▁13917
▁Intel▁13918
▁mainframe▁13919
▁Trace▁13920
▁Ga▁13921
▁abdomen▁13922
▁DARw▁13923
ipping▁13924
▁CL▁13925
IMB▁13926
Me▁13927
Tri▁13928
pedal▁13929
▁Dynamic▁13930
▁Robot▁13931
▁terroriz▁13932
▁bipedal▁13933
▁locomot▁13934
range▁13935
▁1.8▁13936
cha▁13937
MPA▁13938
▁Intelligent▁13939
latform▁13940
leg▁13941
▁rim▁13942
▁tacti▁13943
▁Acker▁13944
mann▁13945
▁axle▁13946
▁Limb▁13947
▁Match▁13948
▁Beha▁13949
rovers▁13950
▁geologist▁13951
ARS▁13952
▁Multi▁13953
App▁13954
apo▁13955
▁payload▁13956
▁Mechanism▁13957
▁Hand▁13958
▁Lig▁13959
▁prosthes▁13960
echanical▁13961
▁actuator▁13962
▁soda▁13963
reedom▁13964
▁Serpentine▁13965
ntelligence▁13966
tium▁13967
▁RoboCup▁13968
▁Orchestra▁13969
▁Challenge▁13970
Drive▁13971
▁scribble▁13972
▁wack▁13973
electrifie▁13974
ö▁13975
inch▁13976
▁dungeon▁13977
▁Basi▁13978
▁Abbott▁13979
▁Bin▁13980
▁Laden▁13981
▁Alla▁13982
▁Crash▁13983
▁hobbyist▁13984
▁Server▁13985
▁Gang▁13986
NT▁13987
▁Shai▁13988
kum▁13989
▁cybercrim▁13990
▁froze▁13991
▁14.▁13992
▁Clar▁13993
stonia▁13994
▁Hex▁13995
OR▁13996
seek▁13997
600▁13998
RU▁13999
US▁14000
▁Mercedes▁14001
liter▁14002
▁20-▁14003
▁Lada▁14004
amara▁14005
▁Stux▁14006
▁Siemens▁14007
virus▁14008
▁Trug▁14009
loyd▁14010
▁Rosi▁14011
Wayne▁14012
rampe▁14013
▁grit▁14014
▁dumm▁14015
▁piston▁14016
rries▁14017
▁coache▁14018
▁Bluetooth▁14019
▁Show▁14020
loop▁14021
▁Engineering▁14022
▁airbag▁14023
▁bounc▁14024
▁retrospective▁14025
▁Terminator▁14026
▁whizz▁14027
eil▁14028
▁friction▁14029
▁102▁14030
▁Excel▁14031
▁exhale▁14032
▁chute▁14033
pressurize▁14034
layer▁14035
▁Rule▁14036
▁homo▁14037
▁reciprocal▁14038
blockade▁14039
▁conduc▁14040
▁loser▁14041
▁interdependent▁14042
▁Islam▁14043
▁refra▁14044
▁Eva▁14045
▁ceramic▁14046
▁Stil▁14047
▁Castle▁14048
▁Hungarian▁14049
Digg▁14050
etter▁14051
boyfriend▁14052
▁Hamburg▁14053
▁Moderator▁14054
▁purg▁14055
▁Attentat▁14056
▁Bonnie▁14057
▁Bass▁14058
clusive▁14059
▁Vibrio▁14060
▁fischer▁14061
▁moonlight▁14062
▁receptor▁14063
virulen▁14064
▁census▁14065
▁mutant▁14066
quo▁14067
▁multicellular▁14068
▁therapeutic▁14069
▁Grace▁14070
astro▁14071
▁McCu▁14072
▁medal▁14073
▁accomplishment▁14074
▁antique▁14075
▁Jazz▁14076
▁stereotypical▁14077
▁bloodline▁14078
▁Shivdutt▁14079
abha▁14080
▁Pho▁14081
▁sunk▁14082
▁Living▁14083
▁Decla▁14084
▁Chapter▁14085
▁serial▁14086
▁establishment▁14087
▁index▁14088
migration▁14089
security▁14090
▁euthanize▁14091
▁Sreb▁14092
▁massacre▁14093
▁exhum▁14094
▁Commission▁14095
▁Person▁14096
corp▁14097
▁Orthodox▁14098
▁solicit▁14099
▁Information▁14100
oreign▁14101
▁Propaganda▁14102
▁instruct▁14103
▁Hitler▁14104
▁Reich▁14105
▁Raphael▁14106
▁Portrait▁14107
▁Northeast▁14108
▁bystander▁14109
capita▁14110
tribu▁14111
tive▁14112
▁retaliat▁14113
▁Ukrainian▁14114
▁orphanage▁14115
▁Ukraine▁14116
▁insufficient▁14117
▁bathe▁14118
frequent▁14119
▁projector▁14120
▁phosphorus▁14121
fest▁14122
▁phosphor▁14123
▁illogical▁14124
dispens▁14125
directional▁14126
▁mycorrhiza▁14127
millimeter▁14128
▁penetrat▁14129
solu▁14130
▁solu▁14131
▁dissolv▁14132
rghum▁14133
dose▁14134
▁diversif▁14135
▁Key▁14136
▁reef▁14137
▁overfish▁14138
▁overheat▁14139
▁Ches▁14140
peake▁14141
▁Indi▁14142
▁seaweed▁14143
▁Anti▁14144
▁embarrassment▁14145
quarium▁14146
▁Shop▁14147
▁Horror▁14148
▁droplet▁14149
▁acute▁14150
▁paradi▁14151
▁Britta▁14152
▁bulldoze▁14153
▁toast▁14154
▁bleach▁14155
oulette▁14156
▁Pick▁14157
▁OPEC▁14158
East▁14159
▁polic▁14160
▁Saudi▁14161
BP▁14162
competitive▁14163
▁Barnett▁14164
▁renewables▁14165
▁accent▁14166
▁aquifer▁14167
▁Og▁14168
arawa▁14169
▁BumpTop▁14170
▁browse▁14171
▁crease▁14172
▁Capital▁14173
▁pronunciation▁14174
kull▁14175
▁suffic▁14176
helm▁14177
ligence▁14178
▁spreadsheet▁14179
▁Viking▁14180
▁Reykjav▁14181
▁Vig▁14182
gado▁14183
▁contend▁14184
provok▁14185
ourself▁14186
▁Heart▁14187
▁Embrac▁14188
ivers▁14189
▁Mutter▁14190
angst▁14191
▁Dis▁14192
▁Rutan▁14193
▁Hous▁14194
▁regress▁14195
▁Lockheed▁14196
▁DC▁14197
ggie▁14198
rtiller▁14199
uz▁14200
Ship▁14201
One▁14202
▁airline▁14203
▁ellipti▁14204
▁billionaire▁14205
▁Musk▁14206
▁Branson▁14207
▁Bez▁14208
▁Carm▁14209
▁SR▁14210
71▁14211
▁capitalist▁14212
▁supersonic▁14213
▁cargo▁14214
▁Burch▁14215
▁accelerator▁14216
▁shave▁14217
▁Telescope▁14218
▁mir▁14219
▁streak▁14220
▁Larg▁14221
▁Hadron▁14222
Collider▁14223
▁exoskeleton▁14224
tun▁14225
machine▁14226
▁crave▁14227
▁perceptual▁14228
▁Laboratorie▁14229
▁lesion▁14230
▁Kirk▁14231
▁proficien▁14232
▁Margo▁14233
▁moratorium▁14234
▁Alaska▁14235
▁Mineral▁14236
▁Management▁14237
▁geopolitic▁14238
▁stew▁14239
▁carcinogen▁14240
isco▁14241
▁Prestige▁14242
▁vici▁14243
▁perverse▁14244
▁BP▁14245
▁shrine▁14246
▁gush▁14247
▁Beverl▁14248
bill▁14249
▁1870▁14250
▁proactive▁14251
▁Exxon▁14252
▁Valdez▁14253
▁Chad▁14254
▁Ahhh▁14255
▁sanctuar▁14256
▁refin▁14257
▁Transport▁14258
educ▁14259
▁Berner▁14260
Lee▁14261
▁memo▁14262
▁HTML▁14263
▁HTTP▁14264
RL▁14265
ague▁14266
▁grassroots▁14267
fetch▁14268
▁expresse▁14269
▁Data▁14270
▁sprout▁14271
▁Frei▁14272
pedia▁14273
▁OpenStreetMap▁14274
▁Wiki▁14275
▁Terra▁14276
▁Ludwi▁14277
▁jug▁14278
▁Limpopo▁14279
tete▁14280
▁sunbath▁14281
sache▁14282
▁gravel▁14283
▁accolade▁14284
▁Treasur▁14285
▁8-▁14286
▁headphone▁14287
▁Schafe▁14288
location▁14289
▁unhealth▁14290
▁irrit▁14291
▁soundscape▁14292
pulver▁14293
intensit▁14294
▁antidote▁14295
▁Eben▁14296
▁poisoning▁14297
▁offender▁14298
▁petrol▁14299
▁topsoil▁14300
▁chitin▁14301
▁insulat▁14302
▁Fortune▁14303
▁Kumar▁14304
seas▁14305
▁offshor▁14306
▁Flat▁14307
▁accountant▁14308
▁Hyderabad▁14309
▁industrie▁14310
▁Ast▁14311
▁subsidiar▁14312
▁outsourc▁14313
▁Technologie▁14314
locate▁14315
▁analyst▁14316
MT▁14317
5,000▁14318
▁Jod▁14319
RT▁14320
▁skeptical▁14321
▁Rang▁14322
▁Wang▁14323
▁Maa▁14324
▁authoritarian▁14325
▁Burmese▁14326
ampaign▁14327
▁IRA▁14328
aunch▁14329
▁Ton▁14330
ernstein▁14331
▁Architect▁14332
▁Jacob▁14333
▁Migration▁14334
▁flee▁14335
▁deplet▁14336
▁porch▁14337
▁relocate▁14338
▁Shin▁14339
oca▁14340
▁typolog▁14341
appropriate▁14342
▁prosper▁14343
▁reside▁14344
▁elevate▁14345
aswam▁14346
▁astrophysics▁14347
NK▁14348
▁pilgrim▁14349
▁Atacama▁14350
trepid▁14351
▁radioactiv▁14352
▁miner▁14353
▁candle▁14354
▁gigaton▁14355
ikal▁14356
▁Extreme▁14357
▁stratospher▁14358
▁Ice▁14359
Shelf▁14360
▁Terri▁14361
astery▁14362
▁juxtaposition▁14363
▁Shim▁14364
▁Schock▁14365
▁Rabin▁14366
▁barbed▁14367
▁Russ▁14368
psychopath▁14369
▁Arr▁14370
▁unconditional▁14371
▁underdog▁14372
izz▁14373
aka▁14374
bump▁14375
▁Kibbutz▁14376
▁marrow▁14377
▁Eure▁14378
▁Caf▁14379
▁coffeehouse▁14380
▁1650▁14381
▁Enlighten▁14382
▁flori▁14383
estero▁14384
▁incubator▁14385
▁DVR▁14386
urture▁14387
▁cobble▁14388
▁Malthus▁14389
▁Gruber▁14390
▁barricad▁14391
▁informal▁14392
ffenba▁14393
▁amplifie▁14394
▁MH▁14395
▁hoax▁14396
▁bleep▁14397
▁Doppler▁14398
IV▁14399
▁McCl▁14400
▁Hara▁14401
▁terabyte▁14402
▁modulate▁14403
▁spac▁14404
▁receiver▁14405
mplitude▁14406
▁RF▁14407
▁Traffic▁14408
regal▁14409
▁Wade▁14410
▁raisin▁14411
odd▁14412
▁arrogan▁14413
▁affectionate▁14414
verbal▁14415
▁posture▁14416
rogat▁14417
▁untouch▁14418
▁Shoot▁14419
▁Robben▁14420
▁Prison▁14421
▁Kraft▁14422
▁Marrow▁14423
▁pediatric▁14424
▁Jill▁14425
▁Bolt▁14426
▁catheter▁14427
▁contour▁14428
▁puncture▁14429
▁embryonic▁14430
▁neurolog▁14431
union▁14432
▁acquir▁14433
â▁14434
▁14435
▁14436
▁nein▁14437
▁4,▁14438
Vo▁14439
▁texting▁14440
▁advoca▁14441
▁LOL▁14442
▁3,3▁14443
index▁14444
▁pivot▁14445
▁Phil▁14446
▁tadpole▁14447
▁compensate▁14448
▁paycheck▁14449
▁Hendri▁14450
cumber▁14451
▁stump▁14452
balance▁14453
▁crest▁14454
▁Buckminster▁14455
atalog▁14456
▁MacCready▁14457
▁Aero▁14458
ironment▁14459
▁generator▁14460
▁Diane▁14461
▁anatomical▁14462
▁muscular▁14463
▁inflat▁14464
▁dissertation▁14465
▁skelet▁14466
▁copulat▁14467
static▁14468
▁spong▁14469
▁voil▁14470
▁wiggle▁14471
▁contraction▁14472
▁Anato▁14473
▁invertebrate▁14474
▁overstate▁14475
brand▁14476
▁Thailand▁14477
uzzle▁14478
ahn▁14479
▁0.0▁14480
▁WiFi▁14481
model▁14482
met▁14483
▁mechanistic▁14484
▁Under▁14485
▁Aye▁14486
bach▁14487
▁portal▁14488
reason▁14489
▁Freud▁14490
raxeolog▁14491
▁Physi▁14492
▁quarry▁14493
ewage▁14494
▁hatred▁14495
▁patriarch▁14496
stab▁14497
▁agnostic▁14498
▁egalitarian▁14499
▁bullie▁14500
grump▁14501
▁trembl▁14502
▁respective▁14503
▁Baldwin▁14504
▁Armen▁14505
▁prosecute▁14506
Arm▁14507
▁Ottoman▁14508
▁impersonat▁14509
▁Rumi▁14510
▁Tab▁14511
▁Sufi▁14512
▁Cheval▁14513
▁blush▁14514
▁Vermeer▁14515
ippe▁14516
▁earring▁14517
▁Goldilock▁14518
▁innocen▁14519
▁Tudor▁14520
▁VIII▁14521
▁glance▁14522
▁nickname▁14523
▁beatbox▁14524
♫▁14525
rque▁14526
▁Hund▁14527
▁Patriarch▁14528
▁Chaucer▁14529
propos▁14530
▁alienat▁14531
▁nominate▁14532
▁Palin▁14533
mbaugh▁14534
▁punchline▁14535
▁Daily▁14536
cumen▁14537
▁Pew▁14538
▁credi▁14539
▁doubl▁14540
▁misdirection▁14541
▁Hick▁14542
▁Ig▁14543
kno▁14544
▁Governor▁14545
▁Perry▁14546
▁Maya▁14547
▁reminisc▁14548
atchi▁14549
▁Algeria▁14550
▁Leg▁14551
anne▁14552
▁haiku▁14553
▁SM▁14554
beca▁14555
▁Festival▁14556
▁Katar▁14557
▁Pool▁14558
filter▁14559
rick▁14560
EC▁14561
HE▁14562
▁Scientolog▁14563
ruise▁14564
Space▁14565
▁sacrific▁14566
▁CP▁14567
topp▁14568
▁advanc▁14569
▁combinatori▁14570
exual▁14571
▁reciproc▁14572
sufficien▁14573
▁49▁14574
▁Versaille▁14575
▁bist▁14576
▁FO▁14577
distance▁14578
▁quarrie▁14579
▁Kalk▁14580
▁Tier▁14581
rger▁14582
einrich▁14583
Hertz▁14584
▁Tesla▁14585
oni▁14586
frequenc▁14587
▁sling▁14588
▁telephon▁14589
nsky▁14590
▁prosaic▁14591
▁resume▁14592
▁netter▁14593
▁au▁14594
rochs▁14595
cardo▁14596
▁thylacine▁14597
▁Phel▁14598
▁Direct▁14599
▁Shap▁14600
iro▁14601
▁reassemble▁14602
▁Multiple▁14603
▁Automat▁14604
creating▁14605
▁Henri▁14606
▁pronounce▁14607
▁primitiv▁14608
▁Fern▁14609
nde▁14610
▁Lanz▁14611
▁Java▁14612
▁pluripotent▁14613
▁ivory▁14614
▁eagle▁14615
▁captive▁14616
▁Zoo▁14617
▁Dia▁14618
▁tinker▁14619
▁Cru▁14620
▁woodpecker▁14621
▁Eskimo▁14622
▁torment▁14623
SB▁14624
▁Cesar▁14625
▁Fuku▁14626
shima▁14627
▁rudder▁14628
▁Protei▁14629
▁ballast▁14630
sequential▁14631
▁Kickstarter▁14632
ruct▁14633
▁Ein▁14634
▁Arduino▁14635
controller▁14636
▁teammate▁14637
▁axon▁14638
▁cortic▁14639
▁EEG▁14640
▁conductiv▁14641
rasio▁14642
▁fad▁14643
▁Prag▁14644
▁Kara▁14645
▁snapp▁14646
▁bobbin▁14647
▁quadriplegi▁14648
lance▁14649
Life▁14650
▁Gho▁14651
▁endowment▁14652
bald▁14653
▁assert▁14654
▁discretion▁14655
▁Viktor▁14656
▁Carne▁14657
▁diplomatic▁14658
▁idealis▁14659
▁Minist▁14660
-1▁14661
aeda▁14662
▁Special▁14663
▁escort▁14664
▁Marines▁14665
▁sabbatical▁14666
▁moan▁14667
▁Pac▁14668
▁Insider▁14669
ulp▁14670
▁Kosovar▁14671
▁Status▁14672
▁Diplomat▁14673
politik▁14674
Shabaab▁14675
▁militia▁14676
▁embodie▁14677
terstate▁14678
▁Kazak▁14679
▁Darfur▁14680
▁Ahmadine▁14681
lein▁14682
▁Alb▁14683
▁Bagh▁14684
▁Read▁14685
▁Pin▁14686
▁MA▁14687
trick▁14688
▁Condo▁14689
▁Maddie▁14690
▁Trini▁14691
▁Tobago▁14692
stein▁14693
▁Gil▁14694
Tric▁14695
▁pacemaker▁14696
▁coil▁14697
▁Investigat▁14698
▁resonant▁14699
similar▁14700
▁spectroscop▁14701
▁SETI▁14702
▁Lithium▁14703
▁Have▁14704
▁Floyd▁14705
▁spectrogra▁14706
▁extrasolar▁14707
▁spectra▁14708
▁Kelvin▁14709
▁Gib▁14710
▁Bas▁14711
▁interstellar▁14712
▁28.▁14713
▁Alpha▁14714
▁uranium▁14715
orium▁14716
otassium▁14717
▁Drake▁14718
▁UFO▁14719
▁rambl▁14720
feder▁14721
▁Boulevard▁14722
▁Schw▁14723
▁Eden▁14724
▁welcom▁14725
beat▁14726
▁Linda▁14727
▁Cow▁14728
▁glint▁14729
platin▁14730
▁Memori▁14731
▁Sloan▁14732
vascular▁14733
proving▁14734
▁cowboy▁14735
cker▁14736
aus▁14737
Levit▁14738
hem▁14739
▁hob▁14740
▁roommate▁14741
ibati▁14742
uru▁14743
▁marginaliz▁14744
▁eject▁14745
▁aerosol▁14746
▁oxide▁14747
RI▁14748
▁bore▁14749
▁altern▁14750
▁alternate▁14751
new▁14752
▁Pav▁14753
ona▁14754
clav▁14755
▁backdrop▁14756
▁transien▁14757
statt▁14758
koff▁14759
▁Report▁14760
▁Macintosh▁14761
▁capricious▁14762
▁salien▁14763
splitter▁14764
▁CAD▁14765
shadow▁14766
▁undertake▁14767
▁McDo▁14768
▁Minorit▁14769
▁gratifying▁14770
▁Environment▁14771
▁Becket▁14772
▁Ernst▁14773
▁tabu▁14774
PER▁14775
▁Ob▁14776
▁Jacques▁14777
95▁14778
zel▁14779
informati▁14780
▁Case▁14781
girl▁14782
▁Cash▁14783
▁Name▁14784
▁Sue▁14785
oohoo▁14786
▁Vase▁14787
▁Clooney▁14788
▁archeologist▁14789
▁Accenture▁14790
▁Irish▁14791
▁Elephant▁14792
▁insurgent▁14793
▁Emp▁14794
▁Kurd▁14795
▁crusade▁14796
▁patrioti▁14797
▁Dear▁14798
▁Ragh▁14799
▁KK▁14800
▁Kaesava▁14801
▁Reha▁14802
▁Az▁14803
eryl▁14804
hoose▁14805
iraj▁14806
▁Arav▁14807
▁Venkat▁14808
dominate▁14809
▁Tamil▁14810
▁consultation▁14811
▁Brillian▁14812
▁franchise▁14813
▁TR▁14814
▁gla▁14815
▁rupee▁14816
phthalm▁14817
▁complication▁14818
efficienc▁14819
▁decod▁14820
Monkey▁14821
▁Cage▁14822
▁typewriter▁14823
▁astrolog▁14824
▁banal▁14825
factor▁14826
ector▁14827
▁Archi▁14828
▁nihilis▁14829
▁404▁14830
▁cou▁14831
▁Kinect▁14832
▁skim▁14833
▁Athlet▁14834
▁Biblical▁14835
ainforest▁14836
▁Sabbat▁14837
▁homicide▁14838
▁Uniform▁14839
▁Statistic▁14840
▁precipitous▁14841
▁Associat▁14842
▁Press▁14843
pace▁14844
▁bluff▁14845
▁Pay▁14846
▁Singer▁14847
▁contingen▁14848
▁cyborg▁14849
▁wormhole▁14850
▁Liz▁14851
▁Donnell▁14852
▁heel▁14853
▁Arabia▁14854
▁Sko▁14855
▁Participa▁14856
▁Production▁14857
▁enigma▁14858
▁Nachtwey▁14859
▁Humanit▁14860
▁Rand▁14861
▁Omi▁14862
dyar▁14863
unus▁14864
▁scourge▁14865
▁Entrepreneur▁14866
▁carcass▁14867
▁Syrian▁14868
RD▁14869
gainst▁14870
▁Equ▁14871
▁Opportunit▁14872
▁Last▁14873
Barrel▁14874
▁Snow▁14875
▁2,3▁14876
▁Memoir▁14877
▁Ferris▁14878
=▁14879
misunderstanding▁14880
▁intergala▁14881
ncyclopedia▁14882
▁crystalliz▁14883
▁enchant▁14884
▁dorsal▁14885
▁antelope▁14886
ematode▁14887
▁quasi▁14888
phage▁14889
▁crevice▁14890
▁eukaryot▁14891
▁temptation▁14892
▁HIPPO▁14893
▁muss▁14894
▁Ghemawat▁14895
border▁14896
global▁14897
▁Livingston▁14898
3.0▁14899
▁acquaint▁14900
rance▁14901
▁exacerbate▁14902
heated▁14903
▁Relation▁14904
bias▁14905
▁Summi▁14906
▁shuffle▁14907
▁Bicycle▁14908
▁heap▁14909
▁Mandelbrot▁14910
▁blindfold▁14911
enhanc▁14912
▁Odysse▁14913
▁climax▁14914
▁Aldri▁14915
▁fak▁14916
inspiring▁14917
▁emoti▁14918
reviewe▁14919
▁messiani▁14920
▁Tahrir▁14921
▁reboot▁14922
oh▁14923
,2▁14924
▁1.2▁14925
▁inertia▁14926
▁Oslo▁14927
rahi▁14928
▁millennial▁14929
nim▁14930
▁Cairo▁14931
▁multitask▁14932
▁patroll▁14933
▁magnify▁14934
▁moist▁14935
▁slug▁14936
pick▁14937
▁patrol▁14938
▁groom▁14939
hazard▁14940
founder▁14941
commissione▁14942
▁BB▁14943
▁Pollock▁14944
xcuse▁14945
▁penguins▁14946
aca▁14947
▁Sopran▁14948
oyo▁14949
▁Rapa▁14950
▁digitiz▁14951
▁McN▁14952
▁reactors▁14953
▁meta▁14954
hili▁14955
▁Turbo▁14956
chef▁14957
▁calibrate▁14958
▁Foster▁14959
▁Tarter▁14960
▁Mesozoi▁14961
▁Orca▁14962
▁eng▁14963
▁denominator▁14964
▁Adrian▁14965
▁Kohle▁14966
▁puppeteer▁14967
▁Basil▁14968
▁astonishment▁14969
▁Faust▁14970
▁noun▁14971
▁canoe▁14972
▁Pun▁14973
▁Bam▁14974
▁Mali▁14975
▁Marionette▁14976
▁Tro▁14977
▁giraffe▁14978
▁stilt▁14979
▁Morris▁14980
▁Theatr▁14981
▁caval▁14982
▁Thy▁14983
▁Stand▁14984
erine▁14985
▁Tob▁14986
wick▁14987
▁fearful▁14988
▁Joa▁14989
▁Brett▁14990
popular▁14991
▁uneas▁14992
▁orthodox▁14993
▁sectarian▁14994
▁rabbi▁14995
▁Tora▁14996
▁contempt▁14997
egitimate▁14998
▁spectacle▁14999
religion▁15000
▁congregation▁15001
▁synagogue▁15002
transcendence▁15003
lliance▁15004
▁extremism▁15005
▁Sey▁15006
mour▁15007
▁temper▁15008
mode▁15009
osmos▁15010
▁Heid▁15011
▁OMG▁15012
▁Sensor▁15013
▁extrinsi▁15014
recogniti▁15015
▁Nin▁15016
▁Agu▁15017
▁aerodynamic▁15018
▁Lovegrove▁15019
▁swan▁15020
▁Hazle▁15021
▁disconcert▁15022
▁bestseller▁15023
▁fundamentalist▁15024
▁Shi▁15025
weh▁15026
Sinai▁15027
dence▁15028
▁Bedouin▁15029
▁Pra▁15030
israel▁15031
hypnoti▁15032
▁masculin▁15033
▁conquest▁15034
▁merci▁15035
flexible▁15036
▁Orient▁15037
▁swelling▁15038
ē▁15039
▁cradle▁15040
▁guardian▁15041
▁luggage▁15042
▁equitabl▁15043
▁Gau▁15044
▁nitr▁15045
▁Berk▁15046
▁Carpe▁15047
▁Nylon▁15048
▁Gap▁15049
▁Sound▁15050
▁Corbusier▁15051
▁Brut▁15052
▁NO▁15053
AA▁15054
climate▁15055
▁Crick▁15056
▁precondition▁15057
▁Birkenstock▁15058
▁4000▁15059
▁Biotech▁15060
▁Model▁15061
olyester▁15062
▁Rouge▁15063
aurus▁15064
▁Memo▁15065
▁Madam▁15066
Mart▁15067
▁Patrick▁15068
marke▁15069
▁catapult▁15070
▁presumption▁15071
▁dissident▁15072
▁surpass▁15073
▁margins▁15074
ilapi▁15075
▁headwind▁15076
▁Justi▁15077
▁Zambia▁15078
▁concussion▁15079
▁neuropsychologi▁15080
www▁15081
▁Vander▁15082
▁103▁15083
ggy▁15084
▁NFL▁15085
gov▁15086
▁Senator▁15087
▁Ke▁15088
▁legislator▁15089
quaint▁15090
routine▁15091
▁Form▁15092
replication▁15093
replicating▁15094
tig▁15095
▁Diagnos▁15096
typ▁15097
cose▁15098
▁HC▁15099
diagnose▁15100
▁surrogate▁15101
▁prick▁15102
-47▁15103
beater▁15104
fug▁15105
▁spec▁15106
▁Patent▁15107
▁UNITA▁15108
nthia▁15109
▁Schneider▁15110
▁Idol▁15111
TV▁15112
▁Talent▁15113
▁allegiance▁15114
▁confi▁15115
▁Jah▁15116
▁Danny▁15117
▁Hillis▁15118
▁restructur▁15119
sustain▁15120
▁ubiquit▁15121
▁fission▁15122
tung▁15123
200▁15124
▁violinist▁15125
▁Finger▁15126
▁wann▁15127
▁Randi▁15128
▁Ama▁15129
▁Alphabet▁15130
▁Movember▁15131
▁slang▁15132
hav▁15133
▁legitimize▁15134
▁Prostat▁15135
conservative▁15136
▁Brew▁15137
▁Bro▁15138
▁77▁15139
mahl▁15140
▁traumatic▁15141
▁Mond▁15142
▁traumatiz▁15143
▁repressive▁15144
▁Hazar▁15145
▁Brenda▁15146
▁AAA▁15147
▁Wii▁15148
▁Monopoly▁15149
▁Zig▁15150
▁Reservat▁15151
▁Maezza▁15152
▁Mommy▁15153
▁Mont▁15154
▁Ava▁15155
chen▁15156
▁niece▁15157
▁Agent▁15158
▁mitigate▁15159
▁Extrem▁15160
▁grill▁15161
▁strawberr▁15162
▁Eat▁15163
private▁15164
▁Lunch▁15165
▁Program▁15166
▁19-▁15167
▁Fabian▁15168
▁psychedeli▁15169
▁Phantom▁15170
rofluid▁15171
▁Flynn▁15172
▁Martian▁15173
▁Luri▁15174
▁specula▁15175
▁Such▁15176
▁1910▁15177
Wechs▁15178
▁Raven▁15179
▁Progress▁15180
munition▁15181
▁Curz▁15182
▁Rudy▁15183
▁Kipling▁15184
Grad▁15185
▁Bernoulli▁15186
▁estimat▁15187
letter▁15188
▁Ring▁15189
▁tornado▁15190
▁Asthma▁15191
schmuck▁15192
orbit▁15193
▁Spam▁15194
,900▁15195
▁coupon▁15196
▁slee▁15197
▁troubling▁15198
▁fiddle▁15199
▁reced▁15200
▁overestimate▁15201
▁seatbelt▁15202
▁Terror▁15203
▁Leonard▁15204
▁Susskind▁15205
▁irreveren▁15206
▁Coleman▁15207
▁Les▁15208
▁hyp▁15209
▁sexist▁15210
▁calculus▁15211
▁Wilkins▁15212
▁gradient▁15213
▁fluke▁15214
▁sentenc▁15215
▁Donne▁15216
▁junior▁15217
eval▁15218
▁cortiso▁15219
▁cardio▁15220
▁Andr▁15221
▁batch▁15222
▁opa▁15223
▁Sear▁15224
▁256▁15225
▁Send▁15226
hil▁15227
▁Mulla▁15228
athan▁15229
consistent▁15230
▁persuasion▁15231
▁Positive▁15232
▁Niss▁15233
volume▁15234
mission▁15235
▁Bris▁15236
bane▁15237
▁Region▁15238
▁scaling▁15239
▁additive▁15240
▁1.0▁15241
▁Bots▁15242
queak▁15243
▁tee▁15244
▁Whip▁15245
Car▁15246
Dog▁15247
▁SuperRabbit▁15248
▁Ikea▁15249
Internet▁15250
▁guise▁15251
▁breadth▁15252
▁dashboard▁15253
▁Connect▁15254
verflow▁15255
▁Libeskind▁15256
▁underlie▁15257
▁improbabilit▁15258
espresso▁15259
▁neu▁15260
▁abyss▁15261
▁inexplicabl▁15262
▁obscur▁15263
vasion▁15264
▁habitual▁15265
focal▁15266
▁pluralist▁15267
▁cantilever▁15268
▁skyline▁15269
▁omnivore▁15270
▁Turner▁15271
▁McEw▁15272
▁Stephan▁15273
▁Judg▁15274
▁20.▁15275
▁23.▁15276
▁seismi▁15277
▁saddle▁15278
▁Lang▁15279
▁predicat▁15280
▁Ballet▁15281
▁Dance▁15282
▁uninform▁15283
▁empath▁15284
▁Charit▁15285
iff▁15286
gett▁15287
▁Ramanujan▁15288
▁Kurzweil▁15289
▁Niels▁15290
unter▁15291
▁preconce▁15292
▁recline▁15293
▁wristwatch▁15294
▁headrest▁15295
▁crania▁15296
▁compel▁15297
▁EV▁15298
▁Farmville▁15299
▁calibrat▁15300
game▁15301
▁Jesse▁15302
▁increment▁15303
▁collaborat▁15304
▁uncertain▁15305
▁Nak▁15306
orado▁15307
▁Kahn▁15308
alt▁15309
▁Close▁15310
▁Agra▁15311
▁Entertainment▁15312
rawak▁15313
▁pictograph▁15314
▁Stygi▁15315
▁Havan▁15316
▁nap▁15317
▁Kal▁15318
▁perimeter▁15319
▁yo▁15320
▁Hondura▁15321
▁Corp▁15322
▁Machiavelli▁15323
▁hmm▁15324
▁ging▁15325
▁psychopath▁15326
▁Lizzi▁15327
▁Strang▁15328
great▁15329
cide▁15330
▁pussy▁15331
▁doubling▁15332
▁Race▁15333
▁0.8▁15334
▁scrub▁15335
ails▁15336
DOS▁15337
▁telemet▁15338
▁Babel▁15339
▁arrogant▁15340
▁splendid▁15341
▁rigg▁15342
▁circus▁15343
▁arrowhead▁15344
▁stabbe▁15345
▁Papua▁15346
▁eavesdrop▁15347
taste▁15348
▁Denisova▁15349
▁blackboard▁15350
▁destiny▁15351
vante▁15352
▁Ferrari▁15353
▁MR▁15354
▁spe▁15355
▁Statue▁15356
▁nickel▁15357
▁misuse▁15358
▁cocaine▁15359
▁augmentation▁15360
▁Barbie▁15361
▁Smil▁15362
▁discontinuit▁15363
▁converg▁15364
▁trumpet▁15365
▁latch▁15366
▁influenza▁15367
▁Gibra▁15368
ltar▁15369
▁Barber▁15370
quisition▁15371
▁Elio▁15372
▁Alien▁15373
▁buoyan▁15374
▁unmann▁15375
▁Krishna▁15376
▁rescu▁15377
▁Pranitha▁15378
▁3,2▁15379
rrh▁15380
▁mason▁15381
heng▁15382
▁stifle▁15383
▁Dhara▁15384
▁evict▁15385
▁Singh▁15386
▁revert▁15387
▁Guangdong▁15388
▁Provin▁15389
▁overtake▁15390
▁privatiz▁15391
▁NBA▁15392
▁Reuters▁15393
▁zap▁15394
▁venom▁15395
▁conspicuous▁15396
▁HD▁15397
▁hedoni▁15398
▁altruist▁15399
▁cru▁15400
orthogonal▁15401
sprung▁15402
job▁15403
materiali▁15404
▁Prosper▁15405
▁Grow▁15406
▁Kiran▁15407
▁gangster▁15408
pass▁15409
orruption▁15410
▁Conne▁15411
▁TEDxR▁15412
Prince▁15413
▁torrent▁15414
appers▁15415
à▁15416
▁Respons▁15417
[...]
