<pad>~~0
<unk>~~1
<s>~~2
</s>~~3
▁David~~4
▁Gallo~~5
▁über~~6
▁das~~7
▁Leben~~8
▁in~~9
▁der~~10
▁Tiefe~~11
▁des~~12
▁Meeres~~13
▁TED~~14
▁Talk~~15
▁Subti~~16
tles~~17
▁and~~18
▁T~~19
ranscript~~20
▁:~~21
▁mit~~22
▁Hilfe~~23
▁von~~24
▁lebendig~~25
en~~26
▁Videos~~27
▁,~~28
▁die~~29
▁Unter~~30
see~~31
boote~~32
n~~33
▁gemacht~~34
▁wurden~~35
▁führt~~36
▁uns~~37
▁zu~~38
▁den~~39
▁dunkelste~~40
▁gefährlichste~~41
▁giftig~~42
sten~~43
▁und~~44
▁schönste~~45
▁Lebensräume~~46
▁Erde~~47
▁Täler~~48
▁vulkanische~~49
▁Höhen~~50
züge~~51
▁Ozeane~~52
▁wo~~53
▁bizarr~~54
▁ist~~55
▁~~56
widerstandsfähig~~57
▁erschreckend~~58
▁vielfältig~~59
▁.~~60
▁Bill~~61
▁Lange~~62
▁ich~~63
▁bin~~64
▁Dave~~65
▁wir~~66
▁werden~~67
▁Ihnen~~68
▁einige~~69
▁Geschichten~~70
▁Meer~~71
▁Video~~72
form~~73
▁erzählen~~74
▁haben~~75
▁ein~~76
▁paar~~77
▁unglaublichste~~78
▁Aufnahmen~~79
▁Titanic~~80
▁man~~81
▁je~~82
▁gesehen~~83
▁hat~~84
▁nichts~~85
▁davon~~86
▁zeigen~~87
▁Wahrheit~~88
▁dass~~89
▁-~~90
▁ob~~91
wohl~~92
▁sie~~93
▁alle~~94
▁Kino~~95
k~~96
assen~~97
rekorde~~98
bricht~~99
▁nicht~~100
▁gerade~~101
▁aufregendste~~102
▁Geschichte~~103
▁vom~~104
▁denke~~105
▁Problem~~106
▁für~~107
▁selbst~~108
verständlich~~109
▁halten~~110
▁wenn~~111
▁darüber~~112
▁nachdenk~~113
t~~114
▁machen~~115
▁75~~116
%~~117
▁Planeten~~118
▁aus~~119
▁Großteil~~120
▁Meerwasser~~121
durchschnittlich~~122
e~~123
▁etwa~~124
▁3~~125
▁Kilometer~~126
▁Teil~~127
s~~128
▁am~~129
▁Strand~~130
▁stehen~~131
▁oder~~132
▁Bilder~~133
▁wie~~134
▁diese~~135
▁hier~~136
▁sehen~~137
▁auf~~138
▁riesige~~139
▁blaue~~140
▁Weite~~141
▁schauen~~142
▁sch~~143
immer~~144
▁bewegt~~145
▁sich~~146
▁es~~147
▁gibt~~148
▁Wellen~~149
▁Brand~~150
ung~~151
▁Gezeiten~~152
▁aber~~153
▁keine~~154
▁Ahnung~~155
▁was~~156
▁darin~~157
▁verborgen~~158
▁Ozean~~159
▁befinde~~160
▁längste~~161
▁Gebirgs~~162
▁meisten~~163
▁Tiere~~164
▁leben~~165
▁Erdbeben~~166
▁Vulkan~~167
ausbrüche~~168
▁spielt~~169
▁im~~170
▁ab~~171
▁Meeresboden~~172
▁an~~173
▁einigen~~174
▁Stellen~~175
▁Vielfa~~176
lt~~177
▁Dichte~~178
▁Lebens~~179
▁höher~~180
▁als~~181
▁Regenwälder~~182
▁meiste~~183
▁unerforscht~~184
▁doch~~185
▁Schönheit~~186
▁fesseln~~187
▁vertraut~~188
er~~189
▁ihm~~190
▁Sie~~191
▁möchte~~192
▁vorstellen~~193
▁Grenze~~194
▁einer~~195
▁unbekannte~~196
▁Welt~~197
▁müssen~~198
▁schon~~199
▁sehr~~200
▁spezielle~~201
▁Technik~~202
▁bediene~~203
▁um~~204
▁vorzu~~205
dringen~~206
▁benutzen~~207
boot~~208
▁Al~~209
vin~~210
▁Kameras~~211
▁Sony~~212
▁entwickelt~~213
▁Marcel~~214
▁Pro~~215
us~~216
▁einmal~~217
▁gesagt~~218
▁&~~219
quot~~220
;~~221
▁wahre~~222
▁Entdeckung~~223
sreise~~224
▁besteht~~225
▁neue~~226
▁Länder~~227
▁sucht~~228
▁sondern~~229
▁Augen~~230
▁Menschen~~231
▁zusammen~~232
gearbeitet~~233
▁gab~~234
▁nur~~235
▁existiert~~236
▁neuen~~237
▁dem~~238
▁auch~~239
m~~240
▁nachzudenken~~241
▁We~~242
icht~~243
ier~~244
▁meiner~~245
▁Liebling~~246
▁weil~~247
▁möglich~~248
▁Funktion~~249
teile~~250
▁Wesen~~251
▁erwiesen~~252
▁wird~~253
▁bis~~254
▁50~~255
▁Meter~~256
▁lang~~257
▁all~~258
▁unterschiedlich~~259
▁Teile~~260
▁?~~261
▁so~~262
▁mag~~263
▁Fisch~~264
öde~~265
r~~266
seite~~267
▁bewegen~~268
▁Tentakel~~269
▁herumschwirr~~270
▁eine~~271
▁Kolonie~~272
▁Tieren~~273
▁sind~~274
▁alles~~275
▁einzelne~~276
▁Lebewesen~~277
▁einen~~278
▁Organism~~279
▁zusammenschließ~~280
▁vorne~~281
▁Antrieb~~282
d~~283
ü~~284
▁gleich~~285
▁benutzt~~286
▁kleine~~287
▁Licht~~288
▁großen~~289
▁Fische~~290
schule~~291
nimmt~~292
▁Seite~~293
▁Waage~~294
▁legt~~295
ich~~296
tiere~~297
▁andere~~298
▁gewinnen~~299
haus~~300
hoch~~301
▁Biomasse~~302
▁Geschöpfe~~303
X~~304
-~~305
W~~306
ing~~307
T~~308
ode~~309
▁Biolumineszenz~~310
▁Geschlecht~~311
spartner~~312
▁anzu~~313
locken~~314
▁Beute~~315
▁k~~316
▁zur~~317
▁Verständig~~318
▁hätten~~319
▁nie~~320
mals~~321
▁Zeit~~322
▁unser~~323
▁Archiv~~324
material~~325
ieren~~326
▁Größen~~327
▁Formen~~328
▁vergessen~~329
▁leicht~~330
▁mehrere~~331
▁tief~~332
▁wirklich~~333
▁kennen~~334
▁obere~~335
▁hundert~~336
▁Metern~~337
▁zwischen~~338
▁dort~~339
▁lebt~~340
▁Tierart~~341
▁einem~~342
▁dreidimensional~~343
▁Raum~~344
▁Mikro~~345
g~~346
avi~~347
ation~~348
sraum~~349
▁überhaupt~~350
▁noch~~351
▁erforscht~~352
▁hört~~353
▁Riesenkalmar~~354
▁dieser~~355
▁weiß~~356
▁wenig~~357
DG~~358
▁ihn~~359
▁unserer~~360
▁denn~~361
▁kleiner~~362
▁Oktopus~~363
▁kann~~364
▁tatsächlich~~365
▁durch~~366
▁Kopf~~367
▁guck~~368
▁wackelt~~369
▁er~~370
▁Ohren~~371
steigt~~372
▁anmutig~~373
▁nach~~374
▁oben~~375
▁finden~~376
▁Tiefen~~377
▁sogar~~378
▁tiefste~~379
▁Zentimeter~~380
▁hin~~381
▁kommen~~382
▁U~~383
Boot~~384
▁heran~~385
▁Fenster~~386
▁eigene~~387
▁zwei~~388
▁Fall~~389
mitte~~390
▁unten~~391
▁solche~~392
▁Kreatur~~393
▁Art~~394
▁Unterwasser~~395
H~~396
ahn~~397
▁irgendwie~~398
▁unglaublich~~399
▁för~~400
mlich~~401
▁aussieh~~402
▁Gesicht~~403
!~~404
▁Grunde~~405
▁wissen~~406
schaftliche~~407
▁Daten~~408
▁Forschungs~~409
zwecken~~410
▁macht~~411
▁Wissenschaftler~~412
▁ersten~~413
▁diesen~~414
▁versorgen~~415
▁ihrer~~416
▁natürlich~~417
▁Umgebung~~418
fangen~~419
▁Netz~~420
▁da~~421
▁nehmen~~422
▁Joystick~~423
▁sitzen~~424
▁vor~~425
▁unsere~~426
▁Computer~~427
▁Land~~428
▁drücken~~429
▁fliegen~~430
mittelozeanische~~431
▁Rücken~~432
▁ansehe~~433
▁64~~434
.000~~435
▁Gebirgszug~~436
▁Gipfel~~437
▁2,5~~438
▁jetzt~~439
▁Atlantik~~440
▁Karibik~~441
▁Mittel~~442
amerika~~443
▁überqueren~~444
▁Pazifik~~445
▁ankommen~~446
▁neun~~447
▁Grad~~448
▁nördlich~~449
▁Breite~~450
erstellen~~451
▁Karten~~452
▁Schall~~453
▁Sona~~454
▁bieg~~455
▁Klippe~~456
▁rechts~~457
▁Höhe~~458
▁Berge~~459
▁beide~~460
▁Seiten~~461
▁Tal~~462
▁größer~~463
▁Alp~~464
▁Fälle~~465
▁zehntausende~~466
▁Bergen~~467
▁d~~468
raußen~~469
▁keiner~~470
▁Karte~~471
▁verzeichnet~~472
▁tauchen~~473
▁immer~~474
▁tiefer~~475
schließlich~~476
▁Bild~~477
▁unseres~~478
▁Roboter~~479
▁heiß~~480
▁Ja~~481
son~~482
▁Headset~~483
▁ohne~~484
ver~~485
z~~486
ö~~487
ger~~488
▁herum~~489
fahren~~490
▁lassen~~491
▁unter~~492
▁versuchen~~493
▁unseren~~494
▁Partner~~495
▁bei~~496
▁Woods~~497
▁Hole~~498
▁virtuelle~~499
▁Gebiet~~500
▁Labor~~501
▁holen~~502
▁bisher~~503
stück~~504
weise~~505
▁e~~506
ntweder~~507
▁Geräusch~~508
▁war~~509
▁Fotos~~510
▁chemische~~511
▁Sensoren~~512
▁interessant~~513
▁zusammengesetzt~~514
▁bri~~515
ll~~516
▁richtig~~517
▁nenn~~518
▁hydrothermal~~519
Q~~520
uelle~~521
ht~~522
▁Wolke~~523
▁dichte~~524
▁hydrogen~~525
ul~~526
fi~~527
reiche~~528
▁Wasser~~529
▁Längs~~530
achse~~531
▁tritt~~532
▁300~~533
▁Cel~~534
ius~~535
▁also~~536
▁drei~~537
▁vier~~538
▁wussten~~539
▁bereits~~540
▁60~~541
ern~~542
▁70~~543
▁v~~544
kan~~545
isch~~546
▁damit~~547
▁hatten~~548
▁Hinweis~~549
uellen~~550
▁entlang~~551
▁Achse~~552
ismus~~553
▁dring~~554
▁Spalte~~555
▁triff~~556
▁Mag~~557
ma~~558
den~~559
▁wieder~~560
▁bewusst~~561
▁reich~~562
▁H~~563
y~~564
ogen~~565
▁Dinger~~566
▁Schornsteine~~567
▁nennen~~568
▁heiße~~569
▁liegen~~570
▁Gegend~~571
▁dramatisch~~572
▁BL~~573
▁Weiße~~574
▁Bakterien~~575
art~~576
▁180~~577
▁gedeih~~578
▁finde~~579
▁größten~~580
▁Meeresgrund~~581
▁entdecken~~582
▁Erste~~583
aus~~584
bruch~~585
▁lange~~586
▁gefragt~~587
gekommen~~588
▁inzwischen~~589
▁he~~590
rausgefunden~~591
▁wahrscheinlich~~592
▁Erd~~593
inner~~594
▁gekommen~~595
gestoßen~~596
▁Bio~~597
gen~~598
ese~~599
▁unterstützen~~600
▁Kolonien~~601
▁Druck~~602
▁beträgt~~603
▁800~~604
▁kg~~605
▁pro~~606
uadratzentimeter~~607
▁5~~608
▁Oberfläche~~609
▁kein~~610
▁Sonnenstrahl~~611
▁hierher~~612
▁vorge~~613
rung~~614
▁ganze~~615
▁Energie~~616
▁antreib~~617
▁kommt~~618
▁Chemo~~619
the~~620
▁dicht~~621
▁Röhrenwürmer~~622
▁Würmer~~623
▁Verdauung~~624
ssystem~~625
▁Mund~~626
▁Arten~~627
▁Kiemen~~628
struktur~~629
▁Auf~~630
nehmen~~631
▁Sauerstoff~~632
▁beherbergt~~633
▁chemosyntheti~~634
schen~~635
▁Flüssigkeit~~636
▁Boden~~637
▁schießen~~638
▁sahen~~639
▁einfache~~640
▁Zucker~~641
▁verwandelt~~642
▁Röhren~~643
wurm~~644
▁verdau~~645
▁können~~646
▁Krabbe~~647
▁Stück~~648
▁fassen~~649
▁ge~~650
kriegt~~651
▁normal~~652
erweise~~653
▁ziehen~~654
▁zurück~~655
bald~~656
▁berührt~~657
▁Oh~~658
▁gut~~659
▁Versuch~~660
▁ihre~~661
▁Schale~~662
▁Finger~~663
nägel~~664
▁ganz~~665
▁komplexe~~666
▁erst~~667
▁verstehen~~668
▁beginnen~~669
▁dank~~670
▁Kamera~~671
technologie~~672
▁echte~~673
▁Temperatur~~674
E~~675
x~~676
re~~677
▁Füße~~678
▁200~~679
▁Köpfe~~680
▁kalt~~681
▁Ihre~~682
▁Hand~~683
▁kochen~~684
▁Fuß~~685
▁Eis~~686
wasser~~687
▁gefällt~~688
▁Weibchen~~689
▁Wurm~~690
▁Männchen~~691
▁dauert~~692
▁drübe~~693
▁kämpfen~~694
▁anfange~~695
▁findet~~696
▁Fin~~697
ternis~~698
▁Tiefsee~~699
▁statt~~700
▁Lichtquelle~~701
▁außer~~702
bringen~~703
▁geht~~704
apos~~705
▁los~~706
▁letzten~~707
▁Tauchgänge~~708
▁Bereichen~~709
zählt~~710
▁198~~711
▁waren~~712
▁neu~~713
▁Probleme~~714
▁Biologe~~715
▁Lebensraum~~716
▁befasse~~717
▁Sammel~~718
▁lösen~~719
▁Weg~~720
▁wichtig~~721
▁Wissenschaft~~722
▁Kilometern~~723
verhältnisse~~724
▁erstaunlich~~725
▁existieren~~726
▁groß~~727
▁genug~~728
▁leere~~729
▁Cola~~730
dose~~731
▁zerquetsch~~732
▁größere~~733
▁Garnele~~734
▁armen~~735
▁Klein~~736
▁belästigen~~737
schläg~~738
▁seiner~~739
▁K~~740
la~~741
ue~~742
▁zack~~743
▁gleichzeitig~~744
▁geschieht~~745
▁suchen~~746
▁Nahrung~~747
▁seltsame~~748
▁Bakterium~~749
▁abzu~~750
ernte~~751
▁Krabben~~752
▁gar~~753
▁Fä~~754
▁bestehen~~755
▁Stoff~~756
▁produziert~~757
▁sorgen~~758
▁Haar~~759
wuchs~~760
▁Hintergrund~~761
▁rote~~762
▁Punkt~~763
▁Laserstrahl~~764
Boote~~765
▁zeigt~~766
▁weit~~767
▁entfernt~~768
treten~~769
klammer~~770
▁Fels~~771
▁kratzen~~772
▁winzig~~773
▁Säule~~774
▁Säulen~~775
▁Stockwerke~~776
▁hoch~~777
▁fremdartig~~778
▁Landschaft~~779
▁heißen~~780
▁merkwürdig~~781
▁bewohnt~~782
▁brauchen~~783
▁Sonne~~784
förmige~~785
▁Stelle~~786
lichtempfindlich~~787
es~~788
▁Organ~~789
▁geben~~790
▁Wärme~~791
strahlung~~792
▁Infrarot~~793
S~~794
ig~~795
atur~~796
▁recht~~797
▁große~~798
▁Entfernung~~799
▁13~~800
band~~801
heute~~802
▁Augenblick~~803
▁entsteh~~804
▁Aktivität~~805
▁erste~~806
▁Mal~~807
▁irgendwo~~808
▁ausprobiert~~809
▁HD~~810
▁steigen~~811
▁ihr~~812
▁Innere~~813
▁viele~~814
▁verschiedene~~815
▁bildet~~816
▁lustige~~817
▁Platte~~818
strömt~~819
▁Behausung~~820
▁näher~~821
▁Gemeinschaft~~822
▁dran~~823
▁kleinere~~824
▁kriech~~825
▁Pa~~826
go~~827
▁toll~~828
krieg~~829
▁mich~~830
▁voll~~831
qua~~832
lm~~833
▁übrigen~~834
▁Zeug~~835
gift~~836
▁würde~~837
▁Erlaub~~838
nis~~839
▁bekommen~~840
▁ver~~841
klappen~~842
▁Schwefel~~843
säure~~844
▁Mengen~~845
▁freigesetzt~~846
▁gedeihen~~847
▁eben~~848
falls~~849
▁vermutlich~~850
▁gesprochen~~851
▁einfachste~~852
▁bekannte~~853
▁Lebensform~~854
▁Reihe~~855
▁These~~856
▁vertreten~~857
▁entstanden~~858
▁sei~~859
▁vielleicht~~860
▁zehn~~861
▁Jahre~~862
Ö~~863
kosystem~~864
▁seit~~865
▁Millionen~~866
▁Milliarden~~867
▁Jahren~~868
▁stabil~~869
▁funktioniert~~870
▁drin~~871
sitzt~~872
▁Schere~~873
▁genau~~874
▁Ende~~875
▁dar~~876
auf~~877
▁wartet~~878
▁sein~~879
▁heraus~~880
st~~881
ck~~882
▁erklären~~883
um~~884
▁aktiv~~885
▁wachsen~~886
▁Woche~~887
▁sagte~~888
▁menschlicher~~889
▁Sicht~~890
▁to~~891
▁Hölle~~892
▁obendr~~893
ein~~894
▁stellt~~895
▁Lebensader~~896
▁Ent~~897
wässerung~~898
▁ungefähr~~899
▁jedes~~900
▁Jahr~~901
system~~902
▁Betrieb~~903
▁muss~~904
ziehen~~905
▁dann~~906
▁fünf~~907
▁völlig~~908
▁zerstören~~909
▁nichtsdesto~~910
trotz~~911
▁Regenwald~~912
▁einfach~~913
▁auftaucht~~914
▁empfindlich~~915
▁ja~~916
▁zerbrechlich~~917
▁nein~~918
▁sonderlich~~919
▁zum~~920
▁Schluss~~921
▁sagen~~922
▁Sediment~~923
▁Felsen~~924
▁unglaubliche~~925
▁Vergangenheit~~926
▁Aufzeichnung~~927
geschichte~~928
▁Zykl~~929
▁Rhythm~~930
▁Kontinente~~931
▁entfern~~932
▁voneinander~~933
▁rück~~934
▁gehen~~935
Gebirge~~936
▁Gletscher~~937
▁El~~938
▁Ni~~939
ñ~~940
o~~941
▁Desaster~~942
▁Rhythmus~~943
▁fast~~944
▁Sin~~945
f~~946
onie~~947
▁Musik~~948
▁darau~~949
▁lernen~~950
▁zuhören~~951
▁halt~~952
▁wollen~~953
▁Note~~954
▁morgen~~955
▁gleiche~~956
▁absurd~~957
▁herauszufinden~~958
▁wohin~~959
▁Planet~~960
▁treib~~961
▁darauf~~962
▁einzustellen~~963
▁umzu~~964
gehen~~965
▁Konzept~~966
▁Bestand~~967
be~~968
w~~969
ahr~~970
▁zwecklos~~971
▁Naturschutz~~972
▁schwieriger~~973
▁schaffen~~974
▁Dank~~975
▁danke~~976
▁Steve~~977
▁Keil~~978
▁Manifest~~979
▁Spielen~~980
▁Bulgari~~981
▁hinaus~~982
▁TEDxB~~983
G~~984
▁So~~985
a~~986
▁kämpft~~987
▁seriöse~~988
▁Meme~~989
▁Z~~990
uhause~~991
▁infiziert~~992
▁--~~993
ruft~~994
▁Wirtschaft~~995
▁Ausbildung~~996
▁Gesellschaft~~997
▁wiederzu~~998
beleben~~999
▁packen~~1000
der~~1001
▁Vortrag~~1002
▁universal~~1003
▁Meldung~~1004
▁Arbeitsplätze~~1005
▁Schulen~~1006
▁erfinden~~1007
▁Revolution~~1008
▁starten~~1009
▁bevor~~1010
▁Ihr~~1011
▁Gewehr~~1012
▁just~~1013
▁singen~~1014
▁Lieblings~~1015
farbe~~1016
▁auswähle~~1017
▁will~~1018
▁definieren~~1019
▁Meinung~~1020
▁radikaler~~1021
greifen~~1022
▁Wandel~~1023
▁Denken~~1024
▁Verhalten~~1025
▁denken~~1026
▁verhalten~~1027
▁Lage~~1028
▁schlecht~~1029
▁traurig~~1030
▁Nase~~1031
▁hab~~1032
▁Potenzial~~1033
▁nutzen~~1034
▁Platz~~1035
▁Beispiel~~1036
▁soziale~~1037
▁Bedingung~~1038
▁Europa~~1039
▁Bereich~~1040
▁Innovation~~1041
▁Tabelle~~1042
▁Kultur~~1043
▁schätzt~~1044
▁Gesundheit~~1045
▁Wohlbefinden~~1046
▁letzte~~1047
▁E~~1048
.~~1049
U~~1050
▁Schlechte~~1051
▁Magazin~~1052
▁Economi~~1053
▁Wochen~~1054
▁berichtet~~1055
▁gelesen~~1056
▁traurigste~~1057
▁Nation~~1058
▁relativ~~1059
▁BIP~~1060
▁per~~1061
▁Einwohner~~1062
▁Sozial~~1063
bereich~~1064
▁welche~~1065
▁anderen~~1066
▁Bericht~~1067
▁OECD~~1068
▁Lesen~~1069
▁Mathe~~1070
▁Unternehmen~~1071
▁niedrigste~~1072
▁Auffassung~~1073
▁Unternehmer~~1074
▁Vorteile~~1075
▁verschaffen~~1076
▁geschehe~~1077
▁Prozent~~1078
satz~~1079
▁Geschäft~~1080
▁Motor~~1081
▁Angestellte~~1082
▁produzieren~~1083
▁Gebühren~~1084
▁kaputt~~1085
▁Folgen~~1086
bezüglich~~1087
▁überraschend~~1088
▁62~~1089
▁Bulgare~~1090
▁optimistisch~~1091
▁Zukunft~~1092
▁schlechte~~1093
▁schwächste~~1094
▁Tatsachen~~1095
▁Märchen~~1096
▁phantasie~~1097
▁Verschwörung~~1098
▁gegen~~1099
▁glaube~~1100
▁soll~~1101
▁klar~~1102
▁System~~1103
▁Bessere~~1104
▁verwandeln~~1105
▁Freunde~~1106
▁Familie~~1107
▁geschah~~1108
▁unangenehm~~1109
▁euch~~1110
▁be~~1111
hindern~~1112
▁Lust~~1113
▁habe~~1114
▁falls~~1115
▁jemand~~1116
▁erinnern~~1117
▁Bab~~1118
ies~~1119
▁spielen~~1120
▁Kinder~~1121
▁Erwachsene~~1122
▁schätzen~~1123
▁wert~~1124
▁Bereiche~~1125
▁sozial~~1126
▁45~~1127
▁Kommun~~1128
▁Staat~~1129
▁mehr~~1130
▁acht~~1131
▁Einzelperson~~1132
▁quetsch~~1133
▁versehentlich~~1134
▁Kreativität~~1135
▁individuelle~~1136
▁Selbst~~1137
ausdruck~~1138
dessen~~1139
▁worauf~~1140
▁legen~~1141
▁Wert~~1142
▁bekannt~~1143
▁Weise~~1144
▁Wissen~~1145
▁gebrauche~~1146
generieren~~1147
▁I~~1148
titution~~1149
al~~1150
kontext~~1151
▁betroffen~~1152
▁gelehrt~~1153
▁ernst~~1154
▁passiert~~1155
▁Male~~1156
▁beschimpft~~1157
▁geworden~~1158
▁meine~~1159
▁lasse~~1160
▁Gott~~1161
▁bewahre~~1162
▁Schlamm~~1163
▁Pfütze~~1164
▁töten~~1165
▁Großmütter~~1166
▁Großväter~~1167
▁berate~~1168
▁worden~~1169
▁viel~~1170
▁sollen~~1171
▁erzogen~~1172
▁durchlaufen~~1173
des~~1174
▁Gen~~1175
▁seriös~~1176
▁verursachte~~1177
▁Entsteh~~1178
▁Großmutter~~1179
faktor~~1180
▁Schritt~~1181
▁Frau~~1182
▁sagt~~1183
▁Ich~~1184
▁Baby~~1185
▁kriegen~~1186
▁Woohoo~~1187
▁passier~~1188
▁arbeiten~~1189
▁Kar~~1190
ie~~1191
▁fördern~~1192
▁Kaffee~~1193
▁trink~~1194
▁mein~~1195
▁daran~~1196
▁Virus~~1197
▁weiter~~1198
▁verloren~~1199
▁Sequoia~~1200
▁veraltet~~1201
▁100~~1202
▁verändert~~1203
▁A~~1204
uswendig~~1205
lernen~~1206
▁Standard~~1207
isierung~~1208
wertet~~1209
forschung~~1210
▁Befragung~~1211
▁suchte~~1212
▁Schule~~1213
▁Kind~~1214
▁ging~~1215
▁renommierte~~1216
▁10~~1217
▁lesen~~1218
▁fragte~~1219
▁Na~~1220
▁Schul~~1221
pause~~1222
▁Ha~~1223
▁Moment~~1224
▁Er~~1225
▁alt~~1226
▁Verbrechen~~1227
▁hirnlose~~1228
▁Robot~~1229
▁robot~~1230
isierte~~1231
▁Arbeitskraft~~1232
▁B~~1233
olzen~~1234
gebohrt~~1235
▁Löcher~~1236
▁drehen~~1237
▁verzeih~~1238
▁mir~~1239
▁industrielle~~1240
▁Anpassung~~1241
sfähigkeit~~1242
▁Fähigkeit~~1243
▁kreativ~~1244
▁innovativ~~1245
▁me~~1246
chan~~1247
▁menschliche~~1248
▁Arbeits~~1249
ä~~1250
ft~~1251
▁Aktiv~~1252
▁behandeln~~1253
▁stem~~1254
▁wegwerfe~~1255
schreibt~~1256
▁Arbeit~~1257
▁autokratisch~~1258
▁Mach~~1259
▁sage~~1260
▁Boss~~1261
▁weiss~~1262
▁besser~~1263
▁dich~~1264
▁misstrauisch~~1265
▁Du~~1266
▁bist~~1267
▁offensichtlich~~1268
▁Kriminelle~~1269
▁installiere~~1270
Ü~~1271
berwachungs~~1272
kamera~~1273
sicht~~1274
igen~~1275
▁Idiot~~1276
▁mache~~1277
▁Prozess~~1278
▁du~~1279
▁folgen~~1280
▁musst~~1281
scher~~1282
▁einschränken~~1283
▁benutze~~1284
▁dein~~1285
▁Handy~~1286
▁Laptop~~1287
▁surf~~1288
▁Internet~~1289
M~~1290
▁un~~1291
professionell~~1292
▁Tages~~1293
▁Erfüll~~1294
▁eingeschränkt~~1295
▁bewertet~~1296
▁Spaß~~1297
rum~~1298
▁Das~~1299
▁Unsinn~~1300
▁dumme~~1301
▁Idee~~1302
▁weg~~1303
▁Dummheit~~1304
▁se~~1305
rö~~1306
▁werde~~1307
▁beweis~~1308
▁folgenden~~1309
▁Vortrags~~1310
▁Katalysator~~1311
▁transformieren~~1312
▁Gehirne~~1313
▁programmiert~~1314
▁Evolution~~1315
▁ausgewählt~~1316
▁million~~1317
▁billion~~1318
▁Ab~~1319
wahl~~1320
▁Eigenschaft~~1321
▁vorteilhaft~~1322
▁Wahl~~1323
▁leistungsfähig~~1324
▁Natur~~1325
▁dumm~~1326
▁überall~~1327
▁Tier~~1328
welt~~1329
▁Ameisen~~1330
▁Regel~~1331
▁Dynamik~~1332
▁Dinge~~1333
▁Ratten~~1334
▁gespielt~~1335
▁grössere~~1336
▁Aufgaben~~1337
▁Kätzchen~~1338
▁schwach~~1339
▁jagen~~1340
▁Bären~~1341
▁länger~~1342
▁fischen~~1343
▁gelernt~~1344
▁Untersuchung~~1345
▁veröffentlicht~~1346
▁wurde~~1347
▁Zusammenhang~~1348
▁Grösse~~1349
▁Gehirns~~1350
desto~~1351
▁grösser~~1352
▁Gehirn~~1353
▁Delphine~~1354
▁grosse~~1355
▁wer~~1356
▁glauben~~1357
▁grösste~~1358
▁Spieler~~1359
▁grössten~~1360
▁aller~~1361
▁Nationalität~~1362
▁Rassen~~1363
▁Farben~~1364
▁Religion~~1365
▁Ding~~1366
▁Begriff~~1367
▁Neo~~1368
ten~~1369
▁Bei~~1370
haltung~~1371
▁jugendliche~~1372
▁Merkmale~~1373
▁Erwachsenen~~1374
▁Sport~~1375
▁Olymp~~1376
▁professionelle~~1377
▁Sportler~~1378
▁Musikinstrument~~1379
▁tanzen~~1380
▁küssen~~1381
▁bumm~~1382
eln~~1383
▁geboren~~1384
▁hohe~~1385
▁Alter~~1386
▁ständig~~1387
▁aufhör~~1388
▁Vorteil~~1389
▁genauso~~1390
▁Nerven~~1391
wachstum~~1392
▁Amy~~1393
gdal~~1394
▁stimuliert~~1395
▁Emotionen~~1396
▁kontrolliert~~1397
▁präfrontale~~1398
▁C~~1399
ortex~~1400
▁Entwicklung~~1401
▁fördert~~1402
▁Kognition~~1403
▁Ergebnis~~1404
▁entwickeln~~1405
▁emotionale~~1406
▁Reife~~1407
▁bessere~~1408
▁Entscheidung~~1409
▁Fiktion~~1410
▁Phantasie~~1411
▁;~~1412
empfindlich~~1413
▁scharfe~~1414
▁genetische~~1415
▁Geburts~~1416
recht~~1417
▁gehört~~1418
▁Laufen~~1419
▁Sprechen~~1420
▁Sehen~~1421
▁Aufgabe~~1422
▁Sekunde~~1423
▁schließen~~1424
zustellen~~1425
▁stellen~~1426
▁Theater~~1427
▁Kunst~~1428
▁Lieder~~1429
▁Tanzen~~1430
▁Fußball~~1431
▁Football~~1432
▁Lachen~~1433
▁aussehen~~1434
▁trostlos~~1435
▁bed~~1436
rückt~~1437
▁Arbeitsplatz~~1438
▁lustig~~1439
▁spielerisch~~1440
▁vorwärts~~1441
▁G~~1442
egenteil~~1443
▁fühlen~~1444
▁schuldig~~1445
▁Kollegen~~1446
▁lachen~~1447
▁tun~~1448
▁verstecken~~1449
▁könnte~~1450
▁vermute~~1451
▁hart~~1452
▁arbeite~~1453
▁Nachricht~~1454
wärts~~1455
▁Depression~~1456
▁verbessert~~1457
▁verstärkt~~1458
▁Frei~~1459
mut~~1460
Ä~~1461
nderung~~1462
▁Gefühl~~1463
▁Zweck~~1464
▁Meister~~1465
sein~~1466
▁wesentliche~~1467
▁motivieren~~1468
de~~1469
▁Leistung~~1470
stärke~~1471
▁bedeutet~~1472
▁fr~~1473
iv~~1474
ol~~1475
▁Ski~~1476
▁dafür~~1477
▁gern~~1478
▁fühlt~~1479
▁fantastisch~~1480
▁perfekt~~1481
▁Doktor~~1482
▁großartige~~1483
▁Medizin~~1484
▁gültig~~1485
▁feiern~~1486
▁kurze~~1487
▁Firmen~~1488
▁FedEx~~1489
▁Mott~~1490
▁Dienstleistung~~1491
▁Gewinn~~1492
▁deine~~1493
handel~~1494
▁großartig~~1495
▁glücklicher~~1496
▁schlechter~~1497
▁Kunden~~1498
rufen~~1499
▁glücklich~~1500
▁sprechen~~1501
▁Entscheidungen~~1502
▁treffen~~1503
kaufen~~1504
teilen~~1505
▁verschlechtert~~1506
▁Mensch~~1507
▁Vereinigte~~1508
▁Staaten~~1509
▁funktionieren~~1510
▁Chance~~1511
▁verschieden~~1512
▁Gründe~~1513
▁Besondere~~1514
hält~~1515
gesehen~~1516
▁raus~~1517
schmeiße~~1518
▁zweiten~~1519
▁versucht~~1520
▁Firma~~1521
▁Sci~~1522
ant~~1523
▁anfing~~1524
▁zufrieden~~1525
▁Kunde~~1526
▁wollte~~1527
▁weitere~~1528
pf~~1529
ehlen~~1530
▁befragte~~1531
▁minimal~~1532
▁hatte~~1533
▁unzufrieden~~1534
▁Stakeholder~~1535
▁Transparenz~~1536
teuerung~~1537
▁Zusammenarbeit~~1538
▁Au~~1539
okratie~~1540
▁Ergebnisse~~1541
▁fokussiert~~1542
▁egal~~1543
▁wann~~1544
▁morgens~~1545
▁komm~~1546
▁Hause~~1547
▁geh~~1548
▁Arbeitsgruppe~~1549
▁organisiert~~1550
▁kümmer~~1551
▁Uhr~~1552
▁Förderung~~1553
▁kurz~~1554
▁kling~~1555
▁Veränderung~~1556
▁langsam~~1557
▁jeder~~1558
▁weiterzu~~1559
em~~1560
ehe~~1561
len~~1562
▁Industrie~~1563
▁Wie~~1564
▁gewonnen~~1565
▁Liste~~1566
▁besten~~1567
unternehmen~~1568
arbeit~~1569
geber~~1570
gelistet~~1571
▁unabhängige~~1572
▁Auswertung~~1573
▁anonym~~1574
▁Arbeitnehmer~~1575
▁Umfrage~~1576
▁hält~~1577
▁Mentalität~~1578
▁manche~~1579
▁Schritte~~1580
erst~~1581
▁Weil~~1582
▁genoss~~1583
▁sechs~~1584
▁Monate~~1585
▁Aufstieg~~1586
▁geschaff~~1587
▁genießen~~1588
▁Mountainbike~~1589
▁Buch~~1590
▁Spiel~~1591
▁Führung~~1592
spersönlichkeit~~1593
an~~1594
führer~~1595
▁Master~~1596
▁Ideen~~1597
▁Dienst~~1598
stelle~~1599
▁Feuer~~1600
revolution~~1601
▁hören~~1602
▁mal~~1603
▁vertrauen~~1604
▁angestellt~~1605
▁dir~~1606
▁ermächtigen~~1607
▁de~~1608
leg~~1609
▁Stufe~~1610
▁höchsten~~1611
▁konstruktive~~1612
▁Kritik~~1613
▁Autorität~~1614
▁herauszu~~1615
fordern~~1616
▁Herausforderung~~1617
▁einzige~~1618
▁Möglichkeit~~1619
▁Trott~~1620
▁loszu~~1621
werden~~1622
▁kreative~~1623
▁Lösung~~1624
▁Führer~~1625
person~~1626
▁Angst~~1627
▁besiegen~~1628
▁Feind~~1629
▁Einschränkung~~1630
▁eliminier~~1631
▁Handys~~1632
▁Privat~~1633
gespräche~~1634
▁behüte~~1635
▁Chat~~1636
▁Mittagessen~~1637
▁Urlaub~~1638
laden~~1639
▁Bier~~1640
▁essen~~1641
Synergie~~1642
▁Die~~1643
▁Freiheit~~1644
▁Wichtigste~~1645
▁Arbeitsstelle~~1646
▁verbringe~~1647
▁traurige~~1648
▁Pla~~1649
cker~~1650
ei~~1651
▁20~~1652
▁aufwache~~1653
▁akzeptab~~1654
el~~1655
▁Ne~~1656
pri~~1657
liv~~1658
▁Zusammenfassung~~1659
▁Aufstand~~1660
▁Spielern~~1661
▁Ernst~~1662
▁Anfang~~1663
▁stattfinden~~1664
▁entfachen~~1665
▁Erfolgs~~1666
geschichten~~1667
▁teilen~~1668
▁wiederbelebt~~1669
▁Versprechen~~1670
wirklich~~1671
▁Produktivität~~1672
▁Sinn~~1673
▁schafft~~1674
▁allein~~1675
▁umwandel~~1676
▁schön~~1677
▁Andrea~~1678
▁Schleich~~1679
hilfe~~1680
rezept~~1681
▁Schulsystem~~1682
▁messen~~1683
nächst~~1684
▁PISA~~1685
Studie~~1686
▁weltweite~~1687
▁Bewertung~~1688
gleich~~1689
▁anschließend~~1690
▁Verbesserung~~1691
tragen~~1692
▁erfahren~~1693
▁Deutschland~~1694
▁abschneide~~1695
▁Faktor~~1696
▁erfolgreiche~~1697
▁ausmacht~~1698
bildung~~1699
▁kompromisslos~~1700
▁Offenhe~~1701
it~~1702
▁schwer~~1703
▁Lernen~~1704
▁Ort~~1705
▁erkennen~~1706
▁reden~~1707
▁Studie~~1708
val~~1709
u~~1710
ierung~~1711
▁nationale~~1712
▁Angelegenheit~~1713
▁Situation~~1714
▁Bezug~~1715
▁Anteil~~1716
▁Bevölkerung~~1717
▁Abitur~~1718
▁USA~~1719
▁erster~~1720
▁ökonomische~~1721
▁traditionelle~~1722
▁Vorreiter~~1723
▁verknüpft~~1724
▁holte~~1725
▁80~~1726
schritt~~1727
▁globale~~1728
▁Auswei~~1729
tung~~1730
▁Talent~~1731
Pool~~1732
▁for~~1733
▁endete~~1734
▁90~~1735
▁13.~~1736
▁sinkende~~1737
▁Niveau~~1738
▁anders~~1739
wo~~1740
▁schneller~~1741
▁angestiegen~~1742
hand~~1743
▁Korea~~1744
▁deutlich~~1745
▁Generationen~~1746
▁Lebensstandard~~1747
▁heutigen~~1748
▁Afghanistan~~1749
▁schnitt~~1750
▁Schlechteste~~1751
▁junge~~1752
▁global~~1753
▁Fortschritt~~1754
▁Maßstab~~1755
▁leistungsstärk~~1756
▁Bildungssystem~~1757
▁international~~1758
▁Ebene~~1759
▁Angabe~~1760
▁Dauer~~1761
zeit~~1762
▁Abschluss~~1763
▁darleg~~1764
▁leisten~~1765
▁jede~~1766
▁Menge~~1767
▁arbeitslos~~1768
▁Studien~~1769
ab~~1770
gänger~~1771
▁Straßen~~1772
lagen~~1773
▁Arbeitgeber~~1774
▁Fachkräfte~~1775
mangel~~1776
▁besagt~~1777
▁automatisch~~1778
▁einhergeh~~1779
▁nun~~1780
▁ändern~~1781
dem~~1782
▁jungen~~1783
▁Leute~~1784
▁direkt~~1785
▁Blickwinkel~~1786
▁Interesse~~1787
▁galt~~1788
▁Wieder~~1789
geben~~1790
▁Erlern~~1791
te~~1792
▁Schüler~~1793
▁abstrahiere~~1794
▁anwende~~1795
▁dabei~~1796
▁einiger~~1797
▁gegenüber~~1798
ämlich~~1799
messung~~1800
▁unfair~~1801
▁Logik~~1802
▁Prüfung~~1803
stoff~~1804
▁bereit~~1805
▁Veränderungen~~1806
▁Jobs~~1807
▁Technologien~~1808
▁verwenden~~1809
▁erfunden~~1810
▁a~~1811
hnen~~1812
▁einst~~1813
▁umstritten~~1814
▁Verfahren~~1815
▁rasch~~1816
▁2009~~1817
▁erfasst~~1818
▁74~~1819
▁87~~1820
▁ausmachen~~1821
▁Ländern~~1822
▁rot~~1823
D~~1824
ur~~1825
ch~~1826
schnitt~~1827
▁gelb~~1828
▁mittelmäßig~~1829
▁grün~~1830
▁stärkste~~1831
▁Shanghai~~1832
▁Singapur~~1833
▁Asien~~1834
▁Finnland~~1835
▁Kanada~~1836
▁Nordamerika~~1837
▁15-~~1838
jährige~~1839
Jährige~~1840
▁Chile~~1841
▁3,5~~1842
▁Schuljahr~~1843
▁Lücke~~1844
wächst~~1845
▁7~~1846
schließen~~1847
▁heutige~~1848
▁vorbereitet~~1849
▁Kontext~~1850
▁zweite~~1851
▁wichtige~~1852
▁Dimension~~1853
führen~~1854
▁Pädagoge~~1855
gerne~~1856
▁Gleichheit~~1857
erfassen~~1858
▁sorgt~~1859
▁Umfeld~~1860
▁Chancen~~1861
▁Realität~~1862
▁Einfluss~~1863
▁Lern~~1864
leistung~~1865
▁stark~~1866
▁ungleich~~1867
▁verteilt~~1868
▁Potential~~1869
▁Kindern~~1870
▁verschwendet~~1871
▁weniger~~1872
uadrant~~1873
chance~~1874
▁niemand~~1875
▁Dis~~1876
par~~1877
ität~~1878
▁herrschen~~1879
▁steht~~1880
▁Debatte~~1881
▁Kauf~~1882
▁akzeptieren~~1883
mäßigkeit~~1884
▁diesbezüglich~~1885
▁betrachten~~1886
▁hervorragende~~1887
▁verbinden~~1888
▁Tat~~1889
▁wichtigste~~1890
▁Lektion~~1891
▁Vergleich~~1892
gun~~1893
▁hervorragend~~1894
opfer~~1895
▁wenige~~1896
▁fordert~~1897
▁vieler~~1898
▁hauptsächlich~~1899
▁aussortier~~1900
Veröffentlichung~~1901
sträger~~1902
▁Forscher~~1903
▁weltweit~~1904
▁hinter~~1905
▁Erfolg~~1906
▁Systeme~~1907
▁steckt~~1908
▁konzentriere~~1909
▁bunte~~1910
▁Kreis~~1911
▁markiert~~1912
▁Größe~~1913
▁Kreise~~1914
▁proportional~~1915
▁Ausgaben~~1916
▁jeweilige~~1917
▁wäre~~1918
▁Geld~~1919
▁entscheidend~~1920
ualität~~1921
ergebnisse~~1922
▁müsste~~1923
schwankung~~1924
▁verantwortlich~~1925
▁Luxemb~~1926
urg~~1927
▁teuerste~~1928
▁schneide~~1929
▁besonder~~1930
▁ähnlich~~1931
unterschiedliche~~1932
▁erziel~~1933
▁aufgeteilt~~1934
▁reiche~~1935
▁Bildungsniveau~~1936
▁arme~~1937
▁niedrige~~1938
▁enorm~~1939
▁wichtiges~~1940
▁Detail~~1941
▁prozentual~~1942
▁Landes~~1943
▁Lehrer~~1944
ge~~1945
▁ausgegeben~~1946
▁investiert~~1947
laufbahn~~1948
▁attraktiv~~1949
tag~~1950
▁lässt~~1951
▁Kosten~~1952
▁unterrichten~~1953
bild~~1954
▁berufliche~~1955
▁W~~1956
eiterentwicklung~~1957
▁kostet~~1958
▁Klassen~~1959
▁senkt~~1960
▁sichtbar~~1961
▁Balk~~1962
▁beim~~1963
▁nächsten~~1964
▁derselbe~~1965
▁Eltern~~1966
▁plädiere~~1967
▁angenehm~~1968
▁Klasse~~1969
▁verwendet~~1970
größe~~1971
▁Preis~~1972
▁bezahlt~~1973
▁stundenlang~~1974
durch~~1975
für~~1976
weitaus~~1977
▁Bildung~~1978
▁2000~~1979
▁Erfindung~~1980
▁iPod~~1981
Ergebnisse~~1982
▁damals~~1983
▁wahr~~1984
▁35~~1985
▁teurer~~1986
▁bitte~~1987
▁massive~~1988
▁Heimatland~~1989
▁befand~~1990
▁unteren~~1991
▁Ungleichheit~~1992
▁Bewohner~~1993
▁Universität~~1994
abschluss~~1995
▁zählen~~1996
▁enttäuschend~~1997
▁mochte~~1998
▁öffentliche~~1999
▁monatelang~~2000
▁Thema~~2001
▁geprägt~~2002
▁Steuer~~2003
▁stand~~2004
▁Fokus~~2005
▁Diskussion~~2006
▁reagiert~~2007
▁Bundesregierung~~2008
▁erhöhte~~2009
▁Bildungs~~2010
ausgabe~~2011
▁drastisch~~2012
▁unternommen~~2013
▁Migration~~2014
hintergrund~~2015
▁Familien~~2016
▁Interessante~~2017
▁Optimierung~~2018
▁bestehende~~2019
▁Politik~~2020
▁grundlegende~~2021
▁Annahme~~2022
berzeugung~~2023
▁deutsche~~2024
▁veränderten~~2025
▁traditionell~~2026
▁dahin~~2027
▁Kleinkinder~~2028
erziehung~~2029
▁Frauen~~2030
▁schnell~~2031
▁Ra~~2032
ben~~2033
mütter~~2034
▁Kindergarten~~2035
▁schickte~~2036
▁transformiert~~2037
▁Früh~~2038
▁Zentrum~~2039
▁teilt~~2040
▁Gruppen~~2041
▁Wissens~~2042
arbeiter~~2043
teilung~~2044
▁erfolgt~~2045
wirtschaftliche~~2046
▁Grab~~2047
▁Denk~~2048
muster~~2049
▁herausgefordert~~2050
▁gute~~2051
▁9~~2052
▁später~~2053
▁angenommen~~2054
▁Spektrums~~2055
▁besorgt~~2056
▁erzielt~~2057
▁nahm~~2058
mal~~2059
▁Best~~2060
▁innerhalb~~2061
▁Jahrzehnt~~2062
▁schlau~~2063
▁konzentriert~~2064
▁Richtung~~2065
noch~~2066
berhol~~2067
▁Polen~~2068
▁geführt~~2069
▁schlechtesten~~2070
▁abgeschnitten~~2071
gehoben~~2072
▁Portugal~~2073
▁fragmentiert~~2074
einheit~~2075
licht~~2076
▁Un~~2077
garn~~2078
▁Kritiker~~2079
▁behaupte~~2080
▁relative~~2081
position~~2082
▁Produkt~~2083
▁wirtschaftliche~~2084
▁sozialer~~2085
gesellschaftlich~~2086
▁Homo~~2087
▁usw~~2088
sbereich~~2089
lich~~2090
▁seine~~2091
▁geändert~~2092
▁Zusammensetzung~~2093
entlassen~~2094
▁rein~~2095
▁beeindruckend~~2096
▁ergibt~~2097
▁Frage~~2098
▁grüne~~2099
srate~~2100
▁guten~~2101
▁angewandt~~2102
▁kopieren~~2103
▁Vergleiche~~2104
id~~2105
if~~2106
ziert~~2107
▁zugrunde~~2108
▁stimmen~~2109
▁Prioritäten~~2110
q~~2111
ualifizier~~2112
▁Arbeiter~~2113
▁bezahle~~2114
▁liebe~~2115
▁Anwalt~~2116
▁Medien~~2117
rgestellt~~2118
▁Fragen~~2119
▁Bürger~~2120
▁überzeugt~~2121
▁kurzfristig~~2122
▁beliebteste~~2123
▁Einkaufszentr~~2124
▁beizu~~2125
messen~~2126
▁erfolgreich~~2127
▁früh~~2128
▁getrennt~~2129
▁spiegelt~~2130
▁wider~~2131
▁welt~~2132
klasse~~2133
doch~~2134
▁Unterschied~~2135
her~~2136
▁Japan~~2137
▁erwarten~~2138
▁fragen~~2139
▁Mathematik~~2140
▁antworte~~2141
▁Begabung~~2142
▁abhäng~~2143
▁lerne~~2144
▁japanische~~2145
▁Aufwand~~2146
▁Bemühung~~2147
spricht~~2148
ände~~2149
▁unterrichtet~~2150
▁Unterschiede~~2151
▁differenzierte~~2152
pä~~2153
ago~~2154
ische~~2155
▁Vor~~2156
weisen~~2157
▁gewöhnliche~~2158
▁außergewöhnlich~~2159
▁gestalten~~2160
möglichkeit~~2161
▁individuell~~2162
▁ehrgeizige~~2163
▁Standards~~2164
▁gesamte~~2165
▁Spektrum~~2166
kommt~~2167
▁nötig~~2168
▁nirgendwo~~2169
▁wählen~~2170
▁sorgsam~~2171
▁bilden~~2172
▁gezielt~~2173
▁Gehalt~~2174
▁jeden~~2175
▁strukturiert~~2176
▁geschaffen~~2177
▁Methoden~~2178
▁Karriere~~2179
büro~~2180
rat~~2181
ischen~~2182
▁alleine~~2183
▁gelassen~~2184
▁Unterricht~~2185
vorgabe~~2186
▁herrscht~~2187
▁klare~~2188
▁Vorstellung~~2189
▁herausfinde~~2190
▁jeweil~~2191
▁beibring~~2192
▁Weiter~~2193
gabe~~2194
erlangen~~2195
▁administrative~~2196
▁Verantwortung~~2197
▁Kontrolle~~2198
organisation~~2199
▁Pädagogik~~2200
▁vorantreiben~~2201
mit~~2202
▁Voraussetzung~~2203
▁stärkere~~2204
▁früher~~2205
▁Ein~~2206
▁Vorschriften~~2207
▁Rektor~~2208
▁erfinderisch~~2209
▁Versorgung~~2210
sehen~~2211
ste~~2212
▁erstklassige~~2213
▁gil~~2214
▁Bee~~2215
in~~2216
druck~~2217
sunterschiede~~2218
▁zurückzu~~2219
begriff~~2220
▁erreicht~~2221
▁Ressourcen~~2222
▁gelang~~2223
▁dorthin~~2224
▁größte~~2225
▁Wirkung~~2226
▁begabte~~2227
▁herausfordern~~2228
▁Vorgabe~~2229
▁anhaltende~~2230
▁Zeiträume~~2231
▁hinweg~~2232
kohären~~2233
▁konsequent~~2234
▁umgesetzt~~2235
▁Grundlagen~~2236
▁erfolgreicher~~2237
▁verbesser~~2238
▁Grenzen~~2239
Ver~~2240
sätze~~2241
▁Grund~~2242
▁Stärke~~2243
▁liegt~~2244
▁Mitteilung~~2245
▁einflussreich~~2246
▁Gelder~~2247
verwaltung~~2248
▁Ver~~2249
legen~~2250
▁Friedhof~~2251
▁ähnelt~~2252
fällig~~2253
▁Ausrede~~2254
▁sinnvolle~~2255
▁Ziele~~2256
▁setzen~~2257
▁messbar~~2258
▁Ziel~~2259
orientieren~~2260
▁Elternteil~~2261
▁gesetzt~~2262
▁Grundstein~~2263
▁gelegt~~2264
▁Karo~~2265
line~~2266
▁Sp~~2267
l~~2268
▁Rachel~~2269
▁Pik~~2270
▁Klima~~2271
schlag~~2272
eilen~~2273
▁4~~2274
▁Minuten~~2275
▁vermittelt~~2276
▁atmosphärische~~2277
▁Chemiker~~2278
▁Einblick~~2279
wissenschaftlich~~2280
▁wagemutig~~2281
▁Schlagzeilen~~2282
▁Klimawandel~~2283
▁Team~~2284
▁tausende~~2285
▁dazu~~2286
trug~~2287
▁riskant~~2288
▁Flug~~2289
▁wagte~~2290
▁Schlüssel~~2291
molekül~~2292
▁Ausmaß~~2293
▁Anstrengung~~2294
▁Erstellung~~2295
▁Zeitung~~2296
▁Luft~~2297
qualität~~2298
▁S~~2299
mog~~2300
▁selbe~~2301
▁Feld~~2302
▁letzter~~2303
▁multi~~2304
regierung~~2305
P~~2306
▁IPC~~2307
C~~2308
▁Verständnisse~~2309
▁veröffentlichte~~2310
▁6~~2311
20~~2312
▁40~~2313
▁geschrieben~~2314
▁schrieb~~2315
▁tausend~~2316
▁weiteren~~2317
▁400~~2318
▁Gutachte~~2319
▁11~~2320
3~~2321
▁korrigiert~~2322
▁jährliche~~2323
▁Treffen~~2324
#~~2325
91~~2326
▁physische~~2327
93;~~2328
▁15~~2329
▁San~~2330
▁Francisco~~2331
gruppe~~2332
▁befasst~~2333
▁Viel~~2334
zahl~~2335
▁Themen~~2336
▁Cambridge~~2337
▁Phänomen~~2338
▁Wetter~~2339
▁beeinflusst~~2340
▁Satelliten~~2341
daten~~2342
▁Emission~~2343
▁Saat~~2344
▁Biokraftstoffe~~2345
▁zufällig~~2346
▁studiere~~2347
gebieten~~2348
▁Doktoranden~~2349
▁studieren~~2350
▁Sachen~~2351
▁Prozesse~~2352
▁Moleküle~~2353
op~~2354
▁organische~~2355
▁Molekül~~2356
▁Gewicht~~2357
▁Papier~~2358
▁900~~2359
▁z~~2360
ta~~2361
illion~~2362
▁21.~~2363
▁abseit~~2364
▁seines~~2365
▁Atmosphäre~~2366
▁aufzu~~2367
wiegen~~2368
▁entspricht~~2369
▁Methangas~~2370
▁soviel~~2371
blasen~~2372
▁EU~~2373
HO~~2374
R~~2375
▁Kammer~~2376
▁Spanien~~2377
▁Explosion~~2378
▁komplette~~2379
▁Verbrennung~~2380
▁Auto~~2381
▁trotzde~~2382
▁Supercomputer~~2383
▁Modelle~~2384
▁laufen~~2385
▁hunderttausende~~2386
▁Raster~~2387
box~~2388
stände~~2389
▁hunderte~~2390
▁Variable~~2391
▁errechne~~2392
▁Integration~~2393
▁vervollständig~~2394
▁Dutzende~~2395
▁ausser~~2396
▁kürzlich~~2397
zug~~2398
ay~~2399
ien~~2400
▁fanden~~2401
▁Wach~~2402
turm~~2403
▁Mitte~~2404
▁hing~~2405
▁Geräte~~2406
▁hunderttausend~~2407
▁Dollar~~2408
▁Turm~~2409
▁wären~~2410
mitten~~2411
▁Teilen~~2412
▁Flugzeug~~2413
▁Modell~~2414
▁BA~~2415
14~~2416
6~~2417
▁FAA~~2418
▁betrieben~~2419
▁fliegt~~2420
▁120~~2421
▁130~~2422
▁Personen~~2423
▁ähnliche~~2424
▁her~~2425
zukommen~~2426
flogen~~2427
▁Spitze~~2428
▁Baumkronen~~2429
▁unglaublicher~~2430
▁gefährlicher~~2431
▁Kram~~2432
▁musste~~2433
▁Steigung~~2434
▁Messung~~2435
▁durchzu~~2436
▁Militär~~2437
▁Testpilot~~2438
▁Fliegen~~2439
▁übernehme~~2440
raum~~2441
kl~~2442
är~~2443
▁Bö~~2444
sch~~2445
ungen~~2446
K~~2447
äfte~~2448
▁2~~2449
▁vollständig~~2450
▁befestigt~~2451
▁während~~2452
▁Bord~~2453
▁fliegende~~2454
▁Region~~2455
▁durchführte~~2456
▁Chemie~~2457
▁Student~~2458
▁Neigung~~2459
▁Dutzend~~2460
▁Artikel~~2461
▁gesammelt~~2462
▁formt~~2463
unter~~2464
▁Kapitel~~2465
ka~~2466
pite~~2467
▁Beurteilung~~2468
▁schreiben~~2469
▁Publikum~~2470
▁Journalisten~~2471
▁politische~~2472
▁Christopher~~2473
Charm~~2474
▁scannt~~2475
▁Echtzeit~~2476
▁Neuro~~2477
wissenschaftler~~2478
▁Erfinder~~2479
▁veranschaulich~~2480
▁MRI~~2481
▁Gehirnaktivität~~2482
▁Gedanken~~2483
▁Schmerz~~2484
▁stattfinde~~2485
▁Worten~~2486
fühlst~~2487
▁Hallo~~2488
▁Arm~~2489
heben~~2490
▁winken~~2491
▁ziemlich~~2492
▁königliche~~2493
▁Win~~2494
ken~~2495
▁nachahmen~~2496
▁Muskel~~2497
▁programmiere~~2498
▁bald~~2499
bereiche~~2500
▁steuern~~2501
▁Methode~~2502
▁menschlichen~~2503
▁Verstand~~2504
▁Jahrtausende~~2505
▁Versuchslabor~~2506
▁Generation~~2507
▁kompliziert~~2508
▁müsse~~2509
▁Raumschiff~~2510
▁schrumpfen~~2511
▁Blut~~2512
kreislauf~~2513
▁injizieren~~2514
▁schrecklich~~2515
▁gefährlich~~2516
▁Arterien~~2517
gegriffen~~2518
körper~~2519
chen~~2520
▁Peter~~2521
▁Eingriff~~2522
▁mittel~~2523
▁Bestrahlung~~2524
▁Anatomi~~2525
▁buchstäblich~~2526
▁Körper~~2527
▁wichtiger~~2528
▁gelbe~~2529
▁Fleck~~2530
▁entsprechende~~2531
▁Tätigkeit~~2532
▁gesch~~2533
▁zuvor~~2534
▁sicherlich~~2535
▁Elektroden~~2536
▁Roboterarm~~2537
taste~~2538
▁darstellen~~2539
▁Vorgang~~2540
▁üblich~~2541
▁Tage~~2542
▁Analyse~~2543
▁benötigte~~2544
▁Millisekunden~~2545
▁reduziert~~2546
▁erlaubt~~2547
▁live~~2548
▁65~~2549
▁Erreger~~2550
punkte~~2551
▁beeinflussen~~2552
▁Sofa~~2553
▁Therapeut~~2554
▁Tablette~~2555
▁Messer~~2556
▁vierte~~2557
▁verborgene~~2558
▁Wege~~2559
▁chronische~~2560
▁verbrennen~~2561
spüren~~2562
▁Verbindung~~2563
▁hilfreich~~2564
▁verursachen~~2565
▁Abbild~~2566
▁entwerfen~~2567
▁Anzeige~~2568
vorgang~~2569
lesen~~2570
▁nochmal~~2571
▁Arme~~2572
beugen~~2573
ize~~2574
ps~~2575
▁Sache~~2576
▁ausführen~~2577
bahnen~~2578
patienten~~2579
c~~2580
hütte~~2581
▁Sinne~~2582
▁Wortes~~2583
▁Person~~2584
▁beobachten~~2585
egung~~2586
bahn~~2587
▁verursacht~~2588
▁Ablauf~~2589
▁end~~2590
▁Opiate~~2591
▁freisetz~~2592
▁links~~2593
▁verbunden~~2594
▁regel~~2595
▁experimentelle~~2596
▁klinische~~2597
▁44~~2598
prozentige~~2599
▁Abnahme~~2600
▁Matrix~~2601
▁meinen~~2602
▁kontrollieren~~2603
▁Erscheinung~~2604
▁Erfahrung~~2605
▁Details~~2606
▁einzu~~2607
▁überlasse~~2608
steigen~~2609
▁bringen~~2610
ba~~2611
▁Kid~~2612
ro~~2613
▁geteilte~~2614
▁Wunder~~2615
▁Film~~2616
▁Filme~~2617
▁Macht~~2618
▁gemeinsame~~2619
▁narrative~~2620
▁Erinnerung~~2621
▁Weltanschauung~~2622
▁formen~~2623
▁britische~~2624
▁Regisseur~~2625
▁erinnert~~2626
▁ikonische~~2627
szene~~2628
▁Mai~~2629
land~~2630
▁Boy~~2631
▁the~~2632
▁Hoo~~2633
▁Verein~~2634
▁FILMCLUB~~2635
▁An~~2636
zeichen~~2637
▁Alters~~2638
▁Kulturen~~2639
▁Identität~~2640
▁Form~~2641
▁Mutter~~2642
▁Tochter~~2643
▁Priester~~2644
▁Gemeinde~~2645
mitglied~~2646
▁Erzähler~~2647
▁Höhlenmalerei~~2648
▁Parabel~~2649
▁Fa~~2650
beln~~2651
▁erzählt~~2652
nerzähler~~2653
▁zunehmend~~2654
▁säkular~~2655
isiert~~2656
▁zerstückelt~~2657
▁bieten~~2658
lichkeit~~2659
▁unbe~~2660
einfluss~~2661
▁wild~~2662
▁Konsum~~2663
denken~~2664
▁Erzählung~~2665
▁moralische~~2666
▁Code~~2667
▁wohl~~2668
▁Kunstform~~2669
▁20.~~2670
▁Jahrhunderts~~2671
▁Künstler~~2672
grenzen~~2673
▁Sprachen~~2674
▁Philosophie~~2675
▁enorme~~2676
▁Verflechtung~~2677
▁Hollywood~~2678
B~~2679
lock~~2680
buster~~2681
▁dominiert~~2682
▁Diät~~2683
gesetzt~~2684
▁Erzähl~~2685
▁selten~~2686
▁Filmproduzent~~2687
▁machte~~2688
▁Sorgen~~2689
▁versetzt~~2690
▁Schrecken~~2691
▁aufbauen~~2692
▁Verständnis~~2693
▁Ironie~~2694
▁fühlbar~~2695
▁Zugang~~2696
▁schwächer~~2697
▁deshalb~~2698
▁gründete~~2699
▁2006~~2700
▁Organisation~~2701
▁wöchentlich~~2702
führt~~2703
▁diskutiert~~2704
archiv~~2705
▁könnten~~2706
▁unruhig~~2707
▁Jugend~~2708
▁Technologie~~2709
▁b~~2710
uer~~2711
lichen~~2712
▁Dorf~~2713
▁DVD~~2714
▁Leinwand~~2715
▁projiziere~~2716
▁Monaten~~2717
▁25~~2718
▁Großbritannien~~2719
▁18~~2720
▁ununterbrochen~~2721
ura~~2722
tiert~~2723
alisiert~~2724
▁ma~~2725
▁Wähler~~2726
giebig~~2727
bwechslung~~2728
reichste~~2729
▁Kost~~2730
▁anbieten~~2731
▁konnte~~2732
▁kam~~2733
▁sofort~~2734
▁tiefgreifend~~2735
▁form~~2736
enden~~2737
▁150~~2738
▁klein~~2739
▁entdeckten~~2740
▁Orte~~2741
▁Perspektiven~~2742
▁Pilot~~2743
versuch~~2744
▁beendet~~2745
▁Namen~~2746
▁195~~2747
1~~2748
▁Vit~~2749
orio~~2750
▁De~~2751
ica~~2752
▁bemerkenswerter~~2753
▁Kommentar~~2754
▁Slums~~2755
▁Armut~~2756
▁Hoffnung~~2757
▁50.~~2758
▁Geburtstag~~2759
▁Vaters~~2760
saal~~2761
▁miete~~2762
▁Vater~~2763
▁künstlerische~~2764
▁Bedeutung~~2765
▁Vision~~2766
▁beschloss~~2767
▁Teenager~~2768
alter~~2769
▁30~~2770
▁nächste~~2771
▁Einstellung~~2772
▁schweben~~2773
▁Slum~~2774
bewohner~~2775
▁Bese~~2776
▁Himmel~~2777
sechzig~~2778
▁Produktion~~2779
▁sah~~2780
▁sehe~~2781
▁Gesichter~~2782
hrfurcht~~2783
▁neigen~~2784
▁Ungläubig~~2785
keit~~2786
▁Geschwindigkeit~~2787
do~~2788
▁Million~~2789
air~~2790
▁Favela~~2791
▁Rio~~2792
zuordne~~2793
▁nachhaltige~~2794
ison~~2795
▁Demokratie~~2796
▁Regierung~~2797
▁Mr~~2798
▁Smith~~2799
▁Washington~~2800
gedreht~~2801
▁193~~2802
9~~2803
▁älter~~2804
▁Großeltern~~2805
▁Mitglieder~~2806
▁Frank~~2807
▁Cap~~2808
ra~~2809
▁Klassiker~~2810
▁Unabhängigkeit~~2811
▁Anstand~~2812
▁Gute~~2813
▁tut~~2814
▁held~~2815
haft~~2816
▁Ausdruck~~2817
▁Glaubens~~2818
▁Maschine~~2819
▁Kraft~~2820
▁Ehre~~2821
iker~~2822
▁verbrachte~~2823
▁englische~~2824
▁Ober~~2825
ächte~~2826
lange~~2827
▁Fil~~2828
ibu~~2829
tier~~2830
erei~~2831
▁Freude~~2832
▁Kompetenz~~2833
▁erklärt~~2834
▁Lord~~2835
▁Prinzip~~2836
▁Schlaf~~2837
▁vernachlässigt~~2838
hin~~2839
▁erstreckt~~2840
▁Jim~~2841
▁Stewart~~2842
rede~~2843
rollen~~2844
▁Auswahl~~2845
▁Hotel~~2846
▁Ruanda~~2847
▁Völkermord~~2848
▁brutal~~2849
▁provoziert~~2850
▁Tränen~~2851
▁prä~~2852
ante~~2853
wa~~2854
ff~~2855
ete~~2856
Friedenstruppen~~2857
▁Doppel~~2858
ng~~2859
igkeit~~2860
▁westliche~~2861
▁Kämpfe~~2862
geht~~2863
▁Schindler~~2864
▁verlangte~~2865
▁bemerkte~~2866
▁voller~~2867
▁Gewissen~~2868
b~~2869
isse~~2870
▁hätte~~2871
▁sonst~~2872
▁spürbar~~2873
▁reicher~~2874
▁Pick~~2875
pock~~2876
▁löste~~2877
▁Verlust~~2878
▁Stimm~~2879
▁begeistert~~2880
▁Zuschauer~~2881
▁feierte~~2882
▁Haltung~~2883
weiß~~2884
▁Brit~~2885
impft~~2886
▁kollektive~~2887
▁wertschätzt~~2888
▁Gegen~~2889
▁Fit~~2890
ichen~~2891
idney~~2892
▁Po~~2893
iti~~2894
▁nachdenklich~~2895
▁eigen~~2896
sinn~~2897
▁neugierig~~2898
▁schwarz~~2899
▁Untertitel~~2900
▁Dokumentarfilm~~2901
nar~~2902
▁Fan~~2903
stand~~2904
los~~2905
▁detaillierte~~2906
▁Rezension~~2907
▁Lob~~2908
preis~~2909
leidenschaftlich~~2910
▁raffinierte~~2911
▁gegenseitig~~2912
treffen~~2913
tausend~~2914
▁wette~~2915
▁Hunderte~~2916
▁Tausende~~2917
▁Viertel~~2918
million~~2919
▁000~~2920
▁Zahlen~~2921
▁weiterhi~~2922
bertragung~~2923
▁kritische~~2924
▁Alltag~~2925
▁begann~~2926
▁fing~~2927
▁liefert~~2928
▁Kluft~~2929
▁enthalten~~2930
▁Per~~2931
polis~~2932
▁brachte~~2933
▁iranische~~2934
▁Der~~2935
▁weiße~~2936
▁Hai~~2937
▁half~~2938
▁Jungen~~2939
▁artikulieren~~2940
▁erlebt~~2941
▁Flucht~~2942
▁Gewalt~~2943
▁tötete~~2944
▁Boot~~2945
▁geworfen~~2946
▁Recht~~2947
▁versteckte~~2948
▁Botschaft~~2949
▁Flut~~2950
▁ent~~2951
▁Münder~~2952
interessiert~~2953
▁gehalten~~2954
▁ihres~~2955
▁gewesen~~2956
nstatt~~2957
▁Objekte~~2958
▁Tante~~2959
▁wunderbare~~2960
▁blitzschnell~~2961
▁erschaffen~~2962
▁bar~~2963
fuß~~2964
▁Tafel~~2965
berg~~2966
▁rennen~~2967
▁Räuber~~2968
arm~~2969
▁erzählte~~2970
▁194~~2971
8~~2972
▁Schwestern~~2973
▁Israel~~2974
▁reiste~~2975
▁Mat~~2976
ros~~2977
▁See~~2978
▁Forderung~~2979
▁human~~2980
ut~~2981
▁Jugendliche~~2982
▁Crew~~2983
▁Essen~~2984
▁versorgt~~2985
▁starb~~2986
▁Reise~~2987
▁erwähnt~~2988
▁verließ~~2989
▁Eile~~2990
▁Mann~~2991
▁dreijährige~~2992
▁Diamanten~~2993
▁Rock~~2994
▁einge~~2995
▁Versteck~~2996
▁erschien~~2997
▁Großvater~~2998
▁London~~2999
▁Ordnung~~3000
▁integrierte~~3001
▁England~~3002
▁Neu~~3003
fang~~3004
▁Schweigen~~3005
gewandert~~3006
▁Anne~~3007
▁The~~3008
▁Great~~3009
scape~~3010
▁Sho~~3011
ah~~3012
▁Triumph~~3013
▁Willen~~3014
▁Len~~3015
i~~3016
▁Rie~~3017
fen~~3018
ahl~~3019
▁elegant~~3020
▁Nazi~~3021
ropaganda~~3022
erleben~~3023
▁enthielt~~3024
▁schmerzt~~3025
▁laut~~3026
▁nützlicher~~3027
▁Fl~~3028
stern~~3029
berlebende~~3030
▁gelegentlich~~3031
▁Blick~~3032
▁Tattoo~~3033
▁Handgelenk~~3034
jüng~~3035
fer~~3036
▁Pur~~3037
isten~~3038
▁Suche~~3039
▁zerstreu~~3040
▁grob~~3041
▁Filmemacher~~3042
▁Drama~~3043
▁12-~~3044
▁Zauberer~~3045
▁Oz~~3046
▁sollte~~3047
▁Herz~~3048
▁honor~~3049
▁Leidenschaft~~3050
▁Citizen~~3051
▁Kan~~3052
▁wertvoll~~3053
▁Jane~~3054
▁Aust~~3055
▁Stimmen~~3056
▁biete~~3057
▁zusammenarbeite~~3058
würdig~~3059
▁Stein~~3060
▁Wand~~3061
▁okay~~3062
▁Tom~~3063
▁Hank~~3064
▁Astronaut~~3065
▁Love~~3066
▁Ben~~3067
▁King~~3068
ley~~3069
▁Gandhi~~3070
lagert~~3071
▁real~~3072
▁Eve~~3073
▁Har~~3074
ington~~3075
▁Howard~~3076
▁Be~~3077
ale~~3078
▁Mil~~3079
dred~~3080
▁Pier~~3081
ce~~3082
▁Gelegenheit~~3083
▁Menschsein~~3084
▁Shakespeare~~3085
leuchten~~3086
▁el~~3087
is~~3088
th~~3089
anischen~~3090
▁ahnte~~3091
▁Begegnung~~3092
▁Literatur~~3093
▁Teilnehmer~~3094
▁engagier~~3095
▁inspirieren~~3096
▁Selbstvertrauen~~3097
▁akademische~~3098
▁vorherseh~~3099
▁ehemal~~3100
halten~~3101
▁Spielplatz~~3102
hrgeiz~~3103
▁Engagement~~3104
▁gefunden~~3105
▁trotz~~3106
▁binär~~3107
▁Beschreibung~~3108
▁oft~~3109
▁beschreiben~~3110
▁we~~3111
▁beschäftigt~~3112
▁verhandel~~3113
▁unendlich~~3114
▁sinn~~3115
stift~~3116
ende~~3117
▁schien~~3118
▁überrascht~~3119
▁Verhaltensweise~~3120
▁Marke~~3121
▁Schuhe~~3122
▁angeboten~~3123
▁Werte~~3124
▁versteh~~3125
▁persönliche~~3126
▁wesentlicher~~3127
▁Bestandteil~~3128
▁kulturelle~~3129
▁unmöglich~~3130
▁Gruppe~~3131
▁Vorführung~~3132
▁Hof~~3133
▁Gebäude~~3134
▁neben~~3135
richten~~3136
▁Lu~~3137
▁Gr~~3138
pfeife~~3139
▁TEDxR~~3140
otter~~3141
am~~3142
Weltmeister~~3143
▁Pfeifen~~3144
▁Ge~~3145
▁Chatro~~3146
kur~~3147
ille~~3148
on~~3149
or~~3150
▁Ho~~3151
h~~3152
off~~3153
▁Komposition~~3154
▁F~~3155
ê~~3156
▁la~~3157
▁Bell~~3158
▁Besten~~3159
▁Rahmen~~3160
▁faszinierende~~3161
lage~~3162
▁Danke~~3163
▁klingen~~3164
▁Englisch~~3165
▁mo~~3166
iger~~3167
haarige~~3168
▁Typ~~3169
▁Holland~~3170
gebracht~~3171
▁eigentlich~~3172
▁Haus~~3173
pfiff~~3174
▁dachte~~3175
▁Kommunikations~~3176
▁34~~3177
▁Pfeif~~3178
äge~~3179
▁irritiert~~3180
▁ehrlich~~3181
▁Verhaltens~~3182
▁Klassenzimmer~~3183
▁Fahrrad~~3184
▁Heiligen~~3185
▁Abend~~3186
▁grauen~~3187
volle~~3188
▁Weihnachts~~3189
musik~~3190
▁hörte~~3191
▁höre~~3192
▁versuche~~3193
▁Ru~~3194
ph~~3195
▁Red~~3196
os~~3197
ed~~3198
▁Rein~~3199
▁Weihnachtsfeier~~3200
▁Abendessen~~3201
▁nerve~~3202
▁Schw~~3203
rin~~3204
▁gebete~~3205
zuhören~~3206
▁irgendwa~~3207
▁zugegebenerma~~3208
ßen~~3209
▁Wein~~3210
▁get~~3211
runken~~3212
▁Wettbewerb~~3213
▁gäbe~~3214
▁teilnehmen~~3215
▁bekam~~3216
▁SMS~~3217
fähr~~3218
▁Amerika~~3219
▁fahre~~3220
▁liebend~~3221
▁angerufen~~3222
▁gegoogelt~~3223
schaft~~3224
▁hinfahre~~3225
▁korrekte~~3226
▁Niederländer~~3227
▁gemeint~~3228
▁runter~~3229
gefallen~~3230
gefahren~~3231
▁Louis~~3232
burg~~3233
▁North~~3234
▁Carolina~~3235
gereist~~3236
▁Südost~~3237
▁Berührung~~3238
4~~3239
meisterschaft~~3240
▁teil~~3241
genommen~~3242
▁Titel~~3243
▁verteidige~~3244
▁Jud~~3245
ok~~3246
▁mach~~3247
5~~3248
▁gewann~~3249
▁2008~~3250
getreten~~3251
▁Tokyo~~3252
▁stehe~~3253
▁Rotterdam~~3254
▁wunderschöne~~3255
▁Stadt~~3256
▁Bühne~~3257
▁erzähle~~3258
▁verdiene~~3259
▁zumindest~~3260
▁Haupt~~3261
job~~3262
▁Kranken~~3263
pflege~~3264
▁aufgegeben~~3265
▁Traum~~3266
▁Einzige~~3267
▁pfeifen~~3268
▁Hä~~3269
▁Gleiche~~3270
einander~~3271
▁echt~~3272
▁ca~~3273
üben~~3274
▁Ton~~3275
ud~~3276
igung~~3277
▁Töne~~3278
vielversprechend~~3279
▁Techniker~~3280
▁läuf~~3281
▁geb~~3282
▁Zeichen~~3283
▁Einsatz~~3284
▁leid~~3285
▁gewohnt~~3286
▁start~~3287
selber~~3288
▁Solo~~3289
▁Max~~3290
▁West~~3291
man~~3292
▁herzlich~~3293
▁Mark~~3294
▁Shaw~~3295
▁trockene~~3296
▁Demo~~3297
▁präsentiert~~3298
▁Ultra~~3299
▁Dr~~3300
flüssigkeit~~3301
abweisend~~3302
▁Besch~~3303
ichtung~~3304
▁Schild~~3305
basierte~~3306
▁Material~~3307
▁fungier~~3308
▁Nano~~3309
ebene~~3310
▁bedeckt~~3311
Spray~~3312
▁Regen~~3313
schirm~~3314
prall~~3315
▁zeit~~3316
verzögerte~~3317
bleiben~~3318
▁Unsichtbare~~3319
▁anzuschauen~~3320
▁existierende~~3321
▁aufregende~~3322
fest~~3323
▁nachdenke~~3324
▁Beton~~3325
stein~~3326
▁Hälfte~~3327
▁nanotechnolog~~3328
▁anwendbar~~3329
▁superhydrophobi~~3330
▁unbehandelt~~3331
▁porös~~3332
▁absorbier~~3333
tropfen~~3334
▁rund~~3335
▁hydrophob~~3336
ischer~~3337
▁frisch~~3338
wachs~~3339
rutscht~~3340
▁Winkel~~3341
°~~3342
p~~3343
ierte~~3344
indschutzscheibe~~3345
▁erhöht~~3346
▁110~~3347
▁160~~3348
-1~~3349
75~~3350
▁Demonstration~~3351
▁Paar~~3352
▁Handschuhe~~3353
▁Nanotechnologie~~3354
▁behandelt~~3355
▁gebe~~3356
▁Tipp~~3357
▁trocken~~3358
▁entdeckt~~3359
wissenschaft~~3360
▁Atome~~3361
▁regelrecht~~3362
▁super~~3363
lein~~3364
▁Nanometer~~3365
▁gemessen~~3366
▁Milliardstel~~3367
▁Nanopartikel~~3368
▁Dicke~~3369
▁50.000~~3370
▁ungeheuer~~3371
▁nützlich~~3372
▁Materialien~~3373
lö~~3374
liche~~3375
▁Farbe~~3376
le~~3377
schicht~~3378
▁gefüllt~~3379
▁glatt~~3380
▁Zwischenräume~~3381
▁greifen~~3382
▁bedecken~~3383
▁rutsch~~3384
▁tau~~3385
che~~3386
▁sil~~3387
ber~~3388
ne~~3389
netz~~3390
▁Paddel~~3391
▁bleibt~~3392
▁bestimmt~~3393
▁einsetzen~~3394
▁allgemein~~3395
▁eignet~~3396
▁Anwendung~~3397
▁nass~~3398
eis~~3399
schutz~~3400
▁Kor~~3401
osion~~3402
▁anti~~3403
kte~~3404
ri~~3405
elle~~3406
▁überleben~~3407
einig~~3408
▁Berufs~~3409
feld~~3410
▁revolutionier~~3411
▁zeige~~3412
▁bedanke~~3413
▁Chris~~3414
▁Anderson~~3415
habt~~3416
▁Design~~3417
gestrichen~~3418
▁...~~3419
▁medizinische~~3420
▁Forschung~~3421
▁Haufen~~3422
▁konfrontiert~~3423
▁klappt~~3424
▁Judi~~3425
▁Matz~~3426
▁Dan~~3427
▁Ariel~~3428
▁fehlerhafte~~3429
Verhaltensökonom~~3430
▁Fehler~~3431
▁versteckt~~3432
so~~3433
ß~~3434
▁OK~~3435
▁st~~3436
▁betrügen~~3437
▁unterstreich~~3438
▁Argument~~3439
▁vorhersagbar~~3440
▁irrational~~3441
▁begreife~~3442
▁vorhersehbar~~3443
▁Irrational~~3444
▁Krankenhaus~~3445
▁schwere~~3446
▁begegnet~~3447
station~~3448
▁gestört~~3449
Krankenschwester~~3450
▁Verbände~~3451
wechselt~~3452
▁Heft~~3453
pflaster~~3454
abreißen~~3455
▁intensiv~~3456
▁zwa~~3457
träglich~~3458
▁richtige~~3459
▁Ansatz~~3460
▁Station~~3461
reißen~~3462
▁festgehalten~~3463
gerissen~~3464
▁Körpers~~3465
▁dauerte~~3466
▁Ganze~~3467
▁Stunde~~3468
▁gehasst~~3469
▁Stunden~~3470
▁Patienten~~3471
▁w~~3472
üßte~~3473
▁Richtige~~3474
▁gering~~3475
▁Und~~3476
▁Patient~~3477
▁Ratschläge~~3478
▁Hebräisch~~3479
▁Sprache~~3480
▁machten~~3481
▁angefangen~~3482
▁interessanteste~~3483
▁abstrakte~~3484
▁getan~~3485
▁interessierte~~3486
▁Werkzeug~~3487
▁kaufte~~3488
▁Schraub~~3489
stock~~3490
pan~~3491
▁bi~~3492
que~~3493
tsch~~3494
chmal~~3495
▁kürzer~~3496
▁ansteigende~~3497
▁Pause~~3498
▁fertig~~3499
▁qu~~3500
älen~~3501
▁schmerzhaft~~3502
▁Wenn~~3503
▁entscheiden~~3504
▁Welche~~3505
▁Projekt~~3506
gesprochen~~3507
▁beschäftigte~~3508
▁Geräusche~~3509
▁Elektroschock~~3510
anzug~~3511
▁starke~~3512
▁Schmerzen~~3513
gestellt~~3514
▁unrecht~~3515
▁wundervolle~~3516
▁Absicht~~3517
▁großer~~3518
▁wiederholt~~3519
▁herausstellt~~3520
▁Länge~~3521
▁Intensität~~3522
wegen~~3523
▁weh~~3524
getan~~3525
▁Beine~~3526
zuarbeiten~~3527
▁Laufe~~3528
▁geringer~~3529
▁gegeben~~3530
▁erholen~~3531
▁tolle~~3532
▁Pfleger~~3533
▁täuschen~~3534
▁Fehl~~3535
schätzung~~3536
▁verbreitet~~3537
▁Wir~~3538
rlei~~3539
▁Betrug~~3540
▁beschäftige~~3541
üge~~3542
▁gegenwärtige~~3543
▁Börsen~~3544
▁Enr~~3545
▁betrat~~3546
▁plötzlich~~3547
▁explodierte~~3548
▁schwarze~~3549
▁Schafe~~3550
▁fähig~~3551
eher~~3552
▁Experiment~~3553
▁Blatt~~3554
aufgabe~~3555
▁Blätter~~3556
▁gelöst~~3557
▁Probanden~~3558
▁akzeptiert~~3559
▁gezahlt~~3560
▁Durchschnitt~~3561
▁Sch~~3562
ummel~~3563
leite~~3564
geteilt~~3565
▁zer~~3566
issen~~3567
blatt~~3568
▁stecken~~3569
▁Schnipse~~3570
▁Tasche~~3571
▁beantwortet~~3572
▁sieh~~3573
▁sieben~~3574
▁betr~~3575
ögen~~3576
stheorie~~3577
Nutzen~~3578
Rechnung~~3579
▁Wahrscheinlich~~3580
▁erwischt~~3581
▁wieviel~~3582
nützen~~3583
▁schlimm~~3584
▁Strafe~~3585
gt~~3586
▁entscheide~~3587
▁lohnt~~3588
▁überprüf~~3589
▁Testperson~~3590
▁variiert~~3591
kommen~~3592
▁Wieviel~~3593
▁durfte~~3594
▁zahlt~~3595
▁cent~~3596
▁richtiger~~3597
▁annehmen~~3598
▁Summe~~3599
trogen~~3600
▁stahl~~3601
▁halbe~~3602
▁zerriss~~3603
▁Beweise~~3604
▁übrig~~3605
▁Zimmer~~3606
schale~~3607
▁lag~~3608
▁häufiger~~3609
▁Anreize~~3610
▁offenbar~~3611
▁rational~~3612
▁Kräfte~~3613
▁unterlieg~~3614
seits~~3615
▁Spiegel~~3616
▁Anders~~3617
eit~~3618
▁schummel~~3619
▁gewisse~~3620
grenze~~3621
▁Betrüger~~3622
▁profitier~~3623
▁verschlechtern~~3624
▁test~~3625
uff~~3626
ziger~~3627
Faktor~~3628
▁verkleiner~~3629
geholt~~3630
titel~~3631
zählen~~3632
▁Zehn~~3633
▁Gebote~~3634
▁re~~3635
zi~~3636
schummelt~~3637
▁religiöser~~3638
uß~~3639
▁religiöse~~3640
▁diejenige~~3641
▁sollten~~3642
gehört~~3643
▁Atheist~~3644
▁Bibel~~3645
▁schwöre~~3646
▁schwinde~~3647
▁taten~~3648
▁allerding~~3649
▁schwierig~~3650
▁vereinbar~~3651
▁überlegt~~3652
▁Leuten~~3653
▁verlangen~~3654
▁Ehren~~3655
ko~~3656
dex~~3657
▁unterschreib~~3658
▁bat~~3659
▁folgende~~3660
▁Klar~~3661
▁MIT~~3662
nach~~3663
▁Zettel~~3664
▁allem~~3665
vergrößern~~3666
gelaufen~~3667
▁Sechs~~3668
pack~~3669
▁Kühlschränke~~3670
▁Studenten~~3671
▁Fach~~3672
ja~~3673
rgon~~3674
▁Halb~~3675
wert~~3676
szeit~~3677
▁Kühlschrank~~3678
▁Teller~~3679
Dollar~~3680
Schein~~3681
▁stellte~~3682
schein~~3683
▁verschwunden~~3684
▁gutes~~3685
▁Drittel~~3686
▁Herr~~3687
leiter~~3688
▁Marken~~3689
▁mußte~~3690
tausch~~3691
▁Folgende~~3692
▁Stift~~3693
▁Kleingeld~~3694
▁Sekunden~~3695
denkt~~3696
▁bekommt~~3697
▁doppelt~~3698
▁Börse~~3699
▁zusätzliche~~3700
▁Element~~3701
▁besaß~~3702
▁Tag~~3703
▁öffnen~~3704
▁neues~~3705
▁rekrutiert~~3706
▁teilzunehmen~~3707
▁Voraus~~3708
▁Umschlag~~3709
▁Bezahl~~3710
stünde~~3711
▁Schauspiel~~3712
schüler~~3713
▁engagiert~~3714
▁Rolle~~3715
stehen~~3716
▁heim~~3717
▁Mission~~3718
▁erfüllt~~3719
studenten~~3720
▁eingesch~~3721
▁wußte~~3722
▁Schauspieler~~3723
▁begangen~~3724
▁reagiere~~3725
▁Sweat~~3726
shirt~~3727
trägt~~3728
▁Uni~~3729
▁durchgeführt~~3730
▁Pittsburgh~~3731
▁Carnegie~~3732
▁Mellon~~3733
▁University~~3734
▁of~~3735
▁studiert~~3736
Studenten~~3737
▁spielte~~3738
Student~~3739
ogel~~3740
hatte~~3741
rger~~3742
▁hast~~3743
▁behalten~~3744
mehr~~3745
▁norm~~3746
at~~3747
Gruppe~~3748
▁betrüg~~3749
▁angemessen~~3750
▁bestimmte~~3751
identifizieren~~3752
▁Ehrlich~~3753
▁stärker~~3754
▁wahrgenommen~~3755
Ge~~3756
bot~~3757
Experiment~~3758
▁Einzelne~~3759
▁Moral~~3760
▁anfühlt~~3761
▁beispiels~~3762
▁indirekt~~3763
▁Wirklichkeit~~3764
▁verzerrt~~3765
zunehmen~~3766
▁Aktien~~3767
tion~~3768
ative~~3769
▁Hypothek~~3770
gestützt~~3771
papier~~3772
▁repräsentiere~~3773
▁Umwandlung~~3774
schritte~~3775
▁bleiben~~3776
▁Nächsten~~3777
▁Auswirkung~~3778
▁generell~~3779
ökonomie~~3780
▁Intuition~~3781
▁leiten~~3782
▁falsch~~3783
▁Probe~~3784
▁überlegen~~3785
▁Privatleben~~3786
geschäft~~3787
▁Amerikanische~~3788
reform~~3789
▁2001~~3790
chaffung~~3791
▁neuer~~3792
märkte~~3793
politik~~3794
Gesundheitswesen~~3795
▁hinterfragen~~3796
▁zurückging~~3797
zusehen~~3798
▁interessante~~3799
schwester~~3800
bezogen~~3801
▁jemande~~3802
▁wechseln~~3803
Zeitraum~~3804
ual~~3805
▁interessanter~~3806
▁glaubte~~3807
gebung~~3808
▁schwierige~~3809
▁veranstalte~~3810
▁Mögliche~~3811
squalität~~3812
▁systematische~~3813
▁Experimente~~3814
▁McG~~3815
onig~~3816
▁Massen~~3817
Mehrspieler~~3818
▁Daumen~~3819
ringen~~3820
▁bringt~~3821
▁Chaos~~3822
▁versuchte~~3823
spiel~~3824
zubringen~~3825
▁anderer~~3826
▁kenne~~3827
▁positive~~3828
▁Minute~~3829
rleichter~~3830
▁Liebe~~3831
berraschung~~3832
▁Stolz~~3833
▁Neugier~~3834
▁Aufreg~~3835
▁Verwund~~3836
erung~~3837
▁Zufriedenheit~~3838
▁Zeitspanne~~3839
▁brauche~~3840
▁Freiwillige~~3841
▁praktische~~3842
▁hochkomm~~3843
V~~3844
reinigung~~3845
sterreich~~3846
▁namens~~3847
▁Monochrom~~3848
▁Sunni~~3849
▁erkläre~~3850
Kampf~~3851
▁ring~~3852
▁Beste~~3853
▁Game~~3854
Generation~~3855
▁Milliarde~~3856
▁Eric~~3857
▁anschließen~~3858
▁gewinn~~3859
▁derjenige~~3860
▁fest~~3861
nagel~~3862
▁warten~~3863
▁drauf~~3864
stürzen~~3865
▁Ah~~3866
▁typische~~3867
anzahl~~3868
▁Knoten~~3869
▁ambition~~3870
iert~~3871
reiz~~3872
merken~~3873
mögen~~3874
▁einbeziehen~~3875
▁geschlossen~~3876
strecken~~3877
▁1500~~3878
änge~~3879
▁losgeh~~3880
▁freue~~3881
▁Grafik~~3882
▁Level~~3883
▁Fort~~3884
schritten~~3885
▁Konfiguration~~3886
▁Todes~~3887
figur~~3888
▁irgendwelche~~3889
▁Star~~3890
War~~3891
Fan~~3892
▁Möbius~~3893
▁Wissenschafts~~3894
▁schwerste~~3895
▁extrem~~3896
▁erstmal~~3897
▁dreißig~~3898
▁Netzwerk~~3899
▁leichter~~3900
▁frei~~3901
▁sicher~~3902
▁Last~~3903
check~~3904
▁schnapp~~3905
▁reichen~~3906
▁Auge~~3907
pit~~3908
▁wovo~~3909
▁redet~~3910
▁brauchte~~3911
▁tatsächliche~~3912
▁erzeugt~~3913
▁Sitz~~3914
▁physikalische~~3915
schütteln~~3916
lacht~~3917
▁send~~3918
Mail~~3919
▁abrufe~~3920
▁komplett~~3921
fu~~3922
cht~~3923
▁körperlich~~3924
propos~~3925
▁körperliche~~3926
▁Hormon~~3927
▁Oxytocin~~3928
▁setzt~~3929
▁beste~~3930
▁freizu~~3931
setzen~~3932
▁mindesten~~3933
▁Hände~~3934
▁biochemisch~~3935
▁eingestellt~~3936
▁lieben~~3937
ging~~3938
▁vorher~~3939
▁Glück~~3940
wunsch~~3941
▁Neuigkeit~~3942
▁offizielle~~3943
▁Groß~~3944
meister~~3945
▁Spiels~~3946
▁beschleunigen~~3947
▁Schachspiel~~3948
▁irgendjemand~~3949
▁Twitter~~3950
▁Facebook~~3951
status~~3952
▁aktualisiere~~3953
▁Regelwerk~~3954
▁legendäre~~3955
▁passen~~3956
▁Verrückte~~3957
▁Schl~~3958
▁Wh~~3959
uuu~~3960
▁Tod~~3961
over~~3962
▁Ells~~3963
▁Media~~3964
▁Lab~~3965
▁widmet~~3966
▁musikalische~~3967
▁Virtuos~~3968
▁Amateur~~3969
▁Oper~~3970
▁Videospiel~~3971
bieten~~3972
▁Komponist~~3973
schluss~~3974
▁Gedanke~~3975
stoßen~~3976
▁Mozart~~3977
effekt~~3978
▁ungeborene~~3979
Wert~~3980
▁bloß~~3981
▁hinzufügen~~3982
▁dynamische~~3983
▁Kern~~3984
stücke~~3985
▁jedermann~~3986
▁mitten~~3987
▁Erlebnis~~3988
▁sogenannte~~3989
▁Hyper~~3990
instrument~~3991
▁Interpret~~3992
▁erfand~~3993
Y~~3994
▁Ma~~3995
▁Gabriel~~3996
▁Prince~~3997
▁Orchester~~3998
▁Rockband~~3999
▁Instrumente~~4000
▁eingebaut~~4001
▁Instrument~~4002
▁Interpretation~~4003
▁verändere~~4004
▁Cello~~4005
▁Stimme~~4006
▁fantastische~~4007
▁Serie~~4008
Kollektion~~4009
▁Brain~~4010
▁Opera~~4011
▁gestaltet~~4012
▁natürliche~~4013
▁Geschick~~4014
▁Musikstück~~4015
bewegung~~4016
▁Klang~~4017
massen~~4018
▁Ta~~4019
oberfläche~~4020
▁Melodie~~4021
▁Aura~~4022
▁erzeugen~~4023
▁auszu~~4024
probieren~~4025
▁mitzu~~4026
wirken~~4027
▁Aufführung~~4028
ourne~~4029
▁dauerhaft~~4030
▁Museum~~4031
▁gebaut~~4032
▁führte~~4033
▁Guitar~~4034
▁Hero~~4035
töchter~~4036
fern~~4037
▁Interface~~4038
▁bereitstellt~~4039
▁interessiert~~4040
zuspielen~~4041
▁Eisberg~~4042
▁zweiter~~4043
▁reicht~~4044
▁umgestalten~~4045
▁meist~~4046
▁verändern~~4047
▁kommunizieren~~4048
▁Geist~~4049
score~~4050
▁ausreichend~~4051
▁Effekte~~4052
▁interessiere~~4053
▁schöpferische~~4054
▁breiter~~4055
▁Musizieren~~4056
▁wachsende~~4057
▁Gebiete~~4058
▁derzeit~~4059
▁Oliver~~4060
▁Sack~~4061
▁Music~~4062
phil~~4063
ia~~4064
▁erschienen~~4065
swert~~4066
▁Pianist~~4067
▁ungewöhnliche~~4068
▁beobachtet~~4069
▁Letzte~~4070
▁fortgeschritten~~4071
▁Alzheimer~~4072
▁ansprechen~~4073
▁Nahe~~4074
▁bemerkt~~4075
rag~~4076
ment~~4077
▁Stuhl~~4078
▁springen~~4079
▁teilweise~~4080
▁Persönlichkeit~~4081
▁zurückbring~~4082
▁Schlaganfälle~~4083
▁Bewegungen~~4084
▁Parkinson~~4085
▁wiederher~~4086
▁wirkungsvoll~~4087
▁Schizophren~~4088
▁liegende~~4089
▁Prinzipien~~4090
erlei~~4091
▁Krankenhäuser~~4092
▁Nähe~~4093
▁Boston~~4094
▁Te~~4095
wksb~~4096
ury~~4097
▁Hospital~~4098
▁Langzeit~~4099
rankenhaus~~4100
▁geistige~~4101
▁Behinderung~~4102
Hauptbestandteil~~4103
▁Behandlung~~4104
▁scheint~~4105
behandlung~~4106
▁beschleunigt~~4107
▁weitermache~~4108
▁echtes~~4109
uscht~~4110
▁Gedächtnis~~4111
▁trainiere~~4112
▁musizier~~4113
▁experimentiere~~4114
▁Null~~4115
▁tiefgreifende~~4116
▁dritte~~4117
▁paradox~~4118
▁Worte~~4119
▁Reden~~4120
▁seltsam~~4121
▁nervös~~4122
▁Synthesizer~~4123
▁teilte~~4124
▁tiefere~~4125
▁Beispiele~~4126
▁mächtigste~~4127
▁Schnittstelle~~4128
▁Außen~~4129
▁aufzeigen~~4130
▁irre~~4131
▁D~~4132
eath~~4133
▁Power~~4134
projekte~~4135
▁mächtig~~4136
▁Umwelt~~4137
▁herunterzu~~4138
▁Bücher~~4139
▁Kerl~~4140
▁ewig~~4141
▁läd~~4142
▁verschwinde~~4143
▁Beginn~~4144
charakter~~4145
▁Vermächtnis~~4146
▁handelt~~4147
▁weitergebe~~4148
▁Objekt~~4149
▁gigantische~~4150
▁Kr~~4151
uch~~4152
ter~~4153
▁robotische~~4154
▁Prototyp~~4155
▁Klavier~~4156
sai~~4157
▁Sa~~4158
ite~~4159
▁streich~~4160
▁Propeller~~4161
pfen~~4162
▁akustische~~4163
▁Signale~~4164
▁vibrier~~4165
▁vermitteln~~4166
▁gewissermaß~~4167
▁Simon~~4168
▁griechische~~4169
▁Chor~~4170
▁Handlung~~4171
eckige~~4172
Bot~~4173
▁Charakter~~4174
rempel~~4175
▁hoffen~~4176
pp~~4177
▁Belieb~~4178
reihen~~4179
▁Würfel~~4180
▁Wände~~4181
▁Gesten~~4182
▁gewählt~~4183
gepackt~~4184
▁LED~~4185
▁Bildschirm~~4186
▁Bar~~4187
▁James~~4188
▁Mad~~4189
dale~~4190
na~~4191
▁betritt~~4192
offizielle~~4193
schau~~4194
▁Premiere~~4195
▁Mona~~4196
co~~4197
▁September~~4198
▁irgendeine~~4199
▁online~~4200
▁Räume~~4201
▁zugänglich~~4202
▁Große~~4203
▁wandeln~~4204
▁gezeigt~~4205
cell~~4206
▁kn~~4207
au~~4208
iges~~4209
▁Spielzeug~~4210
▁anpassen~~4211
▁besondere~~4212
▁einladen~~4213
▁Applau~~4214
▁Adam~~4215
ou~~4216
▁Bomba~~4217
▁Fle~~4218
jet~~4219
▁motiviert~~4220
▁willst~~4221
▁Name~~4222
erebral~~4223
▁geliebt~~4224
▁Software~~4225
▁dirigier~~4226
▁traf~~4227
▁dreieinhalb~~4228
▁erwies~~4229
▁schüchtern~~4230
▁as~~4231
lo~~4232
▁komponiert~~4233
▁regelmäßig~~4234
▁Mitarbeiter~~4235
▁Stücke~~4236
▁CD~~4237
▁betreut~~4238
▁Experte~~4239
▁enge~~4240
▁letzen~~4241
▁gearbeitet~~4242
▁ermöglichen~~4243
▁arbeitet~~4244
▁Nuance~~4245
▁Präzision~~4246
▁braucht~~4247
▁technische~~4248
▁Fire~~4249
ire~~4250
Kamera~~4251
▁betrachtet~~4252
point~~4253
▁wählte~~4254
▁Geb~~4255
übertragung~~4256
▁Sprach~~4257
kontrolle~~4258
▁gewöhnt~~4259
▁uninteressant~~4260
est~~4261
▁Gestaltung~~4262
sverfahren~~4263
▁Input~~4264
▁fortwährend~~4265
Tracking~~4266
▁schaut~~4267
▁Konstruktion~~4268
teil~~4269
▁folgte~~4270
▁Aspekt~~4271
▁Schulter~~4272
▁cod~~4273
ierten~~4274
▁expressive~~4275
▁Bewegung~~4276
▁brauchbar~~4277
▁übermittel~~4278
▁Parameter~~4279
▁stimmt~~4280
gedehnt~~4281
▁passt~~4282
pe~~4283
kt~~4284
wechsel~~4285
▁erlaub~~4286
▁kreativer~~4287
liefert~~4288
drücken~~4289
▁Strukturen~~4290
▁Beziehung~~4291
▁technologische~~4292
▁fehlt~~4293
sprozess~~4294
▁Also~~4295
▁My~~4296
▁Eagle~~4297
▁Song~~4298
▁Partitur~~4299
track~~4300
▁hineingeh~~4301
▁bescheiden~~4302
▁beginn~~4303
▁platziere~~4304
▁erhält~~4305
fenster~~4306
▁zeichnet~~4307
▁Linien~~4308
▁platziert~~4309
▁anschaut~~4310
▁Abschnitte~~4311
▁verrückt~~4312
▁endet~~4313
▁Knall~~4314
▁analysiert~~4315
▁Aspekte~~4316
▁hervorbring~~4317
▁Graphik~~4318
Screen~~4319
▁bemerken~~4320
▁misst~~4321
▁verfolgt~~4322
▁wesentlich~~4323
▁verdeutlich~~4324
filter~~4325
▁anschaue~~4326
ziel~~4327
gerichtet~~4328
▁diszipliniert~~4329
hören~~4330
▁Byr~~4331
▁Architektur~~4332
▁unterstützt~~4333
▁CB~~4334
GB~~4335
▁Konzerte~~4336
▁Lauf~~4337
▁Hall~~4338
▁fragt~~4339
▁Veranstaltung~~4340
sort~~4341
▁Trommel~~4342
▁freie~~4343
▁Wagner~~4344
O~~4345
per~~4346
▁Arena~~4347
ock~~4348
▁Umstände~~4349
angetrieben~~4350
▁unregelmäßige~~4351
▁klang~~4352
▁aufgenommen~~4353
▁Head~~4354
▁jedenfall~~4355
)~~4356
▁Beschaffen~~4357
heit~~4358
▁bewirkt~~4359
▁Texte~~4360
ana~~4361
maßen~~4362
ständig~~4363
heitlich~~4364
▁präzise~~4365
▁Too~~4366
sie~~4367
▁Orchid~~4368
▁Lo~~4369
▁Nash~~4370
ville~~4371
▁mancher~~4372
▁Hinsicht~~4373
▁Struktur~~4374
▁verhielt~~4375
▁Band~~4376
▁Laut~~4377
ke~~4378
fallen~~4379
▁Ruf~~4380
▁übertön~~4381
▁Säle~~4382
▁schöner~~4383
▁Disney~~4384
▁aufregend~~4385
▁festgestellt~~4386
▁zurecht~~4387
▁passend~~4388
▁schreibe~~4389
▁schwebt~~4390
▁Saal~~4391
▁sowas~~4392
▁Afrika~~4393
▁populär~~4394
▁tiefe~~4395
▁Wurzel~~4396
▁sag~~4397
▁fun~~4398
▁geling~~4399
▁Kulisse~~4400
▁durcheinander~~4401
▁Verstärk~~4402
▁Zufall~~4403
▁heil~~4404
lose~~4405
▁Durch~~4406
▁got~~4407
▁Kathedrale~~4408
▁Noten~~4409
werte~~4410
schmeichel~~4411
▁Bach~~4412
▁Or~~4413
gel~~4414
▁aufwendig~~4415
▁Risiko~~4416
▁Dissonanz~~4417
▁17~~4418
70~~4419
▁verspielt~~4420
▁komplex~~4421
▁La~~4422
▁Scal~~4423
7~~4424
häusern~~4425
gerufen~~4426
▁gegessen~~4427
▁Club~~4428
rie~~4429
▁br~~4430
▁rief~~4431
▁Zuga~~4432
Erlebnis~~4433
▁Neuerung~~4434
ek~~4435
take~~4436
graben~~4437
▁vergrößert~~4438
stimmig~~4439
▁hineinpass~~4440
▁beliebt~~4441
▁Symphonie~~4442
Saa~~4443
▁Alex~~4444
▁Ross~~4445
▁New~~4446
orker~~4447
▁trat~~4448
▁leise~~4449
▁Trink~~4450
▁Tra~~4451
▁kombiniert~~4452
▁wirkt~~4453
▁extreme~~4454
▁eingesetzt~~4455
arten~~4456
▁gewissen~~4457
▁rhythmisch~~4458
▁strukturell~~4459
▁Mahl~~4460
▁Bob~~4461
▁Dylan~~4462
▁yea~~4463
▁populäre~~4464
▁Jazz~~4465
▁Scott~~4466
▁Jo~~4467
plin~~4468
▁Fluß~~4469
dampf~~4470
▁Tanz~~4471
publik~~4472
▁Tänzer~~4473
▁mochten~~4474
▁na~~4475
▁endlos~~4476
▁wiederholen~~4477
▁improvisieren~~4478
▁Latin~~4479
▁ändert~~4480
veranstaltung~~4481
▁gelangte~~4482
▁Mikrofon~~4483
▁ermöglicht~~4484
▁Sänger~~4485
▁Musiker~~4486
▁Radio~~4487
▁gesendet~~4488
▁Live~~4489
▁Sina~~4490
tra~~4491
▁Songs~~4492
amp~~4493
▁translator~~4494
▁note~~4495
▁f~~4496
av~~4497
our~~4498
▁Review~~4499
▁please~~4500
▁delete~~4501
▁g~~4502
▁Ch~~4503
▁Baker~~4504
▁sing~~4505
▁Dein~~4506
▁Ohr~~4507
▁flüstert~~4508
isierende~~4509
▁Effekt~~4510
▁Dir~~4511
▁geschieden~~4512
▁aufgezeichnet~~4513
▁Ju~~4514
Box~~4515
▁Kneipe~~4516
▁Anlagen~~4517
▁speziell~~4518
▁Passage~~4519
▁frühe~~4520
▁Hip~~4521
Hop~~4522
Gruppen~~4523
geschnitten~~4524
▁Moderator~~4525
▁aufge~~4526
besser~~4527
▁Geburt~~4528
▁Orten~~4529
▁aufgeführt~~4530
kus~~4531
tisch~~4532
▁schlechtes~~4533
adi~~4534
▁Basketball~~4535
all~~4536
hoc~~4537
key~~4538
Stadien~~4539
fan~~4540
▁Bal~~4541
▁moderate~~4542
▁Tempo~~4543
▁Tem~~4544
pi~~4545
▁moderat~~4546
▁grandios~~4547
▁gesellig~~4548
▁Stimmung~~4549
▁Umstand~~4550
▁Autoradio~~4551
ufgewachsen~~4552
▁mittler~~4553
weile~~4554
Stereoanlage~~4555
▁Frequenz~~4556
ässe~~4557
▁high~~4558
▁dazwischen~~4559
▁Deine~~4560
▁Medium~~4561
▁private~~4562
▁MP~~4563
▁Player~~4564
▁christliche~~4565
▁Hin~~4566
▁still~~4567
Afrika~~4568
▁dr~~4569
eh~~4570
▁Lautstärke~~4571
▁lauter~~4572
▁Pop~~4573
▁heut~~4574
zu~~4575
tage~~4576
▁gewisser~~4577
▁Gerät~~4578
▁gross~~4579
▁praktizieren~~4580
▁woanders~~4581
▁Davi~~4582
▁Attenborough~~4583
▁Vögel~~4584
dach~~4585
frequent~~4586
▁Wald~~4587
boden~~4588
▁reflektiert~~4589
▁Gras~~4590
amme~~4591
▁summ~~4592
energie~~4593
sparen~~4594
▁praktisch~~4595
▁Landschaften~~4596
▁Savanne~~4597
▁verbreiten~~4598
▁Tana~~4599
▁angepasst~~4600
▁Ostküste~~4601
▁Wälder~~4602
▁dichter~~4603
▁Westküste~~4604
▁gedacht~~4605
▁Schöpfung~~4606
smodell~~4607
▁Linie~~4608
▁Kunstgalerie~~4609
▁Muse~~4610
▁hängt~~4611
▁Programme~~4612
▁Betriebssystem~~4613
▁evolutionär~~4614
▁lernfähig~~4615
▁umgekehrte~~4616
▁Sichtweise~~4617
▁romantische~~4618
▁Standpunkt~~4619
▁Gefühle~~4620
▁irgendetw~~4621
as~~4622
▁geformt~~4623
▁Gefäß~~4624
▁injiziert~~4625
▁instinktiv~~4626
▁intuitiv~~4627
▁hingeh~~4628
▁Konflikt~~4629
▁Ansicht~~4630
▁Autor~~4631
▁Thom~~4632
▁mögliche~~4633
▁Erklärung~~4634
▁entgegen~~4635
▁Belange~~4636
▁aufrichtig~~4637
▁Bauch~~4638
▁echter~~4639
▁Glaub~~4640
würdigkeit~~4641
▁vortäusch~~4642
▁Erkenntnis~~4643
▁Vögeln~~4644
passen~~4645
▁Iran~~4646
Liebesgeschichte~~4647
▁14.~~4648
▁Mär~~4649
▁Jahres~~4650
▁Poster~~4651
▁gepostet~~4652
▁israelische~~4653
▁Flagge~~4654
▁erläuter~~4655
▁post~~4656
▁Tagen~~4657
▁wartete~~4658
▁Schlange~~4659
▁Supermarkt~~4660
▁Besitzer~~4661
▁sprachen~~4662
▁erklärte~~4663
▁10.000~~4664
▁Raketen~~4665
▁nieder~~4666
▁Krieg~~4667
▁unternehmen~~4668
▁spät~~4669
▁handeln~~4670
▁Grafikdesigner~~4671
▁like~~4672
▁Bett~~4673
▁Nacht~~4674
▁wachte~~4675
wache~~4676
▁nachts~~4677
▁vorbei~~4678
▁Punkte~~4679
▁gehe~~4680
▁beginne~~4681
▁Was~~4682
▁Nachbarn~~4683
▁Mädchen~~4684
▁Wohnzimmer~~4685
▁weinen~~4686
▁wow~~4687
▁las~~4688
▁Text~~4689
▁weinte~~4690
▁Reflex~~4691
redet~~4692
▁ernsthaft~~4693
tete~~4694
▁gib~~4695
▁ausgelöst~~4696
▁schicken~~4697
▁Iraner~~4698
▁ergreifend~~4699
▁erhielt~~4700
▁Kommentare~~4701
▁Nachrichten~~4702
▁antwortete~~4703
rück~~4704
▁Kommunikation~~4705
▁gegenseitige~~4706
▁Israelis~~4707
▁hasse~~4708
▁Völker~~4709
▁Feinde~~4710
▁Schwelle~~4711
▁Osten~~4712
▁Okay~~4713
▁lass~~4714
▁erinnere~~4715
▁Mich~~4716
▁sprach~~4717
▁Palästina~~4718
▁Jeder~~4719
▁Syri~~4720
▁Libanon~~4721
▁Chinese~~4722
▁tauchte~~4723
▁Logo~~4724
liebt~~4725
Israel~~4726
▁Teher~~4727
▁lieb~~4728
widmet~~4729
▁verstand~~4730
▁passierte~~4731
▁Freund~~4732
▁Goog~~4733
▁Wort~~4734
▁Google~~4735
▁auftauchte~~4736
gab~~4737
▁tippe~~4738
▁erscheinen~~4739
Iran~~4740
Webseite~~4741
▁83~~4742
▁Like~~4743
▁kommentiert~~4744
▁Erstellen~~4745
▁wahrnimmt~~4746
Seite~~4747
▁Gedenk~~4748
▁gefallen~~4749
▁Soldaten~~4750
lei~~4751
▁Liebste~~4752
▁Terror~~4753
anschlag~~4754
▁zolle~~4755
▁Respekt~~4756
▁Mitgefühl~~4757
▁reisen~~4758
▁Münch~~4759
▁Eröffnung~~4760
▁Ausstellung~~4761
▁Webseite~~4762
▁komme~~4763
▁Frankreich~~4764
▁schüttelt~~4765
▁trank~~4766
▁Unterhaltung~~4767
▁umgekehrt~~4768
▁Flughafen~~4769
ion~~4770
▁Stress~~4771
▁startete~~4772
▁Kampagne~~4773
▁Nicht~~4774
▁eure~~4775
▁sterben~~4776
▁dieselbe~~4777
▁Ag~~4778
ivität~~4779
▁Erstaunliche~~4780
▁Welle~~4781
▁herkommen~~4782
leicht~~4783
▁Ron~~4784
▁Ed~~4785
ry~~4786
▁41~~4787
▁Israeli~~4788
▁Ehemann~~4789
▁unterrichte~~4790
▁Grafikdesign~~4791
▁naiv~~4792
▁Blumen~~4793
▁rüber~~4794
▁Armee~~4795
▁Fallschirm~~4796
jäger~~4797
▁mutige~~4798
▁erreichen~~4799
gänglich~~4800
▁vermeiden~~4801
▁Volk~~4802
▁Botschafter~~4803
▁helfen~~4804
▁Frieden~~4805
▁Franz~~4806
▁Se~~4807
bo~~4808
▁Charles~~4809
▁Moore~~4810
▁Plastik~~4811
▁Kapitän~~4812
gali~~4813
▁Marine~~4814
▁R~~4815
esearch~~4816
▁Foundation~~4817
▁entdeckte~~4818
▁Pacific~~4819
arbage~~4820
▁Pat~~4821
▁endlose~~4822
▁Müllhalde~~4823
▁schwimmende~~4824
Müll~~4825
▁lenkt~~4826
▁Aufmerksamkeit~~4827
▁ersticken~~4828
A~~4829
blagerung~~4830
▁Müll~~4831
▁Ethik~~4832
▁Bewahr~~4833
▁Weltwirtschaft~~4834
skrise~~4835
▁2.~~4836
▁Weltkrieg~~4837
▁Produktions~~4838
kapazität~~4839
▁Erschaffung~~4840
▁Produkten~~4841
▁Friedens~~4842
▁Life~~4843
▁Magazine~~4844
holfen~~4845
▁Einführung~~4846
▁Wegwerf~~4847
produkt~~4848
▁verkündete~~4849
▁Hausfrau~~4850
▁Mühe~~4851
wasch~~4852
▁befreien~~4853
▁gedankliche~~4854
▁Anmerkung~~4855
frei~~4856
▁Produkte~~4857
▁biologisch~~4858
▁abbaubar~~4859
produkte~~4860
▁außerdem~~4861
▁recycle~~4862
▁aufbereitet~~4863
▁bezeichnet~~4864
komm~~4865
gar~~4866
▁Schmelz~~4867
punkt~~4868
schmelze~~4869
▁sauberer~~4870
▁Glas~~4871
▁Metall~~4872
halb~~4873
▁schmelzen~~4874
▁verliert~~4875
▁ölige~~4876
▁Bestandteile~~4877
▁Schwamm~~4878
▁gespeichert~~4879
ran~~4880
pur~~4881
spen~~4882
▁Flüsse~~4883
▁hinunter~~4884
Creek~~4885
▁Los~~4886
▁Angeles~~4887
▁Treib~~4888
gut~~4889
▁nahe~~4890
▁California~~4891
▁State~~4892
▁Long~~4893
▁Beach~~4894
▁Entsalzung~~4895
werk~~4896
▁besucht~~4897
▁Pf~~4898
and~~4899
systems~~4900
getränk~~4901
flaschen~~4902
▁visualisiert~~4903
Teil~~4904
nehmer~~4905
▁Jordan~~4906
konsum~~4907
▁kunstvoll~~4908
▁detailliert~~4909
▁dokumentiert~~4910
▁Flaschen~~4911
▁abgelegene~~4912
▁Insel~~4913
▁Küste~~4914
▁Nieder~~4915
alif~~4916
▁Ro~~4917
ohn~~4918
▁Vogel~~4919
kolonie~~4920
▁kau~~4921
▁beachten~~4922
kappen~~4923
▁besitzen~~4924
▁Poly~~4925
ep~~4926
hal~~4927
▁Salzwasser~~4928
▁versink~~4929
▁Zivilisation~~4930
nähe~~4931
▁auftauchen~~4932
▁Verschlüsse~~4933
▁Fabrik~~4934
▁hergestellt~~4935
pro~~4936
py~~4937
▁schwimmen~~4938
▁unglücklich~~4939
vorschrift~~4940
schlüsse~~4941
▁nachvollzieh~~4942
▁Flasche~~4943
▁treiben~~4944
▁kalifornische~~4945
▁Strömung~~4946
▁Süden~~4947
▁Ca~~4948
▁Luca~~4949
▁Eastern~~4950
▁Philippine~~4951
▁verschmutzen~~4952
▁beginnend~~4953
▁Ansammlung~~4954
▁Verschm~~4955
utzung~~4956
▁Nord~~4957
pa~~4958
ik~~4959
wirbel~~4960
▁Albatross~~4961
▁Ku~~4962
▁Mid~~4963
way~~4964
Inseln~~4965
▁Northwest~~4966
▁Hawaiian~~4967
▁Islands~~4968
▁National~~4969
▁Monument~~4970
füttern~~4971
▁alte~~4972
▁Junge~~4973
lbatross~~4974
▁Magen~~4975
inhalt~~4976
großen~~4977
▁Bäuch~~4978
▁Feuerzeug~~4979
▁verwechsel~~4980
reibt~~4981
▁Ringe~~4982
▁Konsequenzen~~4983
▁Mae~~4984
▁Heim~~4985
▁Orleans~~4986
▁inwie~~4987
weit~~4988
▁Heimat~~4989
stadt~~4990
▁daher~~4991
ub~~4992
Halb~~4993
insel~~4994
▁östlich~~4995
▁säuber~~4996
▁weite~~4997
▁bot~~4998
▁Cent~~4999
▁Lieferant~~5000
00~~5001
▁investieren~~5002
▁Aktion~~5003
▁kostete~~5004
▁sort~~5005
▁Earth~~5006
▁Day~~5007
llo~~5008
▁Aquarium~~5009
▁Pedr~~5010
▁Schau~~5011
▁Gouverneur~~5012
▁Schwarzen~~5013
gger~~5014
▁Maria~~5015
▁Gespräch~~5016
▁feminine~~5017
▁Hut~~5018
▁Plastiktüte~~5019
kel~~5020
schüttelt~~5021
▁zeigte~~5022
▁Zo~~5023
oplankton~~5024
chle~~5025
ppnet~~5026
▁Wirbel~~5027
▁Hawaii~~5028
▁Plankton~~5029
▁filter~~5030
suppe~~5031
▁1,6~~5032
zieht~~5033
▁entstehen~~5034
▁Proben~~5035
▁Strände~~5036
gespült~~5037
▁Kai~~5038
ua~~5039
▁Präsident~~5040
▁zog~~5041
Fragmente~~5042
Kategorie~~5043
▁Millimeter~~5044
Millimeter~~5045
Stück~~5046
▁Schadstoffe~~5047
▁Konzentration~~5048
▁umgebende~~5049
▁häufigste~~5050
▁vorkommende~~5051
▁Nahrungskette~~5052
▁giftige~~5053
▁Pillen~~5054
▁sezier~~5055
▁verschmutzte~~5056
trakt~~5057
▁Rekord~~5058
▁c~~5059
▁84~~5060
▁winzige~~5061
▁zertifizierte~~5062
▁Obst~~5063
▁Gemüse~~5064
händler~~5065
▁Wildnis~~5066
▁verkaufen~~5067
▁Erbe~~5068
▁zukünftige~~5069
▁hinterlasse~~5070
gesellschaft~~5071
ämmt~~5072
lagern~~5073
▁erhalten~~5074
▁Marktwirtschaft~~5075
▁zerstört~~5076
▁Pferde~~5077
sammeln~~5078
▁P~~5079
egel~~5080
▁Verpackung~~5081
Mentalität~~5082
▁Sprecher~~5083
▁sauber~~5084
nseits~~5085
▁jedwede~~5086
▁Budget~~5087
▁unvorhersehbar~~5088
▁Meereslebe~~5089
wesen~~5090
▁getötet~~5091
▁stoppen~~5092
▁Meere~~5093
▁gelangt~~5094
▁p~~5095
last~~5096
▁Brian~~5097
one~~5098
▁Night~~5099
▁Kalifornien~~5100
▁Carol~~5101
▁Steel~~5102
▁Städte~~5103
▁Mahlzeiten~~5104
▁serviert~~5105
▁Architekt~~5106
▁tägliche~~5107
▁ernährt~~5108
▁Nahrungs~~5109
beschaffung~~5110
▁moderne~~5111
▁gestellt~~5112
▁Restaurant~~5113
oyer~~5114
▁Nichts~~5115
▁täglich~~5116
▁transportiert~~5117
▁gekauft~~5118
▁verkauft~~5119
▁gekocht~~5120
▁entsorg~~5121
▁vergleichbare~~5122
▁bemerkenswert~~5123
▁Natürlich~~5124
▁abhängig~~5125
▁Vorfahre~~5126
▁umso~~5127
räume~~5128
▁außerordentlich~~5129
▁Soja~~5130
Feld~~5131
▁Mata~~5132
▁Gross~~5133
▁Brasilien~~5134
▁ernähre~~5135
▁zunehmende~~5136
▁Maße~~5137
▁dienen~~5138
erzeugung~~5139
▁Fleisch~~5140
▁jährlich~~5141
▁Getreide~~5142
produktion~~5143
futter~~5144
▁dreimal~~5145
▁tierische~~5146
▁Ursprung~~5147
▁effizienter~~5148
50~~5149
schätz~~5150
ungsweise~~5151
▁Städten~~5152
▁geschätzt~~5153
▁Milch~~5154
▁konsumiert~~5155
▁Urban~~5156
▁gewaltige~~5157
▁hungrig~~5158
▁Fleischfresser~~5159
unwahrscheinlich~~5160
▁19~~5161
▁Hektar~~5162
▁Reg~~5163
wald~~5164
bau~~5165
fähige~~5166
flächen~~5167
▁Anbau~~5168
fläche~~5169
▁Erosion~~5170
▁fossil~~5171
▁Brennstoffe~~5172
▁Kalorien~~5173
▁benötigt~~5174
▁Kal~~5175
ori~~5176
▁Westen~~5177
▁konsumieren~~5178
▁Lebensmittel~~5179
▁weggeschm~~5180
▁ordentlich~~5181
▁fettleibig~~5182
▁hunger~~5183
▁multinational~~5184
orporation~~5185
▁düstere~~5186
▁Ernährungsweise~~5187
▁blicken~~5188
▁Ernährung~~5189
soweit~~5190
▁Antwort~~5191
▁einfachere~~5192
▁Frucht~~5193
bar~~5194
▁Halbmond~~5195
▁fruchtbar~~5196
▁Erfindungen~~5197
▁Landwirtschaft~~5198
▁gehören~~5199
▁Nahrungsquelle~~5200
▁dauerhafte~~5201
▁Siedlung~~5202
▁aussah~~5203
▁kompakt~~5204
▁fruchtbare~~5205
▁umgeben~~5206
▁Tempel~~5207
anlagen~~5208
▁Ur~~5209
▁zentralisierte~~5210
distribution~~5211
zentr~~5212
▁Ernte~~5213
gesammelt~~5214
▁Götter~~5215
▁Rest~~5216
▁verteilen~~5217
▁Lebensgrundlage~~5218
▁Rom~~5219
▁Jahrhundert~~5220
▁nenne~~5221
▁antike~~5222
wege~~5223
▁Strassen~~5224
transportieren~~5225
ar~~5226
▁Kriege~~5227
gypten~~5228
quelle~~5229
▁Erweiterung~~5230
▁Reiche~~5231
▁gezogen~~5232
▁militärische~~5233
▁Shopping~~5234
wu~~5235
▁erwähnen~~5236
▁Zeitpunkt~~5237
▁Austern~~5238
▁Britanni~~5239
▁formte~~5240
▁Hinter~~5241
▁Appeti~~5242
▁inter~~5243
industrielle~~5244
▁17.~~5245
▁Themse~~5246
ap~~5247
side~~5248
markt~~5249
namen~~5250
▁ansieh~~5251
▁Brea~~5252
▁Street~~5253
gespielt~~5254
▁Fluss~~5255
gate~~5256
▁bekannteste~~5257
▁existierte~~5258
▁bedenken~~5259
iegel~~5260
▁stink~~5261
▁Hafen~~5262
geschlagen~~5263
▁betreten~~5264
▁Nordwest~~5265
▁Schott~~5266
▁Wales~~5267
field~~5268
flügel~~5269
▁Ost~~5270
ang~~5271
li~~5272
▁Nordost~~5273
▁fühle~~5274
vorhersage~~5275
fe~~5276
tzen~~5277
▁gebunden~~5278
▁Erreichen~~5279
▁Verkauf~~5280
ult~~5281
▁heisst~~5282
▁beliebige~~5283
zeitalter~~5284
▁Spuren~~5285
▁au~~5286
guckt~~5287
▁Hinweise~~5288
▁Friday~~5289
▁Freitag~~5290
▁Plätze~~5291
▁1830~~5292
▁Sonntag~~5293
essen~~5294
▁ausgehen~~5295
▁mu~~5296
Stadt~~5297
▁biologische~~5298
▁Kreislauf~~5299
▁änderte~~5300
▁Western~~5301
▁Eisenbahn~~5302
▁1840~~5303
▁Zug~~5304
reisende~~5305
▁Schweine~~5306
▁Markt~~5307
▁sichtbare~~5308
geschlachtet~~5309
▁geografische~~5310
org~~5311
▁gestaltete~~5312
▁Abhängigkeit~~5313
▁befreit~~5314
Karte~~5315
nähern~~5316
▁Kle~~5317
▁Schla~~5318
massel~~5319
▁Autos~~5320
▁endgültige~~5321
▁Bruch~~5322
▁Gerüche~~5323
▁fuhr~~5324
rand~~5325
▁wunderte~~5326
▁Perip~~5327
herie~~5328
▁Nahrungsmittel~~5329
▁Ereignis~~5330
▁kocht~~5331
▁hinzu~~5332
▁Ei~~5333
▁Kuchen~~5334
▁back~~5335
▁riechen~~5336
▁Lebensmitteln~~5337
▁prüfen~~5338
▁Etikett~~5339
▁Rückseite~~5340
▁fürchte~~5341
me~~5342
▁modern~~5343
Ernährungssystem~~5344
▁einfacher~~5345
▁bauen~~5346
▁aufrecht~~5347
▁500~~5348
▁More~~5349
▁Titelbild~~5350
▁Utopia~~5351
▁Anzahl~~5352
▁halb~~5353
unabhängig~~5354
staaten~~5355
reise~~5356
▁Garten~~5357
▁anbaut~~5358
▁gemeinsam~~5359
▁teilnahm~~5360
▁argumentiere~~5361
▁fundamentale~~5362
▁Ord~~5363
ug~~5364
sprinzip~~5365
▁formuliert~~5366
▁berühmte~~5367
zer~~5368
▁urbane~~5369
▁Flächen~~5370
bare~~5371
prinzip~~5372
▁darstellt~~5373
▁Utopie~~5374
▁utopisch~~5375
▁nutzte~~5376
▁absichtlich~~5377
▁Scherz~~5378
deutung~~5379
▁Ideal~~5380
▁unwirklich~~5381
rahmen~~5382
▁tiefgründige~~5383
▁hilf~~5384
▁Alternative~~5385
▁Si~~5386
topia~~5387
ltgriechisch~~5388
▁sit~~5389
po~~5390
▁mächtige~~5391
▁konzeptionell~~5392
werkzeug~~5393
▁Folie~~5394
▁Hunde~~5395
blick~~5396
▁Familienleben~~5397
▁gefeiert~~5398
▁Szenen~~5399
▁Männer~~5400
ausdenken~~5401
▁planen~~5402
▁benenn~~5403
▁ausgesucht~~5404
▁kauft~~5405
▁Netzwerke~~5406
▁Märkte~~5407
▁regional~~5408
gebaut~~5409
▁lokal~~5410
Nullsummen~~5411
▁dunkle~~5412
▁Loch~~5413
▁Kühe~~5414
▁Aussicht~~5415
▁Dampf~~5416
▁Hum~~5417
projekt~~5418
▁To~~5419
ronto~~5420
Gewächshaus~~5421
▁Pflanze~~5422
▁Kev~~5423
▁Projekte~~5424
▁wiederherstell~~5425
▁immens~~5426
etrachtungsweise~~5427
schliessen~~5428
produktiv~~5429
▁produktiv~~5430
▁zwang~~5431
släufig~~5432
▁symbio~~5433
▁herstellen~~5434
kultur~~5435
shalb~~5436
▁Re~~5437
konzept~~5438
▁650~~5439
jahre~~5440
▁Am~~5441
ogi~~5442
Lorenz~~5443
etti~~5444
▁Guten~~5445
▁Verhältnis~~5446
▁kümmert~~5447
▁Alle~~5448
▁dringende~~5449
▁beantworten~~5450
▁Eddi~~5451
▁Reader~~5452
▁Kit~~5453
flyer~~5454
▁Hill~~5455
▁Liedermacher~~5456
▁verlorene~~5457
▁Piano~~5458
▁Dolby~~5459
▁Lied~~5460
▁jene~~5461
▁Martin~~5462
▁Evan~~5463
▁Bo~~5464
▁He~~5465
ine~~5466
▁Einladung~~5467
▁Vergnügen~~5468
▁richtet~~5469
irstream~~5470
reichen~~5471
▁2002~~5472
▁Designer~~5473
▁amerikanische~~5474
▁Wohnwagen~~5475
▁Wilson~~5476
▁International~~5477
▁Kunststoff~~5478
La~~5479
ina~~5480
▁Mess~~5481
▁zeitgenössische~~5482
▁Möbel~~5483
ork~~5484
▁Transportmittel~~5485
design~~5486
Inneneinrichtung~~5487
▁entschieden~~5488
kern~~5489
▁Look~~5490
▁Werkstatt~~5491
erkeley~~5492
▁Perspektive~~5493
▁ideal~~5494
▁optimiere~~5495
▁entschied~~5496
▁recherchiere~~5497
▁Verlauf~~5498
▁schief~~5499
▁herausfand~~5500
▁Trennung~~5501
▁äußere~~5502
▁insof~~5503
▁Hülle~~5504
▁ursprünglich~~5505
gewicht~~5506
ige~~5507
▁futurist~~5508
technolog~~5509
▁konzipiert~~5510
▁Schnell~~5511
straße~~5512
brau~~5513
▁altmodisch~~5514
▁Berg~~5515
▁bezogen~~5516
▁Krise~~5517
▁Wortschatz~~5518
▁Reisen~~5519
▁Modern~~5520
▁handelte~~5521
▁übereinstimmt~~5522
▁Archäologi~~5523
▁betreiben~~5524
▁authentisch~~5525
▁Nutzen~~5526
▁Vi~~5527
ola~~5528
▁Aluminium~~5529
hülle~~5530
▁demontiert~~5531
▁Lei~~5532
▁zeichnete~~5533
tzt~~5534
▁Karton~~5535
▁baute~~5536
▁Hauptziel~~5537
ät~~5538
▁Mobilität~~5539
▁Schwierigkeit~~5540
▁entwirf~~5541
▁logisch~~5542
▁aufgrund~~5543
▁fortlaufende~~5544
▁Dach~~5545
▁erschwert~~5546
▁hervorzu~~5547
▁Dimensionen~~5548
▁bog~~5549
vig~~5550
▁Panel~~5551
▁gebogen~~5552
▁verlaufen~~5553
▁entwickelte~~5554
▁Haut~~5555
▁gleitet~~5556
▁lenken~~5557
▁Geometrie~~5558
▁wahrnehme~~5559
▁Gehäuse~~5560
▁unterbrechen~~5561
▁Strom~~5562
▁verkabel~~5563
▁elektrische~~5564
▁fertiggestellt~~5565
▁Auftrag~~5566
▁Block~~5567
Design~~5568
▁Oktober~~5569
uo~~5570
▁Kur~~5571
aki~~5572
firma~~5573
▁verschick~~5574
▁funktionsfähig~~5575
▁Nummer~~5576
▁unbeschriebene~~5577
▁wolle~~5578
▁entwarf~~5579
▁Fantasie~~5580
zenario~~5581
▁DJ~~5582
▁reist~~5583
▁Platten~~5584
▁sammeln~~5585
▁Tour~~5586
spieler~~5587
▁Misch~~5588
pul~~5589
▁Sound~~5590
▁Couch~~5591
willig~~5592
▁floss~~5593
▁beleben~~5594
▁Skateboard~~5595
▁Surfer~~5596
▁Bergsteiger~~5597
▁Innen~~5598
usstattung~~5599
▁Bau~~5600
prozesse~~5601
▁Bambi~~5602
▁genannt~~5603
▁endlich~~5604
▁oh~~5605
▁Werkzeuge~~5606
▁Einrichtung~~5607
ließ~~5608
▁Dilemma~~5609
▁vorhanden~~5610
▁genommen~~5611
▁hand~~5612
gemacht~~5613
arbeiten~~5614
▁einzigartig~~5615
pass~~5616
schneiden~~5617
kasten~~5618
▁16.~~5619
▁Elli~~5620
ot~~5621
▁Kran~~5622
▁Geheimnis~~5623
▁Symptome~~5624
▁Nervensystem~~5625
▁Signal~~5626
chleifen~~5627
▁Krankheit~~5628
▁brach~~5629
▁Fakten~~5630
▁Kinderarzt~~5631
thesis~~5632
▁Lebensunterhalt~~5633
schlafen~~5634
▁Akademiker~~5635
schläfer~~5636
▁Zuhörer~~5637
sonst~~5638
▁leite~~5639
▁Management~~5640
▁Service~~5641
Packard~~5642
▁Klinik~~5643
▁Stanford~~5644
▁Palo~~5645
▁Alto~~5646
▁Morgen~~5647
▁Symptom~~5648
▁Tumor~~5649
▁Infektion~~5650
▁Entzündung~~5651
▁Operation~~5652
▁Ereignisse~~5653
▁erholt~~5654
▁dagegen~~5655
▁Feder~~5656
▁Schlimmere~~5657
▁Ihres~~5658
▁Kindes~~5659
▁Brenn~~5660
▁Patientin~~5661
▁Chandler~~5662
▁erlebte~~5663
▁Foto~~5664
▁schöne~~5665
▁16~~5666
▁lernte~~5667
▁strebt~~5668
▁Tänzerin~~5669
training~~5670
▁fiel~~5671
▁ausgestreckt~~5672
taucht~~5673
▁unbedeutend~~5674
bu~~5675
prof~~5676
auch~~5677
färb~~5678
▁lila~~5679
▁Ber~~5680
ühr~~5681
▁Leiche~~5682
▁erstarr~~5683
▁gelähmt~~5684
ston~~5685
▁Fingerspitzen~~5686
▁Ellenbogen~~5687
▁ausge~~5688
breitet~~5689
▁Schlimmste~~5690
▁24~~5691
▁All~~5692
od~~5693
nia~~5694
▁leichteste~~5695
rmel~~5696
▁Stoffe~~5697
zog~~5698
▁brennende~~5699
▁harmlos~~5700
▁grausame~~5701
dra~~5702
▁Kabel~~5703
▁Lichtschalter~~5704
▁Decke~~5705
▁Glühbirne~~5706
▁Schalter~~5707
schalten~~5708
▁Hammer~~5709
▁schlagen~~5710
▁Information~~5711
▁Rückenmark~~5712
▁bewußt~~5713
▁komplizierter~~5714
▁Nerv~~5715
▁verbindet~~5716
▁braune~~5717
▁Päckchen~~5718
Neurotransmitter~~5719
▁linear~~5720
gibt~~5721
▁horizontal~~5722
▁vertikal~~5723
▁rauf~~5724
▁benachbarte~~5725
▁Zellen~~5726
▁auszut~~5727
auschen~~5728
zellen~~5729
▁unwichtig~~5730
elemente~~5731
▁entscheidende~~5732
▁Regulierung~~5733
▁Falle~~5734
fälsch~~5735
▁Sinneseindrücke~~5736
▁aktiviert~~5737
▁DNS~~5738
▁fäng~~5739
▁Proteine~~5740
schüttet~~5741
▁angrenzende~~5742
▁interagieren~~5743
▁aktivier~~5744
▁Feedback~~5745
▁Schleife~~5746
▁verlegt~~5747
▁Toiletten~~5748
spül~~5749
▁Tür~~5750
▁Geschirr~~5751
bildschirm~~5752
▁ausgeschalte~~5753
lastizität~~5754
▁Reaktion~~5755
▁Stimul~~5756
anz~~5757
▁symptom~~5758
verändernde~~5759
▁Medikamenten~~5760
▁Schmerzmittel~~5761
▁offen~~5762
▁effektiv~~5763
▁ruhig~~5764
▁lokale~~5765
sthetik~~5766
▁Schlafen~~5767
▁rigoros~~5768
▁Therapie~~5769
▁alltägliche~~5770
▁intensive~~5771
▁psychotherap~~5772
▁Programm~~5773
▁Mut~~5774
losigkeit~~5775
▁Verzweiflung~~5776
▁Rück~~5777
war~~5778
to~~5779
▁Mittag~~5780
▁College~~5781
student~~5782
▁absolut~~5783
▁rosig~~5784
▁prophet~~5785
▁George~~5786
▁Carl~~5787
▁Meine~~5788
▁Kris~~5789
j~~5790
▁Gesetze~~5791
▁Hohe~~5792
▁geschützt~~5793
▁Welten~~5794
▁Rechts~~5795
experte~~5796
▁kluge~~5797
gestaltung~~5798
▁gesunde~~5799
▁Portion~~5800
▁PR~~5801
zen~~5802
appung~~5803
▁schützen~~5804
▁dunkel~~5805
▁Monde~~5806
▁Mythen~~5807
▁Legende~~5808
▁Hier~~5809
▁Monster~~5810
▁wunder~~5811
▁fremd~~5812
▁mon~~5813
▁beneide~~5814
IUC~~5815
N~~5816
amount~~5817
▁Madagas~~5818
car~~5819
▁fotografiere~~5820
▁juristische~~5821
tiefe~~5822
▁4.000~~5823
▁theoretisch~~5824
▁Allgemeingut~~5825
▁bewirtschafte~~5826
▁Resourcen~~5827
uten~~5828
▁Betroffene~~5829
▁Dunkel~~5830
gemäß~~5831
klären~~5832
▁besonderen~~5833
▁umfassende~~5834
▁Schutz~~5835
▁Seebecken~~5836
▁einbette~~5837
▁Norm~~5838
▁Vorsorge~~5839
ler~~5840
▁beängstigend~~5841
zweifeln~~5842
▁Kohlenstoff~~5843
speicher~~5844
▁liefer~~5845
▁36~~5846
▁angehen~~5847
▁derzeitige~~5848
▁internationale~~5849
▁Schiff~~5850
▁vorrangig~~5851
▁glaubt~~5852
▁erledige~~5853
▁Schiffe~~5854
▁dürfe~~5855
teppich~~5856
▁Texas~~5857
dünn~~5858
▁nachweis~~5859
forscher~~5860
konom~~5861
▁Eli~~5862
▁Ostro~~5863
▁untersuchen~~5864
▁Gemein~~5865
▁verwaltet~~5866
▁Verwaltung~~5867
▁Beteiligte~~5868
▁bedingt~~5869
▁Andere~~5870
▁effektive~~5871
berprüfung~~5872
chtsdurchsetzung~~5873
▁Vertrauen~~5874
▁notwendig~~5875
▁längst~~5876
▁Umweltschützer~~5877
▁Fotografen~~5878
▁tragische~~5879
▁Szenario~~5880
▁abzuwenden~~5881
▁fragile~~5882
landschaft~~5883
▁Korallen~~5884
garten~~5885
▁droht~~5886
▁Vernichtung~~5887
fischerei~~5888
▁retten~~5889
▁Geschehen~~5890
▁fotografiert~~5891
▁Keller~~5892
▁Vereinte~~5893
▁Nationen~~5894
▁verbracht~~5895
▁Regierungen~~5896
zumachen~~5897
▁Festland~~5898
▁Regelung~~5899
▁Fischer~~5900
netze~~5901
▁frühzeitig~~5902
▁Fest~~5903
legung~~5904
▁Route~~5905
▁erfordert~~5906
▁sowie~~5907
▁Verpflichtung~~5908
▁Schäde~~5909
▁vorzubeugen~~5910
▁Fortschritte~~5911
▁überprüft~~5912
uadratkilometer~~5913
▁regiert~~5914
▁Sylvia~~5915
▁Wunsch~~5916
schub~~5917
▁Herzen~~5918
zusag~~5919
▁ho~~5920
ffentlich~~5921
schildkröte~~5922
reisen~~5923
▁Eindruck~~5924
▁Reich~~5925
▁Sargasso~~5926
See~~5927
▁Küsten~~5928
▁begrenzt~~5929
strömung~~5930
▁Fülle~~5931
▁Algen~~5932
ball~~5933
▁Laich~~5934
gebiet~~5935
▁nor~~5936
europäisch~~5937
▁no~~5938
rdamerikanische~~5939
▁Zahl~~5940
▁Stock~~5941
holm~~5942
▁vorkommen~~5943
getaucht~~5944
argassum~~5945
▁Februar~~5946
▁200.000~~5947
▁heranwachsen~~5948
▁beeinträchtige~~5949
▁wundersame~~5950
▁einzigartige~~5951
Leben~~5952
▁Initiative~~5953
▁Bermuda~~5954
bedarf~~5955
▁erkannt~~5956
▁Territorium~~5957
▁außerhalb~~5958
wirkt~~5959
▁kühler~~5960
▁Rossmeer~~5961
▁Süd~~5962
▁Kontinent~~5963
▁territorial~~5964
▁Ansprüche~~5965
▁Packeis~~5966
▁Frühling~~5967
▁Sommer~~5968
▁Ph~~5969
▁Krill~~5970
nährt~~5971
▁nahezu~~5972
▁intakt~~5973
küste~~5974
nah~~5975
▁CA~~5976
ML~~5977
▁regionale~~5978
▁Ausschuss~~5979
▁Fischbestände~~5980
ressourcen~~5981
▁zuständig~~5982
▁leider~~5983
▁Fischerei~~5984
In~~5985
▁nachzu~~5986
▁dortige~~5987
▁Zahn~~5988
fisch~~5989
F~~5990
▁zugelassen~~5991
ländische~~5992
▁bedeutende~~5993
▁Verk~~5994
▁Bestände~~5995
▁Killer~~5996
wal~~5997
ntarktische~~5998
squelle~~5999
▁beanspruch~~6000
▁Hochsee~~6001
▁sperr~~6002
▁Fischen~~6003
▁Cost~~6004
▁Rica~~6005
▁Dome~~6006
▁Blauwal~~6007
▁Winter~~6008
▁ungewöhnlich~~6009
▁fester~~6010
ozean~~6011
ografische~~6012
▁Jahreszeit~~6013
▁verschieb~~6014
▁permanent~~6015
▁Aus~~6016
▁Wirtschafts~~6017
zone~~6018
▁zentral~~6019
amerikanische~~6020
▁wandern~~6021
▁or~~6022
▁verletzlich~~6023
▁Galapagos~~6024
▁Tropic~~6025
▁Sea~~6026
▁Conservati~~6027
▁koordiniert~~6028
▁schützt~~6029
erbestätte~~6030
▁erkennt~~6031
einkommen~~6032
▁national~~6033
▁Territori~~6034
▁käme~~6035
▁vorgeschlagen~~6036
▁universelle~~6037
Welt~~6038
▁süd~~6039
hak~~6040
▁Beifang~~6041
▁enden~~6042
▁vorschlage~~6043
übergreifend~~6044
▁angelegt~~6045
▁pazifische~~6046
▁Raubfische~~6047
ensus~~6048
▁winzigkleine~~6049
▁Sturm~~6050
taucher~~6051
▁zuhause~~6052
▁km~~6053
▁Schätze~~6054
▁gestartet~~6055
▁gespannt~~6056
▁untersucht~~6057
gur~~6058
tun~~6059
▁Politiker~~6060
bereiten~~6061
▁Unterstützung~~6062
▁Workshop~~6063
▁erläutert~~6064
▁Hoffnungsfleck~~6065
▁voranzu~~6066
treiben~~6067
wenden~~6068
gebiete~~6069
▁vernünftige~~6070
▁eingeführt~~6071
▁Weltraum~~6072
▁verfolgen~~6073
▁Lebensdauer~~6074
fahrzeuge~~6075
▁markieren~~6076
▁Trans~~6077
▁anordne~~6078
▁Privileg~~6079
▁zentrale~~6080
▁Tragödie~~6081
▁Kollision~~6082
kurs~~6083
▁umgehen~~6084
▁Paradigma~~6085
▁Vorsicht~~6086
Wunsch~~6087
▁Spot~~6088
light~~6089
▁Tisch~~6090
▁dritten~~6091
weite~~6092
Population~~6093
▁Veranlagung~~6094
▁regulieren~~6095
ssysteme~~6096
▁Kapazität~~6097
▁erweitern~~6098
gle~~6099
interesse~~6100
sprechen~~6101
▁Earle~~6102
▁talentierte~~6103
▁durchdringen~~6104
▁Nutzung~~6105
▁hoffe~~6106
▁Bruc~~6107
▁Ayl~~6108
ward~~6109
▁Polio~~6110
▁endgültig~~6111
▁Stillstand~~6112
▁beinahe~~6113
▁ausgerottet~~6114
▁breitet~~6115
▁Plan~~6116
▁fortzu~~6117
stoppt~~6118
gelöscht~~6119
▁schliess~~6120
mpfstoff~~6121
▁grossartig~~6122
▁grossartige~~6123
▁allgemeine~~6124
▁Panik~~6125
▁hervor~~6126
rief~~6127
▁Szene~~6128
▁eiserne~~6129
▁Lunge~~6130
▁gesund~~6131
▁atmen~~6132
▁Poliovir~~6133
▁Atem~~6134
mus~~6135
kul~~6136
▁atmet~~6137
▁entsetzlich~~6138
▁Heilung~~6139
▁Impfstoff~~6140
ussergewöhnliche~~6141
▁Mass~~6142
nahme~~6143
▁einführte~~6144
▁zwanzig~~6145
▁gelungen~~6146
ju~~6147
bel~~6148
▁1950~~6149
▁stoppt~~6150
▁Monat~~6151
▁Jon~~6152
▁Pocken~~6153
▁oops~~6154
▁geblieben~~6155
/~~6156
▁Partnerschaft~~6157
▁unbekannt~~6158
rotten~~6159
▁herunter~~6160
▁Schock~~6161
▁realisierte~~6162
▁auftrat~~6163
liegende~~6164
▁Glob~~6165
▁schreckliche~~6166
▁Ausbrüche~~6167
Sequenzierung~~6168
▁Viren~~6169
▁stammt~~6170
▁Meilen~~6171
▁via~~6172
▁Verkehrs~~6173
flugzeuge~~6174
▁Russland~~6175
ppel~~6176
▁zügig~~6177
▁vernichten~~6178
▁explosive~~6179
▁Dekade~~6180
Ausrottung~~6181
yelit~~6182
ship~~6183
feuer~~6184
▁entzünde~~6185
▁erstickt~~6186
▁polio~~6187
freie~~6188
▁Risse~~6189
▁Panzer~~6190
▁überlebt~~6191
▁Impfstoffe~~6192
eben~~6193
löschen~~6194
sprogramm~~6195
▁kill~~6196
ilanz~~6197
▁Risikokapital~~6198
▁Risik~~6199
▁gewaltig~~6200
▁Lohn~~6201
▁wirtschaftlich~~6202
▁motivation~~6203
▁riesig~~6204
▁Kongress~~6205
abgeordnete~~6206
▁Investition~~6207
▁gesteckt~~6208
▁26~~6209
bezahlt~~6210
▁vorherige~~6211
skosten~~6212
▁Impf~~6213
kosten~~6214
▁beenden~~6215
▁ärmste~~6216
▁sparen~~6217
▁Einsätze~~6218
streben~~6219
▁vielfach~~6220
▁härter~~6221
▁begonne~~6222
▁soviele~~6223
impfung~~6224
▁Dosi~~6225
lang~~6226
▁Tropen~~6227
oni~~6228
tor~~6229
▁Ampulle~~6230
▁angezeigt~~6231
▁zuviel~~6232
▁Hitze~~6233
▁ausgesetzt~~6234
▁potent~~6235
▁Dosen~~6236
▁ersichtlich~~6237
▁verräterische~~6238
impfen~~6239
rennen~~6240
▁Mehrheit~~6241
▁infolge~~6242
▁Vorgehensweise~~6243
teils~~6244
▁ko~~6245
oper~~6246
zeiten~~6247
▁Höhepunkt~~6248
Impfstoff~~6249
▁verabreich~~6250
▁Tropf~~6251
ärzte~~6252
▁Freiwilligen~~6253
opfüber~~6254
▁härteste~~6255
▁dichteste~~6256
▁städtische~~6257
▁Elendsviertel~~6258
▁eintauchen~~6259
▁glühend~~6260
▁heisse~~6261
▁marschier~~6262
▁abgelegen~~6263
▁erreichbar~~6264
▁Kugeln~~6265
weichen~~6266
▁wackelig~~6267
▁Waffen~~6268
still~~6269
operieren~~6270
▁Reporter~~6271
▁Somalia~~6272
▁sass~~6273
erhalb~~6274
▁Strasse~~6275
Kampagne~~6276
▁ausbreitet~~6277
▁heldenhafte~~6278
ntwicklungshilfe~~6279
▁Helden~~6280
▁Hintergründe~~6281
aussergewöhnlich~~6282
▁Rot~~6283
ary~~6284
star~~6285
▁Infrastruktur~~6286
▁aufzubauen~~6287
▁dauern~~6288
▁Resultate~~6289
▁Ausnahme~~6290
▁betraf~~6291
▁199~~6292
barkeit~~6293
wei~~6294
▁Stand~~6295
▁99~~6296
▁Reduktion~~6297
▁1~~6298
▁pandemische~~6299
▁Grippe~~6300
▁SARS~~6301
▁Vitamin~~6302
I~~6303
▁Malaria~~6304
▁Kampagnen~~6305
▁zustande~~6306
▁zwingen~~6307
▁verletzt~~6308
lichste~~6309
▁elementarste~~6310
▁unabhängig~~6311
▁Geographie~~6312
▁spannend~~6313
hren~~6314
▁Hoch~~6315
▁scheinbar~~6316
breite~~6317
▁Norden~~6318
▁Indiens~~6319
▁Nigeria~~6320
▁Afrikas~~6321
brücke~~6322
▁bewirken~~6323
▁Jahrzehnte~~6324
▁hartnäckig~~6325
▁zäh~~6326
▁Reservoir~~6327
▁funktionierte~~6328
▁Eingeweide~~6329
▁Frustration~~6330
▁Gesundheits~~6331
▁verführerisch~~6332
▁falsche~~6333
▁anfällig~~6334
▁Schluck~~6335
▁Umar~~6336
▁wohnt~~6337
▁Brüder~~6338
▁rechte~~6339
▁Bein~~6340
▁lahm~~6341
▁Schläge~~6342
wegs~~6343
▁Krücke~~6344
zeugnis~~6345
▁perfekte~~6346
ieder~~6347
▁zieht~~6348
▁verzweifelt~~6349
▁Ersparnisse~~6350
▁vergeblich~~6351
▁verdienen~~6352
brechen~~6353
▁dahinter~~6354
▁klemm~~6355
▁innovative~~6356
▁verpasst~~6357
indien~~6358
▁kartografier~~6359
Satellitenbilder~~6360
betreuen~~6361
oshi~~6362
becken~~6363
▁involviert~~6364
▁logistische~~6365
▁coole~~6366
GI~~6367
▁Track~~6368
träger~~6369
▁track~~6370
▁Ansätze~~6371
mittler~~6372
▁eng~~6373
ommittee~~6374
▁Kreuze~~6375
▁gewährleiste~~6376
zel~~6377
▁Taktik~~6378
▁überarbeitet~~6379
▁alter~~6380
▁Ware~~6381
▁getestet~~6382
typen~~6383
vis~~6384
▁9.~~6385
▁Juni~~6386
▁Versuche~~6387
▁veränderte~~6388
▁doppelte~~6389
▁lief~~6390
serie~~6391
mässig~~6392
▁herausfordert~~6393
▁Unmögliche~~6394
team~~6395
▁rasend~~6396
▁Indien~~6397
▁erneut~~6398
▁herunterlade~~6399
▁entfaltet~~6400
ettung~~6401
ttar~~6402
▁Pr~~6403
adesh~~6404
▁Bi~~6405
har~~6406
▁Hygiene~~6407
▁wirkte~~6408
▁exakt~~6409
ichte~~6410
▁Einzelfa~~6411
▁95~~6412
▁Damen~~6413
▁Herren~~6414
▁Kombination~~6415
▁intelligent~~6416
▁intelligenter~~6417
▁machbar~~6418
▁sekundäre~~6419
währ~~6420
▁deutliche~~6421
▁versage~~6422
▁No~~6423
plus~~6424
▁Fairness~~6425
▁Gerechtigkeit~~6426
statt~~6427
▁Kapital~~6428
▁Enthusias~~6429
▁schlaue~~6430
▁Zeiten~~6431
▁Cameron~~6432
britannien~~6433
▁Es~~6434
▁Kreuzung~~6435
ntschlossen~~6436
▁Menschheit~~6437
▁übersehen~~6438
▁verlieren~~6439
▁voraussetz~~6440
▁Gates~~6441
▁schwierigste~~6442
▁klügste~~6443
▁ba~~6444
▁aufhört~~6445
▁südlich~~6446
▁Ecke~~6447
▁Grenz~~6448
▁Pakistan~~6449
gesteckt~~6450
▁BG~~6451
▁beschaffen~~6452
▁750~~6453
▁mehrfach~~6454
ück~~6455
▁Einsparung~~6456
einsparen~~6457
▁bremst~~6458
▁Tony~~6459
▁Port~~6460
▁Appell~~6461
▁TEDWomen~~6462
ort~~6463
▁Benehm~~6464
richter~~6465
▁M~~6466
isshandlung~~6467
▁Missbrauch~~6468
▁führen~~6469
▁Brech~~6470
Kiste~~6471
▁wuchs~~6472
▁City~~6473
▁Harlem~~6474
▁Bronx~~6475
▁Mannes~~6476
▁beinhaltet~~6477
▁Zutaten~~6478
▁Zweifel~~6479
Sein~~6480
▁verdreht~~6481
▁genauer~~6482
▁analysiere~~6483
▁Männlichkeit~~6484
▁Kendal~~6485
▁Jay~~6486
▁12.~~6487
klatsch~~6488
▁peng~~6489
▁weinend~~6490
▁Knie~~6491
neu~~6492
heulen~~6493
▁Papa~~6494
▁zählt~~6495
▁innere~~6496
▁Stopp~~6497
uhr~~6498
▁Sätze~~6499
▁nimm~~6500
▁erklär~~6501
▁ertappt~~6502
▁set~~6503
▁reiß~~6504
▁rede~~6505
▁tu~~6506
▁erinnerte~~6507
▁Bruder~~6508
▁Henry~~6509
▁Beerdigung~~6510
▁Island~~6511
▁hielt~~6512
▁Toilette~~6513
weg~~6514
raten~~6515
▁Wagen~~6516
▁Schwester~~6517
▁Tan~~6518
▁stieg~~6519
▁Nur~~6520
▁blieb~~6521
▁wusste~~6522
wüchs~~6523
▁Sohn~~6524
▁beer~~6525
▁Weinen~~6526
▁Gegenwart~~6527
▁entschuldig~~6528
▁lo~~6529
bt~~6530
▁betrachte~~6531
▁lähmt~~6532
▁Geisel~~6533
▁zwölf~~6534
Spieler~~6535
▁Trainer~~6536
spielst~~6537
▁erwartete~~6538
▁wütend~~6539
▁Himmels~~6540
▁versetze~~6541
▁12~~6542
▁Mi~~6543
▁Innenstadt~~6544
▁Nachbar~~6545
▁Johnny~~6546
▁jüngere~~6547
▁Kerle~~6548
▁rum~~6549
▁schräg~~6550
▁Jung~~6551
kind~~6552
berdosi~~6553
▁Heroin~~6554
▁gestorben~~6555
▁Bursche~~6556
▁cool~~6557
▁Sex~~6558
spielen~~6559
▁Hey~~6560
▁Anton~~6561
▁nannte~~6562
▁Anthon~~6563
▁rannte~~6564
schnur~~6565
▁öffnete~~6566
▁Will~~6567
▁meinte~~6568
Beziehung~~6569
▁lebte~~6570
▁hieß~~6571
▁Drogen~~6572
▁Kiste~~6573
▁unmittelbar~~6574
▁Gefahr~~6575
engsten~~6576
▁lebenslange~~6577
▁Geheim~~6578
▁schlimmer~~6579
▁erwartet~~6580
▁stet~~6581
▁Pi~~6582
▁vornehm~~6583
objekt~~6584
▁hinein~~6585
▁Nachbarschaft~~6586
heila~~6587
▁nackt~~6588
▁psychisch~~6589
▁krank~~6590
▁unpassend~~6591
▁vergewaltigt~~6592
selbe~~6593
▁schließe~~6594
▁stelle~~6595
platz~~6596
▁tue~~6597
▁überlege~~6598
▁rauskomm~~6599
▁Weisheit~~6600
▁öffne~~6601
▁Hosen~~6602
stall~~6603
▁Wartezimmer~~6604
▁Arzt~~6605
▁froh~~6606
▁merkte~~6607
gesichts~~6608
▁fühlte~~6609
▁davor~~6610
▁fallen~~6611
▁total~~6612
▁Eigentum~~6613
▁Basis~~6614
▁Grundlage~~6615
wall~~6616
behörde~~6617
▁männliche~~6618
▁Ausmaße~~6619
sprobleme~~6620
▁Ausland~~6621
▁vorstelle~~6622
▁festhalten~~6623
▁Stan~~6624
▁McChr~~6625
ist~~6626
▁Vier~~6627
▁Mc~~6628
▁Christ~~6629
▁Berufe~~6630
▁zuhört~~6631
▁lernt~~6632
▁Scheitern~~6633
▁Dienstagmorgen~~6634
▁absolviert~~6635
sprung~~6636
ragg~~6637
▁Trainings~~6638
▁Routine~~6639
▁27~~6640
▁Army~~6641
▁absolvier~~6642
übung~~6643
frisch~~6644
▁Kumpel~~6645
▁legs~~6646
10~~6647
▁Anordnung~~6648
▁Trag~~6649
gurte~~6650
▁sorgfältig~~6651
▁Reserve~~6652
▁Kampf~~6653
rucksack~~6654
▁Sprung~~6655
offizie~~6656
operation~~6657
▁prüft~~6658
▁fasst~~6659
▁Brustkorb~~6660
gezogen~~6661
▁Oktave~~6662
test~~6663
▁geladen~~6664
▁erheb~~6665
▁Air~~6666
▁Force~~6667
▁heb~~6668
▁fl~~6669
▁Kommando~~6670
hinweis~~6671
denkst~~6672
reihe~~6673
▁gehör~~6674
▁steh~~6675
link~~6676
zieh~~6677
▁durchläuf~~6678
▁Dienstag~~6679
▁frische~~6680
▁herein~~6681
▁leuchtet~~6682
▁Go~~6683
▁springt~~6684
▁fäll~~6685
▁Wind~~6686
atten~~6687
▁Zu~~6688
kram~~6689
▁starren~~6690
▁Körperhaltung~~6691
▁Kinn~~6692
▁Brust~~6693
bei~~6694
fall~~6695
bilder~~6696
akademi~~6697
▁Hypothese~~6698
▁Entfaltung~~6699
stoß~~6700
▁öffnet~~6701
▁bekomm~~6702
▁Kick~~6703
Unterbewusstsein~~6704
schlagen~~6705
schieben~~6706
▁land~~6707
▁abge~~6708
▁locker~~6709
▁Rucksack~~6710
▁Ablass~~6711
▁Landung~~6712
▁Wade~~6713
▁Oberschenkel~~6714
▁elegante~~6715
▁Drehung~~6716
▁knapp~~6717
springen~~6718
▁landete~~6719
▁Wassermelone~~6720
▁tat~~6721
▁gebrochen~~6722
▁Banker~~6723
abine~~6724
▁Ausrüstung~~6725
einsatz~~6726
▁zurückkehren~~6727
▁Tun~~6728
▁irgendein~~6729
▁11.~~6730
ho~~6731
etz~~6732
▁46~~6733
▁Brigade~~6734
▁gravierende~~6735
nderungen~~6736
▁vorzunehmen~~6737
▁Robert~~6738
▁Lee~~6739
▁John~~6740
▁Bu~~6741
ford~~6742
▁Schlacht~~6743
▁Getty~~6744
sburg~~6745
▁Beispielen~~6746
▁Vietnam~~6747
▁Glauben~~6748
▁klug~~6749
▁mutig~~6750
▁treu~~6751
▁lügen~~6752
▁Stich~~6753
▁Laufbahn~~6754
▁Bat~~6755
ure~~6756
▁Ba~~6757
tail~~6758
lon~~6759
▁diente~~6760
ystal~~6761
▁fand~~6762
▁29~~6763
▁40-~~6764
il~~6765
ometer~~6766
Ma~~6767
sche~~6768
▁zusammenge~~6769
▁Dialog~~6770
▁Komp~~6771
ani~~6772
chef~~6773
▁Training~~6774
▁Center~~6775
rwin~~6776
bung~~6777
▁Angriff~~6778
graue~~6779
▁klassische~~6780
▁bereitet~~6781
▁hindurch~~6782
stellung~~6783
befehl~~6784
▁Einheit~~6785
▁vernichtet~~6786
▁Gegner~~6787
▁anstrengen~~6788
▁mobile~~6789
Hörsaal~~6790
▁Nach~~6791
besprechung~~6792
▁Erniedrigung~~6793
errichten~~6794
▁Da~~6795
▁etc~~6796
▁Zylinder~~6797
▁Teppich~~6798
eur~~6799
▁enttäuscht~~6800
▁entschuldige~~6801
▁Satz~~6802
▁scheitern~~6803
▁Versager~~6804
▁Chr~~6805
▁Genauigkeit~~6806
▁Bewusstsein~~6807
▁Truppe~~6808
▁Führungskräfte~~6809
▁Techniken~~6810
▁Videokonferenz~~6811
▁Online~~6812
Chat~~6813
Mails~~6814
▁Telefonat~~6815
▁22~~6816
▁operiert~~6817
▁zig~~6818
voll~~6819
▁Zuversicht~~6820
plätze~~6821
▁koordinier~~6822
▁entstand~~6823
▁auswerte~~6824
▁heikel~~6825
eg~~6826
▁Vorgesetzte~~6827
▁überzeugen~~6828
▁elektronische~~6829
▁gescheitert~~6830
▁erhofft~~6831
▁erneuer~~6832
gesetze~~6833
▁Anforderung~~6834
kämpfer~~6835
▁Fäuste~~6836
tech~~6837
▁bestand~~6838
▁jung~~6839
▁Man~~6840
▁Befehle~~6841
▁Konsens~~6842
ate~~6843
▁Taliban~~6844
warf~~6845
landet~~6846
▁Einheiten~~6847
▁Ranger~~6848
▁zerzaust~~6849
röt~~6850
▁afghanische~~6851
▁Sir~~6852
▁sechsten~~6853
▁Vokabular~~6854
▁Fertigkeit~~6855
▁digitale~~6856
▁ältere~~6857
etwa~~6858
▁Umkehr~~6859
▁angewendet~~6860
skraft~~6861
▁glaubwürdig~~6862
▁anerkannt~~6863
▁brandneue~~6864
▁gezwungen~~6865
▁transparenter~~6866
▁bereitwillig~~6867
▁zuzuhören~~6868
geordnet~~6869
grade~~6870
▁addiert~~6871
▁Akku~~6872
▁Irak~~6873
Offizier~~6874
▁verwickelt~~6875
▁Nachfrage~~6876
▁Wo~~6877
▁Gefecht~~6878
▁zusehen~~6879
▁aufeinander~~6880
▁Sehnen~~6881
▁zusammenhalten~~6882
▁verb~~6883
acht~~6884
Regime~~6885
trop~~6886
▁abgeleg~~6887
▁Zeile~~6888
▁lautet~~6889
▁belanglos~~6890
▁Gedicht~~6891
brauchst~~6892
▁kraftvoll~~6893
▁Heirat~~6894
üb~~6895
▁kraftvolle~~6896
▁Zugehörigkeit~~6897
▁pflegen~~6898
gewöhn~~6899
▁Kinderspiel~~6900
muskel~~6901
maschine~~6902
▁Wasch~~6903
brett~~6904
▁Narben~~6905
lässt~~6906
▁verlassen~~6907
ru~~6908
▁Mur~~6909
uga~~6910
nantha~~6911
binden~~6912
Revolution~~6913
▁Einkauf~~6914
▁monatliche~~6915
▁Bedürfnisse~~6916
▁gelobte~~6917
Forschungsarbeit~~6918
▁Geschäftsmodell~~6919
▁Ruhm~~6920
▁verdiente~~6921
back~~6922
▁Ehe~~6923
▁beeindrucken~~6924
▁hinterher~~6925
▁eklig~~6926
▁L~~6927
appen~~6928
▁trug~~6929
▁Motorrad~~6930
▁begriff~~6931
gi~~6932
▁Maßnahme~~6933
half~~6934
▁Periode~~6935
▁verwende~~6936
▁wüsste~~6937
▁könne~~6938
▁täte~~6939
Budget~~6940
▁kürz~~6941
▁schockiert~~6942
▁Gebrauch~~6943
▁Finanz~~6944
▁Laden~~6945
▁Binde~~6946
wickeln~~6947
▁verboten~~6948
▁Kondom~~6949
▁allererste~~6950
gefasst~~6951
▁darf~~6952
▁Baumwolle~~6953
▁Penny~~6954
▁produzierte~~6955
bi~~6956
nde~~6957
▁Bangalore~~6958
▁vorhandene~~6959
▁Opfer~~6960
▁Sh~~6961
anti~~6962
▁Diaman~~6963
▁Ring~~6964
▁Schokolade~~6965
litz~~6966
▁arrangiert~~6967
heirat~~6968
▁verweiger~~6969
▁Ehefrau~~6970
▁eif~~6971
ersüchtig~~6972
▁weibliche~~6973
▁kriege~~6974
▁Medizinstudent~~6975
gesagt~~6976
▁Mond~~6977
▁setzte~~6978
▁Armstrong~~6979
zing~~6980
▁Mount~~6981
▁Everest~~6982
getragen~~6983
▁füllte~~6984
blut~~6985
flasche~~6986
▁band~~6987
▁Schlauch~~6988
hose~~6989
gedrückt~~6990
▁sodas~~6991
▁verbeuge~~6992
gne~~6993
mud~~6994
del~~6995
▁elend~~6996
▁Feuchtigkeit~~6997
▁verzweifel~~6998
krise~~6999
▁einschließlich~~7000
▁Scheidung~~7001
drohung~~7002
innen~~7003
▁vermutet~~7004
rumpf~~7005
karte~~7006
▁Studentin~~7007
▁ran~~7008
▁Zellulose~~7009
▁Kiefer~~7010
holz~~7011
▁teure~~7012
▁Fertigung~~7013
anlage~~7014
▁verarbeiten~~7015
▁Sackgasse~~7016
maschinen~~7017
▁Bauer~~7018
frau~~7019
▁Roh~~7020
materiali~~7021
▁bearbeite~~7022
▁Maschinen~~7023
▁Weltklasse~~7024
ind~~7025
▁Patent~~7026
▁unver~~7027
züglich~~7028
▁ließ~~7029
▁anfäng~~7030
▁langweilig~~7031
▁angehäuft~~7032
liebe~~7033
▁ländliche~~7034
▁Verfügung~~7035
▁Lump~~7036
▁Pflanzen~~7037
ülsen~~7038
▁Säge~~7039
▁entschlossen~~7040
30~~7041
▁23~~7042
▁Bundesstaaten~~7043
▁eingerichtet~~7044
▁siebte~~7045
▁Riesen~~7046
konzern~~7047
etze~~7048
▁Erstaunen~~7049
▁MBA~~7050
▁Schulabbrecher~~7051
▁Co~~7052
imba~~7053
▁Gast~~7054
professor~~7055
dozen~~7056
IM~~7057
▁Warum~~7058
▁kostengünstige~~7059
▁Selbsthilfe~~7060
gruppen~~7061
▁Pu~~7062
▁Gigant~~7063
▁Harvard~~7064
▁Oxford~~7065
▁600~~7066
▁100-~~7067
Prozent~~7068
Monats~~7069
▁renne~~7070
▁verdammt~~7071
hafte~~7072
▁Job~~7073
▁Mahal~~7074
ak~~7075
shmi~~7076
rannt~~7077
▁Hosentasche~~7078
▁vordere~~7079
Bewegung~~7080
▁open~~7081
▁software~~7082
▁teile~~7083
▁unge~~7084
▁gebildet~~7085
eten~~7086
▁Tschü~~7087
▁Clar~~7088
ow~~7089
ki~~7090
manda~~7091
ennett~~7092
▁China~~7093
▁Pek~~7094
▁Party~~7095
▁saß~~7096
▁kräftig~~7097
▁Nick~~7098
brille~~7099
▁Fliege~~7100
▁Fulbright~~7101
ti~~7102
pend~~7103
ium~~7104
rus~~7105
chi~~7106
▁erforschen~~7107
▁Geschenk~~7108
▁eifrig~~7109
kor~~7110
ndent~~7111
▁horch~~7112
▁Notizen~~7113
▁erfuhr~~7114
▁chinesische~~7115
▁Vertreter~~7116
▁Sojabohnen~~7117
ozi~~7118
▁verstehe~~7119
▁hättest~~7120
Geschäft~~7121
uft~~7122
feuert~~7123
▁heirate~~7124
erence~~7125
▁Br~~7126
▁Fo~~7127
▁studierte~~7128
▁Chinesisch~~7129
lizenz~~7130
fahr~~7131
kü~~7132
▁Di~~7133
xi~~7134
ir~~7135
▁bereist~~7136
▁Beruf~~7137
▁Diagnose~~7138
▁Krebs~~7139
▁bekamen~~7140
▁clever~~7141
▁tap~~7142
▁bewahren~~7143
▁Chirurg~~7144
▁Chirurgen~~7145
▁Pathologe~~7146
▁Nieren~~7147
krebs~~7148
▁ansah~~7149
▁seltene~~7150
▁äußerst~~7151
▁aggressive~~7152
folge~~7153
▁Mysteri~~7154
▁trainiert~~7155
▁Baseball~~7156
spielte~~7157
▁baut~~7158
grab~~7159
▁Spezialist~~7160
▁suche~~7161
▁Heilmethode~~7162
▁Todesurteil~~7163
smal~~7164
smethode~~7165
▁aggressiv~~7166
reicht~~7167
▁Italien~~7168
▁Australien~~7169
▁vergehen~~7170
▁zeichnen~~7171
▁Horizont~~7172
▁exoti~~7173
▁experimentell~~7174
▁verkleinert~~7175
ippe~~7176
▁frage~~7177
▁Mitternacht~~7178
▁Intensivstation~~7179
▁Assistenz~~7180
arzt~~7181
▁getroffen~~7182
▁stirb~~7183
▁Medikament~~7184
▁wirksamer~~7185
▁triumph~~7186
glück~~7187
ender~~7188
▁Wimper~~7189
cken~~7190
▁bestreite~~7191
▁schlimmsten~~7192
▁glorreich~~7193
▁zustimmt~~7194
▁Sterbe~~7195
begleit~~7196
▁getrieben~~7197
▁Wahnsinn~~7198
Tri~~7199
▁Journalistin~~7200
▁Experten~~7201
fügung~~7202
▁griffbereit~~7203
▁kannte~~7204
▁Wünsche~~7205
▁eindeutig~~7206
▁definiert~~7207
▁haar~~7208
genau~~7209
▁peinlich~~7210
▁Verdrängung~~7211
nnähernd~~7212
machen~~7213
▁Mediziner~~7214
▁verdrängt~~7215
▁Vernunft~~7216
▁verdräng~~7217
▁nützliche~~7218
▁Denkweise~~7219
rzte~~7220
▁miterlebt~~7221
▁Onkologe~~7222
▁Direktor~~7223
▁Pal~~7224
medizin~~7225
▁Dar~~7226
mouth~~7227
▁Medica~~7228
▁School~~7229
▁unsterblich~~7230
▁leih~~7231
Spruch~~7232
▁Feature~~7233
▁Bug~~7234
▁Kampfes~~7235
gefühl~~7236
▁bedeutete~~7237
▁Kämpfer~~7238
baren~~7239
▁Heil~~7240
▁Hospiz~~7241
▁Sterben~~7242
▁aufwies~~7243
▁edle~~7244
▁heilen~~7245
▁anscheinen~~7246
▁Versagen~~7247
▁Gehen~~7248
lassen~~7249
nerkennung~~7250
▁Lebensende~~7251
▁Abschied~~7252
▁liebte~~7253
▁Dicht~~7254
kunst~~7255
▁Dichter~~7256
▁Konstantin~~7257
ava~~7258
dichte~~7259
▁Zeilen~~7260
▁vortragen~~7261
▁Marc~~7262
▁Antoni~~7263
wich~~7264
▁Alexandr~~7265
▁besiegt~~7266
▁solle~~7267
▁würdig~~7268
▁Do~~7269
▁fe~~7270
▁Bitte~~7271
ehen~~7272
▁Klänge~~7273
▁geheimnisvolle~~7274
▁verlier~~7275
bersetzung~~7276
nden~~7277
▁basieren~~7278
▁überwältigende~~7279
▁Präsenz~~7280
▁DNA~~7281
▁Versicherungs~~7282
▁Elen~~7283
▁Gab~~7284
hi~~7285
▁Rohstoffbörse~~7286
thiopien~~7287
▁gründen~~7288
▁Wohlstand~~7289
▁Bauern~~7290
▁minimieren~~7291
Empfänger~~7292
korb~~7293
▁ange~~7294
▁Himalaya~~7295
▁fern~~7296
▁Königreich~~7297
▁Bhutan~~7298
▁beschlossen~~7299
▁Brutto~~7300
sozial~~7301
▁Bruttoinlands~~7302
▁Glückliche~~7303
▁funktionierende~~7304
▁Wahlmöglichkeit~~7305
▁indische~~7306
▁Nobelpreis~~7307
▁verlieh~~7308
▁Hungersnot~~7309
▁Verfügbarkeit~~7310
versorgung~~7311
▁Menschlichkeit~~7312
▁gelten~~7313
▁Hunger~~7314
überschu~~7315
▁Landesteil~~7316
erechtigung~~7317
▁Wendepunkt~~7318
meist~~7319
▁Afrikaner~~7320
▁afrikanische~~7321
▁weitest~~7322
kapital~~7323
stellbare~~7324
wässer~~7325
▁Dünger~~7326
▁14~~7327
▁Traktor~~7328
▁Lateinamerika~~7329
▁vorgegeben~~7330
▁Zustand~~7331
ür~~7332
bend~~7333
▁Preise~~7334
▁Früchte~~7335
saison~~7336
frage~~7337
▁Unternehmertum~~7338
▁Theodor~~7339
tz~~7340
▁197~~7341
▁effizient~~7342
▁arm~~7343
▁Profit~~7344
▁ausgerichtet~~7345
▁fair~~7346
▁Geschäfte~~7347
▁liberal~~7348
▁zurückziehen~~7349
wirtschaft~~7350
▁wirken~~7351
▁kommerzielle~~7352
▁Akteure~~7353
▁Anstieg~~7354
ernährung~~7355
▁prognostiziert~~7356
importe~~7357
▁kosten~~7358
▁stagnier~~7359
▁Verwendung~~7360
▁abnahm~~7361
▁Erwartungen~~7362
▁angetrieben~~7363
▁Händler~~7364
▁interviewt~~7365
▁daneben~~7366
▁Reformen~~7367
▁Bade~~7368
▁Transaktion~~7369
▁erarbeitet~~7370
elekommunikation~~7371
wesenheit~~7372
institution~~7373
information~~7374
▁Klassifizierung~~7375
▁zuverlässig~~7376
▁Käufer~~7377
▁Verkäufer~~7378
▁Rohstoff~~7379
äufe~~7380
verkäufer~~7381
▁engen~~7382
▁Netzwerken~~7383
▁Korn~~7384
▁wechselt~~7385
▁Konsumenten~~7386
äcke~~7387
▁bestätigt~~7388
uantität~~7389
signale~~7390
▁Defizit~~7391
▁Handels~~7392
sp~~7393
anne~~7394
▁andauernd~~7395
▁Handhabung~~7396
▁Erzeugnisse~~7397
▁blind~~7398
▁gänzlich~~7399
gewiesen~~7400
▁Erb~~7401
▁unfähig~~7402
▁verringern~~7403
früchte~~7404
▁tragen~~7405
periode~~7406
▁verlangt~~7407
risiko~~7408
▁aufbaut~~7409
▁bedroht~~7410
uktu~~7411
▁Mais~~7412
▁wahnsinnig~~7413
▁direkte~~7414
▁höhere~~7415
▁Saatgut~~7416
sicherheit~~7417
▁äthiopische~~7418
bauer~~7419
▁Top~~7420
▁Felder~~7421
▁ernten~~7422
▁berechnet~~7423
▁Tonnen~~7424
▁Frühjahr~~7425
▁Juli~~7426
▁ernste~~7427
genügend~~7428
über~~7429
schüsse~~7430
▁Verbrauch~~7431
▁Entwicklungs~~7432
hem~~7433
mung~~7434
▁versprechen~~7435
▁Strecke~~7436
▁Hilfs~~7437
lösung~~7438
▁ausländische~~7439
▁Strategie~~7440
▁1980~~7441
▁modisch~~7442
bekommen~~7443
▁einflussreiche~~7444
▁Institution~~7445
▁explodieren~~7446
▁komfortable~~7447
▁Senior~~7448
▁Weltbank~~7449
kehren~~7450
Strateg~~7451
▁Spender~~7452
▁EC~~7453
▁etablier~~7454
▁Neues~~7455
48~~7456
▁82~~7457
▁Städt~~7458
▁Illinois~~7459
Fluss~~7460
▁Michigan~~7461
stunde~~7462
▁Chicago~~7463
kammer~~7464
▁berühmteste~~7465
▁etabliert~~7466
we~~7467
▁lud~~7468
ähne~~7469
▁sandte~~7470
▁ankam~~7471
▁Verluste~~7472
▁Lake~~7473
▁werfen~~7474
▁Farm~~7475
▁Notwendigkeit~~7476
▁Termin~~7477
stellen~~7478
▁Empfang~~7479
▁Handel~~7480
ätigt~~7481
▁ausgehend~~7482
▁großartigste~~7483
▁begutachte~~7484
▁gehandelt~~7485
▁Super~~7486
macht~~7487
▁industrialisier~~7488
▁Referenz~~7489
preise~~7490
▁Kakao~~7491
▁überwiegend~~7492
▁Verlagerung~~7493
stechnologie~~7494
dom~~7495
▁Schwellenländer~~7496
▁US~~7497
ör~~7498
▁Wachstum~~7499
▁270~~7500
▁V~~7501
SA~~7502
▁energisch~~7503
▁Dalia~~7504
▁Com~~7505
ity~~7506
▁Ex~~7507
hang~~7508
▁überholt~~7509
▁zweitgrößte~~7510
▁organisierte~~7511
zufügen~~7512
▁kreieren~~7513
akt~~7514
▁dient~~7515
▁Integr~~7516
▁Effizienz~~7517
▁bewältigen~~7518
▁beschrieben~~7519
▁Entwurf~~7520
▁Einzigartige~~7521
▁integriert~~7522
▁Edge~~7523
entwicklung~~7524
▁h~~7525
äppchen~~7526
▁Geldgeber~~7527
▁IT~~7528
▁Lager~~7529
▁Lagerhaus~~7530
▁agieren~~7531
▁Aufschrei~~7532
ca~~7533
é~~7534
zentrum~~7535
▁Fern~~7536
▁Info~~7537
park~~7538
ett~~7539
▁Addi~~7540
eb~~7541
gewickelt~~7542
zugleich~~7543
▁grundlegend~~7544
▁Waren~~7545
▁ausgestellt~~7546
tern~~7547
rechnung~~7548
abläuf~~7549
▁Betrag~~7550
▁Devi~~7551
▁regulator~~7552
▁legale~~7553
▁Anliegen~~7554
▁Parlament~~7555
▁Wichtige~~7556
verteilung~~7557
▁Höchst~~7558
▁informiert~~7559
tscheidungen~~7560
bauen~~7561
bö~~7562
schläge~~7563
▁Kurs~~7564
ulation~~7565
▁tätig~~7566
▁strategisch~~7567
berschuss~~7568
region~~7569
▁Mangel~~7570
▁erschein~~7571
▁ehrgeizig~~7572
▁Finanzsektor~~7573
▁ebenso~~7574
sektor~~7575
zugrundeliegende~~7576
▁legal~~7577
▁Millenium~~7578
▁Präsidenten~~7579
llerwichtigste~~7580
▁Erträge~~7581
▁Plattform~~7582
▁pan~~7583
afrikanische~~7584
▁Rohstoffe~~7585
▁heimische~~7586
▁Umfang~~7587
▁einnehmen~~7588
▁verdoppelt~~7589
▁Südafrika~~7590
zeug~~7591
▁Wille~~7592
▁Vorschlag~~7593
▁Honor~~7594
▁Langsamkeit~~7595
▁Journalist~~7596
▁Schnelligkeit~~7597
▁Bremse~~7598
▁allzu~~7599
▁Beobachtung~~7600
öffentliche~~7601
▁vermarkte~~7602
▁Studio~~7603
▁Interview~~7604
▁präsentiere~~7605
▁langsamer~~7606
▁Beitrag~~7607
NN~~7608
▁Maske~~7609
▁Sendung~~7610
▁Zeitraffer~~7611
steckt~~7612
▁besessen~~7613
▁Wett~~7614
lauf~~7615
▁Carrie~~7616
▁Fisher~~7617
▁Profil~~7618
▁erwähne~~7619
▁sofortige~~7620
▁Befriedig~~7621
▁drüber~~7622
tasten~~7623
▁Walk~~7624
▁Speed~~7625
king~~7626
▁Date~~7627
Dating~~7628
▁Fitness~~7629
club~~7630
▁Plakat~~7631
oga~~7632
▁Berufstätige~~7633
▁grüße~~7634
▁opfer~~7635
▁amüsant~~7636
▁lacht~~7637
▁sprint~~7638
▁Schaden~~7639
▁rasant~~7640
▁Lebensstil~~7641
▁zahlen~~7642
▁Weckruf~~7643
▁ra~~7644
▁Warnung~~7645
▁Burn~~7646
out~~7647
Syndrom~~7648
▁schaff~~7649
▁Brüche~~7650
▁Geduld~~7651
▁Ruhe~~7652
nachtgeschichte~~7653
▁vorzule~~7654
▁Kate~~7655
gang~~7656
▁Absatz~~7657
kennt~~7658
stritten~~7659
▁entspannen~~7660
liest~~7661
kampf~~7662
ladi~~7663
ator~~7664
prallen~~7665
▁Zeitungsartikel~~7666
tipp~~7667
▁schnelle~~7668
flog~~7669
▁erschreckt~~7670
▁reagierte~~7671
▁Halleluja~~7672
▁gesucht~~7673
bett~~7674
▁verkürz~~7675
▁Abstand~~7676
▁Whoa~~7677
▁abend~~7678
▁Sil~~7679
speisen~~7680
▁legte~~7681
▁beiseite~~7682
▁gründlich~~7683
▁wünschenswert~~7684
▁Verdächtige~~7685
▁Verstädterung~~7686
▁eigentliche~~7687
▁zyklisch~~7688
▁gemütlich~~7689
▁erneuert~~7690
▁belebt~~7691
▁begrenzte~~7692
▁Ressource~~7693
icker~~7694
▁nutzt~~7695
▁Benjamin~~7696
▁Franklin~~7697
▁psychologisch~~7698
▁Gleichung~~7699
▁aufgestellt~~7700
▁Rennen~~7701
linie~~7702
▁Den~~7703
▁Kult~~7704
beschäftigt~~7705
▁gängige~~7706
▁überfahren~~7707
▁Hex~~7708
essel~~7709
▁Momente~~7710
sam~~7711
▁Entschleunig~~7712
▁bezeichnen~~7713
▁Widerspruch~~7714
berblick~~7715
▁Slow~~7716
ood~~7717
▁100.000~~7718
▁verständlich~~7719
▁gesünder~~7720
▁angemessene~~7721
▁explosionsartig~~7722
▁Zunahme~~7723
▁ökologische~~7724
▁Zeitplan~~7725
zubauen~~7726
Cities~~7727
▁überdenken~~7728
▁ermutigt~~7729
▁Rose~~7730
▁zueinander~~7731
ränken~~7732
▁Verkehr~~7733
▁Bänke~~7734
▁Grünfläche~~7735
▁offiziell~~7736
▁philosophische~~7737
▁verkündet~~7738
▁Anwohner~~7739
esillusionier~~7740
▁ergänzen~~7741
▁alternative~~7742
▁sanfte~~7743
▁ganzheitliche~~7744
mple~~7745
ären~~7746
▁persönlich~~7747
▁bezweif~~7748
▁Trend~~7749
▁Akupunktur~~7750
▁Massage~~7751
▁Entspannung~~7752
▁Fakultät~~7753
▁ne~~7754
ähm~~7755
▁Kiosk~~7756
▁Cover~~7757
Magazin~~7758
▁Orgasmus~~7759
ick~~7760
▁langsame~~7761
▁Schlafzimmer~~7762
▁psychologische~~7763
▁emotional~~7764
▁spirituelle~~7765
▁Spannung~~7766
aufbau~~7767
gas~~7768
▁bescher~~7769
▁Point~~7770
▁Sister~~7771
wort~~7772
wand~~7773
▁Liebhaber~~7774
▁St~~7775
▁tan~~7776
risch~~7777
▁Paare~~7778
▁strömen~~7779
bremsen~~7780
▁Italiener~~7781
▁scheinen~~7782
Sex~~7783
▁Arbeitszeit~~7784
▁gegangen~~7785
Stunden~~7786
woche~~7787
▁starr~~7788
▁europäische~~7789
▁klasse~~7790
▁Norwegen~~7791
▁Schweden~~7792
▁Dänemark~~7793
wettbewerbsfähig~~7794
▁Amerikaner~~7795
▁Neid~~7796
▁37~~7797
▁Kindheit~~7798
▁anguck~~7799
▁erstaunt~~7800
▁Hausaufgaben~~7801
▁Nachhilfe~~7802
▁Hobbi~~7803
▁Website~~7804
▁bekomme~~7805
▁Rande~~7806
rad~~7807
▁zusammengeta~~7808
unterricht~~7809
▁verbann~~7810
▁verbannt~~7811
▁stapelte~~7812
erfolg~~7813
orientierte~~7814
▁Privatschule~~7815
gebühren~~7816
▁flipp~~7817
▁Nein~~7818
▁Erholung~~7819
▁Zensur~~7820
▁Elite~~7821
Uni~~7822
gegeben~~7823
sta~~7824
cheln~~7825
▁Lebensläufe~~7826
▁überfüllt~~7827
räumt~~7828
Universität~~7829
▁Briefe~~7830
▁Studienanfänger~~7831
▁Brief~~7832
▁Ausruf~~7833
▁Straf~~7834
zettel~~7835
▁Fahren~~7836
▁recherchierte~~7837
▁Food~~7838
▁italienische~~7839
▁Autobahn~~7840
▁gefahren~~7841
▁sexy~~7842
▁Adrenalin~~7843
▁metaphysische~~7844
▁erfüllen~~7845
▁Ablenkung~~7846
▁weiterer~~7847
achtens~~7848
▁Tabu~~7849
▁dreckige~~7850
bedeutend~~7851
▁faul~~7852
tu~~7853
▁anzugeh~~7854
25~~7855
▁Stau~~7856
⁄~~7857
2~~7858
▁revolutionäre~~7859
▁Fernseher~~7860
▁Büro~~7861
▁empfand~~7862
▁herauskam~~7863
Brigade~~7864
▁begrüßt~~7865
▁Genuss~~7866
presse~~7867
▁Gänge~~7868
Wechs~~7869
zufinden~~7870
▁JA~~7871
▁sa~~7872
üchtig~~7873
▁lebe~~7874
▁genieß~~7875
▁spiele~~7876
▁inner~~7877
▁Schildkröte~~7878
einstellung~~7879
▁geflügelte~~7880
▁nahen~~7881
▁produktiver~~7882
▁reichhaltige~~7883
ack~~7884
▁trage~~7885
▁PC~~7886
▁passe~~7887
▁10-~~7888
Minuten~~7889
ärge~~7890
▁unterhalten~~7891
▁verabscheu~~7892
liste~~7893
▁grau~~7894
▁Belohnung~~7895
▁schätze~~7896
End~~7897
▁folgt~~7898
▁Lese~~7899
▁Taschen~~7900
▁Haustür~~7901
▁Taxi~~7902
▁Treppe~~7903
gebastelt~~7904
▁Aufkleber~~7905
▁Tim~~7906
▁Str~~7907
upp~~7908
geklebt~~7909
▁Für~~7910
vor~~7911
les~~7912
▁Lock~~7913
wood~~7914
▁Kondome~~7915
▁Kongo~~7916
▁HIV~~7917
▁Demokratische~~7918
▁Republik~~7919
ilfsorganisation~~7920
▁kostenlos~~7921
▁billig~~7922
▁überschwemmt~~7923
▁reformier~~7924
▁Marketing~~7925
▁Model~~7926
▁Philantrop~~7927
sarbeit~~7928
▁faktisch~~7929
▁Westeuropa~~7930
▁Krieges~~7931
▁zahlreiche~~7932
▁Pre~~7933
enz~~7934
rate~~7935
▁1,3~~7936
▁76~~7937
▁93~~7938
0.000~~7939
▁dürftig~~7940
▁ledig~~7941
▁lebensrettende~~7942
▁Medikamente~~7943
▁Spenden~~7944
▁geringe~~7945
▁Dami~~7946
▁betreib~~7947
▁Kinshasa~~7948
▁geöffnet~~7949
▁Prostituierte~~7950
he~~7951
▁Joseph~~7952
▁Christin~~7953
▁Apotheke~~7954
▁günstig~~7955
▁abgeb~~7956
kampagne~~7957
version~~7958
▁Gene~~7959
ika~~7960
▁schaute~~7961
schaften~~7962
▁Finanzierung~~7963
▁Treue~~7964
ve~~7965
▁Trust~~7966
▁verpackt~~7967
▁Aid~~7968
▁Schachtel~~7969
männer~~7970
▁beschützt~~7971
▁vernünftig~~7972
▁unbedingt~~7973
▁wora~~7974
sprache~~7975
▁provokativ~~7976
aspekt~~7977
▁häufig~~7978
▁Verbreitung~~7979
bre~~7980
▁Grey~~7981
lterwerden~~7982
▁verhindern~~7983
▁behauptet~~7984
▁verhindert~~7985
▁erstrebenswert~~7986
▁schick~~7987
▁Schicksal~~7988
mäßig~~7989
verlängerung~~7990
▁mittlere~~7991
▁Sieg~~7992
▁Wesentliche~~7993
imini~~7994
▁Zwischen~~7995
▁irgendw~~7996
▁Schlechtes~~7997
grund~~7998
▁Eigenart~~7999
▁gemein~~8000
▁tötet~~8001
▁ziehe~~8002
jagd~~8003
verständnis~~8004
▁Naja~~8005
▁traditioneller~~8006
▁ökologisch~~8007
explosion~~8008
▁Fü~~8009
chse~~8010
▁letztendlich~~8011
ffentlichkeit~~8012
ari~~8013
▁Schluß~~8014
▁zivilisierte~~8015
▁tolerier~~8016
▁Elend~~8017
▁Trance~~8018
▁wertlos~~8019
▁Vorbereitung~~8020
▁Unruhe~~8021
▁Altern~~8022
▁legitim~~8023
▁Ap~~8024
▁beunruhigt~~8025
▁Nachteile~~8026
▁unnötig~~8027
▁entsprechend~~8028
▁Einwand~~8029
▁verschwenden~~8030
▁folgender~~8031
▁befürchten~~8032
berbevölkerung~~8033
berquer~~8034
▁Gile~~8035
▁stimme~~8036
▁Antworten~~8037
▁Geburtenrate~~8038
▁Sterberate~~8039
▁zöger~~8040
damm~~8041
▁Schar~~8042
▁unbegrenzte~~8043
▁Lebenserwartung~~8044
▁halte~~8045
▁unmoralisch~~8046
▁Akt~~8047
v~~8048
▁grausam~~8049
▁unvermeidbar~~8050
▁lächerlich~~8051
▁Positive~~8052
▁eventuell~~8053
▁mission~~8054
regen~~8055
▁Definition~~8056
▁Nebenwirkung~~8057
▁Stoffwechsel~~8058
▁Bin~~8059
▁Aussage~~8060
▁leblos~~8061
fährt~~8062
▁clevere~~8063
▁Reparatur~~8064
mechanism~~8065
▁tagtäglich~~8066
▁Nebeneffekte~~8067
▁akkumulier~~8068
▁ausgezeichnet~~8069
▁verzöger~~8070
▁gerontolog~~8071
ria~~8072
rische~~8073
▁interven~~8074
▁relevant~~8075
▁kurzfristige~~8076
▁verurteilt~~8077
▁Ursachen~~8078
▁zunehmen~~8079
▁vielversprechen~~8080
sorge~~8081
▁Organismen~~8082
▁erbärmlich~~8083
▁RNA~~8084
▁Gero~~8085
ologie~~8086
▁überzeugend~~8087
ise~~8088
▁Lebensjahr~~8089
▁55~~8090
▁robuste~~8091
▁verfügbar~~8092
▁bedeuten~~8093
▁Durchbrüche~~8094
▁schrittweise~~8095
▁Vorhersage~~8096
▁190~~8097
▁beständig~~8098
förmig~~8099
▁Abfolge~~8100
▁Luftfahrt~~8101
svermögen~~8102
▁vorhergehende~~8103
▁typisch~~8104
▁fundamental~~8105
▁Durchbruch~~8106
leiste~~8107
▁Antibiotika~~8108
▁Zeitrahmen~~8109
verlängern~~8110
▁Schei~~8111
tel~~8112
▁verbesserte~~8113
▁verbleibende~~8114
ängel~~8115
holen~~8116
▁lebende~~8117
▁1000~~8118
▁Jahrzent~~8119
▁unterbinde~~8120
verbesserung~~8121
▁ausreichen~~8122
▁200-~~8123
▁ausgedacht~~8124
▁Langlebigkeit~~8125
geschwindigkeit~~8126
je~~8127
▁80-~~8128
leben~~8129
▁Sturz~~8130
flug~~8131
▁entkommen~~8132
▁sinnvoll~~8133
▁jünger~~8134
▁physisch~~8135
▁geringere~~8136
▁altersbedingte~~8137
Schlussfolgerung~~8138
▁Katastrophen~~8139
einhalb~~8140
▁Verlängerung~~8141
▁Mäuse~~8142
▁vergleichbar~~8143
▁Meilenstein~~8144
▁einfallsreich~~8145
▁Rasse~~8146
▁fünften~~8147
▁hinzugefügt~~8148
▁verdreifacht~~8149
▁gleicher~~8150
▁spekuliere~~8151
▁Spekulation~~8152
antwort~~8153
▁schweigen~~8154
izon~~8155
maß~~8156
HR~~8157
▁robust~~8158
▁Maus~~8159
▁Allgemein~~8160
▁positiver~~8161
▁neigt~~8162
▁unterschätz~~8163
mbivalen~~8164
▁erwähnte~~8165
▁Bewältigung~~8166
sstrategie~~8167
zögert~~8168
▁Schädigung~~8169
▁Zwischenprodukt~~8170
weist~~8171
▁ursprüngliche~~8172
▁Diagramm~~8173
▁Ger~~8174
▁reduzieren~~8175
▁kontinuierlich~~8176
ad~~8177
▁Ingenieurs~~8178
Ansatz~~8179
ansatz~~8180
▁greif~~8181
▁Lass~~8182
▁loslege~~8183
▁reparieren~~8184
▁Beschwerde~~8185
age~~8186
öl~~8187
▁bräuchte~~8188
▁Illustration~~8189
▁unvollständig~~8190
▁rechten~~8191
▁unvollständige~~8192
▁Kategorie~~8193
▁Zell~~8194
verlust~~8195
▁Chromosomen~~8196
Mitochondrien~~8197
▁Beweis~~8198
▁Ok~~8199
▁worau~~8200
▁langlebig~~8201
▁geschädigte~~8202
▁kurzlebig~~8203
▁Protein~~8204
ly~~8205
▁langlebige~~8206
▁Biologie~~8207
▁Tatsache~~8208
▁zitiere~~8209
▁Arbeiten~~8210
▁Optimismus~~8211
▁basiert~~8212
ologe~~8213
▁radikale~~8214
kehr~~8215
▁Mainstream~~8216
▁resistent~~8217
ession~~8218
▁Genom~~8219
▁kürzeste~~8220
▁entschlüssel~~8221
▁Nun~~8222
▁Meth~~8223
▁Anreiz~~8224
▁Institut~~8225
menschen~~8226
freund~~8227
gier~~8228
▁Biotech~~8229
▁bekämpfen~~8230
▁AG~~8231
▁Immunsystem~~8232
▁bekämpft~~8233
▁Individu~~8234
pflanzen~~8235
▁Zellteilung~~8236
▁Tel~~8237
ome~~8238
sterblichkeit~~8239
▁abgeschlossen~~8240
strittig~~8241
▁übliche~~8242
Antwort~~8243
im~~8244
▁Resultat~~8245
▁Selektion~~8246
arian~~8247
▁Voll~~8248
▁Genen~~8249
▁Nachkommen~~8250
▁Schwankung~~8251
▁verlängert~~8252
▁hochrechne~~8253
unfall~~8254
▁abnehmen~~8255
▁beabsichtige~~8256
▁erhöh~~8257
▁Gehirnzellen~~8258
▁Embryo~~8259
▁Implikation~~8260
▁grundsätzlich~~8261
▁ersetzen~~8262
▁Neuronen~~8263
▁Ersatz~~8264
▁kognitive~~8265
▁herab~~8266
▁Fehlen~~8267
▁Hydra~~8268
▁Gewebe~~8269
▁Lewi~~8270
▁Pugh~~8271
bewusstsein~~8272
▁Schwimmen~~8273
▁Nordpol~~8274
gefunden~~8275
▁minus~~8276
▁1,7~~8277
▁grauenhaft~~8278
▁schoss~~8279
▁gefroren~~8280
▁4,5~~8281
▁Ozeans~~8282
▁sinken~~8283
▁verschwinden~~8284
▁furchtbar~~8285
▁Wu~~8286
finger~~8287
▁gefrier~~8288
▁expandiert~~8289
▁Fingern~~8290
▁eingefroren~~8291
▁platzt~~8292
▁solch~~8293
▁kalte~~8294
▁Klimawandels~~8295
▁hinterließ~~8296
▁Schlachtfeld~~8297
▁Dritte~~8298
▁Instabilität~~8299
▁Bangladesh~~8300
▁symbolische~~8301
▁28~~8302
▁beeindruckende~~8303
▁hinauf~~8304
wi~~8305
▁riesen~~8306
Team~~8307
▁53~~8308
▁Meeresspiegel~~8309
▁durchführen~~8310
höhe~~8311
krank~~8312
aktion~~8313
läuf~~8314
▁Toten~~8315
▁vorüber~~8316
▁demütig~~8317
▁mächtiger~~8318
▁Kh~~8319
Gletscher~~8320
▁Seen~~8321
▁geschmolzene~~8322
▁bereitete~~8323
▁kontrollierte~~8324
▁Aggression~~8325
▁warf~~8326
▁schwamm~~8327
▁schnappte~~8328
▁flach~~8329
▁wegzu~~8330
▁Züge~~8331
▁Rand~~8332
▁Ertrinken~~8333
▁friedlich~~8334
▁Schwach~~8335
▁furchterregend~~8336
▁packte~~8337
▁Geröll~~8338
dient~~8339
▁Acht~~8340
▁Hügel~~8341
▁Dich~~8342
ruhe~~8343
schwimmen~~8344
▁schwimm~~8345
▁wahrer~~8346
▁Demu~~8347
▁Sher~~8348
▁irgend~~8349
▁benötige~~8350
▁gelebt~~8351
▁besiedelt~~8352
▁betrug~~8353
▁Weltbevölkerung~~8354
,8~~8355
▁taktische~~8356
▁könnt~~8357
▁Eure~~8358
▁Enkelkinder~~8359
▁unversehrt~~8360
▁zukunftsfähig~~8361
▁herbeizu~~8362
▁blogg~~8363
▁tweet~~8364
▁einhundert~~8365
▁Hodg~~8366
▁Humor~~8367
▁ansässig~~8368
Objekt~~8369
▁Bachelor~~8370
▁Fernseh~~8371
ers~~8372
▁Sammler~~8373
▁With~~8374
ach~~8375
atalog~~8376
▁Zeppelin~~8377
irport~~8378
Gebäude~~8379
▁altertümliche~~8380
▁außerirdische~~8381
▁196~~8382
▁ausgegraben~~8383
▁LA~~8384
▁stamme~~8385
▁geschäftige~~8386
▁trans~~8387
dimensional~~8388
hof~~8389
▁Urzeit~~8390
astro~~8391
▁bevölkert~~8392
▁Spezies~~8393
▁Dreh~~8394
restaurant~~8395
höfe~~8396
▁Stonehenge~~8397
▁Designs~~8398
ui~~8399
▁Park~~8400
▁enthüllt~~8401
ynonym~~8402
▁Jet~~8403
Zeitalter~~8404
zeichnung~~8405
▁bevorzugt~~8406
▁gef~~8407
▁Schlangen~~8408
▁Kristall~~8409
schäd~~8410
ic~~8411
▁Sal~~8412
▁Philipp~~8413
▁Starck~~8414
▁drohende~~8415
▁Gabel~~8416
▁entworfen~~8417
ors~~8418
▁o~~8419
uvre~~8420
▁Lobby~~8421
achtet~~8422
▁Spa~~8423
▁Drei~~8424
▁befestige~~8425
augen~~8426
▁Zit~~8427
▁erschwinglich~~8428
▁Küchen~~8429
Schublade~~8430
▁harte~~8431
▁design~~8432
▁Post~~8433
▁Heiz~~8434
platte~~8435
▁kapier~~8436
▁Chi~~8437
▁iPhone~~8438
▁Flies~~8439
▁Badezimmer~~8440
▁lese~~8441
▁schaue~~8442
▁O~~8443
▁Anruf~~8444
▁vergesse~~8445
▁Wow~~8446
Effekt~~8447
▁Gewohnheit~~8448
▁empfinde~~8449
hängen~~8450
▁J~~8451
▁Stephan~~8452
▁Schroeder~~8453
▁Lak~~8454
schreiben~~8455
verlorengegangen~~8456
▁liest~~8457
▁verstorben~~8458
▁kommende~~8459
▁Schreib~~8460
▁unausweichlich~~8461
rüber~~8462
▁fasziniert~~8463
▁Hi~~8464
▁Mike~~8465
▁Cyber~~8466
space~~8467
▁aufzeichne~~8468
▁Handschrift~~8469
▁Notiz~~8470
buch~~8471
▁Stärken~~8472
▁Schwäche~~8473
▁benannt~~8474
▁Vorfälle~~8475
▁Spiegelbild~~8476
▁Email~~8477
▁tippt~~8478
schrift~~8479
▁Umarmung~~8480
▁tausche~~8481
▁hole~~8482
▁Werten~~8483
▁finanzielle~~8484
▁unterzeichnet~~8485
▁anregt~~8486
▁inspiriert~~8487
▁Recycling~~8488
Papier~~8489
▁erlern~~8490
▁plane~~8491
sammle~~8492
▁Autoren~~8493
▁Trac~~8494
▁veröffentlichen~~8495
▁Flammen~~8496
▁verschlungen~~8497
haufen~~8498
▁zusammenzu~~8499
▁Linguist~~8500
▁Grammatik~~8501
geschaut~~8502
▁Asche~~8503
▁unendliche~~8504
▁gefangen~~8505
▁zwing~~8506
wachsen~~8507
▁umzingelt~~8508
▁Gewässer~~8509
▁sehnen~~8510
▁Seele~~8511
▁reinigen~~8512
kämpfen~~8513
▁lehrte~~8514
▁ermutigen~~8515
▁Strud~~8516
▁Ufer~~8517
▁Andrew~~8518
▁Blu~~8519
▁Eich~~8520
hörn~~8521
kau~~8522
fline~~8523
kabel~~8524
▁geheime~~8525
▁materielle~~8526
▁Einzelteile~~8527
▁beruht~~8528
▁Architekten~~8529
▁Mischung~~8530
▁besuche~~8531
▁spazieren~~8532
▁Räumlichkeit~~8533
▁insbesonder~~8534
▁kriegt~~8535
▁guckte~~8536
▁geteilt~~8537
▁verwundert~~8538
▁Abbildung~~8539
▁OP~~8540
▁Milchstraße~~8541
▁Unendlichkeit~~8542
▁Gesamt~~8543
▁Apollo~~8544
Bild~~8545
▁Kugel~~8546
hnlichkeit~~8547
▁zusammenbring~~8548
Mann~~8549
▁repariert~~8550
▁staubige~~8551
▁Hintertür~~8552
salat~~8553
▁Protokoll~~8554
▁Dating~~8555
▁Box~~8556
Sitcom~~8557
▁Crowd~~8558
▁Big~~8559
▁Präsentation~~8560
leihen~~8561
▁Väter~~8562
▁einverstande~~8563
▁trenne~~8564
▁wiegt~~8565
▁Narr~~8566
▁amorph~~8567
▁Blo~~8568
▁komische~~8569
▁blinkende~~8570
▁reale~~8571
cast~~8572
▁Time~~8573
▁Warner~~8574
▁Glasfaser~~8575
▁intim~~8576
▁Hudson~~8577
▁Häuserblock~~8578
bringt~~8579
Kabel~~8580
▁Leitung~~8581
schlauch~~8582
▁Haare~~8583
▁Kanal~~8584
▁5000~~8585
▁angeschlossen~~8586
ax~~8587
▁Irland~~8588
▁dünne~~8589
▁geplant~~8590
▁Cooper~~8591
▁arbeitete~~8592
▁Tata~~8593
ommunication~~8594
abteilung~~8595
▁kommuniziert~~8596
System~~8597
▁Engländer~~8598
industrie~~8599
▁beherrscht~~8600
▁42~~8601
▁Boom~~8602
▁vernetz~~8603
▁Bit~~8604
▁Lichtstrahl~~8605
▁suchten~~8606
▁unerschlossene~~8607
fällt~~8608
▁erstaunliche~~8609
▁geographische~~8610
▁flüchtige~~8611
▁momentan~~8612
▁Tweet~~8613
Post~~8614
▁Folge~~8615
AC~~8616
Afrikanischen~~8617
▁Lis~~8618
abo~~8619
▁Elfenbein~~8620
▁Ghana~~8621
▁Kamerun~~8622
▁Kürze~~8623
bedingung~~8624
warnung~~8625
▁Nylon~~8626
faden~~8627
L~~8628
▁Bulldozer~~8629
▁Boj~~8630
▁Ingenieure~~8631
▁Anschluss~~8632
Station~~8633
gelassen~~8634
▁Inneren~~8635
▁Juwel~~8636
▁Faser~~8637
▁verschmelzen~~8638
▁Cloud~~8639
▁Kon~~8640
▁modernste~~8641
▁Anweisung~~8642
städte~~8643
▁Momba~~8644
▁Mumbai~~8645
▁Deckel~~8646
▁Schach~~8647
▁Sand~~8648
▁verdeckt~~8649
▁Stephen~~8650
▁vernetzte~~8651
▁Drähte~~8652
▁vernetzt~~8653
▁Chav~~8654
va~~8655
▁Schneider~~8656
▁Swami~~8657
anda~~8658
▁Sara~~8659
▁Mitgefühls~~8660
▁entwirr~~8661
▁parallel~~8662
▁persönlicher~~8663
▁begleitet~~8664
▁hilflos~~8665
▁Kleinkind~~8666
▁furchtlos~~8667
▁Konsument~~8668
▁Mitwirkende~~8669
berlebens~~8670
instinkt~~8671
▁ausgestattet~~8672
▁Pflege~~8673
mutter~~8674
▁vollkommen~~8675
▁ergeben~~8676
▁voraus~~8677
▁verletzen~~8678
▁Verletzung~~8679
▁Schuld~~8680
▁Anklage~~8681
▁wahrhaft~~8682
▁beseitigen~~8683
ank~~8684
▁erwachsen~~8685
▁mitfühlend~~8686
▁kon~~8687
▁ausübt~~8688
▁Status~~8689
▁verfügt~~8690
▁Ganz~~8691
onsten~~8692
▁ergriff~~8693
▁Empathie~~8694
▁Wimbledon~~8695
▁End~~8696
echten~~8697
▁Match~~8698
schwitz~~8699
▁Tennis~~8700
iquette~~8701
▁schütteln~~8702
▁streckt~~8703
küsst~~8704
▁Hemd~~8705
▁Miene~~8706
▁wünschen~~8707
▁verwehr~~8708
▁Indo~~8709
fühlen~~8710
▁entgegenzu~~8711
▁Gericht~~8712
▁Erleben~~8713
▁Klam~~8714
▁Universum~~8715
▁rundher~~8716
▁Subjekt~~8717
▁versagt~~8718
▁Begrenzung~~8719
▁Sehnsüchte~~8720
▁unerfüllt~~8721
▁Kreditkarten~~8722
▁Kü~~8723
ndigung~~8724
▁Kahl~~8725
▁Sehnsucht~~8726
seligkeit~~8727
▁unterscheiden~~8728
▁Einsicht~~8729
▁Bestätigung~~8730
▁bedeutungsvoll~~8731
entsprechend~~8732
▁Laune~~8733
▁unbegrenzt~~8734
▁Bast~~8735
▁Manifestation~~8736
▁hervorruf~~8737
▁Geben~~8738
▁ausdrücken~~8739
▁verfügen~~8740
▁Schaumstoff~~8741
mat~~8742
▁Rad~~8743
▁fahren~~8744
▁Kochen~~8745
imitieren~~8746
▁Vorgänger~~8747
▁Verb~~8748
▁Ad~~8749
verb~~8750
▁Zähne~~8751
▁beten~~8752
▁Lehre~~8753
▁Edit~~8754
▁Wid~~8755
▁scheu~~8756
räuber~~8757
graph~~8758
Kalmar~~8759
▁festzu~~8760
▁Krake~~8761
Ungetüm~~8762
▁angeblich~~8763
▁Wale~~8764
▁verschlang~~8765
▁gigantisch~~8766
mann~~8767
▁schw~~8768
▁Doku~~8769
▁Discovery~~8770
▁Channel~~8771
▁Expedition~~8772
▁stattfand~~8773
▁Kurze~~8774
un~~8775
She~~8776
▁Teilnahme~~8777
▁historische~~8778
▁verdanke~~8779
▁2010~~8780
Veranstaltung~~8781
▁Blue~~8782
▁Lin~~8783
bla~~8784
▁Explorer~~8785
▁versch~~8786
Gru~~8787
▁eingeladen~~8788
▁beteiligt~~8789
▁Jagd~~8790
Konferenz~~8791
Experte~~8792
Woche~~8793
▁unauffällig~~8794
▁Beobachten~~8795
▁optische~~8796
▁Her~~8797
mar~~8798
▁Wichtig~~8799
plattform~~8800
▁betont~~8801
▁herumge~~8802
▁verwendete~~8803
▁ferngesteuerte~~8804
▁Fahrzeuge~~8805
▁Sichtfeld~~8806
▁Tib~~8807
uron~~8808
▁Vent~~8809
dacht~~8810
▁Lärm~~8811
mikrofon~~8812
▁Johnson~~8813
Link~~8814
▁Düsen~~8815
▁elektrisch~~8816
▁Tauch~~8817
roboter~~8818
hydr~~8819
J~~8820
ag~~8821
▁schlug~~8822
▁Köder~~8823
batterie~~8824
betriebene~~8825
▁Beleuchtung~~8826
▁unsichtbar~~8827
▁primär~~8828
▁Blau~~8829
▁quasi~~8830
▁Atoll~~8831
▁biolumineszente~~8832
brecher~~8833
alarm~~8834
▁Abwehr~~8835
ualle~~8836
uallen~~8837
fressen~~8838
feind~~8839
▁knabber~~8840
strahl~~8841
▁Raubtier~~8842
▁Angreifer~~8843
▁attack~~8844
▁eröffnet~~8845
schrei~~8846
▁Verteidigung~~8847
▁gewährt~~8848
▁Witz~~8849
▁Schabe~~8850
▁trieb~~8851
▁Jetzt~~8852
▁seht~~8853
▁neck~~8854
▁hau~~8855
▁Socken~~8856
oo~~8857
oh~~8858
▁Annäherung~~8859
▁Tri~~8860
ton~~8861
▁aufnahm~~8862
bus~~8863
▁Vorrichtung~~8864
▁Langle~~8865
lockt~~8866
perspektive~~8867
▁aufgeregt~~8868
▁Taschenlampe~~8869
flo~~8870
▁riskiert~~8871
▁Sag~~8872
lig~~8873
Video~~8874
▁atemberaubend~~8875
keln~~8876
stöckige~~8877
film~~8878
▁Entdeckungen~~8879
▁bio~~8880
aktiv~~8881
▁unvorstellbare~~8882
▁Weisen~~8883
ruchteil~~8884
▁NASA~~8885
erhaltungssystem~~8886
swachstum~~8887
lasst~~8888
▁wegkomm~~8889
teig~~8890
▁Abenteuer~~8891
▁Serge~~8892
▁Brin~~8893
▁Glass~~8894
▁angebracht~~8895
Computer~~8896
ombin~~8897
201~~8898
▁Computern~~8899
▁gebeug~~8900
▁erhoben~~8901
schauen~~8902
▁zeichne~~8903
klub~~8904
▁Tiger~~8905
köpfe~~8906
▁Hmm~~8907
▁heilige~~8908
▁piep~~8909
▁Boah~~8910
▁Brücke~~8911
fahrt~~8912
▁8~~8913
12~~8914
▁übersetze~~8915
▁schmeckt~~8916
▁Thai~~8917
▁mm~~8918
▁wunderschön~~8919
▁nigerianische~~8920
▁Prinz~~8921
▁finanziert~~8922
▁umher~~8923
laufen~~8924
▁potenziell~~8925
▁isoliert~~8926
starrt~~8927
▁flache~~8928
sequenz~~8929
▁Display~~8930
▁Blickfeld~~8931
kontakt~~8932
▁aufnehmen~~8933
▁Schädelknochen~~8934
▁anfangs~~8935
▁ironisch~~8936
▁Such~~8937
fragen~~8938
▁Straße~~8939
▁bequem~~8940
▁Prototypen~~8941
▁unbequem~~8942
▁schreien~~8943
▁magisch~~8944
▁rauchen~~8945
▁Zigarette~~8946
▁anzünde~~8947
▁cooler~~8948
▁Aber~~8949
▁sitze~~8950
usgeschlossen~~8951
endes~~8952
▁check~~8953
▁Ar~~8954
▁Dap~~8955
hne~~8956
▁Koller~~8957
▁verführt~~8958
▁faszinierendste~~8959
▁Kurse~~8960
verhalten~~8961
▁Tasten~~8962
qui~~8963
▁Peer~~8964
Peer~~8965
For~~8966
▁dagewesene~~8967
pool~~8968
▁verarbeitet~~8969
▁gehöre~~8970
geschrieben~~8971
▁zweier~~8972
labor~~8973
▁besuchte~~8974
▁eröffnete~~8975
▁Apartheid~~8976
▁Minderheit~~8977
▁hochwertige~~8978
▁Januar~~8979
▁Johannes~~8980
lassung~~8981
▁Registr~~8982
▁kilometer~~8983
▁Tor~~8984
▁hoffte~~8985
▁ergatter~~8986
▁verlor~~8987
▁steigende~~8988
▁Zwei~~8989
fache~~8990
gesamt~~8991
▁unbezahlbar~~8992
▁Hochschul~~8993
ausbildung~~8994
▁passende~~8995
absolvent~~8996
ualifikation~~8997
▁Studierende~~8998
och~~8999
▁abschließen~~9000
▁Friedman~~9001
▁jüngste~~9002
▁Times~~9003
tig~~9004
Kurs~~9005
▁Maschinelle~~9006
▁Mitbegründer~~9007
▁Ng~~9008
▁maschinelle~~9009
▁öffentlich~~9010
▁unterrichtete~~9011
▁registriert~~9012
▁250~~9013
▁Anspruch~~9014
▁Angebot~~9015
▁bestmögliche~~9016
▁Course~~9017
▁Dozent~~9018
▁43~~9019
richtung~~9020
hri~~9021
▁willkommen~~9022
▁Analysis~~9023
ze~~9024
uel~~9025
▁fünfzig~~9026
▁versichert~~9027
▁Page~~9028
▁Modellen~~9029
▁Richtlinie~~9030
▁Seg~~9031
mmer~~9032
▁Bush~~9033
▁zukünftig~~9034
▁Stirn~~9035
▁Mitchell~~9036
▁Dun~~9037
▁Mill~~9038
▁Soziologie~~9039
▁student~~9040
▁RG~~9041
▁hängende~~9042
▁hyperbolische~~9043
▁Ko~~9044
▁Par~~9045
▁Pixel~~9046
▁Paul~~9047
▁Off~~9048
▁Impfung~~9049
▁Jura~~9050
sky~~9051
▁bedient~~9052
han~~9053
▁Frühstück~~9054
▁Jose~~9055
▁komisch~~9056
▁Münze~~9057
▁rechnerische~~9058
▁Studierenden~~9059
▁Inhalte~~9060
aunch~~9061
▁1.5~~9062
meldung~~9063
uiz~~9064
▁Ak~~9065
lleinerziehende~~9066
▁Jenn~~9067
▁Kenntnisse~~9068
▁Ryan~~9069
▁Immun~~9070
▁litt~~9071
▁riskier~~9072
▁freut~~9073
▁korrespondiert~~9074
▁Happy~~9075
▁Shannon~~9076
▁belegt~~9077
▁festgelegt~~9078
term~~9079
skurve~~9080
▁Spitzen~~9081
tin~~9082
▁Zertifikat~~9083
▁Bewerbung~~9084
seinrichtung~~9085
gerechnet~~9086
▁explizit~~9087
Format~~9088
▁60-~~9089
minütige~~9090
▁Vorlesung~~9091
▁modular~~9092
gebrochen~~9093
wissen~~9094
▁Zusatz~~9095
▁möchten~~9096
▁Format~~9097
▁individual~~9098
plan~~9099
sitzen~~9100
▁Merkmal~~9101
berlegung~~9102
▁anregen~~9103
zuwenden~~9104
bungen~~9105
▁Science~~9106
▁auffällig~~9107
smaßnahme~~9108
formen~~9109
▁integrieren~~9110
unterbrochen~~9111
▁SP~~9112
spect~~9113
ory~~9114
kon~~9115
▁Tendenz~~9116
▁quo~~9117
▁Prävalenz~~9118
fehler~~9119
▁dokumentierte~~9120
▁Abweichung~~9121
▁aufgepasst~~9122
▁optional~~9123
merkt~~9124
saufgaben~~9125
▁bewerte~~9126
▁Tutor~~9127
▁bewerkstelligen~~9128
▁zusätzlich~~9129
▁Multiple~~9130
Choice~~9131
Aufgabe~~9132
▁mathematische~~9133
▁Begriffe~~9134
modelle~~9135
▁natur~~9136
ingenieur~~9137
▁komplizierte~~9138
▁Programmier~~9139
▁anschaulich~~9140
▁Informatik~~9141
▁101~~9142
▁verschwommen~~9143
▁korrigieren~~9144
▁Browser~~9145
statue~~9146
▁see~~9147
▁elementare~~9148
erfahrung~~9149
▁element~~9150
▁Geistes~~9151
klappt~~9152
▁schluss~~9153
endlich~~9154
Bewertung~~9155
▁frühere~~9156
▁Good~~9157
▁effektiver~~9158
produzier~~9159
Achse~~9160
▁x~~9161
▁entsprach~~9162
▁erstaunlicher~~9163
bewertung~~9164
▁kritisch~~9165
▁volle~~9166
▁Punktzahl~~9167
▁übereinstimmen~~9168
strategie~~9169
▁erdacht~~9170
▁abertausende~~9171
▁dreht~~9172
▁versammelt~~9173
▁intellektuelle~~9174
▁Princeton~~9175
▁Weltkarte~~9176
umspannende~~9177
▁verschiedenste~~9178
allererst~~9179
▁wirkliche~~9180
▁Tolle~~9181
▁wach~~9182
sagen~~9183
Gemeinschaft~~9184
▁austausch~~9185
▁intensiver~~9186
▁Beschränkungen~~9187
▁multikulturelle~~9188
▁Kontakt~~9189
▁Gefüge~~9190
▁ergab~~9191
▁beispiellose~~9192
▁Klick~~9193
sendung~~9194
▁For~~9195
trag~~9196
▁Lernens~~9197
▁hypothetische~~9198
▁Modu~~9199
▁date~~9200
▁Transformation~~9201
▁revolutioniert~~9202
▁Missverständnis~~9203
▁Verteilung~~9204
▁zweidimensional~~9205
▁Kreuz~~9206
▁erkannte~~9207
▁pass~~9208
▁erreichte~~9209
▁personalisierte~~9210
Personalisierung~~9211
▁Rätsel~~9212
▁Bloom~~9213
Problem~~9214
▁beobachtete~~9215
▁Population~~9216
basiert~~9217
population~~9218
▁basierend~~9219
▁Können~~9220
▁Sigm~~9221
▁reguläre~~9222
▁Betreuung~~9223
▁Schwellenwert~~9224
▁darunter~~9225
▁98~~9226
▁Smartphone~~9227
▁link~~9228
▁Graph~~9229
▁Kurve~~9230
▁drängen~~9231
▁ermüde~~9232
▁etliche~~9233
▁vorgestellt~~9234
▁obsolet~~9235
▁Twa~~9236
not~~9237
izen~~9238
▁Professor~~9239
▁beschwert~~9240
arch~~9241
▁Holz~~9242
▁entfacht~~9243
▁Inhalt~~9244
füllen~~9245
▁Problemlösung~~9246
▁aktive~~9247
▁Interaktion~~9248
▁Anwesenheit~~9249
▁Beteiligung~~9250
▁standardisierte~~9251
▁Test~~9252
▁bewiesen~~9253
▁zusammenfassen~~9254
▁Motivation~~9255
eignen~~9256
▁Schande~~9257
▁Hochschule~~9258
▁abschliessen~~9259
gängig~~9260
well~~9261
▁auslösen~~9262
▁Talente~~9263
▁Albert~~9264
▁Einstein~~9265
▁entlegene~~9266
▁Holter~~9267
▁Mauri~~9268
ac~~9269
ini~~9270
gemeißelt~~9271
▁Ingenieur~~9272
▁Leonardo~~9273
▁Ang~~9274
▁Schichten~~9275
▁Betrachtung~~9276
erlebnis~~9277
▁1975~~9278
▁Floren~~9279
▁Carlo~~9280
▁ehemalige~~9281
▁Vinci~~9282
▁Jahrhunderte~~9283
lüfte~~9284
▁Meisterwerk~~9285
▁Pala~~9286
▁Ve~~9287
cchio~~9288
▁Va~~9289
sari~~9290
▁ausgestalte~~9291
▁Guinness~~9292
▁beauftragt~~9293
60~~9294
▁umzugestalten~~9295
imo~~9296
▁Med~~9297
▁Rettung~~9298
▁dicke~~9299
▁Ziegel~~9300
▁schmale~~9301
spalt~~9302
ci~~9303
▁Basil~~9304
▁Santa~~9305
▁bewunder~~9306
▁anspruchsvolle~~9307
ündig~~9308
▁gemalt~~9309
▁Fahne~~9310
▁angeordnet~~9311
▁Alma~~9312
▁Diego~~9313
▁Forschungszentr~~9314
▁eröffne~~9315
▁Ingenieurwissen~~9316
ISA~~9317
▁strömt~~9318
▁Praxis~~9319
11~~9320
▁Fal~~9321
▁Kueste~~9322
▁leitet~~9323
▁Kunstwerk~~9324
zustand~~9325
▁bestimmen~~9326
▁Madonna~~9327
▁UV~~9328
Licht~~9329
schichten~~9330
▁Dame~~9331
▁Einhorn~~9332
▁Malerei~~9333
▁Raffael~~9334
▁Schoß~~9335
▁fortfahren~~9336
▁Hünd~~9337
▁malte~~9338
▁exotische~~9339
▁Symbol~~9340
vertrauenswürdig~~9341
▁positiv~~9342
schreibung~~9343
▁objektive~~9344
▁subjektive~~9345
▁Bewunder~~9346
▁beflügelt~~9347
▁lebendige~~9348
▁Zeichnung~~9349
▁Schicht~~9350
▁Gemälde~~9351
▁Anbet~~9352
▁Könige~~9353
XY~~9354
Z~~9355
Scanner~~9356
leuchtet~~9357
▁enthülle~~9358
▁bedeutendste~~9359
▁Werk~~9360
ialität~~9361
▁Elefanten~~9362
jahrhundertelang~~9363
▁Offenbarung~~9364
▁Tablet~~9365
▁Vergrößerung~~9366
▁simuliere~~9367
▁anklicke~~9368
▁hochgeladen~~9369
▁hineinzoom~~9370
scroll~~9371
▁wegge~~9372
wischt~~9373
ographie~~9374
▁Umgestaltung~~9375
▁Figuren~~9376
▁Kuriosität~~9377
▁erschließ~~9378
▁Protagonist~~9379
▁passiv~~9380
▁Museums~~9381
▁digital~~9382
▁forschen~~9383
▁Wann~~9384
▁rest~~9385
▁beziehungs~~9386
▁berücksichtige~~9387
▁Renaissance~~9388
entdecken~~9389
▁Disziplin~~9390
▁definitiv~~9391
rausgehen~~9392
▁wiederentdeck~~9393
▁Laura~~9394
▁Whit~~9395
acre~~9396
▁1991~~9397
▁transform~~9398
▁Studium~~9399
runde~~9400
gelegt~~9401
▁Bus~~9402
▁Halt~~9403
▁ruht~~9404
▁idyllisch~~9405
▁Grill~~9406
▁Frösche~~9407
▁Steven~~9408
Spiel~~9409
Wolke~~9410
▁Wolken~~9411
▁helfe~~9412
▁Stille~~9413
▁spürte~~9414
▁heftig~~9415
▁Donner~~9416
▁mexikanische~~9417
burst~~9418
ouTube~~9419
▁Virtuelle~~9420
▁185~~9421
tudentenwohnheim~~9422
geführt~~9423
▁2.0~~9424
▁58~~9425
▁Sleep~~9426
▁Water~~9427
▁73~~9428
▁Skype~~9429
▁Cal~~9430
▁Fuller~~9431
▁Riverside~~9432
▁Community~~9433
▁Laien~~9434
▁bearbeitet~~9435
▁Bescheid~~9436
▁Billig~~9437
chev~~9438
▁Tric~~9439
▁trügerisch~~9440
▁3-~~9441
▁Rede~~9442
▁grübel~~9443
▁magische~~9444
▁Dankeschön~~9445
▁Freundschaft~~9446
▁stärken~~9447
fiel~~9448
▁aufwuchs~~9449
▁lobe~~9450
schämt~~9451
▁Rehabilitation~~9452
▁Sucht~~9453
▁gegenüberstehen~~9454
▁Einfache~~9455
▁Wunde~~9456
▁stolz~~9457
▁Verwandten~~9458
▁verheiratet~~9459
▁sehnt~~9460
▁Vielen~~9461
▁Brot~~9462
▁brings~~9463
▁Freundin~~9464
▁April~~9465
▁Hausarbeit~~9466
▁danken~~9467
▁Steak~~9468
▁Würde~~9469
▁preisgebe~~9470
▁unsicher~~9471
handle~~9472
▁wär~~9473
▁vernachlässig~~9474
▁ausnutzen~~9475
▁Spur~~9476
▁zweieinhalb~~9477
▁seid~~9478
▁wollt~~9479
lf~~9480
▁Weltfrieden~~9481
▁Haushalt~~9482
▁Hinterhof~~9483
▁Ehemänner~~9484
▁Mütter~~9485
▁Töchter~~9486
▁Söhne~~9487
▁Carter~~9488
▁Emma~~9489
▁Atlas~~9490
▁Universums~~9491
▁vergangen~~9492
▁Programmierer~~9493
eranschaulichung~~9494
▁Digital~~9495
▁Universe~~9496
▁abspiele~~9497
entwickelt~~9498
▁Metapher~~9499
▁grenzenlose~~9500
▁Aufnahme~~9501
vermögen~~9502
▁Deponie~~9503
▁krümmen~~9504
▁erstellt~~9505
▁American~~9506
▁Natural~~9507
▁Histor~~9508
▁Skal~~9509
▁unterstütze~~9510
▁Um~~9511
▁Planetarium~~9512
how~~9513
▁Kuppel~~9514
▁Praktik~~9515
▁Link~~9516
▁veranstaltet~~9517
view~~9518
SS~~9519
▁interaktive~~9520
▁Flugbahn~~9521
▁Caf~~9522
▁Matter~~9523
▁Manhattan~~9524
gemeinschaftlich~~9525
▁Rubi~~9526
▁Austellung~~9527
▁vergleichen~~9528
▁Kosmolog~~9529
▁Galaxien~~9530
espür~~9531
▁gebraucht~~9532
glühen~~9533
▁Urknall~~9534
▁WMAP~~9535
▁Mikrowellen~~9536
▁bedeutungslos~~9537
▁zurückgehen~~9538
sphäre~~9539
▁herausgekommen~~9540
▁Position~~9541
▁aktuellste~~9542
▁Exo~~9543
planet~~9544
▁Sonnensystem~~9545
▁SI~~9546
▁hinab~~9547
▁Größenordnung~~9548
▁Bahn~~9549
▁Voyage~~9550
ioneer~~9551
▁Raumfahrzeug~~9552
▁Umlaufbahn~~9553
▁aktualisiert~~9554
▁Porc~~9555
▁Cassini~~9556
verlauf~~9557
▁far~~9558
codier~~9559
sphase~~9560
▁Titan~~9561
▁Merk~~9562
▁ablenken~~9563
▁Nutzer~~9564
▁subsaharische~~9565
▁Bücherei~~9566
▁Ghetto~~9567
▁Kolumbien~~9568
▁Sek~~9569
und~~9570
▁Kambodscha~~9571
▁Samstag~~9572
▁Aqua~~9573
▁Satellit~~9574
▁Nepal~~9575
▁Lhasa~~9576
▁Tibet~~9577
gleichen~~9578
▁Ganges~~9579
▁fortbesteh~~9580
▁Schnee~~9581
▁Maßstäbe~~9582
▁Gefängnis~~9583
lini~~9584
▁Nad~~9585
arni~~9586
▁hinterfragt~~9587
▁Bäume~~9588
▁Gefängnisse~~9589
▁meint~~9590
▁bewegliche~~9591
▁Häftlinge~~9592
geahnt~~9593
▁verkörper~~9594
generation~~9595
▁verwurzelt~~9596
▁Stamm~~9597
▁Zweige~~9598
verlagern~~9599
▁Gebilde~~9600
▁entschloss~~9601
▁verwandelte~~9602
▁Pinsel~~9603
▁Zweig~~9604
kam~~9605
baum~~9606
▁Douglas~~9607
▁Stil~~9608
merk~~9609
▁Picasso~~9610
▁Monet~~9611
▁erlaubte~~9612
▁quantifizier~~9613
horn~~9614
▁zurückleg~~9615
▁Ast~~9616
▁Baum~~9617
▁multipliziert~~9618
▁ausrechne~~9619
▁bewegte~~9620
▁rate~~9621
▁186~~9622
40~~9623
(~~9624
▁statische~~9625
▁Schlüsse~~9626
ektion~~9627
▁star~~9628
▁Wechsel~~9629
rochen~~9630
▁Gitter~~9631
▁festsitz~~9632
▁unbeweglich~~9633
▁2,3~~9634
▁inhaftiert~~9635
▁Förder~~9636
mittel~~9637
▁Erziehung~~9638
▁hoffnungslos~~9639
künstler~~9640
▁Staate~~9641
▁kooperieren~~9642
▁brachten~~9643
▁umwelt~~9644
verträg~~9645
bund~~9646
▁Insasse~~9647
▁Sta~~9648
fford~~9649
fäng~~9650
▁gefährdete~~9651
▁Prä~~9652
▁restliche~~9653
▁Fish~~9654
▁Wild~~9655
life~~9656
Behörde~~9657
▁pre~~9658
osa~~9659
▁züchte~~9660
▁Feuchtgebiet~~9661
personal~~9662
▁Mit~~9663
▁gewalttätig~~9664
▁kahl~~9665
▁Psychologe~~9666
▁Kabine~~9667
▁Höfe~~9668
öf~~9669
▁kleb~~9670
▁Mauer~~9671
▁wenigsten~~9672
pez~~9673
▁Einzel~~9674
▁Auskunft~~9675
ling~~9676
▁heitere~~9677
▁feststelle~~9678
▁Bewegungs~~9679
veränderung~~9680
▁Stämme~~9681
▁umrunde~~9682
▁Phänomene~~9683
▁Kummer~~9684
▁Drogenabhängig~~9685
▁Rassis~~9686
▁Michael~~9687
▁Hans~~9688
▁Algorithmen~~9689
▁Vorlage~~9690
▁Vorliebe~~9691
▁Vorurteile~~9692
▁überraschen~~9693
▁faszinieren~~9694
▁erfreu~~9695
▁schlage~~9696
▁Schöpfer~~9697
schöpfung~~9698
▁Mor~~9699
pho~~9700
▁Teilung~~9701
▁Zelle~~9702
▁identisch~~9703
▁asymmetrische~~9704
▁vereinfachen~~9705
▁Fläche~~9706
nick~~9707
falten~~9708
▁simple~~9709
vielfa~~9710
▁Algorithm~~9711
▁millionenfach~~9712
▁Variation~~9713
dimensionale~~9714
▁Volumen~~9715
▁Wiederholung~~9716
▁400.000~~9717
▁Falt~~9718
verhältnis~~9719
▁gefaltet~~9720
▁örtliche~~9721
▁Gegebenheit~~9722
▁durchlässig~~9723
▁reißen~~9724
▁generiert~~9725
▁99,9~~9726
▁geometrische~~9727
quivalent~~9728
▁Rauschen~~9729
▁langwierige~~9730
▁Kanten~~9731
länge~~9732
zeichnen~~9733
▁Eben~~9734
▁Krümmung~~9735
▁hervorhole~~9736
familie~~9737
ügel~~9738
▁Eingabe~~9739
▁Verarbeitung~~9740
architektonische~~9741
▁Ideale~~9742
▁algorithmische~~9743
▁beinhalte~~9744
▁hineinzu~~9745
zoom~~9746
▁Wahrnehmung~~9747
▁mikroskopisch~~9748
▁Oberflächen~~9749
▁Erhebung~~9750
▁interessantere~~9751
▁vorstellbar~~9752
▁gewöhnlich~~9753
stimmen~~9754
▁Endergebnis~~9755
lot~~9756
▁Varianten~~9757
▁kultiviere~~9758
▁Analogie~~9759
▁abstimm~~9760
▁Theorie~~9761
grün~~9762
Brille~~9763
▁nah~~9764
▁berühren~~9765
Druck~~9766
▁Zwecke~~9767
▁ungünstige~~9768
▁Kompromiss~~9769
▁Auflösung~~9770
modell~~9771
▁dünn~~9772
gestapelt~~9773
▁Röntgenaufnahme~~9774
▁Außenseite~~9775
▁faltet~~9776
▁überraschende~~9777
▁errechnet~~9778
▁Schnitt~~9779
profil~~9780
▁Laser~~9781
schneide~~9782
▁Segment~~9783
▁Scheiben~~9784
▁einzeln~~9785
▁geschnitten~~9786
rstellung~~9787
▁Fe~~9788
inheiten~~9789
▁arbeitsintensiv~~9790
än~~9791
▁berechnen~~9792
▁dick~~9793
▁700~~9794
kante~~9795
lief~~9796
▁günstiger~~9797
▁Entwicklungen~~9798
▁AB~~9799
Plastik~~9800
▁Stahl~~9801
▁Hybrid~~9802
▁Täuschung~~9803
ntwerfen~~9804
▁unzählige~~9805
▁träumen~~9806
▁Jan~~9807
▁Wil~~9808
▁Hoffman~~9809
▁Sputnik~~9810
Man~~9811
▁Filmmaterial~~9812
▁Dokument~~9813
▁Start~~9814
▁Sowjet~~9815
union~~9816
▁Wettrüsten~~9817
stieß~~9818
▁Gegenstand~~9819
▁heimlich~~9820
▁Weltall~~9821
▁erobert~~9822
▁Rakete~~9823
▁installiert~~9824
▁Funkgerät~~9825
▁4.~~9826
▁russische~~9827
▁Entdecker~~9828
▁Vasco~~9829
ama~~9830
▁Columb~~9831
▁Ausschnitte~~9832
▁inspirierte~~9833
▁geschickt~~9834
▁Montag~~9835
Wasserstoffbombe~~9836
▁angreifen~~9837
▁Träger~~9838
▁Historiker~~9839
▁Pearl~~9840
▁Harbo~~9841
▁Auslöser~~9842
▁Diskrepanz~~9843
artig~~9844
▁finanzierte~~9845
▁umfangreiche~~9846
▁Rüstung~~9847
erweit~~9848
erungen~~9849
▁1.2~~9850
▁nukleare~~9851
▁20.000~~9852
▁Zivilschutz~~9853
▁78~~9854
▁Meinungsumfrage~~9855
▁Sieben~~9856
▁Stipendium~~9857
▁Ingenieurwesen~~9858
▁boom~~9859
▁Vint~~9860
▁ARPA~~9861
▁Dokumentation~~9862
▁einsetzt~~9863
▁Investoren~~9864
▁Veteran~~9865
▁Walker~~9866
▁Ken~~9867
▁Kam~~9868
▁schlimmste~~9869
▁Unglück~~9870
▁TEDMED~~9871
▁Extrem~~9872
▁bildgebende~~9873
▁Hirnforschung~~9874
zeigen~~9875
▁verschüttet~~9876
▁Konferenz~~9877
▁Vorträge~~9878
▁entfessel~~9879
lebensbedrohlich~~9880
berleben~~9881
▁Zwischenfall~~9882
schw~~9883
▁8.~~9884
▁Geographic~~9885
▁tektonische~~9886
▁Ferne~~9887
Gerät~~9888
▁vierten~~9889
cher~~9890
▁Komet~~9891
aku~~9892
▁böse~~9893
▁Winde~~9894
▁32~~9895
kilometer~~9896
▁gefühlt~~9897
▁niedriger~~9898
▁Mars~~9899
jacke~~9900
▁Wasserflasche~~9901
▁übel~~9902
lager~~9903
▁5.~~9904
400~~9905
▁Lhotse~~9906
▁verblasst~~9907
▁höchste~~9908
▁Bedarf~~9909
▁Zelt~~9910
entladen~~9911
MA~~9912
▁Wasserfall~~9913
▁Ratte~~9914
▁Labyrinth~~9915
▁Kante~~9916
▁stürzt~~9917
▁Sonnenaufg~~9918
gefügt~~9919
▁Sicherheits~~9920
▁aufsteigen~~9921
▁1.~~9922
▁Vorder~~9923
Flanke~~9924
rücken~~9925
▁3.~~9926
▁Fix~~9927
eil~~9928
stream~~9929
grat~~9930
weh~~9931
▁Vorräte~~9932
▁Rob~~9933
▁Teams~~9934
▁Bergsteige~~9935
laut~~9936
▁fla~~9937
▁brechen~~9938
▁dreieckige~~9939
▁steil~~9940
▁Nächste~~9941
▁Tageslicht~~9942
▁unerwartet~~9943
nahm~~9944
maske~~9945
gerät~~9946
Flasche~~9947
▁expo~~9948
▁450~~9949
Meter~~9950
▁klettern~~9951
ange~~9952
klettert~~9953
▁fällt~~9954
▁2.4~~9955
▁bekleidet~~9956
▁ausgerüstet~~9957
▁Gra~~9958
▁Elemente~~9959
▁Funk~~9960
▁Doug~~9961
▁erschöpf~~9962
▁Beck~~9963
▁Weather~~9964
sammengebrochen~~9965
▁verwirrend~~9966
▁widersprach~~9967
kauert~~9968
▁Bur~~9969
▁Pete~~9970
than~~9971
▁Gange~~9972
▁funk~~9973
▁warte~~9974
▁lautete~~9975
▁herrschte~~9976
▁reinste~~9977
▁stabilisieren~~9978
riet~~9979
▁Ker~~9980
▁45-~~9981
Grad~~9982
▁7.~~9983
300~~9984
gefüllt~~9985
▁Spritze~~9986
▁Steroide~~9987
jenige~~9988
▁Phase~~9989
▁Kleidung~~9990
▁manövrier~~9991
▁kümmerte~~9992
▁Neuseeland~~9993
▁schwanger~~9994
▁meldete~~9995
▁6.~~9996
koff~~9997
▁Angel~~9998
hlt~~9999
▁Erfri~~10000
wärme~~10001
▁einfrier~~10002
blind~~10003
▁Nirgendwo~~10004
▁wa~~10005
▁mum~~10006
▁spaziert~~10007
ept~~10008
versicherung~~10009
▁verbrannt~~10010
rose~~10011
▁Narbe~~10012
▁berichtete~~10013
▁gelegen~~10014
▁ka~~10015
▁bli~~10016
zeln~~10017
▁schuf~~10018
gestanden~~10019
▁perplex~~10020
steht~~10021
▁irreversibl~~10022
kühlung~~10023
▁mutmaß~~10024
▁SPECT~~10025
▁Hirn~~10026
funktion~~10027
▁vereinfacht~~10028
▁Frontall~~10029
bündel~~10030
▁Temporallappen~~10031
▁aufbewahr~~10032
hirn~~10033
▁Hirnstamm~~10034
▁Herzschlag~~10035
▁Atmung~~10036
▁dynamisch~~10037
▁Durchblutung~~10038
fluss~~10039
▁Scan~~10040
▁hinten~~10041
▁normaler~~10042
▁Gleich~~10043
▁aufleuchten~~10044
▁Gang~~10045
▁beruhigt~~10046
▁schaltet~~10047
▁Taten~~10048
▁Gyr~~10049
▁cingul~~10050
▁anterior~~10051
▁fokussier~~10052
▁geleitet~~10053
Bereich~~10054
▁Fahrt~~10055
Scan~~10056
▁Hubschrauber~~10057
▁herauf~~10058
▁höchst~~10059
▁Kath~~10060
du~~10061
feier~~10062
old~~10063
zweige~~10064
▁heilig~~10065
▁zugewandt~~10066
▁Andy~~10067
▁Harris~~10068
mba~~10069
▁Gebet~~10070
fahne~~10071
▁Gebete~~10072
yrone~~10073
▁Haye~~10074
+~~10075
▁Penelope~~10076
▁Jag~~10077
▁Cha~~10078
ffer~~10079
▁Chemikalien~~10080
▁Schwangerschaft~~10081
trazin~~10082
▁Herbizid~~10083
▁genutzt~~10084
▁Konservierung~~10085
smittel~~10086
strogen~~10087
stoffe~~10088
▁Brustkrebs~~10089
tumor~~10090
▁schockierend~~10091
▁Statistiken~~10092
▁30-~~10093
▁Kinderkrankheit~~10094
▁Auftreten~~10095
leuk~~10096
▁gestiegen~~10097
▁Asthma~~10098
▁erkrankt~~10099
▁vierfache~~10100
▁Verhältnisse~~10101
▁Statistik~~10102
▁Autismus~~10103
▁autistische~~10104
▁Störung~~10105
▁Geschlechts~~10106
▁Emp~~10107
schnell~~10108
▁Fettleibigkeit~~10109
dia~~10110
▁Pub~~10111
tät~~10112
▁Gift~~10113
▁Pestizide~~10114
▁Nützliche~~10115
▁Amphibie~~10116
stärkste~~10117
▁Verunreinig~~10118
▁Grundwasser~~10119
▁Trinkwasser~~10120
▁Regenwasser~~10121
▁0,1~~10122
▁hervorbrachte~~10123
schnitten~~10124
▁Keim~~10125
drüse~~10126
▁Hoden~~10127
▁Eier~~10128
stöcke~~10129
▁aufweis~~10130
▁Leopard~~10131
frosch~~10132
▁dot~~10133
rigen~~10134
reiten~~10135
▁Hühnereier~~10136
▁Erlebnisse~~10137
▁aktuelle~~10138
▁genetisch~~10139
▁männlich~~10140
▁hormonelle~~10141
▁Ungleichgewicht~~10142
▁Testosteron~~10143
▁Enzym~~10144
▁Aroma~~10145
ase~~10146
▁umwandelt~~10147
▁Ka~~10148
verwe~~10149
ib~~10150
▁reguliert~~10151
▁Krebszelle~~10152
▁wandelt~~10153
▁Andr~~10154
▁neueste~~10155
▁Chemikalie~~10156
▁Let~~10157
ozo~~10158
▁blockiert~~10159
▁mutiert~~10160
▁Pfund~~10161
▁führende~~10162
run~~10163
einiger~~10164
▁Tumore~~10165
▁Gegenmittel~~10166
▁anstelle~~10167
nutzen~~10168
förder~~10169
PJ~~10170
▁Bis~~10171
phenol~~10172
PA~~10173
macher~~10174
▁Bindung~~10175
olycarbonat~~10176
haltige~~10177
▁synthetische~~10178
therapie~~10179
▁sickert~~10180
▁Säuglings~~10181
milch~~10182
▁eindring~~10183
▁do~~10184
▁Neugeborene~~10185
▁Säugling~~10186
▁Europäische~~10187
▁Union~~10188
▁Gesetz~~10189
▁verabschiedet~~10190
▁Schnabel~~10191
▁verbiete~~10192
▁Senat~~10193
▁Verbot~~10194
▁abgelehnt~~10195
▁Pflicht~~10196
▁Plastikflasche~~10197
▁durchsicker~~10198
▁unnötige~~10199
nachlässig~~10200
▁th~~10201
sterben~~10202
▁einig~~10203
▁Dinosaurier~~10204
▁verschwand~~10205
▁Nachwuchs~~10206
gänge~~10207
▁Indikator~~10208
▁sensib~~10209
▁Membran~~10210
▁Plazenta~~10211
▁Säugetiere~~10212
organism~~10213
▁uralte~~10214
▁unterscheidet~~10215
▁weiterentwickel~~10216
▁hervorgerufen~~10217
▁Fehlgeburt~~10218
▁Erhalt~~10219
▁Hormone~~10220
▁Prostata~~10221
erkrankung~~10222
▁Jungtiere~~10223
▁erleide~~10224
▁beeinträchtigt~~10225
leib~~10226
gewachsen~~10227
▁Jungtier~~10228
▁Enkel~~10229
til~~10230
estro~~10231
▁PCB~~10232
▁DDT~~10233
▁Diabetes~~10234
▁gesäu~~10235
▁bzw~~10236
ES~~10237
▁bislang~~10238
▁Darstellung~~10239
Kontroll~~10240
af~~10241
fa~~10242
flu~~10243
oc~~10244
▁Güte~~10245
▁Fötus~~10246
▁künstliche~~10247
▁Mosc~~10248
hus~~10249
▁schütte~~10250
kontaminier~~10251
▁Ultraschall~~10252
▁bezeugt~~10253
▁Belastung~~10254
artige~~10255
nsporn~~10256
▁verrückte~~10257
öte~~10258
▁kontaminierte~~10259
▁Aktivistin~~10260
▁Lücken~~10261
▁Spermien~~10262
kanäle~~10263
▁leer~~10264
▁Fruchtbarkeit~~10265
gesenkt~~10266
▁Reptilien~~10267
▁Südamerika~~10268
kolleg~~10269
▁Samen~~10270
▁erheblich~~10271
▁Urin~~10272
▁24.000~~10273
▁Mexikaner~~10274
▁Carson~~10275
warnt~~10276
bug~~10277
▁Uganda~~10278
▁Abfluss~~10279
▁Eimer~~10280
geschwächt~~10281
▁Oakland~~10282
▁Dörfer~~10283
▁betätige~~10284
▁Wasserhahn~~10285
▁Herrscher~~10286
rwärmung~~10287
▁interne~~10288
▁Umweltschutz~~10289
▁loslasse~~10290
▁ignorieren~~10291
▁drängt~~10292
▁voranschreiten~~10293
▁Kaufkraft~~10294
▁Pol~~10295
ha~~10296
▁Daw~~10297
▁Wirbelsturm~~10298
▁Sandy~~10299
▁verwüstet~~10300
Schriftstellerin~~10301
▁fixiert~~10302
▁verpasse~~10303
▁Hurrikan~~10304
▁Hund~~10305
▁Mau~~10306
▁Stromausfall~~10307
▁fürchtete~~10308
▁Spazier~~10309
▁schleppte~~10310
▁Etage~~10311
▁Lä~~10312
▁Batterie~~10313
verkauf~~10314
▁Dusche~~10315
studio~~10316
beschäftigung~~10317
adestation~~10318
▁Bäckerei~~10319
di~~10320
rei~~10321
▁Steckdose~~10322
venue~~10323
▁Schirm~~10324
▁Krisen~~10325
situation~~10326
▁merkt~~10327
▁Gemeinsamkeit~~10328
▁geraten~~10329
▁Roman~~10330
▁Bogen~~10331
▁gebrochene~~10332
▁Enttäuschung~~10333
bogen~~10334
▁eindringliche~~10335
▁eingebettet~~10336
▁Sandkorn~~10337
▁Knospe~~10338
blüht~~10339
▁Gemüt~~10340
fassung~~10341
▁Bedauern~~10342
▁Befürchtung~~10343
▁zugenommen~~10344
▁kleinste~~10345
▁geschrumpft~~10346
▁befähig~~10347
▁Datenmenge~~10348
▁kompliziertere~~10349
sekunde~~10350
▁Millionstel~~10351
pfeil~~10352
▁Ursache~~10353
▁Beweggründe~~10354
▁Pfeil~~10355
▁gerät~~10356
▁zielt~~10357
▁fließ~~10358
▁gest~~10359
▁Delhi~~10360
letzt~~10361
vier~~10362
▁archivier~~10363
▁Unterscheidung~~10364
ißt~~10365
▁seelische~~10366
lenken~~10367
▁Wahr~~10368
▁Schriftsteller~~10369
▁twitter~~10370
▁dauernd~~10371
▁Exil~~10372
▁direkter~~10373
▁Konkurrenz~~10374
▁fehl~~10375
▁fehlen~~10376
sprachige~~10377
▁französische~~10378
▁Mac~~10379
nachrichten~~10380
▁versende~~10381
▁Illusion~~10382
▁zerschmetter~~10383
▁zurückkehrte~~10384
▁Schlag~~10385
▁fehlende~~10386
wunden~~10387
ströme~~10388
▁simultan~~10389
▁fließen~~10390
▁Jünger~~10391
geboren~~10392
▁Grossvater~~10393
▁geübt~~10394
▁Bud~~10395
▁Don~~10396
▁Spanisch~~10397
▁Rei~~10398
▁App~~10399
▁Terrasse~~10400
▁gehoben~~10401
▁Jupiter~~10402
▁Saturn~~10403
hielt~~10404
▁verband~~10405
▁geknüpft~~10406
▁schwerer~~10407
▁Seifenblase~~10408
▁aufbewahrt~~10409
▁umfasst~~10410
▁Seil~~10411
▁Sari~~10412
▁sprang~~10413
▁Küche~~10414
▁hack~~10415
▁schuld~~10416
lehrer~~10417
▁friss~~10418
ständigkeit~~10419
splitter~~10420
bb~~10421
▁Behar~~10422
▁wendet~~10423
▁Hundert~~10424
Laptop~~10425
▁türkische~~10426
▁Speer~~10427
▁Krieger~~10428
▁Möbelstück~~10429
pei~~10430
▁Nackt~~10431
▁gruselig~~10432
▁Gegenstände~~10433
▁ausgeübt~~10434
▁nehme~~10435
▁gefiel~~10436
▁verschmolz~~10437
▁Skifahre~~10438
urf~~10439
▁Schweizer~~10440
▁Brett~~10441
▁Mast~~10442
oil~~10443
froren~~10444
▁graph~~10445
▁Außergewöhnlich~~10446
▁Silicon~~10447
▁Valley~~10448
haushalt~~10449
▁Häuser~~10450
▁Beratung~~10451
▁Meetings~~10452
▁Manager~~10453
▁Wars~~10454
PO~~10455
▁Luke~~10456
▁erwart~~10457
▁hob~~10458
hinein~~10459
Taste~~10460
▁N~~10461
ther~~10462
haut~~10463
zierung~~10464
▁außen~~10465
▁Illustrator~~10466
list~~10467
▁Zitat~~10468
▁Werbung~~10469
▁Faust~~10470
use~~10471
project~~10472
alität~~10473
▁Mini~~10474
tik~~10475
▁diskret~~10476
winkel~~10477
▁Hersteller~~10478
▁Couchtisch~~10479
▁Hock~~10480
eller~~10481
▁Leucht~~10482
▁Swa~~10483
ov~~10484
▁Gestalt~~10485
Schlaufe~~10486
uadrat~~10487
tafel~~10488
▁Le~~10489
Lampe~~10490
▁Herman~~10491
▁Miller~~10492
▁aufwändige~~10493
▁viereinhalb~~10494
▁Lampe~~10495
▁einmalige~~10496
▁Benutzer~~10497
▁warm~~10498
▁glühende~~10499
▁helle~~10500
Färbung~~10501
▁vermisch~~10502
▁Helligkeit~~10503
▁Human~~10504
▁kommerziell~~10505
▁humanitäre~~10506
▁zustimmen~~10507
▁Mehr~~10508
▁Fragestellung~~10509
▁Nachhaltigkeit~~10510
Energieverbrauch~~10511
▁Klebstoff~~10512
▁Jaw~~10513
bone~~10514
▁humanistische~~10515
▁sprich~~10516
▁blendet~~10517
geräusche~~10518
istisch~~10519
▁Spielerei~~10520
▁Nerd~~10521
▁Sorgfalt~~10522
▁Sonnenbrille~~10523
▁aussuche~~10524
▁Schmuck~~10525
Accessoire~~10526
▁aufmerksam~~10527
▁Schalt~~10528
▁innen~~10529
prozess~~10530
▁digitalisier~~10531
▁bezeichne~~10532
▁Hau~~10533
▁Arbeitsweise~~10534
▁einmalig~~10535
▁vielfältige~~10536
▁Stange~~10537
ain~~10538
▁Rahm~~10539
▁Ali~~10540
▁verwirklicht~~10541
▁widme~~10542
▁Gewinne~~10543
▁partner~~10544
Herangehensweise~~10545
▁Getränk~~10546
▁Bra~~10547
▁symmetrisch~~10548
▁zusammenbau~~10549
▁umgedreht~~10550
▁Wörter~~10551
▁why~~10552
▁not~~10553
▁verwoben~~10554
▁Unterfangen~~10555
▁gerecht~~10556
Kind~~10557
▁wertvollste~~10558
▁Besitz~~10559
▁Nichol~~10560
▁Negro~~10561
pont~~10562
▁Gründer~~10563
▁OLPC~~10564
Mission~~10565
▁vorangegangene~~10566
▁bedeutsam~~10567
▁preiswert~~10568
▁loswerde~~10569
▁überzeugte~~10570
▁wiedererkenn~~10571
▁Errungenschaft~~10572
▁WiFi~~10573
▁Sonnenein~~10574
▁Tastatur~~10575
▁Gummi~~10576
▁Umwelteinflüsse~~10577
Leute~~10578
Zulieferer~~10579
▁Uru~~10580
gua~~10581
▁Mongole~~10582
▁wandte~~10583
▁bunt~~10584
▁Herstellung~~10585
sprozesse~~10586
▁vermischt~~10587
▁Entwicklungsl~~10588
ändern~~10589
▁Neffe~~10590
▁Schweiz~~10591
▁Nachmittag~~10592
▁anderthalb~~10593
▁Version~~10594
▁Papp~~10595
City~~10596
▁Valenti~~10597
▁Automat~~10598
▁freundliche~~10599
▁pu~~10600
Laden~~10601
ard~~10602
▁Obdachlosen~~10603
heim~~10604
▁Werbe~~10605
▁Stigma~~10606
stöß~~10607
▁Schaffen~~10608
▁Egg~~10609
Preis~~10610
Community~~10611
▁fesselnde~~10612
egeister~~10613
alencia~~10614
Zentrum~~10615
▁ehrenamtlich~~10616
▁ungemein~~10617
▁geschlafen~~10618
▁Neil~~10619
gesessen~~10620
▁verglich~~10621
freude~~10622
▁beteilig~~10623
▁Brooklyn~~10624
nommen~~10625
▁tags~~10626
▁nennenswerte~~10627
schärfe~~10628
▁flexible~~10629
lop~~10630
uote~~10631
▁Lehrerin~~10632
▁inspirierend~~10633
▁arbeitende~~10634
▁Hürde~~10635
▁lehrt~~10636
sstufe~~10637
▁Schreiben~~10638
▁sonder~~10639
defizit~~10640
finanziert~~10641
▁Weiß~~10642
▁Lehrkräfte~~10643
kompetenz~~10644
á~~10645
▁multipliziere~~10646
▁klon~~10647
▁nachgedacht~~10648
▁Redakteur~~10649
▁prinzipiell~~10650
▁spreche~~10651
▁Griff~~10652
▁Vorrang~~10653
sichtlich~~10654
▁Nähr~~10655
▁aufgeklärt~~10656
▁Interessen~~10657
brachte~~10658
▁gemietet~~10659
Swee~~10660
ney~~10661
uarter~~10662
▁bezieh~~10663
gemeinde~~10664
▁Gebäudes~~10665
▁schriftlich~~10666
▁Barriere~~10667
tauscht~~10668
▁Vermiete~~10669
gemälde~~10670
▁muß~~10671
▁wunderbar~~10672
▁Grundstück~~10673
▁Gewerbe~~10674
▁müsst~~10675
▁einfallen~~10676
▁notwendige~~10677
▁Recherche~~10678
decken~~10679
röhren~~10680
▁riss~~10681
▁Aussehen~~10682
▁renoviert~~10683
wisst~~10684
▁Rumpf~~10685
▁Zubehör~~10686
▁gewerbliche~~10687
▁Piraten~~10688
zubehör~~10689
▁Serv~~10690
▁Schrei~~10691
▁lies~~10692
beine~~10693
gefertigt~~10694
▁past~~10695
▁Anlässe~~10696
▁Schilder~~10697
▁Praktische~~10698
▁Sc~~10699
hertz~~10700
▁Leine~~10701
Theke~~10702
theater~~10703
quarium~~10704
▁renovieren~~10705
▁Tische~~10706
▁Stühle~~10707
com~~10708
▁Auktion~~10709
▁Holi~~10710
day~~10711
wartet~~10712
▁Reklame~~10713
▁Gehweg~~10714
▁Komm~~10715
▁demo~~10716
sproblem~~10717
▁Nine~~10718
▁Mexic~~10719
▁nötige~~10720
▁Lehr~~10721
tätigkeit~~10722
▁übernahm~~10723
▁Kirchen~~10724
bank~~10725
▁Eins~~10726
▁Blöcke~~10727
▁umge~~10728
uck~~10729
sache~~10730
Kinder~~10731
die~~10732
Hilfe~~10733
brauchen~~10734
▁Verlag~~10735
▁High~~10736
▁modellier~~10737
▁Symbiose~~10738
effekte~~10739
▁draus~~10740
▁glückliche~~10741
▁1.4~~10742
schulter~~10743
▁konzentrierte~~10744
▁strahlt~~10745
▁Transform~~10746
▁gewachsen~~10747
▁Ausflug~~10748
▁beach~~10749
▁Nie~~10750
liehen~~10751
▁Cind~~10752
▁Event~~10753
▁ultimativ~~10754
▁schickt~~10755
▁melde~~10756
▁Anleitung~~10757
Raum~~10758
rett~~10759
▁Middle~~10760
▁dekoriert~~10761
▁Bibliothek~~10762
▁52~~10763
▁Stra~~10764
Up~~10765
▁News~~10766
▁kontinuierliche~~10767
▁Kolumne~~10768
▁Bürgermeister~~10769
▁Gavi~~10770
om~~10771
▁Isabel~~10772
▁Allende~~10773
▁Thu~~10774
good~~10775
▁Marshall~~10776
▁sponser~~10777
läd~~10778
▁Bay~~10779
▁Area~~10780
▁Amazon~~10781
▁bisherige~~10782
▁externe~~10783
▁170~~10784
▁Regal~~10785
▁trübe~~10786
▁Entwürfe~~10787
▁absolute~~10788
bücher~~10789
▁Umsatz~~10790
▁zahlte~~10791
▁Miete~~10792
▁Richter~~10793
▁verdient~~10794
▁bezahlte~~10795
karten~~10796
▁fluche~~10797
▁Kette~~10798
▁Papagei~~10799
▁Haken~~10800
chu~~10801
▁Erdgeschoss~~10802
▁gemeinnützige~~10803
▁30.~~10804
▁durchgängig~~10805
▁schloss~~10806
selbstständig~~10807
bekämpfung~~10808
▁Brook~~10809
▁Superhelden~~10810
▁Sam~~10811
▁Pot~~10812
dienst~~10813
▁Potts~~10814
▁Bösewicht~~10815
stecken~~10816
▁Lift~~10817
▁Heldentum~~10818
▁Verkaufs~~10819
zahlen~~10820
▁Sharo~~10821
▁Boon~~10822
▁Hob~~10823
▁Jersey~~10824
▁Akte~~10825
▁Umhang~~10826
cke~~10827
stufen~~10828
▁Ventilator~~10829
tür~~10830
▁lä~~10831
hack~~10832
▁vollen~~10833
racht~~10834
▁Handwerker~~10835
gegangen~~10836
▁Bezirk~~10837
ingabe~~10838
▁grenzenlos~~10839
▁art~~10840
▁Khal~~10841
▁Ham~~10842
dan~~10843
▁süchtig~~10844
▁Videospiele~~10845
▁TV~~10846
▁entfliehen~~10847
zeitig~~10848
▁Hausaufgabe~~10849
▁hängen~~10850
▁began~~10851
Be~~10852
▁Penguin~~10853
▁box~~10854
▁Pinguin~~10855
▁Symphon~~10856
▁Space~~10857
itz~~10858
▁Evangeli~~10859
▁Cousin~~10860
mitglieder~~10861
eile~~10862
▁Echo~~10863
▁7-~~10864
▁Mammut~~10865
▁Slu~~10866
▁betrieb~~10867
▁Zentr~~10868
▁Word~~10869
▁Pitt~~10870
▁Massac~~10871
etts~~10872
incin~~10873
nati~~10874
outh~~10875
▁Fight~~10876
▁Dublin~~10877
▁Rod~~10878
oyle~~10879
▁wünsche~~10880
▁Individuum~~10881
▁Sprünge~~10882
▁kreiert~~10883
▁Zusammen~~10884
▁Geister~~10885
▁Hilf~~10886
reich~~10887
▁Hot~~10888
▁phänomenale~~10889
▁Once~~10890
▁Up~~10891
▁dokumentiere~~10892
▁Dead~~10893
▁Telefon~~10894
▁antreiben~~10895
idee~~10896
▁steril~~10897
▁offene~~10898
▁schließ~~10899
▁Root~~10900
▁Wol~~10901
ethik~~10902
▁TEDx~~10903
tree~~10904
▁grundsätzliche~~10905
scha~~10906
▁biotechnolog~~10907
zykl~~10908
zyklus~~10909
▁Darwin~~10910
▁sche~~10911
▁zufällige~~10912
▁Mutation~~10913
istische~~10914
▁evolutionäre~~10915
▁gekennzeichnet~~10916
▁andauernde~~10917
▁forc~~10918
siedeln~~10919
▁Bezeichnung~~10920
▁vorsätzliche~~10921
Entwicklung~~10922
▁intelligente~~10923
▁physiologische~~10924
tour~~10925
▁Artenvielf~~10926
alt~~10927
▁geraume~~10928
▁gezüchtet~~10929
▁Tausend~~10930
▁extra~~10931
▁Rind~~10932
▁Büffel~~10933
▁Schi~~10934
▁Scha~~10935
▁Ziege~~10936
▁süße~~10937
▁Huhn~~10938
▁schmecken~~10939
▁Kamel~~10940
▁Lama~~10941
▁kombiniere~~10942
kreis~~10943
▁Lig~~10944
▁Katze~~10945
▁Löwe~~10946
ifft~~10947
▁Zer~~10948
▁Photoshop~~10949
▁Manipulation~~10950
▁normale~~10951
▁gezielte~~10952
▁Genetik~~10953
▁ginge~~10954
▁Spannende~~10955
▁Säugetier~~10956
▁stammen~~10957
qualle~~10958
▁leuchten~~10959
kreuz~~10960
▁Wellenlänge~~10961
▁orange~~10962
▁Koralle~~10963
▁Affen~~10964
▁Menschenaffen~~10965
▁komplexer~~10966
Bundesstaaten~~10967
▁Haustiere~~10968
▁Zebra~~10969
▁Schwarz~~10970
▁Silber~~10971
fische~~10972
sbehörde~~10973
▁Environmental~~10974
rotection~~10975
▁Agenc~~10976
▁Drug~~10977
dministration~~10978
▁FDA~~10979
▁Lachs~~10980
ook~~10981
▁Speise~~10982
▁Futter~~10983
▁modifiziert~~10984
▁Komponente~~10985
▁jegliche~~10986
▁Kennzeichnung~~10987
▁gek~~10988
Genom~~10989
▁plastisch~~10990
▁Prome~~10991
▁Pferd~~10992
linger~~10993
▁Gold~~10994
grube~~10995
▁Klo~~10996
▁kastrier~~10997
▁Deck~~10998
heng~~10999
▁identische~~11000
plikat~~11001
▁Grau~~11002
▁Schwein~~11003
▁Carre~~11004
▁Jani~~11005
▁Dotcom~~11006
▁missbraucht~~11007
▁Anti~~11008
tic~~11009
gene~~11010
üdkorea~~11011
▁Gau~~11012
▁Huf~~11013
atische~~11014
zelle~~11015
▁Eizelle~~11016
▁Kuh~~11017
▁befruchtet~~11018
▁Schaf~~11019
▁interessantes~~11020
wirf~~11021
Art~~11022
uk~~11023
paket~~11024
▁vererbt~~11025
▁Zeitalter~~11026
▁Biotechnologie~~11027
▁reizend~~11028
▁Asia~~11029
▁Kakerlake~~11030
zell~~11031
pflanzt~~11032
▁Sender~~11033
▁quer~~11034
▁Insekten~~11035
Roboter~~11036
▁DARPA~~11037
Projekt~~11038
▁Defens~~11039
▁Behörde~~11040
Forschung~~11041
▁Käfer~~11042
▁Flügel~~11043
▁verkabelt~~11044
▁Chip~~11045
▁herumfliegen~~11046
▁Abheb~~11047
▁Puff~~11048
▁Stadium~~11049
Technologie~~11050
▁schlüpf~~11051
berwachung~~11052
▁aussende~~11053
schütz~~11054
▁Kriegs~~11055
Rat~~11056
▁SUN~~11057
▁Down~~11058
state~~11059
▁linke~~11060
▁Gehirnhälfte~~11061
▁ethisch~~11062
▁korrekt~~11063
▁Autonomi~~11064
▁experimentiert~~11065
▁Mig~~11066
▁Nicole~~11067
▁Duke~~11068
affe~~11069
▁überwach~~11070
▁fortbeweg~~11071
gehirn~~11072
▁Prothesen~~11073
Arm~~11074
wellen~~11075
▁verstanden~~11076
▁Beweg~~11077
monitor~~11078
äfig~~11079
▁Affe~~11080
prothese~~11081
▁Gehirnwelle~~11082
▁Primaten~~11083
▁Armen~~11084
▁Florida~~11085
▁60.000~~11086
▁zerfallen~~11087
Neu~~11088
geschlossen~~11089
Bau~~11090
▁Mechanismus~~11091
▁Flugsimulator~~11092
chip~~11093
▁selbständig~~11094
▁organisieren~~11095
▁Mu~~11096
vald~~11097
▁photo~~11098
Gehirn~~11099
▁nahrhaft~~11100
▁Befehl~~11101
▁gehorch~~11102
▁immun~~11103
▁polymer~~11104
▁Gerüst~~11105
gekoppelt~~11106
▁Physi~~11107
rot~~11108
pla~~11109
▁Craig~~11110
▁Venter~~11111
▁reproduziert~~11112
▁Entstehung~~11113
▁Frankenstein~~11114
ette~~11115
▁Umweg~~11116
▁manipulier~~11117
▁Pet~~11118
ckel~~11119
ever~~11120
▁Fell~~11121
▁rosa~~11122
▁Speichel~~11123
▁organ~~11124
▁Spielzeuge~~11125
▁Konsequenz~~11126
▁durchdacht~~11127
▁perfektioniert~~11128
▁ethische~~11129
Fiction~~11130
▁ungeheure~~11131
zero~~11132
▁tanzende~~11133
▁Ball~~11134
▁TEDGlobal~~11135
▁balancier~~11136
▁konstruiert~~11137
studium~~11138
▁Autonom~~11139
TH~~11140
rich~~11141
▁Räder~~11142
▁instabil~~11143
▁Balance~~11144
▁konstant~~11145
▁Sensor~~11146
▁vermeide~~11147
▁Trick~~11148
▁Schub~~11149
▁konstante~~11150
▁Distanz~~11151
sensor~~11152
▁montiert~~11153
▁umkreisen~~11154
▁Parks~~11155
▁Monitor~~11156
▁informieren~~11157
▁unterhaltsam~~11158
▁spaßig~~11159
▁Apparate~~11160
▁herumzu~~11161
▁Fußabdruck~~11162
▁Debora~~11163
▁Rhode~~11164
▁Physiker~~11165
erkennung~~11166
gewebe~~11167
▁herkömmliche~~11168
▁Mammographie~~11169
▁verblüffend~~11170
▁breiten~~11171
▁gerettet~~11172
▁Presse~~11173
▁Radiologe~~11174
Bildgebung~~11175
log~~11176
▁Patente~~11177
rztin~~11178
▁diagnostiziert~~11179
▁ängstlich~~11180
▁zuversichtlich~~11181
▁Mammogramm~~11182
▁fände~~11183
aufnahme~~11184
▁radi~~11185
ologische~~11186
dienste~~11187
ografie~~11188
untersuchung~~11189
▁vierzig~~11190
▁kritisiert~~11191
deckung~~11192
▁entsetzt~~11193
▁herausragend~~11194
▁äußert~~11195
▁qualifiziert~~11196
▁komplexeste~~11197
zuschätzen~~11198
▁radio~~11199
logisch~~11200
▁öfter~~11201
▁verklagt~~11202
▁rechtliche~~11203
▁Rauch~~11204
wahrscheinlich~~11205
▁Fett~~11206
menge~~11207
▁pink~~11208
▁sink~~11209
enopaus~~11210
▁Einzelheit~~11211
bericht~~11212
▁klassifizier~~11213
▁gemäß~~11214
▁Fettgewebe~~11215
▁verstreut~~11216
▁Verdichtung~~11217
▁gefolg~~11218
▁Wolf~~11219
pel~~11220
▁Röntgenstrahl~~11221
▁Brüste~~11222
anteil~~11223
findig~~11224
▁Risikofaktor~~11225
klärt~~11226
▁liess~~11227
▁Röntgen~~11228
Infrastruktur~~11229
rüsten~~11230
▁Steuergelder~~11231
kostet~~11232
▁Biopsie~~11233
▁teuer~~11234
▁bahnbrechende~~11235
▁allgegenwärtig~~11236
▁Muster~~11237
▁LKW~~11238
▁Malco~~11239
▁Gladwell~~11240
▁Genie~~11241
▁zitiert~~11242
▁Innovator~~11243
▁Cartoon~~11244
▁gedruckt~~11245
▁Stör~~11246
▁Denker~~11247
▁Zusammentreffen~~11248
▁Besuch~~11249
▁Mayo~~11250
▁Nuklear~~11251
physik~~11252
▁Conne~~11253
▁spezialisiert~~11254
▁Detektor~~11255
▁Gammastrahl~~11256
▁Gamma~~11257
zubilden~~11258
Detektor~~11259
▁potenzielle~~11260
▁unerlässlich~~11261
berlebenschance~~11262
berlebensrate~~11263
▁massiv~~11264
▁Rohr~~11265
▁Materials~~11266
▁Klebe~~11267
▁trennt~~11268
▁Molekular~~11269
olecular~~11270
aging~~11271
▁MBI~~11272
▁Umriss~~11273
▁Inter~~11274
▁ergänzt~~11275
Ingenieur~~11276
gehalten~~11277
▁Skeptik~~11278
nahmen~~11279
▁Kontrast~~11280
▁umliegende~~11281
▁molekulare~~11282
▁staatliche~~11283
▁Gesetzen~~11284
▁geregelt~~11285
▁last~~11286
losen~~11287
▁Ränder~~11288
▁unscharf~~11289
▁deutlicher~~11290
▁chirurgische~~11291
▁auswirk~~11292
▁Susan~~11293
▁Stiftung~~11294
bewerb~~11295
▁auswählt~~11296
gelesen~~11297
absorb~~11298
▁korrelier~~11299
lte~~11300
▁Sekretär~~11301
▁beunruhigend~~11302
▁Farb~~11303
▁Golfball~~11304
▁Lymphknoten~~11305
sis~~11306
▁modifiziere~~11307
▁Strahlung~~11308
▁fortgesetzt~~11309
▁67~~11310
▁agressiv~~11311
▁herausstellte~~11312
▁routinemäßig~~11313
▁Fünftel~~11314
▁eintausend~~11315
▁anatomische~~11316
sorgniserregend~~11317
Radio~~11318
logen~~11319
Aufnahme~~11320
▁bahnbrechend~~11321
▁interpretiere~~11322
▁Ermessen~~11323
▁bemerkenswerte~~11324
▁Journal~~11325
prüfung~~11326
▁Manuskript~~11327
konflikt~~11328
▁konkurrierende~~11329
logy~~11330
▁breit~~11331
▁finanziell~~11332
▁Bundes~~11333
staat~~11334
▁fassungslos~~11335
▁hitzige~~11336
Bericht~~11337
jahr~~11338
▁bleibende~~11339
▁Kontroll~~11340
aufnahmen~~11341
▁weitergehen~~11342
erblichkeitsrate~~11343
▁Schlagzeile~~11344
▁Verfechter~~11345
erkranken~~11346
▁Verri~~11347
ngerung~~11348
▁Erfolge~~11349
▁Babys~~11350
▁Mittelstufe~~11351
▁unterzog~~11352
▁Raspyni~~11353
Brüder~~11354
▁jonglieren~~11355
▁scherze~~11356
▁Jongleur~~11357
▁demonstrieren~~11358
▁verblüffende~~11359
▁Agil~~11360
▁Koordination~~11361
▁Barry~~11362
▁moderner~~11363
gelegenheit~~11364
▁Krönung~~11365
omi~~11366
▁Komfort~~11367
▁Flexib~~11368
ilität~~11369
▁DH~~11370
▁Show~~11371
▁inspirierende~~11372
▁Daniel~~11373
▁Li~~11374
stütze~~11375
▁Extra~~11376
▁....~~11377
▁Spezielle~~11378
▁MacArthur~~11379
▁Mosche~~11380
▁Jonglier~~11381
technik~~11382
▁hör~~11383
pt~~11384
topf~~11385
ong~~11386
opper~~11387
▁verlangsamt~~11388
fordere~~11389
▁bedarf~~11390
▁perfekter~~11391
▁Rechten~~11392
▁vermassel~~11393
▁Richard~~11394
▁Tradition~~11395
▁gefährliche~~11396
▁Act~~11397
▁Peitsche~~11398
▁jahrelang~~11399
▁blöd~~11400
▁Entschuldigung~~11401
▁Gefahren~~11402
gott~~11403
▁stell~~11404
▁Wurma~~11405
RW~~11406
probt~~11407
▁Hör~~11408
▁Rich~~11409
schön~~11410
▁Anrufe~~11411
▁schlimme~~11412
▁Flash~~11413
▁glaub~~11414
▁sp~~11415
▁Glori~~11416
▁scharf~~11417
▁beurteilen~~11418
▁Klinge~~11419
ache~~11420
▁Bleistift~~11421
▁perfektionieren~~11422
▁Perfektion~~11423
▁Jungfrau~~11424
▁ok~~11425
▁Wer~~11426
▁Aug~~11427
pfel~~11428
▁roh~~11429
▁Hüpf~~11430
▁Tu~~11431
▁tanzt~~11432
▁Stop~~11433
▁erzähl~~11434
▁Biografie~~11435
▁Meisterschaft~~11436
töpfe~~11437
urren~~11438
▁Keu~~11439
▁Zwilling~~11440
▁Klappe~~11441
▁Set~~11442
up~~11443
▁Pan~~11444
ähnliche~~11445
▁wind~~11446
▁Held~~11447
▁She~~11448
▁Jr~~11449
▁Olympiade~~11450
▁unklar~~11451
▁Vokal~~11452
▁trete~~11453
▁Weltrekord~~11454
▁Zunge~~11455
▁Keulen~~11456
▁Stone~~11457
kunft~~11458
▁Gelenk~~11459
itis~~11460
▁neuartige~~11461
Mensch~~11462
taten~~11463
▁Meniskus~~11464
▁Kollege~~11465
rthritis~~11466
hnliche~~11467
geheiratet~~11468
sgeschichte~~11469
▁orthopädische~~11470
▁dis~~11471
▁ließen~~11472
zustimmen~~11473
▁gewandt~~11474
▁Bauteile~~11475
genutzt~~11476
▁Körperteile~~11477
▁innehalte~~11478
▁natürlicher~~11479
▁Pfad~~11480
▁erwäg~~11481
▁Erneuerung~~11482
▁bedürfe~~11483
▁Stammzellen~~11484
▁biologischer~~11485
▁Ersatzteile~~11486
▁Altersgruppe~~11487
▁Doc~~11488
▁Stoßdämpfer~~11489
transplantat~~11490
gelenk~~11491
kapsel~~11492
▁ersetzt~~11493
▁transplantier~~11494
▁beschädigt~~11495
kno~~11496
▁glatte~~11497
▁kranke~~11498
▁Wander~~11499
▁Aspen~~11500
▁Verfassung~~11501
▁Hu~~11502
▁Past~~11503
▁Motorräder~~11504
▁spend~~11505
▁reichlich~~11506
▁Hindernis~~11507
top~~11508
▁Gal~~11509
act~~11510
▁Achilles~~11511
▁beseitigt~~11512
▁Säure~~11513
Waschmittel~~11514
▁abbau~~11515
▁Regeneration~~11516
▁Schablone~~11517
▁Prozedur~~11518
▁anerkannte~~11519
▁Mixer~~11520
wäsch~~11521
ili~~11522
streifen~~11523
trip~~11524
ping~~11525
Technik~~11526
▁vermenschlichen~~11527
▁Bänder~~11528
▁pflanzte~~11529
▁Zulassung~~11530
experiment~~11531
▁kanadische~~11532
own~~11533
hill~~11534
Meister~~11535
▁arthritis~~11536
heft~~11537
▁ausstatte~~11538
▁nutzbar~~11539
▁dicker~~11540
▁ambulan~~11541
▁Hardware~~11542
ware~~11543
▁appetit~~11544
▁Argumente~~11545
▁pen~~11546
ible~~11547
▁Chef~~11548
öche~~11549
▁Feinschmecker~~11550
▁Delikatesse~~11551
▁Heuschrecke~~11552
▁Raupe~~11553
▁punct~~11554
▁Geschmack~~11555
▁ausgewogene~~11556
▁herumlaufen~~11557
▁Durchschnitts~~11558
▁Schätzung~~11559
▁vorsichtig~~11560
▁57~~11561
▁profitiert~~11562
▁Irakkrieg~~11563
▁billiger~~11564
▁Dung~~11565
▁bestäuben~~11566
▁Nutzpflanzen~~11567
▁Reproduktion~~11568
▁Schädling~~11569
ji~~11570
▁wundervoll~~11571
▁zubereitet~~11572
▁Mahlzeit~~11573
▁Bienen~~11574
ehrt~~11575
▁is~~11576
▁Gramm~~11577
▁Tomaten~~11578
▁Erdnuss~~11579
butter~~11580
Nudel~~11581
▁Suppe~~11582
behörden~~11583
▁Bälle~~11584
▁Kekse~~11585
▁Su~~11586
imi~~11587
stäbchen~~11588
▁Camp~~11589
▁Farbstoff~~11590
▁gefärbt~~11591
fleisch~~11592
▁Insekt~~11593
▁Kak~~11594
onnen~~11595
▁Peru~~11596
▁Euro~~11597
▁wertvolle~~11598
▁färbe~~11599
▁exponentiell~~11600
▁FA~~11601
▁Vieh~~11602
▁Vegetarier~~11603
▁mühelos~~11604
▁zusammenhäng~~11605
▁Organe~~11606
krankheit~~11607
virus~~11608
▁ausbreiten~~11609
▁1990~~11610
▁Niederlande~~11611
pest~~11612
▁ausbrach~~11613
▁tödlich~~11614
▁verwandt~~11615
▁Kilogramm~~11616
▁Rindfleisch~~11617
▁Ertrag~~11618
▁Bonus~~11619
▁herauskomm~~11620
erschwendung~~11621
▁Treibhausgase~~11622
▁schädlich~~11623
▁qualitativ~~11624
▁Hotdog~~11625
▁gewöhn~~11626
äche~~11627
▁gefüttert~~11628
▁variieren~~11629
▁Krebse~~11630
▁Arno~~11631
ld~~11632
▁van~~11633
▁verrichte~~11634
▁aussterben~~11635
▁fröhlich~~11636
▁erhältlich~~11637
▁Pe~~11638
eter~~11639
▁prop~~11640
hez~~11641
▁2020~~11642
▁niederländische~~11643
cola~~11644
sministeri~~11645
▁Speisekarte~~11646
▁Ministerium~~11647
sminister~~11648
klassige~~11649
▁Hobby~~11650
▁Bruno~~11651
proben~~11652
▁Biss~~11653
▁Gius~~11654
sani~~11655
▁köstlich~~11656
▁Nüsse~~11657
▁Larry~~11658
ssig~~11659
▁Remix~~11660
ED~~11661
▁Republikaner~~11662
▁Demokrat~~11663
▁vermeintlich~~11664
▁konservativer~~11665
▁gegnerische~~11666
▁Partei~~11667
▁Copyright~~11668
Kultur~~11669
▁Konservativen~~11670
▁nostalgi~~11671
chten~~11672
▁Konservative~~11673
▁Tee~~11674
▁Age~~11675
▁Republican~~11676
▁Leiter~~11677
▁Mitglied~~11678
legation~~11679
▁Versammlung~~11680
onald~~11681
▁Reagan~~11682
schaftskandidat~~11683
▁Wikipedia~~11684
▁Penn~~11685
lvani~~11686
▁Jüngste~~11687
versammlung~~11688
▁Lawrence~~11689
▁speichern~~11690
▁geheil~~11691
▁Kirche~~11692
▁verschenke~~11693
▁Wall~~11694
Firmen~~11695
▁Zusammenhänge~~11696
▁zelebrieren~~11697
▁vordringen~~11698
exist~~11699
▁Großartige~~11700
kologi~~11701
▁Bewußtsein~~11702
▁Teddy~~11703
▁Roosevelt~~11704
konomie~~11705
▁essentiell~~11706
▁Julian~~11707
ibert~~11708
▁Institute~~11709
▁furchtbare~~11710
▁Pack~~11711
ania~~11712
▁viral~~11713
▁original~~11714
uatsch~~11715
▁Aufruf~~11716
▁Existenz~~11717
▁folger~~11718
äre~~11719
Charakter~~11720
▁Urheberrechts~~11721
▁unvermeidlich~~11722
▁Popkultur~~11723
▁Güter~~11724
▁Option~~11725
▁Werke~~11726
▁Konzepte~~11727
▁use~~11728
▁Sorge~~11729
▁leitete~~11730
Filme~~11731
▁remix~~11732
▁Mickey~~11733
▁Mouse~~11734
boat~~11735
▁Willi~~11736
▁Buster~~11737
▁Keat~~11738
▁steckte~~11739
▁Sonn~~11740
▁Bono~~11741
tension~~11742
▁Rechte~~11743
▁Gebrüder~~11744
▁Grim~~11745
▁umsetzt~~11746
▁Fußnote~~11747
▁Ikone~~11748
▁Figur~~11749
▁Mash~~11750
gefordert~~11751
▁Lizenz~~11752
▁hinzufügt~~11753
frist~~11754
wertung~~11755
▁Urheber~~11756
▁Farmpächter~~11757
▁Eigentümer~~11758
Inhaber~~11759
▁ausgesprochen~~11760
▁Vorsitzende~~11761
▁Goldman~~11762
▁Sachs~~11763
▁respektiere~~11764
▁Creative~~11765
▁Common~~11766
▁vorbehalten~~11767
urheberrechtlich~~11768
▁Tool~~11769
liegt~~11770
▁Urheberrecht~~11771
▁lizensier~~11772
▁350~~11773
▁ausbalancier~~11774
stolpert~~11775
▁informierte~~11776
▁mysteriöse~~11777
MG~~11778
▁gehörte~~11779
▁Con~~11780
gesperrt~~11781
▁DMCA~~11782
▁stumm~~11783
geschaltet~~11784
▁Bruchstücke~~11785
▁Group~~11786
▁abspielt~~11787
schrieb~~11788
▁Bart~~11789
mp~~11790
▁kind~~11791
▁bestätigen~~11792
▁Reiß~~11793
▁empörend~~11794
schaftswahl~~11795
▁vorderste~~11796
Prinzip~~11797
axis~~11798
▁Irr~~11799
▁geheim~~11800
▁Abkommen~~11801
▁irrsinnig~~11802
▁Thre~~11803
rike~~11804
▁Reform~~11805
sehbare~~11806
kenntnis~~11807
▁Instanz~~11808
▁verinnerlich~~11809
▁Bang~~11810
▁bewegende~~11811
▁Deep~~11812
▁BMW~~11813
▁SUV~~11814
designer~~11815
▁Hierarchie~~11816
bände~~11817
▁ästhetische~~11818
▁Michelangelo~~11819
▁Automobil~~11820
▁Automobile~~11821
▁Fahr~~11822
stühle~~11823
▁funktional~~11824
sorgt~~11825
mweltverschmutz~~11826
gegenstände~~11827
▁hingeg~~11828
Brennstoffzellen~~11829
▁Wasserstoff~~11830
sucht~~11831
▁befallen~~11832
▁Anzug~~11833
▁vervielfältig~~11834
▁Zorn~~11835
immel~~11836
▁hineinge~~11837
verkehr~~11838
▁Chevy~~11839
▁Bildhauer~~11840
▁reproduzieren~~11841
▁Original~~11842
▁Handwerk~~11843
▁Modellier~~11844
▁Skulptur~~11845
drang~~11846
▁Trieb~~11847
▁Drang~~11848
fassen~~11849
▁Inner~~11850
inblick~~11851
greif~~11852
▁erwacht~~11853
▁platonische~~11854
▁Eitel~~11855
▁Newton~~11856
uanten~~11857
methode~~11858
▁Widersprüche~~11859
▁eingestehen~~11860
▁tendieren~~11861
▁4,~~11862
0~~11863
▁4,000~~11864
▁orientiert~~11865
▁weiblicher~~11866
▁Finden~~11867
▁innewohn~~11868
▁Anblick~~11869
▁gewiss~~11870
wettbewerb~~11871
▁Schwärme~~11872
bürste~~11873
▁Subs~~11874
management~~11875
knüpfen~~11876
▁Inti~~11877
mität~~11878
▁stressig~~11879
▁Vorstand~~11880
▁Temperament~~11881
▁Pygm~~11882
▁verliebt~~11883
▁reingeh~~11884
drin~~11885
▁Geliebte~~11886
▁Teammitglied~~11887
▁Telefonnummer~~11888
▁Beleg~~11889
▁Nachfolger~~11890
Phänomen~~11891
▁IBM~~11892
▁gestohlen~~11893
▁Fax~~11894
▁Gas~~11895
hau~~11896
trick~~11897
▁zusammenkomm~~11898
▁monumental~~11899
▁anhäuf~~11900
▁Postkarten~~11901
▁Las~~11902
▁Vega~~11903
▁Grand~~11904
▁Canyon~~11905
▁Niagara~~11906
fälle~~11907
▁Nachforschung~~11908
▁Wohnung~~11909
▁Elizabeth~~11910
▁Taylor~~11911
▁Rund~~11912
Uhr~~11913
▁zurückgelassen~~11914
▁Bad~~11915
▁errichtet~~11916
▁faszinierend~~11917
▁Tasse~~11918
▁Steck~~11919
ieht~~11920
▁Begleit~~11921
▁gestresst~~11922
schel~~11923
▁Nachfolge~~11924
▁Erwartung~~11925
▁zusammenfinde~~11926
▁herausragende~~11927
▁herüber~~11928
branche~~11929
▁Lösen~~11930
▁Agenda~~11931
▁rechne~~11932
▁mental~~11933
▁Brill~~11934
▁überwältigt~~11935
▁Mist~~11936
▁überhäuft~~11937
▁schrie~~11938
▁Kreative~~11939
▁Tira~~11940
zwitscher~~11941
▁ruhige~~11942
▁sauer~~11943
▁Cathe~~11944
rine~~11945
▁Hochzeit~~11946
▁hübsche~~11947
▁Predigt~~11948
▁eigennützig~~11949
▁liebst~~11950
▁erwarte~~11951
uan~~11952
ifizierung~~11953
tat~~11954
▁innerlich~~11955
schmiede~~11956
▁Kreation~~11957
▁Cross~~11958
Co~~11959
▁Coup~~11960
▁Magnus~~11961
▁brute~~11962
iful~~11963
▁Kleine~~11964
▁it~~11965
ourself~~11966
▁Sinclair~~11967
▁Immobilien~~11968
Me~~11969
ga~~11970
▁bankrott~~11971
gewerbe~~11972
Kollegen~~11973
▁welch~~11974
Industrie~~11975
▁Katar~~11976
▁anzusehen~~11977
▁verfolge~~11978
▁Wolkenkratzer~~11979
AE~~11980
▁verbi~~11981
rgt~~11982
pflicht~~11983
▁1,1~~11984
▁Inder~~11985
▁Pakistani~~11986
▁Sri~~11987
▁Lan~~11988
ker~~11989
▁Arbeitskräfte~~11990
▁eingehen~~11991
▁Klimaanlage~~11992
▁Beamte~~11993
▁Behörden~~11994
leute~~11995
▁Build~~11996
safe~~11997
▁erdrückend~~11998
▁August~~11999
▁1.0~~12000
98~~12001
▁primitiv~~12002
stimmung~~12003
▁verstoße~~12004
▁protestierte~~12005
▁Löhne~~12006
▁Unterkünfte~~12007
▁Finanzkrise~~12008
▁Bauunternehmer~~12009
▁Kredit~~12010
schuldet~~12011
▁unmittelbare~~12012
ets~~12013
▁gegenwärtig~~12014
▁Menschenrechte~~12015
▁Bilanz~~12016
kohle~~12017
oxy~~12018
▁energies~~12019
ame~~12020
▁Anlage~~12021
▁günstigste~~12022
wurf~~12023
▁Tyle~~12024
▁totale~~12025
▁Lehrpläne~~12026
▁Lehrbuch~~12027
▁Lieblingsthem~~12028
▁diskutiere~~12029
▁Grundidee~~12030
▁erleichtert~~12031
geprägt~~12032
▁rat~~12033
▁Mikroskop~~12034
▁Horror~~12035
▁verdorben~~12036
▁entzwei~~12037
▁grässlich~~12038
▁qui~~12039
▁euer~~12040
lbtraum~~12041
DNA~~12042
ehlt~~12043
▁Baupla~~12044
fabrik~~12045
pläne~~12046
▁Ersetz~~12047
fizieren~~12048
▁list~~12049
schmuggel~~12050
▁Spionage~~12051
▁Clou~~12052
▁fügt~~12053
▁terroristische~~12054
▁Schläfe~~12055
▁Faszinierende~~12056
▁erweiterte~~12057
NG~~12058
groß~~12059
▁genannte~~12060
vi~~12061
School~~12062
Abschluss~~12063
▁garantiere~~12064
▁has~~12065
▁Lehrbücher~~12066
▁Verleger~~12067
▁begeistern~~12068
▁angesehen~~12069
sfeld~~12070
▁Schleim~~12071
▁unverständlich~~12072
▁Kopie~~12073
▁Bak~~12074
io~~12075
phage~~12076
▁Nukle~~12077
▁initiiert~~12078
▁13-~~12079
autor~~12080
▁Technische~~12081
▁akkurat~~12082
▁Tyrann~~12083
▁sinnlos~~12084
▁hässlich~~12085
▁Jeans~~12086
gging~~12087
▁Je~~12088
,7~~12089
mov~~12090
▁spezifische~~12091
▁ruiniert~~12092
▁aufrechter~~12093
▁fle~~12094
source~~12095
▁träume~~12096
▁denkbar~~12097
▁Fünf~~12098
tklässler~~12099
▁Freizeit~~12100
▁Produzieren~~12101
▁Gleichgewicht~~12102
tanz~~12103
▁Ferien~~12104
▁erhalte~~12105
▁dankbar~~12106
▁nehm~~12107
▁Blog~~12108
▁weckt~~12109
▁nervig~~12110
▁Sura~~12111
▁erfinde~~12112
weltfreundliche~~12113
▁Trocken~~12114
▁Baumaterial~~12115
▁CO~~12116
2-~~12117
abdruck~~12118
▁EcoRock~~12119
▁saubere~~12120
cy~~12121
effiziente~~12122
▁Serious~~12123
▁bestellt~~12124
▁Arktis~~12125
▁PKW~~12126
▁Sushi~~12127
Bar~~12128
▁Gips~~12129
rocken~~12130
▁Zement~~12131
▁ausprobiere~~12132
Produktion~~12133
▁fertige~~12134
▁Deze~~12135
mber~~12136
▁Brei~~12137
masse~~12138
▁laufende~~12139
▁Fließband~~12140
▁Aufregende~~12141
▁Cradle~~12142
▁Green~~12143
▁Product~~12144
ear~~12145
findung~~12146
▁Popular~~12147
▁Gallone~~12148
▁Benzin~~12149
▁entsprechen~~12150
▁ausgleichen~~12151
Ausstoß~~12152
gespart~~12153
▁abgelaufen~~12154
▁Nathali~~12155
▁zurückblicken~~12156
▁Windows~~12157
▁Ban~~12158
▁Not~~12159
künfte~~12160
röhre~~12161
▁benutzte~~12162
▁Umweltprobleme~~12163
▁wasserdicht~~12164
hitze~~12165
▁temporäre~~12166
▁330~~12167
urchmesser~~12168
▁Toilettenpapier~~12169
▁Expo~~12170
▁Pavillon~~12171
▁recycling~~12172
▁Fertigstell~~12173
▁Abbau~~12174
▁wiederverwende~~12175
▁recycelt~~12176
müll~~12177
▁Pomp~~12178
▁Paris~~12179
▁Büros~~12180
▁Eintrittskarte~~12181
▁beliebte~~12182
▁privilegierte~~12183
▁historisch~~12184
Naturkatastrophe~~12185
▁1994~~12186
▁Tutsi~~12187
▁Flüchtlinge~~12188
Flüchtlingslager~~12189
▁UN~~12190
▁fällen~~12191
▁Abholzung~~12192
problem~~12193
rohr~~12194
geworfen~~12195
▁Benutz~~12196
▁Termiten~~12197
▁1995~~12198
▁Kobe~~12199
▁Nag~~12200
ata~~12201
▁vietnamesische~~12202
▁katholische~~12203
▁vertraute~~12204
▁pendeln~~12205
▁Vietnamese~~12206
▁armselig~~12207
▁Wiederaufbau~~12208
schafft~~12209
▁Fundament~~12210
kä~~12211
▁Kir~~12212
▁Asa~~12213
▁erwarteten~~12214
▁traute~~12215
▁Taiwan~~12216
▁stiften~~12217
tempo~~12218
▁Türke~~12219
▁Sumatra~~12220
▁Tsunami~~12221
▁Lanka~~12222
dörfer~~12223
▁Cheng~~12224
▁Provinz~~12225
▁Sich~~12226
▁70.000~~12227
▁Korruption~~12228
▁q~~12229
inisterpräsident~~12230
lus~~12231
con~~12232
▁Premierminister~~12233
▁liebenswürdig~~12234
halle~~12235
▁Konzerthalle~~12236
▁Konzert~~12237
Gipfel~~12238
▁Haiti~~12239
▁flog~~12240
▁Santo~~12241
▁Domin~~12242
▁evakuier~~12243
▁leiden~~12244
▁geistig~~12245
▁Abteilung~~12246
▁Vorhänge~~12247
▁Verwalter~~12248
lec~~12249
▁Des~~12250
▁wohnlich~~12251
▁freundlich~~12252
▁On~~12253
gawa~~12254
iya~~12255
felder~~12256
▁Fracht~~12257
containe~~12258
church~~12259
kamen~~12260
Paläoanthropolog~~12261
▁älteste~~12262
▁Skelett~~12263
▁humanoid~~12264
▁weiten~~12265
▁Belege~~12266
▁Steinwerkzeuge~~12267
▁erkunden~~12268
▁Sela~~12269
▁vollständige~~12270
▁3,3~~12271
▁Australopithec~~12272
fare~~12273
▁einordne~~12274
▁Luc~~12275
▁Forschungsteam~~12276
▁Titelseite~~12277
▁Zeitschriften~~12278
▁Fund~~12279
▁Anthropologe~~12280
▁Gastgeber~~12281
▁2,6~~12282
▁Flöten~~12283
▁Nachweis~~12284
▁Perlen~~12285
verfolgen~~12286
▁Schimpansen~~12287
▁auseinander~~12288
▁Erbgut~~12289
▁Herkunft~~12290
▁Fossilien~~12291
slücke~~12292
▁Mechanism~~12293
▁treibende~~12294
▁graduell~~12295
▁feindselige~~12296
▁einheimische~~12297
fel~~12298
▁Spitz~~12299
▁bahnt~~12300
▁unfassbar~~12301
▁pal~~12302
▁Ausgrabung~~12303
sstätte~~12304
▁ausgestorben~~12305
berreste~~12306
▁Nashörner~~12307
▁Wüste~~12308
apien~~12309
▁Anekdote~~12310
▁leistet~~12311
▁Assistent~~12312
achtung~~12313
▁Knochen~~12314
▁such~~12315
▁Elefant~~12316
▁Ze~~12317
ray~~12318
▁Löwen~~12319
▁hinging~~12320
▁müde~~12321
▁ermüdend~~12322
▁frustrierend~~12323
▁Sandstein~~12324
▁Wirbelsäule~~12325
block~~12326
▁früheste~~12327
▁Paläo~~12328
▁faszinierender~~12329
liches~~12330
sgefühl~~12331
▁Nahaufnahme~~12332
▁Fossil~~12333
▁Säu~~12334
▁Aufbereitung~~12335
▁Minister~~12336
▁Tourismus~~12337
museum~~12338
▁erledigt~~12339
▁Stammbaum~~12340
▁angehört~~12341
wie~~12342
▁Kennzeich~~12343
▁vergleich~~12344
▁Schädel~~12345
▁vertikale~~12346
Kortex~~12347
▁Eck~~12348
▁Abstammung~~12349
zähne~~12350
▁CT~~12351
fin~~12352
▁ausbilde~~12353
klettern~~12354
charakteristisch~~12355
▁verbring~~12356
▁begriffen~~12357
▁menschlich~~12358
▁stützt~~12359
▁Kehl~~12360
kopf~~12361
▁assoziiert~~12362
▁stetig~~12363
▁Bedeutsam~~12364
▁erwachsenen~~12365
ossi~~12366
▁beschränkt~~12367
wohnen~~12368
▁löst~~12369
▁Exemplar~~12370
▁sapien~~12371
▁Urahn~~12372
▁erfolgreichste~~12373
▁meister~~12374
▁primitive~~12375
▁kompetent~~12376
▁selbstsicher~~12377
fried~~12378
fertig~~12379
▁geparkt~~12380
▁abbilde~~12381
▁verknüpfen~~12382
▁Parkplatz~~12383
▁park~~12384
▁Homer~~12385
▁Hippocamp~~12386
▁lateinische~~12387
▁Seepferd~~12388
▁Nervenzellen~~12389
▁Impulse~~12390
blättern~~12391
▁räumliche~~12392
stöber~~12393
▁Nervenzelle~~12394
▁Impuls~~12395
▁sendet~~12396
▁feuern~~12397
▁quadratisch~~12398
▁ankündigt~~12399
▁Platzzelle~~12400
▁Epilep~~12401
tiker~~12402
überwachung~~12403
▁feuert~~12404
fuhr~~12405
▁Schuss~~12406
▁untere~~12407
▁Abstände~~12408
▁verbreitete~~12409
zieren~~12410
▁Abgrenzung~~12411
▁nähert~~12412
▁kreisförmig~~12413
▁dehnt~~12414
▁Vermutung~~12415
▁ausgedehnt~~12416
bewegen~~12417
glied~~12418
gliederung~~12419
▁Gitterzelle~~12420
▁ähneln~~12421
forscht~~12422
▁verschiedener~~12423
gitter~~12424
▁minimale~~12425
▁Dreieck~~12426
bewegt~~12427
▁Aufenthaltsort~~12428
▁Symmetrie~~12429
orientierung~~12430
▁reine~~12431
▁folg~~12432
▁MRT~~12433
rinde~~12434
ortung~~12435
▁visuelle~~12436
schleppt~~12437
▁wiedererlang~~12438
▁auto~~12439
zeugen~~12440
▁Visualisierung~~12441
▁geschä~~12442
▁Vernetzung~~12443
▁reaktivier~~12444
▁Kompass~~12445
▁Vorgänge~~12446
▁vorstellt~~12447
▁Funktionen~~12448
▁Jones~~12449
Sängerin~~12450
▁Zauber~~12451
ado~~12452
can~~12453
beinige~~12454
▁berühmt~~12455
▁Vorhang~~12456
▁Solar~~12457
plex~~12458
▁Josh~~12459
▁Rote~~12460
▁Vanco~~12461
uver~~12462
15~~12463
▁Nige~~12464
▁bedeutend~~12465
▁ruhen~~12466
▁TEDxS~~12467
▁skizziert~~12468
▁mitreißende~~12469
▁fange~~12470
▁inne~~12471
▁Daseins~~12472
▁Rat~~12473
dikt~~12474
▁Gefolg~~12475
▁Unternehmens~~12476
▁aß~~12477
krempeln~~12478
▁heikle~~12479
▁Arbeitsleben~~12480
bal~~12481
▁berichten~~12482
▁ehrliche~~12483
lödsinn~~12484
thema~~12485
▁verdeck~~12486
vereinbar~~12487
▁eingebunden~~12488
erkennen~~12489
▁Abertausende~~12490
Shirt~~12491
▁Ruder~~12492
traut~~12493
▁durchgehen~~12494
▁Kinderbetreu~~12495
▁Alptraum~~12496
▁erstellte~~12497
▁anstrebt~~12498
frühstück~~12499
▁Feierabend~~12500
▁meditier~~12501
▁realistisch~~12502
scheiden~~12503
▁Pension~~12504
▁ausgeglichen~~12505
▁Lot~~12506
▁scheiterte~~12507
▁angemeldet~~12508
▁spott~~12509
▁fit~~12510
ham~~12511
ster~~12512
Tag~~12513
press~~12514
▁entmutigend~~12515
▁Scheiß~~12516
rufe~~12517
▁Harry~~12518
▁abhol~~12519
▁beendete~~12520
▁albern~~12521
▁Spiele~~12522
▁Pizza~~12523
▁bad~~12524
▁Batman~~12525
▁Roa~~12526
▁deck~~12527
▁Kuss~~12528
▁Disneyland~~12529
▁Playstation~~12530
▁Umbruch~~12531
▁radikal~~12532
besonnen~~12533
▁Gut~~12534
▁Böse~~12535
▁argumentiert~~12536
▁wertschätzen~~12537
▁unw~~12538
▁bewusster~~12539
▁Steine~~12540
▁potentielle~~12541
▁Leid~~12542
▁Behauptung~~12543
▁Fakt~~12544
▁Komplexität~~12545
▁Erfahren~~12546
▁missverstanden~~12547
▁Zustände~~12548
▁Ewigkeit~~12549
▁Leiden~~12550
▁Kontinuum~~12551
▁Fremde~~12552
▁friedliche~~12553
▁willkürlich~~12554
▁ermordet~~12555
▁Cholera~~12556
▁Schlimme~~12557
▁Genoms~~12558
mordattentäter~~12559
▁72~~12560
▁Jenseits~~12561
▁bedauernswerte~~12562
▁prägt~~12563
▁reif~~12564
▁Psychologie~~12565
▁bewusste~~12566
▁Landkarte~~12567
▁my~~12568
stisch~~12569
▁spirituell~~12570
▁Psyche~~12571
▁garantiert~~12572
▁Atom~~12573
▁bombardier~~12574
▁Geschäfts~~12575
▁betreffen~~12576
▁aufblühen~~12577
▁21~~12578
üsse~~12579
▁Blasen~~12580
▁Standort~~12581
▁Connecti~~12582
cut~~12583
▁ausdrücklich~~12584
▁religiös~~12585
▁Rut~~12586
wöhn~~12587
wörter~~12588
▁23.~~12589
▁offensichtliche~~12590
defin~~12591
worfen~~12592
▁Spec~~12593
▁Statue~~12594
fähigkeit~~12595
▁Marathon~~12596
vision~~12597
gehalt~~12598
richtig~~12599
▁gleichwertig~~12600
▁Aufblühen~~12601
▁maximier~~12602
▁Spann~~12603
▁Grundsätze~~12604
▁analog~~12605
▁brilliante~~12606
▁geringste~~12607
ble~~12608
beutel~~12609
ähle~~12610
▁ablehnen~~12611
▁unterdrückt~~12612
▁Brauch~~12613
unvoreingenommen~~12614
▁freiwillige~~12615
▁Schleier~~12616
▁freiwillig~~12617
▁Scham~~12618
▁zugegeben~~12619
▁Falsche~~12620
▁reflektieren~~12621
▁optimale~~12622
▁solcher~~12623
mag~~12624
▁Linse~~12625
geschlechtliche~~12626
▁Genozid~~12627
▁Atomwaffen~~12628
sek~~12629
ular~~12630
Wissenschaftler~~12631
Typ~~12632
alai~~12633
▁integral~~12634
▁Glücks~~12635
▁Ted~~12636
▁Bund~~12637
▁entführt~~12638
▁gefoltert~~12639
sverschiedenheit~~12640
▁Intellektuelle~~12641
▁potentiell~~12642
▁Vanille~~12643
▁Edward~~12644
▁Witt~~12645
▁String~~12646
heoretiker~~12647
▁Physik~~12648
konferenz~~12649
▁auftreten~~12650
Theorie~~12651
Club~~12652
▁Experti~~12653
▁berücksichtigt~~12654
▁Ignoranz~~12655
▁zuzu~~12656
▁destruktiv~~12657
fund~~12658
▁zerbrech~~12659
▁kitten~~12660
▁Toleranz~~12661
standard~~12662
von~~12663
rüstet~~12664
▁red~~12665
tüte~~12666
▁muslimische~~12667
▁Besonderheit~~12668
▁durchdachte~~12669
▁Konversation~~12670
ial~~12671
▁verschleier~~12672
▁tätowier~~12673
▁wörtlich~~12674
▁49~~12675
▁Burk~~12676
klang~~12677
gewogen~~12678
ltigkeit~~12679
▁negative~~12680
▁Barmherzigkeit~~12681
▁beleuchte~~12682
▁selbstbewusst~~12683
▁ausgebildet~~12684
▁begehren~~12685
FG~~12686
▁Zwang~~12687
▁scannen~~12688
▁Sicherheit~~12689
▁Urteil~~12690
▁schwul~~12691
öpft~~12692
▁barmherzig~~12693
▁Ekstase~~12694
sprengt~~12695
▁Kavita~~12696
▁Ram~~12697
▁ermächtigt~~12698
▁hochhalte~~12699
wandeln~~12700
▁Trends~~12701
street~~12702
mächtig~~12703
▁rettet~~12704
▁Polar~~12705
▁verschwimm~~12706
▁Moderne~~12707
▁Unterdrückung~~12708
▁Rag~~12709
▁Gesellschaften~~12710
▁Kopftuch~~12711
▁Widerstand~~12712
▁verstümmelt~~12713
▁pflanzen~~12714
▁gewaltlose~~12715
isieren~~12716
▁Chim~~12717
▁Adichie~~12718
▁sammelte~~12719
gläubig~~12720
▁Muslim~~12721
▁Les~~12722
▁Kroat~~12723
▁Liberia~~12724
▁gesegnet~~12725
▁zutiefst~~12726
▁Onkel~~12727
rüstung~~12728
▁elf~~12729
▁Witwe~~12730
▁Verwandte~~12731
▁farbenfrohe~~12732
▁zerbrach~~12733
reife~~12734
bewußt~~12735
▁gekannt~~12736
Ramu~~12737
schreiten~~12738
▁murmelt~~12739
▁leiser~~12740
kämpft~~12741
▁exzellente~~12742
▁rebellische~~12743
▁Feministin~~12744
▁Hind~~12745
berechtigung~~12746
▁Geschlechter~~12747
▁zurückgekehrt~~12748
▁gegründet~~12749
▁Sake~~12750
oobi~~12751
▁Fürsprecher~~12752
▁Frauenrechte~~12753
▁Untergrund~~12754
▁Afghanische~~12755
▁Koran~~12756
▁Prophe~~12757
▁Gläubige~~12758
nterrichtsstunde~~12759
▁pragmatis~~12760
▁Kleider~~12761
▁Imam~~12762
▁lächelt~~12763
witz~~12764
▁Moschee~~12765
Alphabetisierung~~12766
▁sorge~~12767
▁lächl~~12768
▁beobachte~~12769
▁Lesbo~~12770
▁homosexuell~~12771
Unannehmlichkeit~~12772
▁Nachkriegs~~12773
alismus~~12774
eligi~~12775
▁unerträglich~~12776
▁Maz~~12777
▁Bosnien~~12778
▁Serb~~12779
▁Gender~~12780
▁Zwanziger~~12781
▁out~~12782
▁lesbisch~~12783
▁Leah~~12784
▁Roll~~12785
▁Rebellion~~12786
ugoslawi~~12787
▁Alchemist~~12788
▁Zwie~~12789
▁Harmonie~~12790
▁Repertoire~~12791
hymn~~12792
▁bo~~12793
isches~~12794
▁serbische~~12795
▁Grinse~~12796
Anleihe~~12797
▁Homosexu~~12798
trauen~~12799
▁repräsentiert~~12800
▁Out~~12801
▁Mittelalter~~12802
▁Tro~~12803
▁Balkan~~12804
osni~~12805
▁beansprucht~~12806
lika~~12807
hai~~12808
▁Layma~~12809
▁Bowie~~12810
▁jahrzehntelang~~12811
▁Bürgerkriege~~12812
tte~~12813
▁sorgte~~12814
▁Kindersoldat~~12815
▁verschleppt~~12816
▁träumte~~12817
▁Blutvergie~~12818
▁Anführer~~12819
▁Friede~~12820
▁Polizist~~12821
▁versprach~~12822
predigt~~12823
▁Eine~~12824
▁Christen~~12825
▁Protest~~12826
▁kleide~~12827
▁Make~~12828
▁wochenlang~~12829
verhandl~~12830
▁Verhandlung~~12831
▁verbliebene~~12832
▁Ausschnitt~~12833
▁angespannt~~12834
▁Polizei~~12835
älteste~~12836
▁bedacht~~12837
▁verleg~~12838
▁versieh~~12839
▁Westafrika~~12840
▁verflucht~~12841
▁weggehen~~12842
▁ehe~~12843
vertrag~~12844
▁Ellen~~12845
leaf~~12846
▁Staatsoberh~~12847
aupt~~12848
tritt~~12849
▁Präsidentin~~12850
▁tapfere~~12851
cer~~12852
▁Einblicke~~12853
hili~~12854
pin~~12855
▁Reis~~12856
kuchen~~12857
▁Proteste~~12858
▁Gay~~12859
▁Pri~~12860
▁Para~~12861
▁Ob~~12862
▁Marx~~12863
wandern~~12864
▁Bestrebung~~12865
▁verleihen~~12866
▁Verbündete~~12867
▁respektiert~~12868
▁Träumen~~12869
▁Feminismus~~12870
▁Unterdrück~~12871
▁herrschende~~12872
▁Erober~~12873
▁Kolonial~~12874
▁Bündel~~12875
▁Glaube~~12876
▁ultimative~~12877
▁Persönliche~~12878
▁politisch~~12879
eanor~~12880
▁Michelle~~12881
let~~12882
▁Shiri~~12883
bad~~12884
▁bloße~~12885
▁Hose~~12886
▁Boub~~12887
militar~~12888
gießen~~12889
web~~12890
▁hi~~12891
▁Kommen~~12892
▁Kathr~~12893
▁Schulz~~12894
▁irren~~12895
▁Road~~12896
▁Providenc~~12897
▁Portland~~12898
▁Oregon~~12899
▁Neben~~12900
straßen~~12901
▁Nationalpark~~12902
▁South~~12903
▁Dakota~~12904
▁Schrift~~12905
▁Gesichts~~12906
▁imitiert~~12907
Rast~~12908
▁miss~~12909
verstehen~~12910
▁verrate~~12911
▁Katz~~12912
▁Besprechung~~12913
urlaub~~12914
▁Blase~~12915
▁Gewissheit~~12916
▁Berufsleben~~12917
▁fürchterlich~~12918
irrt~~12919
▁verheerend~~12920
▁aufschlussreich~~12921
▁Irrtum~~12922
▁Mitleid~~12923
erregend~~12924
▁Kojote~~12925
▁Renn~~12926
kuckuck~~12927
jagt~~12928
rennt~~12929
▁realisiert~~12930
▁realisieren~~12931
schaut~~12932
▁feste~~12933
▁strukturelle~~12934
▁kulturell~~12935
▁Grundschul~~12936
▁verantwortungs~~12937
▁Dumm~~12938
Schüler~~12939
▁Over~~12940
achi~~12941
▁CFO~~12942
▁Astrophysik~~12943
Marathon~~12944
läufer~~12945
▁ausflipp~~12946
▁smart~~12947
▁talentiert~~12948
▁Beth~~12949
Krankenhaus~~12950
klinik~~12951
▁näht~~12952
▁Aufwach~~12953
esundheitspflege~~12954
▁Vorfall~~12955
▁Interessantes~~12956
▁Richtig~~12957
▁verlässlich~~12958
▁Betracht~~12959
▁Golf~~12960
▁Mexiko~~12961
ped~~12962
▁widerspiegel~~12963
▁zurückgreife~~12964
▁ignorant~~12965
▁Zugriff~~12966
▁großzügig~~12967
▁Tunnel~~12968
blicken~~12969
▁Idioten~~12970
▁Puzzle~~12971
verzerren~~12972
▁bösartig~~12973
▁Katastrophe~~12974
▁Erstaunlichste~~12975
▁durchsichtig~~12976
▁Nachthimmel~~12977
▁Descartes~~12978
▁Augustin~~12979
▁sum~~12980
▁verge~~12981
▁Defekt~~12982
▁überwinden~~12983
senheit~~12984
Sendung~~12985
▁Thi~~12986
▁interview~~12987
▁wit~~12988
brigen~~12989
▁Anwesende~~12990
▁Leser~~12991
▁saugen~~12992
▁Fäh~~12993
marsch~~12994
▁Massenver~~12995
nichtungswaffe~~12996
▁Mittlere~~12997
▁Diktator~~12998
▁aufwachsen~~12999
▁nerd~~13000
▁Denkmal~~13001
▁revolutionär~~13002
▁Hase~~13003
ntdeckung~~13004
▁Ley~~13005
mah~~13006
▁Intelligenz~~13007
▁Passion~~13008
▁Gewinner~~13009
gezapft~~13010
▁reise~~13011
assi~~13012
▁Unterkunft~~13013
▁alleinerziehend~~13014
▁kniet~~13015
ttel~~13016
häu~~13017
▁Häuptling~~13018
▁hell~~13019
▁dreckig~~13020
nterwäsche~~13021
▁Wei~~13022
▁Begleiter~~13023
▁schlief~~13024
▁Puppe~~13025
▁Spule~~13026
▁Aktivismus~~13027
beauftragte~~13028
▁Neunjährige~~13029
▁sichere~~13030
▁Blei~~13031
▁väterliche~~13032
▁aufgebläht~~13033
▁blass~~13034
▁Geschwister~~13035
▁zusammenleb~~13036
▁sport~~13037
wir~~13038
▁sportliche~~13039
▁teilnimm~~13040
sprech~~13041
▁Zugeständnis~~13042
▁Begehren~~13043
konvention~~13044
▁Child~~13045
▁Left~~13046
▁Behind~~13047
▁Millennium~~13048
Entwicklungsziel~~13049
▁abzielen~~13050
prostitution~~13051
liege~~13052
Kaugummi~~13053
▁TEDTalk~~13054
▁abgebrochen~~13055
▁überbrück~~13056
Nobelpreisträger~~13057
▁anwesend~~13058
oung~~13059
▁Girl~~13060
▁Project~~13061
▁hinsetze~~13062
▁Schulabschluss~~13063
▁Getränke~~13064
▁Wiederauf~~13065
▁Juan~~13066
ita~~13067
▁Umkreis~~13068
▁sexuelle~~13069
nutzung~~13070
▁wünschte~~13071
▁frustriert~~13072
▁Furcht~~13073
▁Vermögen~~13074
▁vergeben~~13075
Vo~~13076
▁Erne~~13077
▁Intellekt~~13078
▁erschlossen~~13079
▁LG~~13080
▁Versöhnung~~13081
Initiative~~13082
▁Dreck~~13083
▁Epidemie~~13084
▁mitmachen~~13085
▁li~~13086
ianische~~13087
▁gha~~13088
Bühne~~13089
▁pessimistisch~~13090
ffnung~~13091
mine~~13092
▁Wahlen~~13093
▁mobilisier~~13094
▁Kandidaten~~13095
▁Vergewaltigung~~13096
schaffen~~13097
▁barbarisch~~13098
▁Gespräche~~13099
▁feindlich~~13100
wählen~~13101
gewählt~~13102
▁Lesl~~13103
▁Chang~~13104
▁Globalisierung~~13105
▁Reporterin~~13106
▁Mega~~13107
Handtasche~~13108
▁Schuldgefühl~~13109
ädchen~~13110
▁Laufschuhe~~13111
stunden~~13112
▁iPad~~13113
▁Ungerechtigkeit~~13114
▁unterdrücken~~13115
▁Verlangen~~13116
▁Gleichstellung~~13117
▁Ausbeut~~13118
▁verlockend~~13119
▁respektlos~~13120
▁arrogant~~13121
▁Unsichtbarkeit~~13122
▁Mobiltelefon~~13123
drängt~~13124
▁unersättliche~~13125
▁gewöhnlichen~~13126
▁Chen~~13127
▁Chu~~13128
zulerne~~13129
▁Dong~~13130
▁taucht~~13131
wechseln~~13132
▁Nächte~~13133
▁Schlafsäle~~13134
▁herstellt~~13135
▁kennenlernte~~13136
skontrolle~~13137
▁entstellt~~13138
▁Abkürzung~~13139
▁Karl~~13140
▁Kapitalismus~~13141
fremd~~13142
▁Käst~~13143
▁Britische~~13144
▁Journalism~~13145
▁Einstieg~~13146
löhne~~13147
▁Berechnung~~13148
▁circa~~13149
▁Min~~13150
dorf~~13151
Portemonnaie~~13152
▁Coach~~13153
▁Leder~~13154
ake~~13155
▁Doo~~13156
▁amp~~13157
▁Bourke~~13158
stan~~13159
tasche~~13160
Sport~~13161
▁dämmert~~13162
▁320~~13163
▁drehte~~13164
▁heiratete~~13165
▁Hochzeits~~13166
▁pol~~13167
schuh~~13168
▁luxur~~13169
▁weiche~~13170
▁Vorzeige~~13171
▁Proportion~~13172
▁zeitlose~~13173
▁Masse~~13174
▁Elektronik~~13175
betrieb~~13176
gekündigt~~13177
▁lukrativ~~13178
▁spart~~13179
▁Buick~~13180
räne~~13181
▁vorübergehend~~13182
▁zurückschaue~~13183
▁Hotels~~13184
▁Restaurants~~13185
▁Baustelle~~13186
▁Nike~~13187
Schuh~~13188
▁witzig~~13189
▁Geldbörse~~13190
▁vorfinde~~13191
▁hinausgehen~~13192
▁Apple~~13193
LC~~13194
▁Analphabeten~~13195
▁Wochenende~~13196
▁initiiere~~13197
▁pragmatische~~13198
▁War~~13199
▁immense~~13200
ufwärts~~13201
bwärts~~13202
▁Mittelklasse~~13203
gesaugt~~13204
▁Verstehen~~13205
▁Schrö~~13206
gendorfer~~13207
Gregor~~13208
600~~13209
▁Kyros~~13210
Zylinder~~13211
zy~~13212
lin~~13213
kka~~13214
▁zerbrochen~~13215
▁Multi~~13216
▁spürt~~13217
östliche~~13218
▁Biographie~~13219
▁Rugby~~13220
▁getrocknet~~13221
▁187~~13222
▁Schlüsselrolle~~13223
▁Invasion~~13224
▁Truppen~~13225
pot~~13226
▁Regime~~13227
▁Episode~~13228
▁Belsazar~~13229
▁Parallel~~13230
▁Rembrandt~~13231
▁Propheten~~13232
ez~~13233
▁Jerusalem~~13234
brand~~13235
schatz~~13236
▁Juden~~13237
▁Babel~~13238
▁Gefäße~~13239
plünder~~13240
▁golden~~13241
mahl~~13242
▁holt~~13243
gefäß~~13244
▁König~~13245
▁Feierlichkeit~~13246
▁jüdische~~13247
▁Volks~~13248
▁Men~~13249
▁Alltags~~13250
▁Babylon~~13251
▁Mittelmeer~~13252
▁reichte~~13253
geleitet~~13254
▁irakische~~13255
gestürzt~~13256
formulier~~13257
▁verfasst~~13258
gegen~~13259
bertreibung~~13260
Berater~~13261
▁versklav~~13262
länder~~13263
▁Statuen~~13264
▁Altar~~13265
▁wiederauf~~13266
▁Chron~~13267
ückkehr~~13268
▁Judentum~~13269
▁Verschiebung~~13270
▁Darius~~13271
religiös~~13272
format~~13273
▁verwalte~~13274
▁Angewohnheit~~13275
▁Vorbild~~13276
▁Alexander~~13277
▁absoluten~~13278
▁Cyr~~13279
ob~~13280
▁nachfolgende~~13281
rbietung~~13282
▁heterogen~~13283
▁Gründung~~13284
▁Jefferson~~13285
▁18.~~13286
▁Reichen~~13287
▁Ruin~~13288
▁baby~~13289
▁19.~~13290
▁hebräische~~13291
▁Geologie~~13292
▁erschüttert~~13293
▁Mar~~13294
duk~~13295
▁veranlasst~~13296
mütig~~13297
fass~~13298
▁Testament~~13299
▁Jehova~~13300
▁priest~~13301
bernahme~~13302
▁deutet~~13303
▁angedeute~~13304
▁agiert~~13305
17~~13306
four~~13307
klar~~13308
▁imperial~~13309
▁Osteuropa~~13310
▁1918~~13311
▁Imperial~~13312
▁Münzen~~13313
▁prägen~~13314
Dynast~~13315
▁Gar~~13316
▁islamische~~13317
▁angreif~~13318
lebenswichtig~~13319
▁Moslem~~13320
Mo~~13321
▁from~~13322
▁naheliegend~~13323
▁übertriff~~13324
▁Verteidig~~13325
▁tolerant~~13326
▁Unterdrückte~~13327
net~~13328
wühlen~~13329
▁Rhetorik~~13330
▁oberste~~13331
Magna~~13332
▁Charta~~13333
▁Rep~~13334
▁Herbst~~13335
▁ausgedrückt~~13336
▁schrill~~13337
▁weise~~13338
▁Joshua~~13339
▁Krähen~~13340
▁Hacker~~13341
▁Erforschung~~13342
vögel~~13343
▁Alfred~~13344
▁Hitchcock~~13345
▁Snack~~13346
automat~~13347
▁Cocktail~~13348
party~~13349
▁beschwerte~~13350
▁wimmelt~~13351
schwein~~13352
▁anrichtet~~13353
▁Viecher~~13354
nordnung~~13355
▁blöde~~13356
▁behauptete~~13357
▁ärgert~~13358
▁weiterlebe~~13359
anthrop~~13360
▁Kakerlaken~~13361
▁Gegenzug~~13362
▁Parasiten~~13363
range~~13364
chte~~13365
▁anpassungsfähig~~13366
spitze~~13367
▁brüten~~13368
zig~~13369
zählung~~13370
▁deuten~~13371
▁exponentielle~~13372
led~~13373
▁Stöckchen~~13374
▁Holzstück~~13375
▁Röhrchen~~13376
▁Draht~~13377
▁passte~~13378
▁spontan~~13379
löcher~~13380
▁lästig~~13381
▁eingefangen~~13382
▁fortsetz~~13383
▁Sommerferien~~13384
▁feststellte~~13385
▁leg~~13386
▁bedeutsame~~13387
▁urban~~13388
▁verschlossen~~13389
▁Ampel~~13390
▁geknackt~~13391
▁Nuss~~13392
▁knack~~13393
endai~~13394
▁Vorort~~13395
▁Krähe~~13396
treue~~13397
▁Pandora~~13398
▁flexibel~~13399
▁Skinner~~13400
▁Kondition~~13401
▁Stufen~~13402
uszubilden~~13403
Erdnüsse~~13404
▁hüpfen~~13405
wegfliegen~~13406
spuckt~~13407
▁vorbeikomm~~13408
▁besorg~~13409
▁zurückkommen~~13410
▁Münz~~13411
▁tie~~13412
▁langweil~~13413
hüpf~~13414
▁erfreut~~13415
▁Monopol~~13416
geld~~13417
▁Rendite~~13418
▁Stadion~~13419
rang~~13420
▁Hauptsache~~13421
▁beiderseit~~13422
▁Logan~~13423
▁Stämmen~~13424
▁Business~~13425
USC~~13426
▁Führerschein~~13427
▁Stammes~~13428
neigung~~13429
wälzen~~13430
▁Bowl~~13431
right~~13432
▁bemerkten~~13433
▁Partie~~13434
räte~~13435
sprochen~~13436
▁Relevanz~~13437
▁Budweiser~~13438
▁Hilar~~13439
▁Clinton~~13440
mination~~13441
agte~~13442
▁Trichter~~13443
present~~13444
▁befragt~~13445
▁Parteien~~13446
▁Tue~~13447
▁Obama~~13448
▁auftretende~~13449
▁Gruppierung~~13450
▁zoom~~13451
▁sähe~~13452
▁Virgin~~13453
▁Tech~~13454
▁systematisch~~13455
▁beschissen~~13456
▁Law~~13457
▁Performance~~13458
▁Za~~13459
▁entspring~~13460
▁Feindseligkeit~~13461
▁Fahrzeug~~13462
▁schwärm~~13463
▁Mein~~13464
▁spräche~~13465
brächte~~13466
▁weltverändernde~~13467
▁null~~13468
▁konkurrieren~~13469
▁hervorgeh~~13470
▁Aufzug~~13471
jour~~13472
▁Lächeln~~13473
▁herablassend~~13474
ährend~~13475
schä~~13476
▁Robotern~~13477
programm~~13478
▁lachte~~13479
▁klopfte~~13480
▁hmm~~13481
▁Zapp~~13482
Weihnachten~~13483
▁Weihnachtsbaum~~13484
▁Flur~~13485
▁Call~~13486
center~~13487
▁Dekoration~~13488
▁applaudiere~~13489
▁applaud~~13490
▁Sei~~13491
zentriert~~13492
▁Größere~~13493
berschrift~~13494
▁zusammenpassen~~13495
mond~~13496
utu~~13497
▁Wegweiser~~13498
▁noble~~13499
▁Auseinandersetz~~13500
[...]
