<unk>	0
<s>	0
</s>	0
▁,	-2.93542
▁.	-3.084
s	-3.4824
▁the	-3.89146
;	-4.02405
▁&	-4.04818
▁and	-4.40408
▁in	-4.43367
▁	-4.5004
▁und	-4.52614
apos	-4.52689
▁to	-4.5318
▁die	-4.57609
n	-4.62507
▁a	-4.64376
▁of	-4.66004
en	-4.81382
▁that	-4.87751
▁i	-4.91348
▁sie	-4.96431
▁das	-4.98864
▁it	-5.0037
▁ich	-5.04214
quot	-5.05644
▁der	-5.06102
▁you	-5.10837
▁ist	-5.12952
▁we	-5.172
y	-5.1771
▁es	-5.19453
▁wir	-5.20042
▁is	-5.20928
▁so	-5.28759
ed	-5.29425
▁zu	-5.31669
ing	-5.33151
t	-5.35888
▁was	-5.41817
▁thi	-5.44449
▁?	-5.53398
ly	-5.54144
-	-5.59323
▁ein	-5.60437
▁eine	-5.66066
▁an	-5.73386
▁diese	-5.75548
▁be	-5.75655
▁nicht	-5.76918
▁von	-5.78752
▁:	-5.79062
▁--	-5.87915
▁den	-5.89518
▁dass	-5.90551
d	-5.94395
m	-5.95365
▁on	-5.9566
▁mit	-5.96783
▁for	-5.98987
▁auf	-6.03823
▁are	-6.05671
▁wie	-6.05993
▁what	-6.06736
▁have	-6.07213
▁but	-6.118
▁man	-6.14262
▁with	-6.15035
e	-6.16798
▁sich	-6.19612
▁can	-6.20363
▁sind	-6.22997
▁aber	-6.24228
▁all	-6.26218
▁haben	-6.27113
▁für	-6.27407
r	-6.29055
▁wenn	-6.31479
▁also	-6.31502
▁there	-6.3272
▁about	-6.32723
▁war	-6.34945
re	-6.36028
▁als	-6.41435
▁do	-6.42662
▁er	-6.44364
▁at	-6.4464
▁one	-6.45578
▁not	-6.45864
▁um	-6.48382
er	-6.51573
▁my	-6.54698
▁im	-6.57303
▁people	-6.59744
▁like	-6.59867
▁he	-6.60522
▁from	-6.6528
▁if	-6.65807
▁as	-6.65833
▁dem	-6.65941
▁now	-6.68024
▁aus	-6.72105
▁uns	-6.73081
▁hier	-6.73399
▁these	-6.7377
▁just	-6.74329
▁können	-6.74347
▁einen	-6.75915
▁des	-6.77924
▁über	-6.81018
▁werden	-6.82326
▁hat	-6.82638
▁our	-6.82704
▁or	-6.84034
cause	-6.85036
▁oder	-6.85902
▁when	-6.85953
▁think	-6.86346
▁me	-6.8653
▁us	-6.86926
▁know	-6.8757
▁how	-6.88133
▁out	-6.88639
▁kann	-6.90823
very	-6.92432
▁up	-6.94107
▁auch	-6.94212
▁by	-6.95398
▁see	-6.97376
▁einer	-6.97415
.	-6.97708
▁sehr	-6.97845
▁some	-6.97962
▁going	-6.99216
▁here	-6.99729
▁dann	-6.99739
▁etwa	-7.00762
▁them	-7.02182
▁get	-7.02329
▁einem	-7.02751
▁nur	-7.02885
▁year	-7.02925
▁more	-7.03953
▁–	-7.04722
▁had	-7.0523
ve	-7.0527
▁look	-7.05407
▁wird	-7.05793
▁ihre	-7.06708
▁which	-7.07832
▁will	-7.07904
▁gibt	-7.08262
es	-7.08573
▁sein	-7.08838
▁your	-7.09218
▁would	-7.09514
▁ihnen	-7.1016
▁mich	-7.10441
▁nach	-7.10645
▁menschen	-7.11015
▁want	-7.11282
▁who	-7.1209
▁were	-7.13321
▁meine	-7.13413
▁their	-7.16427
▁go	-7.16527
▁sehen	-7.16927
▁vor	-7.19205
▁world	-7.20371
▁time	-7.21133
▁has	-7.22092
▁habe	-7.22264
▁no	-7.22508
▁noch	-7.23047
▁actual	-7.23142
▁da	-7.24136
▁don	-7.2757
▁other	-7.27816
▁mir	-7.30394
▁into	-7.31474
▁well	-7.33217
▁bei	-7.33743
▁did	-7.33854
▁way	-7.34413
▁could	-7.34566
▁alle	-7.35117
▁where	-7.36395
▁mehr	-7.3767
▁things	-7.37832
▁welt	-7.40603
▁am	-7.42069
▁real	-7.42745
▁every	-7.42844
▁unsere	-7.43924
▁right	-7.44998
▁then	-7.45187
▁make	-7.45458
▁said	-7.45714
▁nun	-7.46057
▁leben	-7.46782
▁say	-7.46786
▁new	-7.48015
▁keine	-7.48899
▁wirklich	-7.49938
▁ihr	-7.49977
▁start	-7.50535
▁she	-7.50777
▁würde	-7.50816
▁wurde	-7.50939
▁machen	-7.51569
▁weil	-7.51604
▁take	-7.51732
▁zum	-7.51992
▁two	-7.52584
▁need	-7.53699
something	-7.53816
▁kind	-7.53866
▁been	-7.55273
▁durch	-7.55384
▁first	-7.55482
▁t	-7.56483
▁work	-7.57341
▁wissen	-7.60517
▁tun	-7.60788
▁immer	-7.60791
▁andere	-7.6087
▁wo	-7.61399
▁sagte	-7.61516
▁viel	-7.61557
▁thing	-7.61966
▁call	-7.62644
▁jetzt	-7.62829
▁art	-7.62932
▁little	-7.63695
▁than	-7.64747
▁got	-7.65146
▁come	-7.65863
▁over	-7.66559
▁his	-7.68043
▁back	-7.68565
▁problem	-7.68645
▁hatte	-7.68753
▁dinge	-7.68775
▁most	-7.68857
▁much	-7.6944
▁lot	-7.70522
▁bis	-7.71043
▁talk	-7.71121
▁zeit	-7.7117
a	-7.71879
▁life	-7.72176
▁viele	-7.72242
▁du	-7.72589
▁einfach	-7.73161
▁zwei	-7.73179
▁leute	-7.74019
▁reall	-7.74258
▁her	-7.74834
ll	-7.75784
▁-	-7.75846
▁any	-7.77229
▁good	-7.77407
▁even	-7.80132
▁bin	-7.80768
▁sagen	-7.81018
hose	-7.81125
▁does	-7.82101
▁selbst	-7.83202
▁dies	-7.85255
▁müssen	-7.86182
▁denn	-7.86959
▁many	-7.87615
▁waren	-7.87723
▁why	-7.88295
▁alles	-7.88903
▁jahren	-7.89589
▁use	-7.89721
▁different	-7.89814
▁down	-7.90167
▁let	-7.9049
▁mein	-7.91351
▁diesen	-7.91751
▁einige	-7.92144
ies	-7.92376
around	-7.92689
▁seine	-7.93827
▁change	-7.9396
▁gut	-7.94122
▁through	-7.94351
in	-7.94579
▁show	-7.94952
▁anderen	-7.96117
▁damit	-7.96314
▁great	-7.97262
day	-7.97363
▁mean	-7.97508
▁give	-7.98086
▁vielleicht	-7.98697
▁mal	-7.99042
▁ganz	-8.00581
st	-8.00637
▁three	-8.0147
▁zur	-8.0178
▁jahre	-8.02637
▁geht	-8.02667
▁put	-8.03009
▁system	-8.03204
▁same	-8.03668
▁being	-8.05388
▁wieder	-8.05522
▁ja	-8.0629
▁un	-8.07057
▁try	-8.07156
▁ob	-8.07644
▁muss	-8.08222
▁design	-8.08861
▁kleine	-8.09156
▁tell	-8.09645
▁doing	-8.10419
heute	-8.10589
▁schon	-8.1221
▁warum	-8.12267
▁möchte	-8.12855
▁day	-8.13722
▁part	-8.14702
▁tatsächlich	-8.16229
▁10	-8.17331
▁percent	-8.17647
▁20	-8.18145
▁ge	-8.19041
▁macht	-8.19065
▁made	-8.19464
▁information	-8.19703
▁geschichte	-8.19705
▁konnte	-8.1996
▁human	-8.20412
▁ab	-8.21571
▁person	-8.22139
▁after	-8.22442
▁drei	-8.22906
▁kinder	-8.22993
▁welche	-8.23106
ung	-8.23496
▁davon	-8.23621
▁dort	-8.24278
▁happen	-8.24429
▁ganze	-8.24434
▁last	-8.24986
one	-8.25377
other	-8.25438
▁big	-8.25488
▁genau	-8.25519
dem	-8.26397
▁should	-8.27323
▁denken	-8.27324
▁fact	-8.28033
▁find	-8.2813
▁land	-8.29103
body	-8.29112
▁him	-8.2918
▁own	-8.29538
▁paar	-8.29597
▁ihn	-8.3
▁thought	-8.30793
▁könnte	-8.30992
▁ask	-8.31068
▁werde	-8.31111
▁kein	-8.31363
▁hatten	-8.31524
▁idea	-8.32295
▁gehen	-8.33387
▁jahr	-8.33508
▁darüber	-8.34342
0	-8.34359
▁important	-8.3449
▁lassen	-8.34556
▁thank	-8.35258
▁gab	-8.3565
▁before	-8.35859
▁never	-8.36054
▁again	-8.36284
▁unter	-8.36615
▁wollen	-8.36844
▁moment	-8.37059
▁course	-8.37671
▁nie	-8.37998
▁beispiel	-8.38186
▁live	-8.3855
▁weg	-8.38708
▁story	-8.38939
▁meiner	-8.39194
▁zurück	-8.39707
▁point	-8.39803
▁computer	-8.39897
▁wollte	-8.40022
▁wenig	-8.40081
▁teil	-8.40341
▁weiter	-8.40644
▁love	-8.41394
▁je	-8.41732
▁long	-8.41928
▁bit	-8.42111
▁still	-8.42212
▁off	-8.4233
went	-8.42559
▁end	-8.42594
▁natürlich	-8.42954
▁wurden	-8.4331
▁jeder	-8.43486
▁better	-8.43503
▁example	-8.44589
▁next	-8.44729
▁brain	-8.44913
▁hand	-8.45286
▁neue	-8.45317
▁große	-8.45453
▁sort	-8.45541
▁während	-8.45787
▁play	-8.4589
o	-8.46193
▁denke	-8.46198
ally	-8.46431
h	-8.46531
▁million	-8.46589
▁help	-8.47062
▁weiß	-8.47069
▁okay	-8.4713
▁erste	-8.47166
▁gemacht	-8.47183
▁ago	-8.47529
▁create	-8.47561
▁frage	-8.47618
▁glaube	-8.47741
▁form	-8.47884
▁place	-8.4796
▁...	-8.48129
▁tag	-8.48217
▁few	-8.48714
▁kommen	-8.48903
▁might	-8.49004
al	-8.49956
▁dazu	-8.50139
▁came	-8.50179
▁technology	-8.50331
▁wäre	-8.50987
▁unser	-8.51094
▁together	-8.51602
▁each	-8.5166
▁gerade	-8.51735
▁doch	-8.51974
▁water	-8.52002
▁al	-8.5213
▁zwischen	-8.52619
▁vom	-8.52787
▁unserer	-8.52957
us	-8.53221
▁school	-8.53555
▁ok	-8.53639
▁question	-8.539
▁sogar	-8.54095
▁ersten	-8.54356
▁second	-8.54692
▁ohne	-8.54784
▁finden	-8.55205
▁zusammen	-8.5556
▁einmal	-8.55582
▁1	-8.5567
▁able	-8.55959
▁geben	-8.56478
▁b	-8.56682
▁arbeit	-8.57
▁prozent	-8.57315
▁ver	-8.57316
▁hätte	-8.57431
▁learn	-8.57449
▁ging	-8.5765
▁kommt	-8.57769
▁between	-8.57911
▁too	-8.5844
▁found	-8.58954
▁eigene	-8.58984
▁sondern	-8.59208
▁dafür	-8.59278
▁passiert	-8.59467
▁zeigen	-8.59521
▁ihrer	-8.60139
▁sagt	-8.60871
▁per	-8.61793
▁jede	-8.6205
▁become	-8.62224
▁four	-8.63061
▁believe	-8.63148
▁whole	-8.63203
▁done	-8.63251
▁200	-8.63417
▁understand	-8.63801
▁maybe	-8.64167
▁verstehen	-8.64381
▁internet	-8.6441
▁oh	-8.64411
▁guy	-8.64764
▁data	-8.64917
▁meisten	-8.64983
▁children	-8.65006
▁30	-8.65258
▁jemand	-8.66099
ht	-8.66281
▁daran	-8.66639
▁millionen	-8.66777
▁vielen	-8.66945
▁wasser	-8.67049
▁dachte	-8.67066
▁50	-8.6719
▁old	-8.67263
ther	-8.67369
▁sollte	-8.68604
▁ted	-8.69343
▁may	-8.69538
▁stellen	-8.69627
ok	-8.69668
▁idee	-8.69928
▁building	-8.6999
able	-8.70052
▁fast	-8.70294
▁ziemlich	-8.70503
▁wichtig	-8.70524
▁five	-8.71017
▁high	-8.71326
▁feel	-8.71634
▁besser	-8.71872
▁bring	-8.72047
▁heraus	-8.72047
▁dollar	-8.72136
▁nehmen	-8.7223
▁always	-8.72629
▁power	-8.72699
▁geld	-8.72754
▁space	-8.72788
▁bild	-8.72905
▁project	-8.73061
▁picture	-8.73094
▁fall	-8.73728
▁cell	-8.7382
▁letzten	-8.73931
▁everything	-8.74022
▁ever	-8.74088
▁light	-8.74369
▁sprechen	-8.74622
▁video	-8.74629
▁money	-8.74772
▁dabei	-8.75072
▁women	-8.75175
k	-8.75887
▁turn	-8.76156
▁small	-8.76237
▁gute	-8.7654
▁basic	-8.76589
▁reason	-8.77387
▁danke	-8.77606
▁frauen	-8.77727
▁kids	-8.77736
▁sollten	-8.77836
▁fragen	-8.77961
▁number	-8.78133
▁china	-8.78322
on	-8.78631
▁bekommen	-8.78799
▁könnten	-8.78806
▁country	-8.78817
▁working	-8.78874
▁arbeiten	-8.78958
▁kam	-8.79001
▁food	-8.79225
c	-8.79578
▁name	-8.80303
▁100	-8.80783
le	-8.81059
▁darauf	-8.81294
▁move	-8.81487
▁19	-8.81958
▁ende	-8.82026
▁home	-8.82126
▁gehirn	-8.82138
▁word	-8.82278
▁open	-8.8234
▁möglich	-8.82584
▁eigentlich	-8.82676
▁k	-8.82784
▁global	-8.82808
▁sache	-8.82893
▁verschiedene	-8.83456
▁vier	-8.84032
▁technologie	-8.84309
▁best	-8.84777
▁health	-8.84858
▁daten	-8.85331
▁car	-8.85459
▁half	-8.85598
▁stand	-8.85804
▁interesting	-8.86081
▁pro	-8.86092
▁left	-8.86249
quite	-8.86368
▁meinen	-8.86845
▁future	-8.86986
▁experience	-8.86997
▁u	-8.87549
▁probabl	-8.87836
▁15	-8.88072
▁lernen	-8.88099
▁wahrscheinlich	-8.88399
▁th	-8.88873
▁sense	-8.88912
▁science	-8.89034
▁case	-8.89091
▁energy	-8.89144
▁glauben	-8.89243
▁hard	-8.89417
▁gegen	-8.8942
▁begann	-8.89469
▁seit	-8.89485
making	-8.89562
▁normal	-8.89675
▁enough	-8.89678
▁times	-8.89731
ic	-8.89772
▁grund	-8.90838
▁earth	-8.90895
▁bedeutet	-8.90949
▁richtig	-8.90978
▁simple	-8.91722
▁without	-8.91741
▁africa	-8.91925
▁gesehen	-8.92148
▁city	-8.922
▁ihm	-8.92228
▁brauchen	-8.92499
▁raum	-8.927
erweise	-8.93172
▁stuff	-8.9324
▁seite	-8.93925
te	-8.94099
▁g	-8.9421
▁less	-8.94466
▁group	-8.9463
▁nein	-8.94711
91	-8.94727
▁large	-8.94791
▁process	-8.94988
▁film	-8.95139
▁social	-8.95451
▁develop	-8.955
▁student	-8.95799
▁hin	-8.96148
▁jedes	-8.96169
▁musste	-8.96186
▁billion	-8.9637
ever	-8.96438
▁großen	-8.96802
▁else	-8.97289
▁w	-8.97343
▁menge	-8.9745
▁dollars	-8.97519
▁beide	-8.97561
▁pretty	-8.97642
▁answer	-8.97646
▁business	-8.98255
93;	-8.98355
▁möglichkeit	-8.98448
ld	-8.98448
▁anything	-8.98474
▁side	-8.98613
▁room	-8.9864
▁versuchen	-8.9865
▁fünf	-8.98672
▁gett	-8.98814
▁sicher	-8.98947
▁weise	-8.98973
schen	-8.99118
ion	-8.99351
▁bringen	-8.99722
▁york	-9.00486
▁body	-9.0065
▁grow	-9.00764
▁unseren	-9.0102
▁imagine	-9.01138
▁such	-9.01441
i	-9.01556
▁job	-9.01722
▁bad	-9.01835
where	-9.02111
▁planet	-9.02367
▁build	-9.02481
▁jeden	-9.02592
▁coming	-9.02597
▁line	-9.02729
▁keep	-9.02778
▁sei	-9.02824
▁image	-9.02959
▁heiß	-9.03037
▁zukunft	-9.03116
th	-9.03212
▁frau	-9.03245
▁patient	-9.03325
▁zeigt	-9.03386
▁körper	-9.03417
▁face	-9.03714
▁model	-9.03736
▁lange	-9.03757
▁2	-9.04525
▁piece	-9.04653
▁c	-9.04711
ity	-9.04848
▁week	-9.05058
▁seem	-9.05498
▁area	-9.06046
▁across	-9.06165
▁später	-9.06324
▁nutzen	-9.06374
▁energie	-9.06418
5	-9.06457
▁under	-9.06508
▁yet	-9.06563
▁gesagt	-9.06719
▁einzige	-9.06846
est	-9.0694
▁living	-9.06981
▁wer	-9.07382
▁close	-9.07466
▁mind	-9.07475
▁saw	-9.07496
▁once	-9.07712
▁experiment	-9.07728
▁complete	-9.07897
▁ungefähr	-9.0812
▁erde	-9.0818
▁far	-9.08455
▁inside	-9.08721
▁six	-9.08918
▁countries	-9.09043
▁gleich	-9.09049
▁funktioniert	-9.09098
keit	-9.09133
▁top	-9.09601
▁hav	-9.10408
▁schauen	-9.10443
▁schnell	-9.10567
mals	-9.10847
▁familie	-9.10991
▁3	-9.11028
▁family	-9.11056
▁care	-9.11157
▁40	-9.11217
▁mutter	-9.11231
▁allow	-9.11375
▁dank	-9.11422
▁beim	-9.11606
▁ort	-9.12188
ce	-9.123
▁team	-9.12316
▁essen	-9.12359
wohl	-9.12479
▁schaffen	-9.1249
▁remember	-9.12609
▁level	-9.12687
▁government	-9.12719
▁seen	-9.1288
▁young	-9.12969
▁interest	-9.1297
away	-9.13077
▁particular	-9.13106
▁seiner	-9.13161
▁lives	-9.13258
▁set	-9.13521
▁nichts	-9.14173
▁happens	-9.14242
ation	-9.14281
▁single	-9.14362
▁wissenschaft	-9.14594
▁book	-9.14647
▁machine	-9.14664
▁later	-9.14763
um	-9.14839
▁watch	-9.14925
▁test	-9.1547
▁walk	-9.15481
▁child	-9.15495
▁spielen	-9.15719
▁lang	-9.15735
▁while	-9.15843
▁anders	-9.15948
▁nothing	-9.16053
▁probleme	-9.16095
▁almost	-9.162
▁unit	-9.16321
ose	-9.16446
halb	-9.16453
▁head	-9.1674
▁cancer	-9.16771
▁sah	-9.1684
▁erzählen	-9.16887
▁american	-9.17325
▁wrong	-9.17341
▁problems	-9.17365
▁licht	-9.17415
l	-9.1781
▁makes	-9.18041
▁both	-9.18062
▁language	-9.18793
▁sure	-9.19191
▁rest	-9.19279
▁anfang	-9.19614
▁natur	-9.19629
▁hoch	-9.19773
▁entwickelt	-9.19783
▁thousand	-9.19847
▁gleiche	-9.1999
ness	-9.20069
▁gott	-9.20306
▁liebe	-9.20395
▁hope	-9.20437
▁situation	-9.20467
▁states	-9.20506
▁cost	-9.20556
▁mann	-9.2078
▁genug	-9.21012
▁final	-9.21159
▁days	-9.2122
b	-9.21286
▁ideas	-9.21316
▁age	-9.21327
▁helfen	-9.21512
▁read	-9.21545
▁certain	-9.21639
▁true	-9.21796
ready	-9.22
▁dna	-9.22088
▁history	-9.22368
▁matter	-9.22415
▁study	-9.2252
▁self	-9.226
▁überall	-9.22995
▁music	-9.23069
▁nächsten	-9.23145
▁beautiful	-9.23435
▁figure	-9.23698
▁universe	-9.23788
▁god	-9.23868
▁stadt	-9.23989
▁ideen	-9.24029
▁exact	-9.24513
▁disease	-9.24514
chmal	-9.24599
2	-9.24631
▁neuen	-9.24844
▁bilder	-9.24898
▁material	-9.24939
▁run	-9.25024
▁amazing	-9.25135
▁house	-9.25315
▁yes	-9.25772
▁saying	-9.2583
▁afrika	-9.25942
▁nature	-9.26135
▁buch	-9.26153
▁euch	-9.27184
▁possible	-9.27236
▁yea	-9.27272
▁control	-9.27412
til	-9.27485
▁nächste	-9.27498
▁heard	-9.27757
▁order	-9.27757
▁projekt	-9.27953
liegt	-9.28154
▁kennen	-9.28228
▁25	-9.28317
▁milliarden	-9.28534
▁india	-9.28553
▁bauen	-9.28556
▁erst	-9.28561
▁difference	-9.28957
▁niemand	-9.29276
▁reden	-9.29338
ie	-9.29349
▁gehört	-9.29496
▁often	-9.29512
▁force	-9.29657
▁punkt	-9.29709
▁research	-9.29775
▁state	-9.29842
▁gar	-9.30191
▁bevor	-9.30319
▁mother	-9.30407
▁ways	-9.30452
▁mov	-9.31084
stead	-9.31214
▁share	-9.31326
▁months	-9.31345
▁sometimes	-9.31566
▁couple	-9.31574
▁letzte	-9.31577
▁klar	-9.31659
▁stop	-9.31761
▁spend	-9.31807
an	-9.31969
▁planeten	-9.32005
▁environment	-9.32031
▁since	-9.3206
▁middle	-9.32082
▁national	-9.32091
▁mädchen	-9.32132
▁sechs	-9.32234
▁lebens	-9.32455
▁usa	-9.3246
▁market	-9.32542
▁built	-9.32615
▁discover	-9.33032
▁realize	-9.33076
▁18	-9.33091
▁tat	-9.33182
▁verändern	-9.332
▁braucht	-9.33202
▁whe	-9.33452
▁decided	-9.33514
▁schule	-9.33523
▁innovation	-9.33565
▁revolution	-9.33653
00	-9.3369
▁nennen	-9.33691
▁menschliche	-9.33756
▁solche	-9.34304
▁sound	-9.34316
▁besonder	-9.34344
▁education	-9.3437
▁air	-9.3451
▁natural	-9.34755
▁third	-9.34917
z	-9.34932
▁myself	-9.35032
▁entire	-9.35127
▁weit	-9.3518
▁12	-9.35271
▁neu	-9.35464
▁80	-9.35555
▁augen	-9.35633
▁heart	-9.35655
▁community	-9.3568
▁auto	-9.35863
▁leuten	-9.35871
▁hundred	-9.35979
way	-9.36214
▁arten	-9.36248
▁co	-9.363
is	-9.36305
taking	-9.36541
▁issue	-9.36594
▁species	-9.36723
ten	-9.36734
▁public	-9.36988
▁must	-9.3736
▁daru	-9.37471
▁center	-9.37556
▁quick	-9.37748
▁individual	-9.38144
▁machte	-9.3823
▁männer	-9.38267
▁green	-9.38433
▁musik	-9.3844
▁antwort	-9.38471
▁hören	-9.38478
▁stories	-9.38815
▁follow	-9.38844
▁re	-9.38884
▁minuten	-9.38886
▁america	-9.38914
▁kurz	-9.39044
▁front	-9.39075
▁studie	-9.39159
▁oil	-9.39206
lich	-9.39237
▁weitere	-9.39332
▁recht	-9.39394
▁though	-9.39466
▁erreichen	-9.39745
▁stehen	-9.3982
▁words	-9.39848
▁evolution	-9.39964
▁online	-9.40144
▁benutzen	-9.4037
▁erfahrung	-9.407
▁total	-9.40717
▁einzelne	-9.40791
▁kunst	-9.409
▁happy	-9.4098
▁ourselves	-9.40987
▁hiv	-9.41005
▁leave	-9.41016
▁namens	-9.41178
▁men	-9.41405
▁huge	-9.41543
▁bereits	-9.41714
▁itself	-9.41733
setzen	-9.41738
came	-9.41873
▁los	-9.41885
▁indien	-9.41906
▁company	-9.42082
▁lösung	-9.4221
▁fähigkeit	-9.42253
▁generation	-9.42258
▁buy	-9.42336
▁gebäude	-9.42363
▁beginn	-9.42406
▁herum	-9.42456
▁halten	-9.42595
▁minutes	-9.42655
▁night	-9.42718
▁gesellschaft	-9.42858
▁oben	-9.42952
▁free	-9.42982
▁color	-9.43022
▁term	-9.43059
▁soll	-9.43118
▁allen	-9.43249
▁kopf	-9.43334
▁turns	-9.43616
▁teilen	-9.43679
▁region	-9.43739
▁woman	-9.43747
▁steht	-9.4383
▁unglaublich	-9.4392
▁game	-9.4433
▁dich	-9.44599
new	-9.44612
▁clear	-9.44858
▁themselves	-9.44898
▁pay	-9.44971
▁hear	-9.45011
▁rather	-9.45085
▁schwer	-9.45429
▁unternehmen	-9.45437
▁along	-9.45568
▁junge	-9.46072
▁animals	-9.46187
▁structure	-9.46262
▁happening	-9.46511
▁soziale	-9.46586
▁gefühl	-9.46595
▁darin	-9.46597
▁past	-9.46602
sten	-9.46665
▁focus	-9.46686
▁societ	-9.46772
▁population	-9.46808
▁act	-9.46933
man	-9.475
▁bigge	-9.47846
▁dur	-9.47847
▁versucht	-9.4785
▁places	-9.4816
▁lead	-9.48235
▁listen	-9.48421
▁dr	-9.48595
▁bitte	-9.48865
▁challenge	-9.48884
▁stellt	-9.48897
▁geschichten	-9.48945
▁erkennen	-9.49218
▁arm	-9.49528
▁wahr	-9.49544
▁ocean	-9.49546
▁irgendwie	-9.49557
▁wind	-9.49686
▁teacher	-9.4986
▁view	-9.49923
▁innerhalb	-9.49959
▁haus	-9.50091
▁full	-9.50215
em	-9.50649
▁de	-9.50938
▁hinter	-9.51048
▁vater	-9.5127
einander	-9.51581
▁chance	-9.51819
▁friends	-9.51851
▁wonderful	-9.51975
▁gave	-9.51979
▁learning	-9.51994
▁verbindung	-9.52047
gerne	-9.52085
▁gruppe	-9.52219
▁google	-9.52429
ern	-9.52526
haps	-9.52795
▁seven	-9.52802
▁opportunit	-9.52819
▁sage	-9.52837
▁hours	-9.52934
dessen	-9.52951
▁obvious	-9.53215
▁media	-9.53334
▁vorstelle	-9.53352
▁außer	-9.53401
▁plant	-9.53546
▁base	-9.53613
4	-9.53618
▁glück	-9.53771
▁object	-9.53801
den	-9.53973
▁won	-9.53984
▁groß	-9.54154
▁spiel	-9.54194
▁rule	-9.54266
▁bewegen	-9.54307
▁sprache	-9.54393
▁paper	-9.54467
▁works	-9.54548
▁patienten	-9.54636
▁explain	-9.54671
▁kill	-9.547
▁bewegung	-9.54738
▁web	-9.54801
▁wegen	-9.5496
▁interessant	-9.54965
▁e	-9.55064
▁creat	-9.55273
▁wait	-9.55291
▁absolute	-9.55331
▁difficult	-9.55501
▁early	-9.55576
▁cool	-9.55772
▁besten	-9.55841
▁dir	-9.5609
land	-9.56094
▁short	-9.56133
▁black	-9.56299
▁treffen	-9.56526
▁death	-9.56593
▁lage	-9.56666
▁fish	-9.56742
▁90	-9.56821
▁daher	-9.56846
▁deep	-9.57029
▁program	-9.57158
de	-9.57171
▁verändert	-9.57267
▁hause	-9.57277
▁erhalten	-9.57358
▁amount	-9.57649
▁baby	-9.57656
▁red	-9.57675
▁sex	-9.57681
▁pick	-9.57761
▁anzu	-9.57983
▁sachen	-9.58233
▁least	-9.58285
▁blue	-9.58296
▁century	-9.58413
▁freunde	-9.58673
▁beginnen	-9.58734
▁stunden	-9.58975
▁news	-9.59206
▁eight	-9.59255
▁verhalten	-9.59276
▁personal	-9.59332
▁fest	-9.59457
▁statt	-9.59474
▁stück	-9.59538
▁entwickeln	-9.59609
▁universum	-9.59673
▁fragte	-9.5996
▁ändern	-9.60061
▁outside	-9.60096
▁extreme	-9.60153
▁common	-9.60194
lässt	-9.60242
▁überhaupt	-9.60262
▁ei	-9.60296
▁menschlichen	-9.60296
nach	-9.60443
▁modern	-9.60452
▁behavior	-9.60521
▁software	-9.60603
▁z	-9.60607
▁krankheit	-9.60692
▁damals	-9.60823
▁angst	-9.61153
▁alt	-9.6117
▁falsch	-9.61212
▁local	-9.61343
▁tree	-9.61438
▁deal	-9.61444
▁wort	-9.61456
▁questions	-9.61476
▁lehrer	-9.61574
▁father	-9.61599
▁zweite	-9.61657
▁beginning	-9.61737
▁audience	-9.61821
▁david	-9.61835
as	-9.6186
▁feeling	-9.61884
geben	-9.61896
▁eltern	-9.62054
heit	-9.62122
▁länder	-9.62253
9	-9.62342
▁eat	-9.62398
▁labor	-9.62456
▁culture	-9.62477
▁easy	-9.62498
ry	-9.62621
▁kindern	-9.62637
▁poor	-9.62741
▁schreiben	-9.62796
▁ziel	-9.62831
▁kinds	-9.62918
▁produce	-9.63008
gebracht	-9.63302
▁relationship	-9.63413
▁pattern	-9.63427
▁entscheidung	-9.6347
▁regierung	-9.63521
▁drive	-9.63549
▁sea	-9.63706
▁regel	-9.6374
▁tut	-9.63774
▁systems	-9.63995
▁wert	-9.6401
▁exist	-9.64106
▁verwenden	-9.6417
▁manche	-9.64617
▁religion	-9.64669
▁roboter	-9.64688
mal	-9.64893
g	-9.64913
▁scale	-9.64925
ämlich	-9.65016
▁size	-9.65155
▁fand	-9.65232
▁struktur	-9.65241
ability	-9.65335
▁vision	-9.65628
▁nahm	-9.65861
▁general	-9.65883
▁acht	-9.65944
ous	-9.65974
▁yourself	-9.6605
▁digital	-9.66055
▁aller	-9.66109
▁glücklich	-9.66177
▁surface	-9.6621
▁version	-9.66267
▁begin	-9.66289
▁oft	-9.66311
doch	-9.66338
zustellen	-9.6641
▁behind	-9.66414
▁mag	-9.66453
▁getan	-9.66457
▁street	-9.66499
▁send	-9.66531
der	-9.66569
▁wenige	-9.66918
against	-9.66972
old	-9.66985
▁began	-9.67365
▁device	-9.67372
▁positive	-9.67476
▁perfect	-9.67597
▁klein	-9.67661
▁stage	-9.67756
▁potential	-9.67869
▁wohl	-9.68072
▁doctor	-9.68331
▁save	-9.68421
▁friend	-9.68533
3	-9.68603
▁schön	-9.68735
▁slow	-9.68812
▁powerful	-9.6883
year	-9.68882
▁unten	-9.68915
▁nation	-9.68918
▁economic	-9.69056
▁na	-9.69213
▁ground	-9.69274
▁unterschied	-9.69358
▁south	-9.69436
▁eyes	-9.69525
▁nimm	-9.69739
▁bekannt	-9.69822
▁present	-9.69871
▁beste	-9.70233
▁near	-9.70514
▁choice	-9.70516
▁nice	-9.70555
▁gas	-9.70688
▁canno	-9.70745
▁führt	-9.70817
▁entwicklung	-9.70838
▁falls	-9.70898
▁führen	-9.70902
▁add	-9.70938
ment	-9.70948
▁notice	-9.70948
▁phone	-9.71225
▁value	-9.71318
▁sun	-9.71411
▁zweiten	-9.71422
8	-9.7146
▁fühlen	-9.71508
▁sieben	-9.71562
gehen	-9.71687
▁movement	-9.71769
▁stay	-9.7177
▁luft	-9.71779
▁longer	-9.71808
▁tried	-9.71842
▁gemeinschaft	-9.71877
▁support	-9.72168
▁kamen	-9.72388
▁deine	-9.72462
▁krebs	-9.72574
▁white	-9.72628
▁sinn	-9.7263
▁richtige	-9.72805
▁lesen	-9.72815
▁zwa	-9.72867
▁resource	-9.72996
▁shape	-9.73058
▁eher	-9.73059
▁institution	-9.7306
▁bereit	-9.73246
▁wissenschaftler	-9.73275
▁richtung	-9.73389
▁pass	-9.73441
▁d	-9.73611
▁tiere	-9.73863
▁college	-9.74021
▁reach	-9.74037
▁parents	-9.7429
▁complex	-9.74552
▁incredible	-9.74553
▁risk	-9.74629
▁girl	-9.74834
u	-9.74858
▁betrachten	-9.74906
▁type	-9.75216
▁physical	-9.75287
▁auszu	-9.75312
▁animal	-9.75343
▁gedanken	-9.75478
▁direkt	-9.75489
▁code	-9.75537
▁hilfe	-9.75701
▁feet	-9.75847
▁gene	-9.75891
▁park	-9.76006
▁condition	-9.76087
▁tage	-9.76094
▁plan	-9.76206
▁bekam	-9.76211
▁chinese	-9.76323
▁staaten	-9.76425
▁kultur	-9.76466
▁cities	-9.76609
▁toward	-9.76647
▁publikum	-9.76878
▁seeing	-9.76896
▁cause	-9.77124
▁john	-9.77212
▁genauso	-9.77397
▁größte	-9.77448
▁erinnern	-9.77658
▁grunde	-9.77688
▁low	-9.7776
▁spen	-9.77923
▁allem	-9.77952
▁einfache	-9.77963
to	-9.77995
▁born	-9.78092
▁safe	-9.78111
▁fun	-9.78434
▁growth	-9.78498
so	-9.78694
▁lab	-9.78986
less	-9.79076
▁woche	-9.79095
▁speak	-9.79139
▁write	-9.79142
▁wonder	-9.79236
▁vorstellung	-9.79251
▁university	-9.79298
▁field	-9.79311
▁genannt	-9.79449
▁position	-9.79494
▁step	-9.79638
▁reality	-9.79644
▁boden	-9.79644
▁rate	-9.79684
▁treat	-9.7972
▁schwierig	-9.79747
▁jene	-9.79971
▁organization	-9.80079
▁shows	-9.80178
▁zahlen	-9.80184
schließlich	-9.80196
▁wirtschaft	-9.80245
▁plötzlich	-9.80309
erst	-9.8032
▁jungen	-9.80352
▁prozess	-9.80394
▁wusste	-9.80413
▁kaufen	-9.80444
▁sudden	-9.80572
▁moral	-9.80653
▁zellen	-9.8077
gone	-9.80838
▁hands	-9.80951
▁11	-9.80989
chen	-9.81032
▁political	-9.81045
▁herausforderung	-9.81134
▁stellte	-9.81282
rote	-9.81433
f	-9.81552
▁travel	-9.81672
▁alter	-9.81829
bringen	-9.81831
▁international	-9.81922
▁zehn	-9.81984
▁west	-9.82082
▁lost	-9.82101
▁hold	-9.8222
▁strong	-9.82237
▁mars	-9.82299
▁sollen	-9.8242
▁bottom	-9.82524
▁amerikanische	-9.8263
▁pull	-9.82768
▁schlecht	-9.82802
▁compani	-9.83028
▁sitt	-9.83081
▁zuvor	-9.83092
▁product	-9.83213
▁simpl	-9.83226
▁expect	-9.8332
▁felt	-9.83354
▁hospital	-9.83475
▁solar	-9.83581
▁4	-9.83602
▁cut	-9.83611
▁photograph	-9.83786
▁japan	-9.83826
▁page	-9.84016
▁designer	-9.84053
▁bestimmt	-9.84057
▁kosten	-9.84124
▁north	-9.84249
▁monate	-9.84451
▁frei	-9.84608
▁5	-9.84661
▁record	-9.84668
▁reihe	-9.84889
▁hohe	-9.84995
▁sterben	-9.85037
▁großartige	-9.85097
▁guten	-9.85132
▁kurze	-9.85209
▁schrieb	-9.8531
▁amerika	-9.85338
▁öl	-9.85486
▁fly	-9.85509
▁dark	-9.85591
▁meinung	-9.86073
▁bleiben	-9.86147
▁average	-9.86173
▁wochen	-9.86355
▁umwelt	-9.86495
▁o	-9.8659
▁lösen	-9.86605
▁gesundheit	-9.8665
▁virus	-9.8675
▁bessere	-9.86823
▁theory	-9.86914
▁thema	-9.86923
▁hast	-9.86984
▁blood	-9.87052
▁wären	-9.8707
▁freund	-9.87109
▁markt	-9.87145
▁jahrhundert	-9.8723
▁economy	-9.87312
▁schritt	-9.87567
▁scheint	-9.8762
▁wall	-9.87668
▁fliegen	-9.87753
aught	-9.879
▁books	-9.88041
▁wahrheit	-9.88214
▁erschaffen	-9.8823
fangen	-9.88279
▁post	-9.8833
▁mache	-9.88333
▁größer	-9.8856
▁völlig	-9.88674
▁besteht	-9.88813
▁stark	-9.88818
▁anderer	-9.88822
▁village	-9.88874
▁chris	-9.89014
ar	-9.89026
▁funktionieren	-9.89063
▁mensch	-9.89112
zu	-9.89157
▁wichtigste	-9.89207
▁ca	-9.8924
▁x	-9.89335
▁gefunden	-9.89349
▁gewesen	-9.89375
w	-9.89405
▁english	-9.89656
▁literal	-9.89718
▁continue	-9.89745
▁foto	-9.89755
tention	-9.89759
▁solve	-9.8981
▁fundamental	-9.89812
▁tages	-9.89842
▁tatsache	-9.89958
▁train	-9.9021
▁namen	-9.90213
▁benutzt	-9.90213
▁modell	-9.90225
rought	-9.90248
▁morning	-9.90253
▁verwendet	-9.90342
▁bereich	-9.90714
,000	-9.90745
▁entfernt	-9.90746
▁humans	-9.90786
tage	-9.90821
▁essential	-9.90853
▁result	-9.90858
▁leicht	-9.90888
▁minute	-9.90926
▁bill	-9.90953
▁links	-9.90993
▁super	-9.91003
▁miles	-9.9108
▁meter	-9.91113
▁guess	-9.91154
▁network	-9.91157
▁aussehen	-9.91186
▁touch	-9.91305
▁fight	-9.91331
▁bestimmte	-9.91398
▁draußen	-9.91455
▁increase	-9.91455
▁climate	-9.91471
▁kleiner	-9.91613
up	-9.91783
▁message	-9.91792
▁umgebung	-9.91825
▁kid	-9.91911
▁law	-9.92076
▁website	-9.92082
▁finger	-9.9221
▁please	-9.92399
▁map	-9.92479
ance	-9.92605
▁protect	-9.92612
▁passier	-9.92658
▁ice	-9.92812
▁forward	-9.92883
▁meet	-9.92885
▁box	-9.93094
▁scientists	-9.93229
▁office	-9.93411
▁afghanistan	-9.93596
▁measure	-9.93683
▁stelle	-9.93722
ought	-9.93847
▁500	-9.93914
▁morgen	-9.94059
▁laufen	-9.94164
▁geworden	-9.94247
giving	-9.94256
▁dead	-9.9434
▁14	-9.94354
selbe	-9.94391
▁smart	-9.9452
▁impact	-9.94534
▁runn	-9.9476
▁kraft	-9.94797
▁movie	-9.94881
▁main	-9.94905
▁similar	-9.94933
▁technik	-9.94944
▁access	-9.94947
▁museum	-9.95099
▁hey	-9.95134
▁möchten	-9.95193
▁unterschiedlich	-9.95248
▁autos	-9.95284
▁zahl	-9.95329
▁cover	-9.95334
▁theorie	-9.95358
▁gebaut	-9.95369
▁größten	-9.95372
▁knowledge	-9.95495
▁gezeigt	-9.95579
▁consider	-9.95663
▁led	-9.9575
▁reise	-9.95778
▁muster	-9.95821
▁mass	-9.95916
▁recently	-9.95987
▁wish	-9.96106
▁sehe	-9.96108
▁bildung	-9.96124
▁verbunden	-9.96151
▁herz	-9.96165
▁source	-9.96405
▁technologies	-9.96456
▁sell	-9.96532
▁connect	-9.96538
▁special	-9.96568
▁gern	-9.96642
▁darau	-9.96781
▁interessiert	-9.96817
▁development	-9.96859
▁fair	-9.96871
out	-9.96931
▁african	-9.96967
▁bist	-9.97081
▁nachdenken	-9.97152
▁weltweit	-9.97166
▁erklären	-9.97174
incredibly	-9.97376
▁egal	-9.97378
self	-9.97466
rew	-9.97505
▁bücher	-9.97535
▁anzahl	-9.97542
▁neben	-9.97544
▁ding	-9.97641
▁break	-9.97695
▁suchen	-9.9777
▁typ	-9.97801
▁industry	-9.9802
▁riesige	-9.98021
▁neues	-9.98078
▁gelernt	-9.98111
▁aufzu	-9.98214
▁offensichtlich	-9.98227
▁element	-9.98237
▁known	-9.98345
▁class	-9.9835
▁boy	-9.98407
▁key	-9.9857
▁non	-9.98624
▁action	-9.98683
▁hände	-9.98691
▁gemeinsam	-9.98721
▁organisation	-9.98725
▁krieg	-9.98763
▁met	-9.98768
▁bedeutung	-9.98803
▁effect	-9.98895
▁raise	-9.99017
▁aids	-9.99059
▁activit	-9.99106
▁teile	-9.99123
▁telling	-9.9927
▁numbers	-9.99305
▁jobs	-9.99485
▁medical	-9.99494
▁major	-9.99508
▁komplett	-9.9967
▁technologien	-9.99893
▁allein	-9.99924
▁stimme	-10.0006
▁bekommt	-10.0017
▁approach	-10.0023
▁truth	-10.0034
▁vortrag	-10.0037
▁tier	-10.0052
▁eye	-10.0084
▁motor	-10.0091
▁f	-10.0091
▁geboren	-10.0099
▁easi	-10.0099
el	-10.01
▁forschung	-10.0121
1	-10.0122
▁programm	-10.0131
▁london	-10.0146
▁platz	-10.0155
▁voice	-10.0162
zeit	-10.0176
▁tools	-10.0194
▁compassion	-10.0197
▁current	-10.0197
▁camera	-10.0207
▁sign	-10.0207
▁teach	-10.0217
▁9	-10.0225
▁tumor	-10.0228
▁richard	-10.0231
▁usual	-10.0233
▁song	-10.0249
▁sand	-10.0252
▁east	-10.0254
▁hab	-10.0256
▁größere	-10.0256
▁block	-10.0259
▁erzählt	-10.0265
▁availab	-10.0266
▁cars	-10.0271
▁sit	-10.0272
▁ländern	-10.0276
▁fear	-10.0277
▁bank	-10.0278
▁m	-10.0283
▁star	-10.0284
durch	-10.0285
▁rich	-10.0299
▁invent	-10.0315
▁ähnlich	-10.0331
▁solution	-10.0336
▁findet	-10.0341
▁bewusst	-10.0348
▁politische	-10.035
denkt	-10.0372
▁absolut	-10.0392
▁300	-10.0399
▁mitte	-10.0401
▁dog	-10.0403
▁fahren	-10.0405
▁private	-10.0406
mit	-10.0415
▁late	-10.0415
▁studenten	-10.0415
▁hoffnung	-10.0431
▁hole	-10.0436
▁erreicht	-10.0438
▁fing	-10.0438
▁serie	-10.0447
▁brachte	-10.0454
▁understanding	-10.0461
▁verloren	-10.0466
▁direct	-10.0467
▁nenn	-10.0473
▁san	-10.0476
▁gegenüber	-10.0477
changing	-10.0477
▁sprach	-10.0479
▁affect	-10.0486
ität	-10.049
▁gesamte	-10.0503
▁medien	-10.0506
▁stimmt	-10.0529
▁größe	-10.053
▁zero	-10.053
▁girls	-10.0534
▁event	-10.0535
▁happiness	-10.0542
▁hälfte	-10.0544
▁h	-10.0546
▁öffentliche	-10.0553
▁worth	-10.0561
▁robot	-10.0565
▁beyond	-10.0574
▁erfolg	-10.0579
▁fanden	-10.0593
utzu	-10.0602
▁europe	-10.0608
▁skin	-10.0615
▁nine	-10.0625
▁extra	-10.0626
alone	-10.0663
▁month	-10.0666
▁wichtige	-10.0673
▁vereinigte	-10.0683
▁rolle	-10.0692
▁arbeitet	-10.0698
pecially	-10.0702
▁road	-10.0702
▁formen	-10.0704
▁fehler	-10.0709
▁beziehung	-10.071
▁push	-10.0714
▁sonst	-10.072
▁games	-10.0722
▁wild	-10.0729
▁zeige	-10.0732
▁aufgabe	-10.0738
▁basis	-10.0739
▁evidence	-10.075
▁mögen	-10.0756
▁wahl	-10.0762
▁einzu	-10.0768
▁provide	-10.0777
▁fire	-10.0779
▁wann	-10.0788
▁scientific	-10.079
▁soon	-10.0795
▁p	-10.0814
▁alten	-10.0815
▁gegeben	-10.0819
▁among	-10.0822
▁bewegt	-10.0825
▁preis	-10.0826
▁square	-10.0831
▁hoffe	-10.0831
▁band	-10.0835
▁familien	-10.0846
▁sicherheit	-10.0852
nstatt	-10.0855
▁nacht	-10.0857
▁visual	-10.0864
▁somebod	-10.09
▁partner	-10.0912
▁genommen	-10.0914
ge	-10.0919
▁price	-10.093
▁several	-10.093
▁versuchte	-10.0933
▁gesicht	-10.0957
▁alte	-10.0958
▁übrigen	-10.096
▁veränderung	-10.0962
▁suggest	-10.0964
▁medicine	-10.0968
▁benefit	-10.0969
▁universität	-10.0998
▁represent	-10.1001
▁writing	-10.1012
▁früh	-10.1025
▁lose	-10.1032
▁dream	-10.1066
▁j	-10.1067
▁mission	-10.1095
▁lebt	-10.11
▁oberfläche	-10.1116
▁maschine	-10.1117
▁vorher	-10.1118
▁wasn	-10.1125
▁geschrieben	-10.1128
lichen	-10.1143
▁professor	-10.1154
▁speed	-10.1154
ste	-10.1161
▁training	-10.1165
▁fail	-10.117
ig	-10.1171
▁versuche	-10.1184
▁further	-10.1186
▁subject	-10.1202
hand	-10.1209
▁table	-10.1219
▁interessante	-10.1223
▁tausende	-10.1238
▁städte	-10.1246
▁meeting	-10.1246
tiny	-10.1258
▁ent	-10.1264
▁putting	-10.1265
deed	-10.1275
▁mittel	-10.1277
▁character	-10.1291
▁function	-10.1295
▁concept	-10.1296
▁realität	-10.1304
▁effective	-10.1308
▁kontrolle	-10.1314
▁ansehen	-10.1319
▁sofort	-10.1324
▁argument	-10.1326
▁search	-10.1336
▁treatment	-10.1336
▁specific	-10.1342
▁21	-10.1352
▁molecule	-10.1363
▁sprich	-10.1376
▁mitgefühl	-10.1379
▁anyway	-10.1382
▁materials	-10.139
▁kilometer	-10.1396
▁früher	-10.1397
▁künstler	-10.1402
be	-10.141
▁extraordinar	-10.1411
▁period	-10.1426
how	-10.1433
▁sonne	-10.1435
▁raus	-10.1442
▁bald	-10.1444
▁arbeitete	-10.1448
▁computers	-10.1448
▁ziehen	-10.1457
▁tragen	-10.1472
▁mom	-10.1476
▁journey	-10.1487
▁mine	-10.1492
▁original	-10.1496
▁überleben	-10.1498
▁wachsen	-10.15
▁ozean	-10.1505
▁bevölkerung	-10.1506
▁favorite	-10.1518
▁massive	-10.1521
▁aufmerksamkeit	-10.1526
▁successful	-10.1526
sch	-10.1532
▁radio	-10.1546
▁langsam	-10.1558
▁schlechte	-10.1561
▁echte	-10.1563
▁geschieht	-10.1564
▁europa	-10.1564
▁lieben	-10.1569
▁toll	-10.157
▁security	-10.1572
▁list	-10.1585
▁firma	-10.1591
▁l	-10.1601
▁papier	-10.1608
▁vergessen	-10.1612
▁traf	-10.1633
▁involve	-10.1634
▁store	-10.1637
▁länger	-10.1641
▁connection	-10.1644
▁stopp	-10.1645
ver	-10.1646
▁folgen	-10.1656
▁direction	-10.1667
▁13	-10.1667
▁blick	-10.1669
▁mental	-10.1674
▁carbon	-10.1679
▁recognize	-10.1679
▁exciting	-10.168
▁dritte	-10.1696
▁describe	-10.1704
▁flow	-10.1711
▁instrument	-10.172
▁haupt	-10.1724
▁passierte	-10.1727
▁finde	-10.1729
▁schneller	-10.1735
▁hit	-10.1748
age	-10.175
▁sorgen	-10.175
▁draw	-10.1751
▁plastic	-10.1759
system	-10.1775
▁pre	-10.1795
▁response	-10.1798
▁facebook	-10.1798
▁success	-10.1804
▁definition	-10.1804
▁finish	-10.1804
bald	-10.1807
▁unglaubliche	-10.1826
▁gerät	-10.1827
.000	-10.1835
▁necessar	-10.1837
▁ergebnis	-10.1842
▁hour	-10.1844
▁millions	-10.1845
▁sounds	-10.1846
▁globale	-10.1849
▁großartig	-10.1858
▁throw	-10.188
▁pflanzen	-10.1882
▁laptop	-10.1883
▁trust	-10.1884
▁link	-10.1892
▁straße	-10.1909
▁nachrichten	-10.1911
▁jung	-10.1913
▁conversation	-10.1917
▁perspective	-10.1917
▁serious	-10.1918
▁spaß	-10.1919
▁mr	-10.1926
▁quality	-10.1937
▁ho	-10.1939
▁rock	-10.1951
▁trotzde	-10.1953
▁text	-10.1956
▁straßen	-10.1956
▁remain	-10.1957
▁wow	-10.1965
▁schulen	-10.1968
▁198	-10.199
▁asking	-10.1998
▁anti	-10.2005
▁seiten	-10.2012
▁carry	-10.2013
▁collect	-10.2034
more	-10.2037
▁ready	-10.2052
▁offen	-10.2054
▁tend	-10.2057
▁ließ	-10.2063
▁hinaus	-10.2068
▁etc	-10.21
▁folgende	-10.211
▁standard	-10.2122
▁verlieren	-10.213
▁liegen	-10.2153
bei	-10.216
▁tolle	-10.2164
▁schüler	-10.2168
▁tv	-10.2168
▁offer	-10.2186
▁paul	-10.2186
▁attack	-10.2193
▁fine	-10.2194
▁gleichzeitig	-10.2201
▁demokratie	-10.2204
▁fertig	-10.2215
▁hinein	-10.2215
▁produkt	-10.2216
▁transform	-10.2218
p	-10.2234
▁adult	-10.2242
▁role	-10.2242
▁trial	-10.2243
▁practice	-10.2245
▁karte	-10.2247
▁monaten	-10.2255
▁island	-10.2256
▁gearbeitet	-10.2257
▁equal	-10.2259
stellen	-10.2266
▁gewinnen	-10.2269
▁traditional	-10.2283
▁näher	-10.229
time	-10.2292
▁sleep	-10.2293
geht	-10.2295
▁wussten	-10.2307
▁r	-10.2307
▁card	-10.2308
▁onto	-10.2311
▁gold	-10.2313
▁gesprochen	-10.2322
▁eis	-10.2327
▁beobachten	-10.233
▁earlie	-10.233
it	-10.2344
▁mehrere	-10.2348
▁hot	-10.2355
ton	-10.2361
▁appear	-10.2366
▁creative	-10.2369
▁count	-10.2381
▁bacteria	-10.2385
führen	-10.2387
▁gruppen	-10.2387
▁clean	-10.2397
▁principle	-10.2408
▁nuclear	-10.2408
▁herauszufinden	-10.2408
▁peace	-10.2413
▁foot	-10.2414
▁ebene	-10.2414
▁foundation	-10.2415
▁dorf	-10.2415
▁fund	-10.2417
▁8	-10.242
liche	-10.2424
▁transport	-10.2428
▁operation	-10.2432
▁require	-10.2436
▁blind	-10.2437
▁selbe	-10.2446
▁join	-10.2447
▁rise	-10.2458
▁englisch	-10.2463
▁genome	-10.2475
▁24	-10.2481
▁babies	-10.2492
▁ständig	-10.2505
▁großer	-10.2507
se	-10.2508
▁goal	-10.253
▁fantastic	-10.2534
▁aussieh	-10.2538
▁fuel	-10.254
▁schaut	-10.257
▁male	-10.2582
rry	-10.2604
▁machten	-10.2605
▁tru	-10.2616
▁eben	-10.2616
▁agree	-10.2621
▁depend	-10.2628
▁service	-10.263
▁dein	-10.2637
▁wear	-10.264
▁door	-10.2645
▁connected	-10.2649
or	-10.2657
▁haut	-10.2669
▁wichtiger	-10.2669
washington	-10.267
▁memor	-10.2675
▁einfluss	-10.2681
bar	-10.2683
▁400	-10.2694
▁orte	-10.2695
▁behandlung	-10.2697
▁rede	-10.2698
▁predict	-10.2699
▁immediate	-10.2706
▁finding	-10.2714
head	-10.2717
▁reaktion	-10.2718
▁nenne	-10.2722
▁monat	-10.2722
▁schöne	-10.273
▁return	-10.2744
▁betrachtet	-10.2748
▁central	-10.2749
▁poverty	-10.275
▁brother	-10.2751
▁objekt	-10.2754
▁150	-10.2756
▁hielt	-10.2756
▁typical	-10.276
▁interview	-10.2766
ist	-10.2767
▁gebiet	-10.279
▁surprise	-10.2793
▁rechts	-10.2793
▁menschheit	-10.2794
▁geschehen	-10.2795
▁democracy	-10.2798
▁eigenschaft	-10.2804
▁strom	-10.2808
▁negative	-10.2817
halten	-10.2821
▁strange	-10.2822
▁rot	-10.2824
▁führte	-10.2833
▁extrem	-10.2834
▁progress	-10.2835
▁possibilit	-10.2837
▁electricity	-10.2837
▁flugzeug	-10.2837
▁rund	-10.2841
▁shot	-10.285
▁larger	-10.2863
wegen	-10.2869
ieren	-10.287
▁beispiele	-10.2879
▁account	-10.2883
▁president	-10.2885
▁verrückt	-10.2889
▁verbesser	-10.2891
▁diejenige	-10.2895
jährige	-10.2902
▁except	-10.2922
▁famous	-10.2927
▁spread	-10.2935
▁option	-10.2941
▁echt	-10.295
▁warm	-10.296
▁wunderbare	-10.2961
▁tool	-10.2962
▁zeug	-10.2963
▁zumindest	-10.2968
▁eventual	-10.2968
▁konzept	-10.2986
▁sinne	-10.2993
▁erlaubt	-10.2994
▁higher	-10.2997
▁enter	-10.3
▁secret	-10.3001
▁content	-10.3002
ch	-10.3005
▁versuch	-10.3006
▁context	-10.3013
▁architecture	-10.3013
▁biology	-10.3019
▁ergebnisse	-10.3019
▁site	-10.3022
▁schools	-10.3028
amp	-10.3028
▁leidenschaft	-10.3042
▁impossibl	-10.3058
▁charles	-10.3058
▁lesson	-10.3064
▁gewalt	-10.3085
▁genetic	-10.3099
▁enjoy	-10.3102
▁malaria	-10.3104
▁35	-10.311
▁supposed	-10.3116
▁medizin	-10.3123
▁sahen	-10.3134
▁publish	-10.3136
▁unfortunate	-10.3147
▁complicate	-10.3147
▁crazy	-10.3147
▁twitter	-10.3148
▁entdecken	-10.3149
▁199	-10.3152
▁neun	-10.3155
▁verlassen	-10.3156
ary	-10.3164
ily	-10.3182
▁emotional	-10.3186
▁befinde	-10.3186
▁beauty	-10.3193
▁vergangenheit	-10.3193
▁irgendwo	-10.3193
▁george	-10.3197
▁wirklichkeit	-10.3212
▁screen	-10.3216
ungen	-10.3227
▁hundert	-10.3233
▁nachricht	-10.325
▁mathematik	-10.3271
▁heat	-10.3279
▁taten	-10.3282
▁above	-10.3284
▁nachzudenken	-10.3284
▁particle	-10.3286
▁bleibt	-10.3288
▁befinden	-10.3294
▁amerikaner	-10.3298
▁spezies	-10.3305
▁hilf	-10.3321
▁pain	-10.3329
▁forest	-10.3332
▁charge	-10.3332
▁auswirkung	-10.3333
▁waste	-10.334
▁hörte	-10.3362
▁track	-10.3375
▁wife	-10.3378
▁theater	-10.338
▁trade	-10.3381
▁board	-10.3384
▁meaning	-10.3385
▁politik	-10.3387
▁temperature	-10.3388
▁spielt	-10.3392
▁drug	-10.34
▁unmöglich	-10.3404
▁bewusstsein	-10.3409
▁visit	-10.3422
▁check	-10.3432
ß	-10.3432
▁ange	-10.3441
▁sitzen	-10.3452
▁galaxie	-10.3455
nächst	-10.3457
▁produzieren	-10.3462
▁interact	-10.3466
▁tagen	-10.3473
▁letter	-10.3476
▁relative	-10.3486
cy	-10.3497
▁mention	-10.3516
habt	-10.3516
▁gekommen	-10.3525
▁worte	-10.3532
▁military	-10.3562
▁expensive	-10.3562
▁worse	-10.3564
▁apple	-10.3564
▁results	-10.3566
▁cook	-10.3569
kept	-10.3573
▁sohn	-10.3581
▁none	-10.3583
▁bilden	-10.359
▁ehrlich	-10.3594
▁mach	-10.3596
▁nigeria	-10.3606
▁choose	-10.3609
▁policy	-10.3618
▁leaders	-10.362
▁dieselbe	-10.3625
satz	-10.3637
▁press	-10.364
▁ordnung	-10.364
▁erzeugen	-10.3642
▁task	-10.3657
▁bat	-10.3662
▁factor	-10.3663
▁excited	-10.3663
▁remarkabl	-10.368
ial	-10.3684
▁detail	-10.3687
▁stars	-10.3688
▁dar	-10.371
▁artist	-10.3714
▁aufgrund	-10.3715
▁alive	-10.3715
▁balance	-10.3721
▁report	-10.3729
▁st	-10.3731
▁punkte	-10.3732
▁farm	-10.374
▁invest	-10.3745
▁passion	-10.375
▁ball	-10.3752
▁launch	-10.3754
refore	-10.3755
▁england	-10.3755
▁crisis	-10.3756
▁einstein	-10.3762
▁budget	-10.3762
▁reading	-10.3763
▁grenzen	-10.3771
▁lower	-10.3779
▁sekunden	-10.378
▁kau	-10.3783
▁spiele	-10.3788
▁ultimate	-10.38
▁armut	-10.3801
▁gesundheits	-10.3816
▁blut	-10.3819
▁stick	-10.3824
▁warten	-10.3827
▁zugang	-10.3829
▁dritten	-10.3831
▁handelt	-10.3837
▁erstaunlich	-10.3848
▁terribl	-10.3855
▁starb	-10.3857
▁bio	-10.3861
▁irgendeine	-10.3862
the	-10.3885
▁neurons	-10.3886
▁nahrung	-10.3889
▁bakterien	-10.3889
▁straight	-10.3897
▁dangerous	-10.3897
▁sent	-10.3905
▁irgendwa	-10.3907
▁verstand	-10.3914
▁dance	-10.3922
▁ran	-10.3923
▁faster	-10.3929
▁medizinische	-10.3931
▁linie	-10.3936
x	-10.3943
▁enormous	-10.3946
▁communication	-10.3946
▁organism	-10.3948
▁fill	-10.3955
▁includ	-10.3955
▁rein	-10.3956
ische	-10.3958
▁messen	-10.3965
▁2000	-10.3968
▁urban	-10.3969
▁voller	-10.3972
▁feuer	-10.3976
▁western	-10.3983
▁products	-10.399
▁lebe	-10.399
▁erfolgreich	-10.3991
▁physics	-10.3995
▁purpose	-10.3995
▁creature	-10.3995
▁herstellen	-10.4002
▁glass	-10.4004
▁prinzip	-10.4005
▁voll	-10.402
▁iran	-10.4024
▁king	-10.4031
▁signal	-10.4034
▁entdeckt	-10.4038
▁wand	-10.4039
▁tradition	-10.4041
by	-10.4045
▁gefragt	-10.4047
▁orten	-10.4051
▁nummer	-10.4052
▁weiss	-10.4056
▁entschieden	-10.4063
▁darwin	-10.4064
▁ressourcen	-10.4065
▁drugs	-10.4069
▁aid	-10.4072
▁genes	-10.4074
▁hört	-10.4079
▁zeigte	-10.4092
▁freedom	-10.4094
▁forget	-10.4094
▁accept	-10.4095
▁v	-10.41
▁communit	-10.411
▁hält	-10.4121
▁slide	-10.4126
▁grad	-10.4126
▁em	-10.4141
▁math	-10.4141
▁firmen	-10.4143
▁bunch	-10.4143
▁daughter	-10.4145
▁geist	-10.4146
▁interesse	-10.4147
▁architektur	-10.4151
▁krankenhaus	-10.4153
▁vorbei	-10.4153
▁range	-10.4187
▁schönheit	-10.4194
▁production	-10.4197
▁cheap	-10.4197
▁ebenso	-10.4198
ood	-10.42
▁performance	-10.4201
▁sub	-10.4205
▁critical	-10.4208
▁golf	-10.423
▁deliver	-10.4238
▁antworten	-10.424
though	-10.4241
▁runter	-10.4241
▁arbeite	-10.4242
▁sprachen	-10.4245
▁himmel	-10.425
▁alternative	-10.4252
▁vertrauen	-10.4256
▁erzählte	-10.4259
▁farbe	-10.4262
▁cold	-10.4269
▁el	-10.4278
▁entweder	-10.4294
▁frank	-10.4297
▁depression	-10.4297
▁ermöglicht	-10.4298
▁mobile	-10.43
▁rote	-10.43
▁läuf	-10.4302
▁significant	-10.4303
▁magic	-10.4307
▁shift	-10.431
▁income	-10.4312
▁studien	-10.4326
▁indian	-10.4336
ia	-10.4339
▁handeln	-10.4344
▁win	-10.4345
▁slight	-10.4346
▁unseres	-10.435
▁bäume	-10.4355
▁artikel	-10.4359
▁verbinden	-10.4362
▁fit	-10.4372
▁path	-10.4381
▁tief	-10.4389
▁concern	-10.4398
▁trick	-10.4399
▁familiar	-10.441
▁gestellt	-10.4416
▁nasa	-10.4424
▁smaller	-10.4425
▁verstanden	-10.4431
▁legs	-10.4432
▁hunderte	-10.4434
▁colleague	-10.4447
▁michael	-10.4447
▁unique	-10.4447
▁address	-10.4447
▁increasing	-10.4448
▁99	-10.4452
▁virtual	-10.4453
▁untersuchen	-10.4456
▁fuß	-10.4459
▁manage	-10.446
▁erklärt	-10.4462
▁anschaue	-10.4462
com	-10.4463
ine	-10.4491
▁graph	-10.4502
▁schwarze	-10.4533
▁bone	-10.4539
▁lernte	-10.4541
▁beg	-10.4542
▁town	-10.4545
▁gründe	-10.4549
▁floor	-10.4551
▁bar	-10.4552
▁james	-10.4552
▁entscheiden	-10.4554
▁user	-10.4556
▁bau	-10.4558
ese	-10.4565
▁scar	-10.457
▁projekte	-10.4571
▁aktivität	-10.4572
▁wirtschaftliche	-10.458
▁israel	-10.4586
0,000	-10.4596
▁hart	-10.4596
▁arzt	-10.4602
▁ärzte	-10.4608
▁tür	-10.4612
▁lag	-10.4617
▁details	-10.4623
▁schluss	-10.4624
▁naj	-10.4626
▁sammeln	-10.4629
▁kamera	-10.463
▁freiheit	-10.4632
▁personen	-10.4643
her	-10.4655
▁leisten	-10.4655
▁ebenfall	-10.4655
▁saß	-10.4657
▁netz	-10.4659
▁nahe	-10.4661
▁protein	-10.4664
▁verkaufen	-10.4673
▁miss	-10.4696
▁bisher	-10.47
▁meant	-10.4701
▁cross	-10.4705
▁ah	-10.4706
▁reduce	-10.4721
▁entwicklungs	-10.4722
▁auge	-10.4722
▁bühne	-10.4726
▁prevent	-10.4734
▁grosse	-10.4736
▁weight	-10.4741
▁luck	-10.4743
▁landes	-10.4749
▁survive	-10.4758
▁conference	-10.4762
▁surprising	-10.4763
▁retten	-10.4763
▁winter	-10.4763
▁nannte	-10.4764
▁nochmal	-10.4764
ter	-10.4791
▁circle	-10.4791
▁einander	-10.4795
▁leistung	-10.4803
▁intelligence	-10.4814
▁geschah	-10.4814
▁tissue	-10.4814
▁getroffen	-10.4815
▁abzu	-10.4823
▁geschaffen	-10.4826
▁desert	-10.4831
and	-10.4833
▁herausfinde	-10.4834
▁klasse	-10.4837
▁leg	-10.4843
▁wachstum	-10.485
▁ne	-10.486
▁gründen	-10.4862
▁fotos	-10.4868
▁außerhalb	-10.487
ab	-10.4874
▁zusammenarbeit	-10.4888
▁cap	-10.4892
▁drop	-10.4905
▁driving	-10.4923
▁bridge	-10.4929
▁druck	-10.493
▁active	-10.4931
▁party	-10.4933
▁walked	-10.4948
▁werte	-10.496
▁wesentlich	-10.4961
onnen	-10.4963
werfen	-10.4963
▁suche	-10.4966
▁erfahren	-10.4971
▁keiner	-10.4974
▁constant	-10.4975
▁entdeckung	-10.4975
▁beweis	-10.4976
▁useful	-10.4978
▁dad	-10.4978
▁bezug	-10.4986
▁surgery	-10.4986
▁uhr	-10.4991
▁breath	-10.4992
▁zeitpunkt	-10.4994
▁sky	-10.4995
▁persönliche	-10.4999
▁kollegen	-10.5
▁separate	-10.5002
▁vergleich	-10.5024
denken	-10.5026
▁vehicle	-10.5029
▁feed	-10.503
▁fisch	-10.5031
▁double	-10.5035
▁skills	-10.5035
▁biologie	-10.5039
▁saving	-10.504
▁humanity	-10.5041
▁erwarten	-10.5043
wesen	-10.5044
▁brauchte	-10.5052
▁mechanism	-10.5052
▁moon	-10.5056
▁wide	-10.5059
▁environmental	-10.5072
▁influence	-10.5073
▁explore	-10.5078
▁solutions	-10.5079
▁brand	-10.5079
▁methode	-10.5079
▁fallen	-10.5082
▁wikipedia	-10.5084
▁disappear	-10.5084
▁financial	-10.5084
▁fix	-10.5088
▁jemande	-10.5094
▁poet	-10.5102
▁gesamten	-10.5121
▁robots	-10.5122
▁conflict	-10.5124
industrie	-10.5132
▁45	-10.5134
▁abend	-10.5135
▁television	-10.5139
▁ahnung	-10.5139
▁instance	-10.5139
▁erinnere	-10.5146
▁ma	-10.5173
▁ähnliche	-10.5176
▁achieve	-10.5178
▁wohin	-10.5179
▁büro	-10.5181
▁ihres	-10.5183
▁drink	-10.5197
▁leid	-10.5197
▁gelegenheit	-10.52
▁schützen	-10.5201
welt	-10.5208
▁trotz	-10.5212
▁ruf	-10.5213
▁teaching	-10.5219
▁blau	-10.5225
▁marketing	-10.5244
▁erfunden	-10.525
▁fühlte	-10.5256
▁improve	-10.526
▁catch	-10.5264
▁netzwerk	-10.5266
▁brief	-10.5276
▁decision	-10.5281
▁sing	-10.5284
leider	-10.5288
▁grundlegende	-10.5288
ma	-10.529
▁halbe	-10.5295
los	-10.5301
▁perform	-10.5303
▁dynamic	-10.5306
▁shark	-10.5306
▁brown	-10.5306
▁bus	-10.5308
▁masse	-10.5309
▁sad	-10.5321
▁photo	-10.5337
like	-10.534
▁verständnis	-10.5343
▁intelligent	-10.5344
▁engine	-10.5349
▁endlich	-10.5361
▁effort	-10.5361
▁trouble	-10.5363
▁wörter	-10.5368
▁2008	-10.5371
▁eure	-10.5371
zunehmen	-10.5382
▁status	-10.5385
▁schicken	-10.5387
▁stunde	-10.5392
▁german	-10.5407
▁wave	-10.5407
▁natürliche	-10.5416
▁mark	-10.5421
▁sat	-10.5431
▁fold	-10.5436
▁sport	-10.5437
▁decisions	-10.5443
go	-10.5447
▁magazine	-10.5448
ier	-10.5449
raum	-10.546
hin	-10.548
▁elektrische	-10.5482
▁edge	-10.549
▁strategie	-10.5494
▁wesen	-10.5506
ting	-10.5506
▁km	-10.5516
▁flying	-10.5522
▁respect	-10.5524
▁studio	-10.5527
ismus	-10.5531
▁ernst	-10.5532
▁behandeln	-10.5532
▁infrastructure	-10.5533
▁email	-10.5533
▁compare	-10.5534
▁september	-10.5534
▁gang	-10.5545
icht	-10.556
▁bed	-10.5563
▁liste	-10.5565
▁expert	-10.5574
▁universal	-10.5574
▁zufällig	-10.5582
▁tisch	-10.559
▁police	-10.5592
▁pressure	-10.5594
▁kampf	-10.5597
▁starts	-10.56
▁consumer	-10.5602
▁politic	-10.5605
aid	-10.561
treten	-10.5615
▁zustand	-10.5628
▁reich	-10.5635
▁paint	-10.5646
▁konzentriere	-10.5648
▁various	-10.5648
▁sister	-10.5648
▁creativity	-10.5648
▁bodi	-10.5648
rum	-10.5649
gefunden	-10.565
▁stress	-10.5688
▁fällt	-10.5691
▁videos	-10.5699
schauen	-10.5702
▁insect	-10.5706
▁grün	-10.5706
▁angefangen	-10.5706
iert	-10.5713
▁seat	-10.5715
▁grüne	-10.5722
ized	-10.5732
▁algorithm	-10.5745
▁random	-10.5747
ä	-10.5748
▁normale	-10.5749
▁prison	-10.5749
▁fühlt	-10.5757
▁starke	-10.5764
▁umzu	-10.5765
▁gedacht	-10.5767
▁bush	-10.5767
ziehen	-10.5767
▁prize	-10.5767
▁innere	-10.5775
▁cent	-10.578
▁meer	-10.5796
▁lass	-10.5799
▁brains	-10.58
▁forms	-10.58
▁phase	-10.5806
▁gesetz	-10.5807
▁verursacht	-10.5808
isch	-10.5809
▁geschäft	-10.5815
▁decade	-10.5816
▁remind	-10.5817
▁erstaunliche	-10.5822
▁convince	-10.5823
▁twice	-10.5823
▁müsste	-10.5824
▁violence	-10.5826
▁career	-10.5829
ritten	-10.5835
▁systeme	-10.5838
▁schafft	-10.5839
▁capital	-10.5849
▁cultural	-10.5854
▁entschied	-10.586
▁gehe	-10.5866
stern	-10.5869
▁river	-10.588
▁muscle	-10.5882
▁gain	-10.5883
▁funny	-10.5883
▁medium	-10.5886
la	-10.5886
zusage	-10.5886
wise	-10.5887
▁demand	-10.5901
▁steve	-10.5904
▁spot	-10.5908
▁unterschiede	-10.5912
ism	-10.5913
▁cloud	-10.592
▁verantwortung	-10.5922
dimensional	-10.593
▁produziert	-10.5938
▁profound	-10.5942
▁wunder	-10.5945
▁summer	-10.5948
▁brilliant	-10.5955
▁expand	-10.5956
▁erleben	-10.5961
50	-10.5975
▁leiden	-10.5979
▁shared	-10.598
▁sequence	-10.5982
▁erzeugt	-10.5984
▁institute	-10.5992
▁lief	-10.5992
▁thanks	-10.5994
▁airplane	-10.6002
▁consciousness	-10.6002
▁hotel	-10.6003
▁arme	-10.6005
▁services	-10.6007
▁gelang	-10.6009
bringt	-10.6012
▁existiert	-10.6024
▁benötigt	-10.6024
▁materialien	-10.6025
ada	-10.6026
▁kostet	-10.604
▁spitze	-10.6043
▁campaign	-10.6062
▁component	-10.6062
▁respond	-10.6062
▁female	-10.6062
▁investment	-10.6063
▁robert	-10.6063
▁engineering	-10.6066
▁industrie	-10.6071
gibt	-10.6084
▁possibl	-10.6102
▁underst	-10.6102
▁grade	-10.6103
▁decide	-10.6103
▁worten	-10.6106
▁traum	-10.6113
▁dunkle	-10.6115
▁ba	-10.6118
▁method	-10.6119
▁destroy	-10.6122
▁responsibilit	-10.6123
▁valley	-10.6124
▁moralische	-10.6124
▁tochter	-10.6126
▁grand	-10.6129
▁öffnen	-10.613
▁gegangen	-10.6132
▁wunderbar	-10.6133
▁values	-10.6137
▁risiko	-10.6142
▁recent	-10.6145
▁hell	-10.6149
▁produkte	-10.615
▁anwendung	-10.6151
▁fragt	-10.6153
▁komme	-10.6156
ü	-10.617
▁botschaft	-10.6172
▁geschwindigkeit	-10.6182
▁harvard	-10.6183
▁klimawandel	-10.6183
▁california	-10.6184
▁bear	-10.6184
▁youtube	-10.6186
▁yellow	-10.6186
▁rechten	-10.6186
▁stolz	-10.6187
▁westen	-10.6194
▁restaurant	-10.6196
▁ausdruck	-10.6197
▁ideal	-10.6197
▁fühle	-10.6203
▁perfekt	-10.621
▁landwirtschaft	-10.6219
▁herzen	-10.6224
▁werkzeuge	-10.6225
▁wege	-10.6226
son	-10.6231
▁complexit	-10.6236
▁fossil	-10.6238
▁technique	-10.6245
▁tremendous	-10.6245
▁großbritannien	-10.6245
▁smell	-10.6245
▁civilization	-10.6245
▁komplexität	-10.6245
▁transformation	-10.6246
▁infrastruktur	-10.625
▁capacity	-10.625
▁coast	-10.6251
▁moderne	-10.6256
▁layer	-10.6261
▁eating	-10.6262
ur	-10.6265
▁osten	-10.6267
▁hall	-10.6277
▁gil	-10.6279
▁organ	-10.628
▁regierungen	-10.6282
am	-10.6284
▁dreht	-10.6284
▁birds	-10.6295
▁wealth	-10.6296
noch	-10.6302
▁ancient	-10.6307
▁beeinflusst	-10.6308
▁target	-10.631
▁chemical	-10.6316
▁societies	-10.6318
▁produc	-10.6329
▁la	-10.633
▁introduce	-10.6339
▁accident	-10.6339
▁triff	-10.6347
et	-10.635
▁dunkel	-10.6351
▁architect	-10.6369
▁article	-10.6369
▁supply	-10.6369
▁chair	-10.6369
▁freude	-10.6371
▁dorthin	-10.6372
▁atmosphere	-10.6373
▁1990	-10.6376
▁hunger	-10.6379
▁afford	-10.6388
▁patent	-10.6388
▁oxygen	-10.6391
▁stimmen	-10.6391
▁pollen	-10.6395
▁fernsehen	-10.6397
▁sieh	-10.6401
▁professional	-10.6408
▁gefängnis	-10.6411
▁inner	-10.6412
ha	-10.6413
▁medikamente	-10.6416
▁wood	-10.6418
▁sauerstoff	-10.6428
▁feature	-10.643
▁sommer	-10.6433
▁race	-10.6435
▁flight	-10.6435
innen	-10.6437
▁below	-10.6438
▁hi	-10.6439
▁boat	-10.644
▁lokale	-10.6442
▁noise	-10.6443
omas	-10.6444
▁literatur	-10.6444
▁islam	-10.645
▁worry	-10.6452
▁gen	-10.6459
ant	-10.6461
ian	-10.6471
▁talent	-10.6472
▁gefühle	-10.6482
▁neuronen	-10.6485
▁bürger	-10.6491
▁außergewöhnlich	-10.6497
▁schul	-10.6498
▁unterstützen	-10.6502
▁scientist	-10.6506
▁gebe	-10.6515
▁chinesische	-10.6521
▁aware	-10.6526
▁heutigen	-10.653
▁legal	-10.6539
▁interaction	-10.656
▁networks	-10.656
▁paris	-10.6561
art	-10.6561
▁birth	-10.6564
▁10,000	-10.6566
▁plus	-10.6566
▁string	-10.6568
▁erlaub	-10.6569
▁inspiration	-10.6573
▁beine	-10.6588
▁komplexe	-10.6594
▁mittler	-10.6596
▁darf	-10.6598
▁degrees	-10.6599
▁mond	-10.66
▁match	-10.6601
▁hinzu	-10.6607
▁communicate	-10.6609
▁norden	-10.6612
▁engineer	-10.6616
▁herr	-10.6616
▁giant	-10.6624
▁industrial	-10.6626
▁ha	-10.6626
▁mögliche	-10.6627
▁mountain	-10.6627
▁interface	-10.6635
▁rain	-10.6637
▁clip	-10.6645
▁guter	-10.665
▁filter	-10.6655
▁apply	-10.6659
▁aktiv	-10.6659
▁laut	-10.6662
▁besondere	-10.6669
▁traditionelle	-10.6669
▁fortschritt	-10.6676
▁speaking	-10.6678
▁designers	-10.6678
▁spreche	-10.6682
▁sector	-10.6685
▁zusammenhang	-10.6685
▁express	-10.6686
line	-10.669
▁genutzt	-10.6693
▁wahre	-10.6717
▁plane	-10.6717
▁nehme	-10.672
▁laugh	-10.672
▁hair	-10.6727
▁verantwortlich	-10.6732
▁polio	-10.6735
▁falsche	-10.6742
▁pakistan	-10.6747
▁kreativität	-10.675
▁honest	-10.675
▁objekte	-10.6754
▁ph	-10.6757
▁sexual	-10.6758
▁ansicht	-10.6761
▁opfer	-10.6769
▁loch	-10.677
▁verkauft	-10.6772
ö	-10.6774
▁tieren	-10.6777
▁halte	-10.6778
▁jo	-10.6779
▁feld	-10.6779
▁beziehungen	-10.6781
▁rechte	-10.6801
▁beat	-10.6801
▁armen	-10.6806
▁jahrhunderts	-10.6808
▁boston	-10.6815
▁francisco	-10.6815
▁breast	-10.6815
▁garden	-10.6818
▁iphone	-10.6819
▁belief	-10.6822
▁print	-10.6827
▁apart	-10.6827
▁sozial	-10.6832
▁popular	-10.6841
▁cycle	-10.6843
▁konferenz	-10.6847
▁physik	-10.6867
▁westliche	-10.688
▁neighbor	-10.688
▁careful	-10.6881
▁musst	-10.6881
▁veröffentlicht	-10.6882
▁ship	-10.6887
▁rare	-10.689
kommt	-10.6892
▁tausend	-10.6893
▁fenster	-10.6894
ber	-10.6901
▁held	-10.6904
▁fluss	-10.6907
falt	-10.6914
▁contain	-10.6931
ra	-10.6932
fall	-10.6933
▁spät	-10.6942
▁materie	-10.6944
▁minds	-10.6946
▁british	-10.6946
▁imagination	-10.6946
▁hopeful	-10.6947
▁forth	-10.6949
▁mid	-10.6955
▁böse	-10.6957
▁laden	-10.6959
▁stone	-10.6964
▁roll	-10.6968
▁biological	-10.6972
▁sicht	-10.6974
▁gegend	-10.6975
▁document	-10.6985
▁sekunde	-10.6988
▁werkzeug	-10.6993
▁micro	-10.6994
▁symbol	-10.6997
ful	-10.6999
▁gewicht	-10.7007
▁types	-10.701
▁allerding	-10.7012
▁worst	-10.7013
▁distance	-10.7021
▁inspired	-10.7029
▁fuhr	-10.7033
▁aufgenommen	-10.7034
▁boys	-10.7036
▁wählen	-10.704
▁farben	-10.7046
▁lebensmittel	-10.7052
▁hinsicht	-10.7055
▁burn	-10.7072
▁neighborhood	-10.7079
▁failure	-10.7079
▁continent	-10.7083
richten	-10.7088
ischen	-10.7091
▁sample	-10.7092
▁veränderungen	-10.7097
▁qualität	-10.7102
▁window	-10.711
▁gewisse	-10.7114
eath	-10.7115
▁electric	-10.7121
▁rough	-10.7123
▁app	-10.7133
▁geschaff	-10.7138
▁commercial	-10.7142
▁fällen	-10.7143
▁mouth	-10.7159
▁nähe	-10.7161
gebaut	-10.7163
▁artists	-10.7171
▁sharing	-10.7173
▁sentence	-10.7177
▁tough	-10.7179
▁setzt	-10.718
▁hearing	-10.7183
▁ändert	-10.7188
▁dh	-10.7189
▁trend	-10.7192
bedingt	-10.7193
▁sustainabl	-10.7195
▁threat	-10.7199
▁damage	-10.72
▁chicago	-10.7213
▁bottle	-10.7213
▁feedback	-10.7213
▁classroom	-10.7213
▁drehen	-10.7215
▁karriere	-10.7216
▁display	-10.7216
▁architekt	-10.7217
▁paid	-10.7222
dass	-10.7233
drücken	-10.7238
▁entlang	-10.7242
▁flu	-10.7245
▁ausge	-10.7248
▁trip	-10.7254
▁corner	-10.7256
▁reisen	-10.7258
▁workers	-10.7263
▁weiterhi	-10.7276
▁bett	-10.7277
0.000	-10.7279
▁behandelt	-10.7281
▁reward	-10.7281
▁lack	-10.7282
▁null	-10.7282
▁erinnerung	-10.7282
▁intelligenz	-10.7283
▁entstehen	-10.7288
▁sowie	-10.7288
stand	-10.7289
▁argue	-10.729
triff	-10.7294
▁las	-10.7312
▁schlüssel	-10.7314
▁zeitung	-10.7315
▁ecke	-10.7318
▁lautet	-10.7318
▁kling	-10.7318
▁begriff	-10.7322
punkt	-10.733
▁kommunikation	-10.7336
▁halb	-10.734
▁kenne	-10.7341
▁tue	-10.7344
▁zog	-10.7346
▁benötige	-10.735
▁dramatic	-10.735
▁drittel	-10.7352
▁emerg	-10.7354
▁einfacher	-10.7358
▁gras	-10.736
▁knochen	-10.7364
▁digitale	-10.7366
für	-10.7367
▁beweise	-10.7369
▁highly	-10.7371
ne	-10.7372
▁lebte	-10.7373
▁legen	-10.738
▁telefon	-10.738
▁notion	-10.7391
▁erinnert	-10.7407
ät	-10.7407
▁rid	-10.7417
▁economist	-10.7419
▁application	-10.7419
▁newspaper	-10.7419
▁phenomeno	-10.7419
▁vollkommen	-10.7419
▁vollständig	-10.7424
▁23	-10.7425
▁bitten	-10.7429
▁zelle	-10.7438
ley	-10.7441
▁advance	-10.745
▁afrikanische	-10.7452
▁wuchs	-10.7452
▁höher	-10.7457
▁baum	-10.7474
aus	-10.7479
▁außen	-10.7484
▁broken	-10.7484
▁zentrum	-10.7487
▁coffee	-10.7487
▁soldier	-10.7488
▁coral	-10.7489
▁obama	-10.7489
▁desire	-10.7491
▁kontrollieren	-10.7491
▁fac	-10.7492
▁phänomen	-10.7509
▁wunsch	-10.751
ish	-10.7517
▁prove	-10.7518
▁laws	-10.7518
▁notwendig	-10.7523
▁schutz	-10.7525
▁geräte	-10.7526
▁generate	-10.7528
▁gift	-10.7531
▁joe	-10.7534
▁blog	-10.7547
▁kern	-10.7556
▁french	-10.7558
▁interessiere	-10.7558
▁competition	-10.7558
sweise	-10.7559
▁stem	-10.756
▁dagegen	-10.7561
▁sir	-10.7562
▁durchgeführt	-10.7563
▁2010	-10.7563
▁pr	-10.7565
▁erforschen	-10.7568
▁willing	-10.757
▁insekten	-10.7578
▁mo	-10.7579
▁date	-10.758
▁höhe	-10.7582
▁kunden	-10.7593
▁schmerz	-10.7596
▁note	-10.7613
▁plastik	-10.7615
▁älter	-10.7624
▁bestehen	-10.7627
▁verfüg	-10.7628
▁figur	-10.7628
▁vermutlich	-10.7629
▁ecosystem	-10.7629
▁define	-10.7629
▁investieren	-10.7638
▁camp	-10.7639
▁mess	-10.764
▁blieb	-10.7641
▁ring	-10.7642
▁fashion	-10.7642
▁fo	-10.7647
▁beach	-10.7648
▁effects	-10.7652
▁arab	-10.7652
dollar	-10.7656
theorie	-10.7657
▁gross	-10.7662
▁rat	-10.7664
▁dis	-10.7667
water	-10.767
▁release	-10.7671
▁solch	-10.7671
▁bedingungen	-10.768
▁zeiten	-10.768
▁station	-10.768
▁sterne	-10.7685
▁fantastische	-10.7686
▁surviv	-10.7686
ization	-10.7688
▁beschäftigt	-10.7695
▁mütter	-10.7695
▁muslim	-10.7696
▁identit	-10.7699
▁technical	-10.77
▁crime	-10.77
▁glaubt	-10.77
▁variation	-10.7701
seite	-10.7701
▁maschinen	-10.7706
▁peter	-10.7707
▁decades	-10.7711
▁copy	-10.7713
base	-10.7715
▁fleisch	-10.7725
▁wandel	-10.7748
legen	-10.7762
▁civil	-10.777
▁recover	-10.7771
▁motivation	-10.7772
▁unlike	-10.7775
▁blaue	-10.7776
▁gehirns	-10.7782
▁fantastisch	-10.7785
▁minister	-10.7786
▁kontakt	-10.7787
▁ausbildung	-10.7787
▁000	-10.7788
▁capture	-10.7791
▁tests	-10.7812
▁related	-10.7812
▁verbracht	-10.7814
▁afr	-10.7841
wächst	-10.7843
▁haiti	-10.7843
▁honor	-10.7846
▁evolv	-10.7847
▁1,000	-10.7848
▁scheinen	-10.7851
▁relevant	-10.7856
▁van	-10.7856
▁mund	-10.7856
hilfe	-10.7871
▁pole	-10.788
▁brot	-10.7882
▁enorme	-10.7887
▁poster	-10.7893
▁nutzt	-10.7894
genommen	-10.7899
▁iraq	-10.7906
▁frieden	-10.7911
▁outcome	-10.7916
▁collective	-10.7916
▁dying	-10.7917
▁töten	-10.7917
▁zuhause	-10.7919
▁gewonnen	-10.7919
▁efficient	-10.7929
▁holz	-10.7932
▁operat	-10.7936
ive	-10.794
▁neuer	-10.7945
▁sick	-10.7947
▁ray	-10.7948
erlich	-10.7948
▁genetische	-10.7949
▁controll	-10.7949
▁deutlich	-10.7951
▁radical	-10.7955
▁lebende	-10.7962
il	-10.7962
▁farmers	-10.7963
▁inter	-10.7963
▁gemeinsame	-10.7963
▁steckt	-10.7965
▁gemeinde	-10.7967
▁metaphor	-10.7975
▁landscape	-10.7976
▁missing	-10.7983
▁hauptsächlich	-10.7988
▁ermöglichen	-10.7988
▁chaos	-10.7988
▁contact	-10.7989
▁großteil	-10.7989
▁spirit	-10.7992
▁entwerfen	-10.7993
▁verdienen	-10.7999
ble	-10.8001
▁hervor	-10.8002
▁kämpfen	-10.8013
▁adapt	-10.8016
▁asia	-10.8019
turned	-10.8024
▁20.	-10.8044
▁irak	-10.8048
▁authorit	-10.8054
▁bright	-10.8062
▁klima	-10.8063
▁mouse	-10.8067
▁channel	-10.8067
▁erklärung	-10.8072
▁expression	-10.8074
▁konflikt	-10.8075
▁atmosphäre	-10.8078
▁titel	-10.8079
▁einsatz	-10.808
▁include	-10.8092
lassen	-10.8094
▁stecken	-10.8094
▁beschreiben	-10.8112
▁ansatz	-10.8117
nahmen	-10.8119
▁fully	-10.8123
▁gap	-10.8135
▁ghana	-10.8136
▁diskussion	-10.8138
ffentlich	-10.8138
▁church	-10.8141
▁rapid	-10.8141
▁spezielle	-10.8141
unterschiedliche	-10.8153
▁drawing	-10.8153
gen	-10.8161
▁gewinn	-10.8165
▁entwickelte	-10.8167
hält	-10.8178
▁suffering	-10.8181
▁gesellschaften	-10.8189
▁praktisch	-10.8189
tic	-10.8201
▁joy	-10.8202
▁buchstäblich	-10.8211
▁survey	-10.8211
ko	-10.8211
▁speech	-10.8212
▁realiz	-10.8213
▁chicken	-10.8221
▁forever	-10.8223
▁müll	-10.8225
pite	-10.8242
▁pop	-10.8242
▁häuser	-10.8249
▁multi	-10.8252
diversity	-10.8258
▁emotion	-10.8261
▁pan	-10.8264
igen	-10.8267
▁nest	-10.8274
▁pump	-10.8277
▁vote	-10.8279
▁taste	-10.8281
▁aufgaben	-10.8281
▁wahrnehmung	-10.8285
▁husband	-10.8286
▁hängt	-10.8286
▁kontext	-10.8287
▁worrie	-10.8287
▁meat	-10.8289
▁religious	-10.829
▁22	-10.8292
acy	-10.8296
▁durchschnitt	-10.8297
▁persönlich	-10.8297
▁row	-10.8298
▁mix	-10.8304
▁geführt	-10.8312
▁kräfte	-10.8317
▁faktor	-10.8321
stehen	-10.8324
bf	-10.8328
ical	-10.8333
▁milliarde	-10.8342
▁letztendlich	-10.835
▁schaute	-10.8352
▁aspect	-10.8362
▁transition	-10.8364
▁bread	-10.8368
desto	-10.8371
▁baute	-10.8372
▁hergestellt	-10.8372
▁untersuchung	-10.8376
▁täglich	-10.8378
zahl	-10.838
▁kümmer	-10.8382
▁glas	-10.8385
▁dahin	-10.8391
▁landschaft	-10.8397
▁zone	-10.8406
▁lernt	-10.8408
▁umgehen	-10.8408
▁gewissen	-10.8411
▁temperatur	-10.8416
▁setzte	-10.8416
▁universums	-10.8416
▁waffen	-10.8421
▁illusion	-10.8424
▁traffic	-10.8424
▁relativ	-10.8426
▁kreis	-10.843
▁independent	-10.8431
▁kommunizieren	-10.8439
▁hintergrund	-10.8444
▁rätsel	-10.8445
▁übertragen	-10.8445
▁dan	-10.8449
▁biologische	-10.8451
▁geburt	-10.8453
▁reflect	-10.8454
▁spring	-10.8456
▁hund	-10.8456
▁riesigen	-10.8463
▁charakter	-10.8464
rüber	-10.847
▁flug	-10.8475
mail	-10.8475
▁begeistert	-10.8477
▁clever	-10.8499
▁prime	-10.8501
▁truck	-10.8506
▁crash	-10.8507
▁bildschirm	-10.851
▁scene	-10.8515
▁irgendetw	-10.8518
▁identität	-10.8519
▁fat	-10.8522
▁verbreitet	-10.8524
▁kennt	-10.8525
▁location	-10.8526
▁loss	-10.853
▁chose	-10.8536
▁becom	-10.8542
▁eigen	-10.8544
▁indische	-10.8549
▁core	-10.8551
▁bezahle	-10.8561
▁quote	-10.8567
▁involv	-10.8569
▁avoid	-10.8577
▁brust	-10.8577
▁schwester	-10.8579
▁lachen	-10.8583
▁mad	-10.8588
▁mathematics	-10.8592
▁remote	-10.8592
▁vagina	-10.8592
▁lektion	-10.8592
▁dinner	-10.8592
▁reaction	-10.8593
▁vast	-10.8594
▁citizens	-10.8595
▁zivilisation	-10.8595
▁according	-10.8596
▁bubble	-10.861
▁management	-10.8611
▁erstellen	-10.8624
▁serve	-10.863
▁filme	-10.863
▁affen	-10.8637
▁hill	-10.8651
ivity	-10.8662
▁researcher	-10.8664
▁painting	-10.8666
▁höhere	-10.8668
▁higgs	-10.867
▁spider	-10.867
▁disaster	-10.8671
ige	-10.8672
▁background	-10.8673
▁fresh	-10.8673
▁promise	-10.8674
▁unterstützung	-10.8675
form	-10.8684
▁odd	-10.8686
fi	-10.8688
▁präsident	-10.8688
▁adam	-10.8688
▁club	-10.8693
▁genom	-10.8694
▁switch	-10.8699
▁graduate	-10.87
▁hinweg	-10.8705
▁fische	-10.8712
▁plann	-10.8714
upon	-10.8723
▁gewebe	-10.8725
▁engineers	-10.8731
▁laufe	-10.8742
▁gefährlich	-10.8745
projekt	-10.8746
▁allgemein	-10.8748
▁getötet	-10.8749
▁wisdom	-10.8749
▁error	-10.8749
▁anfing	-10.875
▁einkommen	-10.8753
▁dinosaurier	-10.8755
▁court	-10.8756
▁origami	-10.8756
▁motion	-10.876
▁experimente	-10.8768
▁organic	-10.8776
▁curve	-10.8782
▁verfügbar	-10.8794
▁drin	-10.8795
night	-10.8803
▁bereiche	-10.8804
▁wald	-10.8805
▁erwartet	-10.8805
zeichen	-10.8806
▁kulturelle	-10.8808
▁rand	-10.8809
▁bang	-10.8809
▁beeinflussen	-10.8818
▁dot	-10.8825
▁handy	-10.8827
▁extend	-10.8829
▁oxford	-10.8829
▁sogenannte	-10.8831
▁profit	-10.8835
▁fell	-10.8837
dp	-10.8837
▁vögel	-10.8841
▁bloß	-10.8843
▁dauert	-10.8844
▁horse	-10.8845
▁erzähle	-10.8857
▁discovery	-10.8857
▁bird	-10.8858
▁suffer	-10.886
▁meilen	-10.8866
▁polizei	-10.8866
wissenschaft	-10.8868
▁pack	-10.8875
of	-10.8876
▁seltsam	-10.8877
▁enable	-10.8886
▁illegal	-10.889
▁writer	-10.8891
term	-10.8896
▁tour	-10.8903
mann	-10.8907
▁attempt	-10.8909
▁opposite	-10.8909
▁sugar	-10.8909
▁umstände	-10.8911
▁fourth	-10.8924
▁journalist	-10.893
▁gay	-10.8935
▁fabrik	-10.8936
▁jim	-10.8948
▁überzeugt	-10.896
▁soil	-10.8965
▁brauche	-10.8976
▁entsteh	-10.8977
▁lieber	-10.8984
▁weird	-10.8985
▁grandmother	-10.8989
▁responsibl	-10.899
▁proud	-10.899
side	-10.8991
▁monitor	-10.8996
▁könnt	-10.8998
sehen	-10.9007
▁bienen	-10.9008
▁insight	-10.9011
machen	-10.9013
▁gestalten	-10.9039
▁statistics	-10.904
▁gesetze	-10.9042
▁politiker	-10.9042
▁versu	-10.9045
▁debate	-10.9047
▁194	-10.9047
▁alleine	-10.905
▁holding	-10.9051
▁union	-10.9052
▁kenya	-10.9053
▁tiefe	-10.9054
▁shop	-10.9055
▁foreign	-10.9055
▁stock	-10.9055
▁klang	-10.9058
os	-10.9061
▁metal	-10.9064
▁kürzlich	-10.907
▁advantage	-10.907
▁equivalent	-10.9071
▁intuition	-10.9071
▁justice	-10.9071
▁peak	-10.9071
▁cat	-10.9075
▁1980	-10.9076
▁orbit	-10.9077
▁border	-10.9084
▁members	-10.9089
▁shoot	-10.9093
▁behaupte	-10.9096
ah	-10.91
sche	-10.9102
▁teenager	-10.9102
▁jahrzehnt	-10.9109
▁shock	-10.9115
test	-10.9116
▁städten	-10.9121
▁moleküle	-10.9124
▁forscher	-10.9127
▁rücken	-10.9132
▁combine	-10.9135
▁marine	-10.9141
▁vergleichen	-10.9151
▁selten	-10.9151
▁seriously	-10.9151
▁vaccine	-10.9152
▁tedtalk	-10.9153
▁stuck	-10.9153
▁perspektive	-10.9158
▁emotions	-10.916
▁verhindern	-10.9162
▁erkannte	-10.9165
▁funktion	-10.9168
▁zucker	-10.9171
▁verfolgen	-10.9179
▁soldaten	-10.918
▁divide	-10.9182
▁zimmer	-10.9195
gestellt	-10.9212
▁fiel	-10.9229
ft	-10.923
▁pocket	-10.9237
▁internationale	-10.924
ship	-10.9256
▁reichen	-10.9262
▁haufen	-10.9263
▁baut	-10.927
mittel	-10.9273
▁aktuelle	-10.9274
▁degree	-10.9277
▁pure	-10.9288
▁visuelle	-10.9289
▁basiert	-10.929
▁modelle	-10.9292
▁topic	-10.9297
wisst	-10.9302
▁engage	-10.9305
▁mexic	-10.931
▁leav	-10.931
▁multiple	-10.9318
▁regular	-10.9318
▁texas	-10.9318
▁uganda	-10.9319
▁platform	-10.932
▁boot	-10.9322
▁angeles	-10.9322
▁european	-10.9325
▁investition	-10.933
▁herunter	-10.9333
▁factory	-10.9336
bewegung	-10.9339
▁voraus	-10.9341
▁märkte	-10.9341
▁maus	-10.9348
▁überraschend	-10.9353
▁practical	-10.9353
▁erster	-10.9358
ende	-10.9359
▁unternehmer	-10.936
▁evolve	-10.9363
▁karten	-10.9366
▁invite	-10.9374
▁ameisen	-10.9375
▁testen	-10.9384
▁correct	-10.9384
▁equip	-10.9386
▁nurse	-10.9391
▁agricultur	-10.9392
▁lunch	-10.9393
▁schließen	-10.9393
▁reveal	-10.9402
▁pair	-10.9403
▁sold	-10.9404
▁überzeugen	-10.9423
▁verbringe	-10.9424
▁net	-10.9433
▁bezahlt	-10.9434
▁cry	-10.9439
▁fellow	-10.9444
zukommen	-10.945
▁weiteren	-10.9458
▁lay	-10.9459
▁einiger	-10.9466
▁kreative	-10.9467
▁streets	-10.9468
▁satellite	-10.9482
▁staat	-10.9483
▁proper	-10.9485
▁dolphin	-10.9487
▁fascinating	-10.9487
▁januar	-10.9487
▁verlangen	-10.9487
▁childhood	-10.9488
▁gps	-10.9488
▁election	-10.9488
▁quiet	-10.9488
▁yester	-10.9489
▁conscious	-10.9494
▁shoes	-10.9495
▁distribution	-10.9495
▁galaxien	-10.9495
▁metapher	-10.9498
▁gefahr	-10.9498
▁wirkung	-10.9501
steigt	-10.9504
▁gesund	-10.9506
geführt	-10.9508
▁arrive	-10.9509
▁galax	-10.9509
▁derek	-10.9511
▁bauern	-10.9515
▁stream	-10.9519
▁electrical	-10.9523
▁ski	-10.9523
▁zeichen	-10.9524
▁crowd	-10.9526
▁fan	-10.9546
▁occur	-10.9548
▁hang	-10.9553
▁kb	-10.9555
▁250	-10.9564
co	-10.9564
▁träg	-10.9571
▁opinion	-10.9573
▁tomorrow	-10.9573
▁stanford	-10.9573
▁roof	-10.9573
▁volunteer	-10.9573
▁worldwide	-10.9574
▁kalifornien	-10.9574
▁continu	-10.9575
▁joke	-10.9577
▁meters	-10.9579
▁encourage	-10.9579
▁telescope	-10.9581
▁weiße	-10.9586
▁überrascht	-10.9586
ik	-10.959
▁wheel	-10.959
▁soviel	-10.9592
▁alien	-10.9598
▁fields	-10.9599
spiel	-10.9602
▁harder	-10.9605
▁walls	-10.9605
▁absicht	-10.9611
▁lieblings	-10.9616
▁chip	-10.9621
▁gehalten	-10.9622
▁lady	-10.9633
▁augenblick	-10.9647
ling	-10.9652
▁korea	-10.9653
▁microsoft	-10.9659
▁fortunate	-10.9659
▁pig	-10.9659
▁milk	-10.966
▁vorteil	-10.966
▁erhielt	-10.9661
▁replace	-10.9661
▁1950	-10.9663
▁estimate	-10.9665
▁regime	-10.9665
▁amp	-10.9665
▁lift	-10.9667
▁lights	-10.9675
▁genauer	-10.9677
▁reform	-10.9679
▁bag	-10.9686
▁peer	-10.9694
▁wunderschöne	-10.9695
▁fäng	-10.9704
▁mitten	-10.9708
▁verschwinden	-10.9716
▁unterscheide	-10.9719
▁elemente	-10.972
▁master	-10.972
plan	-10.9725
bild	-10.9729
▁round	-10.9734
▁davo	-10.9743
▁gestorben	-10.9746
▁experten	-10.9746
▁mirror	-10.9746
▁invisible	-10.9749
at	-10.9749
▁grafik	-10.9753
▁10.000	-10.9755
▁pilot	-10.9764
▁garten	-10.9772
▁erkenntnis	-10.9772
▁rational	-10.9773
▁verbrachte	-10.9781
▁physische	-10.9782
▁jump	-10.9783
▁limit	-10.9795
▁teilchen	-10.9795
▁lie	-10.9796
▁organismen	-10.9805
v	-10.9808
▁schrecklich	-10.9812
▁ex	-10.9813
▁teams	-10.9815
▁zerstört	-10.983
▁interagieren	-10.9833
▁dürfe	-10.9834
▁saturn	-10.9834
▁awful	-10.9834
▁translate	-10.9835
▁intellectual	-10.9835
▁innovative	-10.9836
▁lad	-10.9836
▁2,000	-10.9837
▁erhält	-10.9837
▁steel	-10.9841
▁anstelle	-10.9841
off	-10.9847
▁carrie	-10.9848
▁beobachtet	-10.9849
arbeit	-10.9861
▁kannte	-10.987
▁erwachsene	-10.9878
wenden	-10.9881
▁bedeuten	-10.9882
▁seltsame	-10.989
tra	-10.9893
▁bell	-10.9895
▁receive	-10.9897
▁meiste	-10.9901
▁sparen	-10.9904
▁hyper	-10.9904
▁spielte	-10.9904
▁pounds	-10.9913
▁handlung	-10.992
▁bemerkt	-10.992
▁equation	-10.9922
▁cognitive	-10.9923
▁analysis	-10.9923
▁militär	-10.9923
▁protection	-10.9926
▁era	-10.9928
▁consumption	-10.993
▁mindesten	-10.993
▁claim	-10.9932
▁sweet	-10.9936
▁viren	-10.9938
▁berg	-10.9944
▁mode	-10.9947
▁holen	-10.9947
▁winzig	-10.9948
▁brings	-10.995
▁dirt	-10.9951
▁collapse	-10.9967
ities	-10.9969
gesundheitswesen	-10.9969
▁score	-10.997
gesehen	-10.997
laden	-10.997
▁angesehen	-10.9976
▁stein	-10.9989
▁schlimmer	-10.9995
▁chemische	-10.9999
▁dry	-11.0001
life	-11.0002
▁creation	-11.0009
▁employee	-11.0012
▁verwandeln	-11.0012
▁flat	-11.0013
▁pen	-11.0016
▁zukünftige	-11.002
▁entspr	-11.0024
▁drübe	-11.0029
▁erfinden	-11.0032
▁dimensions	-11.0036
▁häufig	-11.0037
▁annehmen	-11.0039
▁lake	-11.0041
▁bi	-11.006
▁inhalt	-11.0067
stadt	-11.0069
▁insel	-11.0073
▁limited	-11.0074
▁morgens	-11.0077
▁nah	-11.0079
▁weapons	-11.008
▁ziele	-11.0085
igkeit	-11.0086
▁deeply	-11.0086
▁gesichter	-11.0086
tech	-11.0094
rb	-11.0096
▁inspiriert	-11.0099
▁ancestor	-11.0101
▁quasi	-11.0101
▁perception	-11.0102
▁evil	-11.0102
▁politician	-11.0102
▁heisst	-11.0106
▁gehirne	-11.0109
▁eingesetzt	-11.011
▁diabetes	-11.011
▁laser	-11.011
▁100,000	-11.0111
▁dran	-11.0112
▁2001	-11.0114
▁komm	-11.0115
▁portrait	-11.0121
▁zoom	-11.0122
▁rahmen	-11.0125
▁zeitalter	-11.0126
▁nor	-11.0127
▁kindheit	-11.0127
▁climb	-11.0128
▁vertraut	-11.0134
▁kriegen	-11.0145
▁nützlich	-11.0153
▁schwarz	-11.0162
▁nano	-11.0162
▁unabhängig	-11.0163
▁click	-11.0167
▁solv	-11.0167
▁unles	-11.0174
▁verbreiten	-11.0176
▁stammt	-11.0179
▁perfekte	-11.018
▁technische	-11.0183
ated	-11.0184
▁32	-11.0185
▁min	-11.0186
▁bruder	-11.0191
▁silicon	-11.0192
▁library	-11.0192
▁hidden	-11.0193
▁öffentlichkeit	-11.0193
▁department	-11.0194
▁construction	-11.0194
▁verbessert	-11.0197
▁humor	-11.0198
▁füße	-11.0198
▁applie	-11.02
▁pause	-11.0202
▁simulation	-11.0203
▁planets	-11.0205
▁erscheinen	-11.0211
▁kalt	-11.0215
▁dreams	-11.0216
▁regen	-11.0216
▁actor	-11.0217
▁existieren	-11.0221
tion	-11.0221
▁zerstören	-11.0224
▁iron	-11.0227
▁hop	-11.0236
▁harm	-11.024
▁glaubte	-11.0241
▁künstliche	-11.0241
▁talks	-11.0243
▁sw	-11.0252
▁schien	-11.0253
▁dinosaurs	-11.0255
wissenschaftlich	-11.0257
▁suppose	-11.0258
da	-11.0261
▁krank	-11.0261
▁matters	-11.0266
skraft	-11.0267
▁crack	-11.0268
lange	-11.027
ien	-11.0272
▁biete	-11.0272
▁steuern	-11.0281
▁cambridge	-11.0284
▁elephant	-11.0284
▁entworfen	-11.0284
▁heavy	-11.0284
▁hurt	-11.0284
▁empower	-11.0284
▁leadership	-11.0285
▁injur	-11.0285
▁kick	-11.0288
▁spoke	-11.029
▁determine	-11.029
all	-11.0291
▁satz	-11.0297
was	-11.03
▁berechnung	-11.0302
▁mitarbeiter	-11.0302
▁offene	-11.0303
▁load	-11.0304
▁erlebt	-11.0306
▁produktion	-11.0307
▁knowing	-11.0309
▁verteilt	-11.031
▁blow	-11.0312
▁sag	-11.0317
▁tim	-11.0326
▁angenommen	-11.0327
▁wirtschafts	-11.0329
▁gates	-11.0335
▁feels	-11.0337
▁untersucht	-11.0345
▁extract	-11.0346
▁operate	-11.0347
▁mu	-11.035
▁schnitt	-11.0355
▁dimension	-11.0357
▁ältere	-11.0364
▁explosion	-11.0364
▁teuer	-11.0375
▁boom	-11.0376
▁elektrizität	-11.0377
▁weather	-11.0377
▁initial	-11.0377
di	-11.0378
▁bestimmen	-11.0381
▁einsetzen	-11.0382
▁photos	-11.0383
▁martin	-11.0384
▁britische	-11.0384
▁emotionen	-11.0385
▁variet	-11.0387
▁komplex	-11.0388
▁highest	-11.0389
▁lehren	-11.0391
▁struggle	-11.0393
▁werbung	-11.0394
tag	-11.0398
▁gegenteil	-11.0403
▁occurr	-11.0404
▁usw	-11.0411
▁lo	-11.0412
▁wundervolle	-11.0414
▁ordinar	-11.0414
▁folge	-11.0416
▁lied	-11.0424
▁kerl	-11.0425
▁aspekt	-11.0426
▁hirn	-11.0431
▁schönen	-11.0437
▁philosoph	-11.0441
▁winzige	-11.0445
▁gebrauch	-11.0452
▁wa	-11.0456
▁unterstützt	-11.0457
▁jack	-11.0458
▁sms	-11.0458
▁erstellt	-11.046
▁speziell	-11.0464
▁kohlenstoff	-11.0466
▁weißt	-11.0469
▁vessel	-11.047
▁teeth	-11.0471
▁flies	-11.0471
▁kaffee	-11.0471
▁discussion	-11.0471
▁title	-11.0472
▁pleasure	-11.0473
▁aufregend	-11.0485
▁quarter	-11.0489
▁sichtbar	-11.0489
▁verschieden	-11.049
▁sa	-11.049
▁input	-11.0496
▁folgt	-11.0497
▁tail	-11.0498
▁bedürfnisse	-11.0502
ir	-11.0509
▁passt	-11.0509
▁kochen	-11.0509
▁meeres	-11.0513
▁surround	-11.0516
▁lung	-11.0522
▁hunde	-11.0528
▁grundsätzlich	-11.0535
▁aufhör	-11.0545
struktur	-11.0545
▁lager	-11.0549
▁tens	-11.0553
▁smile	-11.0556
▁gedanke	-11.0563
▁incentive	-11.0564
▁irgendjemand	-11.0564
▁curious	-11.0565
▁liquid	-11.0568
▁interaktion	-11.057
▁precise	-11.0572
▁due	-11.0573
▁infect	-11.0576
ville	-11.0577
▁erschein	-11.0579
▁gesamt	-11.058
▁kompliziert	-11.0585
▁ehe	-11.0587
▁erwachsenen	-11.0589
band	-11.0589
▁eindruck	-11.059
▁lustig	-11.0592
▁viruses	-11.0595
▁aging	-11.0597
▁reicht	-11.0599
▁enorm	-11.06
▁120	-11.0606
▁batterie	-11.061
▁hans	-11.061
▁kontinent	-11.0611
▁räume	-11.0615
▁leader	-11.0616
▁kohle	-11.0616
▁sensor	-11.0619
▁seed	-11.0619
▁95	-11.0624
▁entstanden	-11.0633
▁klassische	-11.0636
▁molekül	-11.064
organisation	-11.0643
▁army	-11.0644
▁individu	-11.0646
▁opening	-11.0647
▁hollywood	-11.0652
▁einheit	-11.0656
▁arms	-11.0657
▁explanation	-11.066
▁epidemic	-11.066
▁silk	-11.066
▁nervous	-11.066
▁narrative	-11.0662
kommen	-11.0663
▁strategy	-11.0663
schaft	-11.0665
▁liberal	-11.0667
▁frame	-11.067
▁initiative	-11.067
▁abhängig	-11.0671
▁oceans	-11.0674
▁emergenc	-11.0676
▁hate	-11.068
▁erwähnt	-11.0682
gekommen	-11.0687
▁allgemeine	-11.0695
▁unterhaltung	-11.0699
▁bieten	-11.07
▁bare	-11.0704
lage	-11.0708
▁suit	-11.0715
▁losing	-11.0722
▁versteh	-11.0724
▁schwimmen	-11.0729
gezogen	-11.0732
▁gesunde	-11.0734
▁schwarzen	-11.0735
▁sam	-11.0739
▁annahme	-11.0742
▁remove	-11.0743
sitzt	-11.0743
ate	-11.0745
▁skill	-11.0751
▁novel	-11.0754
▁muskel	-11.0754
▁beschäftige	-11.0756
▁rural	-11.0756
▁sculpture	-11.0756
▁beantworten	-11.0756
▁grown	-11.0757
▁enem	-11.0761
▁closed	-11.0764
▁player	-11.0773
▁neuro	-11.0777
▁gefahren	-11.0778
▁daily	-11.0781
selber	-11.0783
▁schwierigkeit	-11.0784
▁killing	-11.0786
▁zählen	-11.0789
org	-11.0792
▁195	-11.0793
▁linke	-11.0798
▁einrichtung	-11.0799
▁parallel	-11.0802
older	-11.0803
▁majorit	-11.0803
▁zurückzu	-11.0804
▁vorhanden	-11.0805
▁economics	-11.0809
▁nord	-11.0814
▁drogen	-11.0827
▁mikro	-11.083
board	-11.0834
▁brachten	-11.0837
▁behalten	-11.0842
▁tricks	-11.0846
▁seines	-11.0849
▁parent	-11.0852
▁gore	-11.0852
▁glamour	-11.0853
▁float	-11.0853
▁kitchen	-11.0853
cortex	-11.0853
gegangen	-11.0854
▁apartment	-11.0854
▁grab	-11.0854
▁hallo	-11.0857
▁chemie	-11.0861
▁director	-11.0863
▁mortality	-11.0864
▁wenigsten	-11.0865
▁wagen	-11.087
▁exchange	-11.0882
▁ökosystem	-11.0885
▁nachbarn	-11.089
▁br	-11.0894
▁gegenseitig	-11.0902
▁speaker	-11.0908
▁button	-11.091
▁caus	-11.0916
▁fähig	-11.0916
▁volk	-11.0928
effekt	-11.0935
▁aufbauen	-11.0936
▁netzwerke	-11.0936
▁liter	-11.0938
▁gun	-11.094
▁geändert	-11.0951
▁definite	-11.0951
▁reef	-11.0951
▁australia	-11.0951
▁gäbe	-11.0954
▁northern	-11.0954
▁mama	-11.0954
▁studieren	-11.0956
▁zweck	-11.0959
▁gelesen	-11.0965
gang	-11.0967
geschichte	-11.0968
▁clinic	-11.097
▁grain	-11.097
▁gelöst	-11.0975
▁tie	-11.0998
▁rief	-11.0999
▁geographic	-11.1005
arbeiten	-11.1006
▁ursprünglich	-11.101
▁artificial	-11.101
▁exercise	-11.1011
▁hoffen	-11.1019
▁nötig	-11.1022
▁beschlossen	-11.1025
▁beitrag	-11.1034
▁gespräch	-11.1035
▁mai	-11.1039
▁finanz	-11.1041
▁babys	-11.1041
▁bob	-11.1043
daten	-11.1045
▁sitz	-11.1045
▁lock	-11.1048
▁govern	-11.1048
bahn	-11.105
▁empty	-11.105
▁manhattan	-11.105
▁cousin	-11.105
▁robotic	-11.1052
▁gefällt	-11.1052
▁träume	-11.1054
▁efficienc	-11.1055
greifen	-11.1057
▁dach	-11.1059
▁löcher	-11.1061
▁strength	-11.1066
▁köpfe	-11.1068
▁associate	-11.1072
leben	-11.1073
▁steps	-11.1075
▁schlagen	-11.1076
▁auseinander	-11.1078
▁geschickt	-11.108
▁quelle	-11.1084
▁wider	-11.1097
▁addition	-11.1099
▁tanz	-11.1104
▁aussage	-11.1113
▁stoo	-11.1119
▁meinte	-11.1127
▁weltraum	-11.1128
▁nett	-11.1128
foot	-11.1136
kopf	-11.1137
▁names	-11.1138
▁clinical	-11.1142
getragen	-11.1143
▁taliban	-11.115
▁property	-11.115
▁besessen	-11.115
▁stufe	-11.1152
▁voices	-11.1154
▁reduzieren	-11.1158
▁wurzel	-11.1159
▁sucht	-11.1168
▁broad	-11.1173
ja	-11.1179
▁nationen	-11.119
▁besitz	-11.119
▁jahrzehnte	-11.1203
▁baseball	-11.1208
ler	-11.1215
▁krise	-11.1216
▁consequences	-11.1219
▁schwierige	-11.1219
▁berührt	-11.122
▁analog	-11.1226
▁tape	-11.1238
▁measur	-11.1239
holen	-11.1242
▁vermitteln	-11.1251
▁client	-11.1251
▁coca	-11.1252
▁marriage	-11.1253
▁verbindet	-11.1253
▁medikament	-11.1253
▁trillion	-11.1254
▁manager	-11.1255
▁corruption	-11.1257
▁battle	-11.1262
▁lifetime	-11.1262
▁lecture	-11.1267
▁schimpansen	-11.1269
▁geräusch	-11.1272
▁mothers	-11.1278
▁gespielt	-11.128
▁icon	-11.1282
verständlich	-11.1283
▁innen	-11.1285
▁pink	-11.1292
▁legt	-11.1296
▁detect	-11.1299
▁sonnen	-11.1303
▁prototype	-11.1304
ca	-11.1309
▁rio	-11.1309
▁gehören	-11.1315
▁soft	-11.1316
lasst	-11.1317
▁folks	-11.1326
▁stamm	-11.1334
▁mountains	-11.1343
▁organs	-11.1343
▁symptom	-11.1345
5.000	-11.1347
▁arbeiter	-11.135
▁abraham	-11.1353
▁alzheimer	-11.1353
▁maintain	-11.1353
▁physicist	-11.1353
▁chemistry	-11.1353
▁lawyer	-11.1353
▁wohlstand	-11.1354
▁mexiko	-11.1355
▁mut	-11.1356
▁southern	-11.1357
▁invention	-11.1358
▁shapes	-11.1358
▁fiber	-11.1358
schaut	-11.1361
▁tall	-11.1363
▁poem	-11.1366
▁setting	-11.1367
▁kulturen	-11.1369
▁signals	-11.1369
ol	-11.1374
▁viertel	-11.1374
▁vorne	-11.1375
weile	-11.1378
▁plate	-11.1382
▁emotionale	-11.1383
▁grenze	-11.1392
▁herren	-11.14
▁entdeckte	-11.1406
▁öffentlich	-11.1413
▁scan	-11.1415
tisch	-11.142
ng	-11.142
▁unterrichten	-11.1422
▁organize	-11.1426
▁damen	-11.1428
▁orange	-11.1448
▁dozen	-11.145
▁tony	-11.1452
▁facilit	-11.1454
▁calculate	-11.1456
▁februar	-11.1456
▁reputation	-11.1456
▁stupid	-11.1456
▁chapter	-11.1456
▁kev	-11.1456
▁fake	-11.1458
▁beinahe	-11.1458
▁identify	-11.1459
▁cutting	-11.1462
▁smith	-11.1463
▁appropriate	-11.1463
▁upper	-11.1463
▁massen	-11.1465
▁counter	-11.1468
▁celebrate	-11.147
▁symmetrie	-11.1473
▁eastern	-11.1473
weg	-11.1474
▁lauf	-11.1476
▁gefangen	-11.1476
▁effekt	-11.1486
maßen	-11.1499
▁newton	-11.1499
▁bomb	-11.1501
▁trends	-11.1508
erkennung	-11.1509
▁süd	-11.1512
▁brita	-11.1517
▁mathematical	-11.152
▁gebraucht	-11.1524
▁conduct	-11.1525
▁dumm	-11.153
▁swim	-11.1534
▁wine	-11.1549
▁heads	-11.1554
▁stärker	-11.1558
▁brazil	-11.156
▁korruption	-11.156
▁encounter	-11.156
▁florida	-11.156
▁schulter	-11.1563
▁faith	-11.1563
▁angesicht	-11.1563
▁accurate	-11.1565
▁definieren	-11.1566
▁kombination	-11.1567
▁howard	-11.1568
▁chain	-11.1569
▁sphere	-11.1573
▁credit	-11.1574
▁cure	-11.1574
▁mistake	-11.1574
▁wake	-11.1576
▁zähne	-11.1581
▁schaden	-11.1584
▁sheet	-11.1589
fahren	-11.159
▁molecul	-11.159
▁ernsthaft	-11.1592
▁wieviel	-11.1595
▁diagramm	-11.1598
heben	-11.1599
▁momentan	-11.1601
berg	-11.1602
▁weile	-11.1632
▁konzentriert	-11.1634
▁übrig	-11.1636
▁solid	-11.1641
▁transparent	-11.1646
▁bestand	-11.1648
▁freundin	-11.1652
wissenschaftler	-11.1659
▁oxytocin	-11.1666
▁agenda	-11.1666
▁brian	-11.1666
▁combination	-11.1666
▁ledig	-11.1667
▁methan	-11.1667
▁spectrum	-11.167
▁äußerst	-11.1671
▁großmutter	-11.1671
▁interpretation	-11.1673
▁steigen	-11.1673
▁marrie	-11.1674
▁präsentation	-11.1676
▁root	-11.1679
▁ozeane	-11.1681
▁zweifel	-11.169
▁generationen	-11.1711
▁effektiv	-11.1715
▁fälle	-11.1718
▁hero	-11.1721
▁windows	-11.1722
▁statistiken	-11.1723
▁swed	-11.1724
▁homo	-11.1738
ember	-11.1741
▁feststelle	-11.1742
▁derzeit	-11.1746
▁member	-11.1748
▁norm	-11.1759
▁cup	-11.1766
▁demonstrate	-11.1767
▁review	-11.1771
▁amazon	-11.1771
▁attract	-11.1772
▁redwood	-11.1772
▁democratic	-11.1776
▁lies	-11.1776
▁titan	-11.1777
▁derselbe	-11.1777
▁label	-11.1778
▁reverse	-11.178
▁australien	-11.178
▁sites	-11.1781
▁bedrohung	-11.1781
▁statement	-11.1785
▁strand	-11.1787
▁tear	-11.1789
▁dealing	-11.179
▁folie	-11.179
▁chart	-11.1792
▁abschluss	-11.1793
▁helden	-11.1794
ger	-11.1799
▁überlegen	-11.1799
▁nerve	-11.1805
▁beinhaltet	-11.1811
▁schuhe	-11.1814
▁ereignisse	-11.1816
▁einstellung	-11.1819
▁methoden	-11.1819
▁ju	-11.1823
▁schätzen	-11.1828
▁gemeinden	-11.1829
▁zieht	-11.1834
▁assume	-11.1841
▁ausmaß	-11.1851
▁zugänglich	-11.1854
▁rocket	-11.1855
▁relate	-11.1858
bereich	-11.1859
▁schlechter	-11.1859
▁spieler	-11.1865
immt	-11.1873
▁spin	-11.1878
▁kapitel	-11.1879
▁computation	-11.188
▁musician	-11.1881
auf	-11.1882
▁regard	-11.1884
▁permanent	-11.1885
▁infinite	-11.1886
▁zitat	-11.1891
▁werk	-11.1892
que	-11.1906
▁faszinierend	-11.1909
▁seht	-11.1915
▁mechanical	-11.1917
▁kaufte	-11.193
▁schau	-11.1932
▁arbeits	-11.1936
▁succeed	-11.1937
▁zusätzlich	-11.1941
▁zeichnen	-11.1942
▁gefallen	-11.1959
▁verlauf	-11.1959
▁emissions	-11.1961
▁sch	-11.1968
raten	-11.1968
▁langer	-11.1971
▁ersetzen	-11.1975
▁chemicals	-11.1978
▁broke	-11.198
▁journal	-11.1981
▁puzzle	-11.1981
scale	-11.1985
durchschnittlich	-11.1986
▁privat	-11.1987
▁roman	-11.1988
▁valuable	-11.1988
▁heimat	-11.1989
▁radiation	-11.1989
▁variable	-11.1991
▁gravity	-11.1993
▁birthday	-11.1994
▁tower	-11.1996
▁darstellung	-11.1997
▁trug	-11.1997
▁blogs	-11.1999
▁bond	-11.2
▁fort	-11.2002
▁jedenfall	-11.2004
▁terror	-11.2009
▁linien	-11.2018
▁beschloss	-11.2023
▁schreckliche	-11.2024
▁electronic	-11.203
▁schicht	-11.2034
▁penguins	-11.2035
ray	-11.2037
▁wesentliche	-11.204
▁aktion	-11.2046
▁frühe	-11.2048
▁golden	-11.2063
▁zuhören	-11.2063
▁passen	-11.2069
▁heran	-11.2074
▁proteins	-11.2075
kind	-11.2078
▁maps	-11.2086
▁betroffen	-11.2088
ka	-11.209
au	-11.2092
▁witness	-11.2093
▁pile	-11.2096
▁phantom	-11.2097
▁toilet	-11.2097
▁ro	-11.2098
▁lincoln	-11.2098
▁shanghai	-11.2098
▁unusual	-11.2098
▁kreieren	-11.2098
▁quantum	-11.2098
▁balloon	-11.2098
▁illness	-11.2098
▁knee	-11.2099
ta	-11.21
▁demonstration	-11.21
▁presentation	-11.2103
▁prediction	-11.2104
▁maßstab	-11.2105
▁atom	-11.2106
ierung	-11.2106
▁rush	-11.2108
▁collection	-11.2108
▁schlafen	-11.2109
▁bedarf	-11.2111
▁cluster	-11.2111
▁comfortabl	-11.2113
▁obes	-11.2116
▁adopt	-11.2117
▁primar	-11.2118
▁ka	-11.2118
▁berichten	-11.2119
▁21.	-11.212
▁gather	-11.2121
▁loud	-11.2124
▁grippe	-11.2127
▁geheimnis	-11.2132
▁religiöse	-11.2132
▁ignore	-11.2133
▁mehrheit	-11.2133
▁erfindung	-11.2135
▁hinten	-11.2137
▁uni	-11.2141
▁5,000	-11.215
▁gleichung	-11.215
▁neuron	-11.2151
▁ohren	-11.2155
▁judge	-11.2156
▁reagiere	-11.2158
▁route	-11.2163
technologie	-11.2169
ney	-11.217
▁ach	-11.2171
▁einge	-11.2175
▁süden	-11.2184
▁undern	-11.2188
▁mile	-11.2189
▁dick	-11.2189
▁historical	-11.2191
▁killer	-11.2198
▁wirkliche	-11.2202
▁handel	-11.2204
▁atem	-11.2205
feld	-11.2209
▁conclusion	-11.2209
▁pollution	-11.2209
ländern	-11.2209
▁schatten	-11.221
▁henry	-11.221
▁ober	-11.2212
▁gekauft	-11.2213
▁metall	-11.2217
▁limb	-11.2225
▁stuhl	-11.2229
▁height	-11.2238
▁kapital	-11.2241
▁stücke	-11.2241
▁1.	-11.2256
▁führer	-11.2258
▁musiker	-11.226
▁wettbewerb	-11.2264
▁su	-11.2266
op	-11.2273
▁aufge	-11.228
grund	-11.2291
▁pm	-11.2292
▁atoms	-11.2293
▁ausstellung	-11.2311
▁whom	-11.2319
▁kenia	-11.2321
schaftliche	-11.2321
▁congress	-11.2322
▁circumstance	-11.2322
▁feynman	-11.2322
▁official	-11.2322
▁hydrogen	-11.2322
▁genius	-11.2322
▁psychology	-11.2322
▁battery	-11.2326
▁verglich	-11.2328
▁percentage	-11.233
▁properti	-11.233
▁europäische	-11.2332
2-	-11.2334
▁coal	-11.2335
▁mall	-11.2336
▁grid	-11.2338
▁entfernung	-11.2341
▁section	-11.2343
▁wüste	-11.2344
ei	-11.2346
▁theme	-11.235
▁prozesse	-11.2351
▁entstand	-11.2353
▁bike	-11.2357
schließen	-11.2358
▁expedition	-11.2359
▁schwere	-11.2367
▁eric	-11.2367
▁prepared	-11.237
▁anruf	-11.237
▁weibliche	-11.2371
▁zentrale	-11.2372
▁verbesserung	-11.2375
▁anteil	-11.2381
11	-11.239
▁shoulder	-11.2392
▁emerge	-11.2403
▁manufactur	-11.2406
▁existenz	-11.2407
▁sight	-11.2408
▁vogel	-11.2417
mehr	-11.2418
versorgung	-11.2434
▁südafrika	-11.2435
▁brasilien	-11.2435
▁chimpanzee	-11.2435
▁existence	-11.2435
▁gelebt	-11.2436
▁lifestyle	-11.2436
▁evolutionary	-11.2437
▁gemälde	-11.2438
▁pfund	-11.2439
▁gegenwart	-11.244
▁attach	-11.2441
▁atheist	-11.2441
▁agent	-11.245
▁3,000	-11.245
▁aufzubauen	-11.245
▁fördern	-11.245
▁bekomme	-11.2458
▁players	-11.2461
▁hierher	-11.2462
▁33	-11.2466
▁generations	-11.2466
▁tonnen	-11.2466
▁schuld	-11.2466
▁inform	-11.2467
▁gebete	-11.2468
▁besorgt	-11.2473
▁unfall	-11.2478
▁entfern	-11.2479
▁soul	-11.248
▁charit	-11.2483
▁probe	-11.2484
▁aufnahme	-11.2493
▁embrace	-11.2495
▁zauber	-11.2496
▁steven	-11.2509
▁feier	-11.2514
▁recording	-11.2517
▁klinik	-11.252
▁farmer	-11.252
▁season	-11.2523
▁tiefer	-11.2523
12	-11.253
▁roots	-11.2536
▁mistakes	-11.2539
▁fortune	-11.2544
▁bor	-11.2549
▁phrase	-11.255
▁laboratory	-11.255
▁kanada	-11.255
▁collaboration	-11.255
▁hardware	-11.255
▁wireless	-11.2551
▁intervention	-11.2551
▁ii	-11.2551
▁exploration	-11.2553
▁gegründet	-11.2553
▁length	-11.2553
holfen	-11.2554
▁pacific	-11.2555
▁visible	-11.2555
▁customer	-11.2556
material	-11.2561
▁mutation	-11.2564
ken	-11.2567
▁seek	-11.2567
▁stammzellen	-11.2568
▁alpha	-11.2571
▁driver	-11.2574
▁webseite	-11.2579
krankheiten	-11.2586
▁erhöht	-11.2588
zentrum	-11.2594
weise	-11.2596
▁verwandelt	-11.2596
▁verbrauch	-11.2597
▁automatisch	-11.26
▁chef	-11.26
▁nachts	-11.26
▁installation	-11.26
▁hormone	-11.26
▁fett	-11.2606
▁style	-11.2608
gruppe	-11.2615
▁kurs	-11.2624
▁handle	-11.2624
nehmen	-11.2626
▁veränderte	-11.2632
▁belohnung	-11.2633
▁wovo	-11.2634
▁meme	-11.2637
▁schwieriger	-11.2637
▁mathematische	-11.2647
zwischen	-11.2663
▁dilemma	-11.2666
▁ingredient	-11.2666
▁heaven	-11.2666
▁christian	-11.2667
▁froh	-11.2667
▁snow	-11.2667
▁panel	-11.2667
▁echtzeit	-11.2668
▁elder	-11.2668
▁ngo	-11.2669
▁garage	-11.2672
▁cricket	-11.2673
▁stern	-11.2673
▁cheat	-11.2674
▁sum	-11.2677
▁chemikalien	-11.2682
▁former	-11.2682
▁nachbarschaft	-11.2685
geschwindigkeit	-11.2685
▁industrielle	-11.2687
▁meist	-11.2688
▁script	-11.2689
▁seal	-11.269
▁positiv	-11.2696
▁verstehe	-11.2711
▁unglücklich	-11.2713
▁verrückte	-11.2714
▁severe	-11.2719
▁ingenieure	-11.2726
▁politisch	-11.2727
▁queen	-11.2728
▁author	-11.2728
▁höre	-11.2729
bau	-11.2731
▁wal	-11.2735
▁gelb	-11.2738
▁vorzu	-11.2747
▁decline	-11.2749
▁mt	-11.2759
▁categor	-11.2762
▁ausnahme	-11.2776
▁19.	-11.2776
source	-11.2777
▁ra	-11.2777
▁kilo	-11.2779
▁hous	-11.278
▁bay	-11.278
▁blätter	-11.2784
▁gulf	-11.2784
▁erweitern	-11.2784
▁irgendwelche	-11.2784
▁mushroom	-11.2784
▁session	-11.2784
▁wüsste	-11.2784
▁convert	-11.2784
destruction	-11.2784
▁koran	-11.2784
▁instant	-11.2784
▁sunlight	-11.2784
▁engagement	-11.2785
▁jesus	-11.2785
▁afrikaner	-11.2786
level	-11.2788
▁momente	-11.2789
▁doubt	-11.2792
▁heißen	-11.2792
▁compar	-11.2799
▁organiz	-11.2799
▁800	-11.2804
▁kabel	-11.2806
isierung	-11.2806
buch	-11.2808
▁zer	-11.2811
probieren	-11.2812
▁scott	-11.2813
▁paradigm	-11.2813
▁aufnehmen	-11.2814
▁vorhersagen	-11.2817
▁solcher	-11.282
▁cultures	-11.2821
▁pa	-11.2822
▁rad	-11.2822
▁bemerken	-11.2825
▁blumen	-11.2825
▁county	-11.2826
ut	-11.2826
▁drauf	-11.2828
▁dauerte	-11.2829
▁vermute	-11.283
▁virtuelle	-11.2835
▁consume	-11.2837
▁discuss	-11.284
▁circuit	-11.2842
▁animation	-11.2847
▁march	-11.2849
▁anschaut	-11.2851
▁verhältnis	-11.2855
▁änderung	-11.2863
▁kontrolliert	-11.2866
▁berühmte	-11.2873
▁ernährung	-11.2876
▁nei	-11.2883
▁heim	-11.2885
▁tea	-11.2899
▁unite	-11.29
▁mathematician	-11.2903
▁überraschung	-11.2903
risiken	-11.2903
▁reference	-11.2903
▁intense	-11.2903
▁shall	-11.2903
▁fox	-11.2904
▁healthcare	-11.2904
▁afterward	-11.2904
▁implication	-11.2905
▁fasziniert	-11.2905
▁suck	-11.2907
▁nerven	-11.2907
▁jeff	-11.2907
▁deutschland	-11.2908
▁zug	-11.2911
▁akzeptieren	-11.2911
▁stahl	-11.2913
▁tee	-11.2917
▁nose	-11.2918
▁besuch	-11.2921
▁highway	-11.2925
▁halt	-11.2929
▁proteine	-11.2931
▁antwortete	-11.2934
▁wetter	-11.2934
▁firm	-11.2937
ul	-11.2938
▁55	-11.2938
▁pool	-11.2939
▁verlust	-11.2947
▁sustain	-11.2947
▁gentlem	-11.2948
▁entscheidende	-11.295
▁standards	-11.2952
▁spiegel	-11.2952
▁pinguine	-11.2957
▁hai	-11.2959
▁fährt	-11.2963
▁lächeln	-11.2964
▁vereint	-11.2967
▁toten	-11.2971
▁tube	-11.2984
▁fortschritte	-11.2986
▁weltweite	-11.299
▁burning	-11.2991
▁regret	-11.2992
▁diagnose	-11.2993
▁belong	-11.2996
▁liebte	-11.2998
▁resistan	-11.3003
▁begrenzt	-11.3016
▁besitzt	-11.3021
▁danger	-11.3023
▁seid	-11.3023
▁erkennt	-11.3024
▁apparent	-11.3024
▁assumption	-11.3024
▁empathy	-11.3024
▁mosquito	-11.3024
▁scratch	-11.3024
▁biologist	-11.3024
▁darunter	-11.3025
▁linear	-11.3025
▁ticket	-11.303
▁kostenlos	-11.3032
▁bibel	-11.3033
▁100.000	-11.3034
▁academic	-11.3034
▁lebendig	-11.3034
▁geschenk	-11.3036
▁reduziert	-11.3037
▁clay	-11.3038
▁bronx	-11.3045
▁gewaltige	-11.3046
▁freie	-11.3047
▁nieder	-11.3049
▁plattform	-11.3051
▁nase	-11.3052
▁signale	-11.3056
▁erhöh	-11.3057
▁versteckt	-11.3061
▁si	-11.3068
he	-11.3076
▁erkrankung	-11.3077
▁physiker	-11.3079
▁le	-11.3082
▁ride	-11.3083
▁11.	-11.3089
▁wünschte	-11.3095
▁albert	-11.3098
▁tanzen	-11.31
▁einzigartige	-11.3113
ssystem	-11.3114
▁automatic	-11.312
▁wora	-11.3122
▁lokal	-11.3122
▁28	-11.3126
▁comfort	-11.3129
▁insbesonder	-11.3146
▁predator	-11.3146
▁revenue	-11.3146
▁klassenzimmer	-11.3146
▁forgot	-11.3146
▁connectome	-11.3146
▁acid	-11.3146
▁entertainment	-11.3146
▁worauf	-11.3146
▁alex	-11.3146
▁tattoo	-11.3148
▁spaces	-11.3151
▁vermeiden	-11.3156
kraft	-11.3159
▁übernehmen	-11.3162
▁prinzipien	-11.3164
▁durchführen	-11.3164
▁darstellen	-11.3166
▁melt	-11.317
maschine	-11.3175
▁kirche	-11.3176
▁persönlichkeit	-11.3178
▁fakten	-11.318
▁beruf	-11.3181
▁sink	-11.3187
▁besagt	-11.3198
▁moore	-11.3199
▁cartoon	-11.3209
▁shake	-11.3213
▁tap	-11.3222
▁gottes	-11.3226
▁körpers	-11.3228
▁schickte	-11.3231
▁nationale	-11.3241
un	-11.3243
ak	-11.3247
rseit	-11.325
▁liefer	-11.3253
▁erkannt	-11.3253
▁nachhaltige	-11.3254
▁ökonom	-11.326
▁zusammenzu	-11.3265
▁construct	-11.3266
▁abstract	-11.3267
▁select	-11.3268
▁vulnerab	-11.3269
▁pizza	-11.3269
▁piano	-11.3269
▁passionate	-11.3269
▁instruction	-11.327
▁älteste	-11.3271
▁crop	-11.3273
▁gewählt	-11.3273
▁sophisticated	-11.3276
▁computing	-11.3276
platz	-11.3278
▁hong	-11.3278
ground	-11.3278
half	-11.328
▁programmier	-11.3283
lson	-11.3286
modell	-11.3286
▁cable	-11.3287
▁schritte	-11.3291
▁corn	-11.3293
▁wohnung	-11.3295
▁mi	-11.3295
▁sorge	-11.3297
▁intuitive	-11.3303
endlich	-11.3305
▁elektronische	-11.3305
▁schiff	-11.3318
▁protest	-11.332
▁jahres	-11.332
▁ear	-11.3322
▁ears	-11.3324
▁verfolgt	-11.3325
▁comment	-11.3337
▁elite	-11.334
ification	-11.3341
arten	-11.3345
▁fach	-11.3347
▁erd	-11.3349
▁technological	-11.3353
▁internal	-11.3355
▁con	-11.3355
▁singen	-11.3355
▁symmetr	-11.3364
▁durchzu	-11.3373
▁weak	-11.3374
▁finanzielle	-11.3381
▁abge	-11.3385
▁10-	-11.3391
▁ingenieur	-11.3392
▁schicksal	-11.3394
▁gandhi	-11.3394
▁mikroben	-11.3394
▁framework	-11.3394
▁shut	-11.3394
▁durfte	-11.3394
zi	-11.3395
▁logo	-11.3396
▁bible	-11.3396
▁aufgewachsen	-11.34
▁productive	-11.34
▁establish	-11.3401
▁explor	-11.3402
▁musical	-11.3402
▁doppelt	-11.3403
▁lion	-11.3403
▁verbreitung	-11.3411
▁2002	-11.3415
▁implant	-11.3418
▁therapie	-11.3418
▁boundar	-11.3421
▁witz	-11.3425
▁barrier	-11.3433
▁tri	-11.3436
▁blatt	-11.3441
▁clock	-11.3445
▁mathematiker	-11.3448
▁islands	-11.3448
▁zusätzliche	-11.3449
▁videospiele	-11.3468
me	-11.3471
▁pflege	-11.3485
laufen	-11.3486
▁kar	-11.3487
▁tiefen	-11.3496
problem	-11.3503
▁fu	-11.3505
▁dropp	-11.3508
ize	-11.351
rate	-11.3515
▁advice	-11.3521
▁tsunami	-11.3521
▁attitude	-11.3521
▁flash	-11.3521
▁commitment	-11.3521
▁benjamin	-11.3521
▁ursache	-11.3521
▁johnson	-11.3522
▁mount	-11.3525
▁riesen	-11.3526
▁überwinden	-11.3526
its	-11.3527
▁doktor	-11.3528
▁robust	-11.353
▁appreciate	-11.3531
▁finance	-11.3531
▁danc	-11.3532
▁leere	-11.3532
▁geräusche	-11.3533
politik	-11.3533
verhalten	-11.3535
▁conventional	-11.354
ba	-11.3544
▁weiterer	-11.3546
markt	-11.3547
▁fle	-11.3548
▁zufall	-11.3558
▁beteiligt	-11.3559
▁comics	-11.3561
▁paradox	-11.3569
weite	-11.357
▁glücklicher	-11.3576
▁bees	-11.3577
zellen	-11.358
▁individuelle	-11.358
ri	-11.3582
▁wolken	-11.3584
▁lügen	-11.3584
▁earn	-11.3584
▁traurig	-11.3585
▁cyber	-11.3589
▁behave	-11.359
▁küste	-11.3592
▁salt	-11.3593
enden	-11.3594
▁infiziert	-11.3596
▁armee	-11.3597
▁tiger	-11.3599
▁fern	-11.3603
▁cow	-11.3603
▁previous	-11.3609
▁auswahl	-11.3611
▁stieg	-11.3615
▁welcome	-11.3617
▁grundlegend	-11.3625
▁staff	-11.363
▁erlebnis	-11.3635
▁participate	-11.3637
▁zuschauer	-11.3644
▁interessantes	-11.3645
▁therap	-11.3646
männchen	-11.3649
▁chocolate	-11.3649
▁inevitabl	-11.3649
▁verschwunden	-11.3649
▁excellen	-11.3649
▁gewann	-11.3649
▁virginia	-11.3649
▁football	-11.3649
▁romantic	-11.3649
▁bizarre	-11.365
▁split	-11.3651
▁horrible	-11.3651
unternehmen	-11.3651
▁mike	-11.3654
▁defense	-11.3654
▁telephone	-11.3655
▁führung	-11.3655
▁verbrechen	-11.3661
▁seti	-11.3661
▁basierend	-11.3667
▁wände	-11.3668
▁buchstaben	-11.3672
▁gebiete	-11.3675
▁konsequenzen	-11.3677
▁asien	-11.368
▁stehe	-11.3684
▁einzigartig	-11.3689
▁brücke	-11.3705
▁lying	-11.3707
▁rap	-11.371
bo	-11.3711
over	-11.3715
ierte	-11.3715
▁terrorist	-11.372
▁volume	-11.3722
lin	-11.3727
▁beenden	-11.3733
▁atmen	-11.3737
▁tank	-11.374
▁weltkrieg	-11.3744
wo	-11.3746
▁bemerkenswerte	-11.3754
▁jugend	-11.3755
▁behavioral	-11.3755
▁bekannte	-11.3761
istic	-11.3763
▁gewisser	-11.377
▁fokus	-11.377
▁aufgeregt	-11.3779
▁excuse	-11.3779
▁unexpected	-11.3779
▁microbes	-11.3779
▁jazz	-11.3779
▁airport	-11.3779
▁greenhouse	-11.3779
▁larry	-11.3779
▁schuf	-11.378
▁characteristic	-11.378
▁improvement	-11.3781
▁typische	-11.3782
▁wahrnehmen	-11.3784
ory	-11.3785
▁monster	-11.3786
▁genügen	-11.3787
▁geruch	-11.3787
▁pour	-11.3789
▁knie	-11.3789
▁frequenc	-11.3791
tun	-11.3795
▁goals	-11.3801
▁neuigkeit	-11.3802
▁se	-11.3803
▁organisieren	-11.3803
▁debatte	-11.3805
ac	-11.3806
▁shame	-11.3807
▁eier	-11.381
▁kreativ	-11.3813
▁mangel	-11.3814
▁sh	-11.3814
being	-11.3821
▁reporter	-11.3833
▁educational	-11.3833
▁betreiben	-11.3837
▁hire	-11.3841
▁arabische	-11.3843
▁photographer	-11.3849
▁geh	-11.3854
▁langsamer	-11.3854
▁asteroid	-11.3859
▁resultat	-11.386
▁wärme	-11.3866
▁forschungs	-11.3867
▁orchestra	-11.3871
▁langweilig	-11.3878
▁haar	-11.3879
▁react	-11.3879
▁hits	-11.3879
▁fläche	-11.3891
▁bildet	-11.3891
▁schlaf	-11.3892
▁betrieben	-11.3898
▁bemerkenswert	-11.3903
▁geschäfts	-11.3904
▁contribute	-11.3904
▁geburtstag	-11.3905
▁hinauf	-11.3909
▁frighten	-11.391
▁depth	-11.391
▁joshua	-11.391
▁nachgedacht	-11.3911
▁raw	-11.3911
▁meaningful	-11.3911
▁lg	-11.3912
▁gemüse	-11.3913
▁schweden	-11.3914
▁85	-11.3915
▁milo	-11.3915
▁william	-11.3917
▁april	-11.3917
▁barrel	-11.3917
▁teilnehmer	-11.3919
▁younger	-11.3922
▁eindeutig	-11.3923
not	-11.3924
▁tu	-11.3925
▁gedicht	-11.3926
▁weshalb	-11.3926
power	-11.3928
pa	-11.3929
▁verhaltens	-11.393
▁comic	-11.3937
▁intelligente	-11.394
▁beschrieben	-11.3943
▁threaten	-11.3944
▁august	-11.3952
▁frog	-11.3955
truck	-11.3955
▁grundlage	-11.3955
▁electron	-11.3958
▁analyse	-11.3962
▁besucht	-11.397
▁license	-11.3971
▁staatliche	-11.3975
▁meal	-11.3976
▁verbring	-11.3976
tragen	-11.3979
▁komponente	-11.3981
ow	-11.3981
▁knapp	-11.3984
▁transplant	-11.3985
▁implement	-11.3987
▁funktionierte	-11.3989
▁criminal	-11.3989
ility	-11.399
▁palm	-11.3991
▁religions	-11.3995
▁erforscht	-11.4003
▁mentor	-11.4009
▁geschäfte	-11.4014
j	-11.4027
▁kognitive	-11.4028
▁monkeys	-11.4035
▁fahrrad	-11.4036
▁restaurants	-11.404
▁magnetic	-11.4042
▁empire	-11.4044
▁silence	-11.4044
▁trigger	-11.4044
▁ursprung	-11.4044
▁simplicity	-11.4044
▁steal	-11.4044
▁ceo	-11.4044
▁stack	-11.4044
▁contract	-11.4044
▁selection	-11.4045
▁shadow	-11.4046
▁eingeladen	-11.4047
▁globe	-11.405
tja	-11.4051
▁könig	-11.4055
▁violent	-11.4055
▁vorträge	-11.4056
▁loop	-11.4057
▁awareness	-11.4057
programm	-11.4059
▁anführer	-11.4059
▁respekt	-11.4059
▁kleidung	-11.4063
▁pill	-11.4065
what	-11.4065
hour	-11.4065
▁sandwich	-11.4066
▁jugendliche	-11.407
▁sang	-11.4073
▁gray	-11.4077
▁prisoner	-11.4078
▁ansieh	-11.4078
▁jane	-11.4082
▁wise	-11.4084
▁gründete	-11.4086
▁widerstand	-11.4089
▁partners	-11.4093
▁kriege	-11.4104
▁nutzung	-11.4107
gabe	-11.4109
▁wundervoll	-11.4109
▁anzeige	-11.411
▁bla	-11.4117
▁importan	-11.4119
15	-11.4121
▁mitglieder	-11.4121
▁harte	-11.4122
▁wechseln	-11.4126
und	-11.4126
▁ereignis	-11.4129
▁maß	-11.4135
▁geistes	-11.4142
▁shell	-11.4151
▁billig	-11.4153
▁insulin	-11.4153
▁dichter	-11.4154
▁dig	-11.4159
▁entscheidend	-11.4167
▁erfinder	-11.4168
▁austausch	-11.4173
▁berge	-11.4175
▁1000	-11.4176
▁üblich	-11.4177
ck	-11.4177
▁afternoon	-11.4179
▁mandela	-11.4179
▁mystery	-11.4179
▁kingdom	-11.4179
▁sonnenlicht	-11.4179
▁stephen	-11.4179
▁verließ	-11.4179
▁download	-11.418
▁vegetable	-11.418
▁gender	-11.418
▁spiritual	-11.4182
▁france	-11.4184
▁hinterlassen	-11.4185
▁comedy	-11.4185
▁clothes	-11.4188
▁beachten	-11.4188
▁verdient	-11.4189
▁flüssigkeit	-11.419
▁fusion	-11.4192
gruppen	-11.4194
▁deserve	-11.4195
▁beobachtung	-11.4195
▁ruhe	-11.4197
▁whale	-11.4198
▁stärke	-11.4198
▁tracking	-11.4199
▁swimm	-11.42
▁übung	-11.42
▁milch	-11.42
▁denk	-11.4204
ison	-11.4204
▁umfeld	-11.4208
▁bezeichnen	-11.4212
teilen	-11.4221
version	-11.4221
▁habit	-11.4226
▁myth	-11.4226
▁mittels	-11.4226
round	-11.4227
▁mengen	-11.423
▁yorker	-11.423
▁pferd	-11.4231
▁rose	-11.4237
▁streit	-11.4238
▁letzter	-11.4239
▁folgenden	-11.4241
▁öffnet	-11.4244
station	-11.425
tel	-11.4256
▁aspekte	-11.4259
▁berühmt	-11.427
▁smoke	-11.4274
▁philosophie	-11.4278
▁aufrecht	-11.4281
▁perceive	-11.4284
▁surgeon	-11.4285
▁install	-11.4287
▁diagram	-11.429
▁treib	-11.429
▁bias	-11.4295
▁till	-11.4297
▁command	-11.43
▁classic	-11.43
soweit	-11.4305
▁audio	-11.4309
▁speicher	-11.4313
▁rob	-11.4314
▁lebenserwartung	-11.4316
▁psychologist	-11.4316
▁asthma	-11.4316
▁exhibition	-11.4317
▁louis	-11.4317
▁backward	-11.4317
▁portion	-11.4317
▁breed	-11.4317
▁hinzufügen	-11.4318
▁advertis	-11.4321
▁daniel	-11.4322
▁1.000	-11.4323
▁teilweise	-11.4323
▁gedächtnis	-11.4323
▁weisheit	-11.4323
▁kongress	-11.4324
▁nadel	-11.4325
▁admit	-11.4327
▁darstellt	-11.4333
▁teure	-11.4335
▁capabilit	-11.4338
▁besuchte	-11.4339
▁zunehmend	-11.4339
▁fiction	-11.4342
▁versagen	-11.4342
▁sektor	-11.4349
▁axis	-11.4358
▁verfahren	-11.4359
▁küche	-11.4361
▁mac	-11.4362
▁beizu	-11.4365
▁kaputt	-11.4367
▁vierte	-11.4368
▁dichte	-11.4375
▁jh	-11.4376
▁bibliothek	-11.438
▁linked	-11.438
▁gib	-11.4383
gleichen	-11.4384
falten	-11.4385
▁schweine	-11.4387
▁bemerkte	-11.4387
▁grass	-11.4388
▁instrumente	-11.4388
▁dress	-11.4394
▁ur	-11.4397
▁provid	-11.44
▁taschen	-11.4401
▁weigh	-11.4407
▁bo	-11.4408
▁definiert	-11.4412
rin	-11.4415
▁reduc	-11.4417
▁entrepreneur	-11.442
▁lee	-11.4423
▁rennen	-11.4425
▁interessanter	-11.4425
▁bend	-11.4428
▁herstellung	-11.4437
▁feeding	-11.4439
▁dictionar	-11.444
▁tunnel	-11.4442
forschung	-11.4454
fressen	-11.4454
▁identical	-11.4455
▁transistor	-11.4455
▁vitamin	-11.4455
▁überzeugung	-11.4455
▁scheinbar	-11.4455
▁erneut	-11.4455
▁gleichgewicht	-11.4455
▁organisiert	-11.4455
▁interactive	-11.4455
▁sustainability	-11.4455
▁demographic	-11.4456
▁carolina	-11.4456
▁zwang	-11.4456
▁bicycle	-11.4456
▁ägypten	-11.4457
▁zerstörung	-11.446
▁verliert	-11.4462
▁unknown	-11.4462
▁scheitern	-11.4463
▁discipline	-11.4463
▁jones	-11.4464
▁verursachen	-11.4465
▁gerechtigkeit	-11.4466
▁presence	-11.4467
▁anscheinen	-11.4468
▁designs	-11.4471
ey	-11.4471
▁reserve	-11.4471
▁berühren	-11.4472
▁seele	-11.4472
rufen	-11.4474
▁psychologie	-11.4475
▁microscope	-11.4475
▁philosopher	-11.4477
▁rum	-11.4478
▁sensitive	-11.4479
▁entrepreneurs	-11.448
kansa	-11.4482
▁hide	-11.4483
▁seil	-11.4485
▁versorg	-11.449
licht	-11.4495
▁boxes	-11.4497
▁victims	-11.4498
▁hieß	-11.4507
clear	-11.451
▁saubere	-11.4511
▁wash	-11.4512
▁rhythm	-11.4515
▁achse	-11.4519
mo	-11.452
▁kurve	-11.452
▁resultate	-11.4528
stock	-11.4529
▁fehlt	-11.4535
▁mächtig	-11.455
ors	-11.4557
▁wirkt	-11.4561
▁legte	-11.4564
▁par	-11.4565
sprache	-11.4567
▁inspire	-11.4568
▁leer	-11.4571
▁technologische	-11.4581
▁teufel	-11.4586
gewiesen	-11.4587
▁receiv	-11.4589
▁rescue	-11.459
▁egypt	-11.4595
▁charlie	-11.4595
▁afrikas	-11.4597
emissionen	-11.4599
▁output	-11.4599
▁cloth	-11.46
▁obsess	-11.46
▁ernähre	-11.46
▁suspect	-11.4601
▁hook	-11.4602
▁potenzial	-11.4606
▁täuschung	-11.4608
▁sharp	-11.4609
▁festival	-11.4611
bezüglich	-11.4611
▁flügel	-11.4612
▁bezeichnet	-11.4613
▁millimeter	-11.4618
▁vorbereitet	-11.462
▁zentral	-11.4623
gesamt	-11.4623
▁desk	-11.4625
▁zeichnung	-11.4627
flogen	-11.4633
▁habitat	-11.4634
na	-11.4635
▁leichter	-11.4638
▁host	-11.4639
licher	-11.464
▁quellen	-11.4643
▁bord	-11.4646
ro	-11.4649
har	-11.465
▁mittlere	-11.4651
▁streben	-11.4654
▁fluid	-11.4659
▁eggs	-11.466
▁vorteile	-11.4663
▁cast	-11.4663
gegeben	-11.4671
ud	-11.4673
linie	-11.4673
▁trace	-11.4675
▁wi	-11.4677
▁wunderschön	-11.4679
ort	-11.4685
▁breathe	-11.4693
▁port	-11.4693
▁drill	-11.4701
▁ergeben	-11.4702
▁hinunter	-11.4703
wirtschaft	-11.471
▁konsum	-11.4714
▁flip	-11.4725
▁magie	-11.4725
▁beliebt	-11.4726
▁unbekannte	-11.4727
▁dauern	-11.4737
▁silent	-11.4738
▁joseph	-11.4738
▁probabilit	-11.4738
▁helium	-11.4738
ein	-11.4738
christmas	-11.4739
▁lewi	-11.4739
▁painful	-11.4739
▁po	-11.474
▁physician	-11.4741
▁sheep	-11.4741
▁busy	-11.4741
▁minus	-11.4742
▁copyright	-11.4743
▁gesammelt	-11.4744
▁overall	-11.4746
▁hello	-11.4746
▁kuh	-11.4748
▁rebuild	-11.4749
▁hip	-11.4752
▁confidence	-11.4754
▁erzählung	-11.4755
▁everest	-11.4757
bildung	-11.4759
▁lese	-11.4759
▁erstmal	-11.4761
bricht	-11.4763
▁hängen	-11.4766
▁einfachheit	-11.4766
systeme	-11.4767
per	-11.4768
▁branche	-11.477
▁traged	-11.477
ches	-11.4772
pe	-11.4774
▁mauer	-11.4776
ard	-11.4778
▁faszinierende	-11.4782
q	-11.4783
▁rates	-11.4788
▁logic	-11.4792
▁plot	-11.4794
▁typisch	-11.4795
▁ursprüngliche	-11.4797
▁plans	-11.4798
fer	-11.4799
▁clouds	-11.48
▁beside	-11.4802
iness	-11.4803
▁algorithmen	-11.4814
kosten	-11.4818
▁engaged	-11.4821
▁slums	-11.4832
▁diplomat	-11.4832
ich	-11.4833
▁printing	-11.4846
▁uncle	-11.4848
▁nick	-11.4853
des	-11.486
▁wartet	-11.4863
▁kollektive	-11.4866
▁fingers	-11.4872
▁trat	-11.4873
▁verwendung	-11.4881
▁zufrieden	-11.4881
trinken	-11.4883
▁dialog	-11.4883
▁economies	-11.4883
▁furniture	-11.4883
▁plent	-11.4883
▁procedure	-11.4883
▁bulb	-11.4883
▁curiosity	-11.4883
▁false	-11.4883
▁vertical	-11.4883
▁continuous	-11.4884
▁begegnen	-11.4885
▁favor	-11.4886
▁improv	-11.4889
▁wound	-11.4889
▁expectation	-11.4889
▁konfrontiert	-11.4897
▁enden	-11.4899
▁dimensionen	-11.4905
▁42	-11.4905
ebene	-11.4905
▁nahen	-11.4911
▁anpassen	-11.4913
bank	-11.4914
▁chest	-11.4917
▁48	-11.4921
▁neutral	-11.4921
▁senses	-11.4923
▁mere	-11.4925
▁flower	-11.4926
▁umgeben	-11.4927
▁obere	-11.4927
▁themen	-11.4928
▁vi	-11.4929
▁vorschlag	-11.4932
▁sicherheits	-11.4937
▁schreibt	-11.4937
▁conclude	-11.4938
▁hut	-11.4941
▁quer	-11.4942
▁epidemie	-11.4955
▁personalit	-11.4959
▁gericht	-11.496
▁höchst	-11.4961
▁schrift	-11.4963
▁refer	-11.4976
▁herein	-11.4982
vor	-11.4983
▁kindes	-11.4984
▁opera	-11.4984
stellung	-11.4987
▁secure	-11.4989
spieler	-11.4993
▁mate	-11.4996
▁programme	-11.4997
▁mächtige	-11.5002
▁rück	-11.5003
▁steuer	-11.5005
▁andrew	-11.5005
▁technisch	-11.5006
▁exakt	-11.5008
▁schnelle	-11.5009
▁studiert	-11.501
ära	-11.5012
▁deiner	-11.5018
oberfläche	-11.502
well	-11.5021
▁intellektuelle	-11.5029
▁berücksichtig	-11.503
▁dvd	-11.503
▁nervös	-11.503
▁psychological	-11.503
▁soviet	-11.503
▁circa	-11.503
▁strike	-11.503
▁cash	-11.5031
▁flexible	-11.5031
▁native	-11.5031
▁enthalten	-11.5032
▁bewahre	-11.5033
▁sichtweise	-11.5033
▁exploit	-11.5034
▁2020	-11.5034
▁hitze	-11.5035
▁kongo	-11.5036
▁delhi	-11.504
▁footprint	-11.504
class	-11.504
▁homes	-11.5041
▁spektrum	-11.5043
▁flowers	-11.5044
▁1900	-11.5045
design	-11.5047
▁anzusehen	-11.5051
▁spüre	-11.5072
▁sal	-11.5072
▁abfall	-11.5072
▁tax	-11.5073
▁distribute	-11.5081
▁kreuz	-11.5087
fe	-11.5088
▁propose	-11.509
▁challeng	-11.5091
▁marker	-11.5093
▁rent	-11.5097
▁escape	-11.5099
▁prefer	-11.51
▁reduction	-11.51
arm	-11.51
rising	-11.51
▁bud	-11.5103
▁gesichts	-11.5104
▁inspirieren	-11.5104
▁schmerzen	-11.5105
▁hu	-11.5105
▁bedeutete	-11.5106
▁absorb	-11.5109
▁diverse	-11.512
ied	-11.5122
▁suchte	-11.5127
▁physikalische	-11.5128
▁lens	-11.5129
▁pregnan	-11.513
▁exception	-11.5132
▁stoff	-11.5132
ga	-11.5134
call	-11.5136
▁anwend	-11.514
▁ruin	-11.5146
▁tons	-11.515
▁kampagne	-11.5151
▁dec	-11.5166
▁chancen	-11.5168
▁disorder	-11.5175
▁spenden	-11.5177
▁frustrat	-11.5178
▁calculation	-11.5179
▁erdbeben	-11.5179
▁synthetic	-11.5179
▁knock	-11.518
▁veröffentlichen	-11.518
▁judgment	-11.518
▁ipod	-11.518
▁leonardo	-11.518
▁dahinter	-11.518
▁shakespeare	-11.5181
war	-11.5184
▁erfuhr	-11.5186
▁optimistic	-11.5187
▁situations	-11.5188
▁tätigkeit	-11.5191
▁happier	-11.5191
▁angelegenheit	-11.5192
▁immense	-11.5193
▁matrix	-11.5194
▁ausgesetzt	-11.5205
▁höchsten	-11.5206
▁fliege	-11.5212
▁investiert	-11.5214
▁gelbe	-11.5215
kultur	-11.5215
fassen	-11.5216
▁brustkrebs	-11.5221
▁hybrid	-11.5225
▁tedster	-11.5225
▁agency	-11.5227
rgestellt	-11.5232
muster	-11.5237
▁interessen	-11.5238
▁klug	-11.5241
▁demokratische	-11.5245
▁haie	-11.5245
karte	-11.526
▁participat	-11.5263
▁wein	-11.5266
▁statistik	-11.5267
▁aufnahmen	-11.5272
▁getrennt	-11.5282
▁intensive	-11.5292
▁proportion	-11.5296
▁overcom	-11.5298
▁leiten	-11.53
▁liver	-11.5305
house	-11.531
▁dose	-11.5312
ki	-11.5312
▁schlimm	-11.5315
▁murder	-11.5316
▁paintings	-11.5317
▁cd	-11.532
▁neugier	-11.5325
▁whales	-11.5329
▁fragment	-11.5331
▁astonishing	-11.5331
▁ridiculous	-11.5331
▁rwanda	-11.5331
▁awesome	-11.5331
▁greek	-11.5331
▁skeleton	-11.5332
▁krankenhäuser	-11.5332
▁unterwegs	-11.5332
▁scal	-11.5332
▁erfand	-11.5333
▁stirb	-11.5335
▁contrast	-11.5335
▁verb	-11.5336
▁toxic	-11.5336
▁vorhin	-11.5339
▁erfüllt	-11.5339
▁gipfel	-11.5339
▁preise	-11.5341
▁weltall	-11.5341
▁inventor	-11.5342
▁kopie	-11.5342
▁sternen	-11.5344
▁rope	-11.5344
▁spreading	-11.5346
▁spannung	-11.5346
▁mri	-11.5347
▁genießen	-11.5349
▁hacker	-11.5353
▁berichtet	-11.5355
▁films	-11.5356
▁lungen	-11.5358
▁worm	-11.5362
▁brutal	-11.5362
team	-11.5364
▁störung	-11.5367
▁ausgebildet	-11.5368
▁granted	-11.5368
▁flog	-11.5368
▁stiftung	-11.5373
▁wachsende	-11.5373
gemacht	-11.5376
▁geteilt	-11.5384
schlag	-11.5387
▁43	-11.5388
▁pyramid	-11.5398
bility	-11.5398
▁drehte	-11.5399
▁akt	-11.5406
▁unsichtbare	-11.5407
▁slides	-11.5413
▁feind	-11.542
▁niedrig	-11.5425
▁thick	-11.5438
▁stretch	-11.5439
▁wirken	-11.5444
work	-11.5452
▁ko	-11.5457
▁historische	-11.5475
state	-11.5475
▁landete	-11.548
zug	-11.5481
▁komplizierte	-11.5483
▁conservation	-11.5483
▁courage	-11.5484
▁centuries	-11.5485
▁clinton	-11.5485
▁concrete	-11.5485
▁distant	-11.5485
▁repräsentiert	-11.5485
▁arthur	-11.5485
▁mumbai	-11.5485
▁devil	-11.5485
▁olympic	-11.5485
▁association	-11.5486
mi	-11.5486
▁ibm	-11.5487
▁islamic	-11.5488
▁vorsichtig	-11.5489
▁höhepunkt	-11.5489
▁hunt	-11.5491
▁unteren	-11.5491
▁jail	-11.5492
▁atlantic	-11.5492
▁dörfer	-11.5494
▁nahrungsmittel	-11.5497
▁disziplin	-11.5498
▁aufstieg	-11.5499
▁schätzung	-11.5499
ster	-11.5504
▁mini	-11.5504
▁planen	-11.5504
▁angle	-11.5507
▁bow	-11.5511
▁gezogen	-11.5515
▁anstieg	-11.5515
table	-11.5518
▁unge	-11.552
▁analogie	-11.5527
▁islamische	-11.5527
▁passive	-11.5536
▁immune	-11.5542
▁wünsche	-11.5543
▁todes	-11.5543
▁adventure	-11.5545
▁gesetzt	-11.5546
▁lud	-11.5546
sie	-11.5548
▁gefährliche	-11.5553
▁29	-11.5555
▁unsichtbar	-11.5562
▁dinger	-11.5574
▁dame	-11.5574
▁banker	-11.5574
▁privilege	-11.5576
▁auftrag	-11.5579
▁export	-11.558
▁klick	-11.5581
▁schaue	-11.5583
▁penn	-11.5584
▁mat	-11.5586
▁dense	-11.5586
▁functional	-11.5586
▁fisher	-11.559
▁erklärte	-11.5602
▁wiederholt	-11.5604
▁preserve	-11.5604
▁tech	-11.5607
sprechen	-11.561
▁erfüllen	-11.5618
▁ham	-11.5619
▁kleinste	-11.5621
▁130	-11.5621
▁autor	-11.563
▁fehl	-11.5633
▁latin	-11.5635
haus	-11.5636
▁simp	-11.5636
▁council	-11.5641
▁craig	-11.5641
▁mcdonald	-11.5641
▁yield	-11.5641
▁flood	-11.5641
▁smooth	-11.5641
▁unbelievabl	-11.5642
▁extinct	-11.5642
▁konflikte	-11.5642
▁kreatur	-11.5644
▁pretend	-11.5644
▁ego	-11.5645
▁bekämpfen	-11.5645
▁schnee	-11.5646
▁campus	-11.5646
▁tedx	-11.5647
▁jährlich	-11.5649
▁städtische	-11.5649
▁watt	-11.565
▁monkey	-11.5651
▁angestellte	-11.5652
▁schlug	-11.5653
▁bip	-11.5654
▁schlacht	-11.5654
▁gewöhnt	-11.5656
▁zurückgehen	-11.5656
▁pc	-11.5659
zahlen	-11.5659
▁marathon	-11.5662
▁kategorie	-11.5662
▁ausmachen	-11.5665
▁presse	-11.5666
▁benutzte	-11.5668
steigen	-11.5671
▁cm	-11.5672
▁besuche	-11.5676
▁fahrzeug	-11.568
▁bedien	-11.5681
wert	-11.5682
▁heb	-11.5682
zero	-11.5686
▁marke	-11.5691
▁höchste	-11.5691
▁antrieb	-11.5694
merken	-11.5695
▁guide	-11.5695
regierung	-11.5697
▁aufregende	-11.5697
▁mary	-11.5697
▁ausser	-11.57
▁kugel	-11.5701
▁lern	-11.5705
▁cute	-11.5705
▁ta	-11.5707
sonst	-11.5711
▁kleinere	-11.5713
ious	-11.5714
▁senior	-11.5716
▁haare	-11.5719
▁quit	-11.5721
▁entgegen	-11.5729
▁nets	-11.5739
▁ausgaben	-11.5739
▁repeat	-11.575
▁harvest	-11.5751
gefallen	-11.5753
▁molekulare	-11.5753
▁lasse	-11.5758
wa	-11.5762
▁liefert	-11.5774
fach	-11.578
▁shirt	-11.578
▁eve	-11.5782
▁camel	-11.5785
▁spa	-11.5786
▁fotografiert	-11.5786
▁jun	-11.5789
▁prepar	-11.5789
▁komplette	-11.579
▁primitive	-11.5793
▁citizen	-11.5794
▁verbrenn	-11.5797
▁congo	-11.5797
▁abuse	-11.5797
▁vital	-11.5799
▁vietnam	-11.5799
▁corporate	-11.58
▁inklusive	-11.58
▁transparency	-11.58
▁currenc	-11.58
▁gesture	-11.58
▁stewart	-11.58
▁domain	-11.58
▁blickwinkel	-11.58
▁frankreich	-11.58
▁skull	-11.58
▁hawaii	-11.5801
▁partnership	-11.5801
▁headline	-11.5802
▁versorgung	-11.5803
▁organe	-11.5804
▁schock	-11.5806
▁billionen	-11.5806
▁neugierig	-11.5807
▁tempo	-11.5808
▁repair	-11.5808
▁boss	-11.5811
▁altern	-11.5812
▁activist	-11.5812
▁freak	-11.5814
▁willkommen	-11.5814
▁proben	-11.5815
▁20,000	-11.5818
▁neural	-11.5821
▁satelliten	-11.5822
▁neigen	-11.5823
▁ruhig	-11.5823
▁brach	-11.5824
▁indus	-11.5825
▁ausrüstung	-11.5826
letztlich	-11.5827
▁hmm	-11.5827
▁elefanten	-11.5828
▁rollen	-11.583
produktion	-11.5832
▁intend	-11.5833
▁wing	-11.5835
▁aside	-11.5838
▁profile	-11.5839
▁korallen	-11.584
▁kümmert	-11.5841
▁evening	-11.5843
▁scanner	-11.5844
craft	-11.5844
▁effizienz	-11.5844
▁entstehung	-11.5845
fällt	-11.5845
▁volle	-11.5848
▁aufbau	-11.5849
▁gespräche	-11.585
▁pitch	-11.5851
▁besonderen	-11.5853
▁verschwinde	-11.5855
▁invit	-11.5857
town	-11.5858
▁automobile	-11.5859
▁fried	-11.5863
▁russia	-11.5863
▁ladung	-11.5863
▁könne	-11.5864
breite	-11.5865
▁30-	-11.5865
▁polar	-11.5868
▁sätze	-11.5872
▁cod	-11.5874
▁gelassen	-11.5874
▁ehre	-11.5876
▁argu	-11.5878
▁komisch	-11.5888
iv	-11.589
▁tasche	-11.5891
▁genetisch	-11.5894
graben	-11.5895
▁eng	-11.5903
▁ungewöhnliche	-11.5912
▁anfäng	-11.5912
unwahrscheinlich	-11.5916
▁interpret	-11.5917
▁authentic	-11.5917
▁observation	-11.5917
▁generat	-11.5921
▁heilen	-11.5925
▁astronom	-11.5935
▁einst	-11.5946
lichkeit	-11.5947
ania	-11.5952
ze	-11.5956
▁fascinate	-11.5961
▁jupiter	-11.5961
▁shelter	-11.5961
▁ängste	-11.5961
▁participant	-11.5961
▁arrest	-11.5961
▁naked	-11.5961
vember	-11.5961
▁extent	-11.5961
▁seattle	-11.5961
▁narrow	-11.5961
▁earthquake	-11.5961
▁miracle	-11.5962
▁wright	-11.5962
▁capitalism	-11.5962
▁denkweise	-11.5962
▁mitzu	-11.5962
▁jense	-11.5965
▁befand	-11.5966
▁fulfill	-11.5966
▁darkness	-11.5967
ible	-11.5967
▁tweet	-11.5968
▁käfer	-11.5968
▁präsidenten	-11.5969
▁urge	-11.5971
li	-11.5972
▁accelerat	-11.5972
heroes	-11.5972
▁ausmacht	-11.5972
▁50,000	-11.5972
▁hör	-11.5972
▁asset	-11.5973
▁eröffnet	-11.5975
▁papa	-11.5978
▁schriftsteller	-11.5978
▁amateur	-11.5979
▁fifth	-11.5979
lösung	-11.5982
▁wichtiges	-11.5984
hören	-11.5988
▁coin	-11.5995
▁flugzeuge	-11.6
▁sides	-11.6
▁steine	-11.6005
▁stair	-11.6007
▁südlich	-11.601
geschäft	-11.601
▁eigentliche	-11.6015
▁empfinden	-11.6017
mus	-11.602
▁eisen	-11.6021
▁spezifische	-11.6023
▁impulse	-11.6024
kl	-11.6025
vo	-11.6037
▁tal	-11.6045
▁fischer	-11.6046
schlagen	-11.6052
fin	-11.6057
▁russian	-11.6061
▁klinische	-11.6069
space	-11.6069
▁sahara	-11.6069
ete	-11.6074
▁bericht	-11.6075
▁operations	-11.6077
▁vorfahre	-11.6081
über	-11.6082
▁sequenz	-11.6083
▁verbraucht	-11.6092
▁männliche	-11.6096
einhalb	-11.6105
▁item	-11.6109
▁fixed	-11.611
▁örtliche	-11.6118
dioxide	-11.6124
▁bedauern	-11.6125
▁entschuldigung	-11.6125
▁candidate	-11.6125
▁chief	-11.6125
▁embedded	-11.6125
▁jegliche	-11.6125
▁breakthrough	-11.6125
▁kreiert	-11.6125
▁hinblick	-11.6126
▁aussah	-11.6126
pox	-11.6126
▁uh	-11.6126
▁dump	-11.6126
▁expansion	-11.6126
▁loan	-11.6127
▁plain	-11.6127
▁globalisierung	-11.6127
▁dish	-11.6129
▁jami	-11.6129
▁condom	-11.613
▁pipeline	-11.613
▁keyboard	-11.6131
▁mäuse	-11.6133
▁stille	-11.6133
▁spoken	-11.6135
▁geo	-11.6136
▁writ	-11.6136
▁colony	-11.6137
▁psychologe	-11.6137
▁sponsor	-11.6138
▁schließ	-11.6141
▁ausgegeben	-11.6141
druck	-11.6141
▁schwach	-11.6145
stellungskraft	-11.6149
▁20-	-11.6151
ure	-11.6152
▁lego	-11.6154
▁erwähnen	-11.6155
▁euro	-11.616
▁verdammt	-11.6161
passen	-11.6165
ana	-11.6168
▁ausdrücke	-11.6171
▁ungewöhnlich	-11.6175
shirt	-11.6176
▁formation	-11.6177
ke	-11.6178
bare	-11.6185
▁sales	-11.6186
leistung	-11.619
kam	-11.6192
▁tuna	-11.6195
▁hypothese	-11.6196
▁cord	-11.6197
▁katze	-11.62
▁31	-11.6201
▁tauchen	-11.6213
▁erneuerbare	-11.6213
gegen	-11.6214
▁cave	-11.6215
ina	-11.6219
▁indicate	-11.6221
▁lichter	-11.6222
▁ländliche	-11.6222
▁dust	-11.6228
technik	-11.6233
schein	-11.6238
▁350	-11.6243
▁dankbar	-11.6249
▁dia	-11.6254
▁stärken	-11.6257
▁di	-11.6258
▁kauft	-11.6259
▁magische	-11.6267
▁gear	-11.6269
ti	-11.6272
▁illustrate	-11.6274
▁autism	-11.629
▁stil	-11.6291
▁fabulous	-11.6292
▁gerettet	-11.6292
▁jerusalem	-11.6292
▁pioneer	-11.6292
▁sylvia	-11.6292
▁unfair	-11.6292
▁wütend	-11.6292
▁diamond	-11.6292
▁virgin	-11.6292
▁ooh	-11.6292
▁systematic	-11.6293
▁santa	-11.6293
▁limitation	-11.6294
coming	-11.6294
▁weltbevölkerung	-11.6294
▁terrifi	-11.6294
▁nobel	-11.6294
▁johnny	-11.6295
▁impression	-11.6295
▁vulnerability	-11.6296
▁38	-11.6297
▁honey	-11.6297
▁disorders	-11.6297
arctic	-11.6298
▁fliegt	-11.6299
schule	-11.6299
▁harry	-11.6303
▁lärm	-11.6304
▁summe	-11.6305
▁pray	-11.6313
▁rick	-11.6314
▁kong	-11.6315
▁schlag	-11.6316
▁schwanz	-11.6316
▁umgang	-11.6317
▁inspiring	-11.6318
▁defin	-11.6331
▁wiederholen	-11.6332
▁ritual	-11.6338
▁sticks	-11.6339
▁sp	-11.6341
id	-11.6342
gun	-11.6342
▁benutze	-11.6343
▁lehre	-11.6344
▁gel	-11.6346
box	-11.6346
zustand	-11.6348
▁heutige	-11.6363
▁verteilung	-11.6366
▁fließ	-11.6377
▁trenn	-11.6381
▁krieges	-11.6384
ging	-11.6384
▁officer	-11.6393
▁elegant	-11.6395
▁nathan	-11.6395
▁geschmack	-11.6403
▁anger	-11.6411
▁philip	-11.6412
▁chromosome	-11.6413
▁schlau	-11.6421
▁gewöhnlich	-11.643
▁rag	-11.6431
▁struggl	-11.6432
gentleman	-11.6435
▁transfer	-11.6437
ru	-11.644
▁jeweil	-11.6449
▁vergnügen	-11.6449
sp	-11.6452
griffen	-11.6458
▁verschiedener	-11.6459
▁column	-11.646
▁shrimp	-11.6461
▁transparenz	-11.6461
▁verschwand	-11.6461
▁compound	-11.6461
▁description	-11.6461
▁russland	-11.6462
▁chile	-11.6462
▁einwohner	-11.6462
▁tight	-11.6462
▁träumen	-11.6462
▁spell	-11.6462
▁occasional	-11.6462
▁highlight	-11.6463
▁translation	-11.6464
▁gestartet	-11.6464
▁übersetzt	-11.6465
folge	-11.6465
▁rover	-11.6466
▁crew	-11.6467
▁treiben	-11.6467
▁dramatisch	-11.6468
▁tired	-11.6471
fähigkeiten	-11.6471
▁staats	-11.6475
▁sixth	-11.6477
▁slice	-11.6478
▁leak	-11.6478
▁ignorieren	-11.6478
▁sexuelle	-11.6479
▁erfassen	-11.648
▁gecko	-11.648
▁abhängigkeit	-11.6482
▁brüder	-11.6482
▁onkel	-11.6482
▁zufriedenheit	-11.6484
▁recycling	-11.6486
▁fotografie	-11.6489
▁zählt	-11.6491
▁pace	-11.6497
▁anbieten	-11.6502
▁drum	-11.6505
▁vorgang	-11.6505
▁gemein	-11.6505
▁nachhaltig	-11.6514
▁resist	-11.6515
▁moralisch	-11.652
▁origin	-11.6523
▁wette	-11.6524
▁frequenz	-11.6535
▁umso	-11.6536
▁confront	-11.6545
▁determined	-11.6549
▁hack	-11.6553
▁weitermache	-11.6558
do	-11.6559
▁wachstums	-11.6559
▁mar	-11.6571
▁flach	-11.6574
▁wasserstoff	-11.6578
▁ohr	-11.658
▁rena	-11.658
▁spur	-11.6581
▁wieviele	-11.6595
▁felder	-11.6595
▁quadrat	-11.6599
olds	-11.6602
reist	-11.6604
▁angr	-11.6606
▁unterricht	-11.661
▁lu	-11.6611
▁mc	-11.6612
▁profitier	-11.6617
▁kritische	-11.6619
▁teilt	-11.662
▁promote	-11.6622
▁98	-11.6624
▁startete	-11.6625
▁fehlen	-11.663
▁kir	-11.6632
▁district	-11.6634
▁pandemic	-11.6634
▁rainforest	-11.6634
▁tragödie	-11.6634
▁wohlbefinden	-11.6634
▁2030	-11.6634
▁guilt	-11.6634
▁berlin	-11.6634
▁shopping	-11.6634
▁household	-11.6634
▁sarah	-11.6634
▁sierra	-11.6634
▁polizist	-11.6635
▁nahezu	-11.6635
▁1994	-11.6636
tritt	-11.6637
▁rice	-11.6637
▁sonnensystem	-11.6638
▁geraten	-11.6638
lai	-11.6638
▁treibstoff	-11.6638
▁ersetzt	-11.6639
▁schwerer	-11.6639
dependent	-11.664
▁nachhaltigkeit	-11.6642
▁dazwischen	-11.6644
▁weapon	-11.6645
▁neck	-11.6646
gerät	-11.6648
▁digni	-11.6649
▁resident	-11.6649
stein	-11.6652
▁bedeckt	-11.6653
▁sauce	-11.6655
led	-11.6657
▁optimistisch	-11.6659
▁dynamik	-11.666
▁orchester	-11.6663
▁dienstleistung	-11.6665
▁symptome	-11.6666
▁committ	-11.667
▁entschlossen	-11.6672
▁subtle	-11.6673
sahara	-11.6674
▁nordamerika	-11.6674
▁fruit	-11.668
▁metern	-11.668
▁format	-11.6687
▁nachfrage	-11.669
▁motivate	-11.6692
▁sports	-11.6693
look	-11.6693
firma	-11.6693
computer	-11.6694
▁unabhängige	-11.6701
temperatur	-11.6702
▁ethiopia	-11.6707
▁ausschließlich	-11.6712
pf	-11.6716
▁hinweis	-11.6716
▁dancer	-11.6721
▁biologisch	-11.6722
▁musikalische	-11.6722
▁skulptur	-11.6731
▁pflanze	-11.6732
▁radi	-11.6733
▁shooting	-11.6738
ph	-11.6743
▁katastrophen	-11.6745
▁niedrige	-11.6747
▁überlebt	-11.6747
▁neueste	-11.6748
▁oberflächen	-11.6749
ncy	-11.6754
identifizieren	-11.6756
▁partei	-11.676
▁integrate	-11.6771
ai	-11.6771
▁gebieten	-11.6776
▁griff	-11.678
▁strecke	-11.6786
▁ak	-11.6787
▁selb	-11.6791
▁analyze	-11.6793
▁ken	-11.6794
sity	-11.6795
▁ungeheuer	-11.6797
▁meere	-11.6797
▁waffe	-11.68
▁müsst	-11.6806
▁obstacle	-11.6809
▁vacuum	-11.6809
▁öfter	-11.6809
▁architectural	-11.6809
▁borrow	-11.6809
▁tesla	-11.6809
▁appeal	-11.6809
▁drove	-11.6809
▁neuroscience	-11.6809
▁monterey	-11.6809
▁textbook	-11.6809
▁frustration	-11.6811
▁mitglied	-11.6811
▁bedroht	-11.6811
▁suicide	-11.6813
▁observ	-11.6813
▁globalization	-11.6813
▁photography	-11.6813
▁database	-11.6814
▁stroke	-11.6814
▁gehör	-11.6815
▁copie	-11.6815
▁aggressive	-11.6816
raising	-11.6816
long	-11.6816
▁grandfather	-11.6816
▁logik	-11.6816
▁dean	-11.6818
▁verlangt	-11.6818
▁schädel	-11.6819
▁federal	-11.6819
▁handys	-11.6822
▁retina	-11.6824
▁pit	-11.6829
gezwungen	-11.6829
rg	-11.6831
▁überprüf	-11.6832
▁consistent	-11.6835
erlei	-11.6835
▁wollt	-11.6837
krise	-11.684
▁unmittelbar	-11.684
reise	-11.684
▁bl	-11.6843
▁schläg	-11.6844
▁gefüllt	-11.6845
▁printer	-11.685
▁trage	-11.6853
▁hungr	-11.6854
füllen	-11.6857
▁blame	-11.6861
▁tribe	-11.6861
▁bier	-11.6863
▁gr	-11.6863
▁pläne	-11.6863
lice	-11.6869
▁strip	-11.687
▁angriff	-11.687
third	-11.6873
generation	-11.6874
▁han	-11.6875
▁springen	-11.6875
▁französische	-11.6878
▁saal	-11.688
▁roads	-11.6887
▁remix	-11.6887
▁führende	-11.6889
▁dung	-11.6897
▁oppos	-11.6899
down	-11.6904
▁hindurch	-11.6907
▁sill	-11.6911
mitten	-11.6915
▁kon	-11.692
▁durchschnitts	-11.6925
▁fed	-11.6927
▁tritt	-11.6927
▁terra	-11.6931
▁warf	-11.6932
▁domestic	-11.6937
▁breaking	-11.6937
▁ratio	-11.6945
haft	-11.6945
▁standpunkt	-11.6947
▁eu	-11.6949
▁angepasst	-11.695
▁vergangen	-11.6951
po	-11.6953
▁uniform	-11.6957
▁lächerlich	-11.6962
ran	-11.6963
erson	-11.6963
▁coach	-11.6968
▁sweat	-11.6974
▁alphabet	-11.6975
▁süß	-11.6976
stück	-11.6976
▁fantasie	-11.6977
▁lohn	-11.6984
▁deploy	-11.6987
▁accomplish	-11.6987
▁clue	-11.6987
▁favela	-11.6988
▁substance	-11.6988
▁urknall	-11.6988
▁ärmste	-11.6988
▁recipe	-11.6988
▁scham	-11.6988
▁request	-11.6988
▁bürgermeister	-11.6988
▁kelly	-11.6988
▁thailand	-11.6988
▁schaffte	-11.6989
▁laid	-11.699
▁achievement	-11.699
▁autismus	-11.699
▁gegessen	-11.6993
▁duck	-11.6995
ball	-11.6995
▁zurückkehren	-11.6995
▁beij	-11.6997
▁abenteuer	-11.6997
▁beibringe	-11.6998
▁approv	-11.6999
▁cocktail	-11.7001
▁behinderung	-11.7001
▁ross	-11.7004
▁hunter	-11.7006
▁mayor	-11.7007
▁übergang	-11.7008
▁intention	-11.7009
▁glückliche	-11.701
▁agricultural	-11.7011
▁zuzu	-11.7013
▁finanziert	-11.7016
▁anpassung	-11.7017
▁beschreibung	-11.7019
ordnung	-11.702
▁unterhalten	-11.7022
▁verbraucher	-11.7023
▁damn	-11.7023
▁faser	-11.7026
▁brad	-11.7039
hi	-11.704
▁goldene	-11.7042
▁dinosaur	-11.7045
▁consequence	-11.7045
▁mis	-11.7049
point	-11.7053
forward	-11.7055
cola	-11.706
▁autonom	-11.7062
▁schlechtes	-11.7063
▁tar	-11.7066
▁fernseh	-11.7066
▁wirtschaftlich	-11.7068
▁verliebt	-11.7068
▁verkehr	-11.707
▁liebt	-11.7075
▁tendenz	-11.7076
▁storm	-11.7078
▁fremde	-11.708
▁szene	-11.7086
▁bescheid	-11.7086
▁schauspieler	-11.7086
▁negativ	-11.7088
▁englische	-11.7089
▁chinesisch	-11.7091
▁vorwärts	-11.7094
▁ökonomische	-11.7095
▁leverage	-11.7097
▁greifen	-11.7099
▁asteroiden	-11.7101
ating	-11.7103
▁formula	-11.7104
made	-11.7105
ci	-11.7106
▁chips	-11.7106
bauen	-11.7109
▁gebet	-11.7109
▁craft	-11.7118
▁tribes	-11.7119
bi	-11.7119
▁militärische	-11.712
▁irgendein	-11.712
▁complain	-11.7121
▁magazin	-11.7122
boot	-11.7125
▁edit	-11.7129
zone	-11.7129
▁oel	-11.713
▁acquire	-11.7131
tries	-11.7132
▁chop	-11.7139
▁stor	-11.714
▁alan	-11.7143
uch	-11.7144
▁stepp	-11.7146
cut	-11.7147
▁mineral	-11.7148
▁dutzend	-11.7148
fragen	-11.7157
▁magnet	-11.7158
▁nerd	-11.7162
▁zahn	-11.7164
▁väter	-11.7165
izing	-11.7167
▁analysiere	-11.7169
▁crucial	-11.7169
▁kombiniert	-11.7169
▁lkw	-11.7169
▁namibia	-11.7169
▁natasha	-11.7169
▁phoenix	-11.7169
▁relax	-11.7169
▁paralyz	-11.7169
▁beetle	-11.7169
▁jewish	-11.717
▁antarctic	-11.717
▁cheese	-11.717
▁abendessen	-11.717
▁abandon	-11.717
▁2.0	-11.717
▁iranian	-11.717
▁aircraft	-11.717
▁leber	-11.7171
▁ehemalige	-11.7171
▁funk	-11.7172
▁propaganda	-11.7173
▁geschlossen	-11.7175
▁präsentiere	-11.7179
▁umfrage	-11.7179
▁berechne	-11.7181
▁knopf	-11.7183
▁creator	-11.7184
▁anhänger	-11.7187
▁passage	-11.7187
▁utter	-11.719
▁mikroskop	-11.7191
▁raketen	-11.7191
▁rauch	-11.7193
ue	-11.7194
▁stift	-11.7195
▁tick	-11.7196
▁wälder	-11.7198
wood	-11.72
▁erwartungen	-11.7201
▁jüngste	-11.7202
nathan	-11.7204
▁dear	-11.7209
▁meister	-11.7216
▁privileg	-11.723
▁slum	-11.7234
▁wut	-11.7239
gemeinschaft	-11.724
▁reagiert	-11.7241
bot	-11.7241
basierte	-11.7246
▁beschränkt	-11.725
▁änderte	-11.7251
▁import	-11.7252
▁cartoons	-11.7257
▁computern	-11.7265
▁stämme	-11.7267
▁befreien	-11.7273
▁entwurf	-11.7274
city	-11.728
▁teleskop	-11.7281
fallen	-11.7284
▁rely	-11.7289
▁aims	-11.7291
organismus	-11.7292
macht	-11.7292
▁schlimmste	-11.7294
▁kan	-11.7299
▁weisen	-11.7309
▁mais	-11.731
▁aim	-11.731
let	-11.731
▁file	-11.7311
▁glamor	-11.7314
▁einkommens	-11.7314
▁brit	-11.7325
größe	-11.7326
▁external	-11.7332
besitzen	-11.7334
▁190	-11.7334
▁techniken	-11.7337
achse	-11.734
▁crossing	-11.734
▁amy	-11.734
▁burst	-11.7341
rat	-11.7342
▁bangladesh	-11.7345
▁193	-11.7347
▁concert	-11.7351
sein	-11.7353
▁adjust	-11.7354
▁trait	-11.7354
▁signature	-11.7354
▁aesthetic	-11.7355
▁alexander	-11.7355
▁garbage	-11.7355
▁geöffnet	-11.7355
▁guarantee	-11.7355
▁reparieren	-11.7355
▁scenario	-11.7355
▁spectacular	-11.7355
▁desperate	-11.7355
▁lord	-11.7355
▁array	-11.7355
▁boil	-11.7355
▁kindergarten	-11.7356
▁coke	-11.7356
▁festgestellt	-11.7356
▁optimismus	-11.7357
▁identifie	-11.7357
▁fraction	-11.7357
entwicklung	-11.7358
▁kg	-11.7358
▁objective	-11.7358
wellen	-11.7358
▁einschränkung	-11.736
▁routine	-11.736
▁glad	-11.7361
▁schild	-11.7363
▁anreize	-11.7364
▁mice	-11.7366
▁bauch	-11.7366
▁extinction	-11.7366
▁hügel	-11.7369
▁dopamine	-11.7372
▁regelmäßig	-11.7372
ew	-11.7373
▁twin	-11.7374
▁integration	-11.7376
▁spray	-11.738
▁mail	-11.738
▁marken	-11.7386
▁fahrzeuge	-11.7388
▁körperliche	-11.7388
▁expos	-11.7389
▁vermögen	-11.739
▁nachzu	-11.7393
▁jaw	-11.7395
▁niveau	-11.7395
▁len	-11.7395
▁kuchen	-11.7395
▁decrease	-11.7395
▁redet	-11.7396
▁projection	-11.7396
▁elektronen	-11.7397
▁schöner	-11.7398
▁proof	-11.7398
▁gebrochen	-11.7398
▁schizophreni	-11.74
▁carol	-11.74
▁strahlung	-11.7403
▁minimal	-11.7404
▁concentrate	-11.7406
▁ni	-11.7407
kreis	-11.7408
▁jüngere	-11.7409
▁sprung	-11.7413
▁repeated	-11.7413
▁wahlen	-11.7413
▁horror	-11.7414
▁recogni	-11.7417
▁weh	-11.7417
▁torture	-11.7418
▁imagin	-11.7418
▁abhäng	-11.742
fläche	-11.7422
▁beschreib	-11.7422
ischer	-11.7427
tausend	-11.743
shelf	-11.7432
▁zell	-11.7433
▁saudi	-11.744
▁fin	-11.7447
▁iq	-11.745
▁julian	-11.745
▁herauszu	-11.7452
▁sozialer	-11.7456
▁angebot	-11.7457
▁geschützt	-11.746
cal	-11.7462
tor	-11.7462
▁electro	-11.7462
▁primate	-11.7462
▁sensory	-11.7467
ani	-11.7472
▁blase	-11.7474
▁flasche	-11.7474
▁192	-11.7481
▁rotate	-11.7488
▁ballon	-11.7488
▁sank	-11.7489
meister	-11.7495
▁bedeutende	-11.7495
▁ink	-11.7507
▁reicher	-11.751
menge	-11.7511
▁prototyp	-11.7514
▁yo	-11.7517
▁atlant	-11.7525
▁defend	-11.7528
ff	-11.7529
▁güte	-11.753
▁lin	-11.7533
▁li	-11.7542
▁dreidimensional	-11.7543
▁spaghetti	-11.7543
▁trajector	-11.7543
▁tropic	-11.7543
▁snake	-11.7543
▁trash	-11.7543
▁antibiotic	-11.7543
▁ruanda	-11.7543
▁leap	-11.7543
▁comparison	-11.7543
▁pocken	-11.7544
▁fool	-11.7544
▁kennedy	-11.7544
▁republican	-11.7544
▁1,	-11.7544
▁mimic	-11.7545
▁subway	-11.7546
▁detector	-11.7546
▁triangle	-11.7547
▁contemporar	-11.7547
▁ag	-11.755
▁ungleichheit	-11.7552
▁capita	-11.7553
▁manual	-11.7554
▁abstrakte	-11.7557
▁refugee	-11.756
rich	-11.7568
rlei	-11.7569
▁zurückkommen	-11.7569
▁terrorism	-11.7571
▁resolution	-11.7573
▁carl	-11.7575
▁classical	-11.7577
▁dns	-11.7578
▁professionelle	-11.7578
▁sammlung	-11.7581
▁fürchte	-11.7581
▁löst	-11.7584
▁einzel	-11.7588
▁venture	-11.759
zubauen	-11.7592
▁experimental	-11.7593
▁schwestern	-11.7593
▁poll	-11.7594
▁actions	-11.7594
▁schreibe	-11.76
urchschnittliche	-11.7601
▁richter	-11.7605
▁server	-11.7609
▁schlimmsten	-11.7612
▁relation	-11.7615
▁ratten	-11.7619
ists	-11.7619
▁weite	-11.7619
gewebe	-11.7621
century	-11.7621
▁horizon	-11.7625
back	-11.7625
▁gathering	-11.7627
▁komische	-11.763
▁dominant	-11.763
▁leiter	-11.7633
ot	-11.7635
▁länge	-11.764
▁pe	-11.7641
▁reiste	-11.7641
▁climbing	-11.7646
werk	-11.7647
▁chirurg	-11.7647
▁mott	-11.7651
▁che	-11.7654
▁katastrophe	-11.7656
mischung	-11.7668
▁gelehrt	-11.7672
che	-11.7673
▁lane	-11.7675
▁observe	-11.7678
▁trans	-11.7679
▁angetrieben	-11.7679
▁zwölf	-11.7682
▁bars	-11.7682
▁poison	-11.7686
▁bedürfnis	-11.7687
▁flächen	-11.7687
fish	-11.7688
▁kreise	-11.7692
▁bowl	-11.7695
▁quanten	-11.7706
▁excite	-11.7709
▁mammals	-11.771
▁entsprechend	-11.7715
weisen	-11.7715
▁umgekehrt	-11.7719
▁encourag	-11.7722
▁upset	-11.7726
▁matt	-11.7726
▁stet	-11.7727
▁umher	-11.7731
▁einzig	-11.7731
▁ausgewählt	-11.7732
▁tibet	-11.7733
▁optimism	-11.7734
▁realm	-11.7734
▁elect	-11.7734
▁außerordentlich	-11.7736
▁berkeley	-11.7736
▁kombiniere	-11.7736
▁erfordert	-11.7736
▁getestet	-11.7736
▁grateful	-11.7736
▁rosling	-11.7736
▁größenordnung	-11.7736
▁thrill	-11.7736
▁medication	-11.7736
▁meditation	-11.7736
▁egyptian	-11.7736
▁autonomous	-11.7736
▁neat	-11.7736
▁twist	-11.7736
krankenschwester	-11.7737
▁bonus	-11.7737
zieht	-11.7737
▁fda	-11.7737
▁harbor	-11.7737
▁curriculum	-11.7737
ped	-11.7737
▁powerpoint	-11.7737
▁individuum	-11.7738
▁bump	-11.7738
▁canyon	-11.7738
▁4,000	-11.7739
▁streiten	-11.7739
▁spinal	-11.7739
we	-11.774
▁octo	-11.774
▁einfachste	-11.774
▁representation	-11.7741
▁columbia	-11.7741
▁diskutieren	-11.7742
▁flag	-11.7743
▁drift	-11.7744
▁manag	-11.7744
▁dienst	-11.7748
gelegt	-11.775
▁essence	-11.7752
▁20.000	-11.7753
▁vorgestellt	-11.7754
▁bribe	-11.7754
surance	-11.7754
▁involviert	-11.7755
▁erledigt	-11.7755
▁burie	-11.7756
▁ki	-11.7758
▁dreimal	-11.7758
▁erziehung	-11.7759
▁draus	-11.7759
▁combin	-11.7761
▁ron	-11.7762
alter	-11.7764
▁beam	-11.7766
▁bein	-11.7772
ad	-11.7773
▁12-	-11.7775
▁gemessen	-11.7776
▁winkel	-11.7776
▁erinnerte	-11.7777
▁fa	-11.7779
▁konsumenten	-11.7781
▁erect	-11.7787
rdon	-11.7788
energieverbrauch	-11.779
▁hum	-11.7799
schrift	-11.7801
▁seh	-11.7803
▁interviewer	-11.7803
▁tote	-11.7808
ale	-11.781
wasser	-11.7811
▁beeindruckend	-11.7812
kyo	-11.7814
▁angehen	-11.7816
drew	-11.7822
teil	-11.7823
▁maße	-11.7824
▁psychopath	-11.7824
▁worker	-11.7829
richtung	-11.7833
▁compete	-11.7834
▁rod	-11.7834
▁coat	-11.7836
▁geschlechts	-11.784
▁ethical	-11.784
▁staub	-11.7844
▁ensure	-11.7846
amerikanische	-11.7846
▁hanging	-11.7847
▁gelangt	-11.7847
▁dive	-11.7852
▁sprecher	-11.7855
▁award	-11.786
▁educate	-11.7864
üben	-11.7865
▁depress	-11.7868
zelle	-11.787
sex	-11.7872
▁correspond	-11.7881
▁spuren	-11.7882
book	-11.7885
▁regierungs	-11.7886
▁beträg	-11.7889
▁unendlich	-11.7891
stunden	-11.7891
▁erkenntnisse	-11.7901
▁taxi	-11.7903
▁cats	-11.7904
▁korrekt	-11.7905
▁gate	-11.7905
val	-11.7907
▁har	-11.7908
tober	-11.7908
sum	-11.791
punkte	-11.7911
▁hunting	-11.7915
▁dj	-11.7918
▁enc	-11.7921
if	-11.7927
▁reject	-11.793
▁disney	-11.7931
▁zoo	-11.7931
▁erfasst	-11.7932
▁helicopter	-11.7932
▁pittsburgh	-11.7932
▁ebay	-11.7932
▁getreide	-11.7932
▁glamourös	-11.7932
▁ultra	-11.7932
▁cotton	-11.7932
▁wolfram	-11.7932
▁theoretical	-11.7932
▁banjo	-11.7932
sylv	-11.7932
▁passenger	-11.7932
▁herausfand	-11.7932
▁anonymous	-11.7932
▁dawn	-11.7932
▁delight	-11.7932
▁geplant	-11.7932
▁nike	-11.7932
▁futter	-11.7933
▁editor	-11.7933
▁anstrengung	-11.7933
▁stapel	-11.7934
▁royal	-11.7934
▁tendenc	-11.7934
▁commission	-11.7935
▁gegenstand	-11.7936
▁pathway	-11.7936
▁parameter	-11.7938
▁aufeinander	-11.7939
▁resolve	-11.794
▁detection	-11.794
▁ethnische	-11.7941
▁trainieren	-11.7941
▁50.000	-11.7942
▁bart	-11.7943
äh	-11.7944
▁gletscher	-11.7944
▁wertvoll	-11.7945
▁euer	-11.7948
▁academ	-11.7948
▁währung	-11.7949
▁debt	-11.7949
▁pie	-11.7951
▁tagg	-11.7953
▁quest	-11.7954
▁joint	-11.7956
▁gefolg	-11.7956
▁melodie	-11.7957
▁frontal	-11.7957
▁calm	-11.7957
ris	-11.7958
▁ger	-11.7959
▁jet	-11.796
▁sunday	-11.796
▁kopieren	-11.7962
twicklungsländer	-11.7964
▁funktionen	-11.7966
▁tile	-11.7972
recht	-11.7972
▁präsentiert	-11.7972
▁vorder	-11.7973
ator	-11.7974
▁geistige	-11.7975
free	-11.7981
▁güter	-11.7987
sort	-11.7988
heim	-11.7992
▁partnerschaft	-11.7994
nden	-11.7995
▁formel	-11.7998
▁verbreitete	-11.8
▁tip	-11.8002
tschaftswachstum	-11.8006
▁pad	-11.8006
▁werbe	-11.8006
letzt	-11.8007
fl	-11.801
▁restore	-11.8011
▁pipe	-11.8013
▁index	-11.8013
energie	-11.8019
▁verwandten	-11.8025
fa	-11.8027
▁mochte	-11.8032
▁schlange	-11.8033
▁gebildet	-11.8035
▁unterscheidet	-11.8039
▁ethic	-11.8047
stoßen	-11.8048
net	-11.8051
▁wünschen	-11.8055
▁hinweise	-11.8059
▁echtes	-11.8062
ku	-11.8063
▁äußere	-11.8069
▁juli	-11.807
▁horizontal	-11.807
▁pferde	-11.8072
▁offenbar	-11.8074
▁hasse	-11.8074
▁organische	-11.8083
krieg	-11.8085
▁erwähnte	-11.8086
squalität	-11.8087
▁beginne	-11.8089
▁pet	-11.809
lose	-11.8098
sprozess	-11.8107
▁fabric	-11.8108
▁wage	-11.8111
▁rüber	-11.8113
▁magical	-11.8113
▁kameras	-11.8116
▁irgend	-11.8117
minute	-11.8122
kt	-11.8126
▁benzin	-11.8129
▁phosphor	-11.813
▁apollo	-11.8132
▁leather	-11.8132
▁applaus	-11.8132
▁bakterium	-11.8132
▁cholera	-11.8132
▁kohlendioxid	-11.8132
▁verleih	-11.8132
▁liberia	-11.8132
▁ethanol	-11.8132
▁motivieren	-11.8132
▁francis	-11.8132
▁hilfsmittel	-11.8132
▁turkey	-11.8132
▁jefferson	-11.8132
▁supermarket	-11.8132
▁gradual	-11.8132
▁gerede	-11.8132
▁permission	-11.8133
▁michigan	-11.8133
▁glühbirne	-11.8133
▁abgeschlossen	-11.8133
▁frühling	-11.8133
▁cooperation	-11.8133
▁geringe	-11.8134
▁adoption	-11.8134
▁1930	-11.8135
▁administration	-11.8135
▁rachel	-11.8136
▁punch	-11.8137
▁contra	-11.8138
▁dumb	-11.8138
▁grace	-11.8138
▁convey	-11.8139
▁nutrient	-11.814
▁übersetzung	-11.814
▁heilige	-11.8141
▁zurecht	-11.8143
lenken	-11.8149
terrorismus	-11.8151
kin	-11.8156
▁erfolgreiche	-11.8156
▁kapitalismus	-11.8157
▁tension	-11.816
▁tent	-11.8161
▁reagier	-11.8163
▁aufzeichnung	-11.8164
▁erwärmung	-11.8166
▁34	-11.8168
▁prüfung	-11.8172
▁konstruktion	-11.8173
▁dicht	-11.8175
▁nette	-11.8176
om	-11.8176
▁tötet	-11.8177
▁gewöhnliche	-11.8178
▁ausgehen	-11.8178
▁gase	-11.8183
werten	-11.8183
▁stations	-11.8191
artige	-11.8193
▁kommunikations	-11.8203
▁bother	-11.821
▁describ	-11.821
▁pier	-11.8212
schutz	-11.8216
hus	-11.8217
▁prototypen	-11.8217
wagen	-11.8219
▁versprechen	-11.8219
light	-11.8221
▁graphics	-11.8225
▁dünne	-11.8225
tail	-11.8225
▁replicate	-11.8225
▁schießen	-11.8226
port	-11.8228
▁populations	-11.823
▁anhalten	-11.823
▁engag	-11.8233
▁impfstoff	-11.8236
▁evolutionäre	-11.8237
▁surrounding	-11.8237
▁inhalte	-11.8241
▁statistical	-11.8242
▁rechnen	-11.8248
▁parks	-11.8252
kurs	-11.8256
▁mild	-11.8256
▁physisch	-11.8257
▁allzu	-11.8263
▁statue	-11.8264
▁japanische	-11.8266
▁attend	-11.8267
▁leuchten	-11.8268
▁eröffne	-11.8275
▁erschien	-11.8275
räumen	-11.8275
▁ökologische	-11.8279
▁katzen	-11.8284
programme	-11.8285
▁universit	-11.8286
▁grant	-11.8287
▁electronics	-11.8293
▁eingehen	-11.8295
▁cube	-11.8297
▁athlete	-11.8301
▁verurteilt	-11.8303
▁experienc	-11.8306
lo	-11.8309
▁definitiv	-11.8312
▁psycho	-11.8313
▁fate	-11.8321
▁archive	-11.8331
▁kosov	-11.8335
▁entropi	-11.8336
▁prophet	-11.8336
▁troop	-11.8336
▁sacred	-11.8336
▁watson	-11.8336
▁collaborative	-11.8336
▁expectanc	-11.8336
▁extension	-11.8336
▁smartphone	-11.8336
▁praxis	-11.8336
▁widerspruch	-11.8336
▁parkinson	-11.8336
▁annual	-11.8336
▁sebastian	-11.8336
▁jackson	-11.8336
▁supermarkt	-11.8337
▁twenty	-11.8337
▁compell	-11.8337
▁contribution	-11.8338
▁hilfreich	-11.8338
▁reichtum	-11.8338
▁durchmesser	-11.8339
▁verarbeiten	-11.8339
▁erkunden	-11.8339
▁electrode	-11.834
▁autoren	-11.8341
▁grasp	-11.8341
▁radikale	-11.8341
▁1995	-11.8341
▁125	-11.8344
▁finanzier	-11.8346
▁suggestion	-11.8346
▁sudan	-11.8347
▁producer	-11.8348
▁logisch	-11.8351
▁konzentration	-11.8351
▁zentimeter	-11.8354
▁jay	-11.8354
▁stimulation	-11.8356
▁salz	-11.8361
▁verteilen	-11.8361
▁bewegte	-11.8362
▁barry	-11.8364
▁gu	-11.8366
nahme	-11.8368
▁haushalt	-11.837
▁elementary	-11.8371
▁enzyme	-11.8374
▁branch	-11.8374
▁reis	-11.838
gerufen	-11.8387
▁stadium	-11.8388
▁geworfen	-11.839
▁mask	-11.8392
▁schief	-11.8399
▁konzepte	-11.8401
ima	-11.8403
▁harmon	-11.8405
▁qualit	-11.8415
▁nutzer	-11.8416
▁heil	-11.8417
▁außerirdische	-11.8422
▁deutsche	-11.8434
▁überraschende	-11.8434
▁introduc	-11.8436
▁rezept	-11.8438
unterricht	-11.8438
kehren	-11.8439
▁egg	-11.8441
ira	-11.8443
▁grave	-11.8443
▁spill	-11.8444
▁drucken	-11.8446
▁confus	-11.8447
änderungen	-11.8448
▁warning	-11.845
▁rocks	-11.8453
▁moralit	-11.8453
▁symbols	-11.8454
▁stunt	-11.8454
▁bacteri	-11.8454
▁irrational	-11.8456
▁brechen	-11.8456
▁inseln	-11.8461
▁fears	-11.8463
▁liest	-11.8463
hen	-11.8464
züge	-11.8469
▁kim	-11.8472
▁mixed	-11.8473
▁fahrt	-11.8473
od	-11.8477
▁compromise	-11.8479
▁penis	-11.8489
▁arabisch	-11.849
▁mannes	-11.8495
▁tägliche	-11.85
use	-11.8501
▁rabbi	-11.8503
▁exponential	-11.8504
car	-11.8511
ative	-11.8512
pflanzen	-11.8518
▁lucki	-11.8518
fg	-11.8523
▁schienen	-11.8523
gedreht	-11.8528
▁employ	-11.8529
▁sowjet	-11.853
▁vot	-11.8532
▁widme	-11.8535
▁plug	-11.8538
▁effizient	-11.854
▁bound	-11.854
du	-11.8543
▁mega	-11.8543
lang	-11.8544
▁alaska	-11.8544
▁babbage	-11.8544
▁himalaya	-11.8544
▁hypothesis	-11.8544
▁kalorien	-11.8544
▁nirgendwo	-11.8544
▁sputnik	-11.8544
▁mittagessen	-11.8544
▁fence	-11.8544
▁walmart	-11.8544
▁brooklyn	-11.8544
standing	-11.8544
▁glue	-11.8545
▁assignment	-11.8545
▁solarenergie	-11.8545
▁slavery	-11.8545
▁galler	-11.8545
▁kidney	-11.8545
▁juni	-11.8545
▁schwerkraft	-11.8545
▁hamburger	-11.8547
▁geek	-11.8547
▁unabhängigkeit	-11.8547
▁wach	-11.8548
ane	-11.8548
▁senke	-11.855
treiben	-11.855
▁breite	-11.855
▁vermittelt	-11.855
▁syndrome	-11.855
▁industries	-11.8551
▁gewaltig	-11.8553
▁freiwillige	-11.8555
▁ehemann	-11.8556
▁rechner	-11.8556
▁datenbank	-11.8562
▁selektion	-11.8562
▁interior	-11.8564
kontrolle	-11.8564
▁goat	-11.8565
▁biologe	-11.8565
▁cake	-11.8568
▁shit	-11.8569
▁gewissermaß	-11.8572
ho	-11.8572
▁voraussagen	-11.8573
film	-11.8581
▁verfügen	-11.8581
▁studium	-11.8582
▁fragile	-11.8583
▁vergangene	-11.8587
eln	-11.8591
kette	-11.8595
▁marc	-11.8597
▁fremden	-11.86
▁bildungs	-11.8603
▁formal	-11.8608
▁au	-11.8612
▁werke	-11.8612
▁dient	-11.8617
▁züchte	-11.8617
▁radikal	-11.8619
gesellschaft	-11.8619
▁sicherer	-11.862
▁kriegs	-11.862
▁evan	-11.8624
▁intensiv	-11.8626
▁mist	-11.8629
▁psychologische	-11.8632
for	-11.8641
▁komplexer	-11.8644
▁erziel	-11.8646
▁priorit	-11.8648
hood	-11.8652
▁treasure	-11.8652
force	-11.8652
▁farb	-11.8653
bedingungen	-11.8656
isiert	-11.8656
ership	-11.8658
srate	-11.8662
▁viral	-11.8662
schreiben	-11.8662
▁attribute	-11.8663
lager	-11.8664
▁penguin	-11.8664
▁programmer	-11.8667
aging	-11.867
cent	-11.8671
▁memes	-11.8673
▁bug	-11.8673
▁entdeckten	-11.8676
▁bewirk	-11.8676
▁teilnehmen	-11.8677
▁profession	-11.8677
grade	-11.8677
▁eliminate	-11.8677
▁toilette	-11.8679
▁pat	-11.8679
▁rats	-11.8681
▁spannend	-11.8686
▁package	-11.8687
▁fanc	-11.8689
▁teenagers	-11.8698
▁erfindungen	-11.8702
▁spielzeug	-11.8703
▁alarm	-11.8704
▁sauber	-11.8705
▁beliebige	-11.872
▁vierten	-11.8721
▁neanderthal	-11.8723
▁stau	-11.8723
▁winn	-11.8728
▁assembl	-11.8728
▁wohn	-11.8733
getreten	-11.8733
▁lama	-11.8739
▁supplie	-11.8742
▁pond	-11.8742
ified	-11.8744
▁cal	-11.8746
▁kostenlose	-11.8748
▁blicken	-11.8752
▁anreiz	-11.8752
▁praktische	-11.8757
▁embryo	-11.8757
▁alkohol	-11.8757
▁repräsentiere	-11.8757
▁temple	-11.8757
▁teszler	-11.8757
▁wheelchair	-11.8757
▁äthiopien	-11.8757
▁calorie	-11.8757
▁kühe	-11.8757
▁biosphere	-11.8757
▁breakfast	-11.8757
▁defeat	-11.8757
▁portugal	-11.8757
▁mainstream	-11.8757
▁stole	-11.8757
▁erlangen	-11.8757
▁autorität	-11.8757
▁verletzlichkeit	-11.8757
▁marketplace	-11.8758
▁zelt	-11.8759
▁graphic	-11.8759
▁compassionate	-11.8759
▁appearance	-11.8759
▁unrecht	-11.876
▁festhalten	-11.876
▁contribut	-11.8761
▁measurement	-11.8761
▁auswählen	-11.8761
▁downtown	-11.8762
▁materielle	-11.8763
▁weibchen	-11.8763
▁censor	-11.8764
▁olympische	-11.8766
▁stands	-11.8766
▁specialist	-11.8768
▁löwen	-11.8773
▁billiger	-11.8774
▁needle	-11.8775
▁kleider	-11.8776
brechen	-11.8777
▁schall	-11.8778
▁psychische	-11.8779
▁überqueren	-11.8779
▁verringern	-11.8779
▁poe	-11.878
▁nährstoffe	-11.878
▁cape	-11.8781
▁enkel	-11.8782
▁cosm	-11.8784
▁1991	-11.8787
▁geeignet	-11.8788
iger	-11.8789
▁bewohner	-11.879
▁ends	-11.8792
bekommen	-11.8794
virus	-11.8798
va	-11.8803
▁anbau	-11.8805
▁auftreten	-11.8808
▁muslimische	-11.8809
▁gemeinnützige	-11.8811
▁shipp	-11.8813
▁durcheinander	-11.8813
▁div	-11.8814
▁weinen	-11.8815
ile	-11.8821
▁geling	-11.8827
▁coole	-11.8831
▁gegenstände	-11.8831
▁verdoppelt	-11.8834
▁cliff	-11.8845
körper	-11.8848
▁merkwürdig	-11.8849
schön	-11.885
bücher	-11.8855
▁besitzer	-11.886
boden	-11.8861
zuwenden	-11.8862
rie	-11.8865
▁fe	-11.8865
▁underly	-11.8865
▁15-	-11.8869
▁abends	-11.8871
▁leser	-11.8873
▁ameise	-11.8876
▁stattfinden	-11.8877
▁betreten	-11.8877
van	-11.8878
▁mathe	-11.8879
rad	-11.8882
▁tooth	-11.8882
▁öffnete	-11.8886
griff	-11.8888
▁brenn	-11.8889
▁idiot	-11.889
▁jar	-11.8892
▁verlor	-11.8892
▁kiss	-11.8897
▁erweitert	-11.8901
▁herstellt	-11.8905
▁beendet	-11.891
▁folgte	-11.8918
▁investor	-11.8924
▁independen	-11.8927
▁skelett	-11.8927
▁legend	-11.893
▁klare	-11.8936
▁christ	-11.8946
▁bath	-11.895
jo	-11.8952
▁sketch	-11.8956
▁geometr	-11.896
▁gestaltet	-11.8967
bus	-11.8968
▁verletzt	-11.897
▁deck	-11.8972
▁occasion	-11.8973
▁inject	-11.8973
▁recommend	-11.8973
▁blank	-11.8974
ibera	-11.8974
▁dylan	-11.8974
▁endanger	-11.8974
▁uncomfortabl	-11.8974
▁ushahidi	-11.8974
▁verzweiflung	-11.8974
▁völker	-11.8974
entropy	-11.8974
▁carnegie	-11.8974
▁recruit	-11.8974
▁jellyfish	-11.8974
▁besaß	-11.8974
▁jacque	-11.8974
▁kooperation	-11.8974
▁swiss	-11.8974
▁treppe	-11.8974
▁dialogue	-11.8974
▁wilson	-11.8975
▁keith	-11.8975
▁gorge	-11.8975
▁collaborator	-11.8975
▁biodiversity	-11.8975
▁steer	-11.8976
▁pu	-11.8976
▁ugl	-11.8976
▁miserable	-11.8976
▁menschlichkeit	-11.8976
▁glacier	-11.8976
▁phosphorus	-11.8976
▁couch	-11.8977
▁chamber	-11.8978
▁flughafen	-11.8978
▁potato	-11.8978
▁lebensraum	-11.8978
▁sicherstell	-11.8979
▁zweieinhalb	-11.898
▁rechen	-11.8981
▁stieß	-11.8982
▁innocent	-11.8983
▁produktivität	-11.8983
▁weltbank	-11.8983
▁anwälte	-11.8984
▁oliver	-11.8984
▁reported	-11.8984
▁tragic	-11.8986
▁mapping	-11.8986
▁erzähl	-11.8987
▁altitude	-11.8989
▁voraussetzung	-11.8989
▁einsicht	-11.899
einheit	-11.8993
▁restliche	-11.8994
▁käme	-11.8996
▁hindernisse	-11.8996
▁erforschung	-11.9
▁geblieben	-11.9001
viel	-11.9007
▁wedding	-11.9007
▁mm	-11.9012
▁klingen	-11.9012
▁erscheinung	-11.9013
▁bären	-11.9018
sia	-11.9018
▁sinnvoll	-11.9019
▁tafel	-11.902
▁integrat	-11.902
tum	-11.9023
▁drüber	-11.9024
▁gra	-11.9026
▁hol	-11.9026
▁pursue	-11.9027
▁kapazität	-11.9027
▁lieder	-11.9027
▁washing	-11.9028
frozen	-11.9028
▁innovations	-11.9032
sj	-11.9033
some	-11.9034
▁achiev	-11.9037
ker	-11.9038
ierten	-11.9041
▁stabil	-11.9044
landschaft	-11.9044
▁warte	-11.9052
▁veranstaltung	-11.9056
▁einschließlich	-11.9058
▁pulse	-11.9058
gl	-11.9059
▁recycle	-11.906
▁höhen	-11.9062
▁kluge	-11.9068
▁khan	-11.907
strom	-11.9074
▁educat	-11.9081
▁fokussier	-11.9081
branche	-11.9082
revolution	-11.9085
▁alters	-11.9087
worth	-11.9087
▁deutsch	-11.909
▁timing	-11.9091
▁schafe	-11.9091
▁gestalt	-11.9091
leitung	-11.9095
▁graben	-11.9098
zimmer	-11.91
▁pin	-11.9101
pont	-11.9101
▁buddha	-11.9106
▁chase	-11.9108
▁gonn	-11.9113
▁terroristen	-11.9115
▁kolonie	-11.9117
▁reliabl	-11.9121
▁whit	-11.9133
▁spinn	-11.9135
▁eingebaut	-11.9135
▁450	-11.9137
nde	-11.9141
▁ehren	-11.9146
bt	-11.9147
▁freiwilligen	-11.9149
▁soup	-11.9151
▁schlimme	-11.9153
▁verschmutz	-11.9158
▁sc	-11.9159
▁unerwartete	-11.916
▁bless	-11.9164
▁heilung	-11.9171
iro	-11.9172
▁türke	-11.9174
▁youth	-11.9174
eck	-11.9174
▁dopamin	-11.9175
▁wrap	-11.9177
▁archiv	-11.9179
▁schmerzhaft	-11.9182
▁frankl	-11.9186
zen	-11.9187
ping	-11.9188
▁refuse	-11.9191
im	-11.9192
▁gestaltung	-11.9193
▁alcohol	-11.9195
▁instinct	-11.9196
▁captain	-11.9197
▁jihad	-11.9197
▁parliament	-11.9197
▁carpet	-11.9197
▁flavor	-11.9197
▁entschuldige	-11.9197
▁italian	-11.9197
▁spontaneous	-11.9197
▁biosphäre	-11.9197
▁zehen	-11.9197
▁panik	-11.9197
▁concentration	-11.9197
▁isolation	-11.9197
▁summit	-11.9197
ronto	-11.9197
▁kranken	-11.9197
▁herkunft	-11.9198
▁geometrie	-11.9198
▁friday	-11.9199
▁wheat	-11.9199
▁airline	-11.92
▁selfish	-11.92
▁hitting	-11.92
▁minimum	-11.92
gehört	-11.9201
▁verhält	-11.9201
▁verknüpft	-11.9203
▁funktionierende	-11.9204
▁apfel	-11.9206
▁dez	-11.9206
▁enhance	-11.9208
▁reiche	-11.9209
▁segment	-11.9211
▁hawking	-11.9211
▁winner	-11.9214
▁verboten	-11.9214
▁inequalit	-11.9214
▁hammer	-11.9215
▁prayer	-11.9217
▁frequent	-11.9218
pi	-11.922
▁lust	-11.9223
▁pants	-11.9223
▁diagnostiziert	-11.9223
▁manipulate	-11.9224
▁serving	-11.9225
heiten	-11.9228
▁announc	-11.9229
preis	-11.923
▁fischerei	-11.9232
▁handels	-11.9235
▁tackle	-11.9236
▁tele	-11.9239
▁verrate	-11.9239
▁geheim	-11.924
flug	-11.9242
▁bahn	-11.9243
▁bogen	-11.9251
▁klappt	-11.9252
▁hals	-11.9252
fold	-11.9254
hal	-11.9255
ek	-11.9257
▁diagnosed	-11.9258
ngalo	-11.926
schicht	-11.9261
▁horizont	-11.9262
▁braun	-11.9268
▁lehrt	-11.9274
handel	-11.9278
▁fang	-11.9279
voll	-11.9284
ford	-11.9284
▁aufweis	-11.9295
maschinen	-11.9298
▁wohnen	-11.9299
▁künstlich	-11.9302
▁tode	-11.9308
gebäude	-11.9309
fabrik	-11.9309
interest	-11.931
▁falle	-11.9312
▁compet	-11.9312
▁conflicts	-11.9316
▁kalte	-11.9317
▁leder	-11.9317
▁pose	-11.932
▁langfristige	-11.9322
bett	-11.9322
▁bucks	-11.9322
tude	-11.9322
▁integriert	-11.9323
▁institut	-11.9325
▁dünn	-11.9328
▁believ	-11.9328
▁fliegende	-11.9333
▁begriffen	-11.9333
▁optische	-11.9335
▁ram	-11.934
bereiten	-11.9342
▁herauskomm	-11.9344
▁wertvolle	-11.9345
▁balk	-11.9346
▁makers	-11.9349
see	-11.9355
▁gigantische	-11.9356
▁incident	-11.9362
▁versorgt	-11.9362
▁dedicat	-11.9362
▁arriv	-11.9363
▁lehrerin	-11.9366
▁rang	-11.9367
▁resilienc	-11.9371
▁blasen	-11.9372
▁präzise	-11.9376
▁180	-11.9379
tanz	-11.938
▁puzzles	-11.9381
▁cooper	-11.9383
▁gering	-11.9386
les	-11.9389
är	-11.9394
▁betrieb	-11.9398
▁synthetische	-11.9399
▁mola	-11.9405
▁drag	-11.9405
▁aussterben	-11.9407
▁walks	-11.941
rechnen	-11.9412
▁plankton	-11.9416
▁auftauchen	-11.9417
▁disturb	-11.9423
▁substanz	-11.9423
▁tränen	-11.9424
▁ceiling	-11.9424
▁silver	-11.9424
▁tamiflu	-11.9424
▁gestohlen	-11.9424
▁protocell	-11.9424
▁inherent	-11.9424
▁beschützen	-11.9424
▁graham	-11.9424
▁mysterious	-11.9424
▁dutch	-11.9424
▁margar	-11.9424
▁tanzania	-11.9424
▁canopy	-11.9424
▁princeton	-11.9424
▁tiefsee	-11.9424
▁fettleibigkeit	-11.9424
▁susan	-11.9424
▁clar	-11.9425
▁rna	-11.9425
▁prepare	-11.9426
▁fange	-11.9427
▁titanic	-11.9427
bye	-11.9427
▁bewusstseins	-11.9429
▁karikatur	-11.9429
▁königin	-11.9429
▁leone	-11.943
▁auffassung	-11.943
▁1,5	-11.9431
▁tutor	-11.9434
▁loose	-11.9435
▁smoking	-11.9436
▁potter	-11.9437
▁nützliche	-11.9437
▁assist	-11.9438
▁hungrig	-11.9438
▁antarktis	-11.9438
▁register	-11.9439
▁scanne	-11.944
▁galerie	-11.9441
▁shine	-11.9444
▁großvater	-11.9444
▁unfälle	-11.9444
▁schreibtisch	-11.9445
▁markiert	-11.9445
▁fernseher	-11.9447
▁blogger	-11.9448
▁seide	-11.9448
▁streich	-11.9453
▁berührung	-11.9456
▁komplizierter	-11.9457
▁vergrößert	-11.9457
▁fülle	-11.9459
▁53	-11.9464
▁arise	-11.9464
▁mitteilen	-11.9468
▁owner	-11.947
▁dave	-11.9472
▁voran	-11.9476
▁cia	-11.9482
▁herzlich	-11.9489
▁arena	-11.9494
▁visuell	-11.9504
▁betonen	-11.9506
▁medikamenten	-11.9512
▁52	-11.9512
▁fungi	-11.9516
▁menschlich	-11.9517
ado	-11.9523
netzwerk	-11.9529
▁guns	-11.9529
▁fahrer	-11.9532
leg	-11.9533
▁angeboten	-11.9538
▁endet	-11.9538
▁bewirkt	-11.9539
konferenz	-11.954
▁direkte	-11.9541
kampagne	-11.9541
case	-11.9541
while	-11.9542
▁hob	-11.9542
teilchen	-11.9542
motor	-11.9542
▁zehntausende	-11.9554
▁unterrichtet	-11.9557
▁bruc	-11.9557
▁lücke	-11.9557
gi	-11.9558
▁darm	-11.9559
▁messer	-11.9564
▁julia	-11.9564
▁abu	-11.9569
▁improvisation	-11.957
▁cola	-11.9576
▁hid	-11.9581
▁divid	-11.9582
▁victim	-11.9584
inseln	-11.9586
▁infection	-11.9586
▁zwanzig	-11.9587
▁erbe	-11.959
▁zweiter	-11.959
▁merkmale	-11.9592
▁kommentar	-11.9593
▁woke	-11.9593
schneiden	-11.9598
▁intrigu	-11.9602
▁cl	-11.9606
▁unterwasser	-11.9614
▁ecological	-11.9615
▁guid	-11.9617
sgeschichte	-11.9619
▁exponentiell	-11.9624
▁blend	-11.9626
▁verkaufte	-11.9627
▁wings	-11.9633
▁trivial	-11.9634
▁samen	-11.9634
▁gal	-11.9639
▁afghan	-11.964
mart	-11.964
▁2.	-11.9641
▁verblüffend	-11.9646
▁ewig	-11.965
ps	-11.9653
▁republic	-11.9655
▁crystal	-11.9656
▁analysiert	-11.9656
▁antibiotika	-11.9656
▁despair	-11.9656
▁dschihad	-11.9656
▁edinburgh	-11.9656
▁gewohnt	-11.9656
▁immigrant	-11.9656
▁konversation	-11.9656
▁pazifik	-11.9656
▁republikaner	-11.9656
▁sediment	-11.9656
▁verheiratet	-11.9656
▁enlighten	-11.9656
▁simultaneous	-11.9656
▁bmw	-11.9656
▁kosmische	-11.9656
▁desktop	-11.9656
▁armstrong	-11.9656
▁atomenergie	-11.9656
▁gelähmt	-11.9657
▁bullet	-11.9657
▁immunsystem	-11.9657
▁crab	-11.9657
▁generous	-11.9657
▁proposition	-11.9657
▁stoffwechsel	-11.9658
▁sale	-11.9658
▁jewel	-11.9658
celsi	-11.9658
▁mindset	-11.9659
▁empathie	-11.966
▁fließen	-11.966
▁prostate	-11.966
▁pharmaceutical	-11.9661
▁mio	-11.9661
achtung	-11.9661
▁versagt	-11.9663
▁steam	-11.9663
▁norman	-11.9663
▁gewässer	-11.9663
▁aufmerksam	-11.9667
▁homeless	-11.967
▁blink	-11.9671
meter	-11.9672
▁säugetiere	-11.9675
▁schenken	-11.9675
▁spiral	-11.9675
▁tide	-11.9678
▁static	-11.9678
funktion	-11.9678
▁beschäftigte	-11.9681
herrschaft	-11.9684
▁beschaffen	-11.9686
▁remov	-11.9689
▁historic	-11.9695
hu	-11.9697
▁derzeitige	-11.9697
▁overwhelming	-11.9697
▁ipad	-11.97
▁verletzung	-11.9703
reichen	-11.9708
▁sail	-11.9709
scanning	-11.9711
▁gallon	-11.9714
wirken	-11.9715
▁flowing	-11.9715
▁litt	-11.9716
▁communicat	-11.9716
▁aktiviert	-11.9716
▁bomben	-11.9719
▁via	-11.9723
▁freundlich	-11.9723
▁chor	-11.9726
▁tiefste	-11.9727
▁singer	-11.9727
▁auseinandersetz	-11.9729
fache	-11.973
▁ridge	-11.9732
▁programmierer	-11.9735
io	-11.9738
▁spike	-11.9738
▁begleitet	-11.9739
▁ultimative	-11.9739
▁feinde	-11.974
essen	-11.974
ions	-11.974
▁regional	-11.9741
union	-11.9742
▁tone	-11.9744
▁beton	-11.9745
▁einblick	-11.9746
prozess	-11.9748
rechnet	-11.9748
▁fahr	-11.9755
▁chirurgen	-11.9758
▁stattfinde	-11.9762
sfähigkeit	-11.9763
▁schnellste	-11.9767
strecken	-11.9767
▁lt	-11.9771
syndrom	-11.9774
▁maxim	-11.9777
▁inch	-11.9779
population	-11.978
ßen	-11.9782
-2	-11.9786
▁schwein	-11.9786
▁fehlende	-11.979
▁synapse	-11.9794
place	-11.9797
▁redete	-11.9797
▁schokolade	-11.9798
▁sacrifice	-11.9799
▁queens	-11.9799
▁wartete	-11.9807
▁vent	-11.9808
pl	-11.9809
fügen	-11.981
▁israeli	-11.9811
▁mechanic	-11.9811
gebiet	-11.9815
ay	-11.9817
▁pi	-11.9817
▁microbi	-11.982
▁simulate	-11.9821
▁renewable	-11.9826
▁bürgerkrieg	-11.9827
▁grundlagen	-11.9832
▁kunststoff	-11.9834
▁vorfahr	-11.9835
▁angel	-11.9844
▁beeindruckende	-11.9846
▁mitnehme	-11.9847
▁spitzen	-11.9847
▁kiste	-11.9848
▁sorgt	-11.985
▁ignoriert	-11.9854
▁existierende	-11.9855
▁umsetzen	-11.9857
▁wolke	-11.986
▁abschließen	-11.9861
▁neil	-11.9863
▁theoretisch	-11.9863
smöglichkeit	-11.9864
zugleich	-11.9864
▁teilte	-11.9864
▁röntgen	-11.9865
achtet	-11.9865
▁holte	-11.9867
▁italien	-11.9868
▁sendung	-11.987
▁banks	-11.987
▁broadcast	-11.9878
▁kit	-11.9879
▁liebste	-11.9882
▁doug	-11.9884
▁williams	-11.9886
▁1.5	-11.9887
▁shin	-11.989
▁unklar	-11.989
▁shoe	-11.989
▁distinct	-11.9893
▁exhibit	-11.9893
▁gravitation	-11.9893
▁choosing	-11.9894
▁eingeschränkt	-11.9894
▁fibonacci	-11.9894
▁nördlich	-11.9894
▁occupy	-11.9894
▁prosthetic	-11.9894
▁venezuela	-11.9894
▁casual	-11.9894
▁behauptung	-11.9894
▁pencil	-11.9894
▁beeindruckt	-11.9894
▁zipcar	-11.9894
▁basketball	-11.9894
▁album	-11.9895
▁tongue	-11.9895
▁innovator	-11.9895
▁superstar	-11.9895
▁korean	-11.9895
▁nonprofit	-11.9895
▁wörterbuch	-11.9895
▁hallucination	-11.9895
▁versetzt	-11.9895
▁gerüst	-11.9895
▁radar	-11.9895
▁decke	-11.9896
▁simon	-11.9896
▁185	-11.9896
▁glow	-11.9897
▁marry	-11.9897
▁rhythmus	-11.9898
▁insane	-11.9899
▁paradi	-11.9899
▁ecolog	-11.9901
▁jedermann	-11.9901
rennen	-11.9902
▁ethik	-11.9904
▁bewiesen	-11.9906
▁töchter	-11.9907
▁anliegen	-11.9907
▁filmmaker	-11.9907
▁konzentrierte	-11.9908
▁beantwortet	-11.9908
▁uncertaint	-11.9909
▁cnn	-11.9913
▁gelände	-11.9913
▁autobahn	-11.9915
▁direktor	-11.9915
▁elektronik	-11.9916
▁node	-11.9917
▁prüfen	-11.9918
▁3.000	-11.9918
loved	-11.9919
▁richtlinie	-11.9922
▁metric	-11.9923
▁fastest	-11.9927
▁vieler	-11.9927
▁delivery	-11.9928
▁zustimmen	-11.9933
▁wahrhaftig	-11.9935
▁partikel	-11.9935
schichten	-11.994
lu	-11.994
▁generator	-11.9941
▁surgeons	-11.9949
ob	-11.995
▁verwandt	-11.9951
▁insist	-11.9951
▁heal	-11.9952
▁knoten	-11.9953
▁ru	-11.9954
▁spirituelle	-11.9955
▁wechsel	-11.9955
▁jon	-11.9955
▁nervenzellen	-11.9956
denkst	-11.9957
▁beschleunigt	-11.9958
▁rom	-11.996
▁ausschnitt	-11.9962
▁künstlerische	-11.9964
spanne	-11.9967
stelle	-11.9968
▁infections	-11.997
▁gramm	-11.997
banish	-11.9972
▁brennstoff	-11.9979
▁pot	-11.9983
king	-11.9984
ties	-11.9984
▁filmen	-11.9986
▁purchase	-11.9987
▁cows	-11.9988
▁aktive	-11.999
▁breit	-11.9994
▁gi	-12
▁rechnung	-12
▁3.	-12.0003
▁kreislauf	-12.0003
produkt	-12.0004
▁zueinander	-12.0004
▁riech	-12.0006
nutzung	-12.0007
▁frische	-12.0008
▁haltung	-12.0009
▁faci	-12.001
▁gre	-12.0017
▁koch	-12.0018
▁lösch	-12.0024
american	-12.0024
erfahrung	-12.0024
▁tubes	-12.0026
dichte	-12.0029
klang	-12.003
,500	-12.0031
▁jumped	-12.0033
isten	-12.0034
▁bach	-12.0036
▁ausreichend	-12.0037
▁jean	-12.0043
ami	-12.0044
▁benötigte	-12.0047
▁institutional	-12.0051
▁strangers	-12.0052
▁accessib	-12.0053
wand	-12.0053
▁jagen	-12.0064
isieren	-12.0064
leistungen	-12.0065
▁handelte	-12.0069
ase	-12.0076
master	-12.008
▁pyramide	-12.0081
▁berechnet	-12.0081
▁tödlich	-12.0087
▁vorkommen	-12.0087
▁cru	-12.0088
▁verwirklich	-12.0088
cker	-12.0088
▁roh	-12.0089
▁agenc	-12.009
gleich	-12.009
▁wüsten	-12.0097
eur	-12.0104
▁effekte	-12.0105
▁chas	-12.0111
▁sitze	-12.0114
stage	-12.0114
▁konsumier	-12.0116
▁einig	-12.0116
kar	-12.0117
▁vollständige	-12.0118
▁dringend	-12.0119
▁hierarch	-12.012
▁tin	-12.0122
▁infant	-12.0125
▁2,5	-12.0128
formen	-12.0131
▁disagree	-12.0138
rizon	-12.0138
▁flexibilit	-12.0138
▁taiwan	-12.0138
▁anxiet	-12.0138
▁astronaut	-12.0138
▁glimpse	-12.0138
▁intrinsic	-12.0138
▁oecd	-12.0138
▁privacy	-12.0138
▁sorgfältig	-12.0138
▁terrifying	-12.0138
▁threshold	-12.0138
▁ultraschall	-12.0138
▁verpflichtung	-12.0138
▁guitar	-12.0138
▁lakota	-12.0138
▁beschleunigen	-12.0138
▁division	-12.0138
▁saint	-12.0138
▁intimate	-12.0138
▁neocortex	-12.0138
▁erstaunt	-12.0139
▁edward	-12.0139
ibati	-12.0139
▁transformative	-12.0139
▁foster	-12.0139
▁crush	-12.0139
▁steigern	-12.0139
▁ausländische	-12.0139
▁manifestation	-12.0139
▁fotografieren	-12.0139
yves	-12.0139
▁kluft	-12.0139
▁choir	-12.014
▁homework	-12.0141
▁frontier	-12.0142
▁durchbruch	-12.0142
▁umfassende	-12.0143
▁sake	-12.0143
▁halluzination	-12.0143
▁prevention	-12.0144
▁disconnect	-12.0144
▁confident	-12.0146
▁walter	-12.0146
▁fairness	-12.0146
▁verzweifelt	-12.0148
▁deception	-12.0149
▁rückwärts	-12.015
agnes	-12.0151
▁jerry	-12.0151
▁anwalt	-12.0151
▁reflection	-12.0153
▁übliche	-12.0153
▁geschäftsmodell	-12.0155
▁schlicht	-12.0156
▁elektroden	-12.016
▁eingeschlossen	-12.0161
▁pandemie	-12.0163
▁feucht	-12.0165
archie	-12.0166
pro	-12.0166
▁bold	-12.0166
▁redner	-12.0166
▁finanzierung	-12.0168
bit	-12.0168
▁stabilität	-12.0169
ria	-12.0172
▁studierte	-12.0174
▁lago	-12.0177
▁organisierte	-12.0179
▁experimentieren	-12.0181
▁neo	-12.0182
▁migration	-12.0186
▁zustände	-12.019
▁impress	-12.0192
▁gewachsen	-12.0193
▁sendet	-12.02
▁horn	-12.0201
park	-12.0202
▁planung	-12.0204
▁wahnsinnig	-12.0207
▁genen	-12.0209
▁klavier	-12.0212
▁herrscht	-12.0213
▁lustige	-12.0215
▁grey	-12.0216
▁geschlecht	-12.0216
▁140	-12.0217
▁abilit	-12.0219
▁dauer	-12.0221
▁schuldig	-12.0221
▁fischen	-12.0221
▁kommerzielle	-12.0225
treffen	-12.0228
▁einnehmen	-12.0228
gel	-12.0228
▁bite	-12.0232
spruch	-12.0233
▁ausprobieren	-12.0233
▁unendliche	-12.0233
▁bats	-12.0237
4.000	-12.0241
▁rape	-12.0245
keiten	-12.0247
▁900	-12.0253
▁stu	-12.0254
▁spare	-12.0257
einkommen	-12.0257
▁giftige	-12.027
agen	-12.0271
▁traditionell	-12.0271
▁charaktere	-12.0273
faktor	-12.0273
kunst	-12.0275
pol	-12.0275
▁alltägliche	-12.0276
gelaufen	-12.0277
▁prior	-12.0277
▁unhapp	-12.0281
gefühl	-12.0283
sel	-12.0284
block	-12.0285
▁lamp	-12.0286
▁shocking	-12.0287
▁hölle	-12.029
▁blinde	-12.0291
müde	-12.0295
menschen	-12.0295
die	-12.0299
▁pinguin	-12.03
▁friedens	-12.0301
▁pilz	-12.0302
▁solo	-12.0302
▁genial	-12.0306
anlagen	-12.0314
fliegen	-12.0314
▁distanz	-12.0316
▁aß	-12.0316
ise	-12.032
geheimnisse	-12.0324
ade	-12.0325
▁sensation	-12.0327
▁furchtbar	-12.0331
▁corporation	-12.0332
zusehen	-12.0333
▁freundschaft	-12.0335
▁verdoppel	-12.0336
▁akademische	-12.0337
▁reale	-12.034
▁nutzte	-12.034
▁ausgabe	-12.0341
▁geheime	-12.0345
▁genie	-12.0348
▁sue	-12.0351
▁impressi	-12.0354
cher	-12.0356
▁mari	-12.0357
af	-12.0357
hop	-12.0358
▁cad	-12.0358
▁convention	-12.0359
▁teenage	-12.036
20	-12.0367
eda	-12.0368
win	-12.037
▁ethnic	-12.0372
▁expose	-12.0375
wechsel	-12.0378
▁ideo	-12.0379
▁massac	-12.0379
▁sole	-12.038
▁sin	-12.038
▁veröffentlichte	-12.0382
▁forum	-12.0383
fäde	-12.0384
▁misst	-12.0386
ou	-12.0386
▁phenomena	-12.0387
▁ausgestorben	-12.0388
▁bhutan	-12.0388
▁cassini	-12.0388
▁cigarette	-12.0388
▁hühner	-12.0388
▁philadelphia	-12.0388
▁multiply	-12.0388
▁delicious	-12.0388
▁gelegentlich	-12.0388
▁serge	-12.0388
▁erlaubnis	-12.0388
▁transmission	-12.0388
▁dallas	-12.0388
▁flourish	-12.0388
▁delay	-12.0388
▁geformt	-12.0388
▁königreich	-12.0388
▁murray	-12.0388
▁linux	-12.0389
▁spanish	-12.0389
▁roger	-12.0389
▁marvel	-12.0389
▁nicole	-12.0389
▁diana	-12.0389
▁kriminelle	-12.039
▁phenomenal	-12.039
▁crawl	-12.039
▁unsicherheit	-12.0391
▁rauf	-12.0391
▁unfold	-12.0392
▁hemisphere	-12.0393
▁planetary	-12.0395
▁götter	-12.0396
▁playful	-12.0397
▁shir	-12.0398
▁abstand	-12.0398
▁manipulation	-12.0399
▁ärger	-12.04
▁lowest	-12.04
▁verstecken	-12.0401
▁vega	-12.0401
▁darfur	-12.0405
▁chunk	-12.0405
▁locate	-12.0405
▁krähen	-12.0407
▁fuss	-12.0407
▁deaf	-12.0408
▁philanthropy	-12.0408
▁rome	-12.041
▁wrapp	-12.041
▁analyz	-12.0411
▁update	-12.0413
jahr	-12.0415
hex	-12.0419
▁pearl	-12.0419
▁moma	-12.042
▁bewertung	-12.042
geschrieben	-12.0423
behörde	-12.0424
▁detektor	-12.0425
▁gleichheit	-12.0426
▁disability	-12.0426
▁shore	-12.0428
▁germ	-12.0429
▁freiwillig	-12.0429
▁traditions	-12.0431
▁beck	-12.0431
▁einführung	-12.0434
▁traurige	-12.0435
▁bindung	-12.0435
▁erreichte	-12.0439
▁offering	-12.0441
▁hearts	-12.0441
graph	-12.0443
▁approximate	-12.0445
▁baker	-12.0447
sätze	-12.0448
ähnliche	-12.0449
▁dicke	-12.0454
▁reine	-12.0454
▁brillante	-12.0461
▁wörtlich	-12.0464
▁studierenden	-12.0465
▁ausführen	-12.0467
abteilung	-12.047
▁geleitet	-12.0473
▁mischen	-12.0475
tung	-12.0475
▁nachbar	-12.0479
nische	-12.0482
▁wandern	-12.0487
▁zunge	-12.0491
▁heiße	-12.0492
labor	-12.0493
▁diskutiert	-12.0495
▁gleicher	-12.0497
▁künstlerin	-12.0498
ila	-12.0503
▁züge	-12.0507
notwendigkeit	-12.0508
▁toiletten	-12.0509
▁bot	-12.0509
drive	-12.0511
möglich	-12.0512
▁additional	-12.0518
organiz	-12.0519
▁herab	-12.0523
zentr	-12.0526
school	-12.0528
erkrankung	-12.0529
kreislauf	-12.0529
human	-12.0531
▁primaten	-12.0533
▁critic	-12.0534
▁tipp	-12.0535
wort	-12.0536
▁gemeint	-12.0537
▁suchten	-12.0538
schau	-12.0541
▁flut	-12.0546
▁experti	-12.0551
▁logical	-12.0552
rous	-12.0552
▁küchen	-12.0557
▁riesig	-12.0559
▁leopard	-12.0559
▁abbau	-12.0563
▁absurd	-12.0563
▁tourist	-12.0565
▁techniker	-12.057
▁natürlicher	-12.057
vity	-12.0571
zahlung	-12.0572
▁4.	-12.0574
▁kal	-12.0574
▁landet	-12.0575
▁greif	-12.058
▁auftritt	-12.0581
▁origins	-12.0587
regel	-12.0587
▁fein	-12.0598
▁ruder	-12.0602
zeichnen	-12.0602
▁atome	-12.0605
▁disk	-12.0608
▁programmiert	-12.0609
cost	-12.061
▁cr	-12.0615
▁24-	-12.0618
schieben	-12.0619
▁recogniz	-12.062
▁priest	-12.0622
▁beating	-12.0624
▁fassen	-12.0631
etts	-12.0634
projekte	-12.0635
uel	-12.0635
▁hinweisen	-12.0637
lauf	-12.0637
▁sichere	-12.0639
▁bj	-12.064
▁oma	-12.0642
▁gyr	-12.0642
▁zahlreiche	-12.0642
▁elizabeth	-12.0644
eladu	-12.0645
▁bewältigen	-12.0645
▁leinwand	-12.0645
▁palestinian	-12.0645
▁receptor	-12.0645
▁serotonin	-12.0645
▁shrink	-12.0645
▁stomach	-12.0645
▁surgical	-12.0645
▁absence	-12.0645
▁enthusiasm	-12.0645
▁genuine	-12.0645
▁oscar	-12.0645
▁ultrasound	-12.0645
▁wohnzimmer	-12.0645
▁diameter	-12.0645
▁entwarf	-12.0645
▁arbeitsplätze	-12.0645
▁pride	-12.0645
▁spanien	-12.0645
▁guardian	-12.0645
▁stammes	-12.0645
▁rückseite	-12.0645
▁burden	-12.0645
▁storyteller	-12.0645
▁detro	-12.0645
▁unconscious	-12.0645
▁connecti	-12.0646
▁bono	-12.0646
▁drama	-12.0646
▁magician	-12.0646
▁redesign	-12.0647
▁alltag	-12.0647
assembl	-12.0647
▁millennium	-12.0648
▁ausgedrückt	-12.0648
▁zusammenfassen	-12.0648
▁agreement	-12.0648
▁adaptation	-12.0649
▁upload	-12.065
▁versehen	-12.065
▁retirement	-12.065
▁geprägt	-12.0652
▁hektar	-12.0652
▁slogan	-12.0652
▁regenwald	-12.0652
▁attractive	-12.0653
▁sprang	-12.0653
▁hitler	-12.0653
▁huh	-12.0654
ky	-12.0654
arian	-12.0655
▁leidet	-12.0656
▁mood	-12.0657
▁sensible	-12.0657
▁genetically	-12.0657
▁ueber	-12.0658
▁rollstuhl	-12.0658
▁walker	-12.066
▁mold	-12.066
▁historisch	-12.0661
▁rannte	-12.0661
▁vortrags	-12.0661
▁verhindert	-12.0661
▁schwamm	-12.0661
▁leaf	-12.0661
▁ending	-12.0663
verletzungen	-12.0664
▁summarize	-12.0666
▁atomic	-12.0667
▁drahtlose	-12.0668
▁stärkste	-12.0669
▁browser	-12.067
▁merkt	-12.067
▁flüsse	-12.0671
▁sturm	-12.0675
sucht	-12.0675
▁trocken	-12.0677
▁quantit	-12.0678
▁ironisch	-12.0678
▁agieren	-12.0678
▁gebunden	-12.0679
▁mitgebracht	-12.068
▁geb	-12.0681
▁zuzuhören	-12.0681
▁tropfen	-12.0683
cellular	-12.0687
▁bohr	-12.0687
▁ufer	-12.0687
▁trauer	-12.069
▁whistle	-12.0691
▁eva	-12.0693
vis	-12.0694
▁cens	-12.0697
▁ankam	-12.0707
last	-12.0708
▁optical	-12.0709
▁hersteller	-12.0709
▁pur	-12.071
führung	-12.0712
▁trainiert	-12.072
▁felsen	-12.0723
▁camps	-12.0725
gged	-12.0727
▁herausstellt	-12.0727
tiefst	-12.0727
▁thus	-12.0728
step	-12.0729
▁texte	-12.073
▁universelle	-12.0737
ang	-12.0738
▁geschlagen	-12.074
▁gewinner	-12.0743
▁58	-12.075
▁compute	-12.0755
▁included	-12.0755
▁shy	-12.0757
▁merkte	-12.0758
rechnung	-12.0758
ically	-12.0761
▁ti	-12.0763
ica	-12.0765
▁effektiver	-12.0766
▁proven	-12.0767
▁akzeptiert	-12.0767
wendet	-12.0768
▁produktions	-12.0773
geräte	-12.0774
▁romantische	-12.0777
▁fundament	-12.078
▁demo	-12.0785
▁crows	-12.0792
▁freue	-12.0792
verkehr	-12.0792
▁transportiert	-12.0794
selves	-12.0795
▁imager	-12.0797
▁asian	-12.0799
▁hills	-12.0799
▁gegenwärtige	-12.0802
▁erledige	-12.0804
omi	-12.0806
▁durchlauf	-12.081
▁ze	-12.0814
verteilung	-12.0815
▁bergen	-12.0816
▁niedriger	-12.0817
▁drivers	-12.082
▁verkehrs	-12.0821
▁impuls	-12.0823
▁juan	-12.0824
▁möbel	-12.0826
▁ökosysteme	-12.0827
▁kredit	-12.0827
▁wilde	-12.0828
▁brennstoffe	-12.0834
▁runde	-12.0834
förmige	-12.0834
▁pra	-12.0836
▁symbole	-12.0837
▁meile	-12.0837
▁junk	-12.0838
▁flaschen	-12.0843
▁schneiden	-12.0843
5,000	-12.0843
▁rande	-12.0843
▁probiert	-12.0844
▁44	-12.0844
▁geringer	-12.0845
▁starv	-12.0847
▁heirat	-12.0848
▁distinguish	-12.0849
▁worrying	-12.0849
▁brücken	-12.0849
▁journalism	-12.0852
information	-12.0853
▁hal	-12.0856
▁gründer	-12.0859
▁affordabl	-12.0864
▁rauchen	-12.0867
▁schwanger	-12.0867
▁automat	-12.0868
▁teurer	-12.0873
▁sony	-12.0875
▁nuts	-12.0876
▁grandchild	-12.0876
▁pirate	-12.0877
istische	-12.0879
▁bust	-12.0883
▁scot	-12.089
▁spart	-12.0891
▁aristotel	-12.0892
rotten	-12.0894
än	-12.0894
▁gegner	-12.0895
sammeln	-12.0898
▁nu	-12.0902
▁odor	-12.0902
▁jahrelang	-12.0902
▁alternativen	-12.0903
▁nepal	-12.0903
▁leise	-12.0906
▁victor	-12.0907
▁integrit	-12.0908
▁lithium	-12.0908
▁beethoven	-12.0908
▁captcha	-12.0908
▁commodity	-12.0908
▁episode	-12.0908
▁katrina	-12.0908
▁nairobi	-12.0908
▁structural	-12.0908
▁tempest	-12.0908
▁turtle	-12.0908
▁odysse	-12.0908
▁collision	-12.0908
▁leban	-12.0908
▁starbucks	-12.0908
▁mutual	-12.0908
▁barack	-12.0908
▁meeresspiegel	-12.0908
▁stattfand	-12.0908
▁daneben	-12.0908
▁luxus	-12.0908
▁workshop	-12.0909
▁shout	-12.0909
▁rosa	-12.0909
▁harness	-12.0909
▁bräuchte	-12.091
frequenz	-12.091
▁psyche	-12.091
▁max	-12.091
▁yale	-12.091
▁visualization	-12.091
▁backyard	-12.0911
▁gerecht	-12.0911
▁freizeit	-12.0912
▁interrupt	-12.0912
herangehensweise	-12.0912
▁käse	-12.0913
▁selbstmord	-12.0913
▁gorilla	-12.0913
▁smiling	-12.0913
▁hof	-12.0914
▁iceland	-12.0914
▁schalt	-12.0915
▁vice	-12.0915
▁grandparents	-12.0916
▁erschafft	-12.0916
▁interconnected	-12.0917
▁benutzer	-12.0917
▁frühstück	-12.0923
▁abschnitt	-12.0923
▁lobby	-12.0923
▁venter	-12.0925
▁leih	-12.0925
▁hotels	-12.0925
▁arrow	-12.0926
▁1982	-12.0927
▁investigation	-12.0929
▁kandidaten	-12.0929
▁elend	-12.0935
▁overhead	-12.0937
▁jäger	-12.0937
ehlen	-12.0938
▁luth	-12.0938
▁200,000	-12.0939
▁erwachsen	-12.0947
▁bali	-12.0947
0-	-12.0949
▁mitleid	-12.0951
▁stufen	-12.0952
▁volcano	-12.0953
▁häufiger	-12.0954
▁stirn	-12.0956
person	-12.0957
200	-12.0958
▁visualize	-12.0959
leute	-12.0961
▁chad	-12.0968
▁hässlich	-12.0969
▁julie	-12.097
▁hindu	-12.0971
▁schloss	-12.0971
▁primari	-12.0973
▁verteidigung	-12.0974
▁plätze	-12.0975
▁ausgezeichnet	-12.0977
▁lauter	-12.0978
räume	-12.0984
▁läd	-12.0984
▁aufgestellt	-12.0986
▁yards	-12.0992
▁navigate	-12.0994
rand	-12.0998
▁bedeutsam	-12.0998
anda	-12.1001
▁acre	-12.1001
▁krebszelle	-12.1001
▁anlage	-12.1001
▁dominat	-12.1003
▁polici	-12.1004
▁18.	-12.1008
▁offensichtliche	-12.1009
▁fault	-12.101
▁bausteine	-12.1011
▁unbe	-12.1012
ged	-12.1014
▁kauf	-12.1015
▁doodle	-12.1033
▁nin	-12.1034
äre	-12.1034
▁folgender	-12.1036
▁embrac	-12.1037
▁1.2	-12.1038
▁großzügig	-12.1038
▁besitze	-12.1038
▁töne	-12.1043
▁donation	-12.1045
▁wipe	-12.1046
teile	-12.1048
▁mill	-12.105
▁activate	-12.1051
gelassen	-12.1054
tz	-12.1054
fährt	-12.106
▁überwach	-12.1061
pflanzt	-12.1062
▁circuits	-12.1062
region	-12.1062
mechanism	-12.1063
▁meint	-12.1064
▁relations	-12.1069
ett	-12.1071
▁roy	-12.1077
▁entscheide	-12.1079
▁lobe	-12.1082
rus	-12.1085
▁indigen	-12.1085
▁existierte	-12.1087
fälle	-12.1088
▁veteran	-12.1094
▁heiligen	-12.1097
▁speichern	-12.11
▁schätze	-12.1101
lit	-12.1112
▁associat	-12.1112
enz	-12.1114
▁systematisch	-12.1114
▁religiös	-12.1114
sprochen	-12.1115
▁identisch	-12.1115
▁potentielle	-12.1115
▁luc	-12.1116
▁pilze	-12.1117
▁sammelt	-12.1119
▁commit	-12.112
reicht	-12.112
▁demokrat	-12.1125
▁grob	-12.1129
▁fortgeschritten	-12.1129
cc	-12.1134
ag	-12.1138
▁strands	-12.1141
cca	-12.1142
▁nigerian	-12.1143
glasses	-12.1147
▁skeptic	-12.1154
▁hub	-12.1155
▁loszu	-12.1155
▁buddhist	-12.1158
▁stamp	-12.116
▁biomass	-12.1166
kom	-12.1168
▁muslime	-12.1168
▁accelerate	-12.1169
▁replac	-12.1169
▁schweizer	-12.117
▁transit	-12.117
▁founder	-12.117
▁vorbild	-12.1171
designer	-12.1173
▁stan	-12.1174
▁exam	-12.1175
lihood	-12.1176
▁republik	-12.1177
▁unsicher	-12.1178
▁tennis	-12.1178
verschwendung	-12.1178
▁artifact	-12.1178
▁atrazin	-12.1178
▁bzw	-12.1178
▁calculus	-12.1178
▁ceremon	-12.1178
▁christoph	-12.1178
▁cylinder	-12.1178
▁encyclopedia	-12.1178
▁eventuell	-12.1178
▁früchte	-12.1178
▁galileo	-12.1178
▁genocide	-12.1178
▁pepsi	-12.1178
▁reagan	-12.1178
▁rehabilitation	-12.1178
▁storytelling	-12.1178
▁heritage	-12.1178
▁kyoto	-12.1178
▁schwefel	-12.1178
▁strict	-12.1178
▁diagnostic	-12.1178
▁myceli	-12.1178
▁cooperative	-12.1178
▁identifiziert	-12.1178
▁rethink	-12.1179
▁canvas	-12.1179
▁klänge	-12.1179
▁ministr	-12.1179
▁zusammenbruch	-12.118
füllung	-12.118
pricing	-12.118
▁nail	-12.1181
▁lifespan	-12.1181
▁parachute	-12.1182
▁aufgezeichnet	-12.1183
▁fitness	-12.1184
▁nebeneinander	-12.1185
▁zuhörer	-12.1185
▁sri	-12.1185
▁surger	-12.1186
▁angewandt	-12.1186
▁confirm	-12.1186
▁helpful	-12.1187
▁wale	-12.1187
▁herbst	-12.1188
▁uralte	-12.1189
▁markieren	-12.1189
▁panzer	-12.1189
▁verläuf	-12.1194
▁einladung	-12.1198
▁knife	-12.1199
▁30,000	-12.12
▁indoor	-12.1203
▁astronomer	-12.1204
▁weizen	-12.1204
▁betrug	-12.1207
▁spannende	-12.1208
▁beleuchtung	-12.1208
▁virtue	-12.1209
▁reaktor	-12.121
▁rivers	-12.121
▁straf	-12.121
▁gesucht	-12.1211
▁hervorruf	-12.1212
▁kamel	-12.1217
▁prince	-12.1218
▁texture	-12.122
▁emil	-12.122
▁zutaten	-12.1223
▁climber	-12.1224
▁deposit	-12.1227
▁mrt	-12.123
▁grösser	-12.1234
▁interpretiere	-12.1234
▁badly	-12.1235
▁fundamentale	-12.1235
▁teppich	-12.1237
▁führungs	-12.1245
▁kanal	-12.1247
▁geringste	-12.125
▁übertragung	-12.1252
▁techno	-12.1259
nfolge	-12.1259
▁acknowledge	-12.126
▁previously	-12.1263
risd	-12.1264
▁dome	-12.1272
▁generell	-12.1277
▁preserv	-12.1281
▁rings	-12.1284
▁dating	-12.1285
▁rente	-12.1286
▁linsen	-12.1288
▁destiny	-12.129
▁ankommen	-12.1294
▁museums	-12.1296
manda	-12.1297
schluss	-12.1298
▁banken	-12.1299
▁banking	-12.13
▁kolonien	-12.13
▁mechanische	-12.1307
▁rettung	-12.1309
▁parteien	-12.1309
eit	-12.131
▁netzwerken	-12.1311
▁berufs	-12.1311
▁assum	-12.1311
forscher	-12.1312
wick	-12.132
▁netze	-12.1321
moor	-12.1324
merkt	-12.1324
▁hinterher	-12.1325
▁skulpturen	-12.1326
sharing	-12.1327
zität	-12.1327
▁110	-12.1328
geld	-12.1329
▁energien	-12.133
▁riechen	-12.133
▁barbar	-12.1331
▁optimal	-12.1333
unter	-12.1333
▁häufigste	-12.1335
▁spontan	-12.1335
▁mau	-12.1335
▁verein	-12.134
▁oberste	-12.134
▁hervorragend	-12.134
▁gelegt	-12.1341
kräfte	-12.1341
▁membrane	-12.1341
künstler	-12.1342
flow	-12.1343
speed	-12.1345
roboter	-12.1347
▁mühe	-12.135
▁effizienter	-12.135
▁automobil	-12.1353
▁briefe	-12.1354
▁bringe	-12.1359
known	-12.1359
▁distribut	-12.1359
▁consist	-12.1363
digit	-12.1372
▁isoliert	-12.1374
ju	-12.1376
tro	-12.1376
▁dynamisch	-12.1379
▁getrieben	-12.1381
▁assemble	-12.1382
▁versteckte	-12.1382
▁pol	-12.1383
kan	-12.1384
▁tötete	-12.1394
ntact	-12.1397
barkeit	-12.1398
▁trainer	-12.1402
mon	-12.1404
ap	-12.1407
▁overwhelm	-12.1407
mitglieder	-12.1407
▁taucht	-12.1411
ini	-12.1411
▁stabilit	-12.1411
ax	-12.1415
▁bombe	-12.1418
istan	-12.1418
▁japanisch	-12.1419
schi	-12.1423
▁hervorbring	-12.1424
▁dreh	-12.1427
▁eco	-12.1428
▁aktivier	-12.1432
▁falt	-12.1433
▁conservative	-12.1436
▁psychiatr	-12.1436
▁hug	-12.1436
▁umwandel	-12.1437
▁bored	-12.1439
▁zwingen	-12.144
▁mutig	-12.1441
mond	-12.1441
▁cookie	-12.1442
▁gewöhnlichen	-12.1448
▁democrat	-12.1452
▁übel	-12.1455
▁entertain	-12.1455
▁kino	-12.1456
▁avenue	-12.1456
▁civic	-12.1456
▁divorce	-12.1456
▁fledermäuse	-12.1456
▁lebensunterhalt	-12.1456
▁montana	-12.1456
▁orleans	-12.1456
▁pentagon	-12.1456
▁prescription	-12.1456
▁unprecedented	-12.1456
▁welfare	-12.1456
▁woanders	-12.1456
▁gespeichert	-12.1456
▁striking	-12.1456
▁warrior	-12.1456
▁beängstigend	-12.1456
▁anfühlt	-12.1456
▁marrow	-12.1456
▁suppress	-12.1456
▁annoy	-12.1456
▁banana	-12.1456
▁venus	-12.1456
▁cameron	-12.1456
▁diarrhea	-12.1456
▁nebel	-12.1456
▁arbeitsplatz	-12.1456
▁antikörper	-12.1456
▁sensoren	-12.1457
▁ongoing	-12.1457
▁hadron	-12.1457
▁kopenhagen	-12.1457
▁progressive	-12.1457
▁peaceful	-12.1457
▁nervensystem	-12.1458
▁mahmo	-12.1458
▁proposal	-12.1458
▁distinction	-12.1458
▁jill	-12.1458
▁cruel	-12.1458
▁flock	-12.1459
▁1,2	-12.1459
▁hervorzu	-12.1459
▁philosophical	-12.146
▁grabb	-12.146
▁valve	-12.146
▁weekend	-12.1461
▁bemühung	-12.1461
▁bislang	-12.1462
▁lehm	-12.1462
▁lester	-12.1462
▁raster	-12.1467
▁composition	-12.1467
▁kritiker	-12.1467
▁compress	-12.1467
▁großeltern	-12.1468
▁frosch	-12.1468
▁jahreszeit	-12.1468
▁indonesia	-12.1468
rsw	-12.147
▁strain	-12.147
▁profil	-12.147
▁setze	-12.1473
▁rubber	-12.1474
▁vergewaltigt	-12.1476
▁donor	-12.1476
▁intensit	-12.1477
▁anwesenheit	-12.1477
▁vertrag	-12.1478
deckt	-12.1478
▁mytho	-12.1479
▁schulden	-12.1479
▁indiens	-12.1481
cha	-12.1485
▁freitag	-12.1485
▁abweichung	-12.1486
▁coloni	-12.1487
▁processor	-12.1487
▁hebel	-12.1488
▁bildungssystem	-12.149
▁produzent	-12.149
▁delfine	-12.1491
▁witzig	-12.1492
ach	-12.1497
▁auflösung	-12.1498
▁schlagzeilen	-12.1499
▁schütteln	-12.15
ep	-12.1502
▁pflicht	-12.1505
▁rasch	-12.1505
▁imag	-12.1505
▁dough	-12.1507
▁nagel	-12.1512
▁accumulate	-12.1517
karten	-12.1518
dienst	-12.1521
▁synchron	-12.1521
page	-12.1523
▁erhöhte	-12.1524
▁behälter	-12.1526
ryl	-12.1527
▁mp	-12.1527
sensing	-12.1528
blatt	-12.153
▁schreien	-12.1532
▁scans	-12.1532
▁erlaubte	-12.1534
▁lebensform	-12.1536
fisch	-12.1536
aka	-12.1539
▁kopiert	-12.1542
▁externe	-12.1542
ify	-12.1544
▁din	-12.1545
ari	-12.1548
aktivität	-12.1548
▁multinational	-12.1552
aly	-12.1556
▁ernten	-12.1563
▁maßnahmen	-12.1563
▁investoren	-12.1564
▁grundschul	-12.1565
▁verkauf	-12.1566
▁dressed	-12.157
mazed	-12.1572
bu	-12.1576
▁kite	-12.158
▁ac	-12.1583
▁eingestellt	-12.1583
▁dropping	-12.1584
erial	-12.1586
▁ironic	-12.1588
▁stunts	-12.1589
▁bevölkerungs	-12.159
▁schlangen	-12.1591
alt	-12.1604
ium	-12.1606
▁tätig	-12.1607
ni	-12.1608
wachsen	-12.1613
wei	-12.1614
▁tänzer	-12.1617
krebs	-12.1619
▁tan	-12.1619
▁heck	-12.162
▁polic	-12.1622
▁cha	-12.1625
ota	-12.1626
kugel	-12.1627
situation	-12.1627
operation	-12.1628
clock	-12.1629
▁volt	-12.1629
profit	-12.163
app	-12.1634
▁sinken	-12.1637
room	-12.1637
cus	-12.1638
law	-12.164
sphäre	-12.164
▁reader	-12.1644
▁inspirierend	-12.1645
▁15.	-12.1646
▁verwirrt	-12.1648
baum	-12.1649
ug	-12.165
▁transmit	-12.1654
mb	-12.1656
▁ernte	-12.1658
▁tatsächliche	-12.1658
ata	-12.1659
artig	-12.1661
hingehen	-12.1663
▁aufwuchs	-12.1663
▁blume	-12.1665
▁settle	-12.1667
spielen	-12.167
▁teller	-12.167
▁scare	-12.1671
▁empfinde	-12.1671
del	-12.1679
▁surf	-12.168
tik	-12.168
▁verblüffende	-12.1685
▁nichol	-12.1688
▁maria	-12.1689
▁uv	-12.1692
reich	-12.1695
▁untere	-12.1697
post	-12.1698
▁celebrat	-12.17
▁basieren	-12.1701
drehen	-12.1701
▁verstärkt	-12.1702
▁parasite	-12.1703
wid	-12.1703
▁beobachtete	-12.1716
▁guck	-12.1718
▁bombs	-12.1718
schaffung	-12.1719
▁schale	-12.172
bänder	-12.1721
▁angiogenes	-12.1721
▁ermutigen	-12.1721
▁überlasse	-12.1722
▁genetik	-12.173
▁schiffe	-12.1732
▁kath	-12.1734
▁yemen	-12.1734
▁schl	-12.1737
▁platten	-12.1737
infektionen	-12.1738
▁gigant	-12.174
openhagen	-12.174
▁luxur	-12.1741
bertie	-12.1741
▁slave	-12.1741
▁inflation	-12.1741
surveillance	-12.1742
▁awkward	-12.1742
▁devastating	-12.1742
▁holiday	-12.1742
▁holocaust	-12.1742
▁precious	-12.1742
▁shepherd	-12.1742
▁singapore	-12.1742
▁sydney	-12.1742
▁verdeutlich	-12.1742
▁exquisite	-12.1742
▁galapagos	-12.1742
▁premierminister	-12.1742
▁trinkwasser	-12.1742
▁ubiquitous	-12.1742
▁descend	-12.1742
▁zimbabwe	-12.1742
▁grape	-12.1742
▁erdgas	-12.1742
▁beseitigen	-12.1742
▁nordpol	-12.1742
eanor	-12.1742
▁scheme	-12.1742
▁recession	-12.1742
▁girlfriend	-12.1742
kortex	-12.1742
▁destination	-12.1742
▁potent	-12.1742
▁contest	-12.1742
▁libert	-12.1743
▁antenna	-12.1743
▁wiederaufbau	-12.1743
▁darpa	-12.1743
▁scrap	-12.1744
▁purple	-12.1744
▁candle	-12.1744
nerzähler	-12.1744
▁ansah	-12.1745
▁mammographie	-12.1746
▁correlation	-12.1746
▁strategic	-12.1746
▁dial	-12.1747
▁algebra	-12.1747
▁sklaverei	-12.1747
rid	-12.1747
▁controversial	-12.1747
▁übernommen	-12.1748
▁vorlesen	-12.1749
▁konkurrenz	-12.175
▁interaktiv	-12.175
▁verletzen	-12.175
phase	-12.1752
▁reproduce	-12.1753
▁intent	-12.1754
▁puppet	-12.1755
▁40,000	-12.1755
burg	-12.1758
▁deepest	-12.1758
▁angiogenese	-12.1762
bilder	-12.1763
▁schachtel	-12.1764
▁gezeichnet	-12.1764
▁jew	-12.1765
▁maker	-12.1765
▁ost	-12.1765
iges	-12.1766
▁decken	-12.1767
▁wiegt	-12.1767
▁spine	-12.1769
▁anschließend	-12.1771
▁zeal	-12.1771
▁mexican	-12.1772
▁frisch	-12.1773
▁ähnlichkeit	-12.1774
▁upside	-12.1777
▁chirurgie	-12.1778
▁terminal	-12.178
▁belastung	-12.178
▁charter	-12.1783
▁broader	-12.1785
▁realistic	-12.1789
▁anspruch	-12.1794
▁erwischt	-12.1797
▁soap	-12.1797
▁brush	-12.1798
▁antike	-12.18
▁hüfte	-12.1802
▁regenerative	-12.1802
▁kram	-12.1803
▁derjenige	-12.1803
▁emitt	-12.1805
▁truppen	-12.1813
streben	-12.1815
▁umfasst	-12.1815
▁gram	-12.1816
elt	-12.1817
eten	-12.182
▁dedicate	-12.182
▁custom	-12.1825
▁einerseit	-12.1825
▁nahrungs	-12.1827
▁höhlen	-12.1828
▁jeans	-12.183
equity	-12.1832
tier	-12.1834
▁fi	-12.1834
▁hübsche	-12.1834
werden	-12.184
▁op	-12.1848
▁kindness	-12.1848
chu	-12.185
▁juice	-12.185
▁trainings	-12.1853
▁wolf	-12.1854
ierende	-12.1854
erei	-12.186
technologien	-12.1861
▁vielfältig	-12.1862
▁bedeutend	-12.1862
▁warmer	-12.1866
▁whoa	-12.1868
▁genaue	-12.1875
stücke	-12.1876
▁tödliche	-12.1877
▁wärmer	-12.1878
▁expo	-12.1878
aged	-12.1882
▁grau	-12.1882
▁83	-12.1886
▁impf	-12.1887
▁freuen	-12.1888
liebe	-12.1889
▁weiterzu	-12.1889
▁200-	-12.189
▁spinnen	-12.189
▁kay	-12.1894
▁isolat	-12.1895
▁cue	-12.1895
▁grösse	-12.1896
ite	-12.1896
ersterblichkeit	-12.1898
komponenten	-12.1899
medizin	-12.1899
analyse	-12.1904
▁kurse	-12.1904
mate	-12.1913
dra	-12.1913
▁regal	-12.1915
moses	-12.1917
anlage	-12.1918
gearbeitet	-12.1922
world	-12.1922
food	-12.1923
▁französisch	-12.1923
netz	-12.1925
position	-12.1928
▁irre	-12.1936
grat	-12.1938
▁ressource	-12.1938
▁ideale	-12.1941
zyklus	-12.1941
▁bp	-12.1944
▁fels	-12.1945
▁beteilig	-12.1945
▁rating	-12.1946
▁rohstoffe	-12.1949
▁jünger	-12.1949
▁fakt	-12.1949
▁ausprobier	-12.1953
▁rakete	-12.1953
haltung	-12.1959
▁explode	-12.1961
▁hunderttausende	-12.1961
▁cop	-12.1964
▁verwalte	-12.1967
▁treu	-12.1967
▁hochzeit	-12.1973
▁schreib	-12.1973
▁cooler	-12.1975
▁enge	-12.1983
▁geburts	-12.1989
▁ferne	-12.1991
▁fußball	-12.2006
▁intel	-12.2006
▁grossartige	-12.2009
▁allererste	-12.2013
▁carve	-12.2013
▁platziere	-12.2014
▁proton	-12.2015
▁parlament	-12.2017
▁wegzu	-12.2018
▁bu	-12.2019
▁watts	-12.202
▁ban	-12.202
▁swap	-12.202
▁chronic	-12.2021
▁größen	-12.2025
take	-12.2025
losen	-12.2028
▁stachel	-12.2028
▁billige	-12.2029
▁zerbrechlich	-12.203
▁gebäudes	-12.203
▁welten	-12.2032
▁zugrunde	-12.2033
▁russ	-12.2034
▁bronze	-12.2036
▁calcium	-12.2036
▁demonstrieren	-12.2036
▁ermutigt	-12.2036
▁famine	-12.2036
▁frustriert	-12.2036
▁mozart	-12.2036
▁natalie	-12.2036
▁nollywood	-12.2036
▁tahrir	-12.2036
▁angeblich	-12.2036
▁tempel	-12.2036
▁galois	-12.2036
▁vivid	-12.2036
▁amsterdam	-12.2036
▁filmemacher	-12.2036
▁nonverbal	-12.2036
▁vorgehensweise	-12.2036
▁elevator	-12.2036
▁filling	-12.2036
▁bedroom	-12.2036
▁cellphone	-12.2036
▁loving	-12.2036
▁innenstadt	-12.2036
▁settlement	-12.2036
▁skype	-12.2036
▁relief	-12.2036
▁emphasize	-12.2037
▁chimp	-12.2037
▁separation	-12.2037
▁wähler	-12.2037
▁1918	-12.2037
▁bevorzuge	-12.2037
▁konstruieren	-12.2037
▁eigentum	-12.2038
▁movember	-12.2039
▁lotter	-12.204
▁manipuliere	-12.204
▁magni	-12.2041
liefert	-12.2041
▁begegnung	-12.2041
▁calculator	-12.2041
▁gaga	-12.2041
▁atlantik	-12.2042
▁workplace	-12.2042
▁mud	-12.2042
▁operator	-12.2043
▁vorlesung	-12.2044
▁hühnchen	-12.2045
▁centimeter	-12.2045
▁journalisten	-12.2045
▁strassen	-12.2046
▁täte	-12.2046
▁jordan	-12.2046
▁bra	-12.2047
▁schwache	-12.2047
aac	-12.2047
▁primzahl	-12.2048
▁gadget	-12.2048
▁enterprise	-12.2049
▁mesh	-12.2049
iel	-12.2052
▁beratung	-12.2052
▁spark	-12.2053
roll	-12.2053
▁trad	-12.2054
▁30.000	-12.2054
▁visualisierung	-12.2056
▁variabilit	-12.2059
▁200.000	-12.2063
generieren	-12.2063
▁wochenende	-12.2064
▁competitive	-12.2065
▁dodo	-12.2066
▁noble	-12.2066
symmetrical	-12.2069
▁delta	-12.2069
öl	-12.2074
▁hausaufgabe	-12.2075
▁empfindlich	-12.2075
atur	-12.2076
▁1,3	-12.2076
▁treibhausgase	-12.2077
▁übersehen	-12.2077
möglichkeit	-12.208
▁kommende	-12.2081
▁pathogen	-12.2081
▁embarrassing	-12.2082
▁positions	-12.2082
▁simpler	-12.2082
▁gewohnheit	-12.2083
sam	-12.2083
▁dramatische	-12.2084
von	-12.2086
▁momentum	-12.2086
▁foods	-12.2086
▁convenient	-12.2086
▁verpflichtet	-12.2088
▁prioritäten	-12.2088
▁gemeinsamkeit	-12.209
gar	-12.209
▁gestiegen	-12.209
▁manufacturer	-12.2091
▁aquari	-12.2092
▁elf	-12.2092
▁50-	-12.2092
▁triple	-12.2093
▁rauschen	-12.2093
läuf	-12.2094
träger	-12.2094
führer	-12.2095
▁cyr	-12.2098
isse	-12.21
▁gesch	-12.2101
▁immun	-12.2103
▁resilien	-12.2105
▁respektiere	-12.2105
▁digg	-12.2106
▁copp	-12.2107
▁verhandlung	-12.2115
▁sammelte	-12.2116
staat	-12.2118
▁gesteuert	-12.2119
▁10.	-12.212
uck	-12.2123
▁blitz	-12.2129
spiegel	-12.213
▁sequenc	-12.2133
lehrer	-12.2134
▁balls	-12.2135
▁unmögliche	-12.2136
mäßig	-12.2136
▁jüdische	-12.2137
▁gefährdet	-12.2146
▁kulturell	-12.215
▁shak	-12.2151
▁angestellt	-12.2152
▁dynamische	-12.2153
▁temporar	-12.2153
rselves	-12.2155
studie	-12.2156
flu	-12.2157
▁releas	-12.2157
▁retire	-12.2159
chten	-12.2161
▁kondome	-12.2165
▁cart	-12.2168
▁bugs	-12.2169
▁langfristig	-12.217
▁semi	-12.2171
füttern	-12.2171
▁merkmal	-12.2175
▁steckte	-12.2177
track	-12.2177
▁aspiration	-12.2179
len	-12.2183
front	-12.2183
teils	-12.2185
▁lunge	-12.2185
▁determin	-12.2191
▁verständlich	-12.2195
jenige	-12.2196
view	-12.2197
▁mobilit	-12.2198
▁lap	-12.2201
▁sars	-12.2203
▁russische	-12.2204
▁anziehen	-12.2207
▁worau	-12.221
▁squeeze	-12.2212
▁valid	-12.2212
▁practic	-12.2218
▁messung	-12.222
▁abschließend	-12.2221
stream	-12.2222
▁negotiate	-12.2223
▁treffe	-12.2223
gerissen	-12.2223
▁doppel	-12.2223
glaubt	-12.2225
studenten	-12.2225
second	-12.2225
saal	-12.2226
dauert	-12.2228
▁riff	-12.2233
kra	-12.2236
▁et	-12.2237
herum	-12.2238
▁linse	-12.2242
▁auslösen	-12.2245
auto	-12.2247
▁betreffen	-12.2253
▁sus	-12.2254
▁tinte	-12.2258
▁aufhört	-12.226
leiter	-12.2267
▁zusammensetz	-12.2268
lm	-12.227
▁konstruiert	-12.227
▁brave	-12.2272
▁kontroverse	-12.2274
▁vorschlagen	-12.2278
▁schlage	-12.2278
▁vieh	-12.228
▁fortsetz	-12.2281
▁skelet	-12.2283
▁fur	-12.2283
ups	-12.2284
han	-12.2284
▁screw	-12.2287
▁disgust	-12.2289
▁scheibe	-12.229
▁anonym	-12.2291
▁sterile	-12.2292
▁announce	-12.2293
▁ökologi	-12.2295
▁tune	-12.2296
▁ignor	-12.2304
▁geliebt	-12.2305
▁verwendete	-12.2305
care	-12.2305
▁steigende	-12.2311
▁abschneide	-12.2315
▁propos	-12.2322
low	-12.2323
▁happi	-12.2323
▁symphon	-12.2327
materialien	-12.2329
▁sexuell	-12.2331
▁sonntag	-12.2333
▁jährliche	-12.2333
▁wahnsinn	-12.2334
▁erdöl	-12.2335
▁realisier	-12.2336
▁ads	-12.2336
▁stigma	-12.2337
▁chemist	-12.2338
▁punish	-12.2338
awkins	-12.2339
▁ambiguit	-12.2339
▁scaffold	-12.2339
▁beurteilen	-12.2339
▁calendar	-12.2339
▁demonstriert	-12.2339
▁dächer	-12.2339
▁eames	-12.2339
▁errichtet	-12.2339
▁gesunken	-12.2339
▁historian	-12.2339
▁pianist	-12.2339
▁retreat	-12.2339
▁singapur	-12.2339
▁slope	-12.2339
▁tornado	-12.2339
▁triumph	-12.2339
▁devote	-12.2339
▁explicit	-12.2339
▁obtain	-12.2339
▁ballast	-12.2339
▁dragonfl	-12.2339
▁algae	-12.2339
▁auslöst	-12.2339
▁acumen	-12.2339
▁exposure	-12.2339
▁inherit	-12.2339
▁pubert	-12.2339
▁introduction	-12.2339
▁senator	-12.2339
▁illustration	-12.2339
▁closing	-12.2339
▁bestätigt	-12.2339
▁georgia	-12.2339
▁schweigen	-12.2339
▁lump	-12.2339
▁representative	-12.2339
▁schwangerschaft	-12.2339
▁zeitgenössische	-12.234
▁klatschen	-12.234
▁persuade	-12.234
▁supercomputer	-12.234
▁minority	-12.234
▁oop	-12.234
▁trunk	-12.234
▁robotik	-12.234
▁jenni	-12.234
▁koffer	-12.2341
▁bbc	-12.2341
▁friendship	-12.2341
▁tendieren	-12.2341
▁wahrgenommen	-12.2342
▁coverage	-12.2343
▁stake	-12.2343
▁gefroren	-12.2343
▁beunruhigt	-12.2343
▁bemühen	-12.2343
▁blade	-12.2343
▁quark	-12.2344
▁zeitspanne	-12.2345
dah	-12.2346
▁upward	-12.2346
▁harmonie	-12.2346
▁genomic	-12.2346
wir	-12.2347
▁farming	-12.2349
star	-12.2351
▁künste	-12.2351
▁invasion	-12.2351
▁nanometer	-12.2352
▁biomasse	-12.2354
▁polymer	-12.2355
▁lh	-12.2357
▁reactor	-12.2357
▁aussicht	-12.2357
▁nachmittag	-12.2357
▁schöpfung	-12.2361
▁mister	-12.2361
▁antibod	-12.2362
▁beef	-12.2363
▁log	-12.2366
▁animate	-12.2366
ärz	-12.2367
▁ali	-12.2368
▁realization	-12.2369
▁upgrade	-12.237
▁finanziell	-12.2371
▁körperlich	-12.2371
▁octop	-12.2371
▁rettet	-12.2372
▁dunkler	-12.2375
▁doppelte	-12.2378
▁5.	-12.2379
▁philosophische	-12.238
chester	-12.2381
▁günstig	-12.2382
eben	-12.2382
▁priester	-12.2383
▁hütte	-12.2385
code	-12.2386
▁hierarchie	-12.2388
▁ökonomie	-12.2389
schnitt	-12.239
▁neigung	-12.239
▁bestimmung	-12.2392
▁promis	-12.2392
▁begeister	-12.2396
▁mentale	-12.2398
▁aufruf	-12.2403
▁healing	-12.2405
▁texting	-12.2406
▁displace	-12.2408
▁bots	-12.241
▁patholog	-12.2411
▁av	-12.2412
▁behörden	-12.2412
▁notfall	-12.2413
▁standort	-12.2415
▁wählt	-12.242
▁durchfall	-12.2423
▁3-	-12.2427
▁philipp	-12.2428
▁sitzung	-12.2431
coli	-12.2431
▁developer	-12.2431
▁yeast	-12.2435
▁divergen	-12.2436
methode	-12.2436
▁kidd	-12.2438
▁fallschirm	-12.2439
▁tauchte	-12.2447
▁tanks	-12.245
▁191	-12.2451
▁cafe	-12.2452
makers	-12.2455
▁2.5	-12.2455
▁inder	-12.2457
▁enabl	-12.2459
▁schickt	-12.2461
▁erschienen	-12.2464
▁hervorragende	-12.2467
wege	-12.2472
▁consum	-12.2476
▁gänse	-12.2481
haut	-12.2484
▁feminist	-12.2485
▁fordert	-12.2488
▁vernünftige	-12.2492
masse	-12.2503
nine	-12.2504
▁wiederher	-12.2505
▁wiki	-12.2506
▁freud	-12.2508
▁wander	-12.2514
▁transportier	-12.2516
stoff	-12.2517
afrikanischen	-12.2518
▁broc	-12.2523
freund	-12.2527
▁gesünder	-12.2536
▁checklist	-12.2543
▁schieß	-12.2546
ux	-12.2547
▁gener	-12.2547
wegs	-12.255
▁betrag	-12.2557
▁impfstoffe	-12.2557
patienten	-12.2559
cht	-12.2559
▁mines	-12.256
▁por	-12.2565
▁myzel	-12.2566
▁fotograf	-12.2567
▁insekt	-12.257
▁betrachtung	-12.2576
▁interessierte	-12.258
▁richtet	-12.2584
hren	-12.2587
zufügen	-12.2588
▁gewinne	-12.259
▁201	-12.2591
▁lit	-12.2592
witz	-12.2595
▁nachweis	-12.2596
kinder	-12.2598
ehr	-12.2598
▁strasse	-12.2599
▁embarrass	-12.2602
egel	-12.2609
positive	-12.2609
▁fünfte	-12.2612
lesen	-12.2612
▁fleck	-12.2614
probleme	-12.2616
▁gehst	-12.2617
▁dependenc	-12.2617
fest	-12.2629
suchen	-12.263
▁bonobos	-12.2631
▁winds	-12.2632
▁verfügt	-12.2632
▁erheblich	-12.2633
▁überlegt	-12.2638
▁gedichte	-12.2638
▁erlern	-12.2641
▁translat	-12.2641
▁stink	-12.2642
▁schott	-12.2643
▁pigment	-12.2644
zel	-12.2644
ham	-12.2645
▁hingeg	-12.2648
▁anesthesi	-12.265
▁reconstruct	-12.265
▁einkauf	-12.265
▁satisfy	-12.2651
▁archimedes	-12.2651
▁ausgestattet	-12.2651
▁cambodia	-12.2651
▁erweiterung	-12.2651
▁goliath	-12.2651
▁kambodscha	-12.2651
▁kepler	-12.2651
▁premise	-12.2651
▁smash	-12.2651
▁squid	-12.2651
▁substantial	-12.2651
▁supreme	-12.2651
▁technician	-12.2651
▁tennessee	-12.2651
▁verstorben	-12.2651
▁wußte	-12.2651
▁contagio	-12.2651
▁cream	-12.2651
▁fetus	-12.2651
▁juvenile	-12.2651
▁koennen	-12.2651
▁kyros	-12.2651
▁criteri	-12.2651
▁tomato	-12.2651
▁secular	-12.2651
▁fifty	-12.2651
▁towel	-12.2651
▁söhne	-12.2652
▁älterwerden	-12.2652
▁cabinet	-12.2652
▁confine	-12.2652
▁flesh	-12.2652
▁arrangement	-12.2652
▁befreit	-12.2652
▁brazilian	-12.2652
▁pipa	-12.2652
▁translator	-12.2652
▁scroll	-12.2652
▁verschaffen	-12.2652
▁marshall	-12.2652
▁daumen	-12.2653
▁entkommen	-12.2653
▁panic	-12.2653
▁negotiation	-12.2653
▁manifest	-12.2653
▁recall	-12.2654
▁unlock	-12.2654
▁argumentieren	-12.2654
▁utilit	-12.2654
▁cartoonist	-12.2654
▁conductor	-12.2654
bruchteil	-12.2655
▁stefan	-12.2656
▁hinab	-12.2656
▁magnificent	-12.2657
▁baue	-12.2657
▁menschenrechte	-12.2657
▁eingriff	-12.2658
▁waschmaschine	-12.2658
▁profitable	-12.2658
▁imitation	-12.2659
▁keller	-12.2661
▁wildnis	-12.2661
▁echo	-12.2662
▁navigation	-12.2664
▁hopeless	-12.2664
▁umgesetzt	-12.2664
▁offizielle	-12.2667
▁herumzu	-12.2667
▁flickr	-12.2668
gill	-12.2668
▁toleran	-12.2669
▁überfluss	-12.267
▁vakuum	-12.267
▁seventh	-12.267
▁angefertigt	-12.2671
▁1800	-12.2672
▁einfallen	-12.2673
▁clark	-12.2675
▁verhaltensweise	-12.2677
▁auszusehen	-12.2679
▁hefe	-12.2679
▁würfel	-12.2679
▁harris	-12.268
▁ironie	-12.268
▁stört	-12.2682
▁zeichnete	-12.2685
▁elektromagnet	-12.2688
▁schwelle	-12.2688
gestoßen	-12.269
▁algen	-12.2691
▁kate	-12.2691
▁leichte	-12.2694
▁hülle	-12.2694
weitaus	-12.2694
typen	-12.2694
verbindung	-12.2699
▁anfällig	-12.2699
▁ethische	-12.27
▁ec	-12.2702
▁landscapes	-12.2705
▁überein	-12.2706
▁platziert	-12.2707
liste	-12.2708
chell	-12.271
▁überwachung	-12.271
▁reserves	-12.2712
▁leo	-12.2716
▁säulen	-12.2716
▁verschieben	-12.2719
▁batteries	-12.2721
▁überblick	-12.2722
▁naive	-12.2722
▁stare	-12.2723
▁tumore	-12.2724
▁illegale	-12.2725
▁heroin	-12.2727
zogen	-12.2728
lee	-12.2731
▁lehr	-12.2733
▁auftauchte	-12.2736
trieb	-12.2737
errichten	-12.2738
▁sometime	-12.2738
holz	-12.274
▁kühl	-12.2741
▁bann	-12.2742
▁patch	-12.2746
▁macher	-12.2746
▁nucle	-12.2747
rex	-12.2748
▁stimulate	-12.2749
▁malte	-12.275
▁secretar	-12.2754
▁packen	-12.2758
▁intuitiv	-12.2762
gas	-12.2762
▁vergleichbar	-12.2769
▁sopa	-12.277
eg	-12.2773
▁quantitative	-12.2776
pack	-12.2777
ben	-12.2783
▁dauernd	-12.2785
▁socially	-12.2787
fern	-12.2788
▁nuklear	-12.2789
ino	-12.2792
▁hm	-12.2792
therapie	-12.2793
fühlen	-12.2798
▁ernste	-12.2798
▁recycl	-12.2801
witzer	-12.2804
▁angebracht	-12.281
▁stimm	-12.2812
bruch	-12.2814
▁nutze	-12.2816
chi	-12.2817
▁verwende	-12.2818
▁entit	-12.2823
▁versicher	-12.2824
▁gefängnisse	-12.2825
▁steuert	-12.2825
▁riot	-12.2827
▁lan	-12.2829
▁vertikale	-12.2831
collider	-12.2831
▁intim	-12.2831
uc	-12.2833
▁slip	-12.2836
▁erzielt	-12.2839
con	-12.2844
▁infektion	-12.2845
▁klettern	-12.2847
▁ga	-12.285
kapital	-12.2852
▁rufe	-12.2855
▁schläf	-12.2858
luft	-12.2858
schlussfolgerung	-12.2859
gezeigt	-12.286
mädchen	-12.286
▁eintreten	-12.286
landet	-12.2864
mont	-12.2865
▁bull	-12.2871
▁sterbe	-12.2872
▁plato	-12.2873
brachte	-12.2874
▁drucker	-12.2876
▁salar	-12.2877
ong	-12.2887
qualität	-12.2888
▁reiß	-12.2889
ez	-12.2893
▁span	-12.2894
▁territor	-12.2895
▁kl	-12.2895
five	-12.2898
▁angemessen	-12.2899
▁bask	-12.2902
▁wählte	-12.2902
bel	-12.2909
▁100-	-12.291
▁profits	-12.2912
▁bloße	-12.2916
▁horses	-12.2917
systems	-12.2921
▁scream	-12.2924
▁reinvent	-12.2925
▁render	-12.2925
▁microscop	-12.2928
▁spezifisch	-12.2929
▁befehl	-12.2931
▁wortes	-12.2931
▁ansprechen	-12.2934
▁philosophen	-12.2936
loh	-12.294
▁nackt	-12.2942
dan	-12.2948
▁summar	-12.2948
▁bewegende	-12.295
▁verluste	-12.2952
▁heavi	-12.2953
▁tragbare	-12.2955
air	-12.2956
▁pla	-12.2958
▁jona	-12.2959
▁gehalt	-12.2961
▁diploma	-12.2967
▁romo	-12.2967
xi	-12.297
▁krisen	-12.297
▁distract	-12.2972
▁ya	-12.2972
▁ekel	-12.2973
▁föt	-12.2973
▁moskito	-12.2974
▁bangladesch	-12.2974
▁cowboy	-12.2974
▁jersey	-12.2974
▁marshmallow	-12.2974
▁metabolism	-12.2974
▁neuroscientist	-12.2974
▁oregon	-12.2974
▁outbreak	-12.2974
▁pepper	-12.2974
▁rezession	-12.2974
▁supermassive	-12.2974
▁whisper	-12.2974
▁beruht	-12.2974
▁steward	-12.2974
▁wrist	-12.2974
▁funeral	-12.2974
▁hafen	-12.2974
▁maneuver	-12.2974
▁microphone	-12.2974
▁swallow	-12.2974
▁ikea	-12.2974
▁intimacy	-12.2974
▁committee	-12.2974
▁thumb	-12.2974
▁tedglobal	-12.2974
▁stickstoff	-12.2974
▁contradiction	-12.2974
▁blob	-12.2974
▁selective	-12.2974
▁punishment	-12.2975
▁carrot	-12.2975
▁persist	-12.2975
▁lanka	-12.2975
▁civilian	-12.2975
▁somalia	-12.2976
▁graffiti	-12.2976
▁nikola	-12.2977
khmer	-12.2977
▁vary	-12.2977
▁dentist	-12.2977
▁jungfrau	-12.2977
▁strafe	-12.2979
▁acoustic	-12.298
▁benenn	-12.298
▁fond	-12.2981
▁ausgelöst	-12.2983
▁bearbeitet	-12.2984
▁verpackung	-12.2984
bezogen	-12.2984
▁wor	-12.2987
▁tastatur	-12.2987
▁declare	-12.2989
geschlagen	-12.2989
▁bündel	-12.2991
▁gitter	-12.2992
▁yell	-12.2994
▁bonobo	-12.2995
▁chr	-12.2997
▁bereitet	-12.2998
▁composer	-12.2998
▁jeweilige	-12.2999
▁urlaub	-12.2999
▁zusehen	-12.2999
▁ideologie	-12.2999
▁brook	-12.3
▁fördert	-12.3
▁unbekannt	-12.3
▁flipp	-12.3001
▁angeschlossen	-12.3002
▁bestandteil	-12.3002
▁jagd	-12.3003
▁trennung	-12.3004
▁1,500	-12.3008
▁pleasant	-12.301
▁seas	-12.3011
▁verringert	-12.3011
▁stereotype	-12.3013
▁umfang	-12.3017
▁notation	-12.3017
▁dutzende	-12.3018
met	-12.3021
▁guinea	-12.3022
▁hoffnungslos	-12.3023
▁belt	-12.3024
▁nieren	-12.3025
▁mobilisier	-12.3026
▁opens	-12.3027
▁bezirk	-12.3029
bai	-12.303
▁eradicat	-12.3036
▁längere	-12.3038
altech	-12.3044
ington	-12.3045
▁fred	-12.3047
▁exhaust	-12.3048
▁rabbit	-12.3049
▁versetze	-12.3049
▁serviert	-12.3051
vergrößern	-12.3053
▁transplantation	-12.3056
▁symbolic	-12.3056
▁belegt	-12.3057
sitzen	-12.3058
▁pik	-12.3063
▁loswerde	-12.3064
▁welle	-12.3066
▁fr	-12.3068
▁1.3	-12.3068
▁8.	-12.3071
fahrer	-12.3072
▁besucher	-12.3073
▁verpasst	-12.3076
je	-12.3078
▁zuständig	-12.3083
▁geniale	-12.3083
▁fires	-12.3087
▁tanzt	-12.3089
▁seiden	-12.3089
▁schönste	-12.3091
▁tale	-12.3092
▁container	-12.3093
▁blinden	-12.3094
▁motiviert	-12.3099
▁persönlicher	-12.3099
kü	-12.31
▁conceptual	-12.3102
▁dauerhaft	-12.3109
▁investigate	-12.3111
▁glor	-12.3115
shape	-12.3117
gan	-12.3121
▁heel	-12.3124
▁tauschen	-12.3125
play	-12.3126
▁blockiert	-12.3128
▁kürzer	-12.3129
schreibt	-12.3132
▁erwerb	-12.3133
▁hostil	-12.3136
lette	-12.3137
▁kent	-12.3137
pound	-12.3138
▁versions	-12.3142
▁nonsens	-12.3143
▁geste	-12.3146
▁flüssige	-12.3147
▁fokussiert	-12.3149
▁gb	-12.3149
becken	-12.3151
▁erik	-12.3152
▁lebendige	-12.3154
▁advanc	-12.3154
▁swing	-12.3156
verarbeitung	-12.3157
fan	-12.3159
netra	-12.316
▁merkwürdige	-12.3164
▁drückt	-12.3166
▁mechanisch	-12.3168
▁dokumente	-12.3168
▁zusammenbring	-12.317
▁herd	-12.3171
▁behauptet	-12.3172
▁absichtlich	-12.3173
slosigkeit	-12.3178
▁ausland	-12.3178
▁produkten	-12.3183
▁switched	-12.3186
zettel	-12.3188
▁indonesi	-12.3189
grow	-12.3192
fleisch	-12.3192
küste	-12.3193
income	-12.3193
bühne	-12.3193
social	-12.3193
haufen	-12.3193
▁customiz	-12.3194
ließ	-12.3196
right	-12.32
▁hübsch	-12.32
▁überwältigend	-12.3201
ition	-12.3202
▁bedient	-12.3208
▁ambitio	-12.3208
▁kollege	-12.3209
oline	-12.3221
▁erlebte	-12.3226
▁bestehende	-12.3234
▁breiten	-12.3238
▁integrier	-12.3245
▁ausgehend	-12.3247
ito	-12.3248
▁studierende	-12.3249
▁fatal	-12.3251
▁höhle	-12.3256
▁prim	-12.3257
▁lean	-12.326
▁ozeans	-12.3262
▁taxe	-12.3263
▁delfin	-12.3265
▁schuh	-12.3265
▁vernetzt	-12.3265
▁ratte	-12.3266
▁41	-12.3266
text	-12.3267
▁benannt	-12.3267
will	-12.3269
▁notic	-12.3276
▁modest	-12.3276
▁seeming	-12.3277
packen	-12.3278
▁motorrad	-12.3282
▁optimist	-12.3284
oc	-12.3285
▁bewerte	-12.3288
▁infinit	-12.3292
außergewöhnliche	-12.3293
▁vornehm	-12.3293
▁bitter	-12.3296
erence	-12.3296
▁bieg	-12.33
▁coordinate	-12.3304
▁convict	-12.3305
▁bestandteile	-12.3305
▁orgasm	-12.3305
▁fiktion	-12.3306
▁chemotherap	-12.3306
▁transcend	-12.3306
▁aristot	-12.3307
▁assign	-12.3307
▁drastisch	-12.3307
ausrottung	-12.3307
jazeera	-12.3307
ubunt	-12.3307
▁accompanie	-12.3307
▁affair	-12.3307
▁alfred	-12.3307
▁crocodile	-12.3307
▁enttäuscht	-12.3307
▁nevada	-12.3307
▁picasso	-12.3307
▁principal	-12.3307
▁thylacine	-12.3307
▁unleash	-12.3307
▁vinci	-12.3307
▁vocabular	-12.3307
▁ägypter	-12.3307
bombenzielgerät	-12.3307
▁catholic	-12.3307
▁deficit	-12.3307
▁fantasy	-12.3307
▁matthew	-12.3307
▁vacation	-12.3307
▁veranschaulich	-12.3307
▁verzeih	-12.3307
▁vorbereitung	-12.3307
▁friction	-12.3307
▁gando	-12.3307
▁expense	-12.3307
▁gattung	-12.3307
▁bombsight	-12.3307
▁executive	-12.3307
▁kurzweil	-12.3307
▁regenerate	-12.3307
▁mixture	-12.3307
▁nebenwirkung	-12.3307
▁pancrea	-12.3307
▁rechenschaft	-12.3307
▁begründet	-12.3307
▁pursuit	-12.3308
▁abundance	-12.3308
▁cattle	-12.3308
▁folter	-12.3308
▁swarm	-12.3308
▁congesti	-12.3308
▁alliance	-12.3308
▁zusammengefasst	-12.3308
▁gelungen	-12.3308
▁junior	-12.3308
▁delete	-12.3308
▁raumfahrt	-12.3309
▁artenvielf	-12.3309
▁konkrete	-12.3309
▁thread	-12.3309
▁invitation	-12.3309
▁gehry	-12.3309
▁langle	-12.331
▁seawater	-12.331
diac	-12.3311
▁schmi	-12.3312
▁corrupt	-12.3312
▁agrar	-12.3312
▁placebo	-12.3313
▁hippie	-12.3313
▁93	-12.3314
▁1992	-12.3314
▁comprehensi	-12.3315
▁simuliere	-12.3315
▁blindness	-12.3316
▁überholt	-12.3316
▁fertilizer	-12.3317
▁beschäftigung	-12.3317
▁canadian	-12.3317
▁kollision	-12.3317
▁fröhlich	-12.3318
▁1940	-12.3318
▁chew	-12.3318
▁ausgerichtet	-12.3318
▁artwork	-12.3318
▁leitet	-12.3318
▁unternehmens	-12.3318
▁bananen	-12.3319
▁fri	-12.3319
▁40.000	-12.332
tenance	-12.332
gebiete	-12.3321
▁agile	-12.3321
▁dirigent	-12.3321
▁sender	-12.3321
▁cage	-12.3322
▁celebrity	-12.3324
ola	-12.3324
▁behold	-12.3325
▁vorliebe	-12.3326
▁erschaffung	-12.3326
▁ansammlung	-12.3327
▁miller	-12.333
▁anwesend	-12.333
▁basket	-12.333
abad	-12.333
▁verlässt	-12.3332
▁fee	-12.3332
▁levin	-12.3332
▁langzeit	-12.3333
▁vereinbarung	-12.3334
▁cb	-12.3335
▁avatar	-12.3336
▁wil	-12.3336
inch	-12.3336
▁paradigma	-12.3336
▁befolg	-12.3336
▁abkommen	-12.3339
▁empfangen	-12.3341
▁constraint	-12.3342
sterblichkeit	-12.3343
▁fil	-12.3344
ziel	-12.3344
▁guard	-12.3347
▁machbar	-12.3348
▁sammler	-12.3348
▁berater	-12.335
▁herkommen	-12.3352
wing	-12.3352
▁vulkan	-12.3354
▁referr	-12.3363
▁heroic	-12.3363
▁schaf	-12.3364
▁experte	-12.3364
▁mustern	-12.3364
▁daf	-12.3369
▁schwierigste	-12.337
▁schaltkreise	-12.3375
▁landkarte	-12.3378
▁interaktive	-12.3379
ib	-12.3379
▁schnapp	-12.3381
▁flucht	-12.3385
▁manner	-12.3385
▁schilder	-12.3387
▁verknüpfe	-12.3387
▁approache	-12.3389
fahrt	-12.339
▁flute	-12.3392
▁anna	-12.3394
▁fertigkeit	-12.3397
▁obsession	-12.3398
freie	-12.3398
▁reifen	-12.3399
▁verbal	-12.3401
erfassung	-12.3401
▁observations	-12.3401
▁stimmung	-12.3401
▁turm	-12.3408
▁nut	-12.341
▁juden	-12.3412
▁lim	-12.3415
ita	-12.3415
▁fuse	-12.342
▁illuminat	-12.3422
▁affe	-12.3424
▁hint	-12.3425
▁untersuchte	-12.3427
▁passend	-12.3427
decke	-12.3429
▁cleaner	-12.343
▁12.	-12.3431
▁beschädigt	-12.3431
▁marks	-12.3432
▁einbringen	-12.3433
▁vorherige	-12.3434
▁transformieren	-12.3436
▁ernsthafte	-12.3437
sea	-12.3439
▁addict	-12.344
▁documentar	-12.3446
▁christen	-12.3451
▁pound	-12.3464
▁südamerika	-12.3466
▁jahrhunderte	-12.3467
hauen	-12.347
▁bildes	-12.3472
▁controller	-12.3473
swachstum	-12.3473
sinn	-12.3477
▁gegenseitige	-12.348
stechnologie	-12.3483
bewusstsein	-12.3486
▁awe	-12.3487
kamera	-12.3491
ives	-12.3494
▁betrachte	-12.3495
▁scharf	-12.3497
▁videospiel	-12.3497
▁kenn	-12.3499
gie	-12.3506
▁mobiltelefone	-12.3506
rief	-12.3506
zählt	-12.3507
weit	-12.3508
▁schliess	-12.3509
▁kilometern	-12.3512
▁rubb	-12.3513
▁effektive	-12.3515
▁experimentelle	-12.3516
grad	-12.3519
▁integrierte	-12.3522
musik	-12.3522
▁bind	-12.3522
risiko	-12.3525
▁hormon	-12.3526
▁mitteln	-12.3526
gelöscht	-12.3532
autor	-12.3533
händler	-12.3535
▁bezieh	-12.3537
▁befasse	-12.3539
held	-12.3539
show	-12.3539
▁northwest	-12.354
▁wertschätz	-12.3542
geleitet	-12.3542
▁verschreib	-12.3543
gehoben	-12.3545
mutter	-12.3546
served	-12.3547
▁ultraviolet	-12.3547
▁reasonabl	-12.3552
▁flagge	-12.3552
▁elementar	-12.3555
rose	-12.3556
▁vorhersage	-12.3564
institut	-12.3565
▁kn	-12.3565
▁telefone	-12.3565
▁notiz	-12.3568
▁optic	-12.3569
▁durchgehen	-12.3572
▁innovate	-12.3572
▁gesetzen	-12.3573
▁pac	-12.3574
estate	-12.3579
skosten	-12.3582
▁besorg	-12.3589
▁spott	-12.359
▁versa	-12.3591
▁betracht	-12.3592
▁wachte	-12.3597
▁bloom	-12.36
▁klassen	-12.3603
▁hemd	-12.3603
▁asphalt	-12.3604
▁significan	-12.3605
▁kunde	-12.3608
▁ug	-12.3609
▁examine	-12.3612
▁verpasse	-12.3614
▁beherrschen	-12.3614
▁missbrauch	-12.3619
▁longe	-12.3619
▁ermöglichte	-12.3623
▁aggregate	-12.3628
▁miser	-12.3631
▁überlebende	-12.3636
▁geograph	-12.3638
▁mul	-12.3638
ür	-12.3639
▁diagnosi	-12.3639
▁termin	-12.3641
▁qatar	-12.3642
▁vene	-12.3642
▁mak	-12.3643
▁spezial	-12.3644
▁peinlich	-12.3644
ästhetik	-12.3646
▁passe	-12.3649
zykl	-12.365
▁controvers	-12.3652
gefügt	-12.3652
▁allmählich	-12.3652
▁cochrane	-12.3652
▁convincing	-12.3652
▁cybercriminal	-12.3652
▁geschwister	-12.3652
▁gespannt	-12.3652
▁manuscript	-12.3652
▁neuseeland	-12.3652
▁obsolet	-12.3652
▁peanut	-12.3652
▁peculiar	-12.3652
▁reflektieren	-12.3652
▁tansania	-12.3652
▁verdächtig	-12.3652
▁depict	-12.3652
▁pigeon	-12.3652
▁zitiere	-12.3652
▁oprah	-12.3652
▁accent	-12.3652
▁constitution	-12.3652
▁annähernd	-12.3652
▁bathroom	-12.3652
▁trank	-12.3652
▁minderheit	-12.3652
▁firing	-12.3652
▁opposition	-12.3652
▁aimee	-12.3652
▁dominiert	-12.3652
▁entschlüssel	-12.3652
▁bestätigen	-12.3652
▁photoshop	-12.3652
▁intensität	-12.3652
▁spass	-12.3652
▁ausbreiten	-12.3652
▁verschmelz	-12.3652
▁australian	-12.3653
▁offiziell	-12.3653
▁lebensstil	-12.3653
▁fbi	-12.3653
▁intersection	-12.3654
▁oven	-12.3654
▁celebration	-12.3654
▁lever	-12.3654
▁toxin	-12.3654
▁decent	-12.3655
▁ddt	-12.3655
▁bergsteiger	-12.3656
▁dürfte	-12.3656
▁fuck	-12.3656
▁governor	-12.3657
▁kartoffel	-12.3658
▁karo	-12.3658
▁aero	-12.3659
▁entry	-12.3659
▁sweep	-12.366
gh	-12.3661
▁robin	-12.3661
▁province	-12.3662
▁erwecken	-12.3662
▁upright	-12.3662
▁chemotherapie	-12.3663
▁rear	-12.3664
▁crank	-12.3664
lehnen	-12.3665
lam	-12.3665
▁5000	-12.3666
▁ozon	-12.3669
▁vertreten	-12.3669
▁zeichnet	-12.3669
▁dominate	-12.3673
▁wins	-12.3673
▁depressiv	-12.3676
▁afghanische	-12.3677
▁manufacture	-12.3677
▁dragg	-12.3678
▁cope	-12.3678
▁screening	-12.368
▁carter	-12.3681
▁trappe	-12.3681
▁forschen	-12.3681
eye	-12.3683
▁bewerkstelligen	-12.3684
▁chirurgische	-12.3685
▁quo	-12.3689
▁unangenehm	-12.369
▁bunker	-12.3692
▁tasmanian	-12.3692
▁spezialisten	-12.3698
▁mammal	-12.3699
▁heirate	-12.37
▁szenario	-12.3701
▁endete	-12.3702
▁trauma	-12.3702
▁rendering	-12.3705
mile	-12.3706
▁unerwartet	-12.3709
▁cochlear	-12.3709
▁mücken	-12.3712
▁equi	-12.3712
▁verstärken	-12.3713
▁eurer	-12.3713
▁platte	-12.3715
▁alltags	-12.3716
▁pfeifen	-12.3717
▁tofu	-12.3718
▁kontroll	-12.372
▁dreieck	-12.372
▁suppe	-12.372
▁blown	-12.3721
▁landing	-12.3723
hang	-12.3725
▁starr	-12.3726
▁candy	-12.3726
▁perspektiven	-12.3727
▁patientin	-12.3727
▁align	-12.3729
▁bounce	-12.373
▁blast	-12.3731
▁survived	-12.3732
▁unheimlich	-12.3737
getan	-12.3738
▁sack	-12.3738
▁del	-12.3738
▁einladen	-12.3745
▁fotografen	-12.3745
▁performer	-12.3747
reisen	-12.375
▁declin	-12.3758
▁verlangsamt	-12.3758
▁les	-12.3759
▁spritze	-12.3762
▁fog	-12.3763
frei	-12.3765
▁kämpft	-12.3765
▁dienste	-12.3766
zuhören	-12.3767
▁chin	-12.3769
▁pregnanc	-12.3769
▁nois	-12.377
▁verschwendet	-12.377
losigkeit	-12.3773
size	-12.3774
▁angezogen	-12.3777
▁schmeckt	-12.3782
▁konstant	-12.3783
▁schedule	-12.3783
▁dokument	-12.3788
grenze	-12.3795
▁pest	-12.3799
▁lücken	-12.3802
▁trieb	-12.3804
▁erfolge	-12.3809
▁schw	-12.3809
kommentare	-12.3811
▁magnetische	-12.3812
▁gesten	-12.3814
▁minen	-12.3815
springen	-12.3827
▁pfad	-12.383
▁verschiedenste	-12.3832
▁dys	-12.3837
▁masters	-12.3838
▁paste	-12.3838
▁komplexes	-12.3839
▁digit	-12.3841
▁shower	-12.3843
▁stimmte	-12.3843
▁individuell	-12.3846
▁textile	-12.3847
▁humanitarian	-12.3847
▁abbild	-12.3848
▁feeds	-12.3852
ama	-12.3853
krankheit	-12.3854
par	-12.3856
▁mono	-12.3861
▁informiert	-12.3862
▁faul	-12.3872
▁sanit	-12.3876
▁lateinamerika	-12.3879
▁hilfs	-12.388
▁bc	-12.3881
ank	-12.3883
▁gerichtet	-12.3884
▁pf	-12.3885
▁puls	-12.3886
firmen	-12.3891
▁graduat	-12.3894
service	-12.3894
▁anticipat	-12.3896
unfall	-12.3896
tests	-12.3898
▁voranzu	-12.3899
cell	-12.3908
▁befestigt	-12.391
▁belohn	-12.3912
▁kehrte	-12.3915
▁entsprechen	-12.392
▁trockene	-12.3921
▁roller	-12.3921
▁kürze	-12.3922
engineering	-12.3923
▁mutant	-12.3925
▁beschrieb	-12.3927
osphere	-12.3929
▁wilder	-12.3935
ague	-12.3936
▁butter	-12.3936
▁ansteckend	-12.3938
▁herkömmliche	-12.3939
▁rem	-12.3941
▁caf	-12.3945
▁owe	-12.3949
▁schließe	-12.3949
bc	-12.3952
▁lehrte	-12.3955
lösen	-12.3956
fund	-12.3957
▁patents	-12.3958
▁rebel	-12.396
▁feste	-12.3961
▁binden	-12.3962
▁kälte	-12.3963
▁raumschiff	-12.3966
anweisungen	-12.3966
moment	-12.3966
▁brennen	-12.3971
▁weiterentwickel	-12.3971
▁brille	-12.3971
▁woods	-12.3972
▁scheiße	-12.3972
wandeln	-12.3978
▁kilogram	-12.3983
▁legitim	-12.3985
▁humble	-12.3986
brett	-12.3986
▁ähnelt	-12.3986
▁puff	-12.3989
▁zwecke	-12.399
▁greg	-12.3991
▁flick	-12.3992
▁schweiz	-12.3992
▁thunfisch	-12.3993
motive	-12.3994
▁attraktiv	-12.3994
▁abspiele	-12.3997
▁spanisch	-12.3998
ome	-12.3999
pp	-12.4
▁monument	-12.4001
ji	-12.4001
▁zivil	-12.4001
▁crap	-12.4004
▁mammograph	-12.4004
unterbrochen	-12.4006
istine	-12.4008
▁accura	-12.4008
schüchter	-12.4008
rinde	-12.4008
▁feuerwehr	-12.4008
▁synesthe	-12.4009
fühlungsvermögen	-12.4009
▁adolescent	-12.4009
▁configuration	-12.4009
▁consensu	-12.4009
▁creep	-12.4009
▁eduardo	-12.4009
▁errungenschaft	-12.4009
▁hudson	-12.4009
▁metropolitan	-12.4009
▁mississippi	-12.4009
▁neglect	-12.4009
▁prinz	-12.4009
▁roosevelt	-12.4009
▁saturday	-12.4009
▁unzählige	-12.4009
▁völkermord	-12.4009
▁galvao	-12.4009
▁nightmare	-12.4009
▁wohlergehen	-12.4009
▁anderthalb	-12.4009
▁grocer	-12.4009
▁spouse	-12.4009
▁hiroshima	-12.4009
▁weibo	-12.4009
▁garantiert	-12.4009
▁maslow	-12.4009
▁probanden	-12.4009
▁ostküste	-12.4009
▁nitrogen	-12.4009
▁vorsitzende	-12.4009
▁weitgehend	-12.4009
▁pollutant	-12.4009
▁schwul	-12.4009
▁regulierung	-12.4009
▁northeast	-12.4009
▁hubble	-12.401
▁lippen	-12.401
▁infectious	-12.401
▁tribal	-12.401
▁skydiv	-12.401
▁meerwasser	-12.401
▁gründlich	-12.401
▁vermeer	-12.401
▁monk	-12.401
▁glenn	-12.401
▁offshore	-12.401
▁zusammenfassung	-12.401
[...]
