▁LS~~18045
▁repräsentieren~~4417
▁Diabetes~~10587
▁erzählen~~86
aturday~~16962
▁embry~~16482
▁Fleisch~~5940
four~~12691
▁Mig~~11167
▁nannte~~12559
ruct~~16558
physik~~13715
▁bedeutende~~6839
▁Mythos~~13436
▁Nairobi~~13103
▁rebell~~12343
▁Tansania~~13257
ruck~~7490
▁klicken~~13095
▁Chin~~11100
▁suchten~~9239
▁Chip~~11152
▁Glenn~~15102
scheiden~~15848
▁Amazon~~10966
▁spiral~~16180
▁April~~10003
▁Innovationen~~2656
▁Träumen~~6289
üge~~8985
▁Anteil~~2063
▁Gandhi~~3648
▁Geoffrey~~17437
Hier~~6663
▁Acht~~8991
iquid~~14197
ütter~~2444
▁ultraviolet~~12853
▁Treffen~~2795
▁ap~~16024
▁erfüllen~~8565
▁orient~~2723
▁Zunge~~11455
haber~~8504
schung~~6571
▁Größen~~393
armherz~~12304
volutions~~15976
▁techn~~15197
ilzt~~13530
▁Symbol~~9868
▁Million~~3331
▁Kleid~~15078
▁negative~~13050
▁Verlangen~~12571
▁Affe~~11176
fect~~18149
▁vorbei~~5469
▁diesmal~~7966
▁blau~~12870
quare~~16825
▁elimin~~1965
▁radio~~16443
▁Freunde~~1343
è~~17742
▁Vorträge~~10335
▁gereist~~3807
ansion~~14081
▁intervention~~18066
A~~2896
▁illustr~~14641
▁Deep~~11733
▁entschl~~8879
▁blah~~17678
unts~~14520
▁unbekannt~~7003
▁basierend~~9761
▁Pop~~5222
▁Por~~3913
▁Pos~~15085
▁laun~~16656
otal~~16051
▁infrast~~17689
▁laut~~3597
greif~~1339
▁Var~~12229
▁Schwier~~6383
punkt~~5669
▁Pol~~2487
▁Puppen~~15558
▁kognitiven~~12159
▁wenden~~8479
▁Extra~~11403
▁Metapher~~10035
▁ähnlich~~5129
▁normalerweise~~2903
ateg~~5843
hern~~10091
▁vorher~~3675
▁verär~~15935
atem~~5304
aten~~2812
▁verhindern~~8673
here~~9703
▁Darwin~~11054
herz~~9829
▁unterst~~4038
aneben~~14868
unde~~8240
▁Pille~~15219
ater~~8401
ates~~8383
hers~~6081
herr~~7873
▁Großeltern~~3349
▁Depression~~1758
ful~~16564
aud~~12807
▁kreativ~~1506
▁filter~~17841
wasserstoff~~14778
▁Frosch~~13298
k~~311
▁Chic~~8262
▁Spiel~~1187
▁Ring~~7781
zial~~8095
▁Lange~~74
▁RS~~17066
▁der~~11
head~~17004
▁Sobule~~17281
▁hear~~17351
ailand~~3145
▁Nich~~16906
▁Nick~~7903
▁bestät~~8173
▁Vorteile~~1302
reichen~~4039
▁dabei~~2158
▁Ris~~14757
▁maß~~14158
▁Sergio~~17643
▁zehnt~~16009
▁Baum~~10130
ction~~11092
▁erlauben~~5033
stern~~840
aun~~9344
▁Rake~~17301
▁institution~~16000
▁anrufen~~1808
▁Bild~~577
<s>~~2
▁Tragö~~15409
▁Hälfte~~3902
▁anfü~~12455
▁Bill~~73
isierte~~1492
▁Entwicklungsl~~8584
usive~~16034
▁unhe~~15886
ptions~~16552
musik~~3760
züglich~~2260
▁Hinsicht~~5127
▁Gehör~~13234
▁erre~~2871
▁weit~~929
▁Farben~~1645
9.~~4937
▁Schluss~~1121
holt~~4272
▁militär~~14248
▁Kanz~~16061
bringt~~9198
99~~15356
▁gewissermaßen~~4907
▁weib~~11764
▁Götter~~12661
pper~~14595
hole~~14977
hold~~18190
▁weil~~290
ammt~~16136
▁Academy~~15107
▁temper~~18107
▁Pink~~16100
▁Kompl~~14304
▁kart~~7192
▁unser~~388
berecht~~7454
▁Mem~~14259
▁Identität~~3156
ändig~~6830
▁hoffen~~4917
▁inse~~17706
▁Erwärmung~~13839
Le~~6805
▁Toilette~~7350
▁Network~~14548
wand~~2592
▁Verwendung~~8151
ängern~~5247
▁Anton~~7393
▁Schafe~~4183
digit~~10693
geber~~1896
geben~~2151
▁würden~~2938
▁lea~~18159
umin~~16963
▁Poster~~5420
▁Süd~~3808
▁yeah~~5221
hof~~2710
▁bezieht~~12224
▁isol~~13089
LA~~17032
▁Potential~~2240
hol~~1858
▁Nähe~~4827
▁ansehen~~524
how~~10048
hot~~10354
hou~~13403
hor~~11191
gebieten~~2819
▁Ox~~17065
▁Nähr~~13905
▁Sehr~~1246
▁ökolog~~8463
▁Lehrer~~2332
▁Kreis~~2294
iefer~~10839
▁Einmal~~10010
astic~~16702
▁neue~~267
▁Weihn~~12801
▁TEDMED~~10332
▁Dreh~~13512
▁erstens~~4087
eland~~14592
mechanik~~13375
▁Kelly~~13136
▁Sinnes~~5024
▁purp~~17981
▁neut~~15718
▁world~~17435
▁neur~~13160
kriegs~~5638
▁Lehren~~15973
größe~~2367
aving~~10616
▁bedro~~12981
▁Schauspieler~~4367
chern~~1499
▁gingen~~1468
▁Ebene~~2112
▁verwende~~9072
getragen~~10427
▁schien~~5143
▁elabor~~18235
abhäng~~1899
▁kannte~~8008
▁Campus~~12743
wing~~15625
▁paar~~89
▁Rass~~10177
▁protest~~11860
itative~~16759
▁want~~17268
▁Lügen~~12916
▁Elemente~~10748
▁Rollen~~12965
▁Wikip~~17625
ammern~~934
▁enormen~~5639
vard~~14140
▁wann~~1868
bling~~16791
▁Terroristen~~14552
▁besten~~1893
▁wand~~10841
▁Odys~~17177
wana~~17104
﻿~~17829
▁Haben~~3940
fir~~15091
fit~~13607
▁Vortrags~~1584
▁hunger~~16167
▁profit~~11531
izophren~~17508
▁opp~~17879
▁lernten~~11910
▁archite~~16836
▁Johnny~~7373
inal~~12940
▁Grey~~8671
▁britischen~~8699
cipl~~18403
ürger~~15015
fin~~4037
hlung~~969
fil~~10976
▁Beine~~6975
▁Being~~7487
▁only~~17260
▁John~~7580
▁angere~~9637
hängt~~13825
▁Alternativen~~14799
▁chore~~13420
▁Belohn~~13162
gesch~~5288
▁deswegen~~4302
▁Kultur~~1263
▁nahen~~8602
▁Lehre~~9355
▁nic~~16957
setzung~~2519
▁Sterben~~7893
hänge~~11885
▁bezahlt~~2370
▁stehen~~149
▁Kongo~~8623
▁Weltbank~~8227
▁Install~~13694
▁..."~~7343
▁nation~~13664
▁kontakt~~13774
▁Dop~~16469
▁eindeut~~8010
abl~~11496
▁verurs~~1427
▁verdoppeln~~13899
ifikation~~9564
▁Brook~~10987
▁durchschnitt~~139
▁br~~5184
Ç~~17869
▁Infr~~970
osit~~8739
asive~~16671
▁raus~~1832
osis~~7383
▁by~~16785
▁Infe~~6485
▁Staaten~~1821
▁be~~763
▁ernähren~~5934
▁body~~17349
▁rauf~~6562
▁Mittagessen~~1975
▁bl~~2845
▁Verrück~~4639
▁bi~~4611
▁vieles~~5879
ru~~2752
aufte~~14637
haben~~10044
▁Mahmoud~~17662
▁Konsumenten~~8171
ussten~~15308
ry~~3873
▁Okt~~441
re~~112
▁Affen~~11086
▁bedenken~~6071
ra~~926
▁Schweine~~6109
▁Dol~~6264
▁Höhepunkt~~7089
ro~~1107
rh~~14478
▁vielen~~1255
▁Dom~~15256
fahrung~~9695
▁Church~~14011
aghetti~~15765
unktion~~10443
▁Schwerkraft~~14907
erten~~9658
▁Armen~~11178
What~~15303
▁Mitte~~2884
ndern~~16497
▁Einladung~~6271
▁sicherer~~12847
▁Religionen~~1646
▁not~~9671
ate~~810
▁Verbesserungen~~2390
▁dialog~~13911
ata~~5931
ato~~11645
▁Russell~~15373
=~~16667
ath~~4871
ati~~9286
att~~3978
▁abge~~5708
ats~~4371
▁News~~10957
▁Öl~~12472
angehen~~2603
▁crowds~~16973
atz~~6358
▁Beethoven~~15317
▁Ök~~14362
▁initial~~17592
ährung~~8148
▁Many~~17976
▁treibt~~1163
▁aufgebaut~~11947
wass~~9406
titude~~17764
▁membr~~18060
▁relativ~~1285
▁Gefäng~~10112
▁paras~~17516
▁Rec~~15246
▁Manh~~14008
▁Mann~~3560
▁Hadron~~17613
force~~13220
▁fangen~~507
▁Mang~~16005
▁Mand~~14895
▁verstehe~~7921
olds~~16054
▁Fischen~~6853
▁saub~~15224
▁Sunday~~17719
▁NSA~~14528
lege~~7427
ärt~~6262
▁umfasst~~10730
fassung~~1997
xis~~11722
▁Prototypen~~9513
teen~~18181
ärm~~967
iogen~~15512
rons~~16888
orrow~~16174
▁AIDS~~13258
legt~~2119
äre~~4634
▁Frankreich~~5570
▁teil~~3812
essp~~18075
LS~~15648
▁enttäuscht~~7629
▁Verhandlungen~~12405
▁frustriert~~12541
▁Architekt~~5907
▁Hät~~12923
▁mögliche~~5396
▁peinlich~~8012
▁daran~~1448
▁nachhalt~~15315
▁Außerdem~~5734
▁Jack~~14305
▁großartigen~~9791
▁entwickelten~~8583
▁öffentlich~~9582
osition~~2506
ek~~8328
ahmen~~2996
chtest~~11452
▁frem~~948
▁leer~~10622
▁HIV~~8624
▁wütend~~7367
▁Ordnung~~3569
iar~~9805
▁großartiger~~10913
▁großartiges~~11793
este~~2562
▁Behörden~~11853
▁Fußball~~1723
▁inside~~15701
'000~~7131
▁Monat~~6996
PTCHA~~17309
esth~~16699
▁Fellow~~12162
ystemen~~2556
▁Neuseeland~~10421
ests~~9659
▁saubere~~11941
▁argument~~12205
▁misst~~5076
esty~~17097
▁detaill~~3456
▁Andererseits~~4481
▁Mind~~14920
ource~~13164
▁Mini~~10772
affe~~14401
▁wovon~~6707
They~~18271
hum~~15946
▁Fabriken~~5736
▁Erleb~~10520
▁Besonderes~~1829
▁politisch~~12432
▁Darstellung~~11307
▁akzept~~1993
▁berücksicht~~18197
nen~~7111
▁Gewicht~~2829
▁rand~~16570
▁großer~~4144
▁großes~~5962
▁Bret~~16373
▁lauf~~12957
asil~~18295
▁ließen~~11464
uper~~11011
letter~~16850
▁großen~~345
zyme~~14805
quar~~14426
summen~~6214
geschlagen~~6883
▁Säulen~~942
▁Raumes~~10811
▁Wohnzimmer~~5480
irus~~15031
▁Gründe~~1826
▁Erschein~~3118
arbeitern~~2455
tech~~7663
rays~~18018
▁designed~~16731
▁Söhne~~7453
▁prototyp~~17184
gefangen~~5086
schafter~~5606
▁His~~18380
▁qual~~11575
▁Umständen~~7183
cherch~~17766
▁indische~~8287
▁quad~~12131
▁veröffentlichen~~9123
▁wundervollen~~13597
liest~~8409
▁Beweis~~8858
▁Wird~~12711
▁Bildern~~501
▁Wollen~~10764
▁Wirk~~4799
schaften~~2772
abyrinth~~10363
isphere~~17514
▁Anrei~~17101
▁dün~~11318
▁wächst~~2210
ment~~2498
uzinationen~~13305
rict~~14959
▁Untersuchung~~1627
▁Kontext~~2216
▁Erwartungen~~8154
▁Vergangenheit~~1127
löser~~14725
▁persönliche~~3700
uliert~~1681
rich~~15970
mend~~10039
▁Rep~~16801
uktion~~7129
▁dür~~8640
▁Vide~~7639
prägt~~11889
▁Karikatur~~14255
entliche~~5935
ultural~~12636
iate~~3103
▁Stimmen~~3629
‘~~15488
▁Erscheinung~~11335
▁Album~~13528
▁Aussehen~~10907
X~~8230
▁Koran~~12354
▁illegal~~14443
▁Algen~~6789
▁Raketen~~5452
platz~~3678
ücht~~8591
▁freie~~5094
▁batter~~9416
▁Skiz~~13515
▁Einwohner~~1288
▁unc~~17700
▁gewöhnt~~5005
ever~~8817
▁Things~~17763
oke~~12943
▁micro~~17560
gewicht~~6346
Netz~~13804
▁poss~~17027
ady~~12491
Talk~~16666
▁fundamentale~~6167
▁Ausnahme~~7122
ated~~16548
▁meiner~~287
▁meines~~3026
bles~~17756
etik~~13453
cles~~17924
▁une~~15018
zahlen~~10994
▁Netzwerk~~4563
etic~~14802
orben~~9088
▁Jahrzehnt~~2480
blem~~17542
▁Ländern~~2188
▁Ehem~~3676
▁Oregon~~12443
▁meinem~~3753
▁meinen~~3116
▁spots~~17622
fangen~~10823
▁Tisch~~6935
▁gewö~~11579
▁Leute~~2146
▁Kleidung~~10416
▁unn~~8710
ringt~~662
weiter~~4401
▁solches~~14825
▁solcher~~4170
weiten~~13876
figur~~4547
▁solchen~~4184
irl~~15557
irm~~7488
irn~~1487
▁Oberfläche~~729
ira~~16885
ringe~~8360
irc~~12597
ird~~9078
ire~~2775
▁Atomb~~13836
▁übersch~~12891
▁zunächst~~2025
rollen~~3392
▁Titus~~16965
▁African~~17251
▁entwarf~~14246
▁Bananen~~13336
öse~~1453
ierender~~9724
▁ausgewählt~~1593
▁Ideal~~6184
ishment~~17485
ucht~~1113
öst~~11601
ränken~~4309
öss~~16477
▁beschuld~~14562
ë~~17396
enschw~~15843
▁Ingenieure~~9256
▁bewegt~~165
▁Klass~~3354
▁Verbesser~~9102
▁MRT~~12153
▁irgendwelche~~4552
ching~~14735
▁foss~~13463
▁dein~~1552
schuhe~~3933
▁gelähmt~~6516
▁MRI~~2980
▁internationalen~~2697
▁rate~~16399
▁vermute~~9412
esis~~16547
and~~3738
▁center~~16643
▁Balance~~11224
ements~~13006
raits~~14395
▁passierte~~5543
▁verhindert~~8676
active~~16823
ffin~~16989
▁trugen~~8966
ffic~~17245
rene~~16838
▁grossen~~5160
▁jemanden~~4808
izona~~16697
▁jemandem~~4453
▁impl~~15838
fra~~10110
äglich~~8753
▁Paz~~9936
▁irgendeinen~~6332
fre~~5348
isher~~8374
▁Block~~6408
▁Pat~~12608
schafts~~13627
▁Par~~3172
▁ausser~~6984
kasten~~10426
.~~71
lehnen~~13147
▁schrecklich~~3020
▁Hölle~~1083
▁Pak~~14494
▁irgendeiner~~12419
ann~~6045
ished~~18077
spir~~14322
life~~10160
▁Anfang~~2001
▁verbringen~~1986
▁Comedy~~14623
▁außer~~845
▁sodass~~7805
▁gleichzeitig~~2129
▁Sicherheits~~10368
athon~~12250
▁außen~~3969
herapie~~14481
ersp~~6521
onym~~9043
erst~~925
artiges~~8298
▁länd~~8276
▁kosten~~8149
▁graben~~12751
▁überleben~~4004
▁Woch~~17853
▁gemeinsamen~~6164
▁Lebenserwartung~~8730
▁irgendein~~7567
▁schmutz~~14085
▁verpf~~16637
verläss~~13345
inch~~17738
▁Verbraucher~~14175
▁begehen~~4228
usion~~8477
î~~17877
risch~~8505
▁kostet~~2349
▁Bandbreite~~10210
▁Kohlen~~13861
▁Bewohner~~2397
artigen~~949
rent~~8201
▁Northern~~16239
▁Treib~~5687
▁Lassen~~1971
▁Mentor~~15034
▁gewün~~13366
▁Wag~~5095
▁tatsächlich~~444
▁Erinn~~12769
▁Wal~~14736
▁falsch~~4429
▁Was~~490
▁War~~3511
▁empf~~8577
anges~~15165
▁Way~~16312
tät~~14935
▁herausgestellt~~4140
▁besorgt~~2472
▁Afr~~8124
wenden~~6735
▁stop~~6994
▁color~~18098
▁narrative~~3134
▁stol~~7504
▁Emb~~8916
▁Filme~~3131
▁roten~~5470
förmige~~959
inson~~13559
▁staat~~11725
wendet~~2242
neten~~4970
dro~~17014
putation~~15895
▁symbols~~14043
▁Dies~~2134
▁liefert~~11515
ã~~17647
dra~~8926
hör~~7274
▁meistens~~5780
ustom~~16430
▁Laden~~7768
geist~~13087
▁fossilen~~5973
▁solch~~8932
ural~~15245
▁verge~~12485
▁Instrumente~~4689
▁kooper~~7088
▁Vill~~17239
▁taucht~~12680
▁influen~~17043
▁Fallschirm~~5599
ikanische~~4437
▁Bomben~~15294
▁Analog~~11932
ören~~1936
▁Mein~~3742
verstanden~~9176
äuschung~~15784
▁begreifen~~4042
▁Zehen~~16232
▁Olymp~~1658
wahl~~1598
▁ursprünglich~~6345
▁8,~~10781
▁merkwürdig~~12450
▁8.~~10338
▁Oxytocin~~4602
ordin~~10244
▁lo~~9995
▁84~~5861
▁85~~13496
▁86~~13350
▁verstehen~~806
▁80~~2074
▁artist~~17300
▁82~~8233
▁83~~5550
▁Maus~~8829
▁Maur~~9799
üpf~~9262
ctic~~12243
sprecher~~12353
▁erzeugt~~4585
▁Gleichheit~~2224
hai~~12391
▁gemein~~8689
hal~~5625
ham~~7741
han~~13202
▁Frühling~~6820
hab~~8179
▁auszusehen~~12926
frage~~8133
haf~~15999
Or~~13023
▁Flagge~~5440
geld~~12757
hythm~~17372
▁Ausstellung~~5566
▁Chirur~~15221
▁Gener~~8656
▁laufen~~2864
har~~7231
▁Radio~~5248
▁lap~~15896
▁Koll~~6928
Come~~17501
▁Lauf~~5088
▁ursprüngliche~~8838
▁diagnostiziert~~11254
igungen~~8836
▁Träume~~9977
▁Julia~~13874
▁wall~~17187
▁Julie~~17171
▁Hennig~~15945
▁Laut~~5131
inosaur~~14313
▁gehabt~~4152
▁Laur~~15613
▁beschrieben~~8295
▁harten~~7662
hängig~~11382
▁Second~~14956
▁erkennen~~2053
▁Leistung~~2187
▁herauskommen~~11571
▁Stufen~~12749
▁Anders~~8795
▁aufregend~~118
▁Prüf~~13977
▁photograph~~17418
▁Designer~~6306
▁bekannten~~10030
agram~~16818
▁phys~~6602
▁Gedichte~~15459
▁pack~~1214
▁Andere~~4200
▁Strand~~148
▁Bre~~546
right~~12773
old~~11585
ole~~600
olf~~14332
oli~~13883
▁Epidem~~12838
▁spezielle~~2925
System~~4922
▁beurteilen~~12186
▁studierte~~7930
▁Gitter~~11320
▁Aquarium~~5806
▁law~~18116
▁Organismen~~8769
cal~~15565
▁Gegenwart~~7358
▁beantw~~9721
ibel~~10571
zeugt~~14456
É~~17577
▁intellekt~~9716
urfing~~14516
ump~~7482
ums~~6674
▁just~~1229
▁machten~~4101
▁Bestes~~5301
▁board~~17610
▁Neander~~17972
ume~~16481
zeuge~~5779
illiant~~16639
▁Besten~~3728
umm~~1666
▁Watson~~15435
fon~~5264
▁abgeschlossen~~8897
▁Bro~~13538
▁gebrauchen~~1386
▁Urs~~17487
▁Projekt~~4129
annah~~16600
fish~~17720
arbeiten~~3634
▁Profit~~8139
rückt~~1730
binden~~7743
▁Prakt~~10051
arbeitet~~275
arbeiter~~2456
ierungen~~8166
gefunden~~8939
▁Schnitt~~4866
▁Mot~~11154
▁Desert~~17386
▁Verfahren~~2178
▁geöff~~16917
▁Welten~~6647
adet~~14467
▁Bru~~15649
▁Weis~~15899
▁bitte~~3847
▁Weit~~10546
ader~~1088
ades~~11757
▁zä~~7280
cular~~11324
o~~6
▁endgült~~6125
aded~~18264
▁biolog~~11136
▁zü~~7020
▁Weib~~16029
▁Viren~~7011
▁Gesundheitsw~~4444
adem~~7531
aden~~4879
▁komplexes~~14483
▁Weil~~1923
▁Wein~~3779
▁besuchte~~9185
▁umso~~5928
▁Dün~~8125
chte~~1276
▁Arbeitsplatz~~1733
rators~~17498
yen~~15750
▁Helden~~7115
ouver~~5809
▁Gedanken~~2983
▁zusehen~~7710
▁Typen~~5521
▁beur~~11429
häng~~15939
lieben~~4750
▁wissenschaft~~494
▁intelligent~~7245
▁Mov~~17030
haupt~~12415
▁hielt~~7750
▁Dür~~11208
zubereiten~~6905
▁physisch~~8810
fabrik~~11900
▁höchst~~9855
inke~~16333
zusagen~~7621
▁person~~16272
▁Antibiotika~~8793
▁BBC~~16904
spring~~15258
▁jahre~~6247
▁Yeah~~16248
anch~~15813
otten~~7005
schrift~~4775
öglich~~12232
▁PM~~15028
▁unterbrochen~~9662
▁Beide~~8007
▁skal~~14884
back~~11425
leidet~~10392
▁moralische~~11840
▁Chancen~~2229
▁Genen~~8905
ottet~~6957
▁Botschaften~~8669
▁hoffentlich~~6775
esearch~~17704
reu~~15105
otter~~3714
▁Neun~~11188
amerikanischen~~6794
mat~~12359
ieten~~3298
▁Good~~9705
reitet~~6526
▁sahen~~774
▁verwendete~~9398
aze~~13167
tell~~7977
▁was~~177
▁war~~614
näck~~7156
▁verteilt~~2238
▁Nachmittag~~10846
▁Austral~~12043
üchter~~13884
▁Jemand~~11776
▁Delph~~1636
abwe~~13229
▁absen~~15124
<unk>~~1
▁Stück~~785
esent~~12777
irst~~6303
▁kosm~~13384
ervative~~11633
▁upper~~17153
ationen~~2874
eloc~~14329
Sie~~12002
'.~~12513
▁PC~~8604
▁lächer~~8737
▁Mäuse~~8816
9,~~3347
▁älter~~3348
ichten~~7022
leep~~9955
▁Glas~~3968
ektiven~~17982
▁Mom~~15590
ritte~~4418
▁drückt~~14687
unehmen~~15458
bewusst~~12305
▁Supermarkt~~5447
▁Connect~~15756
ichtet~~3970
▁Summe~~8473
wart~~6617
▁regional~~6211
▁Gem~~6202
▁Gel~~11456
▁Gen~~1424
E~~814
▁Geh~~6400
▁gefährlichen~~13360
▁Ged~~3344
▁Gef~~13862
▁Erdbeben~~191
▁CERN~~15529
▁Geb~~184
▁massive~~2389
nel~~16322
modell~~5369
▁Get~~10819
▁Gew~~2838
▁Louis~~3804
▁You~~13649
▁kürz~~8878
▁Ges~~7234
ßen~~5778
▁Proben~~5836
reicht~~7969
▁Virtual~~17416
ederal~~15337
▁Kandid~~15333
▁legte~~8424
imming~~16811
▁Hen~~16549
▁Vielzahl~~2803
pfel~~11436
reiche~~8638
▁geheime~~9147
▁hilfreich~~3077
▁Gelände~~14438
▁gesammelt~~5799
▁Selektion~~8902
azines~~16595
Why~~18318
aube~~13295
▁Bindung~~10550
▁rad~~8871
volle~~2717
osp~~16101
oss~~1522
▁Clint~~13099
ost~~3266
▁ran~~10250
▁Ange~~12667
aubt~~13539
osh~~7197
▁Natürlich~~2535
▁ras~~7225
▁rat~~11890
geladen~~9898
▁typisch~~8789
ople~~15475
osc~~14501
▁sent~~15795
ose~~881
▁sm~~15725
macht~~8264
▁Tricks~~12850
öpfe~~10916
ver~~587
äuschen~~2402
qualität~~2766
iversity~~17160
▁Christopher~~2968
▁vis~~13279
rel~~11125
▁fung~~3881
▁Beteil~~6720
öpft~~10398
▁fund~~15929
▁Mexico~~10925
▁fotografiert~~6744
▁Fokus~~2411
ven~~6636
▁Umgebungen~~11055
vel~~14024
▁sl~~16955
Bahn~~14620
yers~~17098
▁Best~~1170
▁comedy~~18174
▁Los~~5685
▁Lot~~12192
▁Lou~~14817
▁Platt~~9397
▁Bess~~1340
▁Platz~~1254
▁Defin~~11888
▁Anlage~~11874
▁Force~~7507
▁Far~~8253
▁Fas~~9213
enntnis~~11729
▁Fan~~12283
▁roll~~16002
ective~~18099
▁vereint~~15069
▁Fak~~8493
▁Haiti~~11962
▁so~~319
▁Mary~~13558
▁Glaube~~12429
▁Spiele~~12200
▁präsentiert~~3871
▁Abhäng~~13117
ängt~~10642
▁bauten~~6379
▁Angebot~~13149
▁steuert~~15601
änge~~4538
▁manchmal~~4118
▁sicherstellen~~13254
▁HG~~18310
▁Richard~~11415
tschaft~~8596
▁Toronto~~6224
▁schwarz~~3449
▁egal~~1867
za~~15473
fehlen~~1850
▁Dör~~16653
▁Wünsche~~8009
▁ausgegeben~~2334
▁Michigan~~8239
▁Neut~~14926
sign~~16466
ähmt~~7363
▁seitdem~~3741
▁emot~~15661
redict~~18280
anzig~~6989
▁Struktur~~5128
ves~~17106
icro~~13816
▁knapp~~7553
▁Schad~~5847
mäß~~2258
▁ride~~17353
▁innere~~7333
▁Auftrag~~6407
▁iPh~~12568
▁Dass~~8394
▁Atmosphäre~~2840
▁hand~~6448
▁Schau~~5808
ords~~3381
meld~~9618
▁Werte~~3698
▁Zeichen~~3854
bo~~6434
▁Luxus~~14078
▁fragten~~1475
▁bieten~~3181
▁Revolution~~1223
▁Sektor~~13684
▁Leinwand~~3250
▁bietet~~3633
O~~5096
▁hang~~17602
▁wussten~~650
My~~5049
▁erstaunlich~~873
▁Ew~~12217
▁Innenstadt~~7371
▁diver~~15455
▁beginnen~~807
▁brut~~7166
▁zurückkehren~~7565
ains~~15150
hältnis~~10203
▁Nam~~16106
▁fire~~13641
itäten~~1643
▁durcheinander~~5161
▁Grafik~~5415
▁foundation~~18011
sive~~17159
▁firm~~17543
▁Performance~~12788
▁bezahl~~10978
▁Fett~~11275
oen~~16774
▁Kosten~~2341
▁Danach~~4299
Naja~~8695
▁gefahren~~8561
▁erledigen~~6709
▁Umweltschutz~~10640
▁Ep~~11489
▁Fahrzeug~~12790
▁ökonomische~~15535
ips~~11182
ipp~~4918
ibliot~~14750
▁String~~12280
illiarden~~15583
llung~~13082
▁Tasman~~16151
▁wün~~5510
▁Punkte~~5471
▁Baseball~~7958
▁Meiner~~8189
▁los~~850
igerung~~11720
▁chron~~3092
▁Ethik~~5632
▁low~~14938
positive~~15027
La~~13413
▁Real~~13931
opping~~6040
▁Draht~~12738
▁lob~~7361
wood~~8621
▁Domin~~15001
▁log~~6385
▁lok~~6715
▁beis~~9735
folger~~11778
opädie~~13178
▁Tesla~~16589
▁Treibhaus~~15370
▁Airb~~16317
▁worum~~5378
afft~~14152
▁Himmel~~3316
okus~~13969
üren~~13325
▁CE~~16104
▁CD~~4977
▁ED~~16274
▁CA~~6824
▁CC~~11112
▁CB~~5087
▁vorschlagen~~6889
▁err~~11800
▁Laura~~9923
ück~~610
folgen~~12051
▁Schreibtisch~~13292
▁Tok~~13799
▁kriegen~~1440
▁Tom~~3641
▁Ton~~3846
▁Cr~~15857
▁Tob~~16586
▁Tod~~4643
▁Mass~~6986
▁quasi~~9422
▁Toy~~4743
▁Mexican~~17454
▁Top~~8200
▁Cl~~5182
▁analysiert~~5069
▁Ch~~1973
▁Kandidaten~~12557
▁FOXO~~18026
ünstler~~15699
▁gearbeitet~~4982
▁Verletzungen~~11457
▁Politiker~~5502
▁Änder~~14154
▁einzelne~~329
▁Dein~~5266
▁Hyp~~4410
▁schwier~~4461
▁Marketing~~8630
▁bestimmte~~5145
ogene~~11908
▁existent~~14557
▁kreieren~~8288
▁stört~~16324
wertung~~1900
▁großem~~14918
örungen~~14110
Who~~8421
▁Brit~~6044
▁bare~~16937
hundert~~9009
immung~~12000
▁Nicht~~1084
sst~~9693
▁erb~~8770
▁agnost~~16723
▁Brief~~8551
▁Brie~~9087
▁aussch~~1547
▁Brig~~7575
zwungen~~15077
ähren~~10885
▁entwick~~13909
▁Rollstuhl~~14912
ipend~~7905
vey~~17217
▁Überzeugung~~2567
▁neben~~3709
▁Texas~~6711
tet~~1461
agine~~17791
▁Michelangelo~~11737
atsächlich~~15942
▁bestand~~7664
such~~14851
atar~~15399
▁vorhersagen~~15379
▁Gestaltung~~5042
▁Atem~~6976
▁gefährliche~~12207
▁individuellen~~1376
ss~~5377
sp~~4108
sw~~8049
▁Sebastian~~15755
▁jetz~~13850
st~~1548
sk~~7888
sh~~6225
so~~6343
sm~~14068
sl~~2732
▁verblüffen~~11389
sa~~3465
▁geschrieben~~2785
satz~~7564
se~~641
▁Brother~~16465
essors~~9779
▁terror~~11902
▁kontroll~~8978
▁learn~~16928
elben~~12684
▁Bonob~~14818
▁Tell~~15053
augh~~16520
kons~~5704
kont~~5003
▁magnet~~14871
▁Ort~~2052
▁öst~~5795
ved~~17687
▁schlimm~~4221
▁zeigte~~5421
ographic~~13445
▁stir~~17086
▁verschieden~~1825
ographie~~7142
▁Ord~~6168
ördern~~12848
▁armen~~889
▁stim~~1680
illas~~13462
ilit~~12440
▁unheim~~13785
▁treffen~~1812
änden~~4448
▁super~~3907
okuss~~16994
▁kalten~~7674
▁Scheitern~~7471
▁2.000~~12447
ünen~~14514
uge~~7807
▁bestimm~~5148
▁Web~~13034
spruchs~~15134
▁Gedicht~~7717
▁Schlangen~~9049
recken~~3227
▁Kilometer~~143
▁Verfü~~8111
▁Buchst~~13934
änder~~6630
▁Still~~6954
▁also~~646
▁Cent~~11974
hop~~17082
▁verab~~7090
▁veran~~2977
▁erkunden~~12040
▁erled~~14149
▁Howard~~3654
▁tiger~~18032
▁Doll~~13019
▁Hintergrund~~921
▁beigebracht~~7302
Speech~~18223
▁solar~~16736
outs~~8534
astrop~~17594
ium~~7906
▁neun~~542
▁course~~17940
▁38~~15479
▁Religion~~9320
▁Carl~~8350
besch~~3973
ästhes~~6468
▁gründeten~~3236
▁gegründet~~12351
chnologien~~14100
▁Führer~~1960
▁künstliche~~10598
gefühl~~12081
▁Cars~~10609
▁Distanz~~11233
wegen~~4151
iminelle~~1532
▁spür~~3421
▁Redwood~~17586
▁iP~~16867
zust~~8983
▁schrieben~~2786
▁Analogie~~10241
▁Ehr~~3325
Ab~~9713
▁shine~~18167
▁Entfern~~8261
▁Helium~~15540
ble~~9311
▁administ~~2651
▁1990~~11563
▁Süden~~5748
▁never~~17364
▁Ehe~~7749
hnten~~3666
▁ausgebildet~~12306
▁Kont~~7519
plet~~18343
▁Morgan~~17013
▁Kons~~9294
▁Krankenhäusern~~4826
million~~3475
▁Stipend~~10321
▁aer~~18272
▁gestorben~~7384
plex~~10436
▁9/11~~14353
▁Jazz~~5223
▁Kond~~7772
▁ih~~14717
▁Relig~~12370
▁bislang~~10592
▁stere~~15382
▁Woher~~11279
▁fragen~~2583
ulse~~12125
▁6,000~~17973
▁im~~196
.'"~~10608
▁Steven~~9944
rael~~5433
itage~~12181
▁Frustr~~7160
▁stren~~15038
▁inspir~~5428
▁but~~17451
wirken~~4717
ova~~15359
▁Manhatt~~14577
essions~~17907
▁erste~~985
▁wirtschaftlich~~7052
▁Seite~~349
oper~~7492
▁internet~~16915
▁japan~~12032
▁demonstrieren~~11388
▁intelligente~~4986
ona~~15259
ong~~9516
ond~~7911
one~~5245
▁Dauer~~2115
▁Funktion~~292
ony~~1901
ormen~~10205
▁snow~~18217
ano~~15474
▁Schnell~~6351
ons~~6069
ont~~6373
ushing~~18056
▁eig~~11822
city~~17539
▁Leonardo~~9803
▁tausende~~12816
▁tausend~~2787
▁scheitern~~7633
älle~~11547
▁heißen~~951
▁ein~~88
▁einf~~14571
▁eing~~5547
▁eind~~9870
▁eine~~324
▁einz~~4096
utsch~~15278
2~~1321
▁schlechte~~1325
▁Prioritäten~~2545
ällt~~14880
▁gre~~14409
▁eins~~1434
▁Myster~~7956
▁pupp~~11117
bits~~16392
reifen~~7880
▁eint~~4329
romos~~17466
▁Metaphern~~13386
geschäft~~11545
▁eurem~~5580
ungsvoll~~4821
wirkungen~~12982
All~~11473
▁Stop~~11440
▁Situationen~~2156
forward~~17665
ables~~14209
estens~~13887
cript~~17316
▁eurer~~10016
▁drüber~~8379
▁Treppe~~8616
▁Office~~16208
▁langes~~12356
▁langer~~527
:~~20
bauen~~10821
▁Letztendlich~~13631
▁gewaltigen~~5958
chmal~~15182
▁auszudrücken~~5036
▁field~~13647
▁metaphor~~13753
▁Arbeitsk~~1493
▁TEDster~~15168
ablen~~2870
▁wider~~2573
▁Island~~7348
schnitte~~5062
▁services~~18376
▁langen~~911
▁Wiki~~16414
▁Situation~~2061
▁dist~~16026
sam~~2623
sal~~5694
hält~~1830
▁langsam~~1884
reten~~932
alley~~17127
▁dreimal~~5946
▁müs~~3012
▁Elekt~~14472
▁fl~~5268
▁gewöhn~~17021
▁verfolgt~~5077
▁fa~~5258
▁Elite~~8542
werken~~9832
▁fe~~3431
▁gegessen~~5181
gefähr~~14350
▁Mangel~~8332
jahr~~2493
▁dicht~~745
▁Watch~~15203
masse~~13048
▁leuchten~~11082
▁Vergnügen~~6272
handlungs~~15995
▁vernünft~~6913
reiten~~7149
▁Schwanger~~10477
▁deprim~~14639
ameras~~1536
▁changing~~17358
▁Städte~~5903
▁Gegenstand~~10293
▁Ka~~14383
ndrome~~13321
▁life~~16206
osaurus~~14308
▁aufzunehmen~~7865
▁Republikaner~~11608
agger~~14239
strahl~~732
▁Hast~~11433
▁Count~~16498
▁125~~16395
smann~~17178
▁Technologie~~3246
▁Prozentsatz~~1306
▁sun~~17502
tehen~~4358
▁Informationen~~6552
▁schief~~6339
▁Unbek~~13377
▁General~~13569
apse~~15763
▁Nest~~14314
♫~~13361
▁Kiste~~7404
▁Aben~~5290
▁tue~~7426
▁Wasserstoff~~10306
atschen~~5213
utzung~~11991
▁tun~~1749
▁Wright~~16183
▁Camp~~11549
▁penet~~18344
aktion~~8971
▁tut~~3358
technik~~14858
▁Säug~~10556
▁Aber~~224
setzt~~9565
▁region~~6826
otic~~15773
artment~~16207
▁kontrolliert~~1683
ungssystem~~753
zahl~~9561
▁lehrt~~9140
deck~~11264
▁Ästhetik~~14414
▁alternatives~~14814
▁drei~~648
▁nationalen~~8322
▁einzel~~17190
verschmutzung~~11741
presse~~9059
▁coun~~16610
▁Fettleib~~17680
▁Matthew~~14333
▁erfolgreiche~~2040
▁Techniker~~3851
▁temp~~14273
hnung~~13504
gorith~~14542
▁gaben~~276
▁Veränderungen~~2169
▁Drit~~15778
▁Durch~~1860
▁eröff~~9542
▁Mus~~4752
▁Mur~~7740
▁Dinosaur~~14327
▁Mut~~6612
ühle~~10919
▁Urlaub~~1976
▁Gordon~~13196
llten~~5185
▁herausfanden~~10509
▁eingesch~~4365
gefü~~10410
▁lingu~~16144
▁Erik~~15446
▁frag~~2497
▁Aufnahmen~~91
ropy~~18162
ut~~1762
ipfel~~12019
ertain~~18328
where~~14622
▁medizin~~10357
▁Kunden~~1807
▁Gewinne~~10815
ragen~~2273
▁irgend~~8687
▁gescheit~~7654
▁minimal~~10223
anning~~17604
▁angeneh~~13781
▁stimul~~16094
▁Eingriff~~3028
Produ~~11948
▁gestohlen~~11782
▁Fuss~~13593
▁Ratten~~1614
▁fundamental~~12489
cil~~16611
▁Sonder~~15252
▁fessel~~10861
führt~~5295
▁Atom~~12273
ff~~8755
▁Kapital~~7257
▁distingu~~18021
▁schenken~~12905
▁eigentlichen~~13946
▁12,~~12524
▁imit~~4764
▁sicher~~4570
▁material~~16894
▁Sec~~17783
deckt~~9276
▁Produktion~~3319
spolitik~~11661
▁richtige~~4069
▁treiben~~5744
▁Jess~~17134
▁Liz~~14774
▁Seiten~~560
spart~~374
ibri~~12863
▁Erzählung~~3191
planes~~17903
▁jüd~~12654
▁2009,~~7217
▁tiefe~~5153
steroid~~18209
▁Lin~~15341
ustand~~7137
▁Lim~~15734
▁Lib~~13102
▁wofür~~5307
▁aktiven~~16196
▁fange~~12174
ug~~6169
▁Lie~~6259
Kann~~7517
räger~~2286
▁veh~~18083
▁Kollegen~~1746
cycl~~18020
▁2003,~~10507
▁Statistik~~10492
▁Zusammen~~1996
ouse~~11677
änen~~14225
s~~598
mand~~10468
uc~~12971
ließen~~334
ruppen~~3405
rägen~~7379
▁verbleiben~~8796
▁haben~~87
▁my~~5257
▁quer~~11145
▁ind~~6995
▁ine~~16176
▁Ray~~14245
▁Simulation~~15363
▁inn~~8407
iget~~15081
▁Erinner~~6274
▁obs~~17198
▁inj~~3017
▁Design~~4012
ants~~14206
▁inv~~15340
▁Sed~~1123
▁weitermachen~~4845
▁versch~~1817
▁ins~~474
▁Norden~~7150
▁ander~~12605
ante~~3401
▁Vielleicht~~3936
▁wodurch~~12752
▁geplant~~9223
attoo~~15836
▁emit~~13713
sicht~~1566
▁Franz~~5608
▁Bedürf~~10776
west~~5766
▁Todes~~4548
ühr~~15154
▁Neur~~6553
iß~~4117
▁Frank~~3351
präsent~~14716
▁dafür~~1779
▁miss~~12215
fig~~11175
formen~~1109
ademy~~17031
▁Darauf~~4086
▁alle~~107
▁Lebens~~47
chan~~12114
▁Ergeb~~16006
▁komplette~~2856
▁Oper~~4656
▁Innere~~2937
▁Open~~11724
▁toler~~8702
▁Daraus~~2524
▁industrie~~8465
icles~~14224
▁auszut~~6564
former~~16378
rippe~~17029
▁spielten~~5228
▁wichtigsten~~2267
leitet~~4201
leiter~~4326
ived~~18184
▁Fert~~7678
gebildet~~7882
iven~~6237
▁Automobil~~11753
▁anscheinend~~8053
iver~~3158
ives~~6724
sichtig~~1537
▁Geschlechts~~12092
leiten~~6544
isl~~13000
▁entfernten~~4416
▁fanden~~2882
ive~~2086
▁Fing~~6520
▁Beschäftigung~~14847
brot~~13854
▁Finn~~2199
▁20,000~~16407
▁scratch~~18025
ucken~~14103
teilten~~14105
▁Ehrlich~~11911
▁Griff~~10883
▁the~~3148
▁Zerstörung~~13542
▁Anw~~8733
▁Geschäftsführer~~13553
▁näch~~3371
technology~~16765
▁Landschaft~~950
▁Chor~~4911
▁Fremde~~12220
▁beides~~8593
▁eingeladen~~9385
▁frage~~6286
▁format~~18063
▁entscheidende~~6568
▁suchen~~901
▁Mögliche~~4464
▁Moral~~4400
▁lim~~18039
▁beiden~~559
otte~~13853
mutlich~~14319
▁lie~~3486
▁AS~~17257
▁AR~~10325
erence~~7929
▁erinnern~~1354
▁AT~~15250
I~~3151
eline~~9016
arden~~15279
ünfte~~11863
▁erinnere~~5526
ventions~~14983
▁AB~~10276
▁festhalten~~7457
▁AG~~8889
▁wiegt~~9178
▁gelang~~5244
▁Verletz~~17443
▁Ideen~~1931
▁AO~~16163
ündung~~13226
▁AM~~7863
▁erinnert~~3142
▁As~~11141
▁Ar~~3021
▁Ap~~8652
zellen~~6565
▁Av~~13776
▁Tit~~13511
▁wunderbares~~4790
▁Hub~~10465
▁stärk~~2662
ingung~~16734
▁wenigsten~~14236
▁Hud~~11482
▁Tib~~9401
▁Ab~~1597
▁smarter~~17901
▁Ag~~5583
▁Ad~~8308
▁Ak~~7701
genie~~2588
▁wunderbaren~~9888
▁Ah~~4523
▁Bron~~13790
▁konzentrieren~~2293
▁Am~~4110
▁Al~~249
▁besiegen~~1962
▁anderswo~~2088
schreiten~~10644
▁aussah~~9820
▁Spenden~~8644
▁Oktober~~6411
▁Economist~~1278
▁Feucht~~7809
▁bo~~12562
ress~~6829
resp~~7910
▁leider~~6831
▁Pen~~10475
ogramm~~11257
rest~~11539
▁mot~~6375
▁Per~~6134
▁Brow~~9692
▁Zukunfts~~14077
▁Pet~~3032
▁Brot~~10000
▁Spender~~10983
uther~~14139
▁berühmte~~6171
▁lass~~5525
▁Geographic~~10339
▁trafen~~4968
▁heutzutage~~5336
▁tanz~~12402
▁unsichtbare~~14403
▁kontinuier~~8841
▁Alphabet~~12364
▁LEDs~~4928
▁natürlich~~2532
änderung~~13486
▁Kritiker~~2503
urb~~13533
▁tank~~18337
▁Weltkrieg~~14186
▁Empfänger~~14376
▁Zusammenhang~~1630
▁Älterwerden~~8672
▁feeling~~18102
▁riesig~~7054
▁Creat~~11698
▁Entropie~~14417
abhängigkeit~~10176
ildern~~7194
▁50,~~9211
▁sammelt~~12999
▁befre~~10699
pos~~4598
▁sammeln~~4761
Let~~18166
▁Pubertät~~10501
▁Wegen~~9388
▁äußerst~~7953
▁Kampf~~7489
world~~18294
part~~11955
aktoren~~14382
atch~~5623
▁landwirtschaft~~8153
▁500~~6155
▁ermöglichte~~13128
▁Jahrhundert~~6025
inten~~5484
maßen~~5114
▁Down~~10615
▁Hey~~11878
▁Higgs~~17253
▁global~~5876
▁Sep~~13349
wann~~18079
inter~~3518
▁kleinsten~~12203
kennen~~4283
▁Gefä~~5388
▁Rett~~12758
▁Jedenfalls~~6438
▁ist~~63
▁Macht~~3132
ränkungen~~9730
uder~~15754
udes~~14610
ährt~~5911
▁emotionale~~1694
riedenheit~~14927
▁Geoff~~17067
uden~~8245
▁powder~~18258
▁Gefü~~9733
▁außerhalb~~6811
uded~~16940
▁betrachte~~7362
äd~~2221
▁hunderte~~2868
▁erhöhen~~8915
sucht~~9339
äl~~51
äm~~5875
än~~639
äh~~3838
▁vielmehr~~4388
▁Abu~~15607
ät~~6381
▁Wohl~~10630
▁Aufgabe~~1715
▁beteiligt~~9386
▁import~~13328
är~~2690
äs~~12013
▁Erst~~7915
▁Insekt~~11551
▁600~~7868
▁Frühstück~~9612
power~~16760
issen~~4074
▁intrins~~15424
▁Matrix~~3114
▁tor~~12474
sprung~~7474
ought~~16997
▁bugs~~16714
▁amerikan~~9323
▁Reaktion~~6588
▁hyp~~16724
ference~~18115
▁hur~~17113
▁hus~~17723
ättern~~12126
▁Meet~~16018
▁Feind~~1963
ffen~~10999
stone~~14598
?'~~17102
organisationen~~8627
ace~~11935
ack~~898
▁Sekunden~~4334
bewer~~9536
ach~~640
▁Yorker~~5201
ativer~~13107
▁Pitt~~9872
▁Auch~~2461
▁Sänger~~5250
▁Ira~~8024
act~~11491
▁aufs~~4540
acy~~16273
▁erfunden~~2173
▁setzt~~4604
auten~~3643
▁Fahrrad~~3754
wling~~17417
▁nennen~~680
ärten~~13888
▁Eng~~13919
▁End~~6993
esser~~5961
▁Kart~~6376
Na~~1476
▁Cape~~15467
▁Familienmit~~11018
Ne~~5200
▁Erkrankungen~~14465
▁Karl~~12587
essed~~15139
▁Tempo~~5305
▁bu~~18172
But~~16197
▁Ent~~1429
aughing~~17627
▁schließlich~~576
▁Krä~~4251
▁Norwegen~~8515
essen~~1543
▁Geben~~1982
ruktur~~2631
▁Maya~~16927
▁Sold~~14934
▁fossil~~17990
hängen~~9082
hew~~17332
▁Gebiet~~604
her~~764
hes~~14804
▁Soll~~4061
NA~~11899
▁Margaret~~14975
NG~~11904
▁complex~~17677
hea~~18316
▁Chromos~~8856
hel~~1887
hem~~8215
▁ermut~~2318
NS~~14321
▁glücklicher~~1804
▁Fakt~~8635
ago~~6034
ichtbar~~16951
▁Asteroiden~~15157
ibilität~~11398
▁term~~13979
▁veranst~~4462
▁wahre~~262
mögen~~15502
▁Kiribati~~16616
▁entgegen~~5398
▁MoMA~~16213
wal~~16441
▁Liban~~17548
▁Logo~~5537
▁fein~~12984
▁verrück~~16342
▁überrasch~~12498
▁Lachen~~1726
zusch~~6580
▁Bosn~~12373
uminium~~6371
rage~~13493
asse~~7827
sätzlich~~8919
agh~~16581
▁Mün~~5564
▁stimm~~5027
▁Osten~~5523
reibung~~13940
ragt~~13068
asst~~2802
produkt~~6235
azier~~15568
ohl~~15959
ac~~4935
ab~~2126
ae~~5785
ad~~880
ag~~1011
af~~4036
vors~~8721
ah~~3582
ak~~317
anw~~12439
am~~4507
al~~3297
uklear~~11311
▁Atome~~3944
ancen~~2248
ap~~4415
as~~2019
▁heiß~~645
au~~752
at~~1974
aw~~3868
av~~8061
ay~~7513
ax~~9219
anced~~16132
az~~5641
▁Fotografie~~14397
▁Paar~~3932
▁Verhältnis~~6251
▁Schichten~~9806
▁Sad~~15783
▁Sag~~5493
▁Titanic~~92
▁ganzen~~3377
unahme~~8462
holen~~8797
▁Sam~~10100
▁Sal~~5729
▁dank~~808
▁San~~2800
▁nach~~457
fachen~~2004
▁dann~~1100
Spiel~~5234
▁Sat~~16371
▁gehalten~~3519
▁Sav~~5359
▁Sar~~6782
▁ganzes~~1251
▁vergangenen~~11859
▁Brun~~9965
▁Say~~15216
▁Objekten~~8747
rt~~9288
operation~~15643
▁moder~~5303
▁vieler~~2279
Meine~~5516
annes~~9549
anner~~9883
etwas~~7681
▁navig~~14475
▁Sprache~~4100
annel~~9371
▁Stil~~10123
ising~~17398
▁symbol~~8962
▁angest~~712
▁kraft~~7718
▁gib~~13765
tential~~4748
▁welche~~2753
▁Westen~~5980
▁Drittens~~11373
Wh~~15664
▁Flucht~~3501
ombe~~13837
▁Spielzeug~~4948
Point~~17467
▁innov~~11036
▁Medizin~~1786
mass~~13438
▁uniform~~16844
apien~~10554
ienst~~12409
▁unfair~~2162
▁neuen~~279
▁mangel~~11861
sch~~321
▁berücksichtigen~~9916
▁dürfen~~6710
rieden~~1855
ping~~17480
▁Indones~~17172
▁berühmten~~12406
▁Gift~~10503
▁Tochter~~3161
code~~13075
▁Verhalten~~1241
▁pers~~12666
▁Netzwerken~~8170
▁invest~~9568
▁neuer~~4440
▁neues~~4344
▁Tät~~4824
▁Korruption~~12011
tz~~1108
▁nothing~~16939
▁wundervoll~~11541
▁Tages~~1563
tw~~5010
tt~~1956
tr~~8987
ts~~6705
▁Water~~10818
▁expand~~8954
to~~6479
tail~~16336
rize~~15697
th~~4860
▁Genau~~2502
▁Geor~~14375
▁Tagen~~5444
te~~603
▁iPods~~11295
norm~~13309
ta~~7097
▁Üb~~8914
▁Alkohol~~12961
▁Unglaub~~11431
▁übr~~14500
hner~~15793
▁Bund~~11368
▁Kooperation~~13116
▁liquid~~18041
▁Größe~~2296
pression~~14415
▁machen~~131
▁Kindes~~6497
▁Kinder~~1357
▁Keine~~1823
▁überlassen~~3122
▁kaufen~~1814
▁Bescheid~~13137
▁komme~~5569
▁gewisser~~5337
laub~~12452
▁Zigaretten~~16113
▁neurolog~~13364
lauf~~1422
▁sandwich~~17730
▁Interessanter~~4275
ri~~3583
▁3-~~9987
▁Jazeera~~13101
▁3,~~2206
▁wahr~~2386
▁bisschen~~1983
ctures~~17744
▁sad~~16652
▁sag~~5156
▁twe~~9008
▁sam~~16145
▁sal~~11912
▁san~~8483
▁Report~~16377
▁sah~~3322
itive~~14835
▁two~~17345
▁sau~~12496
▁sat~~15731
▁sounds~~17390
▁vö~~13425
▁express~~5020
pass~~1503
▁Gerechtigkeit~~7255
▁Flücht~~11983
▁Gesundheit~~1266
karten~~9337
▁überwachen~~11170
oton~~16240
imon~~16447
▁nämlich~~4107
▁Glet~~8934
▁horm~~10527
▁denke~~122
▁gefolgt~~11283
erkennung~~11242
▁36~~6702
lein~~4271
▁Wissen~~1385
leib~~5986
abytes~~17284
▁Uhr~~1877
leid~~13501
▁denkt~~4335
▁Region~~2941
▁beweisen~~1582
▁Gas~~14007
▁Gar~~886
icians~~18230
heben~~6388
▁Haar~~918
▁Gay~~12421
▁Individuen~~8893
▁sort~~5803
sy~~12234
▁Lueckert~~15184
▁Gab~~3512
gebung~~11250
▁Management~~6474
▁Babylon~~12659
▁metabol~~15632
treffen~~3467
methoden~~7974
ühungen~~16665
▁Gam~~16279
▁sorg~~2622
▁Zweitens~~1835
▁da~~509
▁indischen~~8103
▁de~~1942
▁led~~18379
schuss~~6827
oma~~15148
▁di~~14271
▁Stellen~~201
▁do~~10559
▁Chinese~~16141
▁dr~~9770
▁Deswegen~~5041
▁du~~1544
▁Kontinen~~1132
▁froh~~7434
action~~17923
▁dy~~6517
▁Spur~~15126
▁3:~~9483
▁gesundheit~~13877
▁Finger~~4115
▁ret~~12420
▁Privileg~~6924
via~~15712
▁malte~~9866
▁Fred~~13782
▁brow~~17331
▁Erstaun~~5586
▁verschle~~4264
lichkeiten~~10894
▁Krank~~17552
▁verwir~~10813
vin~~250
▁heads~~13657
vir~~6974
vis~~15831
Aus~~7041
▁reg~~3107
Aut~~13314
vit~~418
▁rec~~17415
▁rel~~11274
▁rem~~15666
▁ren~~1469
ating~~8384
rischen~~8758
ingungen~~14101
▁Getre~~6004
▁Musiker~~5283
zykl~~11052
öpfer~~4783
▁Anwesenheit~~9785
▁dass~~103
▁Californ~~17083
hrung~~13628
.“~~7923
▁Nationalpark~~12444
▁Raum~~415
standen~~6087
6~~2899
peare~~17549
▁Rock~~3563
ierung~~2057
▁Raub~~6894
mord~~12222
more~~15289
▁Entw~~1089
▁resol~~16975
▁gleich~~341
door~~13720
▁189~~14962
▁erwar~~12001
▁allgemein~~12110
▁Version~~10848
▁Rücken~~523
▁186~~15969
▁187~~12639
▁180~~691
▁reson~~16592
aders~~16524
▁18-~~16612
▁18.~~12675
▁bezeichnen~~8454
▁draußen~~567
▁capture~~18005
▁Biologen~~862
ocent~~18313
hmen~~6186
▁baute~~9405
▁Enth~~7258
▁new~~17173
▁Beton~~3901
▁Mohammed~~16565
▁Leuten~~4290
undert~~10737
▁CRISPR~~18298
~~16078
▁tiefen~~11352
▁Unsere~~1589
▁brachte~~3491
▁Trans~~6922
ational~~4045
▁Honig~~15385
ollen~~5560
▁tiefer~~575
▁Peace~~17708
äuft~~7839
male~~626
▁brauchte~~4582
ürlich~~4452
▁Parkplatz~~12116
▁relev~~8921
▁Interessant~~15711
abb~~16651
BC~~12830
▁brutal~~3396
▁Harvard~~7866
ähig~~1605
▁Pizza~~12201
estyle~~17494
sense~~13988
▁Medikamente~~6626
▁Währung~~14083
ist~~2097
mehr~~5458
▁zehn~~1051
low~~13802
information~~8165
▁produzieren~~1312
hent~~17422
▁unst~~14369
▁Scher~~6182
▁Aktivisten~~14666
▁evol~~16203
iving~~10614
▁Billionen~~13922
▁aben~~15627
▁Versch~~11572
▁Tanzania~~13620
▁Michelangel~~17804
örm~~14286
werfen~~1515
▁Schlussfolger~~8813
▁verbess~~2531
▁Mädchen~~5477
attung~~9126
▁angefangen~~4102
▁ländlichen~~7840
▁Aufstieg~~1917
▁umgehen~~6931
brett~~7736
ochter~~16882
▁besseres~~2729
▁besserer~~2136
ochten~~6139
▁Schuhe~~3696
▁besseren~~2138
▁gering~~4091
▁bezeichnet~~5665
omi~~14155
▁Größ~~12810
▁aktuelle~~12140
▁Daher~~8827
▁Gutes~~3357
▁beziehen~~10893
▁Fehler~~4029
▁Coca~~13600
ellow~~16751
▁Strecke~~8217
▁Studien~~2125
mar~~9358
▁amerikanischer~~12606
▁Nachhalt~~15593
▁2011,~~16243
▁darstellen~~3045
▁Guten~~6250
▁Film~~3130
▁zusammenfassen~~9921
ith~~7511
iti~~3625
bris~~17151
ite~~160
etor~~12712
▁Substanz~~13737
ita~~5615
eton~~16264
▁sport~~12517
▁Knie~~7327
itz~~3527
ity~~8282
itt~~2100
▁trotz~~4991
its~~9238
roots~~15351
▁versagt~~9331
▁Tuesday~~12779
öß~~15786
▁Gebäuden~~9187
▁teilhaben~~13544
▁Regierungen~~6749
▁wohl~~3196
▁NGOs~~13550
▁pay~~17939
fü~~1412
▁Char~~12909
▁Philosophen~~15162
bsite~~16531
alls~~10064
ally~~16511
▁Gebäudes~~10896
▁Nev~~18124
ijuana~~14416
brü~~952
▁Ägypten~~6035
erstörung~~15780
ziplin~~5083
▁par~~12117
▁bomb~~16405
▁Dallas~~15506
▁adjust~~16285
leistung~~1797
▁auftreten~~12281
▁Groß~~1414
▁House~~12914
▁Unsicht~~3894
▁Syrien~~17023
hre~~11964
füllt~~8545
▁Pfle~~4163
▁Bar~~4930
▁Bas~~9834
▁Bat~~11028
▁Street~~6064
erson~~14566
▁Bay~~10964
▁sieht~~628
▁Gr~~7726
reißen~~4062
▁Karriere~~2635
▁schritt~~2075
▁Gh~~10096
▁Bab~~10481
▁Bad~~11799
▁Gl~~5403
▁enthält~~5830
lter~~16602
roll~~14568
aganda~~3591
▁Ge~~172
▁Ban~~11959
minute~~17843
öck~~9460
▁tollen~~12546
▁Nutzen~~6368
fense~~17749
Mails~~7642
▁face~~17321
▁ruhig~~6594
oms~~9235
▁transpar~~13701
▁Ziele~~2718
▁Pinguine~~16704
▁Nutzer~~10092
▁Stahl~~10279
stoffen~~5975
racy~~15353
▁Tast~~4709
▁Regeln~~1611
▁Action~~13338
▁bestätigt~~9332
▁verbrennen~~3074
ftw~~8034
indung~~11951
▁Gebiete~~4786
athie~~13208
orenen~~4666
▁Geräte~~2886
▁abgest~~15624
▁entschlossen~~7845
▁lock~~7546
fte~~11232
IP~~15503
▁weitere~~1848
▁YouT~~11718
▁Jonathan~~12849
▁Heutzutage~~8365
▁Riff~~15386
IT~~14380
Now~~18145
zukommen~~2909
heads~~18009
▁Pion~~15887
ā~~17551
wall~~15080
▁Recy~~15904
ktivität~~15012
samkeit~~6297
omp~~10878
▁Your~~11832
▁sense~~18378
▁Europ~~12935
ähigkeit~~11067
w~~778
▁talk~~18030
▁direct~~15785
issheit~~12454
fu~~16916
▁stem~~1513
stoß~~7534
Fre~~12894
uel~~11168
zure~~6405
▁generell~~12137
unte~~14682
xim~~17019
▁Myth~~13083
uen~~7608
▁right~~17354
▁bös~~10342
▁stet~~12102
▁Genie~~12286
▁step~~17267
▁ster~~11044
▁Jerry~~15334
▁Fernseher~~8575
lässt~~7738
jet~~4960
▁pfl~~11504
lieb~~17703
▁Unfälle~~13402
▁wen~~8100
iller~~14846
▁überfl~~8414
▁gefährdet~~11129
illen~~5854
▁Geschmack~~11524
ifft~~16454
neys~~17612
▁iron~~9509
▁Spanien~~2851
▁Ruanda~~3394
▁Ä~~7993
opy~~14277
▁Fernsehen~~12912
gnügen~~15401
▁Kohlendioxid~~15130
▁übrigens~~4098
▁Engagement~~3680
▁Bausteine~~14170
▁Voraussetzungen~~2661
▁schmerz~~11341
▁unsichtbar~~9420
▁lernte~~6503
▁aufgeben~~7162
▁Society~~15177
▁ältere~~7680
elling~~16172
▁arbeiteten~~10152
▁univers~~1217
▁Do~~7079
zeug~~5939
▁abzu~~907
ilität~~11390
sc~~13193
▁Dichter~~8060
▁hörten~~3761
▁suggest~~18385
reut~~3611
▁verme~~11228
rische~~8759
▁Fischer~~6754
Is~~5432
▁Ell~~4646
▁Golf~~11350
apers~~4757
▁higher~~13645
▁Royal~~13224
glicht~~17935
mensch~~11502
▁Ele~~10395
▁dest~~12291
▁appl~~12806
▁bilden~~2624
ften~~4252
ägt~~11897
blemen~~14137
fter~~15605
▁bildet~~995
▁nicht~~116
▁gerufen~~9950
▁Effizienz~~8293
gten~~10367
▁Reichtum~~13121
▁zurück~~791
▁gedreht~~9503
sell~~15820
seln~~5765
▁boom~~10323
▁Gary~~13954
▁Song~~5050
▁wandern~~6866
reiber~~13812
oices~~18112
walk~~15825
reiben~~2658
▁DNS~~6574
melzen~~8955
geschichte~~1129
istor~~9874
▁Sony~~252
iding~~14511
aterial~~11939
▁Magie~~14032
▁valid~~17298
indest~~4477
▁Lass~~9353
play~~9504
▁Last~~4571
▁riecht~~12877
▁Morgen~~5507
▁Täuschung~~10281
▁Impf~~7039
M~~1558
Ist~~1992
plan~~8466
▁Elect~~16429
▁Gebä~~16071
▁aktuell~~10070
ibung~~11331
▁Sel~~12041
▁teilnehmen~~3785
▁erscheinen~~5549
▁Jac~~9985
▁hoch~~945
trächt~~15940
▁Slow~~8457
▁verwandeln~~1341
▁Sen~~8105
cover~~16072
▁Kennedy~~14408
▁Indus~~17295
geräte~~10298
▁Mamm~~11022
▁Sea~~9411
▁verwandelt~~777
▁Buck~~16334
▁ble~~14009
▁DI~~15602
▁technologische~~10229
gabe~~2647
▁Formel~~14418
reckt~~7528
▁Erfahrung~~3135
▁derer~~8258
ifiziert~~5864
▁Home~~13185
reuen~~7196
▁explod~~4181
lungen~~6009
▁Homo~~12066
▁umsonst~~6473
prä~~3924
▁falls~~1697
▁halben~~11973
Ein~~11302
prü~~6725
ugs~~4760
▁cooler~~9522
spitze~~12734
alität~~1907
▁Pack~~6476
▁deren~~5346
▁Option~~11668
▁100,000~~16926
▁Schön~~214
▁Sch~~677
▁Christen~~12398
▁Medikament~~7983
▁verbrachte~~3368
▁11,~~16678
ropie~~16769
▁rasch~~2179
irgend~~10430
▁Empf~~8257
ounded~~18131
▁abgeben~~8655
▁emp~~13902
▁vorlesen~~14891
▁Walter~~15549
hafter~~6766
haftes~~7872
▁Bauste~~15450
▁lobby~~13595
▁wertvoll~~3627
▁Robotern~~12799
▁fließen~~10713
▁dog~~18017
▁instin~~5390
▁untersch~~4294
gleicht~~15307
▁Wochen~~1279
▁verknüpft~~2072
verbrauch~~10799
▁Ganzes~~9164
▁enthusi~~16607
▁mithilfe~~2021
▁komische~~9180
▁blieben~~7355
icult~~15956
▁Nadel~~14842
▁game~~17322
▁Jedoch~~8895
▁verschmelzen~~9226
▁show~~18093
▁gegl~~16981
▁frei~~4605
▁funktion~~11185
▁Irak~~7703
▁Ster~~7990
▁Iran~~5409
leren~~15774
▁bedeutsam~~10831
cri~~17282
aurants~~9032
vention~~12519
▁men~~17911
▁Ägyp~~15810
When~~15677
▁Hist~~13061
set~~14856
ses~~11098
ser~~1197
For~~9535
▁cat~~11115
ikanischen~~8342
gment~~10266
sey~~4647
sex~~6648
▁account~~17149
see~~30
sec~~16599
▁daß~~4032
sea~~17046
▁wohin~~1161
sen~~340
sel~~4207
sek~~10683
▁refle~~17863
seh~~1373
▁weitergeben~~4890
#~~15950
▁Fische~~346
▁degrees~~18170
ropfen~~3915
ritt~~4932
▁Geme~~3163
▁Gravitation~~15364
▁SETI~~16596
▁Sudan~~13261
▁System~~1338
▁Such~~9510
▁Ding~~676
▁weitergegeben~~8908
▁subs~~10093
ikas~~8347
do~~7857
▁multipl~~10131
▁Brücken~~13975
stheorie~~4212
▁absch~~2037
▁Viv~~17845
schaft~~3796
▁aud~~13304
▁Mozart~~5175
▁erledigt~~12084
▁genannt~~6441
ikan~~10628
▁motiviert~~4963
▁Zuschauer~~3430
struct~~16557
▁Interviews~~13929
▁fliegen~~519
last~~11723
▁merkwürd~~954
▁entnehmen~~14328
stä~~5132
▁Chirurgen~~7948
eping~~15943
▁Sterblichkeit~~11377
ämpft~~8892
▁YouTube~~9948
▁kombinieren~~11068
load~~16038
lev~~8749
▁origin~~11649
▁Offensichtlich~~1748
ometer~~3953
▁Tiefen~~461
acted~~18352
▁Nachricht~~1756
olle~~7777
▁Komm~~10923
dimensional~~9028
lex~~14311
▁Kilo~~13735
▁amerikanische~~7919
sing~~17790
▁Erste~~699
▁ju~~15876
acter~~13918
belt~~9989
▁Szene~~6969
▁Uns~~670
▁dran~~1007
▁GP~~17287
▁lösen~~866
▁Massen~~4470
riculum~~17181
ürzen~~4522
▁Felder~~12903
▁regist~~9583
ütteln~~4588
▁Alternative~~6189
▁Und~~449
▁Quadrat~~725
▁doch~~213
▁Uni~~10874
▁draw~~18322
Mach~~5491
▁Regime~~12644
▁fingen~~3485
▁Beleuchtung~~9418
▁direkte~~8194
ulle~~7074
▁drehte~~12603
imin~~8685
▁Dank~~1181
▁Mit~~21
▁Nach~~1988
▁Mir~~3801
▁Dann~~2253
▁Mio~~15330
▁Min~~12598
fung~~2166
▁Mil~~12986
▁Mik~~13632
▁Hack~~15324
▁Menge~~2122
▁feststellen~~10171
▁perfekten~~12612
▁Mid~~5762
▁Vin~~6369
funk~~15377
▁Künstlerin~~12967
letz~~12016
▁Bauern~~8086
projekt~~4742
▁je~~94
▁ja~~2362
uldig~~14705
▁Warum~~1304
▁negativen~~12302
Cola~~13601
real~~15047
▁Pflicht~~10564
vol~~15010
▁Wagen~~7353
von~~4580
▁Lond~~6068
▁anre~~9112
Amerikaner~~15306
▁Tunis~~17235
▁konkurrieren~~12793
▁aggreg~~15654
vor~~2640
▁fuhr~~6129
▁Wol~~11048
▁Teilnehmer~~3670
▁parts~~18402
▁Len~~3586
▁Lem~~14751
▁used~~17361
▁Leg~~11920
netzen~~6654
▁Lee~~7579
▁program~~15839
▁gesteuert~~15616
ama~~10300
▁Romo~~17242
▁abschließen~~9567
▁computer~~14341
▁Lex~~14243
▁anschließen~~4515
▁Rome~~17611
▁Mengen~~1032
▁Parkinson~~4817
▁Les~~8612
cers~~10810
▁ident~~11122
städte~~9272
▁ausreich~~4779
▁beschleun~~14142
3,~~11921
▁Zusammenbruch~~12840
▁sicheren~~9004
▁Betriebs~~15749
▁Noten~~4774
▁entdecken~~698
▁anzu~~9081
wür~~748
▁Kapitel~~2955
▁Gleich~~3897
Null~~16327
▁Neurow~~2974
▁Hoffnung~~3291
▁phot~~11190
elen~~906
▁myst~~12233
person~~1371
eler~~13449
eles~~15585
▁Spitzen~~9632
▁2,5~~530
▁breath~~17266
▁dokumentieren~~9848
▁sogen~~15604
irur~~14379
▁verwandt~~11568
ästh~~6596
▁uns~~37
▁letztlich~~13225
▁unw~~5963
▁unt~~15190
▁übernommen~~14057
▁Half~~17782
▁Ära~~9039
▁synchron~~15125
▁Angiogenese~~17667
▁zent~~13565
▁unb~~6511
▁intelligen~~17658
▁diagnost~~14707
▁unf~~8184
▁Latein~~8127
▁und~~45
▁Lösung~~4995
▁Venezu~~17994
abilität~~8959
▁Craig~~11200
</s>~~3
ielten~~3595
▁numer~~13064
üpft~~10723
▁trägt~~4373
ierendes~~11186
▁Wachstums~~14123
ürz~~12619
▁Today~~16525
jährigen~~3561
▁Zeichnungen~~9912
jähriges~~14634
jähriger~~6857
iban~~5532
▁Sobald~~797
▁Geschichte~~120
▁Harry~~12198
ierenden~~10460
On~~11039
Oh~~1745
▁sichtbar~~2354
▁diplomat~~16568
▁Terrorismus~~13246
▁Aufmerksamkeit~~5628
▁bringt~~4474
▁Urteil~~12310
▁Himal~~17729
Os~~12466
zub~~6353
▁vierte~~3071
▁Imm~~9621
OL~~15805
OK~~15116
d~~338
EA~~17449
penden~~16591
▁Machine~~13915
obal~~16675
▁Medic~~9830
▁Media~~4648
▁grave~~17347
ery~~16510
ival~~15260
technologie~~4979
ida~~16246
▁Imp~~12124
▁Meine~~3525
▁Sehen~~302
icious~~17635
▁Zwe~~10117
▁leg~~7483
▁function~~16306
▁leb~~13268
▁Berat~~10755
▁Persönlichkeit~~4813
▁Fire~~4996
methode~~7967
▁Hans~~10179
▁lex~~14845
▁freedom~~13639
▁langweil~~10167
▁let~~4981
▁2001,~~16219
▁les~~4797
itäre~~13584
onymous~~16534
▁offenen~~6719
▁ignoriert~~15412
▁stamp~~17207
▁Dreie~~12150
quot~~17463
estock~~18342
▁Training~~7603
▁audio~~16187
flächen~~5970
▁Intelligen~~15425
▁something~~17359
▁Glücks~~12276
onscious~~15492
▁hebt~~9141
▁bricht~~115
be~~784
▁Ed~~5419
▁Ec~~15057
ba~~8310
▁Onkel~~14704
bl~~5630
▁En~~4178
▁Em~~9104
▁El~~1140
bi~~12352
▁Ei~~6141
klär~~10887
bt~~3059
bu~~6512
▁beschrieb~~13286
▁Et~~6146
▁Es~~286
▁Er~~1752
br~~2857
bs~~8518
▁Vinci~~9810
▁irrelevant~~13545
by~~6265
▁Ex~~8283
oids~~14446
ruhe~~8705
▁Cholera~~12223
ID~~16147
▁permanent~~6862
▁schreibe~~5146
▁EM~~17081
▁Diplomat~~16505
▁entfernt~~930
▁geradezu~~11712
▁EU~~2847
▁Vorder~~10369
▁ES~~17815
▁schreibt~~2949
▁angesprochen~~12910
▁überras~~15049
▁adul~~16479
▁Streben~~13742
▁repräsentiert~~12387
inte~~7326
▁posit~~8830
imulation~~13318
▁Ress~~15746
intu~~17544
welle~~9792
▁Vorur~~10184
▁Strich~~14030
▁Noch~~2518
ints~~16922
auscht~~4847
▁bek~~7536
▁Space~~11016
atherine~~11820
▁entwickeln~~1693
▁Egal~~7325
▁Kämpfe~~3409
▁Proton~~15587
▁gründen~~8084
▁Membr~~10572
ruckt~~11305
▁OECD~~1295
biot~~6241
▁beschreibt~~1516
spar~~7283
imeters~~16362
▁entwickelt~~253
▁zugeben~~2515
▁Baltimore~~17077
urcht~~3326
▁sank~~9259
neidet~~2038
▁Momente~~8452
ator~~1587
▁99~~7127
▁weiten~~12037
ibility~~18010
▁zusammenge~~274
▁weiter~~1450
atom~~15922
ling~~12511
sun~~9375
line~~5900
▁Töne~~3848
▁mussten~~2917
▁illeg~~13354
neiden~~2212
▁Age~~11619
imps~~11714
▁England~~3573
▁Meere~~5893
▁Tageslicht~~10381
ux~~13792
uz~~7045
▁Ware~~7214
utschen~~3983
up~~8490
us~~4608
ur~~1065
um~~2566
ul~~2979
un~~2271
impf~~3435
uh~~6100
uk~~3711
uj~~14933
▁Annahmen~~2432
ud~~3764
▁Vortrag~~1216
uf~~3488
ua~~5839
gesteuer~~9399
ub~~4113
▁Ann~~9449
▁Tradition~~2436
▁formal~~14268
▁Anh~~14220
▁Anf~~13113
▁Ang~~2113
▁And~~4257
▁dort~~406
▁sowieso~~10895
▁mist~~15811
▁jene~~6276
▁96~~14538
char~~4887
▁Micro~~12833
▁Gesten~~4924
rors~~16648
▁Impuls~~12128
bewusstsein~~7538
▁Ant~~336
▁Oxy~~14093
▁Ans~~7206
▁Namen~~3281
ifer~~3713
ulation~~8763
▁delight~~18226
▁Dezember~~11950
▁dient~~8291
▁period~~14879
▁prakt~~5339
▁beobachte~~12365
▁Grippe~~16085
▁klang~~5105
▁Alph~~16266
ferenz~~8267
▁Stift~~4332
ergeb~~14407
▁verletz~~6868
ifen~~3718
Hu~~14307
▁grundle~~8099
▁proportion~~16419
kehrt~~12349
▁fantastische~~4971
▁Auge~~4575
ennt~~8047
▁Wohn~~6309
▁Center~~7604
▁ansonsten~~9309
▁Evolutions~~11051
▁meist~~4737
▁Schmerzen~~4138
▁Verschw~~1332
▁abhängen~~6845
▁dunk~~10656
▁famil~~14165
▁mach~~3817
▁hyd~~3917
▁Architekten~~9150
lang~~2372
▁genug~~876
land~~2200
ustr~~8850
cling~~15905
age~~351
agd~~8692
▁begannen~~3484
▁fragte~~4083
aga~~12323
▁Biosphäre~~15380
uste~~8003
▁tö~~3504
▁Wettbewerb~~3783
graben~~5192
agu~~14574
agt~~7794
ags~~6097
▁identifiziert~~13388
▁Wochenende~~8524
▁Alpha~~14037
▁Schalt~~10808
▁Organis~~14937
▁schafften~~12527
letzt~~15296
▁gewissen~~5215
▁gewissem~~16097
agers~~17107
▁Erf~~8787
▁gewöhnliche~~2605
▁Erd~~708
aumen~~4482
▁Erb~~12054
▁Willen~~7167
▁Ern~~7622
▁Schall~~549
▁entscheid~~17069
▁Erk~~12095
pril~~16404
ually~~17108
▁flach~~8982
▁Kreatur~~9457
▁Sohn~~7357
istik~~14207
▁feel~~13653
▁Toten~~8974
istin~~7998
▁blank~~17099
senz~~8076
▁transplant~~11476
▁feet~~16920
iated~~17597
▁Give~~13642
sens~~7668
ulin~~14747
▁beacht~~13358
▁Nordk~~9938
sent~~13999
▁Dritte~~8957
▁schlagen~~6541
probe~~13680
▁größten~~696
▁Präs~~18389
▁Loch~~6216
▁Tut~~9677
▁artists~~18372
gemein~~10865
▁Gru~~12812
▁Glauben~~7585
▁Bart~~11713
▁ersetzt~~11475
▁anderthalb~~13047
▁physikalischen~~10207
▁Iron~~14791
▁Hilfs~~8218
tritt~~11977
tra~~5052
▁Schreib~~9090
tre~~10694
odurch~~2373
▁legit~~8707
▁Geschäfts~~10800
▁ehrlich~~3750
▁Hilfe~~22
reich~~635
porter~~15072
▁Mensch~~2104
Plan~~13003
ilos~~15908
▁Eingang~~15273
hyth~~16337
▁arbit~~16755
ody~~6530
▁Zweck~~1765
▁Hoch~~6852
▁Risiko~~5174
glieder~~11019
alie~~13271
▁Rechner~~15176
▁Transport~~6320
▁unserem~~514
wärmung~~15991
▁eingebaut~~9675
▁Whit~~9925
ode~~4292
ues~~9844
uer~~3247
ämmer~~12600
▁Väter~~9175
▁Sek~~10098
▁Alters~~3154
▁Sem~~14720
ansen~~10397
▁ess~~15043
▁unserer~~438
firma~~6415
▁Project~~12531
inder~~2439
▁See~~3546
indet~~2948
▁Sex~~7313
▁Zähne~~12091
▁Acumen~~15790
oration~~12805
▁Wäre~~2302
inden~~4561
▁offensicht~~7634
▁Ser~~4909
▁Jobs~~2170
bsites~~16410
leb~~5189
led~~13743
lef~~13191
leg~~1943
ktur~~13484
lei~~4171
▁geglaubt~~13264
▁umwandeln~~2016
lem~~7199
len~~3981
▁lose~~13660
ler~~1661
les~~8619
let~~5741
▁entkommen~~8807
▁Fortschritte~~6763
▁aufzu~~2841
ley~~7630
bald~~17933
▁Fremden~~14632
▁you~~13638
▁geek~~17624
▁Offenheit~~2048
▁Briefe~~8550
ühen~~7098
technolog~~6349
▁verkauften~~10972
zte~~3596
▁Libanon~~5539
▁vollständ~~12042
▁Instit~~15897
▁gemeinschaft~~10058
▁ök~~17018
▁wild~~3687
▁Gewebe~~8927
▁use~~11672
▁British~~13554
▁dominant~~17000
apping~~17294
▁frü~~15611
▁Amaz~~17515
ugen~~3086
▁Stiftung~~11344
ugel~~13689
▁usw~~2514
▁sensation~~14522
▁Lakota~~17776
▁Körper~~3034
scheidung~~10692
▁1900~~14787
▁Garten~~6163
▁Nebenwirkungen~~8754
throp~~16658
▁zehntausende~~565
▁Strategie~~8764
▁cloud~~17695
▁damals~~2384
zip~~6350
commun~~16824
▁Dimit~~17156
apital~~7048
levant~~16541
▁übereinst~~6362
zif~~6893
zig~~3318
▁Umfrage~~12831
zie~~7516
▁200,000~~17204
▁verhe~~12456
zin~~10478
▁Govern~~16974
zil~~16911
wesen~~8164
▁Elektrizität~~4758
▁Kaliforn~~17008
▁erkannten~~9747
▁lieber~~2550
pfe~~1886
▁zählt~~7331
▁marine~~16618
zimmer~~7432
▁Augen~~271
▁blog~~13231
pfl~~4060
▁ausgesprochen~~11696
▁Bereiche~~1362
▁Wohlt~~17384
fache~~12532
▁patri~~16478
▁ausmacht~~2042
▁gewaltige~~9932
▁Alask~~17117
▁Familie~~1344
▁lieben~~4614
▁Gest~~13290
opol~~12756
itung~~7992
▁Poten~~16008
▁Paras~~12732
▁glor~~7988
▁fur~~16822
▁fut~~6347
▁ausschließlich~~13186
▁gemeinsam~~6846
▁reichen~~11447
▁fun~~5158
of~~11287
imination~~17785
ädchen~~12564
▁Geschäfte~~8142
▁sei~~1048
etti~~6253
▁Verfügung~~7841
▁sem~~17054
▁sel~~16810
▁sen~~2352
lock~~9452
▁Eltern~~2360
▁bezahlen~~2548
▁see~~9694
▁sed~~17461
ette~~9315
zierten~~5856
▁sex~~12536
bene~~3884
stoffe~~2816
etts~~14386
▁ser~~1425
▁betrifft~~11071
▁set~~15559
▁Mark~~3866
▁Gehirnen~~15772
schriften~~2663
▁Anwendungen~~4002
isationen~~6849
▁Ult~~10601
▁Schulen~~1221
▁Schnee~~10106
▁fressen~~9433
▁passive~~15606
▁lediglich~~8641
▁Tenn~~3630
▁Gi~~14205
▁beige~~9851
▁Sicht~~1081
▁zentrale~~10538
oping~~10053
oz~~3398
▁Eink~~10980
▁Jahrhunderts~~3198
▁Moz~~4663
▁anstatt~~3523
▁jegliche~~11105
halter~~5859
stop~~11409
▁Mos~~12703
▁Mor~~10190
▁Eing~~10224
▁Eind~~14519
▁Eine~~760
▁Einz~~8297
▁Moh~~16120
▁Jahrhunderte~~9812
▁Moo~~17400
▁Mon~~4501
▁Eins~~4505
halten~~3677
▁Mob~~14129
▁Mod~~9739
▁Wohnung~~12596
isse~~3141
▁erfolgreichen~~15014
onom~~4028
▁verletzt~~7139
▁Trink~~17724
▁wiederholt~~4146
▁Had~~14728
▁anpassen~~4950
▁hy~~15019
▁quant~~10126
▁Miller~~10784
isst~~5274
▁ha~~356
allow~~17209
▁typische~~4524
▁jungen~~2145
▁Ford~~13088
▁Beweise~~4243
▁Frau~~1435
▁feind~~12060
▁gesunde~~6651
▁Bitte~~6495
▁antw~~18381
▁systematisch~~12786
▁Zitat~~7724
Jeopardy~~17095
▁elektrischen~~10992
▁rit~~16650
▁Mexiko~~12473
▁Robot~~13923
▁nieder~~5453
zufinden~~8582
entlicht~~17315
▁könnte~~1751
lleicht~~10968
▁rie~~5186
▁Müll~~5624
▁Versuchen~~12138
,000~~14902
▁Anzahl~~6159
uelles~~12147
ueller~~9927
▁sagst~~15066
ET~~16732
American~~16763
▁Francis~~15170
▁rote~~922
▁Handys~~1966
▁bleibt~~3989
▁4.000~~6673
▁konnte~~3732
uellen~~8500
üben~~10969
▁befassen~~864
▁ruft~~1205
▁bewe~~5505
arther~~17760
üchte~~14729
ickte~~14168
▁Vögel~~5344
staat~~11369
▁Führung~~7466
▁einschließlich~~7813
ship~~16593
▁Biologie~~8862
▁Phase~~10414
▁Banken~~12998
auert~~13221
älter~~2333
▁prof~~15533
▁Zweif~~9557
▁mole~~11336
▁Füße~~818
▁getestet~~7215
▁springen~~4811
▁1800~~13356
▁Go~~11806
▁spray~~17997
▁Edinburgh~~11110
▁Sonnenlicht~~14792
▁womit~~13938
▁Bösen~~15344
▁Rasse~~8819
▁Libe~~17391
▁Minuten~~2740
▁Fabrik~~12582
iete~~10974
▁ihr~~991
▁ult~~16993
▁organisierten~~8270
▁bemerken~~5075
▁mechan~~1508
▁durften~~4234
ampagne~~13674
amerika~~538
▁Prä~~4989
▁simpler~~18110
▁vul~~53
▁ihn~~3321
▁Brü~~7171
wander~~3576
ppich~~16020
▁Gefängnis~~10108
Vers~~8054
ße~~7311
altungs~~5092
'~~849
▁Schuld~~9302
▁Gumm~~10838
▁niedriger~~10344
▁befol~~13976
▁Jur~~9610
▁überlegt~~4289
▁Schädel~~9506
cess~~10805
▁statt~~843
▁Jud~~3816
genda~~16696
▁paste~~16424
drück~~11856
▁neg~~14998
▁aufwuchs~~9994
▁kennt~~8403
▁Mord~~14449
▁More~~6156
▁Dram~~3614
▁garant~~11909
▁schrecklichen~~4393
Teil~~5701
▁Kombination~~7243
stände~~10320
ban~~3125
▁kenne~~4483
▁Parlament~~8319
▁Mort~~17659
▁prob~~13740
uppe~~5832
▁Doch~~3025
▁religiöse~~12269
▁Genauso~~1674
stab~~12883
▁30,~~14679
▁beseitigen~~9304
▁Clip~~12977
Q~~12585
▁Cap~~3352
▁Car~~6640
put~~5008
▁brill~~620
▁pyram~~16413
▁beruht~~9149
▁Caf~~10056
utage~~15326
achtung~~12070
▁Cam~~14803
▁Cal~~9960
▁Can~~12876
▁Treibstoff~~15145
mittag~~14643
▁akadem~~3674
▁spons~~10963
Menschen~~12959
▁Einzel~~1370
▁Chef~~11520
kohol~~17237
▁Joseph~~8651
küste~~5365
▁Zug~~5187
▁Amsterdam~~17039
▁Chem~~741
▁Chen~~12007
▁Experten~~8001
▁existiert~~278
▁erlernen~~9117
▁Annahme~~10860
▁Zut~~9729
Prof~~13779
leich~~2020
▁Zur~~9576
▁Zus~~9649
▁Wolke~~629
▁langfrist~~15407
▁woll~~6421
▁intensive~~14113
▁Ara~~15898
▁unbesch~~6420
▁Zeichnung~~9880
system~~2499
▁anbieten~~3267
onent~~15398
▁Doktor~~1784
▁antibiot~~18300
▁Six~~17866
▁Kommentar~~3288
▁cond~~17279
▁Sechs~~4305
▁Bed~~6722
▁Kl~~554
▁Bef~~1463
▁Kn~~5066
▁Medikamen~~16277
▁Kh~~8975
▁Handlungen~~12497
▁Varianten~~10240
▁Bel~~4919
▁Bem~~9570
▁Ben~~3646
▁Belast~~10604
▁Beh~~10736
▁Bei~~1192
▁desp~~12643
▁erforscht~~423
▁Bet~~4172
▁Bew~~5633
▁Ky~~13233
▁Ber~~6515
▁Bes~~2477
▁Kosm~~10060
gung~~8002
brachte~~10890
▁mächt~~4865
gegen~~11742
▁Bez~~11001
▁Kr~~1531
ocial~~17595
▁Arg~~11654
▁Allein~~12289
▁Einkauf~~2563
▁erzeugen~~4714
▁junger~~5100
▁Naturschutz~~1177
▁erlaubte~~10125
▁KB~~17375
▁skept~~15491
▁Orchester~~4688
▁Außen~~4868
▁beruhigen~~13300
▁Phasen~~15367
▁bank~~11837
▁Bakter~~11898
bing~~14130
▁KS~~15188
▁grand~~5309
lly~~17589
oßen~~713
▁look~~17339
viewer~~5260
▁voller~~3415
▁Tatsache~~8863
▁jur~~6671
icht~~284
▁industrial~~8266
▁Improv~~14621
▁begrenz~~9343
▁App~~6048
▁tägliche~~5909
One~~15292
beite~~11097
▁verschiedenen~~1164
▁Organisationen~~7665
▁bedeutete~~8041
geiz~~2614
▁he~~5164
▁Business~~12762
gangen~~10830
atik~~9129
ualität~~12386
atin~~15737
▁East~~14596
klasse~~2576
best~~6828
ativ~~4390
▁Kalk~~13714
▁zahl~~4235
▁verschiedener~~12143
onnected~~17799
▁Shakespeare~~3661
▁Vorschlag~~8349
▁Ozean~~204
▁Zigaret~~9263
iry~~15204
▁Initi~~16530
iften~~3691
▁zut~~13362
achläss~~17511
▁visuell~~12851
cke~~8172
▁reine~~12152
fach~~7067
▁ho~~9446
beziehen~~4532
▁Basis~~7442
▁einger~~7847
▁einges~~4116
▁einget~~7291
▁hilf~~12055
▁Privatsphäre~~13805
▁März~~5437
ckt~~1072
▁eingel~~13957
con~~12015
cks~~7396
▁eingeb~~4690
▁Sklaven~~13218
▁verdient~~12204
▁Ever~~10952
▁stap~~8537
▁Ausnahmen~~12255
▁star~~3859
▁All~~2348
stehen~~1430
ennung~~2858
▁Alb~~5761
▁gradu~~12059
▁Hudson~~9186
▁nachzudenken~~283
bring~~15075
▁stab~~15048
▁Angesicht~~13372
ktar~~12861
▁nochmals~~3084
▁Charles~~5611
▁Als~~1841
▁Alt~~6190
▁IDE~~15787
▁Anzeichen~~3153
▁rede~~7342
keys~~16800
▁Einkommen~~14917
behör~~10909
▁prü~~7493
▁Prozents~~16847
irk~~11992
▁Sprachen~~3204
▁prä~~1684
▁Sü~~11005
gewöhn~~6985
▁Muslim~~12331
izienz~~9622
▁ven~~18346
▁place~~18158
▁Völker~~5518
ierend~~7304
▁Base~~14430
ations~~419
pertoire~~12380
meter~~16204
▁kann~~443
▁Funktionsweise~~12846
▁Jäger~~13080
▁Daw~~10646
▁Publikum~~2962
reit~~6120
kreis~~3016
übergreif~~13192
▁kaputt~~1314
reis~~6108
▁moralischen~~3193
h~~1441
▁lifted~~13659
▁nichts~~98
reiz~~16953
feuer~~7031
reif~~5495
▁Bedarf~~10358
cr~~17566
▁Blick~~3604
reib~~9876
illing~~11444
ühner~~14599
ality~~14347
▁Freiheit~~1984
proben~~11599
ael~~9864
äch~~1327
ition~~1691
trauen~~3673
▁Kräfte~~4255
▁Anderen~~11662
▁direkt~~2147
▁Traur~~13049
▁Panik~~6967
▁bedarf~~11412
▁200.000~~6800
bte~~3972
recher~~12332
ftig~~10391
krä~~12618
packen~~6633
Pe~~9534
▁Library~~14423
isy~~16821
Ph~~11779
geführt~~9953
▁anti~~14199
Pl~~10277
▁Dig~~10702
▁ad~~15210
▁einzigen~~4165
zeichnet~~571
▁Bürgerkrieg~~12815
▁Singapur~~2197
PT~~9159
entlichen~~3603
wirk~~6185
▁Kreuz~~7208
menge~~10727
PA~~10326
▁Tesz~~18265
▁amb~~11512
▁Serie~~4698
zeichnen~~10218
ialog~~7602
▁Test~~2922
▁rig~~6600
▁einziges~~2757
▁einziger~~4321
▁Haare~~12410
ends~~7095
▁Kalorien~~5976
otton~~16664
▁behalf~~7760
▁Widerstand~~12326
▁einsetzen~~3993
le~~888
ende~~4780
awatt~~16186
▁freue~~11887
▁000~~3476
▁entsprechend~~8713
▁se~~5855
ets~~9047
▁hungrig~~5972
▁sa~~13534
▁etabl~~8231
▁sc~~2971
▁aufhalten~~8719
etz~~7341
zentr~~12809
▁lebendig~~4892
▁Barry~~11394
▁Operation~~6488
▁sh~~17314
▁sk~~3720
▁Unterhaltung~~7593
▁su~~13426
▁st~~609
voller~~7719
volles~~8694
▁sp~~2571
tle~~14738
ete~~11315
▁Elektroden~~3044
eth~~5727
▁sy~~13503
▁geschaffen~~2632
ck~~1175
ci~~1839
ch~~2247
co~~10083
Her~~3428
cl~~5663
cc~~12978
▁physische~~4925
ca~~14587
▁tatsäch~~17693
Hey~~7392
ce~~3659
cy~~9122
▁Schokolade~~7782
▁20.000~~10316
carbon~~10552
▁einzu~~7769
▁Beginnen~~6464
li~~13880
▁erläut~~5441
uch~~3279
Ges~~13312
Ger~~10340
gespräch~~14021
liegen~~4253
handlung~~4843
rient~~15335
▁professor~~16583
▁häus~~15562
▁Mandel~~16087
▁zählen~~2400
▁Potter~~15821
Gen~~4510
antas~~1331
älte~~6283
▁merken~~4528
▁West~~5155
▁Photos~~14477
rieren~~10417
ächtnis~~16874
▁Bedürfnisse~~7745
▁Gerüst~~11194
▁Weisheit~~7429
▁erlebt~~3500
▁Wege~~3072
ador~~13187
▁durchfü~~2942
▁2010~~9381
adow~~15115
eums~~12708
▁hingegen~~11743
▁vergeben~~12544
ktischen~~6844
ount~~6667
▁vierten~~10341
▁Phantom~~16799
legenen~~5709
▁Schizophrenie~~4822
ucks~~7547
▁Links~~11907
uckt~~6090
▁Kate~~16384
▁sorgt~~2226
▁Venezuela~~17024
▁Verletzung~~9301
▁Canadian~~17914
▁Dunk~~9396
▁geste~~7059
ammten~~7012
▁Asian~~17582
archie~~14656
va~~9281
▁Peru~~11555
▁aufrecht~~6154
ve~~9631
▁gesund~~6972
▁getroffen~~7981
▁veröffentlichte~~2781
▁split~~17203
▁fallen~~7439
▁Andrew~~9143
▁proportional~~2299
▁wärmer~~15140
▁Tiger~~9484
vo~~14054
▁Ivan~~17223
▁eigene~~475
idges~~16905
▁beteiligen~~10869
vy~~11749
▁führt~~36
▁Israeli~~5590
▁gesucht~~8417
▁inspirieren~~3672
isp~~16582
▁Gegend~~685
ER~~16291
Kopf~~15152
▁Hyper~~4946
▁vielerlei~~9727
greifen~~1238
▁Bewert~~2030
▁studiert~~6621
▁Time~~9192
▁erzählten~~3201
▁diagn~~18114
ball~~1725
▁organisiert~~1875
yon~~15263
▁Wass~~3914
iker~~3355
▁Stärken~~9100
ästhesie~~15220
ieben~~4920
▁beibringen~~2646
ieber~~15867
▁holen~~606
▁Little~~18130
iken~~4542
ikel~~7650
▁herum~~320
füllung~~14429
▁Jes~~16620
▁absolut~~6622
▁offensichtlich~~1530
▁Dra~~7520
▁pump~~17017
off~~3724
▁Marine~~5616
erer~~14992
▁wars~~11631
▁Treibhausgase~~11574
▁Anhänger~~13579
▁Inseln~~15531
▁Erstens~~1827
▁Göt~~6019
phal~~17072
▁warm~~6280
▁Demokratie~~3339
▁künstler~~3300
▁visuelle~~13285
▁Enkel~~9002
asso~~6783
▁warf~~8980
▁Karten~~548
bye~~16488
▁Dinge~~1613
less~~14187
▁aufzus~~4357
das~~9330
▁Jersey~~10997
▁schickten~~2446
llig~~5207
pflanz~~14591
▁erzählte~~3538
▁aufgewachsen~~5312
olph~~3765
▁Skala~~14921
▁Initiative~~6806
▁könnt~~9001
▁starkes~~11503
▁starker~~11346
weg~~7351
▁lern~~5380
▁natürlichen~~505
▁Stand~~7126
▁authent~~6366
▁24~~6529
▁Zelle~~10192
wel~~9267
▁durfte~~4641
wer~~3287
▁25~~3253
▁natürliches~~15894
▁natürlicher~~15890
▁Oxford~~7867
nten~~6017
krut~~4345
▁Stammes~~12764
▁starken~~2578
piel~~7732
dest~~1105
otograf~~16153
haut~~10766
▁erweitern~~6942
haus~~1003
▁Frühl~~14741
▁Gemeinsamkeit~~10668
▁Stille~~6296
▁ersetzen~~8920
▁erweitert~~13831
▁unzähl~~10282
▁lege~~15617
▁Kilometern~~871
▁Armee~~5598
▁Eames~~16216
osex~~14981
▁greif~~15073
▁zutief~~17978
▁Florida~~11179
▁CP~~16536
▁nu~~16347
oses~~5166
onnect~~15757
liebe~~6292
▁Störung~~14111
▁notwend~~8224
▁Tra~~5012
▁na~~5594
▁28~~8963
▁Tre~~8661
osen~~4653
▁Staats~~12414
▁verschwand~~13296
▁Tri~~4577
onnen~~11553
▁Tro~~1955
osed~~3767
▁verblüffend~~11245
▁beherr~~9232
▁Teen~~4726
▁Verbrauch~~8214
fluss~~10451
▁Ausdruck~~3360
▁dankbar~~11934
▁kop~~15678
▁angehen~~6632
▁Mathemat~~16007
▁Sound~~6429
▁fragile~~6736
▁Lar~~14335
▁Effekte~~4781
▁Cop~~11614
▁Budget~~5886
▁hatte~~1853
▁Lat~~15223
▁Elektron~~16396
▁jüng~~9572
▁vereinen~~13564
▁Bangladesh~~8960
▁Gehir~~16717
▁Vertrauen~~6727
▁Kommunikation~~5427
▁Lab~~4649
▁30.000~~14830
utions~~6015
rüstung~~12336
▁überhaupt~~421
▁entsetz~~6981
▁Lam~~10788
kriegen~~13552
▁dra~~10937
ometern~~3947
▁Trade~~14354
▁dre~~4368
zipl~~13115
ühren~~1313
▁beeinfl~~15112
▁rev~~14779
zeiten~~173
▁gestellt~~5916
▁grade~~14653
▁Symmet~~17051
▁Künstler~~3200
fahren~~589
▁Beispielen~~7583
ometers~~14843
stage~~13423
▁community~~18139
iced~~16428
▁irgendeinem~~4938
face~~15738
▁generieren~~1387
imedia~~14722
▁meinte~~7399
frastruktur~~11289
▁beizubringen~~4480
edy~~16855
▁änderte~~6104
mü~~3390
▁sogenannte~~4680
mö~~14484
kra~~14798
▁Cou~~10778
kre~~10483
▁surge~~18036
▁Schon~~2999
änomen~~15541
▁Viertel~~3474
▁Großteil~~137
▁Schok~~16796
fro~~7928
▁Nadine~~15944
▁sendet~~4763
läuft~~8973
▁Pas~~9924
▁Grön~~15143
ý~~16711
merk~~5655
lung~~6584
▁Beschreibung~~3683
▁Äng~~15092
▁senden~~4591
▁Kommen~~9575
▁kürzlich~~2879
läufe~~8544
▁Pan~~16948
merksam~~16345
▁poly~~10551
▁starb~~3556
▁Werbe~~10856
▁inter~~6049
▁Preise~~8130
▁stark~~2236
▁Pal~~5529
▁kon~~2691
psy~~16420
▁start~~14714
▁schwimmen~~5626
▁veget~~17661
iologie~~9603
▁Nachfrage~~7708
▁Fur~~16978
lant~~14419
▁umgeben~~5849
~~16076
▁erstmal~~4559
interest~~16634
▁Ernst~~1395
Well~~16991
▁flo~~14588
▁Prü~~2165
▁wirst~~5048
▁negativ~~12948
~~18388
Welt~~3795
äher~~6121
▁brave~~18260
~~16073
▁rob~~8778
¥~~17836
▁weise~~15457
¡~~18334
▁organs~~18049
▁1995~~12345
▁Bildung~~2378
­~~17826
®~~16813
▁Blut~~3015
©~~16614
▁Pac~~6818
▁weist~~12145
°~~3923
▁verborgen~~179
▁durchführen~~8969
▁Blue~~9383
▁nirgendwo~~2620
▁Gespräche~~12560
etzte~~6390
▁lar~~17918
▁Wind~~3925
treten~~4260
▁Küsten~~6785
iny~~16834
inz~~9900
▁lau~~7727
int~~10324
▁lebensl~~7409
▁winzige~~14107
ins~~8496
▁lab~~18256
inn~~709
ino~~8236
▁lag~~4463
▁ihm~~223
ind~~963
ine~~679
ing~~366
ina~~5435
treter~~7918
inc~~9813
▁Akadem~~6471
oppelte~~7220
▁au~~17735
▁versorgen~~503
▁Verstand~~3006
▁Dalai~~12275
▁Monterey~~15404
▁Konfl~~17870
ments~~15275
▁jenseits~~5885
▁berühren~~10251
▁Konferenz~~10334
▁stammt~~9742
▁riskieren~~9624
▁korrig~~2793
CA~~11708
▁21.~~2835
▁Ik~~11690
▁Haupt~~3831
▁Zufriedenheit~~4493
▁In~~180
▁Im~~920
▁Recher~~10905
anschau~~3137
▁Yale~~15267
▁deut~~2434
plomat~~14411
▁Id~~1539
U~~1272
▁Is~~2825
▁Ir~~4044
▁Saul~~15485
▁Rechen~~12845
▁erzä~~11883
▁It~~15120
▁IK~~17125
▁Interesse~~2149
▁II~~7859
▁beispiel~~14001
▁Schule~~1466
▁herk~~13464
athol~~11996
▁here~~14896
▁Schöne~~13557
▁bedroh~~13399
▁part~~13106
▁bringe~~13373
▁park~~17646
▁erfassen~~2225
bridge~~18323
▁wahrnehmen~~6399
▁hinterher~~7753
▁IQ~~4667
▁IP~~2777
tten~~3069
▁ersch~~67
▁herr~~2252
inning~~17085
▁Gang~~10105
▁Black~~8521
▁tendieren~~11763
▁produziert~~916
cial~~14999
▁gerade~~117
▁Aufbau~~13198
▁graph~~10747
äumen~~14303
ikon~~13795
▁strateg~~8330
▁Collider~~17614
▁Panbanisha~~18188
▁Jul~~15098
ields~~17186
arfen~~6422
▁nehme~~10742
▁tritt~~642
ali~~13637
farben~~13962
▁Explosion~~14356
▁unteren~~2394
..~~11404
▁enthü~~9885
▁Berechnung~~12594
erechtigkeit~~16895
▁eigener~~10406
worth~~14915
▁Zehn~~4274
▁2007,~~9154
▁erwischt~~4218
▁Schwein~~11124
▁keinerlei~~5282
ösen~~1198
artiger~~14292
▁verpassen~~10652
▁Kingdom~~15109
▁determ~~14109
▁Ressourcen~~2677
▁Schweiz~~10845
uum~~12219
▁Smart~~15686
ynam~~11231
▁Schokol~~15321
▁hint~~7877
▁Gore~~14216
gebra~~10765
▁öffnen~~4343
gesetz~~14296
▁Austausch~~12906
▁red~~12294
▁Dumm~~1578
▁faszinierend~~9530
▁öffnet~~7535
▁hing~~7376
▁Februar~~6799
▁rings~~15777
▁Angelika~~15183
▁züchten~~10162
▁Großen~~10722
▁marriage~~17335
▁hervorra~~2262
▁Interpret~~9867
▁hink~~13780
▁unvor~~5889
▁Zä~~15451
cher~~5126
ches~~10724
igent~~9928
▁Bereich~~1260
umpe~~16338
phones~~15687
▁Arist~~17536
▁formen~~3138
▁Eden~~16605
horn~~9863
▁bede~~3982
▁Widerstands~~12366
▁Brand~~170
igend~~4122
chen~~953
iting~~15865
spect~~9664
chem~~10533
▁Kas~~15761
▁Führungsp~~1924
▁Resultate~~7121
▁impression~~16670
▁Von~~1365
▁okay~~3640
▁Vom~~7408
üp~~16522
▁versetzt~~3226
ür~~4119
üs~~6203
üm~~9023
ün~~3407
▁zurückgehen~~12766
▁Vor~~2070
▁kalt~~821
üd~~15469
▁Führungsk~~7709
▁Koralle~~11085
üb~~7481
▁Voy~~10078
▁chaot~~13768
▁aufgestellt~~8443
▁Corn~~13878
ikanern~~10319
spunkt~~9982
▁freundlich~~6293
▁unsere~~1342
▁Gebäude~~3708
▁Wolf~~11285
▁standard~~9786
▁arbeit~~2123
owntown~~15237
▁fertig~~4124
menschen~~15869
▁fühlen~~1743
▁ärm~~12627
schiff~~14694
▁Lös~~13984
▁Europe~~17784
▁studieren~~2821
▁enden~~6888
▁hervor~~2272
▁intro~~14033
gle~~7991
aku~~12024
akt~~6011
▁Energie~~738
▁Mes~~15918
▁Tiefe~~12
▁endet~~5065
▁beiget~~16635
stoff~~2167
aka~~8268
▁sexy~~8562
ake~~1857
▁Abhängigkeit~~6119
frast~~14097
mail~~14016
ix~~7937
▁heutigen~~2095
vasive~~16480
▁level~~18215
▁wä~~4223
bro~~14841
▁popular~~18146
▁plan~~13731
▁wü~~4089
bre~~10505
▁Stör~~11306
bra~~10511
▁Eve~~3650
▁hatten~~656
▁reb~~18270
▁Fach~~2131
▁akt~~4630
▁komplexe~~804
riffen~~16028
▁Face~~15708
▁Persp~~5030
▁technisch~~14287
▁Pre~~8175
▁sollten~~4281
▁gewonnen~~1891
⁄~~8574
▁Ängste~~14925
come~~16303
▁schlimmste~~10331
▁erweit~~15065
plom~~14752
lymp~~15598
▁Tsch~~7885
▁Tonnen~~8204
▁Einheiten~~7671
▁stieg~~8426
▁Konzentration~~5848
▁Unternehmens~~14226
▁Muster~~11294
▁Cat~~17569
▁gemacht~~34
▁adopt~~15822
▁Schlagze~~11378
▁Entfernung~~977
aufnahme~~10261
yard~~16807
▁eingesetzt~~5212
▁klingen~~3733
ert~~2275
▁edit~~17259
erv~~6548
▁Voice~~17319
err~~4242
ers~~1925
▁alltäglichen~~6605
▁Bere~~8117
erd~~6536
ere~~878
erg~~2699
wort~~11960
era~~13686
▁qu~~1372
erc~~15993
stellte~~11354
erm~~6243
ern~~52
▁Sklaverei~~13238
▁legen~~1381
▁Wur~~8952
▁versteckt~~9201
▁finanziellen~~11267
illiard~~3949
▁Schleimp~~18345
▁Schlacht~~7582
ither~~15088
▁verteilen~~6021
▁öfter~~11271
▁Sonnensystem~~10072
▁Werkzeugen~~13978
▁When~~16701
▁Literatur~~3669
ounds~~17389
ual~~2330
▁plat~~11760
▁ehemal~~9809
gede~~12139
▁abläuft~~8315
vert~~10155
▁Fra~~9847
emand~~16840
▁Star~~4553
pruch~~15504
▁Fre~~1761
▁Stau~~8573
▁flexible~~10872
▁verschl~~13890
▁Sit~~4586
ische~~983
ötzlich~~15911
▁Fro~~15771
▁Sir~~7707
▁Sim~~13441
▁Sil~~8423
▁Sin~~1147
▁Stad~~6130
kehren~~13748
▁instrument~~16560
▁Sie~~226
ischt~~9905
▁Stan~~16128
▁entw~~6384
lan~~5822
utzer~~16012
bares~~3895
barer~~5997
ateur~~4654
▁wählen~~2621
lag~~2736
▁Wander~~11839
▁Chris~~4010
iftung~~13521
▁skelet~~18326
▁gen~~1913
▁Kurzem~~13093
▁bewir~~5111
baren~~2721
arch~~3242
lar~~15739
las~~8536
orden~~12825
▁did~~17048
ican~~11621
▁Schulden~~13125
▁gut~~1060
▁erstellt~~10040
stru~~15104
▁Linie~~5370
▁Könnten~~9959
ical~~6872
▁Portug~~17188
▁religiös~~4277
vere~~16574
stra~~1526
▁Dialog~~11656
▁Ärger~~4384
stre~~1071
▁stammen~~11081
neid~~13675
ichert~~9593
zed~~17868
▁Zum~~1675
nete~~3403
zen~~937
▁betonen~~14180
▁entz~~7032
zer~~4120
zes~~15577
zep~~11827
▁verblüff~~15426
ichere~~15766
netz~~5825
ompl~~14120
▁gewinnen~~355
▁lernt~~7470
ichern~~13176
▁Visualisierung~~12156
ktoren~~2664
▁Premierminister~~12017
▁Fleck~~3037
▁entf~~7228
aktere~~11655
onna~~9861
▁Genome~~14908
tragen~~9746
▁Irland~~9220
▁verstecken~~1750
▁analyt~~14067
▁kilometer~~9551
▁Zuf~~5759
▁äuß~~6341
udenten~~4364
then~~6661
▁hilft~~6188
▁herrscht~~2641
▁filmen~~14515
▁Är~~6531
▁kil~~15720
▁Zellen~~6563
▁Ehemann~~5591
▁anatom~~11357
▁meinten~~8541
bane~~6174
band~~979
forscht~~212
▁analys~~12100
▁vergessen~~395
ights~~14579
▁Thun~~9204
ther~~625
bank~~10930
▁wur~~9158
▁position~~13673
▁Viet~~17859
artigkeit~~15881
▁Kent~~14436
▁4,000~~17873
l~~1995
▁Scott~~5225
▁schließt~~11047
▁Arzt~~7433
▁Schachtel~~10768
usste~~12231
▁Opt~~14482
▁DARPA~~11148
▁Kreaturen~~481
dings~~15682
▁enth~~3594
▁Fundament~~11999
▁Lücke~~2209
▁McK~~14726
schlossen~~7264
▁sit~~13417
▁McG~~4469
▁har~~16313
▁McC~~7460
▁sir~~18269
▁agieren~~8303
▁sil~~3986
▁sin~~17636
▁angewiesen~~8183
▁merkt~~10666
▁sie~~106
▁install~~1533
▁traff~~17495
üte~~1970
nutzung~~12537
▁Plötzlich~~5475
▁femin~~13435
▁Julian~~11643
▁letz~~1269
▁series~~18307
ografische~~6114
oug~~17131
▁Jewish~~18212
piece~~17425
▁Wissenschaftler~~499
▁anfangen~~836
stellung~~2763
▁Sinne~~3095
ütz~~4414
▁ermöglich~~5246
▁Within~~9014
▁Gefühle~~5385
ulations~~13452
ublik~~5231
▁Gemü~~15044
▁interviewed~~18150
▁Ökologie~~11636
▁Amerika~~3790
standard~~2094
▁Service~~6475
▁intens~~6606
▁Reich~~6037
arks~~15923
nte~~10114
▁Zer~~11074
▁Hinter~~6047
ange~~5399
▁Exper~~12284
corn~~14166
▁Caltech~~14878
▁anhand~~4708
▁umge~~5381
▁wobei~~9393
ohlen~~13901
▁hinweg~~2688
▁Exped~~9442
▁club~~17176
▁Höhe~~557
▁möchte~~227
▁la~~3727
rench~~17896
▁Freundes~~14611
▁le~~877
▁Inte~~8292
▁Nährstoffe~~13900
▁qualif~~11268
▁landete~~7555
▁47~~14458
▁langfristige~~14191
iße~~688
▁initi~~11917
▁Telesk~~15571
▁water~~17932
▁Organe~~11561
▁Innov~~1927
▁aufeinander~~7711
ißt~~8912
▁Hausaufgaben~~8529
zess~~14507
▁Abweich~~9668
▁Kur~~6413
aire~~3332
▁kollabor~~13419
erget~~18047
▁Herzinfarkt~~15642
raten~~7352
ingen~~2885
airo~~16695
inger~~8953
▁Oprah~~16084
▁Kub~~9376
▁Spitze~~2912
▁Meinungen~~11786
▁lehrte~~10732
▁Verkauf~~6083
▁Schaffen~~10858
▁verring~~17490
▁Angriff~~7607
B~~1194
▁adoles~~15021
▁Umlauf~~10082
nahm~~6165
▁Plattform~~8339
▁Interessantes~~12471
▁Apart~~9544
Inter~~6833
Auf~~8606
▁geblieben~~6999
weichen~~7100
▁Ehre~~3365
▁musst~~1546
▁virtual~~17696
▁Unterschiede~~2598
outhern~~15856
dy~~11031
ators~~10245
▁Romant~~14984
▁betreffen~~12238
▁UV~~9862
▁LHC~~15528
kte~~5112
▁900~~2832
▁verursachen~~3078
▁10,000~~17202
▁tanzen~~1664
ismen~~8752
fold~~16722
okraten~~16502
▁neugierig~~9922
▁Ko~~10243
▁folgen~~1545
▁TEDWomen~~7288
strafe~~14355
▁Veränderung~~1883
▁Afghanistan~~7204
▁wenigstens~~6287
▁Konvers~~14721
▁Pferde~~5881
▁angesch~~8087
laden~~1977
ldern~~209
▁Ihrem~~1734
ichteten~~12727
▁irre~~10438
▁Ke~~1184
▁vernachläss~~3384
▁markieren~~6921
▁Ihres~~6496
▁Ihrer~~1932
ype~~17214
gien~~7758
▁Geräusche~~9409
▁speziell~~5285
▁Bevölker~~10242
Wenn~~3782
▁folgten~~13506
gence~~16090
Qu~~9428
bruch~~700
▁Lern~~2234
▁Roman~~10671
▁Chemie~~2943
▁Molekü~~8859
▁verpflich~~13109
▁Mond~~6659
▁divid~~18185
rator~~10769
away~~16729
programm~~12800
▁Mäusen~~8820
▁Bek~~6022
ological~~16046
▁drucken~~14753
rengung~~17943
ierer~~14331
▁schwer~~2049
▁Anst~~12954
▁passieren~~1442
▁Moder~~5289
▁Nahrungs~~5913
▁United~~15108
▁Mühe~~7209
▁Saturday~~16519
▁Qualität~~2305
▁redete~~14062
▁Ign~~17572
ative~~2652
▁Neuigkeiten~~4617
▁100~~1455
▁Argument~~4040
ieren~~391
▁Kraft~~3364
▁Zip~~17096
▁zu~~38
▁Zit~~9057
▁entsteht~~982
▁Schriftsteller~~10697
mittel~~10144
▁schwierigsten~~7271
▁Blumen~~5596
▁Worte~~4856
▁gespannt~~6901
pielen~~4734
▁Ku~~12970
▁release~~17993
▁Jeff~~14075
▁Zie~~11063
▁angewendet~~7685
▁ungewöhnliche~~4939
ober~~10295
itten~~6378
▁restlichen~~10158
hry~~7594
▁gemessen~~3948
hrt~~9319
▁experimentieren~~4851
aced~~17639
version~~11717
oose~~14605
▁woran~~8665
sehen~~2666
▁diverse~~17230
▁Gesichtsaus~~12448
▁Vieh~~11559
eiden~~9963
▁PH~~14877
▁Cloud~~9268
▁Op~~3102
▁Os~~16691
▁Or~~5122
▁Bil~~11871
▁psychologische~~12296
▁Bin~~7601
▁Bio~~715
▁private~~14683
▁Oz~~3617
▁TEDTalks~~14050
▁Big~~9173
▁way~~17767
▁Ob~~3166
▁Od~~16453
reuung~~9763
▁David~~4
▁Oh~~794
▁Kreativität~~1375
du~~5272
dr~~7896
ds~~2233
▁Probe~~4430
eme~~9019
▁OP~~12470
▁Unterdrück~~12321
▁beeinflusst~~2810
ema~~11886
▁kommer~~10793
anzt~~6505
▁versus~~14711
ubringen~~14213
▁informieren~~11235
▁Einzelnen~~6767
stead~~18123
anze~~15629
▁Außer~~10749
▁Industrie~~1888
▁kommen~~468
▁OK~~4033
▁hell~~10790
▁integrieren~~9661
▁sinkt~~11277
▁Hero~~4725
innt~~11895
llekt~~16735
▁Here~~15063
▁horizont~~16261
etics~~11127
icle~~16221
▁Mitgefühls~~9287
linien~~13704
inne~~15853
▁kommt~~740
▁Herz~~3622
▁Portugal~~2496
▁area~~18351
▁Herr~~10637
▁Richtung~~2483
eres~~6937
▁true~~17533
▁einher~~2139
atur~~974
atus~~15042
▁gerichtet~~14413
▁intuit~~5391
▁Bereichen~~854
▁Zent~~464
▁redu~~13499
▁Tahrir~~16689
▁möchten~~9650
▁States~~15888
ered~~16708
▁biom~~15437
▁Newton~~11801
erei~~1987
eren~~710
▁Harlem~~7300
icer~~12879
we~~3263
wa~~14089
ortun~~17226
wo~~5716
wn~~15013
▁Fischerei~~6832
ungsmittel~~15419
▁2005,~~14760
▁belieb~~6113
ffekt~~4665
leute~~14635
▁indigen~~13516
wr~~14541
▁KT~~17974
▁Power~~14759
▁aufstehen~~4567
▁Strasse~~7109
ild~~3656
ile~~293
▁somit~~2659
▁Berge~~558
ill~~5165
ilm~~7964
probleme~~11967
kommen~~704
▁zweif~~6696
ätigkeit~~10926
ilt~~10371
▁Gott~~1406
ils~~4772
▁Allerdings~~11291
arians~~17385
▁entr~~15071
com~~9171
col~~11298
▁Evan~~6270
bral~~4966
▁Herausforderung~~1951
▁Oft~~4426
▁Hins~~5332
iche~~3002
▁Kuchen~~6142
Par~~14555
▁teilzunehmen~~4346
▁Hind~~13819
▁wirken~~8144
zierte~~2600
▁Off~~7704
▁3000~~13619
▁einnehmen~~8345
▁fas~~7494
▁spaghetti~~15909
▁bewiesen~~9787
▁fal~~10262
▁mail~~16784
▁manip~~14881
mmer~~9597
▁pun~~11523
▁Formen~~394
identen~~13210
▁fan~~16976
schluss~~4660
▁Buff~~14135
▁glücklich~~1813
▁Ungefähr~~5197
▁Figuren~~9907
▁Schließlich~~7479
▁dahinter~~7189
▁champ~~13646
▁Amazonas~~13152
▁Bruder~~7346
onieren~~13806
▁ausgestattet~~9297
▁Respekt~~5561
▁lebten~~7069
▁assozi~~12101
▁cycle~~18373
baum~~10121
▁Konzept~~1169
▁handle~~17554
▁Recht~~3510
baut~~6227
boden~~5352
▁Cola~~4307
▁Beziehung~~5038
baus~~10046
▁Coll~~14163
▁ter~~16655
istenz~~7980
▁crazy~~17334
▁Schülern~~2422
▁son~~13062
ident~~12014
▁steckt~~2292
▁erklärte~~5450
ait~~16063
▁heran~~472
▁komplizierter~~6546
▁investieren~~5800
air~~11671
aim~~14470
ail~~5838
oes~~15121
ain~~9776
▁Damen~~7241
▁ze~~10237
▁Takt~~7210
▁Frauen~~2441
▁Moment~~1481
aid~~17063
reme~~12896
▁Gegensatz~~3441
izabeth~~17886
▁herab~~8925
iegt~~8064
▁dagegen~~6492
▁französische~~10707
▁jud~~16451
cond~~17956
xy~~11873
acheln~~8543
▁sympt~~6589
▁diese~~216
▁Swiss~~17673
▁leid~~3857
wissenschaften~~9698
▁Janu~~14627
▁jug~~17579
▁Hühn~~10519
inging~~17493
▁Werkzeuge~~6443
▁Zykl~~1130
▁Zwei~~870
▁China~~7899
▁Nevada~~14573
oenix~~16789
▁Jane~~3628
▁ain~~17350
.]~~9966
▁buchstäblich~~3033
▁Jahrzehnten~~7155
▁Nachdenken~~13140
▁Schwestern~~3541
▁Applaus~~4954
▁Auffassung~~1300
Zeit~~9045
▁redet~~4581
verkehr~~11748
hang~~10998
▁Philipp~~5753
hand~~2090
▁arro~~12572
▁reden~~2054
▁Babies~~1355
▁Gefahr~~7406
▁stick~~15740
Y~~4684
nis~~5190
▁nette~~13807
felder~~14800
▁Wellen~~169
▁verfol~~11844
iste~~7297
▁wh~~16258
▁Normalerweise~~789
▁bevor~~1596
kept~~11330
▁wo~~60
▁Materie~~13376
▁Herbst~~12717
▁oder~~150
▁Erkenntnis~~5406
▁we~~5273
eps~~14318
gekommen~~5142
▁Rebe~~15673
firmen~~14889
▁Speicher~~15174
▁ox~~15405
▁1980~~8221
▁Kurse~~9531
the~~10917
▁wr~~17206
▁1984~~8209
▁Innovation~~1261
▁heterosex~~14980
▁höchste~~10356
▁geist~~4835
▁Auswahl~~3393
▁Chinas~~8279
▁Skl~~16721
▁überrascht~~3693
▁Ski~~1778
▁alternative~~9701
gebiet~~6790
onse~~16899
▁Sichtweise~~5382
▁loswerden~~10833
▁Über~~2485
▁beschreiben~~3685
anter~~6050
ktop~~15683
▁nachts~~5468
ktor~~2725
▁Liberia~~12333
weist~~10515
▁Miss~~7293
▁Militär~~2921
▁Mist~~11815
▁spaz~~9153
▁Progn~~13898
ists~~12483
board~~13412
▁Viele~~2465
▁gere~~10385
weise~~611
kton~~5823
▁Intellekt~~12277
anten~~2246
ienen~~3692
▁ober~~12714
▁damal~~15803
▁Asien~~2198
▁startete~~13144
▁glück~~7892
▁innen~~10809
▁Friedman~~9569
cho~~11021
▁Tö~~12334
▁urban~~12747
▁erkannte~~10454
▁zurückzukehren~~8228
cape~~3580
▁Praxis~~9842
▁Zentral~~6635
▁hohem~~2322
▁Martin~~6269
▁hohen~~1668
▁muslimischen~~12295
▁Leber~~14601
zel~~16262
▁wuchs~~7298
▁Eth~~11214
▁überwält~~11814
▁ol~~16644
Bü~~12553
▁entde~~16944
night~~14261
▁Mach~~4644
▁on~~15672
kosten~~7062
▁Präsentation~~9174
▁Begle~~11804
▁hät~~7922
bees~~18071
▁Einstein~~9796
bors~~16125
▁Bericht~~1294
▁dauern~~7120
born~~10611
öglichkeit~~15526
▁Reformen~~8158
▁dauert~~832
▁Diagram~~15597
omics~~14279
▁Mücken~~12889
▁Kok~~15833
▁falsche~~7165
▁jähr~~2794
ykl~~8433
belie~~14425
asking~~15432
▁wahnsinn~~16300
▁Vorhersagen~~14533
▁happiness~~18183
iguren~~11891
stitution~~1389
ließlich~~17477
▁aktiv~~1075
▁schick~~12988
▁zentralen~~6925
▁Feed~~15863
▁for~~5009
bricht~~9669
▁Forschern~~11345
▁Demokraten~~11609
andelt~~10536
▁Einfach~~1159
phen~~9768
▁zusätzlich~~13833
andeln~~4944
▁Amanda~~7889
▁Sadd~~9704
phet~~12355
▁fol~~11653
▁Gesellschaft~~1211
bahn~~2336
▁hergestellt~~5737
rote~~14473
▁FO~~18338
▁wette~~3469
obi~~12155
regung~~3099
obe~~13571
▁scheit~~12193
▁Medium~~5326
▁Tieren~~326
▁schein~~15882
etzung~~12814
▁Ego~~14204
▁schnellsten~~15906
obs~~13052
oten~~1651
▁substant~~15410
▁drif~~16011
ola~~13016
▁remix~~11676
▁suchte~~1465
▁verdoppelt~~8346
▁Präsent~~14234
▁bran~~17561
▁Strang~~13391
▁denken~~1242
▁drit~~12320
▁Glob~~7007
▁Leder~~12599
▁wieder~~669
▁Cartoons~~13297
oter~~9203
otes~~12880
wan~~14940
▁Boot~~3507
▁Mat~~3545
▁Mas~~4696
▁Mar~~254
üre~~13996
▁zunehmend~~3176
▁lügen~~7588
ilosoph~~13875
▁May~~11310
▁Max~~3862
▁Mag~~666
▁Mad~~10663
▁Mac~~10708
▁befand~~2392
ürt~~12637
▁Man~~424
▁Mal~~986
was~~11499
war~~11159
▁geschossen~~13078
▁Mah~~7875
▁Minute~~4485
▁ausger~~6956
▁Re~~1695
▁Kapit~~5614
▁Tausend~~11061
▁Harmonie~~12379
▁Geburtstag~~3293
imate~~15603
▁mochte~~2403
iking~~16448
▁Rh~~9451
bereit~~8006
▁Subst~~15418
▁ausgeb~~6525
▁Ru~~12676
rauch~~14055
▁Data~~16411
griffen~~2675
▁ausged~~13729
▁legisl~~15851
artige~~6646
▁Position~~9257
▁ausgel~~6962
▁RG~~9604
gewalt~~14625
▁transparent~~7695
▁letztes~~6502
▁letzter~~2773
emin~~5814
▁Nächstes~~10380
▁RL~~16686
anen~~14648
▁Belohnung~~8609
▁gebildet~~7883
▁Wiederauf~~12534
anes~~13204
gemacht~~6449
▁arabischen~~14064
▁Intens~~4149
izers~~17898
▁porn~~16214
▁letzten~~851
cko~~17114
▁schools~~17164
▁simple~~5426
öscht~~6963
▁Mobiltelef~~12576
ffiti~~15703
▁2,000~~13703
▁Tans~~17797
▁Gespr~~15118
▁ther~~16341
held~~16437
wohnheiten~~12668
▁Gelegenheit~~3660
ampag~~7110
▁große~~976
▁Canada~~13987
dach~~5345
▁frühen~~8712
▁Stattdessen~~10188
▁teurer~~2388
▁schlicht~~14106
▁Gleichgewicht~~11931
▁port~~17148
wär~~10428
test~~7501
▁spezifische~~13313
▁old~~17174
▁Bond~~17028
▁früher~~6566
▁lachen~~1747
▁Motorrad~~7755
▁akzeptiert~~4197
zeital~~6086
ianische~~12399
▁kurzen~~1881
▁kurzem~~3537
▁Taiwan~~12003
▁Insel~~5710
▁assist~~18055
▁kurzes~~1790
▁kurzer~~13492
▁Echtzeit~~2973
ktive~~1947
ropolitan~~14015
▁Diagn~~12834
äfte~~17410
▁Heute~~2000
▁durchzuführen~~2920
itude~~16472
for~~13789
▁Güte~~10597
▁unglaubliche~~1126
▁Krist~~6642
zesse~~16036
▁beginnt~~4769
etzt~~1035
▁typ~~7182
▁umgekehrt~~5575
ules~~16947
▁export~~14786
▁Rezession~~14196
▁hielten~~7349
▁sky~~17195
▁Verständnis~~3229
0~~8278
▁uner~~211
▁nehmen~~510
iologen~~11249
▁Auf~~683
▁Aud~~14578
▁begeistert~~3992
▁unmittelbar~~5412
▁Letzt~~13727
▁unem~~1704
▁Aut~~1518
▁Aus~~1209
▁Aur~~16255
▁Anruf~~9074
▁aufgefallen~~4531
▁Gegen~~8353
zone~~6865
jahre~~2208
▁them~~11659
▁fair~~11710
▁stolz~~9997
▁Falls~~1352
▁Algorith~~17949
rhythm~~17716
▁Oze~~14010
▁Vereinten~~6746
▁jetzt~~1206
aland~~18037
▁Geduld~~8399
▁kulturellen~~3703
▁schwieriger~~1178
▁Pick~~15202
▁Dynam~~16283
▁Letz~~6222
blase~~15484
▁herkommen~~5589
▁vorbereitet~~2215
▁Ale~~16908
fol~~7085
▁Schicht~~9881
Tech~~14247
▁Alf~~12724
▁Liebe~~4487
ändler~~5867
▁warum~~1074
▁gold~~16089
▁Stunde~~4079
▁golf~~17726
▁Liebl~~288
hington~~14580
sätz~~11050
▁Isol~~14125
umn~~13834
▁Agency~~11093
gue~~16349
▁schwierigen~~7259
Global~~11834
▁Alz~~15466
▁nochmal~~3819
p~~1478
▁KA~~17374
orld~~15206
gut~~5688
selben~~14606
ault~~17721
▁ton~~18331
▁Gesetz~~10563
iolumines~~371
renzen~~3203
hte~~2418
revolution~~1935
usammen~~7600
▁unterhalb~~5674
▁25,~~16681
ekte~~8708
▁beinhal~~15949
schaffung~~16893
▁unterhalt~~11914
▁entfern~~13479
▁ignorieren~~10641
unklen~~14859
▁250~~9586
▁Zoo~~16267
▁Blasen~~12241
ingenommen~~12262
▁Abwasser~~14615
uppen~~15248
ereien~~3169
▁traur~~1282
▁Love~~3645
uert~~2544
▁Teufels~~12854
▁arm~~8138
▁Forschung~~4017
▁Märkte~~6210
▁befreien~~5654
▁MBA~~7850
▁inne~~11469
▁besser~~1524
▁fort~~2081
öch~~3239
▁Schm~~9529
▁Refle~~15835
▁art~~3498
▁Beinen~~4156
▁Bor~~12888
▁Haw~~15494
▁Hat~~4624
▁Har~~3651
▁Bow~~12392
▁Bot~~5605
gener~~7463
▁Boy~~14228
▁Manager~~10757
▁wechseln~~4454
▁Hay~~10047
▁Bob~~5219
▁zurecht~~5141
▁Atomen~~13697
▁Hab~~13770
riere~~10898
▁Mi~~12029
▁Han~~14400
ersterblichkeit~~13629
▁Me~~6480
▁Ham~~11004
▁Mc~~7464
bevölkerung~~8718
▁Bol~~1495
▁Hai~~3495
▁Venter~~11201
▁Jar~~14939
buch~~9099
▁soweit~~5994
▁Durchschnitts~~11527
▁während~~2935
▁Absch~~12897
▁che~~9527
▁MS~~15509
▁Profil~~8375
▁MP~~5328
▁MO~~15282
▁hinge~~703
sprechend~~3850
▁verhalten~~1243
möglich~~14929
▁Batterie~~14480
▁America~~15477
ekt~~5031
▁dennoch~~2484
alente~~13606
▁geschl~~6111
hnte~~5717
▁packen~~2960
▁Zell~~7820
▁harm~~6533
▁Großbritann~~12699
▁Mountain~~1920
▁Zelt~~10359
▁Held~~10993
▁hart~~1754
uzz~~12481
▁verschieben~~16576
cies~~18013
▁Hell~~10791
▁Papa~~7330
uchten~~5546
leuchten~~3662
rücke~~6572
▁dimension~~17617
▁Betrachter~~13726
▁Betrachten~~12256
▁mix~~17009
▁atmosph~~2742
▁größtenteils~~13245
▁Jemen~~17135
▁bedeutend~~9886
riert~~10508
▁Umwelt~~4877
▁Richtlinien~~9595
onomen~~17227
▁löschen~~7700
▁trotzdem~~2860
▁Ev~~10947
▁verantwort~~10927
gly~~18016
yrus~~10458
▁zurückge~~12348
▁fasziniert~~9092
▁Brenn~~5974
acles~~18367
▁essent~~11641
▁Afrikas~~7153
▁erkannt~~6808
ibl~~10866
▁komplexen~~5157
car~~6669
ißen~~1834
decken~~9918
ibe~~3927
abyte~~16471
zeugen~~12039
can~~10464
cam~~15403
▁plast~~5895
▁Eigentum~~7309
▁fokussieren~~10461
trans~~5255
ibt~~7612
▁benutz~~16290
vater~~10714
▁Prinzip~~3382
spr~~5949
ione~~10080
▁systemat~~4467
sph~~11617
▁Materialien~~3963
▁historischen~~9380
▁Edin~~17250
▁ankommen~~541
spe~~6698
zeera~~18105
▁Grupp~~12781
▁Methoden~~2633
▁Ironie~~3231
▁hat~~96
▁hau~~15729
,"~~4386
▁has~~12384
▁machte~~3223
▁Kosov~~16571
▁Proz~~1542
▁make~~13652
▁emotion~~15114
▁instr~~17664
▁Hillis~~16767
▁Verwand~~12338
▁had~~18353
▁Middle~~10953
▁hab~~1250
œ~~17746
▁Princ~~18306
▁hal~~10373
▁ham~~16042
▁Solarzellen~~13702
▁Sebast~~16832
astroph~~15782
▁Konzert~~12018
▁Gewe~~1227
▁Cont~~15045
▁Cons~~6873
adel~~11802
▁able~~12260
▁Griechen~~13081
▁verwe~~7787
▁herbe~~9006
▁überqueren~~539
▁erfand~~14071
▁Cong~~14784
▁zweites~~11689
alyst~~16433
?"~~1479
▁Vernunft~~8019
Warum~~4084
▁Deb~~12718
▁Dec~~16857
▁Den~~908
▁teilt~~2452
▁Del~~11521
▁Dem~~3870
▁Dek~~7024
▁Dev~~8316
▁überraschend~~1319
▁Det~~15655
▁Der~~136
▁Des~~1143
▁Dep~~10038
lichste~~8408
ores~~14278
▁Dez~~17231
kurs~~6930
endet~~5249
Druck~~10253
endes~~1423
ender~~1215
itiven~~12112
ämp~~17406
aked~~17201
ities~~5431
▁rück~~10143
ssystem~~1267
coln~~15967
Re~~3887
Chr~~13488
▁Fliegen~~2923
▁kombiniert~~13490
▁Klavier~~12924
onien~~12372
enden~~823
▁grundlegende~~2431
ular~~7677
▁entdeckten~~3274
▁Chile~~2205
▁Child~~12521
lied~~12383
enne~~7871
▁Wachstum~~8275
▁toll~~1013
▁Lasst~~10911
▁schauen~~161
▁physikal~~9227
fäll~~3751
▁neck~~17947
▁Bots~~16830
RA~~15142
▁Chines~~7931
▁infiziert~~1203
ektive~~3439
RI~~13307
▁food~~17808
▁mathematischen~~13138
▁legal~~12240
tschaften~~8122
▁gekommen~~711
rümm~~10220
halt~~5775
▁Ausgaben~~2300
▁Wund~~14073
sproblem~~10924
▁darstellt~~6178
halb~~7108
▁Grenze~~231
half~~16228
▁kritischen~~3481
chnolog~~3904
nov~~13527
▁Anstrengung~~7071
▁Bra~~10763
hall~~13200
lier~~11406
▁ut~~6179
itze~~11968
▁ur~~6173
spielen~~7390
▁zerstören~~1103
▁lokalen~~6595
▁Opfer~~7780
▁einfallen~~10903
▁Rauschen~~10216
▁geschenkt~~13235
▁Angeb~~9588
▁Würden~~2549
itzt~~9313
▁Volks~~12655
▁Traditionen~~12313
▁un~~1559
▁um~~241
spieler~~4472
▁Angel~~10425
▁Wirtschaft~~1208
em~~636
▁beruf~~2345
en~~915
eh~~7340
igkeiten~~4825
▁happy~~18064
ee~~6784
ed~~5807
ef~~5656
▁Kabel~~6535
▁beruh~~10455
▁bekämpfen~~8888
▁entsprechen~~3038
ex~~8510
▁gegeben~~4160
▁puff~~15523
eu~~17905
et~~466
ophys~~13161
ep~~6220
es~~682
er~~1091
▁bauen~~6153
▁geworden~~1403
space~~9097
`~~17881
▁elektr~~5269
▁Ausgabe~~14173
▁solid~~17249
▁anspruchs~~9837
▁Kle~~890
▁Her~~8898
▁Diagnose~~7894
▁Fahrzeuge~~9400
▁scheinbar~~7145
zählt~~856
▁dire~~10670
▁beweg~~10136
▁zurückzu~~4350
ulationen~~6938
▁aufgere~~15195
▁den~~39
ätze~~2700
▁del~~15249
▁dem~~280
▁Laptop~~1554
▁aufre~~7285
▁radikale~~9000
▁Klassenzimmer~~3752
▁Person~~3097
▁bewer~~1569
▁des~~13
▁dep~~15907
reben~~8678
ätzt~~1264
▁Microsoft~~14214
rein~~1086
problem~~11989
care~~17642
▁ausgeben~~2368
▁Nahrungsmittel~~6136
▁herausfinden~~2644
ocal~~16423
▁Stanford~~6478
▁Schwefel~~14810
▁zuvor~~3042
▁Status~~9308
▁Küchen~~9061
▁worüber~~9091
▁gefühlt~~16585
frieden~~10017
▁Kann~~2533
▁schlau~~4915
▁Jahrzehnte~~11467
▁Haken~~9225
essim~~14066
stronom~~16597
▁Herangehen~~10817
▁Hunde~~6194
▁wahnsinnig~~8193
▁Nachbarschaft~~7417
▁risk~~2754
▁stellten~~9550
inu~~14282
▁fürchten~~6149
▁hypoth~~9738
äck~~6551
▁Endes~~8738
▁altru~~13163
▁kostenlos~~8654
▁Vaters~~3294
rine~~12707
▁Motivation~~9789
ring~~3652
rina~~18198
▁Planeten~~134
xt~~815
ücksicht~~16726
▁versteht~~3699
▁Untersuchungen~~3111
▁irgendetwas~~5386
imit~~14301
▁stoppen~~5892
▁Station~~4071
▁sä~~3177
▁zwang~~6238
ission~~9382
▁Eigenschaften~~1599
▁Einzelne~~4399
▁sü~~7275
▁würdest~~7365
▁schießen~~773
▁glauben~~1638
▁Carne~~16567
friend~~18329
▁improv~~5237
▁Verzweiflung~~6614
nehmen~~761
▁Comics~~14233
pect~~18278
▁flip~~18321
▁Foie~~17702
▁Lein~~15700
▁angetrieben~~8155
▁Ausrüstung~~7562
rechen~~8216
▁Leit~~9199
qual~~1018
▁flie~~2939
▁Comp~~15440
▁allerdings~~4287
▁interpretieren~~11360
anischen~~522
nehmer~~5702
▁mitnehmen~~6657
thal~~16929
▁160~~3929
Source~~14565
▁antib~~17621
ickelt~~7706
aughter~~18370
▁Drogen~~7403
▁Fettleibigkeit~~10499
▁gewachsen~~10943
▁What~~18397
▁Fotograf~~15390
▁Archimedes~~17075
geht~~2140
studien~~15086
▁Teenager~~3305
▁erinner~~12746
▁Williams~~14454
▁merk~~17884
▁Invest~~15791
zentren~~6016
angen~~4369
angel~~2133
▁Flughafen~~5576
▁umzusetzen~~12997
▁Hallo~~2989
▁DV~~16463
▁Schü~~16162
anger~~3373
Mail~~4592
antw~~12919
▁1,~~5833
ilet~~15209
▁Anderer~~15392
▁spektakul~~13032
inken~~2993
inkel~~13076
iziert~~5081
form~~85
▁Museums~~9910
▁mic~~18070
▁Komplex~~13983
▁beliebt~~2561
ards~~11427
▁präsent~~8589
▁groß~~875
▁Nair~~16901
▁Winden~~10420
deut~~9577
▁überzeugen~~7652
▁Pl~~998
▁Po~~3444
▁Ph~~1701
▁Dadurch~~8667
▁Spielen~~1207
▁eigenen~~1905
▁Pe~~5882
▁Pf~~5698
▁14~~8126
▁dunklen~~6215
▁retten~~6742
▁Abschnitt~~13114
▁dunkler~~12942
▁16.~~6456
▁Klang~~4707
▁eigenes~~4809
▁Spinnen~~15198
▁0~~15691
▁Span~~10717
ford~~13443
]~~2798
▁Pr~~256
▁irgendwie~~486
älfte~~11163
bere~~3001
▁allmäh~~14570
▁PI~~2026
▁Chaos~~4476
▁Aktien~~4408
▁begann~~3572
▁lustig~~1735
ance~~8703
▁Luc~~5749
▁Intell~~16287
ancy~~14904
▁Heart~~17411
▁intuitive~~15242
oleranz~~12293
▁metaph~~8564
ordination~~11391
▁PR~~6653
▁annähernd~~8014
▁blieb~~8206
▁charakter~~12096
▁rund~~3918
▁verbra~~6979
▁steuern~~3003
▁verbre~~15728
▁jüngere~~7374
Wel~~11083
Wer~~5528
▁Behälter~~12886
▁häss~~11919
▁cover~~18359
▁Us~~15591
SP~~14176
▁Blatt~~4190
▁farb~~10086
ground~~13943
aint~~16188
▁wesentlich~~3701
utes~~5815
▁Protest~~12400
▁Hirosh~~15137
ratic~~16588
▁Texte~~5113
▁fantastisch~~1782
▁1,500~~16269
stud~~7793
▁intelligenten~~7244
schläge~~4095
▁Lösungen~~1959
▁gefü~~11580
amera~~4997
sehe~~13036
▁zueinander~~8470
▁verbreiten~~5361
samen~~12767
▁beeindruckt~~15576
▁Kontinent~~6814
▁Post~~5514
▁rettet~~12318
▁Tex~~15680
ington~~14244
▁Li~~16474
▁etwa~~141
▁verbreitet~~4169
ynth~~768
▁Ug~~17492
▁Depressionen~~6615
▁Paare~~8506
▁Trib~~15819
leun~~8453
▁Handels~~8176
▁rechnen~~15421
iles~~8720
▁Spieler~~1640
▁Cyrus~~18360
▁Tee~~13830
▁Handeln~~13108
▁höheren~~11526
▁Körp~~15891
▁Ash~~16896
▁Ask~~17795
▁Neue~~13216
▁Geschw~~12516
▁irrational~~4041
▁Landes~~2331
▁Monaten~~3252
▁Ladies~~16684
▁Schutz~~6689
▁ungl~~16450
hell~~16866
▁Asp~~11480
▁Ass~~7979
▁unge~~9054
▁Ast~~10129
▁Alex~~5198
▁widersp~~10402
▁nutzten~~14124
krieg~~11534
▁wert~~3440
azz~~9814
▁Guer~~15290
▁192~~13614
▁Chemotherapie~~13429
3~~2792
▁einfü~~6987
wechsel~~5032
▁fürchte~~10657
▁Building~~16835
▁Frü~~8131
▁warst~~12796
pest~~11565
▁Wörterbuch~~14153
▁Frö~~9942
▁sieben~~4210
▁bevorzug~~9048
▁sprach~~5527
▁Ice~~17388
▁Google~~5545
erent~~12053
▁dienen~~5938
▁ausreichend~~8715
▁Ich~~75
▁älteste~~12035
teilung~~2457
▁könnten~~3243
▁Musl~~15846
▁übersetzt~~13072
▁Erfol~~13421
▁Meth~~2843
männer~~14952
Team~~8967
▁Pier~~3658
▁öff~~7430
iance~~16996
ischem~~6610
ischen~~55
▁adapt~~14490
legenheit~~15977
▁Später~~4313
▁Erlaubnis~~1024
▁Stock~~943
送你葱~~18091
▁tatsächlichen~~8213
▁implement~~17289
▁unp~~15462
▁Fibonacci~~16967
▁reason~~13643
▁Everest~~7800
▁klaren~~2612
▁Portland~~12442
▁Cher~~16039
▁Erzä~~3219
▁Professor~~9807
ischer~~572
isches~~1707
▁Archim~~17076
ilfe~~10931
▁invent~~17571
teuer~~14864
▁geschah~~1345
vielfalt~~10198
▁50.~~3292
▁Rente~~14706
▁verschaffen~~1303
ältigen~~17871
schrauber~~10466
amine~~11576
▁chromos~~17468
aming~~16842
▁oxygen~~18245
▁verzweifelt~~7187
▁religiösen~~4279
▁Philosophie~~6641
▁schle~~10660
▁app~~11516
▁glamour~~15834
▁Everglades~~18301
▁elegant~~11220
▁aggressive~~7954
zten~~12744
oder~~9377
odes~~368
oden~~1012
▁Absicht~~8494
▁niemandem~~8870
▁niemanden~~4590
▁IDEO~~16220
▁spricht~~2594
▁nachdem~~3320
▁nachden~~3445
▁Künste~~15316
▁gesehen~~95
▁Front~~10445
▁erneuerbare~~13855
ctive~~16674
▁History~~10043
cra~~18237
▁Liber~~11644
apier~~7784
▁when~~17712
▁passt~~5029
▁mittlerweile~~5313
▁früheren~~10690
▁Singap~~17115
achst~~15639
▁Besser~~9672
prah~~18090
▁realen~~5571
▁ped~~17460
altet~~1454
ett~~6147
▁hinunter~~5683
these~~744
▁Celsius~~644
▁3.~~10370
▁industriellen~~1502
▁35~~2387
▁34~~3747
▁37~~8526
▁Stimm~~3426
▁31~~14189
▁30~~3307
▁33~~14857
▁effizient~~8137
▁Schöpf~~5368
▁Pyramide~~13863
▁39~~15138
▁Drittel~~4325
ein~~3184
ernen~~6327
▁baby~~12677
ety~~17575
▁Irrt~~12457
▁weiß~~432
▁shot~~16688
eral~~13586
▁Versuchs~~3008
▁Part~~594
ällen~~11792
▁legend~~4633
▁folgende~~9450
▁Park~~9037
▁Verzweif~~16788
vollen~~8071
ym~~12381
▁herauszu~~10252
▁hängen~~11009
▁Versuche~~7218
▁under~~16529
▁Selbstmord~~12226
▁incl~~18027
',~~13818
▁abges~~6065
annte~~243
ya~~8104
gleichen~~10104
▁Erweiterung~~6036
▁null~~12792
▁Even~~18203
▁abgel~~7544
▁japanischen~~2590
▁Ansatz~~4070
▁Häusern~~10754
▁Öff~~12753
▁richt~~4237
Č~~18363
▁Poly~~5726
▁Autounf~~15089
▁fotograf~~13097
ć~~18078
▁setzen~~2719
L~~3152
▁Poll~~12887
▁Konstru~~5044
▁Flüss~~16490
▁Interaktion~~9784
▁eleph~~18387
▁Pole~~14402
▁Wolken~~9945
▁blind~~8181
▁gemeinnütz~~13520
▁ring~~17811
ī~~18305
▁Köpfe~~820
▁involviert~~7200
▁kompliziert~~3011
▁Essenz~~12921
▁Verteidigungs~~9441
▁Magen~~5774
▁blo~~7310
▁Essens~~13868
cca~~17403
lösung~~9643
üsse~~8212
▁Dunkel~~6685
▁gesagt~~259
▁Wirtschaftsw~~9468
ommen~~9691
▁Twitter~~4627
▁Dokument~~3452
▁pre~~15938
uct~~18015
ünft~~11929
▁pra~~15298
▁pro~~724
itarian~~17792
speed~~17439
▁answer~~17333
▁geleg~~3602
▁Erzeug~~8180
ffer~~8371
▁offer~~15998
▁Vir~~12784
▁Vis~~14192
prechen~~12299
mitteln~~5025
▁Stärke~~2702
mittelt~~13289
▁Vie~~12728
▁kurz~~4063
▁typischen~~14122
▁anim~~14270
▁offen~~6592
▁drücken~~517
▁Galaxie~~15360
▁dünn~~10258
iform~~13308
▁Zivilisationen~~14435
ami~~9284
▁ausgesch~~6577
amm~~1411
scar~~17895
isters~~8502
halts~~11236
read~~6063
uild~~11854
amb~~6440
ame~~6279
▁prag~~12358
allererst~~9720
▁aufgenommen~~5106
▁Inder~~11847
▁Argumente~~11517
reat~~5620
▁vorkommt~~6162
▁Autobahn~~8560
istern~~11035
▁Kühe~~6217
▁schufen~~10435
▁Barbara~~13719
▁Damit~~655
dienst~~10988
▁Yes~~17006
▁serv~~5906
Show~~16103
onic~~16165
fällen~~4815
▁situations~~15614
▁Inneren~~9264
▁fluores~~14629
▁Wüsten~~13077
ynd~~15132
▁Bühne~~3827
▁Tage~~3049
t~~164
▁jahr~~9892
▁klassischen~~7609
ichter~~7292
▁bestra~~13159
▁Kolonie~~325
▁sand~~8248
▁Leicht~~14811
▁Orient~~13275
▁wunderschönen~~3825
oment~~16295
ivid~~17444
Mart~~13315
▁Indep~~16572
edom~~16744
utzen~~4214
iminellen~~14088
räumen~~48
▁anzugehen~~8572
▁Seth~~16252
pidem~~16157
▁Gro~~15293
freiheit~~12979
▁Hard~~13153
uck~~7169
agert~~4727
▁Zeitpunkt~~6043
▁Harm~~15941
▁Gra~~2460
▁erlangen~~2650
▁Seide~~14894
zogen~~1421
▁protein~~16909
▁könntest~~7543
▁Hart~~15478
▁Wesentlichen~~8684
▁Lage~~1244
▁Story~~14029
▁Did~~17769
▁MR~~16870
▁Stamm~~10116
▁weitgehend~~14535
▁verloren~~1451
ibles~~15452
▁Dampf~~14014
▁herein~~7522
▁JL~~18268
unktions~~17576
▁listen~~15849
▁zugrunde~~2540
fragen~~1903
artig~~4576
nisse~~2383
raum~~420
▁Ecke~~7277
▁robust~~10832
▁2010.~~15685
▁Labor~~605
▁Jenn~~9619
▁Orten~~5294
▁JH~~15992
▁bene~~6666
sterdam~~16764
▁jede~~2121
itte~~15123
▁Crow~~9172
▁Geburts~~1708
osph~~16356
intens~~10269
▁versorgt~~10590
▁Obs~~12875
öp~~16594
▁Homosex~~12385
▁entstehen~~5835
▁Ingenieur~~9801
▁innovativ~~1507
▁getötet~~5891
idden~~14136
▁Rä~~3535
▁Son~~550
▁Som~~12164
▁Sol~~3861
▁Soc~~12417
idd~~14202
▁Christmas~~17434
▁Geschäftsm~~14506
ahrer~~12325
▁JC~~14525
▁Rö~~746
▁Expedition~~9372
▁Sor~~12993
▁Sow~~11465
räder~~16292
▁Sure~~17849
▁beschaffen~~7282
▁Überraschung~~4488
▁respekt~~12425
▁Minen~~13337
▁Americans~~18395
▁spring~~16323
aren~~429
▁definieren~~1235
▁Flu~~16956
umenten~~4700
lon~~12678
▁Wildnis~~5869
lor~~16669
los~~1176
aret~~15717
ares~~9214
▁Ener~~13699
▁Fle~~8068
▁Ger~~6128
▁digit~~16623
▁Frieden~~3404
▁Gates~~7270
cus~~12044
▁soziale~~1257
quate~~15211
▁wirtschaftliche~~8337
▁Okay~~3836
J~~3619
▁Betrü~~4175
probiert~~17717
▁Trinkwasser~~10506
▁Hütte~~13829
iologist~~16629
etische~~10472
▁würde~~1022
▁gest~~4013
▁halt~~11423
uzin~~13277
▁gesp~~14461
▁Überlebens~~9295
hirn~~10446
▁erstaunlichen~~10565
ikationen~~8918
hirt~~4372
▁Freunden~~1738
▁Exp~~13759
▁sn~~18255
▁Ext~~12267
ifik~~5758
▁Index~~14399
▁kleinen~~1016
600~~12632
gewiesen~~11362
ners~~7029
▁Ire~~16803
▁aufta~~1112
▁Südpol~~13722
▁Si~~18127
nern~~595
▁extre~~12369
▁extra~~9849
▁kleines~~343
▁kleiner~~440
▁Grand~~11790
▁comics~~15552
▁unk~~14488
sorge~~8768
▁meiste~~210
▁nachd~~13118
▁Union~~10562
▁Masch~~10530
▁amateur~~12938
▁hierbei~~10638
you~~17397
▁Mitgefühl~~5562
▁wuchsen~~8277
▁kor~~9625
▁perman~~7035
phys~~2797
iza~~16360
▁materie~~9148
▁Katastrophen~~8815
▁käme~~6882
drücken~~12570
▁angebracht~~14943
▁CNN~~8368
▁Publik~~9113
▁Verlauf~~6338
▁kod~~14865
▁Aristoteles~~14916
▁Güter~~11665
▁Befehl~~12688
▁Sensoren~~617
▁kom~~2044
▁Merkmale~~9639
zettel~~8556
bären~~14600
▁trug~~7754
brochen~~3257
▁Detro~~16439
affen~~5109
▁astronom~~15411
▁winter~~6282
▁Entschuld~~14690
otyp~~14698
▁around~~13662
▁Genetik~~11078
▁Clay~~15676
Amerikan~~14739
drücke~~13067
▁denen~~846
▁rab~~18048
▁IKEA~~14053
ikro~~9407
▁Fläche~~10195
drückt~~7498
▁lebende~~8907
▁drum~~16555
▁Mosche~~12363
▁Ballon~~14521
▁Mex~~10626
▁While~~18286
▁benutzten~~10278
▁Mer~~10374
▁unterschied~~304
ünf~~15628
üne~~10248
ünd~~3517
▁Men~~11278
▁Korallen~~6737
▁Mel~~4711
▁unl~~15948
▁Meg~~12563
▁Med~~9423
mpf~~962
ucky~~14437
vers~~3278
▁—~~12602
▁verfügbar~~8779
▁hel~~3359
verw~~2706
very~~9370
▁schrieb~~5139
▁epip~~17401
▁hem~~14462
▁Ve~~13896
▁Que~~14394
verb~~8801
mechan~~8751
▁Wall~~11635
▁beliebigen~~6085
▁Chance~~1824
verk~~8169
▁Besitz~~10825
verl~~8681
▁Rwanda~~17509
vern~~12499
▁Dire~~14661
▁rap~~16310
▁arbeiten~~1443
anas~~14325
▁biologische~~8822
--~~11533
-,~~9200
oberfläche~~4710
▁Aust~~11027
▁Wesen~~294
▁Jones~~12161
windigkeit~~17556
-1~~3930
-3~~16930
-2~~14699
▁arbeitet~~4984
osm~~15369
holfen~~6949
▁leisten~~2120
▁Sometimes~~17363
ungslos~~10067
▁Bertie~~17765
▁zerstört~~5880
etzten~~7651
reck~~15960
öntgen~~17823
osn~~12382
rech~~8911
▁Kunstwerk~~9856
reci~~18155
▁zuerst~~3503
atory~~13917
▁Geste~~15280
grupp~~16854
▁Telescope~~17631
▁Flügel~~14002
ails~~9525
▁voran~~10643
▁Notiz~~9098
▁grob~~3612
▁einfach~~1111
ound~~13688
spro~~7450
▁schlage~~10187
onne~~15060
▁think~~18399
▁Artenvielfalt~~11059
▁Einblick~~2744
uchen~~6851
▁sequen~~13958
spra~~15804
ienten~~3094
▁völlig~~1102
▁gelebt~~8997
▁Deshalb~~5116
▁Mathematik~~2584
azin~~13760
stitut~~16546
seiten~~5540
ießt~~13794
▁Stickstoff~~15770
▁Rahmen~~3729
strong~~17619
▁forever~~17590
▁10.000~~5451
irat~~7786
thiop~~8199
▁Subtitles~~17
▁verboten~~7771
▁Flug~~2755
▁ehren~~8046
▁som~~11131
▁sol~~14703
▁aufsch~~10945
▁proto~~13882
▁sod~~16270
▁Hot~~11037
illed~~16863
▁50-~~14184
lossen~~9524
▁Flut~~3516
awi~~14823
▁sor~~12394
Unternehmen~~14087
▁tem~~18108
▁erfuhr~~7916
▁sou~~17580
▁pig~~14498
▁pie~~16590
dire~~15828
▁Aqu~~10101
hrer~~7164
▁pin~~11548
schaffen~~13214
▁pil~~17438
▁beachten~~12268
▁Schwe~~1028
inational~~18302
hren~~747
hlst~~2988
▁pix~~17747
▁Hol~~9797
▁psychische~~15758
▁Liste~~1892
▁leistungs~~2108
▁lernen~~1151
▁beitragen~~2034
anners~~16624
▁nennt~~623
▁Oberflächen~~11483
▁Finden~~10698
▁erwähnte~~8832
gebiete~~6912
▁maps~~17356
▁riechen~~6144
▁kooperieren~~10151
▁begriffen~~12097
nütz~~13599
▁normal~~3218
▁führe~~14051
▁nenne~~6026
▁Verbrechen~~1485
▁schöne~~6500
▁Tour~~4718
▁steigern~~13357
▁westliche~~5991
▁Atlanta~~14766
Sp~~5320
▁begleitet~~9291
▁Vors~~6693
ständige~~8853
St~~4380
Sk~~15318
Sh~~3581
So~~14867
▁redeten~~5531
▁zusätzlichen~~11374
Sc~~9656
▁veränderten~~2435
▁Democ~~15352
ikalen~~8872
Se~~5554
prob~~15644
▁Melodie~~15551
▁Reihe~~1043
aupt~~14554
▁semi~~15698
▁character~~17311
▁Mikro~~416
▁diskutieren~~8587
▁kämpf~~7985
▁Australia~~16783
▁beigetragen~~14183
▁Hob~~8530
ning~~15979
SA~~2027
▁Eindruck~~6780
▁toller~~11450
▁Freud~~9443
ions~~3999
▁unterstützt~~9351
▁Path~~7949
▁Lebanon~~18247
▁Blutgef~~14306
▁betrachtet~~4998
bus~~16446
▁betrachten~~2261
▁schieben~~11449
▁gerecht~~10824
aign~~18175
▁Company~~14693
▁Ozeanen~~181
▁Betracht~~6232
▁Schätz~~14719
▁romant~~5383
▁Perspektiven~~3276
▁optical~~17310
▁Anspruch~~9587
▁Gerade~~2878
▁Rick~~15241
▁Dollars~~4328
▁Elektro~~4134
▁Fragen~~2555
▁gründete~~10770
▁Lord~~15646
▁Scot~~13745
▁Spiels~~4620
▁anbauen~~8326
Entwick~~11057
▁erstmals~~9025
▁kannst~~1890
▁schre~~9514
▁spezial~~11312
▁Programme~~5375
fr~~5960
fs~~9266
ft~~1402
▁verschiedene~~994
▁Schreiben~~10876
▁2004~~3811
▁2005~~3818
▁2006~~3237
▁2007~~7721
▁2000~~2393
▁2001~~4438
▁2002~~6305
▁2003~~6752
▁Märkten~~8141
fa~~3064
▁Freitag~~6093
▁schlecht~~1245
fe~~1556
▁Hel~~7268
▁Hem~~9317
▁Heb~~4099
▁mitmachen~~12550
fl~~3185
ignt~~10812
▁Gemeinschaften~~7184
a~~1480
▁Fal~~12266
▁Umgebung~~506
▁favor~~17165
▁Who~~13012
ospiele~~16561
heber~~11699
▁Graham~~12966
▁Wunden~~15074
ï~~17161
▁1.~~10313
▁Wä~~3262
▁13~~978
▁12~~7370
▁11~~2791
▁10~~1472
▁17~~5176
▁16~~6501
▁15~~2799
▁Wunder~~3129
▁1:~~10928
▁19~~5965
▁18~~3256
Film~~14431
keit~~4217
▁RSW~~18140
▁einig~~10567
quellen~~844
ielle~~4001
▁Log~~12760
uring~~15789
▁have~~16979
▁Punkten~~14046
▁Horm~~10578
örung~~1333
wohnt~~955
▁Pilze~~14495
ettbewer~~8517
flanzen~~16361
ffe~~3976
▁Bestra~~3030
▁Tausende~~3473
▁singen~~1230
▁post~~13470
▁Charakter~~4914
systeme~~2041
▁wichtig~~868
▁rent~~14816
üstet~~10393
▁Futter~~11102
▁Ungl~~3328
systems~~2023
▁verdienen~~7188
ündete~~5651
▁Natur~~1606
▁markiert~~2295
ced~~16308
▁afrikanische~~8123
yl~~5728
yo~~13446
yn~~743
▁Wert~~1382
cen~~14678
▁einzig~~13973
cel~~255
ye~~12933
lektion~~10138
ces~~4697
cer~~12418
▁Werk~~6329
foot~~17103
yp~~5738
ys~~3631
yr~~5084
ikatur~~16523
ift~~1021
verständnis~~9748
tausend~~2888
elson~~13243
▁interessierte~~4106
ify~~18233
▁erschwing~~9060
▁senken~~13342
ife~~1696
iff~~8005
▁vital~~16845
▁Teilchen~~13409
▁Erklärung~~5397
▁Zukunft~~1324
▁füllen~~9783
▁gesam~~15764
▁lohnt~~4227
dig~~8067
ifiz~~5868
heiten~~215
▁Gesetze~~6643
asion~~12641
▁Ooh~~16249
▁erhe~~7502
eldet~~10950
▁nimmt~~348
▁Standard~~1459
▁recherch~~6337
▁klare~~2642
Ent~~15514
▁Kaffee~~1445
adays~~17483
▁Miner~~14249
▁abends~~8422
▁Studio~~8361
▁überein~~10259
fehle~~7667
▁hey~~15520
idimension~~9745
▁Buches~~6157
▁her~~2908
▁konkur~~11365
▁Ausb~~9652
▁Tief~~6755
▁Umstände~~5098
▁Misser~~14145
ikes~~5551
▁zusammengefasst~~10607
▁Schwarz~~11088
▁salt~~16368
7~~2185
▁gefüllt~~3975
▁verst~~3570
▁doc~~17123
Komm~~14655
▁versp~~6624
▁list~~11901
rott~~11838
ass~~1409
▁behaup~~11119
▁reflekt~~5353
iot~~1540
▁who~~17519
ast~~9029
ützer~~6731
▁Sonnt~~6096
asy~~14953
team~~7959
dung~~9736
story~~15855
asa~~8648
ighters~~17878
ützen~~4220
▁ineff~~12857
ase~~10089
▁Ernähr~~5992
ask~~5296
▁verein~~2500
asi~~17537
ash~~8595
rect~~17138
▁Pic~~10124
▁Pur~~3608
▁Arme~~3085
probieren~~10217
▁Dan~~4023
▁benutzte~~11965
▁Dal~~8280
▁Dam~~8646
▁lack~~17834
aschen~~5699
▁tolles~~4796
▁Daf~~17379
▁Dad~~14241
round~~13687
▁Filmemacher~~3613
▁Day~~5805
kung~~5162
kund~~7246
▁Dar~~10593
▁Das~~72
dis~~8309
▁Dav~~5341
▁Army~~7480
▁Dat~~13570
▁Rückseite~~6148
äuben~~11536
▁Wilson~~6311
▁Serv~~10912
▁relax~~17133
▁antwor~~5512
▁give~~13640
▁tak~~18196
▁Konserv~~10480
▁Zuhör~~9584
▁param~~17578
▁wander~~12827
▁erhielten~~5496
▁Jahr~~1094
▁gelassen~~2638
▁Individuum~~11033
▁Steve~~1183
miss~~14730
ulen~~7329
äuber~~5793
räume~~2687
▁drive~~17775
▁symp~~17690
▁reduzieren~~8840
▁kleineren~~5238
▁gesamte~~2668
▁Stämme~~10174
station~~4053
▁Pfeil~~10686
▁Systemen~~2539
▁Knopf~~4773
▁Qatar~~16527
▁ehr~~2613
▁herunter~~4878
ücken~~1136
▁repräsent~~14280
▁Klim~~2734
▁vermittelt~~2741
▁Himm~~16949
▁Bein~~6958
▁Abra~~17842
▁Lager~~8302
asch~~2735
läss~~10209
zahlt~~4198
▁Cold~~16910
▁vermitteln~~4906
ste~~119
▁Institute~~11646
▁Personen~~2906
▁Dre~~7551
▁understand~~18349
lament~~14556
▁finanziert~~9494
▁Rory~~16492
▁interessante~~4450
sth~~11736
▁cents~~17329
▁Gesichter~~3324
▁Larry~~11603
greg~~9596
▁March~~16233
str~~1662
gren~~8729
üchtig~~7790
▁Ungleich~~2396
▁erwartet~~7412
Qa~~17061
▁Jede~~2674
ious~~11943
▁nachzu~~6834
▁versichern~~13778
ktiv~~2338
fehler~~9667
▁Hilfsmittel~~13035
▁Seh~~13280
ktis~~11944
äß~~7549
▁erwarten~~2582
▁Entwurf~~8296
▁ast~~15578
iben~~10267
lie~~4298
▁Engl~~3665
▁Klin~~14099
phan~~9083
▁können~~782
▁unterstützen~~718
▁nör~~544
▁reagiert~~2414
▁entdeckte~~5619
farkt~~17481
dichte~~11284
▁ideal~~6334
▁sparen~~7065
▁unabhäng~~11805
▁Häuser~~9196
▁Druck~~720
iber~~13903
▁Beitrag~~8367
▁Main~~8873
asha~~12976
haltung~~1652
▁umzugehen~~1168
fühl~~9306
▁dam~~16422
sektor~~8334
quote~~13008
elescope~~18143
kan~~54
kam~~8242
kal~~427
kar~~14134
kap~~2956
▁beraten~~1418
▁oberen~~402
▁dar~~2118
▁das~~8
The~~3578
▁UCLA~~15751
▁Mais~~8192
ience~~9657
▁dat~~13467
mach~~11430
▁speziellen~~238
ining~~16913
▁Artikel~~2951
▁Weltall~~10294
▁Number~~18244
▁Stimmt~~8013
▁geliebt~~4967
itial~~13562
▁darzustellen~~2982
ständigen~~2876
astern~~14709
▁Herkunft~~12056
▁patent~~15681
▁Meetings~~10756
▁Stimme~~4694
hips~~17163
▁Null~~4852
▁beschäd~~11477
▁starben~~7009
▁Garage~~15239
▁gespielt~~1615
aves~~16182
▁Nordpol~~8930
▁Journal~~7997
wehr~~9431
▁director~~17175
▁angewandt~~2534
▁Teile~~306
▁Interface~~4730
dimension~~13383
▁empir~~15046
▁fig~~16703
▁Sand~~9275
▁Dorf~~3248
uhen~~8993
▁fil~~5831
ournal~~16185
▁danke~~2966
verse~~13777
quem~~9512
quen~~14203
▁fit~~12197
▁Graph~~5072
▁Sant~~12021
abend~~12189
ckte~~3387
▁17,~~16680
▁verstärkt~~1760
▁17.~~6053
▁eigentlich~~3740
ymn~~15987
▁fier~~18227
▁bell~~18177
▁freund~~10851
▁kat~~10434
▁fängt~~6575
▁ähnliche~~5119
▁kap~~9065
▁chemischen~~616
▁kam~~3269
ikeln~~3974
▁tradition~~8696
▁Schrift~~10648
▁Rohstoffe~~8343
spersonen~~14551
▁Interview~~8362
▁fiel~~6507
▁Erzählungen~~12629
▁religions~~17921
▁verrückten~~9528
ausende~~13630
ureau~~15193
gelt~~3794
▁Kong~~14022
▁Wür~~750
▁Urkn~~10063
zulassen~~8226
▁wahren~~6367
▁bele~~15281
▁stellte~~4320
▁annehmen~~4238
▁Vielfalt~~202
x~~4293
▁Wün~~9334
▁investig~~13955
geln~~11151
rooms~~15517
Me~~4471
emat~~13381
▁Konkurrenz~~10704
▁anzufangen~~4155
▁ment~~11813
▁Case~~16626
▁Buddh~~15871
▁epidem~~13681
▁Obama~~12780
▁Cost~~7999
▁Juan~~12535
▁Aufregung~~4491
utreten~~12713
▁ausgehen~~6098
▁SR~~16390
▁Fenster~~473
kunft~~9005
▁üben~~3845
▁energet~~16066
▁Mumb~~17623
▁konvention~~16238
wirtschaft~~2459
▁Name~~4965
üll~~5627
icit~~17938
6.~~10134
aktivität~~2981
▁Würde~~9521
▁Minder~~9546
▁über~~7
▁Tätigkeit~~3039
▁Atomenergie~~16375
▁Tr~~5204
▁Ital~~17824
▁♪~~14095
▁allein~~2015
▁Giussani~~11600
▁Sper~~10620
▁Gehen~~1363
ison~~3338
ikation~~8163
▁Te~~4829
länd~~11592
▁Th~~9490
ranken~~11379
▁Prozesses~~4139
This~~12490
▁To~~12904
▁TR~~16640
▁vollkommen~~9298
▁TV~~11006
▁atom~~13696
glied~~3164
▁last~~17360
▁zeichnet~~5059
nimmt~~4109
anor~~14882
anol~~14780
▁TB~~15217
▁entschuld~~7359
vitation~~17983
▁zeichnen~~7973
▁speichern~~11632
▁emotions~~17701
▁sonder~~1119
▁hierfür~~8864
▁Erklärungen~~11371
▁mur~~17192
▁gele~~15146
▁neutral~~14923
▁Nation~~1284
wen~~16077
utzende~~2877
städ~~8431
▁Physik~~11241
utzutage~~8377
schle~~6462
▁Hügel~~6301
Was~~5472
▁McDonald~~14733
wes~~12526
▁Polizisten~~12411
▁Vagina~~16116
▁sucht~~269
▁Überzeug~~16247
gner~~11612
inct~~16134
▁Besitzer~~5448
▁Bakterien~~689
▁Kamer~~809
▁rest~~9914
▁Kamel~~11065
mentation~~15723
▁Mutter~~3160
▁resp~~18054
stamm~~10447
▁Columbia~~14583
▁antworten~~2585
forder~~2684
▁suche~~7963
Theorie~~12282
Gott~~15247
Women~~17087
packt~~6281
imal~~14971
NC~~16935
▁Joshua~~12163
ruf~~8393
boy~~14422
mäßigen~~5104
Ihr~~14143
N~~4213
▁kämpft~~1196
▁erstaunliche~~9241
▁englischen~~9255
▁Deutsch~~15575
▁Cassini~~10084
▁Medikamenten~~6591
inity~~16127
richten~~10709
▁fassen~~786
▁schuldig~~1744
▁bur~~18317
▁bus~~16363
▁'60~~15240
Nach~~7619
▁Verd~~751
▁Kühlschrank~~4317
▁Republicans~~11623
á~~10879
MM~~18311
▁Afghan~~2096
▁Türkei~~12005
▁lächerlich~~15875
abet~~9629
roph~~3909
pack~~4306
▁Alan~~14295
ifth~~16316
aufnahmen~~11376
bewegen~~11171
agte~~5422
▁Silicon~~10750
bou~~12437
▁Stunden~~4085
bow~~12503
▁voy~~18148
▁Internet~~1557
steht~~10437
▁norm~~4389
▁mark~~6918
Mein~~7344
▁marg~~17847
▁Feier~~12188
▁nord~~6793
ested~~16786
▁grüne~~9967
bindung~~13800
▁visuellen~~12154
ester~~3863
bol~~9606
entle~~16223
▁mars~~18134
estet~~17089
uationen~~16059
▁galax~~18213
temporary~~16217
MS~~13985
▁rum~~7378
▁run~~9902
▁ruh~~9940
▁Terror~~5559
▁rut~~3921
▁werfen~~8252
000~~11952
uses~~17773
▁Blog~~9007
▁Exempl~~12109
onstr~~15394
▁irgendeine~~11106
▁ökonom~~12625
▁komm~~4514
▁ermutigen~~12828
▁Anstatt~~6547
gst~~6284
▁gegr~~10347
▁wüsste~~7762
▁Win~~15447
▁lächeln~~13428
▁Ross~~5199
ahnen~~10077
▁Sache~~3089
lim~~8677
▁Dankeschön~~9993
olden~~16713
aß~~11237
lin~~5227
aterie~~14801
▁komp~~4975
▁Stein~~3638
hingegen~~14979
atoren~~10569
▁Pingu~~17987
rechts~~3427
iert~~1866
▁gebrochen~~7559
icip~~16663
▁worin~~13424
iers~~4897
▁Aussage~~8746
rechte~~11845
iern~~5372
▁Wale~~9363
▁Fußgänger~~16069
iere~~353
▁Zutaten~~7316
▁Treat~~17248
▁anhören~~5316
umps~~15231
▁Regierung~~3340
märkte~~4441
ricul~~17244
▁wür~~8066
▁Variationen~~10200
▁pick~~17557
▁Weibchen~~829
▁zusätzliche~~8776
▁Solar~~12166
▁magazine~~18276
agiert~~4355
▁Wettbewer~~11774
▁jahrelang~~11417
unes~~15464
▁lief~~7222
▁Behandlungs~~7061
zepte~~8220
...~~4097
▁unglaubliches~~7179
ight~~5899
▁Brücke~~9488
stein~~2728
▁veröff~~16091
▁hop~~14978
▁StoryCorps~~18315
rufe~~8552
▁überwältigen~~8075
▁Lächeln~~12795
▁gesprochen~~1040
▁hor~~7912
▁Teszler~~18262
▁liegt~~2703
▁geschlagen~~6074
▁Ruhe~~8400
▁Weißen~~12340
▁pale~~17313
▁öffnete~~7398
iant~~13287
▁träumen~~9976
▁Original~~9821
▁statement~~16642
▁7,~~16970
▁Schul~~1477
▁7.~~10409
▁vorbe~~8814
unft~~14613
een~~5373
▁dynamisch~~10449
▁europäischen~~13148
▁70~~653
▁Folie~~6193
▁72~~12228
▁75~~132
▁74~~2183
two~~18393
▁Älter~~15068
schlägen~~13439
älen~~4125
ians~~14628
▁Death~~15957
▁hundert~~403
▁klar~~1337
▁euren~~10023
▁machst~~7530
▁Bedauern~~10677
▁erfü~~8152
▁interess~~10667
▁tenden~~16330
▁Hope~~8000
▁verlieren~~7267
▁Kosovo~~16112
▁Michel~~12927
▁auslösen~~9793
▁unvermeid~~8735
▁Überfluss~~14198
▁Deutschland~~2036
▁gewinnt~~4516
▁Every~~13663
▁2020~~11591
7.~~14691
▁Infektionen~~13346
wohnern~~8476
straße~~6352
▁Detail~~2329
▁gesch~~3040
ruh~~3244
Bild~~9131
▁Pest~~10716
▁gelernt~~1625
rum~~5321
acht~~2883
▁ne~~6838
sten~~41
rug~~4173
stel~~3950
achs~~11099
ster~~4195
stes~~6599
ockt~~12726
ocks~~4135
iful~~11829
stet~~5439
▁economy~~18392
ache~~1520
rup~~14560
athy~~16086
▁merkte~~7435
ateful~~17953
shine~~17503
führer~~1929
▁simult~~10712
▁Anreize~~4248
ids~~8662
▁Nun~~2328
▁no~~11616
▁Nur~~1577
▁Bezieh~~16646
idi~~16619
▁Manche~~1908
ide~~6058
▁Gold~~11121
▁woher~~3230
block~~9197
führen~~4953
▁offic~~18121
ichtern~~13299
ftware~~14545
▁Lippen~~13051
öt~~8711
rolle~~5004
ör~~487
ös~~1426
ourcen~~6682
▁Schwester~~7354
ön~~11397
führ~~5293
öl~~5677
öm~~9841
▁Grund~~2701
öh~~12823
▁offiz~~4618
öd~~11418
▁erneuer~~8590
kay~~18333
▁wurde~~1629
▁liebte~~8058
▁Frequenz~~5319
.,~~1273
.-~~14392
▁beinhalten~~10233
▁Code~~3194
."~~272
▁läch~~12362
▁benötigt~~5977
▁von~~23
.:~~12301
▁differen~~2599
reprene~~16193
▁Ven~~15129
▁vermeiden~~5603
▁verständlich~~8736
▁konzentriert~~2482
▁beinhaltet~~7315
▁Alexander~~12670
▁wack~~450
▁wach~~9725
▁Jahres~~5438
▁Bras~~14553
▁mapping~~17965
▁pres~~15920
strukturen~~759
▁Konkur~~13143
aries~~17952
▁Form~~3159
▁Denkens~~15769
▁Bert~~15372
▁trennen~~9177
▁Material~~3880
▁Verwandten~~9998
▁Decke~~6537
▁Jahren~~1057
▁nirgend~~16860
reen~~5074
▁pred~~15059
..."~~8620
▁Sweeney~~17934
▁Eigenschaft~~8690
▁Scham~~12265
ute~~4573
▁bang~~15589
▁allzu~~8355
uth~~13811
▁band~~7804
▁angekommen~~11867
▁From~~18117
~~16079
▁imper~~12693
uts~~6927
gerät~~10378
izierte~~7240
▁Himmels~~7368
utz~~5857
politik~~4443
▁Afrika~~5151
▁Meeres~~14
▁örtlichen~~9931
▁mask~~16609
▁begonnen~~7068
▁Kopie~~13480
uber~~3536
ubes~~11719
Ich~~1437
▁nachhaltige~~6950
▁tödlich~~11567
▁Durchfall~~15213
züg~~7284
▁Africa~~17432
▁Gesundheits~~7447
▁Stephen~~9277
▁Bürgermeister~~10958
opft~~11109
asters~~15669
Th~~9018
Te~~11501
▁ausgestorben~~12063
▁bereit~~2168
▁verhaf~~14973
▁Weihnacht~~15067
▁Ahnung~~176
▁design~~9064
nah~~6823
water~~18222
▁mass~~11316
nal~~9591
nam~~16604
▁Have~~17964
▁Bord~~2936
▁konstru~~1946
▁Bade~~8159
haft~~1601
hältnisse~~872
korn~~10674
▁vermutlich~~1038
▁gestalten~~2607
▁ritual~~17999
möglichkeiten~~2608
wohn~~5721
▁Kartoff~~4762
▁Verschmutzung~~5756
▁Pepsi~~17436
▁finde~~695
▁nun~~2142
▁lebenden~~8799
rück~~10376
▁nur~~277
est~~968
▁TEDTalk~~12525
asen~~2846
▁Diagramm~~8839
▁Guardian~~14966
▁furcht~~9293
▁verlässt~~14351
▁gestaltet~~4704
▁Dutzend~~2950
▁Berührung~~3810
▁national~~6881
▁eigen~~2648
e~~714
Ad~~15336
geschrieben~~9539
appen~~1027
Ah~~10128
▁Polizei~~12408
Am~~13944
Al~~5772
An~~3577
▁Bit~~13182
iefert~~7545
▁bere~~6779
Ar~~11137
▁realisieren~~12461
lösen~~14126
▁Heimat~~2391
▁garantiert~~12235
▁histor~~11980
▁Rettung~~9831
▁anziehen~~14873
▁erhö~~2417
gu~~12583
gt~~766
gs~~186
gr~~5680
▁verstand~~5542
▁seiner~~895
▁seines~~2837
▁atmen~~6973
▁multiple~~14293
▁Raubt~~9436
gy~~13700
ge~~1138
ränk~~1550
▁seinen~~1069
ga~~11836
▁seinem~~4987
▁diskutiert~~5908
gn~~3400
nung~~3668
gl~~8096
▁CO~~11940
▁Facebook~~4628
gh~~9804
*~~17472
ziale~~13963
▁Komplexität~~12213
ario~~6423
▁Minister~~11595
▁Komponenten~~11104
aria~~17456
▁Vollzeit~~13937
umble~~16212
bum~~18113
lichkeit~~3182
Not~~15212
▁doppelt~~4337
▁bereits~~651
▁Geschäft~~1308
Regierung~~14358
▁damit~~2050
▁Lad~~5492
ahnsinn~~17855
▁got~~5167
▁inneren~~8597
▁Euro~~11556
▁teilweise~~4812
▁sowie~~6760
▁'80~~18007
▁Studierende~~9566
hü~~6372
▁gewe~~4058
▁Lak~~9084
▁schwierige~~11384
▁god~~17885
▁Sympt~~6481
roke~~17984
sych~~16654
gendes~~2940
▁Erkenntnisse~~14526
▁berühm~~12939
š~~17574
▁viel~~69
akul~~13272
▁vier~~649
▁komplizierten~~9151
▁Able~~8805
▁moralisch~~13394
genden~~6662
uls~~14486
▁schätze~~8610
▁Univers~~15345
▁terrible~~17453
▁Freundin~~10002
Spe~~16049
▁security~~17969
▁sagten~~1482
▁trivial~~17304
▁lot~~17745
zi~~13574
▁Vater~~3299
▁Männer~~6199
ze~~521
▁Lebensraum~~863
ventionen~~13885
▁Löcher~~10618
▁ref~~17675
▁Wissenschafts~~4556
▁allgegenwärt~~11293
zy~~12634
zz~~16584
zt~~6545
zu~~1212
▁Beutelw~~16544
zw~~5730
oking~~17055
▁Vict~~17211
schieden~~2580
▁flog~~12020
fahrer~~7934
Qaida~~16806
▁Streit~~14020
There~~18189
▁wachsende~~5629
▁Indonesien~~14829
▁Wurzeln~~5154
▁150~~3272
cell~~4947
▁15.~~13679
▁15-~~2203
▁15,~~14789
▁2030~~15745
antom~~17405
;~~1703
ömm~~15830
▁übersehen~~7266
▁Cra~~13739
etzen~~3951
▁dro~~6739
▁Sozial~~1289
▁vorzustellen~~1718
▁Foot~~1724
ozi~~13378
▁absolute~~13410
ständen~~2867
rovir~~16761
▁aufweisen~~9647
▁Symb~~10935
▁Leon~~15185
▁Co~~7852
▁Food~~8558
▁stoßen~~12754
fle~~3209
▁Entstehung~~11204
▁Statist~~15809
▁Logik~~2164
▁Michael~~10178
▁aggress~~7968
stücke~~4675
▁Bible~~16603
▁glaub~~7689
gend~~5506
▁Flüsse~~5682
▁puls~~13711
▁fin~~13851
▁dreidimension~~413
▁Led~~16288
wie~~5789
wid~~17042
▁schaut~~5014
▁globale~~2076
opath~~16452
win~~7605
▁mehr~~1368
▁Jo~~13685
▁underst~~17120
Nullsummen~~16326
adium~~14496
wis~~15041
wir~~322
frame~~17330
▁NGO~~17540
▁stattf~~13505
▁Jordan~~5703
örtlich~~13183
oskop~~15111
▁falschen~~9744
ötz~~6528
personen~~4231
▁Waren~~4187
▁überprü~~6764
▁Erdöl~~14945
ött~~12697
▁student~~15169
▁Nase~~1248
▁Christian~~12969
▁point~~15486
▁raffin~~3462
öte~~8598
▁zentral~~6013
▁Nash~~5124
ithium~~15658
▁drastisch~~2420
isan~~16489
▁anzuschauen~~3896
ogens~~14373
▁Experte~~4978
▁attra~~2337
▁unsichtbaren~~13206
▁Zw~~6988
▁Zu~~6042
weeney~~10891
▁gross~~1672
▁Notfall~~13624
gerecht~~13866
▁Mahatma~~15099
agent~~15215
▁zuhause~~6897
Je~~16321
▁schlägt~~894
▁Offen~~9893
▁Ze~~7510
Sch~~3411
▁perfe~~11210
glich~~10142
quez~~14459
▁zufällig~~2817
▁zukünft~~9599
▁Krankenschw~~4055
▁fix~~10650
▁Merkmal~~9653
▁Jonas~~16158
▁bemerkte~~3414
▁besch~~1400
▁folgendermaßen~~12917
▁beein~~16382
▁zoom~~15449
▁Vergessen~~11870
ector~~17210
meer~~6813
▁schönsten~~46
▁Welche~~3190
etze~~7369
▁planet~~15158
▁Hum~~6219
▁Platten~~6425
▁Unser~~1265
▁Handlung~~4912
▁Böse~~10989
▁Institutionen~~8225
▁arg~~16123
▁becomes~~18033
zwischen~~705
▁Vorles~~9645
▁planen~~6201
▁therap~~17507
zeitig~~7478
▁sogar~~462
▁through~~17367
▁tauchen~~573
geord~~7056
▁Mannes~~7314
▁darunter~~9764
▁Wohlbefinden~~1268
▁Tie~~16817
▁Datenbank~~13046
hafte~~6008
▁Lake~~8251
▁Autismus~~10493
▁Chap~~16191
fare~~17423
▁Rover~~13518
▁tier~~5947
▁überall~~3755
▁nutze~~15254
iret~~16762
▁Stick~~14275
ires~~10806
▁elekt~~15441
▁tief~~399
▁Motoren~~9415
▁Tropfen~~7091
▁nutzt~~8438
▁Laufen~~1712
ired~~13924
uelle~~9717
▁stattfand~~9373
ller~~4424
▁tax~~17603
▁information~~17864
▁Materials~~11319
▁Europä~~10561
▁tar~~17777
▁buch~~15444
▁tap~~7945
▁ohne~~586
▁Aufklärung~~16458
▁tat~~7558
▁plant~~14776
▁begren~~8435
▁Flie~~9068
▁Reden~~4857
temp~~16387
▁einander~~3841
▁Universen~~15365
llen~~6052
▁umgew~~17380
▁Irgendwie~~10407
▁philosoph~~8474
▁Zwill~~15768
fälle~~9103
▁stelle~~7424
▁hervorbringen~~5071
opäd~~11462
▁Zusammenspiel~~15253
▁Mechanismus~~11181
ährend~~5011
eins~~6556
▁stellt~~1087
fällt~~9240
▁Franc~~17684
assung~~11189
▁Children~~13222
▁Merk~~1654
▁Geist~~4740
▁Kepler~~15927
▁lö~~3424
▁than~~18023
▁Dabei~~4449
▁fühlte~~7437
zehn~~12393
▁Mode~~9594
▁Tony~~7286
▁note~~5256
▁Chicago~~8241
▁lä~~12928
▁Marcus~~8062
▁unerw~~10382
▁minim~~1852
▁bewusst~~671
▁geflogen~~2910
▁verg~~13522
▁verf~~5944
▁vere~~14684
▁verd~~780
▁verk~~4270
▁Cor~~1686
▁verh~~5130
▁vern~~7021
▁irgendjemand~~4625
▁verl~~6391
▁vers~~3554
▁Untersuch~~11380
▁verw~~6718
▁Con~~11370
▁Com~~9190
▁Col~~879
front~~1685
▁verz~~4406
▁veröffentlich~~10522
▁denselben~~8244
ifest~~1186
▁Philadelph~~18153
▁seit~~1054
▁lung~~17830
ylac~~17078
rennen~~7082
▁Rosling~~14047
▁active~~17649
▁kümmer~~10418
▁Innen~~6323
ästinens~~14932
▁Flüchtlings~~11984
▁seid~~9984
▁Heilung~~6982
▁Parasiten~~16156
itamin~~7135
▁Inner~~992
▁Folge~~9247
▁sein~~1201
▁aufzubauen~~7119
▁Mario~~17222
▁Mehrheit~~7083
gegeben~~3777
▁durchlaufen~~14324
▁least~~17581
illy~~13165
▁Simon~~4908
ergebnisse~~2306
verständlich~~126
▁Will~~3585
gerechtigkeit~~12567
ußt~~4278
▁TED~~15
designer~~5416
illi~~16508
▁dachten~~4072
▁automatisch~~2137
hle~~4167
▁22~~7644
illa~~13173
skop~~10236
▁Hin~~10588
▁Hil~~9440
ießen~~3971
▁schönen~~6768
▁stabil~~1058
▁Hig~~16053
▁zuletzt~~11199
▁sinken~~8944
ktions~~5045
▁TEDGlobal~~11216
▁mü~~4127
▁Farm~~11693
▁langweilig~~7838
illionen~~2834
▁23~~7846
▁schöner~~5136
▁schönes~~9115
▁Hir~~10442
▁formt~~2954
▁aktiviert~~6573
bilder~~3079
acken~~7748
▁verwendet~~2366
▁Supp~~16918
▁Grie~~15902
▁jelly~~18409
ech~~13754
▁verwenden~~2172
▁Austr~~17942
bilden~~2344
region~~13455
▁desert~~17518
▁Aktiv~~1511
zugehen~~3121
▁57~~11530
▁Zero~~14909
▁55~~9559
▁54~~13567
▁53~~12645
▁52~~10955
▁50~~299
▁auszuprobieren~~4716
▁Sorry~~12962
▁stra~~10942
▁59~~17283
▁58~~9954
itor~~7073
▁erkennt~~6878
▁Orleans~~5788
▁Kondome~~8622
▁5.~~10352
▁zustimmen~~10795
eters~~11589
▁Autorität~~14162
▁Ere~~14969
▁hinterfragen~~4445
▁einer~~232
▁eines~~436
erkt~~9674
mag~~13948
yond~~16093
▁ausmachen~~2186
▁eff~~14441
leitung~~10951
▁Reisen~~6359
▁Poesie~~13041
▁zusätz~~4339
▁Diskuss~~12835
▁fällt~~10390
betrieben~~9417
▁bezüglich~~1316
▁tausenden~~2749
▁Themen~~2804
▁Gesichts~~13907
▁einem~~412
▁einen~~331
bart~~12945
folge~~8783
britann~~7262
rebs~~13427
cean~~17741
▁insbesondere~~7312
▁künd~~13329
▁korrekt~~3797
folgt~~2458
▁Umfang~~8344
ößt~~10857
▁Dunkelheit~~10658
▁Henry~~7347
olitan~~17892
utzt~~13065
▁Notwend~~17035
▁supermass~~17197
▁Norm~~13822
▁Gewäss~~9137
▁einzus~~1166
oice~~9683
▁Nord~~5757
▁interessanter~~4457
▁interessantes~~11135
utze~~13667
▁interessanten~~618
▁aufge~~2319
▁dies~~2141
liste~~8608
▁manche~~2574
▁kulture~~12312
▁grundlegend~~8311
▁genetische~~6939
bewegungen~~4706
länder~~3799
▁erzählt~~3173
bei~~11459
▁Zucker~~776
bel~~7147
▁parent~~18365
▁Wahlen~~12555
▁kennen~~401
wirkung~~8744
beg~~12911
bed~~10336
bee~~16606
bez~~13596
▁erzähle~~3828
ber~~765
ard~~4958
gase~~14527
bew~~1172
bet~~6325
▁hin~~467
▁hil~~9292
▁geöffnet~~8649
üpfen~~9258
▁zweitens~~8428
▁Washington~~3343
▁dorthin~~2679
ungsfähigkeit~~1504
▁versteckte~~3513
▁Sund~~15547
▁Präsidenten~~8336
▁erle~~10582
▁Misch~~6427
▁Sö~~15983
omed~~15641
fordern~~10012
▁hip~~17457
weisen~~2604
ark~~8357
ainer~~12030
able~~14645
▁Barack~~13100
▁beloh~~15802
▁outs~~15505
▁mehrere~~398
▁Letzte~~4802
sequen~~13956
orgung~~6116
fliegen~~11153
ained~~15493
▁Foto~~6499
adies~~16372
ugend~~8774
jemand~~11438
stuhl~~15163
▁möglichst~~14723
äbe~~13561
iscover~~13932
▁Hypoth~~14316
awa~~12028
urd~~11716
ure~~1031
▁jedenfalls~~5107
▁genial~~16065
ura~~4713
etball~~5297
urm~~779
urn~~8396
▁Sprich~~12244
▁bald~~3000
ümer~~6781
inde~~3768
▁mittleren~~5722
▁selbe~~11578
▁nied~~8724
urr~~10653
ült~~1788
gest~~4413
ury~~4831
urz~~8806
▁Alltags~~12656
▁gäng~~8449
▁Rauchen~~15561
ulator~~8317
ausend~~3468
passt~~6454
▁nützlich~~3961
ladung~~16393
schein~~4322
▁Lama~~11066
▁eingehen~~11850
controll~~17861
▁komplett~~4594
▁integriert~~11180
▁starteten~~5578
Stud~~2028
▁frank~~18261
▁Team~~2748
▁gänz~~8182
▁Kanal~~9216
▁Asteroid~~15842
▁inzwischen~~6268
▁Baby~~1438
▁City~~7299
▁moving~~17366
▁Spann~~8501
(~~10135
▁Website~~8531
▁bestimmt~~3990
rast~~11334
achstum~~9469
rass~~15350
▁besteht~~266
▁Unterwasser~~483
▁Level~~4543
iana~~15305
bürger~~15527
▁physischen~~11658
▁mich~~1015
▁Geschichten~~82
▁Gemeinden~~10939
▁öffentlicher~~11664
reibt~~8082
isha~~13787
forsch~~602
kopf~~12099
▁einfache~~775
▁Bünd~~12428
▁Georg~~12696
ingu~~9127
▁öffentlichen~~2412
leben~~1213
▁intim~~9195
▁photos~~17757
▁Technology~~16550
▁Ohr~~5267
▁Blätter~~4193
immel~~11747
▁Personal~~9751
seit~~12107
grat~~10375
▁Grundschule~~12463
▁pein~~12486
▁Paulo~~16231
▁Fahrt~~10463
ätsel~~13935
▁atemberauben~~9459
gram~~16234
ocke~~15205
Maschine~~9578
▁evolution~~5379
▁sitze~~9523
erkrankungen~~10580
▁stattfindet~~2985
▁selbst~~125
kten~~5650
▁Darüber~~7407
▁Sus~~14964
▁Sur~~6435
▁entlassen~~2520
▁besitzen~~5725
▁Bewegungen~~4816
▁ansah~~8951
▁Messer~~3070
▁5,~~16969
▁Hafen~~6073
▁Sum~~4239
ctions~~15347
▁Sun~~4504
kter~~10703
▁Jord~~17517
▁stattfinden~~2002
▁Sue~~14743
▁Sud~~13968
▁Sug~~17616
▁Suf~~16509
zufügen~~11518
▁getragen~~7801
statt~~6330
arot~~971
▁Katzen~~13274
▁Brooklyn~~10870
▁Tw~~9775
▁halte~~8731
tend~~11775
state~~11160
alteten~~9080
▁ganze~~737
▁Ty~~11877
tens~~6223
▁weiss~~1523
▁Maßstä~~10107
cul~~12882
erne~~2589
aron~~10996
tent~~8324
ken~~4412
kel~~7548
▁rot~~9181
▁Vorteil~~1673
avig~~14872
▁Movember~~16778
rock~~12638
▁Völk~~13523
▁Kurz~~3366
key~~5300
▁Kurs~~8327
kes~~12371
ker~~9202
▁Traum~~3835
äus~~6450
kr~~6777
äut~~17140
▁Ta~~13396
▁Überblick~~8456
▁Atlantic~~17371
▁betrü~~4035
▁vornehmen~~11385
▁North~~3805
▁Fabr~~12592
äub~~3329
lebt~~2008
äuf~~11787
▁97~~13009
fgh~~17062
▁regul~~9762
»~~7512
äum~~8547
▁schäd~~6634
▁Bedrohung~~14558
▁Wurz~~17813
▁las~~5482
▁pet~~16473
▁konserv~~14824
▁gefilmt~~14624
▁Tam~~17431
▁Spuren~~6088
▁Frage~~2526
keiten~~12368
gewebe~~11243
ty~~12737
gänge~~853
orie~~5979
onomie~~4425
▁Cyber~~9096
▁überraschende~~10264
▁Kleine~~5845
▁lat~~12121
quis~~11407
▁flag~~15781
▁130~~2905
▁fed~~17200
▁chirurg~~11342
cent~~12803
quent~~5349
yal~~15653
▁Ras~~11386
ulate~~15229
▁13,~~12548
▁trend~~13867
▁13.~~2084
▁Add~~16130
▁stehlen~~4034
▁flat~~13063
quenz~~14276
oth~~11184
▁immer~~574
▁Gän~~15320
▁Wars~~10759
ierte~~1471
▁erneut~~7227
ammelt~~6018
oto~~13970
▁Favor~~12890
ota~~12446
▁Nicole~~11169
ote~~1490
▁Betrachtung~~13491
pie~~9487
▁billiger~~11535
▁mus~~4850
▁Kerl~~4881
zumachen~~6750
▁Kern~~4674
▁Act~~11682
ots~~4913
ott~~6076
▁immen~~6231
And~~15880
ördert~~14676
rence~~18401
▁leist~~1603
▁ange~~2494
▁dazu~~2750
▁Brazilian~~18106
▁gesetzt~~2727
reaktion~~14039
zusehen~~4447
enken~~10090
▁leise~~5203
ini~~9800
enschaft~~16098
▁soft~~17685
▁spannend~~7143
▁versetzen~~7649
onanz~~14102
▁exquis~~17816
ink~~2438
flügel~~6079
ziehen~~1099
▁Adopt~~14128
▁hump~~18291
▁veränderte~~7219
geschwindigkeit~~8804
bucks~~15313
You~~12528
ibr~~12862
atic~~17951
▁Zunächst~~2385
▁Genauigkeit~~7635
▁Rechte~~11683
▁sick~~10555
▁eventuell~~8740
asant~~16864
▁sich~~166
uru~~16152
▁Zusätzlich~~9680
▁bedeut~~9342
▁Liefer~~5798
▁defe~~18312
▁irgendwas~~6123
▁Lautsprecher~~16226
▁Rechts~~6726
▁depress~~15416
▁schicken~~5490
▁Spir~~14285
ahren~~9408
▁eröffnet~~9439
anke~~9356
▁Leser~~12495
▁Saturn~~10721
▁bike~~17754
▁polio~~7036
▁Snowden~~14530
▁Teleskop~~14862
▁infl~~15928
▁Lesen~~1296
▁Details~~3120
isch~~654
▁eröffnen~~9840
schw~~2309
scht~~3922
eling~~15619
▁res~~8875
i~~693
▁Killer~~6842
zym~~10529
well~~11299
▁progress~~13724
Vort~~14614
ifizieren~~10127
▁Galileo~~15570
sche~~2451
welt~~1609
scha~~2978
schn~~3528
schl~~5742
schm~~5670
ified~~16305
▁Kolonien~~719
/1~~13146
▁reserv~~13127
weil~~15083
▁benutze~~1551
▁triple~~18371
▁grab~~17941
athemat~~14697
▁Pakistan~~7279
▁ego~~15829
BM~~16137
beis~~14339
▁beängst~~6695
chnen~~2872
dose~~4333
onds~~12975
▁Times~~9573
▁Winkel~~13454
▁benutzt~~342
▁Einrichtungen~~10031
▁gras~~18284
möglichkeit~~9438
chnet~~9638
agern~~10118
▁Hinblick~~11756
▁Kliniken~~13355
ening~~17796
Be~~7400
▁Grösse~~1631
kelett~~13761
▁Reed~~15592
▁2011~~9843
Bl~~3213
▁zugleich~~10687
▁mine~~18053
▁gerettet~~11247
\~~17440
▁sauber~~5672
▁bedeckt~~3885
Br~~8036
gerin~~13541
ensive~~15996
▁Kreislauf~~6103
▁Benzin~~11953
▁Nachbar~~7372
imes~~13228
imer~~10633
ledge~~15965
▁drittens~~6936
▁gefähr~~2915
utan~~16388
okrat~~1519
ization~~18038
▁finanzielle~~9111
▁Isaac~~14911
▁Instrument~~4691
▁zust~~4351
Programm~~13251
▁Modelle~~2863
▁Milliarde~~4512
rät~~13869
imen~~1124
loss~~16339
▁Witze~~13842
▁Röntgen~~10260
▁Shir~~12436
▁sur~~1555
ässe~~5322
▁fügen~~13950
▁Übungen~~9655
▁Algorithmus~~10199
sagen~~9726
▁sum~~5355
▁motivieren~~10456
lose~~1488
▁Congress~~14424
▁sub~~9878
▁Problem~~123
page~~16096
▁sug~~16914
▁Liebling~~11073
lager~~10351
▁Anführer~~12395
▁pop~~15630
▁sagte~~1079
▁por~~3911
▁gestern~~5695
▁Israel~~3542
▁Fähigkeiten~~1618
▁identifizieren~~4395
atische~~11132
▁modern~~8196
▁Schmerz~~2984
▁Irgend~~9215
▁ähnlichen~~2316
▁Ih~~13728
▁pol~~12607
▁Glass~~9474
lagen~~10164
▁inspiriert~~9114
▁schweben~~3312
▁fün~~13332
▁Kriege~~6032
prozent~~7128
War~~15866
▁autonom~~16753
▁Buchstaben~~13933
▁Finanzierung~~8660
▁Beg~~2586
Krie~~13482
?~~307
▁Kriegs~~11158
▁ewig~~4882
Ach~~12960
▁Schlange~~5446
▁Spaß~~1570
▁Störungen~~10495
journal~~12794
▁engag~~6730
▁Standards~~2615
rasch~~10602
▁If~~16575
Um~~3308
Un~~5557
▁liebsten~~16080
▁Verbindung~~4600
▁heisst~~6084
glichen~~3437
schütter~~15106
▁Staat~~1367
▁Kongress~~7055
▁Beweg~~10685
▁schreck~~14781
pt~~6961
▁separate~~14708
▁ack~~17743
▁Samen~~10624
▁allem~~4301
▁scheinen~~8509
US~~12763
▁allen~~460
onder~~6923
▁alles~~328
▁aller~~1641
▁Bewer~~9633
ervat~~11611
oring~~16425
▁Jackson~~12989
▁Hoff~~6910
▁Seit~~2283
größ~~9895
▁schlechtes~~13508
andelte~~10119
ertigt~~10914
▁Oma~~13747
▁Tests~~9852
▁Koch~~13889
▁rüber~~5597
▁cyber~~15656
▁griech~~4910
▁nett~~14713
▁Presse~~11248
▁Designs~~9036
▁Seil~~9424
▁Sein~~7172
▁Tennesse~~18152
▁wurden~~35
▁arab~~14442
gruppe~~1874
andelten~~10532
▁lokal~~6213
▁jung~~7561
▁partner~~10816
▁dasselbe~~7422
▁testen~~4268
▁Kamen~~14254
afrika~~12412
inner~~10606
gessen~~15958
ählen~~4636
▁Ursachen~~8766
▁wiederher~~4818
▁Sieht~~12936
ütte~~6356
▁keine~~175
hy~~7757
▁climate~~18248
▁natür~~17185
tter~~7935
hr~~1228
▁Glaubens~~3361
▁hero~~8045
▁Langzeit~~4741
hh~~13293
hi~~15214
hn~~9335
ho~~12934
klich~~2011
hm~~13123
▁argumentieren~~6166
alyse~~16494
ear~~6451
▁dachte~~3745
▁mitteilen~~1815
he~~3959
▁Cart~~17393
▁kan~~11506
▁Honey~~16268
▁IM~~16286
▁versagen~~7248
▁nötig~~2619
▁Out~~12388
merzen~~16457
▁dignity~~18254
istisches~~16056
istischer~~6672
▁Our~~15368
▁Organisation~~3238
itis~~7028
▁Sach~~15327
itiv~~11858
‚~~15295
▁dieser~~431
▁drauf~~4521
▁mächtige~~12660
▁Stre~~14042
▁innerhalb~~2479
▁inkl~~17129
▁nutz~~11511
▁Zufall~~5163
zubere~~17809
erin~~10649
arsh~~17986
▁einge~~3410
‟~~17668
▁Meeresboden~~198
▁diesen~~502
▁diesem~~282
now~~18000
▁Völkermord~~3395
arre~~13551
▁Geheim~~7410
▁stehe~~3824
nehm~~13942
ermaßen~~3778
▁essen~~1979
abad~~16256
▁Drohnen~~17306
▁Konzepte~~11670
▁Werke~~11669
▁möchtest~~5317
▁steht~~2254
▁Vertrag~~14903
▁Eisen~~6106
bestand~~4837
▁Wett~~8373
▁knock~~17045
▁richtigen~~2660
▁Gaza~~13524
stat~~4629
star~~7117
ocol~~11593
▁gespeichert~~5679
▁gehe~~5473
▁Auseinanders~~12813
▁absichtlich~~6181
▁vergrößert~~5193
▁frontal~~15276
▁Schweigen~~3575
▁geringer~~4158
▁vergrößern~~4303
▁Note~~1155
iente~~7592
▁Beispiele~~4864
▁geht~~848
brid~~10280
ikale~~10774
▁Ther~~3065
hne~~8247
▁Sowjet~~17925
amp~~6218
▁Bör~~4177
▁abgesch~~2491
iode~~7761
insel~~10120
▁unterr~~5592
▁unters~~14444
jekte~~4875
▁untern~~8935
portion~~15026
▁unterm~~7627
hnt~~5028
aktions~~8160
▁IT~~8301
▁Them~~6054
▁Wahrheit~~102
▁Shakes~~15963
▁Val~~10850
▁Allgemein~~3994
▁Van~~12278
ams~~9209
▁Research~~5617
▁share~~17269
ausenden~~3007
▁Millenn~~16692
▁Cartoon~~11304
▁2010,~~14059
▁müsst~~7458
▁Wahrneh~~13921
▁Netze~~14603
▁erne~~7658
steiger~~6436
ategien~~9741
▁Pestiz~~10504
▁Lewis~~8928
▁tatsächliche~~4583
▁Brothers~~15554
▁prim~~9421
aub~~5404
aue~~896
ppen~~7133
aug~~12523
auf~~1067
aum~~3564
▁Tinte~~14893
ündeten~~12403
▁Repar~~8750
▁experimen~~3108
aup~~14018
aus~~193
aur~~9859
aut~~4755
▁jeweil~~2301
▁priv~~14361
gesehen~~9497
▁verlie~~8108
▁verhält~~14479
▁ignor~~13322
▁brauchten~~4993
▁Schätzung~~11528
▁bereitet~~7610
▁erholen~~4161
esa~~12590
▁bereiten~~11602
▁email~~17600
▁Sicher~~4141
▁'50~~17996
▁Teilen~~2893
▁Interessen~~10888
▁Geschlechter~~12346
amt~~10864
look~~17010
▁Comic~~14251
▁änder~~12103
▁pessim~~12554
▁head~~18003
▁Wurzel~~6631
velas~~3334
▁Abschluss~~2117
▁Dor~~9974
▁verarbeiten~~7826
▁reisen~~5563
▁Obdach~~10855
▁Tatsachen~~1328
▁Dok~~9368
▁Schlecht~~2101
äume~~11928
▁Don~~9946
▁Konsequenzen~~5784
▁vielleicht~~1050
upt~~12510
▁Dod~~13755
ups~~16297
upp~~10050
▁Dog~~16795
feren~~12416
▁fest~~4519
ängst~~6729
▁Treasure~~16418
▁Filter~~12895
ents~~5797
▁nein~~1581
▁Tech~~12785
cence~~18205
enty~~18044
ples~~17318
▁konst~~11225
pler~~15652
▁Quelle~~627
▁bud~~16924
oll~~9430
▁aufgegeben~~3834
neh~~7415
nee~~4719
▁unterscheiden~~9340
vest~~15016
▁Lebensqualität~~4465
▁unterscheidet~~10576
ney~~3443
▁Eier~~10513
net~~4052
▁Physiker~~11303
ner~~375
▁Walker~~10329
chtern~~4265
med~~13119
▁angeboten~~3697
▁angesichts~~7436
▁persönlich~~4863
▁cr~~18341
mel~~5668
men~~758
izont~~8825
otion~~13908
met~~4650
▁ca~~3844
orp~~9179
mer~~749
▁cm~~5860
▁cl~~11113
100~~15029
▁womöglich~~16159
▁ch~~5330
▁attack~~9437
spiel~~4479
grenze~~4259
▁Komprom~~10256
▁welchen~~3192
▁welchem~~1292
maschinen~~7828
▁Präsident~~5840
oman~~11647
▁Dien~~7249
▁Akte~~8146
▁Pent~~15974
▁Bronx~~7301
▁Eric~~4513
omat~~10531
omas~~17499
▁antwortete~~7752
▁erscheint~~8333
▁Lebewesen~~330
▁welches~~2762
▁welcher~~3937
▁Pittsburgh~~4376
▁Inst~~8958
▁Bell~~15496
▁hinauf~~6275
▁Smartphone~~9766
▁physiolog~~11058
▁Ausbildung~~1291
▁gestartet~~6900
▁Fantasie~~9879
▁entwickelte~~6393
igens~~16883
Also~~8017
ippe~~555
moral~~8732
▁tempor~~11961
▁ansch~~9689
▁Atlant~~14421
▁nutzte~~6180
▁irgendwo~~987
▁verlang~~3413
telt~~5820
▁schl~~2481
▁schm~~5675
▁schn~~2099
▁Gefangen~~13134
▁erstes~~4518
▁erster~~2067
antage~~17955
ili~~11498
▁ersten~~500
Moment~~16298
▁schw~~1326
▁Lev~~15715
hieren~~2155
▁heben~~2992
▁Brown~~13197
rit~~6809
teln~~8663
Ste~~10408
▁wüs~~16923
▁flies~~13709
lungs~~3265
▁Gesch~~360
▁intensiv~~4064
odell~~15657
▁dot~~10920
▁dou~~18156
▁Komment~~16868
▁Soldaten~~5556
▁dom~~15730
▁don~~15852
V~~2698
ward~~6952
ästin~~14931
▁interpret~~14074
▁Augenblick~~981
▁Auflösung~~10257
eseit~~15222
▁Hülle~~6344
▁Anweisungen~~9271
oler~~15218
oles~~1777
▁eingeführt~~6914
▁Städ~~8234
äss~~1090
äst~~893
▁Stäm~~12761
adows~~16851
▁Stär~~13110
▁analy~~18356
▁ma~~12094
▁Gefahren~~11420
▁light~~16475
olen~~10612
▁wirksam~~7984
ikaner~~10627
angible~~16625
@~~14048
▁manipulieren~~11205
▁11.~~7568
▁11-~~14457
▁böse~~12950
ready~~17011
▁110~~3928
▁freier~~14564
▁Prozesse~~2823
▁beeindrucken~~3877
▁Reserv~~7157
aging~~11325
agement~~11769
▁Primaten~~11177
agina~~16107
endent~~16573
▁insgesamt~~9558
▁weltweiten~~5941
▁Leider~~6877
▁Feyn~~16816
schten~~13734
ric~~10852
▁Thomas~~5395
▁kurze~~9089
▁Kün~~15319
▁Leiden~~12271
strom~~6714
stron~~3642
▁Wichtiges~~9526
rochen~~9646
▁glaubten~~7943
polit~~14659
▁Strukturen~~5037
▁auswählen~~1233
▁individuelle~~2634
▁enem~~17848
schlä~~12047
▁fühlten~~11825
▁warten~~4520
ternet~~16416
▁demonstr~~16630
▁wartet~~1068
▁analysieren~~7320
▁transfer~~13252
▁wäre~~3019
ove~~15495
esten~~2102
▁Andy~~10470
▁simulieren~~9897
▁potent~~7078
▁rechten~~8852
besitz~~13881
▁Beziehungen~~6127
▁funktionieren~~1822
▁kompl~~18251
gelassen~~6837
▁offensichtliche~~12246
vermögen~~10037
▁Cricket~~17144
▁Kulturen~~3155
ferenzen~~7640
▁Stuhl~~4810
▁verantwortlich~~2311
▁wollt~~10014
▁Universität~~2398
öpf~~9338
▁gelben~~9193
▁Hospital~~4832
▁worden~~1419
▁Zwecke~~10254
ätzung~~4168
▁psycholog~~8441
▁Dazu~~6721
▁Gehirn~~1635
äuscht~~14352
▁Phoenix~~15005
igungs~~7824
ructure~~14098
omos~~13489
▁Armut~~3290
▁trainiert~~7957
▁BP~~16402
Technologie~~11156
übt~~9307
,~~27
plantation~~14378
▁gehören~~6001
▁Dikt~~11823
bettet~~6691
ricane~~17568
▁Element~~4340
oole~~14338
ises~~2298
iser~~8348
ologie~~6364
▁erectus~~13468
olz~~16215
▁kümmert~~6252
ätzen~~6094
▁Aktion~~5801
school~~14633
ounted~~17915
ania~~16805
▁digital~~10651
▁entworfen~~9051
rift~~10897
▁Zone~~14844
▁Planung~~14688
ised~~17970
▁Motto~~1795
owers~~4872
isen~~3460
▁fatal~~16131
▁Let~~10540
▁vereinfach~~10444
▁festge~~4073
▁BG~~7281
▁Tatsächlich~~1360
▁Three~~11727
wend~~3905
▁folgte~~5016
▁wund~~6803
zwe~~497
▁zieht~~7186
▁Digital~~10032
▁Republic~~15354
break~~18327
▁Republik~~8626
side~~10228
bone~~10801
uations~~18361
▁phänomen~~11038
▁These~~1045
afel~~10783
▁bearbeiten~~7830
erte~~3261
Wow~~12502
annter~~6023
▁beeinflussen~~3063
annten~~11263
▁ökologischen~~10796
▁FOX~~16539
▁Boom~~13966
▁Joe~~14069
▁hine~~9899
▁BM~~17258
▁Disziplin~~9919
▁Aufzeichnungen~~13124
stunden~~12565
▁Abendessen~~3770
obert~~12648
▁Vorbe~~14985
▁Gericht~~11685
ilz~~15955
▁Hunger~~8115
▁Arctic~~17709
aling~~17890
▁Desp~~12658
körper~~3024
umul~~16150
isiert~~3259
Feld~~14455
▁Gipfel~~529
utch~~16748
▁Babbage~~14256
örder~~10545
▁Beijing~~16354
▁bemerkenswerte~~11361
▁Bu~~12617
▁Alber~~14809
▁Transition~~14941
▁passen~~4637
▁ärmsten~~7064
▁Danny~~16766
▁amerikanischen~~6308
Gl~~9478
▁Friedens~~5644
▁klinische~~7978
▁Rather~~17473
iss~~2046
▁untersuchte~~13278
▁Achse~~660
isk~~5609
▁100.000~~8458
ish~~5298
▁Gemüse~~5866
ism~~13563
▁Zeitra~~8370
isc~~17846
isa~~16260
isf~~17609
ise~~3053
▁Penn~~7778
▁Ushah~~17967
andid~~11627
syche~~13267
▁tag~~16155
▁Oste~~12695
grade~~12149
▁pat~~16638
▁alte~~5912
eitern~~10366
zell~~11142
▁pan~~8340
▁DM~~11707
▁pal~~12062
▁Kortex~~12088
▁modell~~10934
preis~~8107
▁frisch~~3919
▁erst~~805
▁By~~8025
iling~~17152
▁bicycle~~17343
agra~~13824
ipe~~10854
▁verfl~~12413
▁dram~~18029
Jähr~~2204
▁Rod~~11030
▁effektiv~~6593
▁Rückmeld~~15883
▁Ment~~1906
▁Hill~~6258
▁Modern~~6360
▁ermöglicht~~9734
ärzte~~7092
schlagen~~7540
▁eis~~6970
▁Stammzellen~~11471
▁Symptome~~6458
▁Polit~~17137
▁fördert~~1689
▁Robotik~~16302
▁hospital~~18283
▁erklären~~1073
pflanzen~~8894
▁Sich~~11428
▁diam~~16770
▁kommenden~~14151
▁minus~~8940
▁stimmt~~6483
▁zuhören~~1152
▁gelehrt~~1394
▁auch~~281
gyp~~15864
▁entscheidend~~2304
usch~~11522
▁fördern~~1444
▁stimme~~8722
abyrin~~14503
wärt~~11866
schirm~~3888
uries~~18100
▁Brasilien~~5933
etter~~15233
▁ausführen~~3090
▁Tats~~16815
▁Chirurg~~7947
ettet~~16110
▁bedient~~15127
▁gewisse~~4258
etten~~11537
▁Toyota~~13170
ettel~~4300
▁present~~17026
▁Ireland~~11029
▁Perfe~~4533
ikerin~~2743
▁afr~~12538
▁Pflanze~~6228
ständlich~~14297
▁Komb~~11817
ming~~12581
▁aff~~15428
▁AV~~17012
▁Gletscher~~1139
▁betra~~2932
tellt~~16211
▁nerv~~9518
▁opt~~9392
▁Komp~~3378
▁Stress~~5577
▁arch~~10691
▁Roy~~15980
▁Tafel~~3532
▁abzusch~~9265
▁Drohne~~17015
▁unendliche~~9132
▁Interviewer~~16507
▁Verarbeitung~~10225
▁Diff~~15172
▁Herrn~~12929
chest~~17288
▁definition~~16578
▁sondern~~270
▁over~~16015
▁Große~~4943
ramm~~13945
abelle~~1262
eman~~15442
▁Damals~~3295
▁Nerven~~1676
▁trocken~~3869
▁Kommun~~1366
▁Diego~~9839
örper~~11134
▁Kenya~~16117
▁Rest~~6020
▁Seiden~~14680
▁hohe~~2667
▁NASA~~9466
▁effiz~~15052
▁aufnehmen~~9505
gemeine~~15573
ocortex~~17676
▁Schweden~~8516
▁radikal~~1237
zieren~~11207
▁Produktivität~~2012
▁98~~9765
▁Morton~~17862
dom~~17920
▁erschien~~3566
▁90~~2083
▁behind~~1349
ählt~~11584
▁95~~7238
üt~~5819
usters~~14619
▁normales~~11353
▁bemühen~~13736
▁humor~~13835
▁Vol~~10201
▁unin~~17491
▁spra~~17998
▁verkauft~~5921
▁Prote~~8861
ograf~~6118
▁Entdeckungen~~9463
▁genetischen~~10524
▁Proto~~9168
ending~~13817
▁exponentiell~~11558
laubnis~~18081
▁vergewalt~~16111
▁Dienste~~15862
hören~~3775
▁beispielsweise~~4403
sprodu~~8098
▁Lebensstil~~8391
▁verglichen~~10868
mengen~~10682
Achse~~9709
▁will~~1234
dessen~~7961
▁gelingt~~5159
▁Japan~~2581
▁Secret~~17906
▁funktioniert~~1059
▁Rituale~~13405
▁übernimmt~~5990
▁Bern~~14320
▁seltsamen~~12913
indungen~~13207
▁Äthiop~~8080
▁Insekten~~11146
ctors~~15192
üh~~9571
erung~~9896
legenheiten~~11396
▁voraus~~6200
▁absurd~~1158
▁RISD~~17522
▁entscheidet~~4226
400~~10353
▁auszus~~9055
▁Marg~~16397
▁erstellen~~547
▁Produkt~~2507
▁gene~~13477
▁Skelett~~12036
▁Hubble~~15584
ston~~6518
▁est~~15937
iolet~~13951
▁Marx~~12422
▁leben~~190
▁Mart~~16222
▁sorry~~16271
▁Mars~~10345
▁profession~~1659
▁entscheiden~~2377
▁orbit~~17772
child~~15574
bau~~5659
bar~~3232
bas~~3962
▁300~~643
▁Allt~~11466
▁Galaxien~~10061
▁Sprecher~~5884
▁Krebs~~7940
▁Sprechen~~1713
▁vollständig~~2933
▁virt~~12146
▁faszinierenden~~3730
▁Great~~3579
▁pharm~~13166
bal~~13028
▁30-~~10486
▁bombard~~12237
lad~~16133
▁kämpfen~~835
ears~~15964
▁glaubte~~4458
▁mixt~~16190
▁once~~18350
▁like~~5553
▁Lyn~~15093
▁Probleme~~861
▁Technolog~~16385
▁beträgt~~721
▁Apple~~12626
▁stri~~14993
▁50,000~~16406
▁anschauen~~5080
▁Problems~~146
▁Technik~~239
▁fortgeschritten~~4803
ichtete~~5488
▁rief~~7391
00~~4536
▁länger~~1624
▁Dokumente~~14662
üssen~~1665
▁zweiter~~4735
üssel~~12867
▁Ren~~15952
▁müde~~12076
▁Investoren~~10327
▁Nieder~~3798
▁Wann~~4596
rufen~~4593
▁zweiten~~6915
▁Ökos~~15622
▁Wand~~3639
grammen~~14532
▁Netz~~508
0.~~6107
0,~~5177
omb~~4957
C~~2778
artikel~~3952
▁verwirklichen~~13215
▁Universums~~10026
ome~~6856
▁Die~~101
Gesch~~7924
▁personal~~9750
anche~~8037
omm~~1470
▁Alice~~15827
▁Dir~~5271
▁Dis~~2250
▁Colle~~6619
omy~~7027
▁Klassen~~2351
ometown~~17968
▁medizinische~~8492
$~~14082
uns~~10573
unt~~10842
▁Bundes~~2415
▁adult~~18299
▁Einschränkungen~~1964
▁universal~~1828
▁ultim~~10948
una~~15870
▁bahn~~11358
▁Immunsystem~~8891
une~~9602
▁Palm~~17521
ung~~171
▁nöt~~6771
unk~~13852
▁bedienen~~240
▁industrielle~~11128
▁Zweiten~~14193
▁Batter~~12259
▁Bank~~7560
cyclop~~15807
▁umsetzen~~14695
▁Bang~~11731
▁Band~~5224
▁stre~~4535
▁Landwir~~13151
▁unschuld~~13543
▁bewerkstell~~9678
▁wollen~~1154
▁gäbe~~3784
▁legs~~16727
▁erwecken~~11882
▁Inspiration~~13363
▁legt~~352
onderes~~16628
itions~~5058
▁India~~14692
▁Schwellen~~8273
frist~~16237
▁Nutz~~9630
▁obwohl~~105
ting~~14404
▁fr~~1775
▁Klar~~10415
▁Klav~~4896
▁zwingen~~7138
▁supern~~17545
▁cor~~18125
schutz~~3926
▁as~~4973
▁ar~~12841
▁Ellen~~6523
aufgabe~~11007
▁av~~15917
oppelt~~11195
▁at~~6980
▁demokratischen~~16632
▁Jungs~~7381
▁ax~~18147
CE~~13575
iminalität~~16311
▁ac~~17930
▁ab~~197
▁Monster~~6664
▁ag~~11187
▁af~~15300
▁Abed~~16563
▁betr~~14988
▁ak~~4903
▁medit~~12190
▁ah~~3856
▁Junge~~2213
▁an~~230
▁am~~147
▁al~~8811
▁philanthrop~~16884
Ch~~2969
▁präz~~14471
▁Dichte~~203
Cl~~9933
Dollar~~4319
aks~~8965
▁County~~13786
▁Tele~~8161
utical~~17215
▁hören~~4584
▁fo~~17529
▁Räumen~~4941
iz~~4607
▁Five~~16315
▁Sollte~~13546
ip~~4206
is~~841
ir~~185
isierung~~1460
it~~2065
▁spot~~12195
iv~~1776
▁Berg~~6355
ih~~12706
ik~~536
ij~~11538
im~~465
il~~1185
io~~3283
in~~109
ia~~1195
▁Manip~~11076
ic~~3302
ib~~535
ie~~757
id~~634
ig~~456
if~~3470
▁gem~~4382
▁gel~~4194
zenten~~7858
▁entt~~2401
▁geh~~4082
▁gek~~787
▁die~~28
▁gee~~13814
▁ged~~8990
▁gef~~5206
▁Bush~~9598
aki~~6414
▁geb~~3853
▁dir~~1940
▁dis~~5082
▁vertreten~~1046
▁gez~~2625
▁vorsichtig~~13741
▁get~~8260
▁gew~~3920
▁Instr~~4699
▁ges~~2952
▁ger~~2449
ternal~~17126
elli~~15269
ello~~4693
▁stärker~~4396
▁schlug~~9413
▁Privat~~1967
elle~~1660
▁GPS~~14821
elly~~16659
keley~~17280
kin~~14094
kil~~10343
▁gewöhnlichen~~12580
kreise~~13610
▁Lernens~~9737
kelet~~13756
▁Krisen~~15910
aßen~~15975
▁leiten~~4428
▁Pres~~16952
ssinn~~13335
▁Pret~~17399
▁Anstrengungen~~2761
▁ansieht~~6062
▁Schwimmen~~8929
▁Prem~~4934
▁Erfahr~~12214
esehen~~9471
800~~16988
▁leitet~~9845
▁vertraut~~408
agon~~9909
▁'90~~15847
ulierung~~6569
isses~~12685
agog~~2602
▁Nichts~~1104
▁Viel~~2239
▁Toiletten~~6583
▁Vier~~7462
lassen~~8055
psych~~14157
▁erinnerte~~7345
human~~15406
anders~~16484
▁egg~~18267
▁seine~~2516
yer~~10180
▁befür~~8717
agos~~8263
▁detail~~17488
amour~~17806
▁durchgehen~~12185
▁Repräsent~~13098
like~~17626
werkraft~~18202
▁wiederum~~8312
▁fat~~16873
▁flex~~12575
▁Flächen~~6175
▁far~~12339
▁brach~~6465
mungen~~6787
▁fam~~18266
▁shop~~15510
▁Nein~~1118
▁volle~~9711
▁Neil~~10867
▁höchsten~~1945
▁George~~6639
▁Thanks~~14146
bru~~16633
▁fac~~16946
opt~~4409
▁God~~15581
opp~~7334
▁Angriffe~~16022
ops~~6908
▁vorhanden~~6446
▁Schuh~~14019
rengungen~~18214
unting~~17875
▁Serg~~17707
ope~~9846
opf~~2274
ETI~~18019
oph~~4792
▁Sym~~4744
▁Syl~~17060
▁Syn~~4859
▁much~~17275
▁anzubieten~~4658
▁chemische~~10482
▁gedacht~~5367
▁Square~~14567
▁Magnet~~15187
▁Kat~~1585
▁oben~~458
▁Syr~~17686
▁Zugriff~~12479
201~~9479
▁Abenteuer~~9472
200~~10314
ueck~~17531
▁Date~~14543
öre~~9538
▁char~~14852
▁Kap~~13074
▁beteil~~13576
▁sobald~~792
▁Moon~~17852
▁stimmen~~2541
örp~~10115
▁schweren~~12987
▁Evolution~~1592
ört~~4054
▁torn~~18400
▁car~~17337
▁Qual~~2489
Are~~17876
▁Rap~~16102
▁Quad~~2244
▁glaubt~~6708
sichtlich~~7080
▁Kan~~11554
▁Wissenschaft~~869
genöss~~12937
▁irgendwel~~16210
▁glaube~~1335
▁sign~~9875
▁Sche~~7814
burg~~2313
▁Village~~14582
▁Schl~~1410
spanne~~8177
▁Schn~~4205
▁Niger~~7152
▁warmer~~17037
ierende~~1771
unst~~5705
▁degrad~~16184
istische~~6348
▁Schw~~3772
bewohner~~3314
eed~~16943
Star~~11692
▁Teller~~4318
▁73~~9957
▁Montana~~14309
zur~~7836
zus~~4733
oren~~3009
igste~~1283
▁wieviel~~4233
zut~~9125
ored~~14546
aliforn~~5712
▁Look~~6328
orea~~11118
▁Tür~~7397
▁Gedanke~~4662
▁Netzwerke~~6209
zuf~~1854
zug~~528
zud~~245
oret~~6676
▁Kühl~~14958
▁kidn~~18008
zul~~376
zum~~11862
agramm~~16442
▁Weile~~1911
lief~~5035
▁Botschaft~~3514
▁trium~~7986
▁Photosh~~11075
ploy~~17565
opters~~15800
▁Innerhalb~~2738
ustrial~~16236
▁stecken~~4204
lies~~6234
▁kommun~~9231
wendung~~11573
ception~~13916
hnen~~2175
▁grass~~17196
▁beschleunigt~~4844
▁kreiert~~4753
ihad~~17447
▁tick~~14182
▁reagieren~~4370
erman~~16019
▁York~~6319
aufen~~6392
▁programmieren~~2998
unters~~11258
▁Social~~13589
▁slope~~18292
▁sym~~6240
bert~~9435
▁syn~~12731
fahr~~10081
uten~~3067
ekten~~12435
gin~~16052
zeigt~~7075
kop~~15141
▁enthüllt~~9038
▁tox~~1082
ctus~~15325
berg~~3533
arett~~15716
▁fantast~~7178
▁Flor~~15732
▁top~~16434
uter~~221
Z~~4014
▁tot~~7955
zeige~~12611
fort~~7557
ique~~16960
▁Bud~~10715
▁path~~14040
iqu~~9314
▁Füßen~~10429
▁Mount~~7799
▁Population~~9759
▁wollten~~2153
▁konsumieren~~5981
heimer~~15465
▁transformative~~16900
▁Kriminalität~~14649
inary~~18072
3.~~14638
rüst~~16225
▁Ohne~~4003
▁Bul~~17224
▁städtischen~~7094
zenz~~372
▁Techn~~11918
▁wenn~~225
▁Lungen~~13849
▁fuer~~17526
zens~~3457
▁begegnen~~14179
zent~~726
iment~~7714
▁wunderbar~~10901
handel~~4794
▁unabhängige~~12357
▁40,000~~16462
▁primitive~~14337
▁Mehr~~7970
▁Antw~~17926
legung~~6757
▁Modell~~2895
▁regener~~15885
▁Regierungs~~11089
▁lesen~~1474
▁sing~~5265
ograph~~9359
▁charm~~14028
▁Gemein~~11240
änzer~~16790
▁SARS~~7134
legte~~6891
▁else~~17270
▁sech~~7676
zuführen~~2673
▁experiment~~11166
▁spiel~~1736
phony~~4745
▁seltsame~~7942
ralen~~15719
▁heilen~~8052
▁Babys~~11383
▁sofort~~3270
▁lange~~833
asste~~12739
▁Marshall~~10960
▁laden~~4715
änzen~~8480
feld~~4006
▁def~~15779
▁cre~~16566
Wie~~1889
▁besond~~16945
abdruck~~11239
▁Debatte~~2255
▁zeich~~9481
ried~~8378
▁definiert~~8011
oie~~17638
Wir~~3417
▁spezifischen~~9826
▁Journalisten~~2963
erven~~3771
▁baut~~7960
▁analog~~12257
▁Pilot~~3277
▁tast~~18279
▁fand~~7596
▁identisch~~10193
▁„~~7751
▁globalen~~2105
▁“~~4791
▁schaute~~8657
lecht~~12272
cking~~5013
▁–~~104
▁Benjamin~~8439
irdischen~~15008
▁ord~~9035
▁add~~7699
▁ade~~17459
▁orb~~16862
mill~~17750
▁basiert~~8868
▁globaler~~3211
▁globales~~6677
ologischen~~8757
▁Lunge~~6971
▁November~~14360
▁Antar~~13721
▁links~~3105
▁zeigten~~3341
▁How~~16752
▁Hop~~14806
▁Hor~~11893
markt~~6059
▁Hom~~2512
▁Hon~~3723
öcke~~10514
kun~~16837
meister~~3716
▁Waffen~~7101
▁Hof~~3707
▁sterben~~5581
▁islam~~12701
▁ADH~~14138
▁poten~~9498
▁Konz~~15054
minist~~11094
▁Objekt~~4891
▁Katastrophe~~12482
▁ermö~~11673
scheinlich~~13590
▁deb~~14796
fassen~~9788
▁Solaren~~17413
▁Nummer~~6419
▁Philip~~13927
▁problem~~14853
▁Jason~~582
▁seltsam~~903
hlen~~3220
▁Gemeinde~~10889
▁Tier~~410
▁Agr~~13858
itet~~6960
die~~3309
▁gelangen~~2678
▁recht~~975
iter~~2071
▁Zauber~~3616
itel~~2957
mm~~9485
iten~~4898
▁Behaupt~~12212
anna~~13105
▁steigen~~990
führung~~3706
ited~~16205
▁Agn~~15990
hler~~3175
▁Szen~~6198
riest~~15166
ville~~5125
▁treu~~7587
work~~14127
▁distrib~~18104
▁älteren~~11290
▁Bären~~1623
▁bra~~9884
omben~~10307
ächer~~3234
▁result~~15002
▁SB~~16877
ächen~~9101
▁treffe~~12992
▁hinweisen~~13762
Gro~~9574
verhalten~~9532
▁Femin~~12344
▁mim~~17959
heres~~13941
▁Tibet~~10103
ampus~~16105
▁Wandel~~1239
addy~~8947
▁stell~~11421
stadt~~6172
▁unterschiedlich~~392
▁Symmetrie~~12151
▁hipp~~17599
▁Math~~16819
▁Landschaften~~5358
▁Cameron~~7261
ummer~~10175
▁Nächst~~17056
akuum~~18097
stät~~8387
bringen~~847
stär~~2109
▁gelb~~2192
▁That~~14976
▁Matz~~4022
▁Country~~16126
▁Cass~~15826
▁schmerzhaft~~4126
▁Wut~~7305
▁erhöht~~3632
▁dich~~1525
rue~~14897
▁Matt~~14914
kommun~~8162
box~~2866
▁Verb~~4057
▁grundsätzlich~~12182
▁erzielen~~2317
▁arbeite~~1755
▁Verk~~6840
bor~~5342
bot~~8658
▁Vern~~6740
▁Verm~~10899
▁Verl~~8250
▁gefallen~~5555
▁verbr~~9971
▁normale~~11077
▁Verw~~4492
springen~~7554
bon~~5610
▁Vert~~10773
▁schnell~~2442
▁Verz~~10767
erk~~9194
bod~~10099
▁Pist~~13526
▁Wald~~5351
▁eingestellt~~4613
▁France~~14017
ufact~~15788
▁Hu~~11064
▁funding~~17988
▁erlaubt~~3056
iano~~6263
fältig~~70
▁Walk~~8381
▁lieb~~5538
▁Höhlen~~3167
▁hol~~2073
▁Mü~~5653
▁Alles~~837
▁Aller~~14366
lesen~~3083
▁brasil~~14561
▁unglaublichen~~947
rus~~9058
▁Mö~~4554
▁hob~~10761
▁lies~~11288
zusetzen~~6890
▁Sterne~~9979
▁fehlt~~5040
arien~~14006
▁verfolgen~~6919
steigt~~11273
pern~~4874
staaten~~6161
pers~~16058
▁erweiter~~11903
▁Leistungen~~2264
ologische~~8767
▁ausge~~4202
pert~~11702
▁grad~~16045
▁Aufnahme~~10036
elzen~~5671
ays~~2881
▁Neues~~8232
ood~~3149
▁Begeisterung~~10862
▁kostengünst~~7861
fällig~~7168
▁aufbauen~~3228
oom~~9755
ool~~2080
▁frustr~~12077
oon~~13474
▁analysis~~18375
ook~~11101
oot~~248
▁versuchten~~4229
▁Bedenken~~15035
oop~~5821
▁Dollar~~2889
Ber~~11372
▁Philadelphia~~14036
▁says~~17699
▁Beach~~5693
▁Panz~~14827
fly~~6257
▁feiern~~1789
unkten~~12148
▁beat~~16512
▁sorgen~~917
▁spl~~16148
▁Vanc~~17916
▁junge~~2103
▁Taliban~~7669
flu~~10595
▁liter~~15167
ult~~2339
ulu~~14210
▁Same~~17651
▁Mahlzeiten~~5905
▁Banjo~~17285
▁zufrieden~~1844
ull~~9253
ippen~~5548
athan~~15463
ula~~15430
ulf~~633
uld~~11865
ule~~941
▁Bali~~14970
mented~~14346
▁Balk~~12389
▁Intuition~~4427
▁Ball~~5302
▁gewaltig~~7050
▁funny~~17558
menten~~10396
▁Bald~~12347
▁angeblich~~9362
▁gefällt~~828
▁image~~16532
▁Muh~~15471
▁tele~~18096
aurus~~16737
▁reiste~~10718
▁Kommunikations~~3746
▁Spra~~3886
merz~~17535
▁alter~~7212
▁Glied~~15889
▁ermutigt~~8469
▁Franklin~~8440
▁gezeigt~~4945
▁Just~~15094
▁1960~~13154
▁Lebenserwart~~16932
▁fall~~16259
▁hätte~~3418
▁interessiert~~4732
▁Nä~~2161
▁Förder~~1878
über~~5000
▁guter~~1648
▁gutes~~4324
anzug~~4136
aurant~~11540
▁wus~~14642
▁Wild~~10159
▁gr~~8004
▁gu~~447
▁Obwohl~~1049
ioxid~~14870
öße~~16171
▁ende~~17147
▁gh~~12552
▁gl~~3977
entwick~~10034
▁Stat~~12248
▁ge~~855
mal~~3168
▁guten~~2529
man~~3864
▁Galax~~15579
asien~~13459
room~~15954
▁handelte~~6361
kular~~3178
▁Diam~~3562
zne~~12842
▁Galap~~17794
▁Säuget~~11079
aking~~16992
rics~~15537
▁Nelson~~13240
q~~12012
ergie~~14951
▁Wahrnehmung~~10234
▁verschm~~5754
omes~~15767
▁gelie~~8015
uted~~13683
▁exter~~10967
▁ueber~~16728
▁angem~~12194
omet~~15696
uchte~~5536
▁Benutzer~~10789
▁gehen~~1137
▁Bruch~~6126
▁Put~~17034
▁Sylvia~~6769
▁Stere~~11296
▁Bruce~~6951
immer~~163
ßt~~8580
immen~~8995
▁erforschen~~7908
wasser~~827
▁gestoßen~~2163
gliedern~~8459
hoben~~2495
▁missbra~~11126
▁bewegen~~315
estern~~4056
▁Süß~~14108
▁Rad~~9348
▁Like~~11750
▁Horizont~~7975
antasie~~1702
▁Körpers~~4076
▁Ram~~12311
▁dargestellt~~2553
▁Sign~~13706
gebracht~~3906
▁Körpern~~10487
▁verschw~~8714
▁Rat~~4094
▁greifen~~3980
▁Sauerstoff~~762
▁kannten~~7666
▁richtig~~622
landschaft~~14833
▁mut~~5600
tellen~~1167
werkstell~~16001
▁Ebenso~~8792
▁Regenwald~~1110
▁Während~~3104
bein~~7527
▁Toilet~~15207
▁Aufgaben~~1617
beit~~6452
angers~~17821
She~~9378
▁wunder~~6132
iments~~11505
▁dad~~15933
arbeitung~~6307
▁Arten~~756
isions~~6929
▁Orig~~9825
▁Trick~~11230
ierten~~3432
▁Geistes~~9697
▁für~~124
olit~~14389
rogen~~674
ources~~17305
▁fliegt~~2902
iertes~~6428
ierter~~3463
▁elektronischen~~7653
▁EDI~~18362
sweise~~9858
ök~~4027
▁Lü~~12798
▁pass~~9425
▁werde~~1580
▁40-~~7598
agin~~14381
▁DNA~~8077
lam~~9455
▁mischen~~15443
▁Lö~~1498
ennen~~6206
▁Gute~~2611
▁Imper~~12698
ruppe~~4391
▁weder~~3686
▁sprachen~~5449
teilungen~~2958
adt~~6101
▁Satz~~7631
▁400~~2789
▁Brian~~5897
oiden~~10413
▁Rechten~~11413
▁sweet~~17340
hrte~~3240
▁Hühner~~13671
eltern~~15230
▁Lego~~12947
▁Stimmung~~5311
▁Entscheidung~~2285
▁gebra~~12514
▁talent~~6945
▁schlimmsten~~7987
▁bekannte~~1042
ließ~~6863
▁eigentliche~~8432
▁transport~~13997
▁Keith~~15186
▁fish~~16369
▁heiraten~~7927
auce~~17653
▁sensible~~17036
idmet~~17381
ollywood~~17145
G~~435
ory~~9665
▁Hände~~4610
▁basis~~16968
ort~~2282
▁nachhaltig~~13331
▁electronics~~18171
ors~~9052
▁anfühlt~~4402
auch~~6513
orn~~678
orm~~9642
ork~~7525
icherung~~10432
org~~3555
ord~~7581
ore~~7854
orb~~7497
onome~~11221
ora~~3722
▁Mich~~4105
▁dazwischen~~5324
weich~~7539
▁Court~~16319
App~~15690
▁begeister~~3429
▁infer~~13316
frequenz~~15692
thing~~15663
▁Weiter~~2346
adic~~18408
vision~~12252
▁Tempest~~14026
▁rich~~18092
▁bewaff~~13442
▁Ver~~382
sters~~17247
▁sold~~17891
▁Eigen~~8688
▁BR~~16730
MA~~10065
▁dele~~5262
punkte~~3062
rüsen~~10512
▁notwendig~~6728
▁Dave~~77
▁BF~~11401
▁Konstruktion~~5015
afen~~6470
▁wär~~10009
▁letzte~~1626
erecht~~16569
▁existierenden~~5376
▁BL~~687
waffen~~12274
ölk~~15178
nahmen~~11332
pfern~~5229
▁koennen~~17527
▁subst~~18082
schulen~~347
▁Br~~8093
▁gebeten~~3774
▁brauch~~5022
▁Sport~~1657
▁Be~~1002
▁Ba~~12578
▁Bo~~9234
▁Bl~~9144
▁internationale~~6703
▁Bh~~17136
▁Bi~~2815
▁Waffe~~15513
▁hinzu~~6140
akten~~9684
▁Elektr~~13708
▁bewundern~~13024
▁Tiefsee~~842
▁normalen~~4560
▁Charlie~~14617
▁normaler~~10453
amin~~6314
akter~~4000
▁Ebenen~~7683
▁wünschte~~12539
▁faszin~~10186
ighter~~18084
▁Tamiflu~~17634
etch~~12925
▁anfängt~~7835
▁auszur~~7004
10~~5456
uition~~16301
12~~15159
unsch~~4616
▁ries~~15055
wert~~4316
▁Fusion~~15361
▁abh~~7570
orge~~6694
▁auszub~~7148
amie~~15084
branche~~15339
werf~~5649
▁süß~~13537
▁auszud~~16999
▁Erkrank~~17220
werk~~4632
1,~~9719
orgt~~5923
1.~~7569
lich~~397
▁Küste~~5711
mitte~~478
DE~~16282
▁September~~4936
DA~~13859
▁wahrhaftig~~15543
▁sorgfältig~~7486
▁Projekten~~6896
▁Hur~~16627
▁Christians~~17912
▁Perspektive~~6333
kreisen~~11069
DP~~17641
▁jugend~~1653
▁Ärzte~~8021
Do~~16331
▁Licht~~344
Di~~13865
▁infant~~12920
De~~4870
▁20-~~13844
▁profitable~~16802
▁Einnahmen~~13621
▁Ignoranz~~12288
▁dauerhaft~~4720
ilemma~~13135
Du~~3788
mlich~~488
umer~~13341
▁ausl~~12729
▁Ruder~~12184
▁bekamen~~7941
▁hole~~9109
▁wenige~~2276
▁streets~~13655
anfall~~13269
▁tit~~17225
bett~~8419
▁Flag~~13636
erkrank~~10581
rade~~17053
▁Arzne~~16075
▁körperliche~~4599
▁Feinde~~5519
▁Show~~11400
odies~~15555
skrise~~5636
▁pret~~10161
▁Kontakt~~9732
ering~~13972
▁emotionalen~~8498
▁spenden~~11484
▁interview~~8156
▁2008.~~12768
▁Gewinner~~12506
liche~~140
▁River~~14450
▁Schwer~~13390
▁dring~~15234
▁Johanna~~15355
▁zumindest~~3830
▁grosse~~1637
licht~~2501
lernen~~1458
▁Fort~~4544
▁kaum~~5720
▁Bestandteil~~3702
zept~~2022
ünde~~4352
▁Gegenden~~7104
▁waren~~858
▁brand~~7692
▁gang~~14936
obel~~12832
▁Meisten~~5465
▁Angestellten~~1311
▁Meister~~1766
▁Effekt~~5270
▁Yemen~~16775
▁ganz~~803
▁erwe~~8837
Test~~15033
ungskette~~5853
▁konsum~~5956
We~~369
itete~~6396
▁Blau~~5503
Wo~~4579
▁leeren~~11810
▁jünger~~8809
schmerzen~~16348
▁2008,~~13585
▁this~~18241
▁Methode~~3004
istan~~13525
▁Athe~~4284
kilometer~~6765
krebs~~7952
umen~~10202
▁verbl~~10355
verarbeitung~~13930
▁billion~~1595
▁Partei~~11613
▁Voraus~~4347
leuchtung~~13920
ges~~4130
ger~~3061
gew~~5967
ären~~3682
▁optim~~6335
get~~4154
▁Montere~~17971
▁entstanden~~1047
mung~~5746
▁Global~~12518
“,~~12458
self~~11833
geb~~1496
▁versehen~~13247
irt~~9949
gef~~2713
ged~~735
ärer~~4635
▁Wörtern~~13771
Zahl~~16809
▁Schizophren~~16518
gen~~716
gem~~6678
gel~~801
▁Shang~~17486
▁bask~~17469
▁Hitler~~16355
▁gefunden~~3681
▁Transcript~~19
▁kompliz~~16869
▁Übertragung~~3480
▁Large~~17412
▁vertra~~220
▁Lehrerin~~10873
sum~~16328
▁event~~17141
ould~~16852
▁winzigen~~5862
rupp~~8618
▁benutzen~~247
ützt~~6876
ence~~13873
▁Sorge~~11674
oven~~16513
▁soll~~1336
▁abs~~12187
▁solo~~17022
▁Sekunde~~1716
▁Indian~~14451
▁Besch~~3875
ütze~~10045
▁Angeles~~5686
▁bisher~~608
▁fehl~~12451
▁langsamer~~8366
▁Jungen~~3497
ency~~18187
▁jün~~17587
▁Graf~~4541
▁hold~~17348
▁Grad~~543
▁verwirrt~~13054
▁Grab~~13971
▁Flugzeuge~~14364
▁Überall~~1608
▁kommst~~1870
▁Chinesen~~5534
▁wiederhol~~5350
▁Gras~~5354
▁Erwart~~11808
▁erschafft~~14116
▁empfind~~1115
rupt~~15349
▁Journalist~~8352
▁irr~~11726
▁fried~~8988
▁Orbit~~13094
▁Nigerian~~18165
utt~~8094
▁Indiens~~7151
▁verbraucht~~14156
▁Sequenz~~7010
▁ging~~2430
leitungen~~14235
osphere~~13692
je~~13017
▁Eigentlich~~4456
ja~~5930
▁Kaffe~~14968
▁inklusive~~13181
▁Liebes~~5410
uty~~17733
▁weiterhin~~3479
ivity~~17293
▁Ost~~5364
▁gemäß~~11282
▁pen~~11519
▁Kindheit~~8527
▁per~~1287
▁turb~~15534
▁Telefon~~7643
▁welt~~2575
gemäß~~6686
▁größere~~885
▁Resp~~16898
▁Lieben~~3791
daten~~13605
▁drast~~14989
bedarf~~6807
izer~~4861
izes~~16660
▁informiert~~8323
▁biologisch~~5658
▁transform~~1588
▁unmittel~~7405
▁Appl~~15640
fä~~13670
▁Herzkrankheiten~~14996
ized~~17150
▁Denker~~15988
wissenschaft~~2961
▁weisen~~10625
izen~~7914
▁Dafür~~9517
ision~~4990
mare~~9432
arts~~13665
▁unglaub~~2914
olitik~~11730
▁standen~~5535
▁Freizeit~~11930
▁Zuhören~~7461
mart~~10025
▁aufgehört~~4282
ungskraft~~7688
zustellen~~4819
arte~~4664
▁Wenn~~128
acre~~9926
arth~~6033
industrie~~6051
▁ziemlich~~2994
▁weiterentwick~~10577
kultur~~11663
viele~~7070
▁beeindruckend~~2523
▁Schlimm~~11286
oust~~257
▁Ein~~144
▁sogenannten~~5750
▁Erfindungen~~5999
▁Schach~~4623
ocampus~~12119
▁ängst~~11255
igkeit~~2259
▁Eis~~826
▁Transparenz~~1861
▁beschlossen~~8092
▁Linux~~13172
▁mögen~~4529
▁million~~1594
gelenk~~3606
▁stat~~10137
^~~16245
zä~~4273
▁dringend~~15797
▁weiteres~~7965
▁weiterer~~8568
▁Jugendlichen~~3550
▁Büchern~~4880
▁stand~~2410
▁hind~~16528
▁done~~18051
▁Gross~~5932
▁Hindern~~13440
▁schlimmer~~7411
▁Environ~~11090
▁Galapagos~~6871
zü~~11060
▁weiteren~~2788
krank~~4833
iolog~~11251
▁bekannter~~13320
▁Organization~~15208
▁auszu~~6683
▁verbinden~~2265
▁Möbel~~6318
▁erfolg~~16380
stal~~7595
ials~~16693
▁verbindet~~6549
▁network~~16467
▁Figur~~11691
▁nütz~~3598
heitlich~~5117
▁RB~~17900
▁verlor~~9556
▁Weltraum~~6916
▁fantastischen~~4695
par~~2251
pat~~3093
▁menschlicher~~1080
samm~~7563
uben~~13820
▁prov~~3397
▁prop~~11590
same~~13132
ammad~~16177
▁Türen~~6585
▁fantas~~17946
ächern~~13158
▁alive~~17182
▁relevant~~8761
ased~~17874
▁proj~~3251
▁Wohin~~3123
▁menschlichen~~3005
▁Ausland~~7452
pal~~15706
pan~~9555
samt~~11410
▁Arab~~13560
▁Klimaw~~14948
▁Dur~~13432
▁Rennen~~8444
imeter~~727
▁jem~~17448
▁Tauch~~852
▁individual~~9651
hrase~~12819
oid~~16486
▁gebaut~~4722
affte~~11998
▁stellen~~1731
▁parallel~~9289
▁Doha~~15594
olith~~13510
▁Dub~~17620
▁trainieren~~4849
▁Dun~~12165
ois~~14668
oir~~7158
▁Brad~~15499
▁enc~~16335
▁eng~~4354
▁end~~3101
▁Familien~~2426
▁Susan~~11343
▁enh~~14855
▁PowerPoint~~14550
▁Fiktion~~1700
▁enl~~18160
ukle~~11138
▁Music~~4756
▁habe~~1351
mann~~13005
▁ent~~2003
▁Defense~~11149
▁Musik~~1149
▁Hong~~14888
stellungen~~10594
ably~~18281
▁Kra~~9361
▁inf~~7239
rechend~~17478
▁fällen~~11988
▁Fliege~~7904
▁eB~~14860
▁ing~~16858
▁Verkehr~~8471
▁unbelie~~14924
▁Absol~~14211
▁praktische~~4497
▁Säugetiere~~10574
▁Webseite~~5568
▁epis~~17100
▁tend~~14447
▁genannten~~12087
▁erreicht~~2676
▁eg~~17909
▁Dienst~~1796
▁prüfen~~6145
▁CEOs~~14079
▁ground~~17355
quelle~~6006
▁Übr~~12493
▁Tun~~7566
▁en~~4980
▁em~~13027
▁el~~3663
▁produkt~~6236
▁voneinander~~1134
▁Bir~~13201
▁Zeitspanne~~4494
▁ew~~14836
▁gewohnt~~3858
▁hält~~1904
▁et~~9772
▁es~~167
▁er~~452
ordnen~~3336
▁ep~~14913
▁Wicht~~8320
rän~~4310
▁Glühbir~~6538
▁Indem~~7468
▁ex~~7976
▁elektrische~~6406
▁Zeitschriften~~12048
äten~~7764
▁Grundlagen~~2694
▁Lehrern~~2627
▁keines~~15090
mor~~16178
▁geograph~~9242
▁Kreise~~2308
▁ink~~10431
▁niedr~~14731
temperatur~~14866
mon~~13472
▁vergleicht~~12086
▁kü~~6812
▁Lesters~~15332
mod~~6354
▁Joel~~15736
▁Männern~~7441
nost~~13986
▁Ameisen~~1610
▁bloß~~4671
▁int~~6822
itable~~18132
▁Grenzen~~2696
▁investiert~~2335
▁Republ~~11620
▁Briten~~3434
▁Western~~6105
▁Dick~~13928
▁Dich~~8992
▁aktivieren~~6581
▁klassische~~11564
anth~~12079
▁Karte~~569
▁Szenario~~6734
▁Erwachsenen~~1655
▁menschlich~~12098
zahlung~~4349
▁fordert~~2278
ct~~10596
atible~~15724
▁60,000~~17427
▁kreative~~1958
▁Krankenhaus~~4048
▁Dro~~14080
▁Dopamin~~14487
Med~~12844
▁gas~~16880
▁gar~~910
igten~~3385
▁Ocean~~17049
behörde~~7448
▁Lied~~6266
▁Bah~~15402
▁russ~~7907
▁herstellen~~6242
▁Kenn~~11107
▁Lieb~~5558
kord~~5858
▁erwartete~~7366
▁gab~~1843
▁Anwalt~~2551
ieden~~5275
aser~~15194
nehmern~~1307
▁dum~~14315
ände~~2595
förm~~8782
▁Verfassung~~11481
▁1.000~~13026
▁Prim~~13343
ministerium~~15291
▁online~~4940
olog~~13348
iversen~~17957
▁jährlich~~7170
▁probieren~~7205
▁Großbritannien~~3255
market~~18173
issenschaft~~3943
▁Call~~12802
▁Priv~~10752
▁Mauern~~10168
▁Operations~~11514
▁Teil~~145
▁Himalay~~8088
▁thing~~17261
▁Pennsylvania~~11629
▁folgt~~8611
othe~~4411
▁willst~~4964
ibiot~~17781
▁schaff~~8398
▁Schwierigkeiten~~12462
▁bul~~18384
AR~~6825
ouble~~14539
▁spend~~16892
kü~~7936
▁Fang~~16781
▁Korallenriffe~~16365
road~~13952
umb~~8976
▁Inse~~18122
▁Unterstützung~~6906
▁Laser~~10265
nitten~~2492
▁erwähnen~~6041
▁Stücke~~4778
▁psych~~6607
▁anerkennen~~13840
äsent~~17297
▁Auslöser~~10310
usalem~~8882
▁Mittelpunkt~~6133
▁nachdenken~~3900
▁Inf~~8306
▁Bal~~11013
▁Einer~~3934
▁Eines~~860
▁kreativer~~5034
▁Inc~~16195
▁Inn~~10922
▁gleichen~~2228
unterricht~~8535
achten~~5724
erspektive~~9453
▁jüngeren~~7377
▁["'~~17893
▁Santa~~9835
achtet~~6112
▁Int~~4432
▁Zuhörer~~6472
▁Ins~~8418
achter~~11364
▁kreativen~~10933
▁Streifen~~15201
▁günstig~~8653
▁Histor~~10308
▁Wasch~~7735
▁Beute~~378
▁interakt~~10054
ianischen~~9493
▁Anwend~~15189
▁boy~~15431
▁Khal~~17872
▁Jimmy~~3388
▁jemals~~733
▁beru~~14384
▁---~~14840
▁neulich~~11596
▁Onk~~8022
▁wohlhaben~~13815
lder~~16460
▁Recycling~~9116
einander~~4224
▁Anliegen~~8318
▁Derek~~16160
▁Human~~10792
▁sim~~13913
▁klappt~~4020
▁LED~~14883
▁bedroht~~8190
▁Wend~~14289
▁Solarenergie~~16376
▁umzu~~12177
ember~~16780
umpen~~7842
▁Statistiken~~10485
▁Rate~~14995
chsel~~8581
▁Rum~~10908
manuel~~9592
▁Robo~~579
▁darf~~8101
▁behaupten~~2504
▁denn~~439
ugier~~17922
▁denk~~3636
▁tät~~8329
önt~~5214
▁beschäftigte~~4132
▁ursprünglichen~~11963
▁intern~~15744
▁Budd~~16925
▁separ~~15173
▁One~~15297
ätter~~15476
▁jederzeit~~6854
öne~~15323
▁Spannung~~11751
▁behauptet~~8674
film~~10288
▁Quer~~15916
▁Winter~~6858
▁Thu~~18164
▁BJ~~17299
jektion~~11333
illions~~18398
richtung~~6342
gewe~~12759
As~~11130
irurg~~17142
▁beeinträcht~~6802
▁billig~~11485
field~~6077
▁Leidenschaft~~3624
quality~~17774
▁Australien~~7972
▁Schimp~~15816
unkte~~13190
▁dahin~~2437
aster~~1144
gesetzt~~619
asten~~8380
ämpfung~~14374
▁geteilt~~9155
▁Italien~~7971
▁Pinguin~~11015
▁tour~~12930
asted~~17139
anse~~15817
sequent~~2692
▁angeschaut~~9130
▁AI~~17476
▁Bür~~14398
zieh~~9915
nitt~~15837
▁versucht~~1836
▁Schweizer~~10743
▁unre~~5103
▁objekt~~9877
u~~1527
▁rice~~16367
▁poet~~12899
▁Haie~~17002
▁Meinung~~1236
▁benöt~~8642
▁kommunizieren~~4739
▁verleihen~~12424
▁neugier~~3448
▁versuche~~3763
anach~~12072
▁Verlust~~3425
▁quickly~~18355
▁Ergebnis~~1692
dollar~~18391
▁Jerusalem~~12649
▁Vertra~~13306
▁draht~~15636
▁Behör~~11262
zing~~7798
▁domin~~3216
▁gebe~~3938
▁Wunsch~~6770
▁Christ~~7465
▁wohnen~~12106
children~~18086
▁Herren~~7242
ochem~~4612
ochen~~9508
▁polit~~14651
▁Elektronik~~12615
▁genetisch~~10525
▁signal~~15376
imme~~8900
▁Dutch~~18204
immy~~18407
▁Rezept~~14754
▁polic~~18340
▁eBay~~13763
pless~~18358
▁Extrem~~4768
stück~~4705
immt~~7989
ihen~~1036
▁Hund~~10654
▁bar~~3530
▁bas~~13131
▁bat~~5478
▁gegenwärt~~4176
▁your~~17271
▁bay~~17837
▁orange~~11084
▁Sollten~~6192
falt~~7533
ossen~~1914
▁horizontal~~6559
asche~~7803
▁bad~~17130
izza~~16170
fall~~7236
▁Council~~16995
ius~~4555
▁bal~~11217
▁außerdem~~5661
▁ban~~13828
▁Berlin~~15284
▁ooh~~17814
hyd~~3908
ieht~~11803
▁krit~~9696
▁Bangalore~~7779
▁chem~~767
▁endlich~~7213
▁Jamie~~15647
zentrum~~2564
atories~~18120
▁bilde~~13617
jenigen~~10412
▁krie~~1009
▁Mike~~9095
gor~~15422
üttern~~1415
▁digitalen~~9911
▁europä~~8513
▁Daten~~495
▁Sech~~3317
▁ziehen~~790
▁motiv~~1770
▁immense~~16829
▁unternommen~~2421
▁Bäume~~10111
ritten~~8404
go~~12484
zero~~11215
▁Gelder~~2705
▁held~~17963
▁gall~~13066
▁kollekt~~11651
▁entscheidenden~~2554
ended~~18377
aba~~14181
▁ausländ~~8219
▁Rand~~8986
▁Ist~~1114
▁Blitz~~15982
▁Spring~~10610
▁Cous~~11017
▁Cour~~9589
▁ausgest~~6508
▁Isa~~16540
▁Coun~~17705
abr~~4686
abs~~9563
abt~~2683
▁doing~~17183
▁Kohlend~~17989
▁Milch~~5955
▁Konsum~~3188
▁Charl~~16057
▁Demokrat~~8625
ordnung~~7484
underte~~9157
▁Besucher~~14148
▁Beobacht~~13380
▁nachdenkt~~130
▁Wirkung~~2681
▁fusion~~17369
izieren~~3018
gemeinschaft~~13682
▁Sier~~14572
▁anstellen~~12085
▁South~~12445
▁Überwachung~~11157
arin~~15818
▁Sieg~~8044
▁Lu~~12046
▁LOL~~16483
▁Universum~~9327
▁Stellt~~14227
iums~~6810
stellt~~4731
▁zeigt~~928
▁Mr~~10169
▁Yellow~~14597
▁Gruppe~~3705
▁Berkeley~~6331
embly~~17737
▁Fern~~8305
▁historische~~12664
stelle~~1933
▁zeige~~4008
formation~~13129
▁Fahr~~11739
▁stereotyp~~16938
ührt~~12968
▁übertragen~~12869
▁Luft~~2765
▁sond~~15396
▁Aufruf~~11650
▁Coast~~17585
ineering~~15859
▁Direktor~~8026
▁demograph~~15000
▁test~~15926
dien~~13236
groß~~11906
iva~~15288
obile~~11738
schicht~~3987
▁wundervolle~~4142
barung~~9894
▁entspricht~~2842
aste~~10762
▁Reflex~~5485
▁unangen~~6601
▁riesige~~157
▁gebunden~~6082
▁Programm~~6611
▁liest~~9086
▁Zuerst~~1910
raft~~1494
▁athle~~16747
▁still~~5333
▁derzeit~~4787
▁bon~~17547
▁Zeitung~~2764
▁gilt~~2669
▁CAPTCHA~~17307
ital~~10647
▁Flugzeug~~2894
plant~~11474
▁Wechsel~~10139
itat~~12873
▁Trend~~8488
▁recycling~~11971
▁durchd~~6947
▁Kind~~1467
uation~~13611
komm~~7590
▁Absichten~~4143
▁Immer~~3386
▁Ghana~~9249
▁chinesische~~7917
▁Princeton~~9718
der~~313
des~~5951
det~~11034
üsseln~~8880
▁Ach~~11493
▁Dasselbe~~13483
▁effekt~~6723
▁Verantwortung~~2653
▁Überwach~~1534
üsselt~~14544
kette~~15748
▁Acc~~17091
▁Überrasch~~14150
▁alphabet~~13091
▁Sammlung~~13757
▁Mother~~17889
▁gehör~~7515
▁Nicholas~~10826
▁inst~~11222
produ~~3222
▁Well~~13444
▁trat~~5202
▁Khan~~16853
▁Fähigkeit~~1505
rise~~14734
▁bemerkten~~12774
▁Welt~~234
▁hoffnungs~~10147
▁trag~~6733
▁traf~~5567
▁trad~~17670
!~~492
angt~~13871
stil~~10584
▁Sätze~~7336
▁li~~11700
ous~~13418
arzt~~6467
▁Abfall~~14086
ilosop~~15160
▁Euch~~8996
▁verläuft~~13980
▁Magazin~~1277
▁reich~~672
▁President~~13211
▁Wieder~~2150
iessen~~6964
▁Jesus~~14746
Don~~15674
onte~~9395
teils~~7087
▁Make~~12401
angs~~6836
▁Medical~~8029
teilt~~2320
▁quiet~~18199
▁360~~14188
▁Herzin~~17470
▁June~~14523
▁fashion~~16641
▁menschliches~~3225
teile~~4838
▁komplexer~~11087
▁50.000~~3955
indern~~10232
▁Vent~~9402
▁Könnte~~9169
▁Aster~~18046
▁Macher~~13725
▁Schöpfung~~9890
iens~~5723
ient~~4093
▁oftmals~~6491
▁Vene~~15840
▁Virgin~~17370
uzen~~7328
▁aufgezeichnet~~10055
▁prot~~17904
indert~~13194
▁Machen~~4564
alph~~11111
▁trage~~8603
iene~~3829
▁Wort~~5544
cken~~448
▁befest~~2934
▁Wahl~~1602
inzip~~6170
▁Nature~~14602
▁Selbst~~1377
▁love~~16082
▁Studium~~12533
▁Word~~11024
▁Virt~~4652
wä~~208
▁Wahr~~3171
▁relatives~~9354
▁such~~12073
▁Work~~6907
▁Zeitschrift~~16332
cker~~5053
▁prom~~11922
20~~2783
▁Software~~4765
holz~~7822
▁prol~~18404
▁möglichen~~291
▁Abraham~~14283
rigen~~10517
▁spät~~5460
▁einfacher~~6152
▁einfaches~~1794
maßnahmen~~9660
▁einfachen~~4188
▁Fels~~935
pend~~16700
▁Third~~14604
messer~~13437
2,~~8208
2-~~9756
2.~~11441
▁Ufer~~9142
▁Arch~~6363
fält~~11746
▁Vorgang~~3047
▁Holl~~3737
▁Kateg~~14700
bage~~5622
gelöst~~14174
▁check~~17722
▁blicken~~15024
uhr~~7335
Å~~15383
malen~~681
▁Definition~~8742
▁Guard~~17387
▁Epidemie~~12549
▁Over~~12464
▁verwendeten~~8659
▁Holz~~9781
▁erstaun~~5101
▁relative~~2505
▁Free~~14512
Aber~~9970
▁anderen~~1293
▁Veranstaltung~~6410
▁ele~~15759
▁elf~~12337
▁klug~~7586
▁Girl~~12530
isation~~7444
inding~~18275
▁berühmt~~8243
Projekt~~12308
▁Übersetzung~~8073
ilation~~17208
önen~~5135
opes~~17734
griff~~12350
▁Dame~~11798
iden~~675
▁Maschinen~~7831
blicken~~10726
▁Paten~~7723
ided~~17663
▁ihren~~1732
▁ihrem~~2591
▁bessere~~1698
reckend~~68
▁ihres~~3520
▁ihrer~~504
▁kit~~15461
AIDS~~12837
▁Apfel~~14740
cture~~17213
orient~~11768
ider~~5424
ides~~6005
▁km~~6898
▁Satell~~2811
▁ko~~5802
▁kn~~4754
▁Twe~~9246
olas~~16119
▁ke~~12980
▁Fehlern~~13906
▁kg~~723
▁Sender~~11144
▁wachsen~~1076
▁niedrige~~14982
perrt~~11705
Ö~~15155
äufe~~14194
▁Lebensmittel~~5983
▁Kunst~~1720
▁absorb~~3912
print~~14223
▁dauerte~~4077
▁vorant~~2657
▁Sagen~~7307
▁kr~~11479
▁ausges~~6207
▁Gesetzen~~11338
▁Farbe~~3965
▁größeren~~1816
▁Hirn~~10333
ED~~11606
EG~~16562
▁Südafrika~~9543
▁Ground~~16095
▁Interpretation~~4692
▁unber~~13398
▁Theorie~~10247
▁Bruno~~11598
Und~~12601
▁aktive~~10949
▁unbek~~242
auben~~14229
▁größeres~~5191
mma~~10853
▁Versionen~~13481
ES~~10591
▁Davon~~13767
▁lassen~~590
En~~11875
▁Händen~~6519
▁Restaurant~~5917
▁bewerten~~9676
▁Gene~~8906
▁Gleiche~~3840
▁dauer~~6007
omin~~8272
▁anschaut~~5061
Ex~~1793
▁festgestellt~~5138
â~~16493
▁terrorist~~14357
—~~17093
▁Seb~~13591
▁pf~~7730
Es~~7263
Er~~1483
eding~~17817
▁Audio~~14492
▁andererseits~~12755
wagen~~6310
nach~~7125
▁AD~~17218
▁mehreren~~2887
ulture~~9731
▁AK~~15615
▁Kindergarten~~2445
sterben~~10566
ografie~~9823
▁Ansichten~~5394
ures~~12175
▁Rakete~~10296
stronomen~~12900
▁Ret~~11206
▁Erziehung~~10145
▁Irgendwann~~5462
Okay~~5524
kol~~5719
forschung~~1462
kon~~3144
▁Tendenz~~9666
▁mit~~222
▁mis~~1741
▁mir~~1501
▁Rez~~16537
▁durch~~445
▁Red~~3766
▁min~~15806
▁helfen~~5607
▁Reg~~3140
▁Antrieb~~2649
ordnungen~~10076
▁Rel~~15735
▁Rem~~11605
katastrop~~11981
kor~~113
odox~~16353
▁Rei~~16754
lease~~18142
lehrer~~11879
▁erfüllt~~4363
▁gekl~~9699
llte~~7802
rats~~15453
▁Altru~~13171
▁Vorbild~~12669
park~~8307
▁Reichweite~~8843
▁Diät~~3217
ó~~15095
stätte~~14119
▁wunderbare~~3526
▁Denkweise~~5508
▁Kuh~~11133
▁starten~~1224
ylinder~~7626
Problem~~9757
akat~~8386
▁habt~~10022
b~~31
▁Online~~7641
▁institutional~~13572
▁Werbung~~12775
▁Individ~~12090
ennig~~18234
orgen~~7472
▁At~~2852
seen~~17979
▁breit~~4784
▁Auswirkung~~7698
▁Diskussion~~2413
▁miteinander~~4475
laufen~~9496
▁Büros~~11976
ichtung~~3876
ufen~~3793
▁hör~~13284
▁199~~7123
▁198~~857
▁witz~~12624
ypoth~~17489
▁193~~3346
▁komplex~~5178
▁191~~12689
▁190~~8781
▁197~~8136
ager~~5631
▁195~~3282
▁194~~3539
▁Neigung~~2946
agen~~2130
▁Masse~~12614
äter~~12227
▁Erfahrungen~~3119
▁19.~~12679
▁millimeter~~17727
▁Auswirkungen~~4421
gehörigkeit~~7720
aged~~18028
▁Viol~~15934
▁Herausforder~~4530
▁Akt~~4676
▁Ac~~10804
▁Finan~~13033
ation~~4550
holm~~6796
▁spreche~~10882
God~~17751
jenige~~4517
▁Angiogen~~18210
machen~~8016
gress~~5584
▁anfingen~~4466
▁Archite~~17052
▁mobil~~12556
▁digitale~~7679
▁vergleichen~~11784
aring~~14963
▁honor~~3623
▁State~~5691
▁Essen~~3553
▁blut~~15794
most~~15722
▁Fund~~12049
esse~~6316
▁Statt~~8994
▁Hus~~15879
▁blue~~16041
▁jemand~~1353
▁Funk~~10297
reden~~2715
▁Sturm~~10384
ka~~9188
▁transportiert~~5919
▁muslim~~16229
ke~~4311
kd~~12068
ki~~16366
ko~~9802
kn~~9507
▁An~~199
ks~~4830
▁englische~~3369
▁Renn~~12460
▁Roll~~12376
▁Hut~~8402
kt~~2353
ky~~14131
▁politischen~~2964
▁enorm~~2326
▁Ober~~3370
oots~~5121
illance~~18089
▁besonderen~~6687
▁herzlichen~~3865
▁action~~17732
▁Neuronen~~8922
▁Darm~~15226
zeichnete~~5276
▁Ergebnissen~~2530
öhn~~10239
andert~~13500
oote~~13974
▁University~~4378
ooth~~16314
▁programmiert~~1591
▁Oben~~1085
▁FG~~17812
pe~~6700
▁besitzt~~6416
▁Plan~~5829
▁sowohl~~4434
▁London~~3568
▁Fr~~9434
▁Intern~~11327
▁forder~~15707
▁beobachtete~~9758
▁Woche~~1078
▁Fi~~14485
▁Play~~5329
▁Cambridge~~2806
▁Fl~~3599
usions~~15346
▁American~~10041
8~~3540
▁Tja~~5188
▁Fa~~3333
▁Bhutan~~8091
passung~~16275
▁Fe~~2543
▁flock~~14869
▁publ~~15179
▁imm~~10946
▁entstand~~7647
▁kind~~11715
▁beunruh~~8709
▁pandem~~7132
▁heut~~13750
▁zeit~~3892
▁fluid~~18061
meid~~8734
▁Biom~~11328
▁Sally~~17118
▁25,000~~17428
utzend~~14474
▁Äqu~~10214
▁angemessen~~4392
attle~~17020
▁imp~~7081
▁Lektionen~~2268
stronaut~~6917
▁herz~~14696
▁athe~~17883
▁süd~~6885
▁überraschenden~~9243
▁arbeitete~~9229
▁traditions~~13039
▁64~~525
▁teilten~~5552
▁aufhören~~1671
▁offene~~11046
▁effizienter~~5950
▁Kids~~4749
▁Größenordnung~~10226
▁begrü~~8579
mind~~18238
▁leiden~~12026
▁vertrauen~~1938
ving~~17798
▁Schritt~~1433
▁Freit~~17229
▁Flederm~~15620
▁konfrontiert~~4019
▁extrem~~4558
▁prote~~17888
▁treten~~8549
▁unabhängig~~7141
▁kombin~~15679
▁versteckten~~4030
fang~~3574
▁Kontrolle~~2654
▁Käse~~13893
odelle~~9686
▁Health~~16146
▁spielt~~195
bücher~~10973
▁existierte~~6070
sonst~~7684
▁anzusehen~~11843
▁Papier~~2830
atures~~17718
▁spiele~~8594
▁Galile~~17254
▁Betrieb~~1097
iest~~11300
mäßige~~15434
äusen~~13326
ikt~~5817
▁narrat~~3157
▁Flex~~4959
▁einzigartige~~10786
▁mobile~~13294
reitung~~15025
ika~~6597
▁ed~~8051
▁Vermögen~~12543
otherap~~16933
ike~~1921
rieben~~5099
▁ec~~17728
▁Cro~~14377
iko~~8188
▁freiwillig~~12264
▁weinen~~5481
spunkte~~9636
▁Reihenfolge~~13053
jährige~~7380
▁comp~~18368
▁involv~~12817
▁Schwar~~15007
▁Billy~~15546
▁Rückenmark~~6543
sted~~17672
cyclopedia~~17124
Yes~~17484
▁Snow~~17407
▁Kohlenstoff~~6697
▁Pandemie~~15947
▁isst~~11544
▁dump~~17424
▁Tum~~10544
▁komple~~8484
point~~16959
▁wirkt~~5210
ordnet~~9838
▁schwarzen~~12871
▁größer~~562
▁saßen~~9943
andal~~13248
▁viele~~993
▁Econom~~15536
▁Balken~~2356
▁dumm~~1607
▁außergewöhnlich~~3478
▁beschränkt~~12105
▁Denn~~607
▁Denk~~2462
▁ev~~12023
▁verfolg~~7705
▁zwischen~~405
▁Schwarzen~~5811
▁ungewöhn~~4800
▁Muslims~~17822
ibly~~17559
▁Bilder~~151
arbeit~~1895
▁wegen~~1576
rett~~9808
▁veröffentlicht~~1628
▁Tur~~14900
▁eintreten~~14117
▁Hungers~~8109
4~~2898
gebungen~~16459
▁willkommen~~14672
▁Pfl~~14788
ason~~16517
gas~~8497
gar~~5667
▁Pfe~~3717
sprache~~8666
▁Hersteller~~10777
gan~~6848
gal~~5371
▁ungehe~~11213
▁Talk~~16
gab~~11478
▁bring~~10001
lings~~10557
bild~~1210
▁Try~~18050
▁zwe~~1174
▁go~~15149
chten~~5233
▁trifft~~665
▁ignorant~~12478
chtet~~9365
linge~~10170
▁dieselben~~5588
▁Zuhause~~1202
chter~~4728
zubringen~~6946
▁Natasha~~18179
▁Geräus~~4133
gent~~13030
▁Ähn~~9163
▁Möglichkeit~~1953
aa~~16140
teten~~5513
pret~~16108
▁persönlichen~~4266
▁übersetzen~~14686
▁Mitteln~~13112
▁messen~~2024
▁Tower~~16201
▁Idee~~1575
▁persönliches~~4949
▁persönlicher~~9290
mächt~~1941
▁korre~~16244
zieht~~5834
▁beschäftigt~~3688
allas~~15567
▁wozu~~9475
engu~~11012
acher~~6261
aches~~9501
recht~~1709
▁Gren~~3712
▁ermöglichen~~4983
itors~~17564
(=~~17937
▁Greg~~12922
itals~~4962
▁ide~~12173
▁Mütter~~10020
reche~~13797
▁2050~~5952
reibe~~5144
▁Anwesen~~12494
rechn~~8313
achen~~1991
▁Seattle~~13495
achel~~9012
▁5000~~9217
▁Nad~~10109
▁schützen~~6656
▁Aw~~17761
itch~~12725
▁theoret~~7573
▁saß~~7902
▁Nag~~11993
▁Bier~~1978
duate~~17607
▁Up~~11040
Kön~~15860
mot~~12808
▁Luke~~10760
▁körperlich~~4595
▁Trocken~~11937
▁Cohen~~14524
▁Anwendung~~3996
▁Hindernis~~11487
steller~~12946
▁respektieren~~11697
stellen~~4867
ppe~~13507
▁Ihren~~824
y~~3454
amps~~15704
▁leidet~~14359
▁anzunehmen~~12477
▁Also~~1318
struktur~~11657
▁glau~~13071
▁Nah~~4806
▁Löwen~~12075
▁bemer~~12434
izit~~9641
▁Anges~~12315
pling~~16808
▁limb~~16718
izin~~11329
▁Saf~~16074
tendlich~~18396
▁girlfriend~~18319
▁bit~~17810
▁Projekts~~13447
ultur~~6244
uchs~~919
▁frühe~~5287
▁gefe~~6196
▁erhalten~~5877
▁Rabb~~15070
▁geleistet~~14715
▁gefl~~8600
▁Erwachsene~~1358
source~~17538
▁gefr~~8941
uche~~3985
▁Projekte~~6230
voll~~2875
▁hoff~~9554
▁Rätsel~~9753
▁drinnen~~1061
▁schizophren~~15265
gefügt~~8821
▁zuverläss~~8167
bin~~5209
atural~~18229
ield~~15981
iele~~11229
ößen~~13784
sprojekt~~13195
Die~~261
iell~~8445
bie~~10696
▁Transpar~~18136
ielt~~2626
äft~~4435
▁staatlichen~~11337
aptops~~15618
▁Dynamik~~1612
▁Emp~~10497
bir~~16455
▁Sommer~~6291
schlüsse~~5735
▁ann~~15076
fron~~12789
▁Änderungen~~7577
▁danach~~6504
▁Norweg~~16705
▁ank~~11811
▁anh~~4383
▁anf~~7860
▁ang~~6578
▁and~~18
▁anb~~5969
flug~~7018
▁anz~~4916
▁benötigen~~9904
▁Bedürfnis~~13038
▁andauer~~8178
▁ant~~6843
▁Sup~~17256
▁address~~17980
▁ans~~469
▁schaue~~9071
▁Mont~~10305
motor~~15225
ächlich~~13450
▁Erweiter~~14027
▁biolumines~~9429
▁erschaffen~~3529
▁Bedrohungen~~15841
unruh~~16386
▁Ziel~~7656
▁Event~~15061
▁Experimenten~~13333
▁Relativität~~15371
rimin~~13239
amerikanische~~11529
gypt~~16985
pet~~14834
▁Mons~~14674
▁einführen~~2220
per~~4681
pes~~17779
pel~~11497
pen~~563
saal~~7618
▁gegenseitig~~3466
energie~~14777
▁Infrastruktur~~7118
ped~~12475
▁natur~~9687
▁zweier~~9540
▁sinnvoll~~8808
pflanzt~~11143
300~~8933
▁Errungen~~10834
ufe~~7467
uff~~4269
▁voll~~1017
▁mitgebracht~~14837
▁grundlegen~~16142
▁mensch~~8886
iler~~10745
uft~~7926
▁Geht~~10015
▁schreckliche~~7008
▁zwölf~~7364
▁erw~~295
▁ert~~4066
▁Fälle~~6459
▁clever~~7944
nden~~6122
gere~~4261
▁erz~~2473
▁meisten~~188
▁erf~~2181
▁erg~~5494
▁erd~~9712
▁Mong~~10840
▁näher~~1005
▁Äthiopien~~8083
▁ern~~5910
▁erl~~12657
nder~~6604
▁wunderschön~~9492
▁ankam~~8249
▁erh~~7655
inea~~13448
▁gegen~~1334
fghan~~7675
▁orig~~16839
▁Hinweise~~6091
▁territ~~6815
itären~~10794
idge~~14344
sylvania~~16379
master~~17308
ined~~17119
▁Scheibe~~15056
▁fer~~15721
erken~~12804
gramme~~13695
▁gesellschaft~~2511
▁Carolina~~3806
verfahren~~5007
▁Durchschnitt~~4199
▁in~~10
▁Steuer~~4442
gers~~10859
▁getrieben~~7994
Comp~~13718
▁zahlen~~8392
▁if~~16826
▁id~~5501
▁is~~13011
▁ir~~3492
tä~~14427
▁Leone~~13256
▁Daniel~~11402
▁lehren~~8936
▁it~~11831
imensions~~17632
▁gelungen~~6990
▁Peps~~17899
itzen~~6522
▁verbunden~~3106
▁niedrigen~~12574
▁Inspir~~10181
ccoli~~17958
▁Hit~~13965
♪~~15978
▁ungefähr~~1092
itzer~~7783
iegel~~9833
▁every~~17265
▁aktuellen~~10521
seins~~8039
▁Zust~~12216
chron~~13408
▁geformt~~5387
▁anthrop~~16617
▁Fuß~~825
▁Gelb~~13961
▁Beschleun~~15433
ensch~~8686
time~~17598
▁Geld~~2303
▁Gele~~15901
▁politische~~3362
bienen~~16088
▁fordern~~16694
kulare~~11323
▁verzweif~~7810
▁Weise~~1384
▁miser~~16907
▁Parks~~11234
ähnlichen~~11446
▁Diana~~13330
ktion~~6486
▁Ausschnitt~~12407
▁Beutel~~12864
▁vision~~15986
▁musikalische~~4840
▁Pharm~~14466
lyn~~16118
anthrop~~12034
koll~~13532
zunehmen~~4407
▁herausgefunden~~706
Mar~~7599
%~~4075
▁menschliche~~1509
▁schreiben~~2959
eller~~4902
▁mos~~7198
▁mor~~14640
richtungen~~6324
irty~~17865
▁Saudi~~16662
▁mom~~18242
ellen~~10498
Mag~~8495
▁mon~~6665
▁Betra~~9364
▁mob~~7616
▁mod~~8222
Man~~10287
▁Zeiten~~7260
▁beide~~2769
▁geeignet~~13993
▁König~~12653
▁Ereignis~~6137
▁gap~~18200
lenk~~8566
▁Philosoph~~3206
▁Baumkronen~~2913
ervation~~6874
▁Model~~8631
▁Feedback~~6582
▁Helik~~13732
▁Insulin~~14372
▁dur~~10302
▁endete~~2082
issenschaftler~~2975
▁general~~16804
▁Pollen~~12852
▁Eig~~17819
▁Titan~~10088
änger~~4884
▁Hühnchen~~14742
wards~~15608
▁upon~~17341
ivität~~5585
▁spontan~~12740
▁Abs~~11348
▁data~~18138
ängen~~9212
igur~~16218
▁Mosk~~13998
äufig~~6239
zyklus~~11053
räfte~~2930
ünst~~10149
▁Gebieten~~8210
▁Most~~13536
▁Müttern~~13872
äße~~12652
oster~~10528
mitten~~12322
▁Schritte~~1909
▁Khalid~~18309
▁Englisch~~3734
▁reicher~~3422
▁Tattoo~~3605
▁Agenda~~11812
setzungen~~16515
atsch~~5205
▁unterhalten~~8607
wohner~~16649
mil~~10558
▁Einrichtung~~6444
oute~~10350
▁anst~~3455
auer~~10403
thalb~~10847
▁Judith~~4021
moud~~18040
▁CIA~~14410
▁Atlantik~~532
▁streiten~~14330
▁zusammen~~333
▁prior~~16168
outh~~8028
▁Start~~10290
▁Farmer~~15742
▁Stufe~~1944
▁Full~~9961
auen~~781
▁momentan~~9245
▁basieren~~8074
▁Möglichkeiten~~2712
▁betreten~~6075
▁gewöhnlich~~11301
Konferenz~~9389
▁besagt~~2135
▁gal~~14434
▁Grün~~8472
bers~~10613
min~~9644
anging~~17193
▁Erinnerung~~7247
▁gan~~10979
ausch~~11766
▁dieselbe~~5582
▁Da~~802
▁De~~3284
▁Beobachtungen~~12178
üten~~5818
▁Haust~~8614
▁Di~~13668
▁schaden~~14240
▁Kopf~~446
ulieren~~3499
▁anwenden~~2157
▁Dr~~9374
▁Du~~1528
▁Hause~~1871
roffen~~6684
üter~~13157
weile~~15082
▁DD~~10586
sphäre~~15873
▁WK~~17748
▁DH~~11399
▁schreien~~10140
▁DJ~~6424
▁hum~~16615
▁Schaden~~8390
entwicklung~~2347
▁DP~~16164
▁taten~~4286
▁DR~~17474
aught~~16706
oson~~17191
▁bestätigen~~9854
rukt~~12292
▁Grundstück~~10902
▁organ~~2827
▁Prie~~12682
wechseln~~5782
body~~17567
▁daher~~5792
ration~~4046
raising~~13025
▁kill~~7043
▁täglichen~~14178
▁fühlt~~1781
▁intention~~17455
gesamt~~14919
sinn~~3447
üchtern~~4972
▁video~~17629
ittel~~13892
▁fühle~~6080
seher~~16344
wachstum~~1677
▁can~~17007
▁verrückte~~10605
▁Haltung~~3433
▁üb~~8899
▁etwas~~430
▁Namibia~~13609
▁Alle~~3991
ußen~~7521
30~~6095
▁verdeut~~5079
▁verlangen~~4291
▁Prize~~15702
+~~10474
▁Sydney~~15623
ußer~~11266
▁vielver~~3849
▁versuchen~~592
▁Flughaf~~16921
▁Anatom~~3031
▁Lobby~~9053
Ver~~7895
namen~~11780
ption~~6191
▁recy~~5662
ownt~~17630
▁first~~17264
▁Boden~~772
Industrie~~11842
▁Bakterium~~904
▁bed~~1729
▁bee~~11020
▁bef~~1851
▁beg~~2682
che~~4574
▁Kö~~9414
▁bel~~892
osion~~8697
▁ben~~6205
▁Ethiop~~13623
▁beh~~1801
▁bei~~596
chn~~4215
▁Meer~~83
▁bet~~4179
chs~~3264
cht~~3210
▁vergleich~~5924
▁bes~~7505
▁brechen~~10379
Fi~~10836
▁Lampen~~15688
Fl~~8237
▁Kollege~~11458
▁bez~~7890
▁manifest~~14267
▁human~~3548
▁Sher~~7725
igung~~384
▁gesünder~~8460
kä~~11174
▁Vegas~~11789
ipher~~6135
▁Intel~~16278
▁Inter~~4682
▁taste~~18303
▁ausprobiert~~988
▁eval~~16673
▁Found~~16645
▁Metern~~404
▁Famil~~13752
▁schnellen~~8478
alin~~8563
f~~1029
▁Konflikt~~5393
alia~~16936
▁Dörfer~~10636
▁rollen~~13430
▁unseren~~593
alif~~2546
▁offenbar~~4249
▁unseres~~578
▁Arbeit~~1517
ognitive~~17068
▁unmöglich~~3704
▁profitieren~~4262
▁cool~~7389
▁Nieren~~7951
▁Pacific~~5621
▁spielen~~1356
▁vorder~~7876
büchern~~13323
unate~~17917
▁arme~~2325
▁Schatten~~9964
▁spirit~~8499
▁Aufg~~9679
▁Samuel~~14343
▁Cancer~~16782
prech~~7620
spruch~~13809
▁Schein~~12465
▁Telef~~13810
▁halfen~~9360
▁vort~~5405
obby~~14832
▁bestehen~~913
▁einstellen~~10734
▁Ozeans~~8943
▁Glück~~4615
ativen~~8482
asure~~17475
afe~~11855
aff~~3402
di~~6256
▁spannen~~10695
oming~~12022
ränkt~~13857
▁Ozeane~~59
forest~~17954
▁teilen~~2007
aft~~9260
▁Herstellung~~10843
▁unsicher~~10008
emen~~13751
afr~~8341
stock~~4114
▁Pocken~~6998
▁building~~17995
▁regulieren~~6638
de~~114
klar~~12692
▁Nachts~~7702
▁take~~13644
▁Halluzinationen~~13266
▁schwar~~15103
▁Tanz~~5230
aller~~17640
▁Kompon~~4659
▁Bedingung~~12956
▁brachten~~10153
▁Tank~~14096
▁Werden~~12783
▁zum~~1120
▁zun~~10383
chnik~~11408
inseln~~14822
ression~~14785
▁zuk~~16683
uchsen~~10263
▁zug~~2270
lines~~17739
▁Zeug~~1020
▁aufw~~1990
▁klein~~3273
▁LKW~~11297
▁Funktions~~13827
▁Antworten~~8723
▁Handel~~8259
▁Niveau~~2087
beweg~~12158
klichen~~3446
▁zur~~381
▁zus~~6904
▁Diejenigen~~14906
▁Bombe~~13549
ature~~8038
maß~~8826
ziert~~2538
▁zwei~~476
▁zurzeit~~15133
▁Adam~~4955
▁Arbeits~~1873
▁siehst~~7537
lands~~13014
▁Antik~~14038
▁vorh~~15713
▁Königin~~14509
▁Bast~~9345
▁Ok~~8885
eum~~12083
▁wait~~17362
ld~~6321
▁Bis~~3891
▁schwere~~4049
▁gelandet~~7670
▁entdeckt~~3941
la~~5713
lo~~4974
ll~~2714
▁schockiert~~7765
▁Ol~~13209
lt~~5254
lu~~12983
▁Geheimnis~~6457
▁ihnen~~437
▁Rivers~~9962
azine~~16440
sprün~~13282
▁On~~12027
›~~16032
ly~~4024
▁'9~~15684
▁'8~~15271
▁gear~~15563
▁gebraucht~~10062
uerung~~1862
▁Kid~~3126
dam~~3715
▁zusammenkommen~~11783
sätze~~10961
orene~~10560
▁positive~~4484
igsten~~44
▁bear~~11096
day~~16265
▁konnten~~3268
▁Bedingungen~~1258
zustand~~9860
▁Fällen~~564
▁räum~~12127
▁Keller~~6745
▁Kim~~12908
▁Kil~~11569
▁Mathe~~1297
giving~~14147
aters~~13548
▁Lieder~~1721
winkel~~11226
▁Klänge~~8069
läuf~~7518
▁erhielt~~9857
▁programm~~14876
▁angeht~~6586
▁sichere~~12515
▁überqu~~10365
▁Notwendigkeit~~8254
▁Capt~~13744
▁schaffen~~1179
eking~~7900
rey~~8670
▁Gand~~15100
res~~3205
rep~~10311
▁Kauf~~2256
rew~~3552
ret~~8643
▁gede~~692
opard~~10516
▁getan~~4104
rei~~4080
ren~~323
▁Denken~~1240
▁Ganz~~1999
rem~~816
ünder~~7223
▁tragen~~8186
reg~~2416
red~~3657
ree~~5684
▁Carol~~5902
▁Näch~~4420
▁Net~~13260
▁Neu~~3046
▁Ess~~13848
▁New~~5787
ourcing~~16070
▁Ind~~9321
▁This~~16516
▁neuron~~13317
que~~5715
▁Neg~~10827
iebt~~6861
ädt~~4883
▁Änderung~~1763
▁all~~303
NN~~18014
▁Restaurants~~12621
▁Fall~~477
bern~~9447
▁Term~~11681
▁anzus~~12298
▁sage~~1521
▁Lincoln~~14284
▁morgen~~1156
▁Terr~~10719
Ӓ~~17059
▁als~~206
▁alt~~1484
▁sagt~~1436
▁Landwirtschaft~~6000
äufer~~8168
strategie~~8834
▁Watt~~15136
ruction~~17110
▁Saal~~5149
▁Zeich~~12130
äden~~6762
▁Lücken~~10619
▁Ereignisse~~6490
▁müssten~~2307
▁verlei~~15951
▁traurig~~1247
heits~~15235
▁Spazier~~10659
▁Club~~10360
▁dunkle~~6658
imittel~~16340
ckten~~6509
stellten~~9850
oline~~2731
eremon~~13406
uropä~~6792
▁nä~~10971
▁nam~~8135
▁Fehl~~9046
▁util~~17793
▁nan~~3903
bek~~10986
lles~~9579
▁genutzt~~10479
▁BMW~~11734
uhl~~15175
▁Gerät~~9069
▁plane~~9118
▁begrenzt~~6786
bit~~13710
▁absol~~7473
▁names~~15228
▁hyper~~9605
▁Sachen~~2822
ue~~7693
ogn~~1690
udd~~7808
ude~~9020
oge~~13478
▁Jahrhunderten~~14671
theorie~~13139
hen~~4565
▁prime~~18193
▁nat~~15936
▁Mechan~~12058
▁Heimatstadt~~5790
▁großartige~~1785
eschön~~9990
▁heiligen~~15812
▁Wälder~~5366
▁Getreide~~5942
▁Sw~~9283
izon~~17500
▁slime~~18293
▁Einen~~7386
▁CEO~~16013
▁Turk~~14819
hek~~5278
▁ökonomischen~~2068
▁Turn~~13145
▁Autob~~11339
Pat~~4092
▁Sendung~~8369
hagen~~13400
iday~~10921
▁Autom~~5325
rache~~15892
▁Schimpansen~~12052
▁Autor~~1949
▁Autos~~6124
▁Lichter~~10787
erein~~4498
▁Rechn~~14257
▁BIP~~1286
▁furn~~18068
kunst~~8059
racht~~11000
▁op~~17807
ifte~~12733
▁or~~6867
▁net~~15087
▁neu~~859
▁Angst~~1961
▁Nehmen~~8775
hten~~9279
formt~~13793
▁alltä~~13283
▁Dimensionen~~6389
rungen~~736
▁ob~~1714
▁Oliver~~4788
▁Pers~~12431
▁of~~4379
▁neh~~15689
▁oh~~6442
▁ok~~11434
mir~~13947
▁kreat~~13365
mit~~6494
▁Bienen~~11542
▁dritte~~4853
▁upd~~17820
▁traditionelle~~4503
omme~~7428
▁nationale~~2059
▁Krit~~13981
▁Development~~16886
▁Dsch~~16504
▁männ~~10526
▁tab~~17302
ktionen~~4702
▁solche~~480
ommt~~14942
ommy~~16710
▁link~~15391
▁kritische~~10006
▁Vul~~192
▁klin~~11509
apie~~15893
▁finanzie~~11367
ftwerk~~14812
▁dünne~~9222
▁Verbesserung~~2033
ances~~15481
▁Jim~~3644
▁Unterstütz~~13568
▁expl~~9640
ossible~~18126
▁terr~~16879
chnologie~~811
▁Astronom~~15180
▁Unsicherheit~~13379
▁Four~~15919
▁stress~~11770
antast~~16740
▁going~~17352
▁Fingern~~799
text~~1392
▁Jeden~~5904
▁ELA~~18182
▁rhythm~~5216
▁Januar~~9547
▁Skulpt~~18195
▁Faktor~~2039
▁Jedes~~3635
▁Jeder~~2542
gestellt~~1939
▁schwierig~~4288
▁Gespräch~~5813
▁front~~17591
▁Bürgern~~10303
▁wahrgenommen~~4397
▁exponent~~15695
▁Ratte~~10362
▁Benj~~15096
▁Wolfram~~16138
bildung~~2043
kürz~~12586
▁Rit~~15670
▁Mittleren~~12500
▁Islam~~16027
egen~~17532
▁geführt~~2490
▁Folgen~~1315
▁Vision~~3303
▁Rio~~3335
▁ext~~15850
▁Werten~~9110
akes~~13879
aker~~5263
▁reform~~8633
▁kurzfrist~~2559
▁Prot~~9908
▁Blind~~13281
▁Prov~~12008
▁Prop~~4901
zeichnung~~1128
▁tra~~7203
stchen~~15423
▁vielfält~~4655
▁tre~~11454
▁side~~17154
alken~~13085
▁iss~~17681
▁Prof~~9778
▁tro~~1728
aken~~6886
▁Prob~~14387
zeigen~~4869
▁immers~~14290
▁irgendw~~14003
organ~~10575
utete~~7818
́~~16400
▁Fü~~6788
schlag~~4348
▁irgende~~5887
▁simpl~~10197
▁Erzähl~~10729
▁Fä~~912
▁anfing~~1842
▁Learn~~17936
▁Künst~~12941
▁Trotzdem~~7697
gefallen~~3803
▁Wü~~12540
▁Wüste~~12064
▁anschließend~~2032
▁tolle~~4162
▁Pitts~~11025
▁überraschen~~10185
▁täglich~~5918
▁DVD~~3249
▁sagen~~1122
▁Beobachtung~~8356
▁ält~~16352
▁wahrhaft~~9303
▁Ihr~~1226
ammer~~2831
▁Maria~~5812
blatt~~4203
▁beinahe~~6955
▁verkaufen~~5870
▁Bogen~~10672
▁busy~~16958
▁Lawrence~~11630
▁Verteilung~~9743
▁wahrschein~~10981
anium~~17786
vation~~17471
▁zusch~~6455
ysteme~~13007
ammen~~8727
ammlung~~11625
▁type~~17857
▁original~~13773
▁Versorgung~~2665
▁anders~~3515
▁Archiv~~389
▁gleiche~~1157
▁usual~~16559
▁Rohr~~11317
S~~972
merksamkeit~~17596
▁berücksichtigt~~12287
▁Raumfahrt~~15989
▁untereinander~~6176
legten~~9628
▁ernsthaft~~7318
terung~~4486
▁Starbucks~~14767
▁andere~~354
▁rout~~11355
▁kre~~10548
▁schauten~~7388
▁Ryan~~9620
▁Kategorie~~13471
apor~~17286
▁Nobel~~8106
schau~~4933
▁Therapie~~6603
orfer~~12631
▁Kre~~2297
▁sicherzustellen~~8314
▁Rückkehr~~12663
▁tiefgreif~~3271
Design~~6409
▁blink~~9182
orfen~~12247
ruption~~17828
▁therm~~14737
schaf~~6680
▁Panzer~~7037
▁Tasche~~4208
▁Paris~~11975
▁Keiner~~13141
vent~~8760
▁Ble~~13540
▁Ali~~12662
▁verlangt~~7898
▁ausbreiten~~11562
▁Vorhersage~~8780
▁Je~~1633
ohn~~7051
▁Ja~~1116
istine~~16919
▁option~~9670
▁ständig~~1670
▁ebenso~~8335
▁Kore~~2350
▁Ju~~5279
handlungen~~12404
▁dete~~17044
iveau~~2324
▁anstelle~~10547
▁molekular~~15436
▁sollen~~1420
iges~~1034
iger~~1879
▁Lesterland~~15329
▁Erforschung~~12723
analyse~~13060
ologen~~7950
äusern~~5180
▁JA~~8588
ai~~9491
▁insulin~~16794
▁Hauses~~9461
rump~~10680
igen~~25
igem~~9040
rums~~2471
▁setzten~~8989
,'~~17496
▁Einkommens~~14061
aj~~14012
▁schlussendlich~~9702
▁Studierenden~~9615
▁ums~~8446
ancer~~16716
▁Illusion~~10711
▁zweit~~8285
▁irrit~~3749
▁range~~15705
▁Krankenhäuser~~12469
▁musikal~~4651
▁14-~~15538
an~~1928
▁Weltbevölkerung~~8998
▁Richtige~~4090
▁raten~~13475
brauch~~7294
▁kulturelle~~8570
▁Gulf~~18390
dlich~~5827
How~~16432
produkte~~5660
ila~~6514
agan~~16166
▁Kredit~~9336
▁dokument~~5706
ar~~551
▁Filmem~~16526
▁geholfen~~5647
▁Filmen~~14607
ument~~4894
imore~~18330
uit~~4724
▁RIS~~17523
▁Nervenzellen~~12123
▁verb~~7712
▁Darum~~7789
▁Schlag~~4814
▁Schlaf~~3383
agten~~2756
▁700~~10273
▁neural~~17546
▁kleinere~~10681
▁real~~3649
aute~~9146
gänger~~2127
▁Poet~~14342
▁defin~~15925
▁Rich~~11426
▁reag~~8415
▁ergibt~~2525
▁bem~~15135
sprogramm~~7042
▁perfekte~~7180
▁schau~~14584
cting~~18207
▁Fakten~~6466
fabr~~11905
)~~5108
▁Angelegenheiten~~12206
▁Image~~15274
▁eyes~~17272
▁Costa~~6855
ogram~~11269
▁wirklichen~~13086
▁exploit~~16017
cod~~10087
gezogen~~7499
▁Wissens~~2454
▁üblichen~~8429
▁Großvater~~3567
▁MIT~~4297
ios~~5310
ior~~6847
▁Pant~~11445
iop~~16987
ion~~3471
▁lebte~~7401
▁verm~~7817
▁Quadratmeter~~13340
iod~~14875
▁finally~~18348
holung~~2486
bahnen~~3091
rete~~17320
▁journalist~~17858
▁traum~~15472
:"~~13612
▁Unternehmen~~1298
▁Hektar~~5966
▁Unternehmer~~1301
inners~~18192
tocin~~18250
▁350~~11701
▁indire~~4404
▁Durchbruch~~8791
setz~~7572
abeth~~18141
▁strang~~17505
▁2000,~~15310
▁Maßstab~~2107
▁2000.~~2380
▁meint~~5509
▁vert~~6560
▁Sah~~15480
alte~~8946
▁mat~~16833
▁Pretty~~17562
▁angeschlossen~~9218
▁Krie~~10740
▁richtet~~6302
▁meine~~1404
▁herzustellen~~7657
▁Sau~~12866
▁gerne~~2223
reht~~3345
▁multi~~13382
ads~~584
kampf~~8410
▁Thank~~17882
▁Prinzipien~~4823
▁ergeben~~9299
▁fett~~5985
gleich~~2031
add~~3988
ade~~7025
▁Dere~~15338
ada~~16309
▁The~~6675
▁Roboter~~585
▁Ganze~~4078
▁wüssten~~12261
ignen~~9790
▁bom~~18314
▁baten~~4295
ignet~~3995
▁Georgia~~14263
allen~~5140
ationale~~14660
stecken~~10990
▁Engel~~15626
▁Pyram~~14464
▁Früh~~8205
▁Feuerwehr~~14838
▁großzüg~~12480
▁Rückgang~~13677
▁verurteilt~~8765
▁Anzeige~~3081
▁erreichte~~9749
▁allgemeine~~6966
▁vorstellen~~229
iesen~~296
▁positiven~~4578
▁beauf~~1565
soft~~17682
▁Tänzer~~5232
▁schwanger~~10422
▁Mitchell~~9601
▁coole~~7201
enkt~~5306
▁beschleunigen~~4622
▁vol~~16025
▁vom~~121
ivals~~17238
▁unglücklich~~12952
▁monument~~11785
erstoff~~14793
▁Est~~13227
▁Verantwort~~12080
reift~~11758
▁vor~~244
▁Brennstoff~~11744
enke~~11468
▁zogen~~5841
▁islamischen~~12702
ziell~~9499
atives~~14092
▁Motiv~~15801
▁re~~3543
ess~~218
▁Kurve~~9769
▁ra~~9520
▁ro~~6623
▁waschen~~11755
▁rh~~16461
ese~~717
▁ru~~12171
▁mitt~~8520
▁Nationen~~6747
▁Dinosaurier~~10568
▁gift~~43
ogel~~9969
rale~~5169
ogen~~2222
▁Diese~~409
esh~~7230
▁Amt~~15635
▁Überzeugungen~~2433
▁teen~~18285
▁Ushahidi~~16972
▁bew~~1407
▁hörte~~7332
▁Leben~~9
ashion~~17326
▁bege~~12307
▁Amy~~1678
▁Ausgang~~9981
▁Ame~~17402
▁Amb~~6248
▁Flüchtlinge~~11987
▁wor~~8503
▁begr~~14946
ituation~~10665
▁führten~~6055
▁höch~~13301
▁Wichtigste~~1985
▁kopieren~~2536
frau~~5652
▁Wichtigkeit~~9394
Unter~~12931
andem~~16872
andel~~1802
anden~~2820
▁motor~~16394
ander~~6002
▁Stich~~7589
andet~~18004
▁zuge~~10746
▁hieß~~7402
plätze~~7646
▁nachhaltigen~~3337
▁Internets~~3170
annen~~8406
!"~~3842
▁streng~~14531
▁Zimmer~~4245
▁Inform~~9690
▁ausgedrückt~~12719
▁umgesetzt~~2693
▁model~~16601
ionen~~2855
eine~~11532
▁Erkennt~~15733
eing~~6679
atete~~12604
▁Rede~~9988
wach~~12132
▁ber~~9077
▁stärksten~~2195
konstru~~14406
▁resilient~~18339
▁Medicine~~17534
▁enthus~~17752
▁Science~~11211
iversität~~14169
▁Scient~~16227
▁myth~~13133
▁Gall~~5
▁finanzieren~~13010
sunami~~16677
▁Oscar~~13556
hlt~~8040
▁Heraus~~13374
glie~~15357
bur~~7144
ills~~621
Der~~3493
▁Hierarchie~~11735
iologe~~14368
krankheiten~~10488
▁Meerwasser~~138
bul~~16230
ording~~16043
sprozess~~5043
▁empfangen~~13803
kraft~~8134
hlten~~4999
▁Ärzten~~13302
▁kein~~730
iology~~11366
▁Long~~5692
j~~3607
▁Gegenstände~~10741
▁Freiwillige~~4496
▁Urban~~5957
▁Hindernisse~~13982
▁August~~11857
flie~~12881
sein~~1767
allel~~8416
▁fra~~15609
gesellschaft~~5874
▁fre~~1033
▁software~~7879
ahrt~~10728
▁Raumschiff~~3013
▁1.5~~9617
pid~~15387
erem~~8683
▁fro~~15286
Yeah~~16961
bogen~~6524
.'~~12492
garten~~6738
▁Warn~~8395
▁niemand~~4276
ahre~~1408
▁Next~~13925
pit~~11492
ille~~3721
eper~~17961
▁überlebt~~7038
▁Again~~15122
ögen~~4900
40~~5533
4.~~7173
4,~~8113
▁homosex~~12367
▁Green~~14581
öger~~588
▁verur~~12423
ierbar~~14281
out~~7476
▁jener~~11807
▁spezif~~11923
▁spezie~~11356
emble~~15775
▁Richtig~~11666
▁kontinu~~18194
otrans~~6554
ubs~~5183
‹~~16033
ichts~~2839
▁schlechten~~1249
▁willk~~12221
▁Folien~~14491
ube~~15117
▁erfolgreich~~2568
fische~~6895
▁schlechter~~1806
ubl~~9062
wind~~13130
▁funktionierte~~7159
▁unerwar~~13798
ichte~~631
isierten~~3179
▁Erschaffung~~5642
▁French~~13598
–~~14997
‒~~18208
▁nutzen~~1253
wandeln~~12314
▁Somalia~~7106
’~~5047
oral~~13746
▁Rund~~11797
”~~4793
“~~7897
▁Albert~~9795
„~~15501
▁gig~~17660
▁Strahlung~~15600
craft~~16848
▁Linken~~11414
iddle~~15903
▁trop~~7806
▁She~~7418
▁vergangen~~10027
▁Optimismus~~8867
▁naja~~11588
istent~~8876
▁grü~~8388
▁beeindruckende~~8964
▁Ausmaß~~2760
▁morph~~13476
▁Rück~~6616
▁verarbeitet~~9537
▁Verteidigung~~12990
▁Feynman~~15456
ders~~1859
▁früh~~2569
dern~~380
derm~~6260
bten~~5896
▁blauen~~2355
steigen~~10075
dere~~11411
▁Regionen~~8116
▁ständ~~13723
▁erleben~~3592
werden~~1957
▁sozial~~1620
unden~~3054
▁Verpack~~5883
▁mo~~3735
undet~~13104
▁Unter~~29
under~~3916
▁Meilen~~7014
▁me~~3549
für~~2375
▁Trag~~7485
▁hinaus~~1191
▁Trad~~16661
▁Hunderte~~3472
▁empath~~16587
omon~~11173
▁implant~~14468
romagnet~~15196
▁mikro~~10235
▁Kapaz~~15415
barkeit~~7124
▁Berechn~~17671
alth~~16468
opardy~~18065
▁Bühnen~~12951
wich~~12426
▁abnehmen~~8913
▁five~~17146
rist~~5331
▁Wahrscheinlich~~4216
wick~~7770
neur~~5810
▁verbracht~~6748
▁Behinderungen~~4836
▁Joh~~9548
▁Sprach~~5002
▁Jon~~6997
▁Bono~~11680
▁Optim~~2428
▁Job~~7874
▁Sklav~~16792
▁tötet~~8691
▁Take~~17644
▁Aimee~~17324
▁Mischung~~9152
▁Farb~~11349
▁töten~~1413
▁mittels~~3029
Ge~~4192
▁Joy~~511
▁Erzähler~~3165
Go~~7524
▁leidenschaft~~3461
▁Bildungssystem~~2522
blick~~11765
▁gesunden~~11486
blich~~8031
▁Rob~~1489
▁Beif~~6887
▁irgendwann~~3776
▁Letztes~~8938
▁stattdessen~~1379
▁Weihnachts~~3759
▁Roh~~7829
▁Ron~~5417
▁Rom~~6024
▁Computers~~9771
▁Ros~~13270
▁linear~~8434
▁Row~~16031
▁Rot~~2189
▁Rou~~9189
▁Letzten~~1317
▁Voll~~8904
▁sicht~~6110
▁bemü~~15238
ansas~~15302
ustainable~~18087
achsen~~8567
▁hund~~18135
▁hung~~5959
▁Brut~~8097
uchtung~~15743
▁darüber~~129
▁regel~~3945
▁retro~~14986
sterreich~~4499
kur~~11443
▁anzub~~15004
auften~~13616
▁enorme~~3208
▁Rolle~~4356
kul~~6978
esome~~17762
▁Stef~~14887
▁Vö~~7660
ograp~~11265
ölfe~~11123
▁Bevölkerung~~2064
▁Anpassung~~2488
▁Hindu~~13434
▁days~~18240
lers~~3412
▁reicht~~4736
▁Kibera~~15714
▁unternehmen~~5459
ieu~~16050
▁Indians~~17715
▁Magazine~~5646
kugel~~13494
▁reiche~~2321
lern~~1044
▁anonym~~6138
▁Koff~~15417
▁Fried~~2709
▁gezeichnet~~13764
▁USA~~2066
▁Reform~~11728
Eine~~12397
forscher~~9754
Ze~~15285
▁stärken~~9991
▁Titel~~3814
▁tote~~14990
house~~13242
iminal~~17155
▁tauschen~~9107
▁schwarze~~4182
▁lese~~9070
▁lesb~~12375
▁überlegen~~4431
▁sehen~~155
▁Ökonomen~~6713
luft~~16294
▁Geometrie~~6398
▁Schild~~3878
▁einsch~~1549
▁Fahrer~~12964
peratur~~12884
offs~~17913
▁kur~~3258
Kom~~13213
Kon~~4549
isible~~18239
Boot~~471
▁immun~~11192
▁wirkliche~~9722
cons~~14334
▁Vogel~~5718
▁Manchmal~~6295
oons~~13991
▁Fahren~~8557
▁Less~~11604
▁möglicherweise~~10173
▁Erlebnis~~4679
tte~~14987
▁eben~~4225
▁Conne~~12242
▁Marke~~3695
upiter~~16598
▁Köpfen~~11002
assen~~111
▁Bäumen~~12328
asses~~15500
asser~~5731
▁extreme~~5211
▁Markt~~5878
▁Nachbarn~~5476
▁Konsequenz~~11209
▁Weizen~~13126
▁unterrichtet~~2596
▁Gegenteil~~1742
▁sang~~14264
▁Stolz~~4489
▁method~~16263
phone~~17246
▁lust~~996
quenzen~~9502
▁Mitglieder~~3350
▁führte~~4723
▁Jetzt~~531
▁unterrichten~~2343
me~~1833
onie~~1148
ma~~667
onia~~17803
izz~~14260
▁verschwindet~~4885
mo~~14200
▁konstruiert~~11219
essel~~8451
▁besucht~~5696
▁genü~~9224
mt~~1001
▁präzise~~5118
stritten~~2177
mp~~1849
ms~~1066
langen~~9552
blichkeit~~8896
▁choices~~17768
▁plus~~14230
▁Schlä~~7174
zelle~~10535
▁Wortes~~3096
▁unbekannten~~233
▁alten~~1954
▁definitiv~~7306
▁Hy~~673
▁Medien~~2552
▁unbedingt~~8664
▁He~~583
▁past~~18022
▁international~~2111
▁Ha~~3957
▁Worten~~2986
▁altes~~5770
▁Ho~~6644
▁Hi~~9992
▁Forschungs~~496
ahme~~16426
▁Werkzeug~~4111
ena~~5097
end~~1538
ene~~7289
bung~~9634
eng~~7324
onders~~15542
▁antreiben~~11042
enk~~8448
▁Pfer~~13407
enn~~4050
▁klingt~~1882
ens~~1188
ent~~316
▁phil~~12316
aktor~~1432
Weißt~~10877
ocken~~377
enz~~16421
▁braun~~6550
▁HI~~15030
ondere~~9627
▁Dschihad~~17446
▁Besonders~~12010
igern~~8728
▁Schne~~9282
▁Verpfl~~6761
▁prosth~~17835
▁Anerkennung~~8056
igert~~12829
▁ign~~16179
▁wachsenden~~4785
▁Etwa~~12031
▁löst~~12108
▁dream~~18246
▁Zustand~~8129
amil~~14132
▁Knoten~~4526
▁Jugend~~3245
▁interessieren~~4782
▁winzig~~938
▁vorkommen~~5851
▁203~~16359
▁202~~15595
▁201~~12169
▁200~~819
▁20.~~3197
▁Folgendes~~11777
▁20,~~4669
▁recyc~~5740
enter~~13618
▁Computern~~9480
hlte~~11072
▁architecture~~17650
ungen~~1004
vity~~17950
apfen~~9973
▁Tragödie~~6926
riebs~~337
over~~4645
▁polar~~15844
auschen~~4330
▁Zipcar~~16192
▁geheim~~8070
▁Apoll~~17802
▁Kategorien~~8854
räum~~9978
▁Dennoch~~9367
riebe~~13389
▁sechs~~1915
ima~~13582
imb~~7853
ime~~10995
▁Schauspiel~~4353
▁bin~~76
▁bio~~9464
cle~~13180
imm~~5194
▁bie~~13989
Here~~15119
▁befindet~~6078
imp~~1401
▁biz~~61
▁Neanderth~~16768
▁befinden~~182
▁Gleichungen~~14702
▁Tas~~9533
▁bip~~15659
teilen~~7509
▁bir~~15586
▁bis~~298
▁rational~~4250
▁Gesamt~~9160
CHA~~18290
▁anger~~3792
▁anges~~5837
▁anget~~3822
▁angew~~7686
▁generations~~16843
ú~~17710
produktion~~5943
▁brit~~16175
▁Höhen~~56
▁well~~18074
▁angeb~~9476
▁Jill~~14773
▁angef~~7774
altete~~6117
▁Einstellung~~3311
▁angel~~13870
▁üblicherweise~~3048
▁angen~~2363
▁Algorithmen~~10182
▁keiner~~568
▁ähnelt~~2711
drehen~~13808
▁fokuss~~1865
▁potentiell~~12210
▁bekam~~3786
aler~~6716
ales~~1647
alem~~4047
alen~~414
öff~~5565
▁Fantast~~4626
aled~~11003
▁teure~~7823
▁ähneln~~12142
▁keinen~~754
▁keinem~~8048
▁Erklär~~7337
▁2006,~~6753
ttern~~5769
▁Kameras~~251
nik~~10289
ading~~17928
▁litt~~9623
▁Aussterben~~15147
▁Krankheit~~6463
▁verliert~~5676
▁zutiefst~~12335
▁Wood~~597
▁Come~~16779
itens~~16470
bracht~~5389
▁Comm~~8281
▁Versuch~~796
omant~~18161
ttert~~10389
▁gemeinnützige~~10984
▁heter~~12672
fisch~~6741
▁darauf~~1165
▁Durchmesser~~11969
▁lebens~~7072
▁inmitten~~2892
perto~~17278
träge~~8338
ancers~~18073
▁element~~7140
▁lebend~~24
▁begeg~~4051
▁Organismus~~332
▁italien~~8559
▁daraus~~1150
▁zukünftige~~8726
▁Niemand~~2249
ware~~15861
rängt~~8018
▁woanders~~5340
▁Dete~~11313
▁Victor~~14848
▁English~~14849
▁Master~~1930
▁tags~~10871
€~~17112
inos~~3296
icke~~3954
ied~~7623
free~~15448
hört~~7469
rain~~6506
W~~365
prozess~~5046
▁Bezug~~2062
ickt~~7034
nie~~13058
aps~~6057
▁Plätze~~7273
icks~~6195
ickr~~16668
▁enthalten~~3489
▁ungleich~~2237
▁Camer~~17697
▁Natalie~~17450
▁einfachste~~1041
ily~~18332
▁ziv~~13422
▁King~~12771
▁finden~~459
▁Zeit~~387
▁begeben~~12129
scher~~8977
▁Kino~~3195
▁Beschäft~~16435
▁findet~~838
gegangen~~9085
▁zie~~6072
▁klü~~7272
oppeln~~14994
rait~~13926
onto~~16200
ielen~~2722
rane~~18006
rand~~6774
rang~~6706
▁Einzige~~3837
▁Therapien~~8485
utet~~12686
▁Gut~~2790
▁Ane~~12067
rank~~12791
Ä~~12918
▁12,000~~17992
will~~6431
▁Pferd~~11120
ß~~4081
▁bösen~~15878
rans~~11197
Ü~~6879
▁Begriff~~1649
▁Premier~~15994
▁zwar~~4065
×~~18249
▁Lärm~~9404
▁Virginia~~14370
▁pl~~2361
ê~~3726
é~~8304
▁po~~5442
▁ph~~1330
▁Ansicht~~9780
í~~15097
▁goo~~12991
▁pe~~16189
top~~6158
à~~14167
ç~~14667
▁pa~~6892
ä~~800
▁Existenz~~11652
kinder~~9003
▁Psych~~13303
ø~~16982
ton~~3653
▁Humor~~9010
▁herausstellt~~4147
ü~~339
auber~~7891
▁Führungs~~15792
ñ~~1142
▁Trotz~~5697
ö~~312
▁pr~~10881
ô~~17948
▁beer~~18119
förder~~10549
▁achten~~1369
▁Phosphor~~16357
▁ultimative~~12430
kräfte~~2132
If~~14727
▁Oel~~17525
▁Übergang~~13796
▁been~~12199
burger~~14363
▁südlich~~9252
ologe~~8023
äuser~~14221
▁wa~~15588
▁verfüg~~14317
ology~~16535
gäng~~10440
sta~~15314
ativität~~18076
▁etc~~7625
▁festzustellen~~10348
▁sap~~12111
rag~~1464
rad~~7229
rab~~10739
ran~~5423
ths~~14504
ral~~14345
ram~~7526
▁aerodynam~~16756
▁zweimal~~2476
▁anhalten~~2686
rat~~936
▁There~~16257
ible~~10439
ras~~3353
▁Olympics~~17833
▁Knochen~~12071
▁Small~~17615
ray~~14023
▁wissen~~1309
▁Ig~~14972
▁Wasser~~637
▁Emotionen~~1682
▁Moskit~~14323
▁Association~~14961
▁Nan~~3882
-~~364
haftigkeit~~15511
▁blaue~~158
▁Nat~~11956
▁1999~~12004
▁1998~~12501
▁Nar~~7737
▁Mitglied~~11624
▁1991~~9937
etischen~~769
▁Kommentare~~5497
▁Naz~~3589
▁Yves~~10735
▁regime~~18357
bst~~7503
▁ambition~~4527
▁besessen~~8372
▁anzuwenden~~9654
▁Wärme~~13801
▁different~~18406
▁Taten~~10457
stehung~~14349
▁bizarre~~14618
▁harte~~9063
▁aufmerksam~~10807
uting~~17376
abe~~2114
▁günst~~10274
ully~~14212
▁oft~~3684
▁erfahren~~2035
▁Noah~~17073
flow~~16016
▁orth~~11461
ichtum~~14076
▁Zweite~~13613
R~~2849
▁Entdeckung~~6003
▁Königreich~~8090
▁Ide~~10230
agnet~~17143
ameter~~5026
ific~~13936
gefasst~~12251
ämpfe~~15287
mäßig~~2193
▁1,2~~15532
▁Leid~~12211
sage~~8798
▁1,5~~16198
▁annäher~~16758
elines~~17583
▁kamen~~4254
leit~~14164
▁Millionen~~1055
▁Tai~~16621
▁wesentlichen~~5078
fehl~~7613
▁cam~~17645
och~~358
ock~~3214
▁Kä~~8246
▁Vancouver~~12168
▁schneller~~2089
oca~~17919
▁militärische~~6039
stechnologie~~8271
▁Bemühungen~~2593
opter~~13733
habilitation~~9996
▁Right~~15675
▁Ursprün~~13514
▁einzuf~~6028
▁Entscheid~~1699
▁Clinton~~12776
▁klasse~~8514
▁Dilemma~~6445
iale~~12507
▁lässt~~2340
▁gröss~~1616
▁Produktions~~5640
▁Katze~~11070
▁Anwälte~~14300
▁Poliz~~12396
▁eth~~11165
beh~~10496
▁halb~~6160
▁Stabilität~~13253
rägt~~5791
▁half~~3496
aby~~11164
ben~~909
aching~~17033
gespr~~1968
▁Polio~~6953
▁vorn~~518
▁musste~~3593
▁anste~~4121
▁triv~~17373
ünden~~7033
farbe~~1232
▁inform~~11703
erzä~~14070
▁Beck~~10399
▁mächtig~~4876
ündet~~8475
▁Konversation~~12297
▁nahm~~2475
▁Paradox~~14185
▁Kir~~10929
▁that~~17262
wachsen~~6801
▁nahe~~5689
▁popul~~5152
▁Geschwindigkeit~~3330
twick~~8299
▁Se~~1346
▁Biomasse~~359
nisses~~2779
▁Sa~~2814
▁Trends~~12317
▁Sc~~5073
▁Gap~~15610
▁Sm~~2767
▁Sl~~3313
▁So~~308
▁Sn~~11116
▁nah~~10249
▁Sh~~3867
▁Sk~~6433
▁Listen~~14890
▁Su~~13232
▁St~~1856
▁spüren~~3075
▁fährt~~10991
▁nap~~18263
▁Sp~~663
▁nar~~12818
▁vorbere~~14770
▁städt~~16067
▁Besuch~~11309
▁Sy~~1980
nissen~~2597
habil~~10146
▁Bewegung~~5021
mut~~455
▁Lagos~~17090
ungsk~~1535
▁SA~~16827
gruppen~~7862
mus~~6977
▁gewalttät~~10165
▁abstrakte~~4103
▁binden~~14499
▁SO~~14863
▁SI~~10073
ungsf~~1604
▁SJ~~15200
▁ST~~16281
▁SW~~17290
▁Oreg~~17016
▁SP~~9663
▁SS~~16242
▁Tränen~~3399
ishn~~16881
mun~~5430
K~~2929
▁kognitive~~8924
▁Lernen~~2051
▁situation~~13387
▁medizinischen~~4016
▁zurückkommen~~12750
▁Coch~~14469
▁automat~~15232
bes~~6115
▁beste~~4606
edeut~~6183
▁zufäll~~9324
▁wünschen~~9318
▁Normal~~16543
▁Norman~~14783
▁führenden~~10543
▁etw~~16542
▁moderne~~5914
▁Haushalt~~10018
▁pot~~18320
▁Ear~~6944
▁Gleichzeitig~~899
Computer~~9477
▁Reaktionen~~10317
orth~~12025
▁Flaschen~~5707
▁Vergewalt~~12558
orte~~5243
▁interagieren~~6579
mark~~13485
eting~~16139
ela~~15429
▁Virus~~1449
▁mar~~7099
▁Forscher~~2287
▁Under~~16496
▁mag~~309
▁him~~13203
stens~~12640
▁Roten~~7207
▁Welches~~4068
▁man~~93
▁mam~~18382
▁mal~~1937
▁mak~~13693
▁Sicherheit~~12309
▁richten~~3710
otonin~~16241
▁Standpunkt~~5384
ronen~~12856
würdig~~7690
zeugte~~10603
▁Funktionen~~12160
▁Gal~~11490
▁Pläne~~12985
▁Interaktionen~~14104
ely~~14056
▁Truppen~~12642
▁buff~~16014
anted~~17482
▁Sä~~940
▁preis~~10007
isabeth~~3664
appiness~~13634
▁Sucht~~4746
▁erhält~~5057
▁Anthrop~~12050
▁Finanz~~7767
▁Route~~6758
▁aufhört~~14652
▁Vorgehen~~13177
▁Suche~~3609
▁Of~~18366
▁span~~17041
▁stimmte~~15164
▁Meile~~16415
dliche~~14445
▁NI~~14502
▁lokale~~9269
▁stieß~~13401
▁Volk~~5604
▁Security~~17395
▁Brüder~~10523
▁Detroit~~13995
elta~~15556
leistungen~~1805
n~~2323
▁Juni~~7216
üss~~7886
üst~~3600
▁Kalifornien~~5901
jekten~~9011
altungen~~9906
ität~~2513
▁Jung~~5771
itär~~7053
▁Firma~~1837
▁französ~~14755
isco~~9369
▁Ernährungs~~6151
anlage~~7825
▁Wohltätigkeit~~12994
aunen~~13457
▁niedrig~~1299
▁enough~~14072
▁hoher~~11280
▁Hör~~7617
▁beautiful~~17698
▁Hipp~~12118
▁größ~~12303
D~~989
▁diskut~~3241
▁Datens~~14534
▁Entscheidungen~~1811
▁Partner~~7002
▁Stone~~9034
▁sitzen~~513
▁from~~12705
▁disrupt~~17902
▁his~~15854
▁passion~~15914
freie~~11675
▁ähn~~5425
äger~~3773
"]~~5457
▁Anti~~13212
▁Anth~~7395
▁Weiß~~9066
▁geworfen~~3508
durch~~2395
▁Spiegel~~4256
▁Arthur~~15079
riffe~~13587
",~~1200
"-~~9015
".~~3115
leger~~3833
schen~~884
legen~~2708
▁geändert~~2517
▁Entweder~~8437
▁Moleküle~~2824
rifft~~12709
senden~~10710
iences~~17383
angle~~16296
"?~~14302
":~~3618
▁Medik~~15032
▁bitten~~2990
▁steckte~~11679
▁jagen~~1622
▁folgendes~~4296
▁folgender~~8716
▁Blume~~12859
▁folgenden~~1583
mother~~15023
▁künstlichen~~11510
▁bitter~~16846
▁bittet~~5479
▁bzw~~10589
▁vorhin~~5463
telef~~17003
▁Empathie~~9310
▁Dörfern~~12545
▁Nu~~4988
herstellung~~14991
▁Bü~~10095
▁Anreiz~~8883
einanders~~16068
▁Kranken~~3832
▁eindeutig~~8020
▁Küche~~10731
▁Na~~5235
▁Sorte~~14265
▁Ne~~1650
▁rep~~11637
gende~~2263
▁zeichnete~~6374
▁No~~7938
▁Erderwärmung~~10639
▁Lester~~15331
▁Mauer~~14439
eli~~14508
eln~~219
ell~~1562
▁sexuelle~~12855
planung~~13626
rous~~18364
keln~~10583
izenz~~7933
elf~~4267
eld~~1219
ele~~9419
▁Frei~~10910
▁NA~~13580
aktiv~~11193
▁NG~~13513
▁Verhaltens~~3694
▁Einfluss~~2231
ianer~~14590
els~~1030
[...]
