▁LS~~13891
▁component~~2944
▁metabol~~7839
▁embry~~6695
▁Van~~11467
▁current~~4368
▁Fleisch~~13798
four~~9544
▁embra~~6417
▁boxes~~2263
▁Kle~~7214
▁Nairobi~~9867
▁Talk~~14
▁Chin~~8331
▁laptop~~1222
▁proof~~3654
▁contract~~10315
▁Glenn~~11441
▁meet~~1582
▁spell~~8148
▁construction~~8914
digit~~12111
▁cells~~2370
▁ampl~~3947
▁carry~~4542
▁reasons~~1471
▁Gandhi~~2896
▁cell~~3629
▁distances~~766
iquid~~12581
▁cele~~12954
▁ultraviolet~~9672
▁treating~~7515
▁struct~~6061
▁aftern~~13658
▁agencies~~6445
volutions~~6892
▁techn~~3047
▁thought~~1544
▁background~~1776
▁Million~~2631
▁dire~~11148
fect~~3482
▁whose~~2910
quare~~11457
▁elimin~~6590
second~~6452
▁techniques~~5696
▁detector~~8499
▁controvers~~13142
▁dec~~4220
Huong~~3178
▁Bret~~13561
▁Everybody~~1993
▁Pop~~3998
▁Por~~7568
▁Pos~~12891
▁shots~~5366
▁laun~~10613
▁infrast~~12940
▁fake~~4109
▁Var~~12549
▁Pol~~1960
▁yours~~8951
▁Extra~~12770
▁alongside~~9295
ated~~1144
▁There~~645
▁adds~~9321
▁designed~~1336
hern~~11909
avery~~12744
aten~~7486
▁possible~~1690
here~~5029
▁Arg~~11966
herz~~13747
ching~~9734
▁designer~~4123
ements~~1889
ates~~319
hers~~5090
athan~~12745
▁Depression~~4264
theless~~3252
ppen~~12292
▁artifact~~1974
k~~4309
▁det~~8639
▁Spiel~~7469
▁Ring~~12640
ouds~~11076
▁Lange~~63
▁donors~~6129
▁Laden~~12449
▁influen~~8825
▁partic~~11870
▁hear~~355
▁trunk~~7593
▁heat~~5063
▁pounds~~586
▁heav~~12219
▁Nick~~7223
▁Case~~12216
▁really~~351
sters~~4603
▁measurements~~2303
▁manner~~2753
▁ubiquitous~~8481
▁Baum~~10330
▁head~~373
stern~~12291
aun~~11211
▁heal~~5968
▁regular~~8352
▁Bang~~7098
▁Tipp~~12284
▁flows~~8745
<s>~~2
▁methods~~10565
▁Bill~~62
▁intelligent~~2065
▁person~~2425
▁unhe~~9789
▁Wagen~~8719
▁Chip~~10390
▁nowhere~~2056
uits~~6049
9,~~2644
▁rather~~683
9.~~3794
▁empowered~~10221
▁luck~~5472
▁modest~~3876
holm~~5140
▁Pac~~12697
▁calc~~9466
▁essentially~~6488
▁wonder~~574
hole~~4710
hold~~10682
gencies~~12275
▁stack~~1640
▁prevent~~5110
▁Pink~~12255
▁helpless~~6978
▁agents~~10301
berecht~~13697
income~~10699
▁spinal~~4947
▁Satell~~13381
▁capt~~181
▁caps~~4343
otherap~~12358
▁produced~~4356
Le~~4188
▁Tasman~~12320
▁year~~845
wand~~12473
▁claim~~6604
▁manufact~~8091
▁Liter~~6766
▁beating~~5390
▁Mass~~3438
▁produces~~2429
umin~~2908
▁Poster~~13789
▁yeah~~3997
▁insights~~9340
▁systems~~1641
LA~~13058
▁psychiat~~12193
▁Fang~~13804
hol~~1486
how~~9596
hot~~7764
hou~~10070
ilit~~9353
▁Jimmy~~2677
hop~~4035
traum~~10957
A~~2291
▁own~~1523
▁tough~~2098
▁neue~~13955
▁TEDMED~~10859
▁Steven~~7468
▁Lem~~11131
▁Kelly~~9889
▁purp~~12254
▁neut~~12088
▁world~~197
▁neur~~4954
▁woman~~1123
▁mentor~~11378
aving~~6254
▁bedro~~10679
▁guards~~7623
▁Situation~~13882
▁Ebene~~4686
▁Geoffrey~~13368
▁soil~~10024
▁elabor~~10834
▁presents~~9838
wing~~310
wind~~5138
▁Dom~~13250
▁surface~~591
▁Rass~~13988
▁protest~~9331
▁want~~190
▁today~~771
▁Wikip~~13538
gar~~10431
vard~~13808
▁wann~~12856
▁matters~~1788
▁wand~~12731
▁technically~~3346
▁movie~~7552
▁Kor~~12736
▁Higgs~~13254
fir~~11426
fit~~4878
▁hunger~~6068
▁profit~~1455
izophren~~13443
▁architects~~6875
▁diversity~~2042
▁instantly~~6823
inal~~1483
▁puts~~2537
fig~~10487
cipl~~9929
▁crucial~~9203
fin~~2922
▁participate~~3025
fil~~12033
esity~~13399
▁Being~~5938
There~~5453
▁John~~5661
▁legisl~~12022
▁neither~~2930
tenance~~10394
▁Lev~~11907
▁monit~~11873
▁smarter~~10481
▁astronom~~9703
▁Let~~995
▁skeleton~~9070
▁fires~~7584
▁property~~5490
▁somebody~~3395
▁suggests~~2480
▁..."~~3433
▁nation~~7009
▁celebration~~8784
▁continuing~~6635
▁fired~~5892
▁lesson~~1812
▁Dor~~12125
▁Brook~~10582
▁bu~~4074
▁br~~2885
Ç~~13736
osit~~4321
▁final~~1300
osis~~9721
▁by~~24
▁emotions~~1355
▁downtown~~8241
▁be~~250
▁expertise~~5736
▁forests~~4083
▁actions~~8064
▁bo~~656
▁harvest~~720
▁bi~~3545
rt~~9708
ru~~4305
▁cross~~5454
▁Diff~~10102
▁weeks~~988
▁10.~~11915
ry~~2806
▁invest~~1857
re~~69
▁generated~~773
ra~~2650
▁Dol~~4747
ro~~2027
rh~~10951
ri~~2829
▁instructions~~8955
▁Church~~9322
▁curious~~2727
▁Panbanisha~~14038
▁decade~~1953
▁exhibition~~4786
▁dawn~~5677
▁detailed~~2736
upt~~12990
▁paying~~1852
ate~~689
hmen~~6382
eared~~10185
ata~~6938
ato~~3673
▁Russell~~11642
ath~~4424
ati~~6972
att~~7032
ats~~1278
▁News~~8020
▁ill~~2907
▁Coca~~10248
▁2011,~~7394
▁initial~~6598
▁Many~~5208
▁patient~~2424
▁lever~~1197
titude~~12342
Please~~2999
▁relativ~~11814
▁2020~~13189
▁description~~2928
▁Mann~~11020
▁level~~1555
▁traits~~1263
▁Mang~~13815
▁stomach~~4393
olds~~1652
▁fu~~13504
▁incentives~~3306
▁NSA~~10985
▁trained~~9589
lege~~9511
▁constra~~4651
▁activist~~9329
xis~~13048
master~~3557
▁Treasure~~12553
rons~~11957
orrow~~11696
▁agree~~6526
izen~~13660
▁Fischer~~7849
▁trends~~9267
LS~~11875
▁keys~~3959
▁frame~~2064
▁move~~846
▁Jack~~10798
▁installed~~8140
uations~~10696
▁brought~~2287
▁free~~3513
osition~~4216
▁determine~~7941
friend~~8658
▁HIV~~6443
▁class~~1873
▁truth~~91
este~~10685
▁hardware~~3236
▁democrat~~12101
PTCHA~~13287
esth~~4987
▁disapp~~1896
cking~~7490
▁Deep~~8831
ests~~172
▁misst~~13922
▁killing~~8869
▁caring~~6981
▁blah~~13252
enness~~8828
ource~~12221
▁strategy~~6550
▁Mini~~8088
▁merely~~6479
eler~~5785
▁algorithms~~7640
▁dough~~9425
▁distinct~~7645
hum~~11833
▁details~~3698
▁threaten~~6827
▁charming~~10563
▁comput~~10948
estock~~10411
seh~~14201
▁north~~452
▁Prophe~~13604
letter~~12880
▁away~~710
zyme~~7899
—~~13109
▁scanner~~2398
▁sketch~~8105
▁Hir~~13887
▁supermarket~~8309
▁tape~~8505
qual~~11106
▁injury~~8611
▁Telescope~~12523
▁limits~~2110
▁inventions~~4571
▁legitimate~~5741
▁freedom~~1590
▁prototyp~~12201
▁qual~~10194
▁quad~~1791
unts~~12006
liest~~7749
antly~~8693
▁arbit~~6185
▁deployed~~10647
▁Wirk~~13956
▁quar~~6248
isphere~~10152
▁giant~~356
capes~~5095
▁pione~~5049
ment~~1618
rict~~11318
▁coverage~~8457
rics~~6547
▁Lakota~~13649
onanz~~13401
rick~~12710
rich~~515
mend~~5217
▁Rep~~13605
wide~~5053
▁underg~~6651
▁helped~~1962
iate~~7650
▁analogy~~7681
▁sales~~8248
▁gathering~~2197
▁Album~~11884
▁innocent~~4938
X~~6131
▁Every~~2053
▁criminal~~1211
▁livestock~~8684
▁film~~2452
▁fill~~6394
▁batter~~13681
▁spaces~~2363
▁wrap~~10641
▁actively~~7286
▁direction~~1956
▁2010,~~7057
▁Things~~11067
reate~~6681
▁micro~~347
unte~~13360
▁ignorance~~9251
▁drugs~~4982
▁incident~~6274
▁success~~1612
bles~~6203
▁predictions~~11787
cles~~5248
▁regions~~6030
▁maint~~7929
etic~~614
▁banks~~2309
▁covered~~9102
blem~~9374
osity~~5471
▁Oregon~~7619
▁East~~4081
best~~7937
▁spots~~5241
iry~~4534
▁organism~~8412
▁relate~~7030
▁governments~~5102
▁distra~~6395
irt~~2812
ibles~~12573
figur~~3495
▁eventually~~471
irl~~6865
irm~~9635
▁place~~775
ations~~2269
ira~~12941
ringe~~10026
irc~~7633
ird~~1550
ire~~3844
▁journalists~~2336
▁Which~~4616
▁African~~4056
▁worse~~1105
cut~~5946
▁Ideal~~13431
ishment~~11637
carbon~~7910
▁worst~~987
izont~~13797
affe~~11684
▁Potter~~11996
▁ce~~5339
▁erectus~~10125
▁tempt~~3279
▁foss~~9115
▁dein~~13068
▁MRI~~2379
▁ca~~10088
esis~~580
pre~~6221
▁Balance~~13993
ater~~6781
raits~~12414
▁Stand~~3510
▁possibly~~7108
▁accountability~~2081
igkeiten~~13952
▁shoulders~~5620
▁sedu~~5384
ffic~~11093
pra~~13126
100~~4427
▁talking~~807
▁impl~~6984
▁grade~~5731
▁Paz~~7463
fre~~12438
isher~~6233
▁Block~~4848
▁Pat~~10731
▁external~~9380
▁fair~~3976
▁Pas~~10231
▁choir~~7454
.~~60
▁Pan~~2175
▁jazz~~3999
▁gradu~~1708
▁batt~~5669
è~~13701
▁storage~~5062
▁laws~~5066
ished~~2583
spir~~1040
▁welcome~~8652
life~~5935
ano~~7946
▁tooth~~5181
▁Comedy~~12642
▁healthier~~6425
athon~~9228
▁allowing~~7443
ersp~~13632
onym~~13556
arians~~10448
iologists~~8447
▁Erik~~11707
▁depth~~119
igan~~13851
usion~~6307
rent~~9921
▁Northern~~5135
▁empt~~5525
▁Wag~~3905
On~~7044
▁besides~~1474
▁Wal~~11114
▁historical~~10142
▁theories~~9460
▁Was~~2772
▁War~~4265
Mail~~14161
▁Way~~6881
▁jellyfish~~7087
▁flour~~6864
▁Afr~~13663
ogether~~8553
▁Really~~1317
▁arrested~~6121
▁stop~~1342
▁narrative~~2455
▁stom~~4398
▁recip~~6009
▁Explosion~~13749
▁physical~~3528
▁position~~5635
iell~~13812
▁Opt~~13551
▁offering~~5570
▁closing~~7586
▁pract~~10055
putation~~12064
▁symbols~~10773
▁Penn~~10494
▁inher~~8431
ã~~13562
▁Islamic~~9044
ustom~~12269
geist~~9854
▁always~~1562
▁perhaps~~3742
▁motion~~3857
▁surprisingly~~6910
▁school~~294
▁divor~~5826
▁difficult~~684
▁advert~~6236
▁cave~~2490
▁Olymp~~1328
▁Bell~~11748
▁8,~~13047
▁8.~~11110
▁Oxytocin~~13897
ordin~~5331
▁Chinese~~4190
▁85~~10154
▁86~~10040
▁80~~3042
▁82~~6132
etics~~4988
▁caught~~1672
▁Maur~~7342
ctic~~5191
▁States~~1470
hai~~9326
hal~~4350
ham~~5775
han~~7429
hab~~4339
▁thylac~~12674
300~~6711
▁phase~~7574
▁Indones~~11332
▁silence~~2821
har~~5437
▁Radio~~9390
▁Koll~~7161
▁tremendous~~5575
inging~~735
▁astronomy~~11507
▁Julia~~10434
▁Julie~~13193
▁age~~1340
inosaur~~13385
▁Laur~~11847
uminium~~14082
▁ago~~989
▁campus~~9575
▁nest~~4380
▁research~~2111
▁Second~~1530
▁priest~~8899
▁Arist~~13520
▁Russ~~10229
▁Anders~~13529
▁recall~~3314
▁ambit~~12936
▁pace~~6292
▁Designer~~8067
▁realization~~7026
ction~~1494
▁phys~~8407
▁failures~~10520
▁household~~7519
▁and~~16
▁ambig~~10060
▁entirely~~5456
▁Bre~~5483
right~~6606
old~~1097
ole~~485
olf~~8469
▁boss~~1206
oli~~12968
oll~~3969
System~~10131
▁improved~~6584
▁heter~~8468
▁eating~~3986
▁Tennessee~~11139
▁Aquarium~~4430
▁dying~~4397
▁German~~1924
ibel~~13578
ump~~3100
for~~171
▁catastroph~~6605
▁just~~640
▁board~~2313
ume~~11669
illiant~~6684
▁Koran~~9291
umb~~843
▁chance~~3333
▁Kosovo~~12267
▁Instead~~3285
▁suffer~~9060
inction~~12672
annah~~4072
▁Profit~~13212
▁fixed~~7775
▁practical~~4077
▁targets~~2131
riers~~5417
falls~~12974
▁disease~~3716
▁learned~~1723
▁lifetime~~5863
ader~~4740
ades~~6509
▁response~~4979
cular~~8507
o~~6
aded~~6499
▁biolog~~6600
▁Weib~~13968
▁schm~~12882
adel~~14211
▁creator~~8796
aden~~12034
▁Py~~8867
▁interests~~4104
▁consum~~10416
rators~~9875
▁aircraft~~2288
▁Gedanken~~13498
son~~3961
▁laboratory~~491
▁encourag~~9166
oson~~13544
▁portraits~~7424
▁Span~~13357
▁Zwe~~13607
▁producing~~2417
▁BBC~~12959
spring~~12795
▁function~~2387
▁Yeah~~3894
▁economists~~5078
otten~~12457
▁Gener~~12614
forming~~1966
▁accompl~~12613
▁critical~~691
▁biolumines~~312
▁boring~~8943
▁Indians~~12389
▁Genen~~13545
▁String~~13665
reu~~13272
▁Harris~~7851
▁subject~~2319
▁corners~~5469
▁parks~~8437
▁sector~~6191
▁begun~~7622
aza~~11835
▁wall~~2886
uer~~11580
▁walk~~1872
▁monkey~~8382
krieg~~13321
▁Could~~3411
▁was~~526
▁war~~3467
pest~~12673
▁way~~341
▁subjects~~3373
▁Neur~~2341
▁absen~~12482
<unk>~~1
▁technological~~3868
esent~~11252
irst~~4777
ervative~~7861
feld~~12834
▁upper~~1790
ü~~13471
eloc~~6594
'.~~11865
▁slowly~~3209
▁PC~~7939
▁ambition~~2923
ichten~~11268
leep~~7479
▁Glas~~13194
▁Jong~~12374
▁confronted~~10517
obal~~12760
ritte~~13197
ó~~11429
▁vill~~8245
▁iss~~6145
▁Connect~~11963
▁philanthropy~~5838
roll~~7199
▁continues~~7608
▁Gift~~13595
▁Gel~~11510
▁Gen~~5690
E~~2247
▁Robot~~10470
▁listen~~894
▁CERN~~11782
▁robust~~6610
▁massive~~2152
▁Get~~3564
▁Louis~~3013
▁sufficient~~5240
▁penguin~~8266
Afr~~6198
▁Ger~~9859
▁Trends~~13328
99~~11627
ederal~~11612
imming~~12360
▁bacterial~~8956
cycl~~13860
▁elementary~~9373
ordination~~13594
pet~~12563
time~~2673
▁lawyers~~5022
▁Clay~~11888
▁rab~~9871
▁rac~~7634
▁rad~~7664
▁Lex~~10746
osp~~2149
oss~~3989
▁heavy~~5614
ost~~9979
▁ran~~2548
▁Ange~~13152
▁rap~~8601
osh~~5410
▁ras~~9735
▁rat~~7656
▁raw~~4703
osc~~2342
ose~~4538
▁candidate~~9604
▁doc~~11269
ver~~1076
▁history~~867
▁interpret~~8000
▁Christopher~~2338
▁Gestalt~~13873
▁license~~7945
vey~~2124
▁fung~~10961
ved~~4840
▁fund~~9037
▁Mexico~~8204
ven~~3910
vel~~3381
andid~~11611
▁Australia~~5919
yers~~7854
▁Best~~10854
▁comedy~~10378
▁Los~~6774
▁Lot~~13433
icing~~3157
▁taste~~10850
▁Bess~~12102
▁bound~~4574
▁unusual~~3701
▁delivery~~10272
▁Far~~8019
▁Fas~~10009
▁Fal~~10359
▁Fan~~13209
▁roll~~5646
ective~~11143
▁Log~~9591
▁AIMS~~13651
▁role~~4966
minute~~3077
room~~10644
▁incentive~~6670
▁widely~~8478
▁farm~~4579
▁thinkers~~8493
▁contain~~4452
▁Barry~~8562
▁lag~~11478
▁assoc~~9709
▁Richard~~8577
▁Toronto~~4714
▁collapsed~~2393
▁relax~~6249
▁increase~~1428
olly~~8333
sign~~13332
▁emot~~12774
redict~~12161
▁existence~~9169
ba~~12436
▁profoundly~~8521
▁Garage~~13987
▁ride~~5523
oes~~161
▁paralyzed~~4921
▁radically~~9195
▁protected~~4629
▁Dass~~14186
▁analy~~11831
ground~~2921
ords~~2668
▁dragon~~11663
Me~~11926
▁point~~2674
▁El~~882
▁Saul~~11744
▁Revolution~~1187
olen~~6995
▁temperatures~~7756
▁smoke~~6243
▁cheat~~3189
My~~3870
▁Ew~~12969
▁importantly~~2382
▁diver~~4024
MA~~7560
▁plastics~~4282
▁know~~968
MM~~14154
▁none~~9907
▁fire~~1547
▁photographed~~5100
MS~~10523
▁ourselves~~1048
sive~~10235
▁firm~~5993
▁Performance~~9618
▁leave~~1501
▁suggest~~3219
▁cooperate~~9551
▁grie~~12131
umps~~9443
ipe~~5311
▁climbing~~7774
ips~~4923
ipp~~7718
wana~~13132
▁purpose~~1423
▁Baseball~~13764
▁meas~~2132
▁los~~12459
▁lot~~781
▁chron~~9817
▁simult~~8036
▁low~~3310
positive~~11374
La~~10078
opping~~8061
▁lob~~7835
▁loc~~8657
▁Domin~~11887
▁log~~5413
▁ging~~12920
▁quick~~3489
▁lok~~1106
▁mean~~955
▁lon~~4772
▁meal~~6407
▁bew~~9284
▁CP~~12656
▁Tesla~~12670
▁enforcement~~5084
▁Airb~~12184
▁Nah~~14218
▁Himmel~~13076
▁CE~~12261
▁CD~~3827
▁Cholera~~14002
▁CA~~6691
▁CC~~8337
▁CB~~3898
▁compan~~9406
▁Laura~~7502
▁meetings~~7625
▁remotely~~4680
▁abandoned~~8932
▁approach~~3205
▁PowerPoint~~11005
▁Tom~~2888
▁Ton~~12568
▁Cr~~10740
▁Tob~~12712
▁Tod~~3580
▁quasi~~12756
▁Toy~~3659
▁Mexican~~7473
▁jour~~8535
▁Top~~11466
▁Cl~~2177
▁Co~~5846
▁Ch~~2179
▁occurring~~9572
▁insects~~8373
ogens~~10858
▁Arctic~~8993
outs~~9775
▁Marketing~~12893
ogene~~1976
▁existent~~11009
▁gases~~8700
ople~~9754
▁shops~~7995
▁survive~~1297
Who~~4183
▁Brit~~2716
▁bare~~2783
Produ~~13593
▁computation~~10796
▁signature~~762
▁tale~~1037
idepress~~13354
sst~~13053
▁bars~~4032
▁tall~~779
▁talk~~938
▁social~~973
▁Brig~~5689
▁strict~~10489
ipend~~13185
▁drama~~2858
▁recognizing~~4719
▁Texas~~9429
tet~~13409
▁isol~~7146
▁Michelangelo~~8835
such~~5953
atar~~8842
▁Giardino~~14165
▁2009,~~1743
▁till~~703
▁style~~3683
ss~~8253
sp~~5242
sw~~11795
▁Sebastian~~11439
st~~717
sk~~4661
sh~~3102
so~~1754
▁consciously~~4949
sl~~6404
sc~~2214
sa~~10212
se~~1627
▁generate~~1086
inte~~687
▁terror~~11008
▁Bonob~~14036
▁mem~~12137
▁hook~~5224
▁capabilities~~11223
▁pyramid~~10422
▁Argent~~12370
▁magnet~~11227
avig~~13506
haps~~9545
ographic~~5201
▁stir~~9165
▁matrix~~9793
▁forget~~335
▁attack~~5010
▁recon~~9025
▁attach~~6805
▁Add~~8260
▁stim~~1346
▁identical~~7644
hor~~11053
▁armed~~10113
▁screening~~2946
▁super~~2258
▁Report~~12296
▁suspend~~10824
▁artwork~~11602
▁breaks~~3244
▁ADH~~10653
▁Port~~12634
▁knees~~11465
▁Still~~8589
▁also~~238
▁Cent~~9693
▁cats~~9989
▁haven~~352
jected~~6072
▁Howard~~2900
▁tiger~~7132
▁distance~~3401
▁glacier~~6726
▁using~~2378
▁solar~~7561
astrop~~9385
ann~~7244
▁Religion~~13739
▁Carl~~6208
iring~~8806
▁infections~~10037
▁Cart~~9556
▁bucks~~4428
▁Cars~~7952
▁graphics~~8079
▁direct~~4267
▁intric~~3942
bly~~12649
▁trade~~4563
▁intrig~~7643
▁extraord~~8783
▁volunteers~~3454
augen~~14157
▁instinct~~4095
▁undert~~10298
▁Helium~~13060
ble~~4546
▁administ~~2079
ustice~~9446
▁trucks~~10437
▁dispos~~6033
▁some~~31
plet~~9899
ples~~4586
pler~~12589
gere~~13654
opardy~~5558
▁Konz~~13725
▁aer~~10973
plex~~11708
▁9/11~~5688
▁Jazz~~10188
▁Relig~~13715
ollywood~~13171
▁defense~~7089
▁medium~~4044
ulse~~9236
.'"~~4200
rael~~4132
itage~~5212
▁Frustr~~12076
▁stren~~10666
▁inspir~~8566
▁remain~~7012
▁Proton~~11819
ova~~11629
▁forth~~4973
Comp~~12966
onents~~11742
▁Jewish~~9515
▁guilty~~1408
oper~~5605
▁internet~~6869
▁choice~~2570
▁corresp~~9812
ong~~4471
ond~~3538
owers~~3744
ooled~~10835
ony~~5554
▁Schnell~~14228
ons~~2717
ont~~6546
▁interested~~1718
▁Leonardo~~7346
▁Diam~~11263
▁boat~~2767
▁destination~~10590
▁Large~~12018
2~~1029
▁disk~~12297
▁Myster~~5914
uries~~7357
▁behavior~~2029
▁therap~~2403
▁making~~1826
romos~~10148
▁confront~~5065
▁Stop~~11398
▁trouble~~1704
forward~~6230
▁Gottes~~14020
▁psychology~~9216
▁service~~1454
▁recept~~10828
▁relief~~3448
▁appearance~~8465
▁yield~~8766
▁Leone~~9970
▁disp~~4518
▁TEDster~~7744
▁wider~~7071
▁Island~~5519
▁halt~~7365
▁understands~~2942
▁uncomfortable~~4990
▁Wiki~~12547
emen~~7961
▁increasingly~~2497
sam~~4312
sal~~11869
▁fr~~1430
▁dolphins~~13138
reten~~14093
alley~~14127
▁arguments~~6516
alled~~8898
▁plastic~~4243
▁fl~~375
abled~~11472
▁expos~~11385
▁fa~~2633
▁honestly~~8875
▁complicated~~4950
▁fe~~4322
▁makers~~2337
▁Watch~~1638
imately~~10244
▁somehow~~1226
anging~~7221
▁resilience~~10112
▁Celsius~~11471
ameras~~13796
▁printed~~8177
▁captured~~23
▁decor~~7363
▁suff~~6862
ndrome~~13521
▁life~~53
opters~~12836
▁economically~~5450
▁lift~~8247
▁Count~~9415
smann~~14208
▁conventional~~6279
▁entire~~2052
▁watts~~11790
▁protocell~~13730
▁blogs~~9762
▁indust~~10462
▁systemat~~13273
▁General~~10215
▁unseen~~4709
▁walls~~3782
▁airline~~12519
▁syndrome~~9983
▁tun~~5233
▁civilizations~~9873
itzer~~10810
▁molecules~~2230
▁Camp~~7763
▁related~~7358
▁tut~~6356
ama~~7714
▁distrib~~8138
▁1950~~5283
▁Aber~~13566
▁Camb~~11225
▁region~~489
otic~~9502
▁Country~~11800
▁picking~~3888
▁more~~1282
▁marketplace~~9797
▁owner~~4139
deck~~12724
▁alternatives~~11172
▁crossing~~6523
▁drew~~4822
▁licens~~5897
going~~13148
▁mort~~3409
▁illeg~~12806
ills~~7218
▁says~~1124
▁formula~~7913
▁owned~~8798
▁dogs~~8288
▁temp~~7826
▁Muh~~11726
▁Building~~6777
imps~~8707
▁Just~~1241
▁evidence~~3301
▁sister~~2998
▁Mur~~5773
▁Dinosaur~~13384
▁Mut~~12364
▁cockro~~8357
▁onto~~2560
▁Gordon~~9932
rogen~~7864
▁Live~~4037
▁lingu~~6858
▁frag~~1970
▁transport~~4593
▁interactions~~8767
▁nuclear~~7730
▁fram~~3130
ounds~~7110
where~~8232
vision~~2362
▁Da~~11105
▁costs~~1860
▁practicing~~11449
▁minimal~~7666
anning~~6368
▁stimul~~1419
▁Japanese~~2034
▁government~~1909
▁collective~~2719
▁dinosaurs~~7920
▁computers~~7123
▁collaborate~~3644
That~~1238
ff~~8369
▁Kapital~~14117
▁seventh~~5844
▁metabolism~~6538
▁imit~~3675
▁material~~562
▁category~~8466
▁fulf~~1457
▁full~~2253
▁Jess~~13159
▁Liz~~11156
▁suffered~~10845
▁aus~~12971
ibri~~8983
▁preparing~~5520
▁attached~~7082
steroid~~14063
▁Lin~~10128
▁Lim~~7028
▁Lib~~9866
umber~~5237
▁responses~~9833
oust~~215
▁circum~~8982
▁donor~~6164
▁2003,~~7888
ouse~~6375
belie~~1038
mand~~7845
▁measured~~1744
▁Geographic~~7754
mann~~12902
▁inf~~6979
▁ing~~12919
▁ind~~9208
▁ine~~6064
▁inc~~2302
▁inn~~9896
Team~~13863
▁inj~~4093
▁ink~~11253
ants~~4301
,~~27
▁inv~~2462
▁int~~10724
▁fraction~~4306
▁ins~~2391
▁Norden~~13682
▁technologies~~1733
▁crude~~2854
ocortex~~13353
▁presented~~7252
▁emit~~2239
▁Stress~~14210
▁Pennsylvania~~8749
west~~4382
▁entropy~~10907
▁Lond~~12224
▁Frank~~2648
▁brut~~11012
▁And~~67
▁recru~~2059
▁Dallas~~11757
▁miracle~~4503
▁stunt~~10382
▁alle~~4736
▁voice~~3630
▁heating~~11832
formed~~6449
▁Oper~~3635
▁Open~~9908
▁toler~~6506
▁calculations~~9468
▁horses~~4480
icles~~3138
▁bones~~7150
▁boats~~10515
▁sites~~682
leiter~~14106
ived~~817
▁Fert~~4569
▁guns~~9119
iven~~2554
▁Automobil~~8838
iver~~10634
ives~~565
▁thus~~10091
▁sides~~5292
▁brand~~5742
▁parach~~11982
▁Fern~~12380
ive~~605
▁thr~~285
▁Fing~~12855
iva~~8418
▁wear~~6430
urers~~8129
▁location~~7414
▁Finn~~11921
▁audiences~~3984
▁scratch~~3550
▁None~~4562
▁Ehrlich~~13346
▁proceed~~6945
▁explanation~~4101
▁encoun~~7571
▁Anw~~13160
technology~~8355
▁edge~~191
▁tox~~12113
▁quiet~~3985
▁increases~~1420
▁cope~~9110
▁According~~3553
▁Material~~13429
▁liv~~6044
▁attitudes~~6628
▁lit~~6427
▁Ans~~12517
▁lik~~11598
▁increased~~3972
▁retail~~8178
▁Moral~~10061
▁smoking~~795
▁reason~~3215
▁managed~~626
▁lif~~5531
▁lie~~2859
▁AS~~13258
▁stair~~7376
erence~~5895
▁AV~~13042
▁AT~~10401
I~~1125
▁excitement~~3451
arden~~13597
ilation~~2218
▁demo~~3059
ventions~~10605
▁AB~~3893
affold~~8405
▁offspring~~7942
▁AG~~6677
▁AD~~12361
▁AK~~11852
▁AI~~13253
▁AO~~12325
▁AM~~5856
▁As~~1362
▁Ar~~3181
▁Ap~~10018
▁Aw~~3562
▁Av~~10365
▁Tit~~13499
▁Hum~~1326
▁Hub~~12257
▁clips~~22
▁Tib~~7072
▁Ab~~6173
▁Ag~~2877
▁Ad~~6171
▁Ak~~7239
▁Hus~~12052
▁Ah~~3476
▁An~~1273
▁friends~~1049
▁Al~~204
▁action~~3773
▁proposal~~6672
▁Economist~~990
▁shore~~5070
ress~~7033
resp~~6623
▁Pen~~4420
▁Bron~~13482
rest~~3441
▁Per~~3481
▁scholars~~7738
▁Brow~~10567
▁Pet~~11224
▁creating~~1174
▁short~~815
▁calculus~~12887
▁proposed~~7081
▁heard~~2233
pox~~13971
▁last~~672
▁artist~~3863
▁political~~2659
▁forming~~8641
▁LEDs~~3785
▁murder~~9207
▁youth~~6601
▁heart~~2867
▁tank~~8189
▁involv~~7884
▁Creat~~3430
▁collected~~415
por~~3093
ademy~~13768
▁hardly~~5309
▁hoping~~7186
▁include~~1766
pop~~6522
▁reass~~8821
▁digging~~9079
world~~10075
Mart~~12827
▁Integr~~12300
atch~~4252
▁Kongo~~13470
▁coff~~1133
▁bills~~3352
inten~~13843
inted~~3132
▁tiny~~740
▁global~~1634
▁Sep~~13912
inter~~2565
eshold~~14090
▁territ~~5167
▁ist~~10603
▁Namib~~13635
udes~~10522
▁applying~~7064
▁Geoff~~13093
▁puzz~~12096
uden~~13483
▁powder~~11655
koll~~13524
▁performed~~3908
uded~~5988
▁laughter~~1392
▁isn~~1036
▁confidence~~2915
▁memories~~2458
▁which~~548
▁report~~998
▁Digital~~7532
▁supported~~7542
▁Abu~~11834
▁morality~~3400
▁stamp~~7187
▁soph~~12396
▁Philosoph~~11486
power~~6153
▁hum~~4712
▁hub~~10548
▁Matrix~~2443
▁game~~1541
▁valley~~462
▁forever~~3747
▁hormone~~3541
▁hur~~2805
▁hus~~5841
▁religious~~3324
▁Meet~~8422
▁storytell~~2488
ffen~~12218
stone~~9103
▁machinery~~7900
ace~~8988
ack~~714
ulle~~10513
ach~~3516
▁Yorker~~3983
▁Samuel~~10826
▁Pitt~~7412
▁People~~232
▁Ira~~5956
▁millennia~~11777
act~~4239
acy~~1041
▁inspiration~~10343
▁incorpor~~8580
▁Eng~~7345
▁End~~4208
No~~5761
▁Kart~~13447
oder~~7053
▁Cape~~11721
▁implications~~6091
▁Karl~~9458
essed~~2312
▁hypothesis~~5638
▁Ent~~5711
essel~~13770
▁Capt~~4244
essen~~10853
acular~~12973
▁dung~~8664
▁Maya~~12977
▁Sold~~11296
oden~~9692
▁allies~~9346
hew~~8134
her~~913
hes~~4279
▁Soll~~12226
NA~~10146
▁Margaret~~11339
▁households~~8162
NG~~12538
▁Because~~492
hea~~12939
▁Chromos~~13395
▁finan~~8541
hel~~10504
hem~~9696
hen~~4869
▁Boot~~11311
▁apart~~873
isa~~12412
hek~~12411
lang~~9683
verb~~7035
▁genug~~10604
▁term~~1319
▁act~~4129
tended~~11055
▁soon~~634
▁ack~~13622
▁adult~~6990
▁MoMA~~12367
wal~~13599
▁acc~~5963
▁Logo~~13918
veled~~12228
▁ecological~~8293
allas~~11802
asso~~5128
▁whom~~4908
▁extinction~~7919
▁assume~~4105
▁home~~928
asse~~7771
▁coast~~4333
agh~~12709
▁window~~386
▁nervous~~3739
▁asteroids~~11944
▁page~~4193
aa~~12338
▁clue~~10391
ac~~880
ab~~4371
ae~~7393
ad~~1075
ag~~790
af~~5681
ai~~7137
▁potential~~970
ak~~1394
aj~~10174
▁impro~~1417
ances~~2061
an~~2469
ulpt~~13333
ap~~1377
as~~1111
ar~~456
ument~~4386
at~~2278
aw~~712
av~~3184
ay~~4008
ax~~3099
anced~~4674
az~~6403
▁bl~~4057
▁distinguish~~8471
▁Sad~~4404
▁viewer~~10508
▁cathed~~3952
urity~~11081
▁purs~~8103
uste~~13262
▁waiting~~829
▁350~~8808
▁dank~~13991
▁San~~2203
▁nach~~9603
▁Sah~~12704
▁pure~~8354
▁Sat~~12771
▁Sav~~4071
▁viewed~~7238
▁barely~~6741
▁Sar~~5127
▁Odys~~12773
▁Say~~9641
▁scores~~5392
▁symmetries~~13256
▁practices~~2046
▁moder~~6582
anw~~13480
Meine~~12243
▁operation~~4901
anner~~8550
ituation~~14095
▁navig~~11228
▁norms~~3394
annel~~7048
ising~~1605
▁island~~4331
▁model~~1986
anned~~5794
▁hist~~2493
▁complexity~~9204
Wh~~9625
ombe~~12594
▁exerc~~8772
▁outrage~~7641
▁often~~2068
▁innov~~3957
mass~~3444
▁anywhere~~4063
▁steal~~3190
▁steam~~9814
▁grandchildren~~6759
▁resolution~~7686
▁unfair~~1730
retch~~4914
▁contem~~12805
sch~~8888
▁monitoring~~5083
▁findings~~1846
▁vast~~2524
▁Aimee~~13296
▁jewe~~12051
▁pers~~4457
▁muscle~~11310
etz~~9021
▁bombs~~7723
▁anyone~~3707
tz~~12307
ty~~300
tw~~8188
tt~~3425
tr~~1208
▁despair~~5000
▁Water~~8109
▁quote~~5767
▁teach~~1863
to~~1453
tail~~12466
rize~~13706
th~~1682
▁raise~~1967
▁Geor~~10868
▁nerves~~4946
norm~~13276
orous~~3090
▁dictators~~9749
esign~~13225
▁Bund~~9244
▁liquid~~3062
utzen~~13456
▁sharks~~13036
pression~~1082
▁round~~3096
▁extrem~~9238
▁mayor~~9054
▁occasionally~~6820
▁neurolog~~13446
ading~~6364
▁sandwich~~8197
▁Brut~~12820
these~~13787
▁frames~~6567
▁Jazeera~~9865
ifying~~4981
▁3,~~7480
▁generating~~7927
▁embarrass~~12143
ctures~~7613
▁destiny~~12929
▁sad~~965
▁sag~~12142
▁saf~~11980
▁twe~~6764
▁sac~~12655
▁sam~~5123
▁trains~~4653
▁san~~5776
itive~~3305
▁two~~120
▁sau~~13302
▁sat~~5879
▁saw~~616
▁sav~~4079
▁express~~3832
▁Thanks~~5751
▁say~~897
▁ancest~~9083
▁regime~~5107
▁Das~~13587
▁does~~1258
oton~~13056
clock~~1505
section~~2323
▁horm~~13554
▁actors~~6067
▁Network~~11003
▁Paradox~~12112
▁Region~~12897
▁Gap~~11843
▁Gas~~11173
▁Gar~~4250
▁Hem~~10151
▁Gay~~13233
▁32~~7456
▁sort~~1751
sy~~6429
▁Gab~~6004
▁Management~~12532
▁Babylon~~9509
▁Gam~~10764
▁Gal~~8645
▁da~~4533
▁lines~~1942
▁de~~1553
orben~~11917
▁founder~~8122
▁di~~10771
▁do~~482
▁from~~74
▁du~~4163
action~~6079
▁dy~~1112
▁3:~~7131
▁founded~~9289
▁Finger~~13841
▁ret~~4407
▁rev~~931
via~~11904
▁rep~~4069
▁Fred~~10375
▁res~~3809
▁Frei~~13078
pling~~5124
▁reaction~~6259
vin~~205
▁heads~~6264
▁red~~729
vis~~10355
▁ref~~5814
▁reg~~4387
Aut~~11959
▁reb~~7543
▁rec~~3258
▁rel~~7617
▁rem~~3424
▁ren~~4261
ating~~1445
▁writers~~8159
▁neighborhood~~5563
▁flowing~~5631
▁Despite~~852
▁tropical~~9694
ichen~~12752
▁published~~6659
▁Di~~11484
▁passen~~4644
6~~6458
peare~~13466
▁Rock~~8843
▁Ev~~2478
more~~8699
teen~~4544
▁resol~~8874
door~~3903
▁expanded~~6723
▁Kyoto~~11119
▁remove~~3406
▁186~~12133
▁187~~9500
▁180~~566
▁reson~~7950
aders~~13206
▁18-~~10048
▁remains~~9088
ocent~~12099
ulin~~13829
▁investors~~7743
▁Mohammed~~13415
▁iPh~~9467
▁infected~~927
▁Life~~8
▁scar~~6053
ational~~1427
▁scan~~7823
▁Manhattan~~7553
▁rebuild~~5709
▁Peace~~9402
male~~12726
▁lea~~13984
▁Scot~~4622
▁relev~~10409
▁write~~2318
▁brutal~~2683
▁Harvard~~5858
▁Humor~~12748
▁capita~~994
▁Pizza~~13364
estyle~~13428
sense~~6622
scar~~11981
▁democracies~~9878
information~~12155
hent~~13351
▁storm~~5433
▁unst~~8432
Land~~13826
▁store~~3237
iving~~804
▁story~~103
▁Tanzania~~9971
cling~~5820
▁agent~~6322
riage~~11535
▁dramat~~13669
▁Coch~~8679
plant~~9272
▁studied~~7324
▁realized~~5014
▁WK~~13624
▁studies~~2206
plane~~13043
▁central~~3728
▁uncom~~9343
▁nitrogen~~11933
▁crowds~~12220
▁passionate~~2739
▁match~~2627
▁thank~~3166
atz~~10969
▁strike~~8793
▁Ep~~10353
▁orig~~13778
▁having~~229
▁Pic~~7598
abeth~~13996
▁language~~3225
▁five~~848
▁fresh~~3098
▁Film~~7705
ith~~4235
iti~~2870
bris~~4259
▁sizes~~332
▁similar~~1844
ite~~1546
etor~~8446
▁angle~~1716
ita~~4246
▁sport~~9184
▁subtle~~11257
itz~~10539
ity~~166
▁accur~~11501
itt~~2586
its~~5195
▁wheel~~9995
brid~~13548
▁Tuesday~~5600
alle~~44
▁corn~~7860
▁injured~~7188
▁NGOs~~9919
▁Chap~~11736
▁cord~~4948
▁core~~4663
▁pav~~6453
▁concentr~~11169
alls~~8595
▁volcan~~46
▁pat~~6244
ally~~1703
angered~~13867
ijuana~~10578
inosaurs~~13094
▁toile~~13033
▁membr~~7923
▁classic~~2651
▁Eight~~10649
▁chocolate~~5805
▁phenomen~~11727
▁House~~2667
▁Bein~~14097
▁dozen~~2320
▁groups~~812
▁Bar~~10762
▁Bas~~9742
▁Bat~~8278
▁Street~~4611
▁Bay~~8229
ector~~10952
▁Gr~~5769
▁Gu~~7366
▁presence~~6000
▁Gi~~10715
▁existing~~1919
▁Bab~~12926
▁Bad~~12062
▁Gl~~879
▁Go~~3393
▁Bah~~11672
aganda~~2838
irling~~12631
▁Ge~~2953
▁Ban~~9012
▁electrons~~10297
▁Hacker~~9561
▁Kon~~14026
▁veter~~10794
▁face~~408
▁mechanics~~10056
▁reject~~6527
▁silent~~6624
▁fact~~336
operation~~12311
▁erst~~14237
▁ads~~8818
▁Action~~10028
▁Favor~~9976
▁favorites~~245
▁loses~~12061
ftw~~12166
atoes~~8673
▁prevention~~6551
athie~~12383
▁lecture~~7257
▁likes~~9084
▁lock~~5633
▁prisoners~~7624
▁Mand~~12313
▁prison~~7589
▁production~~4268
viol~~6987
▁known~~1280
▁cred~~5739
▁cree~~4766
▁allowed~~6500
▁square~~588
▁violence~~2762
▁geometry~~4842
heads~~11335
▁switch~~4942
▁crew~~2801
▁knows~~1017
ologists~~5908
▁Civil~~7733
▁empath~~6998
▁Your~~1311
▁safety~~7772
▁customer~~1479
orage~~13299
▁realistic~~9185
▁stem~~7828
▁intellect~~9245
▁already~~837
▁early~~1933
uel~~8380
▁reprodu~~8411
▁eleph~~14217
▁swim~~6704
xim~~11676
IA~~12191
▁right~~384
▁rules~~3555
▁step~~1131
▁totally~~3535
▁Jerry~~11610
▁weak~~3577
▁commitment~~5419
aven~~1100
jet~~3808
Je~~13886
illes~~8633
iller~~7803
▁radiation~~760
▁tribes~~9026
▁dynamic~~3609
ographer~~7040
▁economy~~934
▁iron~~4671
▁communicating~~321
ibilities~~1929
jen~~13513
▁height~~459
elling~~3988
▁nan~~3082
▁univers~~5912
▁precise~~3889
▁constru~~13034
▁transc~~6888
▁subway~~11049
▁William~~9943
▁transl~~9386
▁medicines~~9665
▁Amazon~~8230
▁Develop~~10589
▁readers~~9391
▁assess~~1742
▁Jar~~11305
▁reflection~~10374
▁Ell~~3585
apers~~3665
▁higher~~167
▁Royal~~9947
mensch~~13805
▁Iranian~~2756
▁dest~~8617
▁occup~~4992
▁occur~~9807
▁permission~~8803
▁apps~~8045
fter~~12742
▁symmet~~13255
▁spiritual~~4583
▁parties~~9601
▁decide~~3294
▁village~~6912
▁Song~~3871
▁command~~5704
oices~~9839
▁book~~1540
ocial~~9887
sely~~510
istor~~7056
▁Sony~~211
iding~~10497
CO~~5616
aterial~~11176
▁valid~~11058
▁Hawaii~~4444
▁counting~~8901
play~~1057
▁minus~~6714
▁opposite~~1406
▁Last~~1000
▁summer~~4755
▁Morgen~~12290
▁trauma~~10052
M~~1225
▁20-~~12454
opf~~13757
plan~~11741
▁laptops~~6349
▁primarily~~4085
▁dancing~~1388
▁gentleman~~7508
pherd~~9536
▁Sel~~5855
▁wed~~9841
artet~~10181
udge~~3312
▁statistics~~7866
▁discoveries~~5032
▁Sen~~6018
cover~~6791
▁shower~~7992
itous~~8494
giving~~10171
▁herself~~9339
▁extraordinary~~2049
▁famous~~4624
▁Project~~7142
▁Seb~~10242
ugo~~12772
▁Home~~6370
▁failing~~5443
▁explod~~3269
▁comparison~~1808
rait~~12415
▁Homo~~9094
▁bomb~~3970
▁economic~~1666
Ein~~13523
▁left~~2069
ugs~~3669
▁cooler~~5162
▁explor~~7713
▁Pack~~4894
▁DP~~12326
▁Option~~12925
▁100,000~~6288
▁Sch~~1624
▁emb~~10326
gthen~~11568
▁wooden~~8181
▁Milo~~13794
▁hundreds~~2261
ounded~~7535
▁30.~~9227
▁zu~~13958
▁emp~~9516
▁husband~~2807
▁conce~~4803
rehen~~8969
▁concl~~9803
▁instin~~10610
▁intu~~3416
▁into~~201
▁instit~~6673
▁girls~~5541
▁enthusi~~11483
iol~~12835
▁everything~~868
icult~~7309
▁Twitter~~3567
▁accelerate~~3558
allen~~12443
▁Iraq~~5747
▁ending~~5875
cra~~5391
▁Altern~~12789
▁Iran~~4118
etter~~12130
cri~~9510
cro~~4466
vention~~5214
▁selfish~~8900
set~~477
ses~~5326
▁Muslim~~5412
For~~9379
▁optimal~~9237
▁Reform~~14055
sey~~3586
sex~~11324
▁pro~~2741
see~~7384
sec~~9840
sea~~399
▁hopeless~~5969
▁govern~~5115
▁difficulty~~3422
sek~~13909
▁refle~~2020
eman~~9336
#~~12471
lef~~10107
▁close~~1382
▁involving~~10471
▁Gravitation~~13623
▁corpor~~9179
▁Sudan~~9938
▁System~~3781
▁Such~~10149
▁Law~~9617
▁translator~~11616
▁subs~~9786
▁subt~~11775
▁Delph~~14220
▁order~~847
▁Mozart~~3601
ikan~~13468
otherapy~~4996
ikal~~12572
▁subm~~7069
▁upside~~8115
struct~~5498
lass~~8102
▁virus~~1139
▁fiction~~1368
▁microbes~~10857
▁internal~~6432
▁wave~~2351
eping~~9520
rose~~9700
▁float~~2618
load~~6421
▁tracking~~3852
▁origin~~5297
bell~~7827
ometer~~3114
acted~~10363
olle~~7331
dimensional~~345
sing~~755
▁Microsoft~~10722
acter~~3162
▁competition~~8027
belt~~12302
▁Uns~~13352
▁roughly~~4573
▁advice~~7802
▁dram~~13238
▁newspaper~~5793
▁drag~~9334
▁regist~~7184
▁register~~7201
▁accidents~~10068
▁Und~~11154
hing~~5924
▁draw~~6813
▁Tell~~4167
sthma~~7871
aghetti~~13874
▁25,000~~10172
▁Mit~~10144
▁Mir~~2466
▁earliest~~4643
▁Fellow~~9154
▁profits~~1484
fund~~8163
fung~~14060
▁Mil~~2468
▁awesome~~3537
▁Hack~~12234
▁Mig~~8379
▁Dubai~~12212
▁Mid~~4381
▁finger~~3243
▁jo~~8058
▁geek~~11203
▁consider~~764
▁ja~~9301
▁nodes~~3572
▁ju~~4029
▁celebrate~~2607
Cola~~10249
real~~6977
▁illustrate~~11292
vol~~4939
ould~~8208
von~~13924
▁buried~~7751
▁enterprise~~10169
▁print~~2601
▁Tunis~~13023
vor~~6383
ower~~2280
▁Saf~~10237
▁craft~~2972
▁Len~~2832
▁Jews~~9508
▁Leg~~9747
▁Led~~13271
▁Lee~~5660
aughing~~13541
▁pizza~~9190
read~~4610
▁Romo~~13249
▁computer~~428
▁dollar~~3276
▁elder~~13012
▁chore~~9153
▁Rome~~4590
▁stretch~~3860
▁Parkinson~~3715
▁Les~~9303
3.~~10709
▁ident~~8332
▁explained~~6615
idents~~6847
▁Instit~~12162
▁fancy~~10432
▁accuracy~~10356
▁incred~~2626
▁returned~~8497
uilding~~7544
▁exercises~~10500
▁Sunday~~4638
▁AIDS~~9972
▁activities~~3687
▁Mind~~9588
▁black~~670
▁planned~~10328
▁phot~~8399
▁comparing~~8151
▁directions~~6966
maker~~7706
person~~3463
de~~2688
eles~~13168
ipment~~13464
▁sophistic~~6687
irus~~13114
▁embar~~13610
▁uns~~4567
▁unp~~5980
▁country~~1639
▁unw~~6947
▁unt~~1404
▁principles~~3718
ultural~~9497
▁mistakes~~3261
▁persu~~6498
inations~~10514
▁unb~~7534
▁unc~~6533
▁diagnost~~9655
▁unf~~194
▁und~~7675
▁une~~1783
▁unk~~13349
▁unh~~6266
▁Craig~~8409
</s>~~3
▁unl~~9939
▁suspended~~10295
iretrovir~~11347
▁automatically~~1711
▁Today~~1608
▁anonymous~~1520
▁Sam~~8244
parents~~12213
Talk~~12206
▁gave~~2839
iency~~12591
▁entrepreneurs~~1006
uition~~7189
▁Does~~3901
Oh~~1409
▁acoust~~3765
▁diplomat~~11132
▁stopping~~6634
▁foreign~~5348
▁transmit~~4078
▁ancestors~~4521
▁fits~~3963
▁diction~~11202
▁classrooms~~2070
Os~~12717
Or~~13182
▁except~~671
▁Imm~~13427
OL~~10189
OK~~6650
d~~1352
▁shining~~7407
penden~~9869
▁Machine~~7200
▁Medic~~7381
▁Media~~3589
▁capital~~5314
▁continuous~~3851
ival~~327
▁mammal~~8319
▁Imp~~8590
▁dictionary~~11200
icious~~5011
▁Know~~10044
▁leg~~5389
▁led~~3650
▁representing~~7107
▁alphabet~~9857
▁recl~~12464
▁Fire~~3843
▁lex~~10527
▁let~~1114
▁manager~~10385
▁les~~10086
onymous~~6405
ength~~6924
▁Training~~5675
▁audio~~8814
get~~9774
▁cold~~1370
▁Intelligen~~12439
▁department~~3201
▁Reserv~~13982
onscious~~11747
▁Defin~~13110
▁coll~~8634
▁pitch~~669
odox~~12478
be~~2977
▁Ed~~4117
▁Ec~~11394
Look~~8414
▁During~~2523
bl~~840
▁En~~3267
▁Em~~7524
bo~~4004
bi~~9290
bt~~12323
bu~~4876
▁Et~~10087
▁Es~~2825
▁Er~~8748
br~~4209
bs~~721
▁irrelevant~~10200
▁equally~~1793
by~~2974
▁enjoy~~1534
▁Ex~~3519
▁components~~6532
▁mixt~~12079
▁ED~~12423
▁permanent~~4575
▁laser~~731
▁Diplomat~~12701
▁Hyp~~3678
▁Asteroid~~12025
▁remark~~2697
▁EU~~2244
▁ES~~13741
▁You~~354
▁slice~~11392
▁posit~~10940
▁troops~~5996
▁load~~5622
▁loan~~9552
intu~~9642
welle~~13088
▁ideology~~12178
ints~~5812
▁suggestion~~10846
▁LHC~~11780
▁Space~~8267
atherine~~8897
Tech~~11511
▁objects~~5491
▁speeds~~9885
▁surprised~~2937
▁sang~~6330
▁months~~1537
▁OECD~~999
biot~~4725
spar~~11651
cht~~2279
:~~7
▁Baltimore~~13103
▁introduction~~4273
▁streams~~6925
▁sank~~12140
▁ber~~13400
ator~~3825
▁fields~~3689
▁fibers~~6926
▁diagnosed~~8450
▁month~~5287
atom~~10413
ling~~274
line~~2146
▁4,000~~585
▁demograph~~11275
▁Kraft~~12596
▁mindset~~6276
▁England~~2819
▁pestic~~7882
ux~~10386
uz~~11205
ut~~4460
up~~2487
us~~3771
ur~~801
um~~1396
ul~~1959
un~~1577
uh~~3038
uk~~7852
uj~~6261
ue~~1065
ud~~2993
ug~~5774
uf~~5662
ua~~4450
▁bless~~4753
uc~~1848
ub~~2324
▁Ann~~7499
▁citizen~~10894
▁Tradition~~12837
▁formal~~405
▁behind~~1822
▁miss~~4143
ilosoph~~10320
chan~~12437
▁mist~~5480
▁cartoons~~10001
char~~1580
▁Micro~~4014
▁Any~~3496
▁sounds~~1507
▁forgot~~1059
▁Ant~~12497
▁Oxy~~10312
▁format~~7255
abeled~~12167
ifer~~4486
ulation~~4308
wick~~12548
▁stranger~~10377
▁jelly~~242
▁doing~~417
▁Alph~~13469
▁150,000~~8296
tech~~4805
▁mechanism~~8393
▁proportion~~1661
▁Center~~5676
▁talents~~2050
▁hyp~~6285
ipher~~12349
▁shall~~6745
▁gain~~3291
▁dunk~~11528
▁mach~~10337
▁hyd~~3097
ago~~5965
agn~~8906
land~~1760
ustr~~10126
▁election~~8822
age~~221
adium~~12534
▁processing~~5829
aga~~13200
ported~~8911
▁imagining~~8451
▁improv~~1888
agu~~11025
ags~~7853
shine~~12222
▁Alpha~~12716
code~~12989
▁nothing~~1472
▁thoughts~~2347
ds~~3345
agers~~11303
▁maintenance~~7829
▁perceived~~11128
▁Ere~~13512
▁pointed~~5752
▁feeding~~4504
▁Ern~~12129
▁physically~~3536
▁joint~~8610
istic~~4798
▁feed~~4508
nder~~13782
▁feel~~1407
▁Toten~~14029
istin~~12507
▁cable~~5898
▁transplant~~8631
▁feet~~255
▁Tunnel~~13758
▁passenger~~8996
sens~~3304
▁diarrhea~~10283
▁technique~~7445
sent~~10925
▁garage~~11537
▁Har~~2898
▁malaria~~5368
▁nurt~~8169
▁arts~~1387
▁Lou~~11187
▁Bart~~8819
inarily~~8487
▁Ital~~6335
tra~~632
▁achie~~9666
▁wheat~~9874
▁Hirosh~~11475
tre~~12546
racy~~1497
▁legit~~12862
▁approximately~~358
▁diagn~~9664
omant~~14014
▁illness~~5966
ody~~4929
uen~~10225
ued~~1236
▁drawn~~4599
▁Transport~~12539
▁Level~~13345
▁established~~4620
▁prototypes~~7154
▁boom~~5505
▁Whit~~7449
ode~~3254
ues~~1152
▁focus~~1800
▁est~~7863
▁Sek~~11521
▁reference~~6154
▁peripher~~4664
▁ess~~8219
▁photos~~4206
▁Sea~~5129
▁awful~~5285
inder~~3081
▁See~~5493
▁Sed~~12802
abyrinth~~11452
▁Sex~~6319
▁process~~2392
oration~~1153
▁Where~~996
inden~~10537
▁prop~~2653
▁expression~~2657
▁Ser~~1606
▁jar~~10252
▁Jobs~~7341
leb~~13059
led~~2730
▁degrees~~451
leg~~1554
lei~~11633
▁shooting~~540
▁steel~~7699
ler~~2694
les~~3271
let~~2557
lev~~11368
lex~~10196
ley~~2893
▁dread~~6434
uther~~10656
▁Oprah~~12232
▁you~~72
▁uses~~1636
▁user~~2077
▁dr~~957
▁toxic~~40
▁demonstr~~2344
▁used~~1533
▁yog~~6237
▁helicopter~~7844
▁okay~~2887
▁vital~~4965
▁use~~202
▁houses~~613
apping~~376
ugen~~12123
▁because~~246
▁sensation~~2531
▁invention~~5830
istics~~5414
▁Garten~~12356
▁contag~~11422
▁sources~~8994
▁cloud~~508
▁Vinci~~7347
▁recording~~9127
commun~~6082
▁Dimit~~13175
apital~~9903
levant~~11622
zig~~13630
▁breakthrough~~6564
zie~~12922
zin~~13288
▁Govern~~4431
zil~~12965
▁National~~4385
▁marine~~5179
▁vaccine~~5275
▁sample~~3322
▁flesh~~10865
▁lonely~~9829
▁disag~~8392
▁deforestation~~9030
▁survival~~7753
▁indicate~~7400
opol~~9587
▁bunch~~5668
▁glor~~5934
▁fur~~2502
▁thumb~~3440
▁fut~~910
▁reporting~~5186
▁Acumen~~11975
▁fun~~1237
▁glob~~13350
▁3,000~~7766
▁writer~~4099
▁British~~2460
etti~~4733
▁sem~~8504
▁sel~~9739
▁suggested~~10827
▁sen~~5710
▁sea~~75
lock~~9401
▁sec~~2498
▁see~~127
▁sed~~863
ette~~7001
▁sex~~5551
bene~~14074
▁speaker~~8750
▁ser~~5637
▁set~~2072
▁sew~~11353
▁Mark~~3057
▁biological~~6649
▁pick~~951
▁Parad~~12816
▁Ult~~8477
▁contrary~~10022
▁passive~~7439
Reg~~13232
▁toys~~10484
▁Tenn~~2880
▁letter~~6380
▁independ~~8242
▁initiative~~5153
zone~~5655
oping~~7550
oz~~12794
▁mechan~~1193
▁Moz~~9910
▁vul~~13010
▁parking~~6790
▁Mos~~12335
▁Mor~~10138
▁Mot~~13041
▁Eind~~12684
▁Mov~~2453
Q~~9457
▁Moh~~12277
▁bringing~~4713
▁Mom~~9711
▁Moo~~13769
▁Mon~~3459
uous~~6934
▁mapped~~468
halten~~12535
▁Mob~~11967
▁Mod~~7213
▁teaches~~5644
▁teacher~~2004
▁coral~~5096
▁universities~~3391
onom~~8426
▁series~~674
▁skept~~8511
▁hy~~6579
▁quant~~6090
▁Miller~~8093
▁he~~374
writ~~6831
▁ha~~3049
allow~~13220
▁Ark~~11582
▁ho~~6362
▁aston~~9396
▁Philipp~~4375
▁ants~~1272
▁popular~~3939
fa~~11734
Jeopardy~~13121
▁needs~~4114
▁services~~5369
▁origami~~11706
▁soldiers~~5656
▁fascinating~~2967
▁grocer~~12622
▁rib~~769
▁shoes~~2940
▁rid~~48
▁losing~~4547
▁rig~~4989
▁channel~~10606
▁pair~~3107
▁meaningful~~2130
▁Mars~~7757
▁Soc~~7302
▁rote~~1148
▁unlike~~2720
zip~~12833
▁gender~~7011
arther~~5299
▁specific~~3937
fected~~5344
▁scen~~10334
▁Phase~~13754
ollar~~9007
▁engineered~~8321
▁Initiative~~9431
▁mold~~4873
▁repeat~~5932
▁mole~~13439
▁blame~~6989
▁1800~~11121
▁familiar~~185
▁Kauf~~13316
▁peoples~~3700
▁heading~~4366
▁researchers~~1821
▁Everyone~~3151
▁kiss~~1333
▁ult~~8476
▁estimate~~9108
ampagne~~13006
▁reported~~9521
▁enjoyed~~1535
wander~~11278
▁community~~786
▁state~~1072
'~~34
▁Gumm~~14132
anted~~8406
▁Jur~~7228
▁Found~~9533
▁Jul~~12136
cess~~6518
▁never~~499
▁Jud~~9523
▁racing~~6426
▁elections~~9436
▁Palest~~4187
▁against~~448
▁appears~~7742
▁Mord~~13511
▁More~~3412
▁shapes~~333
▁fisher~~7100
▁gate~~7185
▁Great~~2824
▁Abend~~13679
▁Mort~~13329
uppe~~12798
▁Hal~~11575
▁Nich~~12963
▁dust~~5842
▁30,~~10137
▁Cat~~6245
▁30-~~5647
▁Cap~~2649
▁Car~~442
ameter~~3859
▁biologists~~681
▁hel~~9695
▁pyram~~11185
▁dynam~~10294
▁Cam~~11180
▁Cal~~7207
▁problems~~680
▁brown~~4953
▁dem~~7007
▁Zum~~12477
▁spons~~6165
▁identified~~1992
▁spont~~4926
▁Chef~~11147
▁propos~~813
▁Chem~~11522
▁analys~~8701
▁Cher~~12188
ties~~9824
Prof~~11623
leich~~1625
ying~~2742
▁refugee~~9029
▁Zur~~6829
▁abilities~~10648
▁mysterious~~8811
▁Ara~~12072
▁conv~~10015
▁cont~~1738
etik~~14231
▁initi~~8971
▁cons~~1969
onent~~8824
▁ubiqu~~12852
▁retreat~~5971
▁opening~~5639
▁conf~~3945
▁cond~~5796
▁conc~~1978
low~~6384
▁Bed~~6257
isse~~10697
▁Ko~~9031
▁Kn~~10361
▁Kh~~6739
▁Ke~~916
▁Bem~~13240
▁sisters~~2793
gence~~8859
▁Beh~~3183
▁desp~~4998
▁Bek~~14025
▁Bet~~8851
▁Bew~~12032
▁Ky~~9954
▁desk~~12080
▁Ber~~9050
gency~~9013
▁Ku~~12214
▁demand~~2695
▁innovation~~976
oose~~4396
▁Kr~~4880
▁advance~~5942
▁artic~~2760
▁KA~~13307
▁artif~~10714
▁KB~~13308
▁chains~~8666
▁cultures~~2481
▁Harlem~~5484
▁KT~~14121
ightly~~9813
▁KS~~11512
▁grand~~3556
▁inevitable~~4234
▁Turkey~~9041
▁look~~131
▁utterly~~9738
▁documents~~4329
▁jur~~5156
▁both~~2167
icht~~14017
▁industrial~~4633
▁plants~~7616
▁bott~~10445
▁Main~~8919
▁jud~~3020
▁jug~~8558
▁loop~~4036
▁inevitably~~4724
atic~~4412
▁spray~~3070
▁Someone~~8870
▁shape~~2457
▁bears~~1296
vested~~10852
atin~~9828
onse~~12560
▁Brief~~13045
▁Mathemat~~12298
ativ~~13163
▁unemploy~~1707
onnected~~10118
▁Shakespeare~~2906
▁crap~~1155
▁effectively~~4582
viously~~11498
cke~~12498
▁variety~~2208
▁Even~~704
▁treatment~~3729
▁juven~~1324
▁hours~~1877
▁hill~~6751
cko~~13136
face~~8649
ckt~~12992
cks~~536
▁awareness~~3398
▁2001,~~9042
▁Ever~~8222
▁Computer~~7281
▁stap~~6437
▁Ali~~13086
▁star~~4173
▁All~~594
▁stay~~5222
▁Alb~~4391
▁fail~~5687
▁Hudson~~6905
▁Alf~~9562
bring~~10676
▁predictable~~3196
▁publishing~~6223
▁Charles~~4240
▁Alt~~13205
▁calculate~~7603
ache~~9349
▁saved~~7382
▁church~~7385
▁inkl~~13348
irk~~10050
▁week~~836
▁energet~~10192
▁bedroom~~6326
▁bureau~~9593
▁beetle~~11986
▁rit~~13864
▁painted~~4735
▁wanting~~9514
▁vessels~~5249
▁communities~~4131
▁chain~~4463
▁iPhone~~6816
▁dedicated~~4197
reit~~14071
▁alt~~8552
▁Snowden~~10987
▁clues~~4634
▁puzzles~~10482
▁lifted~~5686
▁solid~~7760
▁Blick~~12970
▁bored~~5837
rein~~14205
ael~~7410
ota~~9362
Pr~~12949
ition~~1361
▁inspiring~~8160
▁magnitude~~7562
▁sustain~~2104
oma~~10092
▁Guatem~~14166
▁seeds~~6105
▁everyday~~4993
▁cylinder~~9490
isy~~12644
Ph~~10319
▁anti~~3154
Pl~~4007
▁walks~~1630
ome~~5198
▁twist~~5645
▁foie~~13582
▁safe~~6760
PA~~7741
▁likely~~6490
▁amb~~4238
usten~~14051
▁Test~~9538
omi~~13137
eum~~13388
ends~~4833
▁frequency~~4049
▁truck~~10264
▁text~~3004
▁mush~~13394
▁Fibonacci~~13002
ende~~12987
awatt~~12346
▁access~~2544
▁Alice~~12001
▁000~~13383
ociation~~13904
▁casual~~10505
▁se~~2017
ets~~519
▁sa~~5811
▁sc~~1096
apted~~9568
▁sm~~2165
▁title~~3019
▁so~~223
▁sn~~3777
▁Operation~~9003
▁sh~~138
▁sk~~2001
▁limited~~6184
▁su~~3936
▁st~~3712
▁sw~~4423
▁amount~~1828
▁sp~~3786
tle~~11117
lo~~3750
▁personally~~3801
eth~~4346
▁sy~~1584
▁shirt~~7004
ck~~4304
ci~~1477
uct~~2920
co~~3089
Would~~7512
cl~~3327
cc~~8183
▁anim~~10111
ca~~11171
▁birds~~4066
Hey~~1548
ce~~875
▁documented~~7273
cy~~5121
▁therapy~~4991
▁acqu~~2941
cr~~9209
▁behaviors~~2938
li~~12807
uck~~5715
▁hair~~727
ct~~633
▁Jenn~~6828
powered~~7084
rient~~12871
▁equ~~1772
▁texture~~10776
▁Mandel~~12768
▁respect~~4212
Gen~~10234
antas~~13403
▁mushrooms~~10123
▁Mission~~7058
▁Photos~~12117
▁tasks~~1284
▁cartoon~~8491
▁Sign~~9475
▁2012~~10243
▁added~~6576
ador~~9925
▁2010~~9055
adow~~11024
eums~~7441
▁atmosphere~~2240
ount~~5039
▁animation~~10623
▁Luther~~9645
ucks~~5615
▁vulner~~13226
▁Kate~~12236
Gro~~12368
▁relatively~~6483
ound~~6854
▁Canadian~~7870
▁Amazonas~~13588
▁candid~~9832
▁predict~~3192
▁Asian~~8349
va~~6503
▁regardless~~6876
ve~~78
▁fallen~~1684
▁Andrew~~6867
▁Atlanta~~11144
▁Tiger~~11547
vo~~6952
▁Ivan~~13230
▁beam~~6946
▁complain~~1973
▁crying~~4155
vy~~5036
▁improving~~1489
▁mutation~~8294
▁genomes~~8339
▁Israeli~~4122
▁kilometers~~5229
▁parenting~~6367
▁latest~~1741
▁clear~~1043
▁Schul~~9358
▁infect~~8952
▁post~~4127
▁discovery~~222
▁wis~~9558
▁Time~~6273
▁hearing~~3892
▁assistance~~8794
▁Copenhagen~~9964
ball~~9627
▁paras~~9570
yon~~11552
ikes~~7249
iker~~12576
bald~~12690
▁Seven~~8609
▁holes~~1184
ieber~~12040
▁parad~~1814
▁wishes~~5945
▁introduce~~1768
iken~~10661
▁param~~11456
▁absolut~~14223
▁delicious~~8723
▁moves~~2383
▁Dra~~12522
off~~2962
▁Marine~~4247
▁wars~~9286
phas~~7846
phan~~12905
▁Clinton~~9606
phal~~12172
▁whatsoever~~3339
▁warm~~7815
▁control~~2082
▁expectancy~~6596
▁doesn~~663
▁justice~~5445
▁organization~~2083
less~~1176
▁instant~~1574
das~~9262
▁Jersey~~8252
llig~~14113
▁footage~~414
olph~~1306
▁kicked~~11397
▁Honey~~12238
▁presentation~~6901
▁town~~4415
▁retirement~~12109
▁robotic~~1177
▁authent~~14109
ige~~11458
wel~~6242
wes~~11322
wer~~4751
▁experts~~5941
▁meth~~12603
▁Oxford~~5859
nten~~13650
▁22~~6036
arta~~11340
▁distributed~~1785
▁abundance~~11047
dest~~11614
▁neighborhoods~~10720
haus~~8421
five~~4287
▁converted~~10965
▁Eames~~12371
▁Florida~~8390
▁nu~~3837
▁Try~~3517
onnect~~4717
▁Tra~~4448
▁na~~12251
▁humor~~6837
▁Tre~~7592
▁ne~~1320
▁Tri~~7780
▁29~~6716
▁Tro~~10938
osed~~2895
▁criteria~~11570
▁Leban~~13180
▁Dir~~13014
▁watch~~662
▁dropped~~5833
▁From~~2483
▁paraly~~11724
▁Also~~4355
▁Edinburgh~~8335
▁Sound~~10851
▁statistic~~7869
▁Lar~~9636
▁Las~~8876
▁adul~~10918
▁Budget~~12016
icient~~7242
▁Paulo~~12379
aign~~12565
▁Bangladesh~~6728
▁Inspiration~~13880
▁Lab~~3590
ollow~~12104
utions~~7416
▁Lad~~12575
▁imag~~4326
▁company~~4784
▁screaming~~7155
▁Prob~~10875
▁connected~~3485
▁Lam~~12762
▁lawn~~11326
▁dra~~5398
▁wheelchair~~11271
▁Trade~~6138
▁dre~~11716
▁dri~~10371
▁dro~~3992
▁score~~3872
▁Symmet~~13003
▁dru~~4277
▁ugly~~8974
▁NGO~~10262
▁dry~~3058
ometers~~3113
▁pack~~4484
▁points~~2400
Sch~~2693
▁83~~8526
imedia~~11099
▁Pav~~10958
▁entw~~12688
▁hump~~13015
▁preserve~~9116
▁bath~~9191
▁uncomfort~~11825
kra~~12487
▁child~~2003
▁proven~~7917
▁Chicago~~6136
▁proved~~5077
three~~10658
lung~~13915
▁Pap~~12928
▁TEDGlobal~~8909
▁poly~~4345
▁radical~~6663
▁colors~~6927
▁stark~~5442
▁Pal~~4897
▁poll~~4459
▁start~~666
▁stars~~7491
▁veget~~8686
▁pole~~8833
▁stuff~~263
▁Termin~~12747
▁Fur~~8698
▁operations~~5617
lant~~10424
function~~5566
▁Ernst~~12732
Well~~1165
▁mountains~~460
▁brave~~5667
▁rob~~2789
▁pollution~~5074
¡~~14176
▁organs~~8688
£~~13719
▁nature~~1337
▁finish~~1527
▁row~~7275
▁rot~~6114
▁university~~3228
▁Blue~~7059
▁mines~~10017
▁lar~~11932
▁as~~228
▁favorite~~952
▁microphone~~4020
▁law~~5019
▁lat~~4369
▁fundamentally~~6181
int~~6439
▁12,000~~7788
▁lay~~5150
▁Cricket~~13598
ins~~1307
▁lab~~3242
inn~~7367
ino~~884
▁contempl~~10321
▁shell~~639
ink~~4983
ind~~1596
ine~~203
ing~~140
ina~~5017
▁Five~~9612
inc~~4106
▁corrupt~~11015
▁innovative~~1192
▁Dalai~~9241
▁grad~~12675
▁emotionally~~9365
▁panels~~4839
▁locally~~3828
▁technical~~2543
▁experimental~~3229
▁wom~~8475
▁In~~392
▁Im~~6706
eking~~5878
▁gear~~12365
▁Ig~~12319
▁If~~292
▁Id~~10651
U~~985
▁genetically~~8320
▁Is~~856
▁Ir~~9555
▁migr~~4867
▁pulse~~10314
ibliot~~13565
▁It~~173
▁strand~~8915
agine~~12014
▁II~~4266
▁strang~~3738
▁lim~~5524
▁filter~~9702
▁ab~~7060
▁here~~76
▁wealthy~~10402
▁growing~~835
▁investment~~1912
▁part~~1246
▁Traum~~12866
▁park~~1098
bridge~~13291
▁reco~~10636
▁IQ~~3606
▁IP~~2181
▁reaches~~6081
tten~~13478
▁hers~~10047
▁IT~~6895
▁outcome~~2574
▁Gang~~7585
▁Black~~6347
▁Probably~~5720
cial~~8667
all~~5501
▁Us~~7677
▁circ~~9133
▁establish~~6130
▁graph~~7248
▁Office~~12017
▁fusion~~11617
▁qualities~~1199
▁doctors~~5967
▁net~~424
▁Collider~~12525
▁fishing~~265
▁lic~~13783
▁ah~~10510
ields~~11798
▁traged~~11677
erst~~11861
sper~~12944
▁Jun~~11947
▁halluc~~9980
▁tendency~~9478
▁driving~~1867
▁rare~~5910
▁carpet~~11979
ald~~8396
▁vaccines~~5310
▁2007,~~5764
duate~~7465
▁refr~~5608
ously~~4589
▁crop~~4527
▁Kingdom~~5452
▁determ~~7678
▁demographic~~11359
▁Africans~~6032
▁carried~~6746
▁sheets~~3275
▁conclusion~~6505
▁hint~~530
▁relationships~~5753
▁Gore~~10723
gebra~~11092
▁hurt~~2841
▁particip~~2914
Cl~~7459
▁behavioral~~3414
▁FOX~~12663
▁Dumm~~13837
▁devastating~~5301
vented~~9253
▁rings~~4409
▁obvious~~5691
▁marriage~~5763
▁Platt~~13192
▁formed~~6725
▁explain~~832
ches~~636
ashing~~1074
▁Hill~~4742
phones~~4015
aly~~11237
▁Eden~~12722
horn~~10977
▁bede~~10105
▁wow~~7095
yond~~10332
▁Something~~4191
▁Brand~~10711
▁peer~~7166
▁former~~7356
chen~~12868
▁Net~~12038
spect~~7271
▁workforce~~9171
▁those~~257
▁Dram~~9750
▁engine~~1020
▁impression~~7068
▁Von~~12287
+~~3584
▁magn~~9610
▁Mitch~~12952
▁Fortun~~8452
▁wor~~8527
▁President~~9002
▁south~~4607
politik~~12705
▁Voy~~7563
▁chaot~~11820
▁Corn~~10708
▁chaos~~7800
▁chocol~~12884
▁Wolf~~9729
▁sustainability~~7612
▁Jennifer~~11109
▁CO~~8995
▁fertil~~6038
liament~~6179
▁administration~~2122
▁ended~~4038
▁Europe~~975
▁shaped~~4091
aks~~5294
gle~~4199
▁Desp~~13366
akt~~10108
gly~~3141
aki~~4853
aka~~13167
▁sexy~~6391
▁creative~~1191
ake~~4165
▁chemicals~~7857
▁rever~~3917
▁wondering~~6870
mail~~10400
ican~~6199
▁sometime~~5922
vasive~~6822
▁commer~~9879
▁defined~~6544
Where~~5727
▁Doch~~13923
iz~~2862
▁mycel~~12115
bre~~3073
▁satellite~~2219
▁reven~~10532
bra~~8327
▁Eve~~2897
Star~~8083
▁Look~~1657
▁causes~~5312
▁Face~~7781
ativen~~11896
ploy~~9628
▁Kamer~~14232
▁babies~~7881
▁demands~~9449
▁fear~~1567
lymp~~13423
▁Tsch~~14015
▁Russian~~7711
▁rooms~~3919
▁wheelch~~13436
▁players~~1310
▁homework~~6355
▁Pra~~12545
▁restrict~~1219
▁Mel~~10247
▁intelligen~~13835
it~~1287
▁Paras~~14203
▁explains~~1836
▁Palestinian~~10899
yard~~12879
osphorus~~12489
ert~~2954
▁edit~~11155
erv~~7614
▁satellites~~7540
▁Voice~~12598
err~~11576
ers~~1694
work~~4843
ery~~4341
erd~~11329
ere~~3221
▁ships~~5099
erg~~8640
era~~10292
▁qu~~6846
erc~~7573
im~~551
ern~~643
▁spinning~~9837
erk~~5432
▁particles~~9810
illiard~~11995
▁concerned~~1948
ither~~10420
▁coordination~~7806
▁wound~~7506
▁Philadelphia~~10575
▁When~~110
▁Academy~~10863
▁another~~365
ual~~2569
▁plat~~5721
▁progress~~5113
▁Fra~~12504
▁Lincoln~~10784
▁Star~~3493
▁imagination~~6574
▁Fre~~8777
▁Six~~554
▁flexible~~8156
▁Sit~~4699
▁percent~~114
ische~~13933
▁Fro~~7883
▁Sir~~2709
▁Sim~~8820
▁Sil~~10750
▁Sin~~4018
▁question~~1154
▁instrument~~3627
▁Sie~~10790
▁vacuum~~12295
▁breeding~~7683
▁Stan~~12286
lam~~12176
lan~~4441
▁inspire~~2913
lad~~12288
▁recommend~~10461
▁sensible~~6290
▁Chris~~3168
▁skelet~~10346
adic~~9650
▁ends~~6935
▁anyway~~3912
▁Iron~~12205
law~~2991
arch~~6178
▁compound~~4835
lar~~10698
▁courses~~7163
orden~~12923
▁Can~~3039
▁guy~~402
▁Similarly~~6156
▁gut~~4107
▁tremend~~9565
stru~~8547
▁frighten~~9991
▁gee~~11650
ical~~1646
▁dive~~673
▁Portug~~13208
mechan~~13389
stra~~11279
▁Except~~9376
▁Dialog~~8891
▁Perhaps~~5927
plicity~~12839
▁tired~~967
richt~~10806
zed~~8154
zen~~2871
▁plays~~9462
▁professors~~8168
zer~~4687
zes~~6722
▁privilege~~5254
▁among~~1838
ompl~~13641
▁dir~~13013
venth~~12192
▁expand~~7338
▁survived~~7750
▁Appl~~9912
▁elected~~8738
▁Joseph~~6465
▁kilometer~~6719
▁kid~~1159
▁dance~~1332
▁nearest~~6099
▁kil~~12306
▁kin~~12431
▁personalized~~7263
▁kit~~1289
▁guys~~303
▁Chen~~9045
▁render~~7692
▁altitude~~6710
ther~~504
bank~~11063
▁Meer~~11017
▁Git~~13490
▁Kent~~10922
l~~816
▁Scott~~4000
▁hostile~~9085
isms~~8856
▁Kenn~~10917
▁skull~~6796
▁marketing~~6092
▁elite~~6374
▁enth~~9498
▁contin~~9129
▁six~~1536
▁McK~~11100
▁sit~~427
▁McG~~3437
▁telev~~11459
▁McC~~5590
▁sir~~11518
▁sim~~7432
▁sil~~8957
ttern~~13408
▁sin~~4110
▁identity~~2482
▁inde~~6528
▁where~~52
▁sie~~11860
▁install~~1212
▁throw~~1198
▁minute~~2266
▁developing~~3835
▁tour~~4860
▁femin~~7902
▁Julian~~8759
▁drop~~3095
▁magic~~6066
rence~~12158
▁pige~~12671
fficient~~6065
▁beliefs~~1922
▁millions~~824
▁opportun~~13231
-3~~13026
ublic~~11328
standard~~13150
▁intent~~3250
▁intens~~7101
▁Reich~~12484
▁Herz~~13293
ange~~2180
▁males~~7893
▁Exper~~12490
▁endless~~4253
▁reclaim~~11606
▁cheating~~3262
▁chimps~~9109
▁lo~~4885
▁la~~2965
▁colorful~~8132
▁le~~5851
▁qualif~~5215
▁love~~261
▁genome~~6666
▁relatives~~9279
▁remained~~9531
▁France~~4217
▁reserve~~5613
▁water~~117
system~~13369
▁Innov~~13586
▁Bertie~~13638
rats~~8730
oline~~12537
▁Kur~~4852
▁priorities~~1998
aire~~2632
▁conflicts~~12332
▁galaxy~~11630
▁Kosov~~12699
ingen~~8720
airo~~12784
inger~~4743
▁vulnerability~~10908
airs~~5552
▁rope~~8059
▁gathered~~4587
B~~2475
▁restaurant~~4512
▁rating~~9794
▁elaborate~~5012
▁clay~~8849
▁Transpar~~13155
▁verge~~4177
▁families~~5400
▁cortex~~1358
▁learn~~902
tex~~10098
last~~10741
▁virtual~~488
▁consumed~~4535
▁embarrassing~~9368
▁Archimedes~~13102
▁governance~~5050
▁mature~~11895
▁consumer~~2503
▁categ~~10130
▁900~~2236
▁convince~~5705
▁10,000~~4142
▁earlier~~4640
▁Kl~~13450
▁solution~~3842
▁Beg~~11728
▁TEDWomen~~5475
▁reinvent~~944
▁Afghanistan~~1692
▁ide~~7669
▁comprehen~~8015
▁import~~4592
▁energ~~10779
▁study~~1162
▁irre~~7821
▁Bel~~9763
▁logical~~4828
▁reasoning~~11094
gien~~5787
▁interviewed~~6078
▁Ben~~2892
▁entering~~8298
▁gaps~~9798
▁Court~~8792
Qu~~12913
▁burst~~5527
▁Mons~~12870
▁Roman~~9156
▁Ka~~12019
▁Herr~~13756
▁Mond~~12864
▁divid~~1936
▁Mong~~8131
▁emergency~~10268
▁burning~~4935
ological~~6539
▁unlikely~~4543
▁Moder~~12462
▁United~~1469
▁miser~~12777
▁landing~~6772
▁Ign~~12650
▁seriously~~4159
ative~~2080
gung~~9733
▁Model~~12823
▁editor~~9802
sum~~4707
▁Atom~~10306
▁Zip~~13123
▁broad~~5258
▁wonderful~~2781
▁Bes~~9731
▁younger~~5545
▁pregnant~~7809
▁rescue~~7798
▁Jeff~~10608
seen~~13688
itten~~9249
hry~~5591
▁ate~~4684
▁electronics~~9479
yen~~11943
▁desc~~9280
▁milk~~5789
▁att~~6975
▁books~~3315
hre~~13378
▁diverse~~3595
pted~~3320
▁viscer~~12316
itter~~4374
▁Cloud~~13462
do~~6433
▁minutes~~2148
▁Or~~1399
▁Bil~~11304
▁Bin~~12448
di~~4739
▁bullet~~9330
▁Ox~~13089
▁weapons~~5718
▁Oz~~2864
▁Mechan~~12435
▁Big~~6898
▁Ob~~11325
▁Od~~12177
▁condoms~~6441
▁Of~~1068
▁Oh~~637
▁Bir~~9935
du~~6381
dr~~1182
▁army~~3767
▁installation~~10303
▁On~~557
eme~~6163
▁84~~4469
lement~~12015
ema~~2508
▁help~~210
▁versus~~7313
▁expansion~~1674
▁held~~2755
stead~~13977
anze~~12593
ording~~12189
▁OK~~3188
▁hell~~796
▁several~~742
▁biod~~12678
▁Hero~~3652
▁pouring~~8938
▁Viet~~13729
▁Here~~241
▁horizont~~10499
▁1,500~~3484
▁lying~~8603
icle~~3117
▁Maus~~13856
▁slime~~8967
▁heaven~~1573
uously~~6917
▁Portugal~~1968
▁exec~~11702
▁piano~~3760
▁true~~219
▁happily~~8334
atur~~1365
atus~~11841
away~~4281
▁intuit~~4096
▁redu~~10285
▁Tahrir~~12779
ered~~7687
▁Newton~~8854
eren~~7631
▁freely~~8807
icer~~6808
▁fles~~12609
we~~6337
aneously~~9942
alin~~11731
▁nonviol~~10220
wo~~3172
wn~~2810
wl~~4443
▁optimism~~6660
▁2005,~~3023
wh~~2715
▁robots~~3768
wr~~4744
▁infinite~~2936
▁Power~~10109
▁length~~6913
ild~~2901
ile~~434
▁Would~~2002
▁drones~~12983
▁gained~~6325
ila~~5564
ill~~609
ilm~~7106
▁frozen~~4920
ili~~8646
▁Yale~~11554
ilt~~2624
▁Gott~~13553
ils~~8257
▁freezing~~658
com~~6412
col~~6890
▁Evan~~4750
ily~~4299
▁errors~~11710
erman~~11411
▁Thank~~914
▁raising~~9223
Par~~13312
▁serve~~2857
▁Pyram~~14180
▁Hind~~10404
▁middle~~2281
▁Off~~7227
▁3000~~14134
▁brach~~13340
▁spaghetti~~11956
▁main~~3610
▁corporate~~1448
▁scientific~~411
▁manip~~3733
▁Wo~~12727
mmer~~4945
▁pun~~6320
▁Formen~~13954
▁fan~~1609
schluss~~14105
▁physicians~~8473
kon~~13374
viewer~~11770
▁champ~~2958
▁scient~~11837
▁guid~~5510
▁perpet~~8033
▁arrived~~6140
▁ob~~10667
baum~~13894
cription~~2071
▁investments~~5408
▁French~~8598
▁spectacular~~9790
istent~~4458
▁educate~~9299
▁wisdom~~2076
▁crazy~~3578
ureau~~11513
ident~~3810
▁options~~3293
ait~~3167
▁sol~~7630
▁oldest~~9069
air~~6542
aim~~11365
ail~~4449
▁information~~2420
▁fab~~12355
▁decision~~1366
aid~~3380
reme~~8791
izabeth~~13760
cons~~10387
▁Betti~~11440
atible~~9175
cond~~2396
▁frontier~~10164
▁expressions~~7278
istan~~10175
▁sympt~~4882
▁Swiss~~11250
▁tong~~13244
▁tone~~3044
▁shocked~~5790
▁morning~~1500
▁associated~~7904
▁air~~2164
▁matter~~92
▁simulation~~10304
▁China~~5877
▁Nevada~~11021
plic~~8343
ulated~~4342
▁Jane~~2874
▁soap~~8055
▁tons~~6113
▁ain~~5561
▁aim~~7433
ouch~~11620
▁need~~750
▁functions~~7830
▁aid~~5349
nik~~7720
▁Bleau~~14188
▁tea~~10880
hang~~11973
rain~~10300
hand~~5954
▁arro~~12595
▁Wide~~9177
▁what~~151
▁stick~~830
Y~~3617
▁prepared~~1732
felder~~12979
▁wh~~1989
kept~~12331
▁privacy~~9059
▁wo~~9355
▁wa~~6923
rors~~11899
▁new~~226
▁we~~68
eps~~10805
oning~~6545
▁Rebe~~13334
▁deception~~10823
▁urge~~5219
▁1980~~1673
the~~5220
▁wr~~11625
▁1984~~6118
▁Innovation~~7112
▁mouth~~607
▁heterosex~~11344
▁discussing~~10991
▁Chinas~~13573
▁Ski~~11872
▁habitat~~780
▁photographs~~496
▁pie~~6162
▁alternative~~2409
▁betra~~10986
▁photography~~10892
▁cooling~~11829
▁Sky~~10995
▁spat~~9126
anter~~12260
ktor~~12691
▁Liberia~~9276
▁Miss~~10549
▁spaz~~14087
▁recover~~4289
▁plot~~7315
▁stupid~~1242
▁bacter~~11235
▁IKEA~~10586
▁Dop~~12588
▁span~~3453
▁od~~11525
▁national~~1314
▁leaving~~4475
▁Feder~~13476
▁Syl~~13569
▁neg~~9748
▁Friedman~~7194
▁fewer~~6346
izing~~1918
▁urban~~4536
▁inner~~5543
▁processes~~1217
cape~~2826
▁shifts~~5202
▁Martin~~4749
▁sentences~~9716
▁quality~~1831
mir~~10490
▁Schwe~~10809
▁atomic~~10305
▁Eth~~10182
▁ol~~7712
▁gle~~10518
night~~2666
▁Mach~~3581
▁arguing~~9217
▁dolphin~~12067
▁negotiate~~6100
▁Einstein~~7340
bors~~11818
born~~7914
omics~~11952
▁straight~~4367
hren~~11968
▁Kok~~14078
▁disability~~3839
/~~4226
▁replic~~8540
asking~~11698
Let~~5893
▁trying~~481
▁secrets~~9856
▁happiness~~6013
stitution~~8863
esearch~~13974
▁Feed~~13833
▁for~~108
▁aband~~5383
chs~~12876
▁Millennium~~9416
phen~~7909
ply~~9941
▁literally~~2381
pher~~9540
▁Amanda~~5873
▁someday~~8308
▁future~~1032
▁Sadd~~7290
phet~~9293
▁microbial~~10866
▁fol~~4067
illions~~9922
▁exponential~~9573
▁mosqu~~10926
obi~~9145
obe~~10219
▁strings~~3761
▁describe~~2929
▁jump~~3708
▁understanding~~2183
▁microscope~~8946
▁feeds~~8211
obs~~4690
oten~~1321
▁quite~~3611
▁drif~~10333
▁described~~3356
ola~~10451
▁colleague~~2373
icians~~3048
▁carrying~~5716
▁bran~~14012
▁describes~~8289
▁Strang~~12924
▁Glob~~9414
▁perceive~~4841
oter~~7905
otes~~1616
wan~~11306
▁Mau~~7987
▁toss~~4406
▁Mas~~3633
▁Mar~~212
▁Map~~10178
▁highl~~10660
▁May~~8225
▁Max~~3053
▁Mag~~7419
▁Mad~~7405
▁Mac~~8569
way~~2428
▁Man~~7125
▁Mal~~2275
was~~4906
war~~8051
▁Mai~~14226
▁Mah~~5866
▁Minute~~10446
▁Re~~2169
▁phantom~~13341
▁Ra~~11758
▁Ro~~4337
▁links~~10074
iking~~1539
▁Rh~~8441
▁intell~~10793
▁Ru~~12151
▁Data~~12543
isons~~1655
▁effective~~4985
▁Position~~13606
▁RG~~7220
▁transparent~~5744
isis~~10690
ilder~~9285
▁leverage~~5118
▁iPod~~1882
▁RL~~12775
osing~~10572
anes~~7924
▁overnight~~9728
▁Intens~~12492
izers~~6106
▁porn~~10617
ilden~~13356
▁again~~728
▁aspect~~3853
▁schools~~946
▁orient~~9143
▁after~~569
▁simple~~619
▁jumped~~6961
▁dig~~8068
▁Down~~6385
ffiti~~11901
▁2,000~~5755
▁shock~~57
▁lots~~4170
▁influenced~~3194
▁simply~~1721
▁stronger~~2085
▁Maybe~~1274
▁seven~~1765
▁sever~~7818
test~~11823
▁headed~~5209
▁applications~~3150
▁habit~~7158
▁chosen~~3783
▁telescopes~~11804
▁Taiwan~~9040
▁Insel~~13744
▁assist~~8167
▁Billy~~11791
▁forgotten~~11061
▁attracted~~9690
▁tight~~5634
attered~~8467
ropolitan~~4691
▁Diagn~~12718
Sk~~12932
itude~~4370
ums~~4727
▁bugs~~3187
▁nutri~~8398
▁ski~~1436
▁observation~~6220
▁doubled~~3374
▁Apollo~~6883
▁typ~~4202
▁Germany~~1890
▁export~~11165
▁nick~~12636
▁sky~~2136
▁hop~~9585
▁chips~~8395
▁fluorescent~~8180
▁uner~~13453
▁Nadel~~14178
▁Aug~~10560
▁Aud~~11029
▁unex~~175
▁award~~6019
▁aware~~543
▁apolog~~5530
▁stat~~9226
▁worker~~8917
▁Aut~~1201
▁Aus~~2875
▁Aur~~9852
Inter~~14149
▁handful~~7180
▁followed~~2550
▁dialog~~8887
▁Falls~~8880
▁Algorith~~14185
rhythm~~14207
obody~~12633
▁isolated~~10632
aland~~13448
▁invited~~7063
ivil~~14028
▁Pick~~3573
▁Dynam~~12430
ivid~~11366
▁opinion~~2726
▁Ale~~13814
umm~~3904
▁agriculture~~4572
▁Korean~~1696
▁Epidem~~13967
▁Mole~~8506
▁provides~~1422
fon~~12470
▁golf~~8528
hington~~13911
▁error~~7317
▁multiply~~8164
umn~~7668
▁Agency~~8363
gue~~10115
Global~~13848
▁stab~~12619
p~~1122
gut~~13898
ault~~8246
▁inevit~~6530
▁multiple~~5332
▁catch~~423
revolution~~13227
▁beings~~2492
▁Gord~~14200
▁25,~~12196
▁code~~2505
▁particularly~~1843
cost~~5854
▁250~~7202
▁answering~~4153
▁somewhat~~6126
▁Love~~2710
▁forb~~1101
▁fore~~5033
▁forg~~10839
▁arm~~2356
▁form~~809
▁arg~~2509
▁are~~112
▁fort~~11036
▁Schm~~12037
▁arr~~4221
▁art~~2513
▁Bor~~9783
▁Haw~~10360
▁Hat~~6246
aling~~2689
▁Bow~~9599
▁My~~2804
gener~~2078
▁Boy~~2470
▁Manager~~13397
▁Mr~~7629
▁Hay~~7545
▁Mo~~3126
ivate~~182
▁sunlight~~8125
riere~~14098
▁Mi~~9062
▁Han~~9761
▁Me~~4621
▁Ham~~8259
▁Mc~~8172
eder~~9584
▁Ma~~3618
▁Venter~~8410
▁approaching~~11162
buch~~9506
▁tube~~602
▁accessible~~7171
▁degrad~~8638
▁che~~1204
▁MS~~11760
▁MR~~12930
▁MP~~4053
▁MO~~11569
▁hinge~~13802
▁wanted~~1724
▁reef~~12495
▁Institution~~13530
▁business~~1019
▁MA~~12708
▁hard~~1252
ctions~~2329
▁complete~~5302
▁packed~~511
rovir~~13007
▁Mountain~~2786
uzz~~12352
cies~~6679
▁born~~1789
market~~11765
▁copyright~~8731
▁horrible~~8949
▁danger~~7837
▁dimension~~1769
▁messages~~3533
▁symptoms~~10946
▁integration~~2525
▁bulbs~~11938
F~~2963
▁approved~~8474
▁bite~~6227
yrus~~7840
▁brilliant~~9232
▁Brenn~~12159
▁Nothing~~8884
acles~~271
▁bits~~493
▁outside~~3129
▁courage~~4233
ibl~~9411
▁expect~~2024
car~~5038
▁broadcast~~9769
cap~~6034
ibe~~12175
abyte~~13251
▁diameter~~9019
▁embedded~~8008
can~~9161
cam~~11673
cal~~9736
▁Eigentum~~13936
▁Company~~8243
▁instruction~~7325
trans~~7498
▁peak~~5333
spr~~13640
▁grandfather~~2814
▁usage~~7247
▁novel~~1726
▁optimistic~~1031
spe~~10893
zeera~~13925
chie~~8100
▁brow~~7283
▁hat~~4435
▁har~~706
▁has~~208
▁make~~183
▁views~~4098
▁romant~~13199
▁cities~~4498
▁had~~529
▁Middle~~4178
▁hab~~9566
▁Prot~~11297
▁Princ~~12160
▁hal~~10959
▁ham~~2556
▁Sebast~~13525
▁establ~~7665
astroph~~13365
areness~~11900
uing~~1071
▁chair~~3709
wling~~788
▁Cons~~911
▁terrific~~11846
▁able~~763
aos~~8704
adem~~13032
?'~~11412
▁Cong~~9624
alyst~~1249
?"~~1167
▁sett~~8297
▁Deb~~12199
▁sets~~5597
▁Den~~6342
▁touching~~3149
▁Del~~11247
▁Dem~~8779
ftware~~14043
bean~~444
▁Dev~~9755
▁addressing~~5598
▁Det~~11876
▁inspired~~4130
▁Des~~8621
▁Dep~~11460
▁puzzle~~9273
pertoire~~9320
▁affect~~7858
▁wilde~~13742
▁rocket~~5252
▁Stere~~13577
▁plates~~3353
▁Walker~~7745
▁convention~~8737
▁prosthetic~~8383
ities~~854
▁complic~~8933
▁essential~~2943
coln~~12128
▁vice~~3241
Chr~~11866
▁taboo~~6399
enden~~9643
▁tri~~9649
ular~~2499
▁Chile~~1763
▁Child~~3418
▁dilemma~~4875
▁constit~~9199
▁told~~1091
enne~~12906
▁angiogen~~13571
viron~~12078
▁dots~~4151
▁roles~~9757
▁toll~~6241
▁foot~~654
▁Both~~5944
,'~~11233
▁neck~~11604
▁Bots~~12899
▁First~~1528
▁fool~~4759
▁broken~~1025
RI~~2346
▁food~~716
▁legal~~5041
halt~~11361
▁cultural~~2545
▁ones~~1299
half~~4468
not~~5737
chnolog~~3084
nov~~12461
▁enemy~~1569
▁Bra~~10245
hall~~9934
down~~9174
▁ut~~4816
▁us~~29
▁ur~~4737
▁up~~253
▁briefly~~4765
▁Rauschen~~11545
▁Nollywood~~13693
▁rank~~997
▁McDonald~~11111
h~~1130
▁suffering~~9035
▁un~~1227
▁um~~3072
ination~~2317
▁Angel~~11220
▁uh~~12606
em~~1840
el~~2176
en~~2704
eh~~9539
ek~~388
▁object~~3402
ee~~1468
ed~~234
ef~~3289
▁surgeries~~9626
ec~~1940
▁Hey~~8935
ey~~5713
ex~~1081
ulsion~~7075
year~~896
eu~~10556
et~~2237
ophys~~9901
▁unknown~~5263
ep~~4679
es~~695
er~~1516
▁America~~446
space~~6841
▁accurate~~8532
estone~~6609
▁temper~~8866
ception~~6899
looking~~793
▁2004~~9409
inz~~13639
▁politicians~~6397
▁negative~~9258
▁def~~2671
▁deg~~6699
▁deb~~2778
▁street~~5418
▁den~~509
▁del~~3864
▁collision~~5257
▁Laptop~~8116
▁dev~~1063
▁dirt~~1103
▁females~~7896
▁Person~~8249
▁der~~3407
▁des~~5990
▁dep~~50
▁2003~~5104
problem~~13771
care~~9180
▁Kanz~~14037
▁200-~~6591
ilen~~12555
▁ignore~~10016
▁Status~~12700
▁times~~1095
▁daughters~~3653
bling~~5889
▁rise~~6152
▁myths~~5045
▁risk~~3960
▁empathy~~6997
▁explore~~7444
▁infant~~9713
▁hypoth~~9788
xy~~11387
▁waste~~4255
asive~~11613
rine~~10357
ring~~1509
rina~~14049
xt~~8209
▁pour~~3131
▁address~~4997
▁stopped~~3326
▁demos~~3060
▁Titus~~13001
▁orphan~~9973
▁revol~~6785
fl~~5576
ission~~10309
▁agenda~~8889
▁selves~~8057
▁orchest~~3622
▁yeast~~11912
frame~~8005
▁powerful~~2115
▁Comics~~10777
pect~~5371
▁flip~~5003
▁Foie~~13583
▁contrib~~6982
▁reduced~~9218
uper~~3259
quar~~13920
▁aesthetic~~8834
prü~~13937
▁biggest~~1309
thal~~12665
▁160~~361
▁invested~~1874
▁program~~2354
▁Cancer~~8618
▁What~~407
▁movement~~3714
▁glass~~3128
▁destroy~~5539
angen~~12381
angel~~6536
Pe~~9753
▁foster~~6983
▁mere~~10100
▁Library~~10911
▁mode~~6352
anger~~3804
anges~~156
▁judge~~8236
▁shaking~~12135
▁probe~~9891
inkel~~14194
bers~~2790
▁Museums~~14130
shore~~5174
▁10~~820
▁passing~~394
▁smell~~4618
▁Pl~~4293
▁Po~~2722
▁Ph~~2226
▁electronic~~5706
▁silen~~8815
▁Pe~~7796
▁Bro~~11120
▁planetary~~10443
▁Pa~~11756
▁sequence~~6572
▁Bru~~13961
▁Luf~~7230
fore~~6988
▁pulls~~11667
▁document~~7398
▁lifestyle~~10415
▁Invest~~9263
]~~2978
▁Pr~~214
anch~~2706
▁PM~~11377
▁PH~~11231
▁PI~~1631
▁Chaos~~3443
▁lifespan~~6614
▁Mario~~13905
ance~~2308
▁Henry~~5515
▁Intell~~11689
ancy~~6980
▁Heart~~12509
orth~~11796
▁intuitive~~10472
▁metaph~~6393
▁perfectly~~3944
▁PR~~5026
▁rund~~13100
Wel~~11122
▁runs~~5834
▁dependent~~4520
▁emerging~~4376
▁cover~~1746
▁power~~2454
▁systematic~~3436
uter~~12420
▁released~~5143
aint~~8520
Z~~7421
▁Protest~~9876
ains~~878
ratic~~1203
utet~~14139
▁grid~~2262
▁Up~~8145
▁vessel~~4092
stud~~12100
▁adoption~~8543
▁prepar~~7261
otter~~12186
▁canvas~~4630
▁summit~~6731
▁figuring~~1650
▁telescope~~11218
▁Post~~4166
▁Tex~~14046
▁alien~~743
▁Li~~12592
▁minister~~9052
ynth~~599
erneath~~12813
ammen~~14174
▁motivated~~3813
held~~10389
▁prove~~1244
▁Ted~~8757
▁naturally~~8037
▁kindergarten~~1931
▁borrow~~5959
▁Ash~~13080
▁Ask~~7037
▁irrational~~3193
▁stone~~7344
▁Landes~~14153
aze~~2949
▁Ladies~~5439
▁ungl~~13671
▁original~~6630
hell~~7922
▁Asp~~8625
▁Ass~~8619
▁Ast~~11370
▁Alex~~3979
▁intended~~6321
▁gone~~4477
▁contributing~~4416
▁penet~~5266
▁Guer~~13694
▁192~~10263
3~~2195
▁habitats~~42
▁were~~679
▁fortune~~7716
▁Ice~~11481
▁Google~~4201
▁teachers~~1853
▁mosquitos~~10808
iminals~~13173
▁Archiv~~14213
▁ceiling~~4829
▁Meth~~6668
▁Austral~~9073
▁Pier~~2902
▁copied~~10051
▁everyone~~1664
mond~~9633
▁adapt~~1188
▁transforming~~11059
aurs~~10813
▁behalf~~6398
▁Stock~~5139
送你葱~~13916
▁package~~3677
▁large~~1796
▁surprising~~3526
▁Everest~~5817
▁copies~~8970
▁Portland~~9361
▁Professor~~7395
ischer~~12465
▁197~~6057
▁50,~~6599
▁50-~~5425
▁50.~~7967
▁500~~4675
▁pictures~~4164
amine~~11990
▁chromos~~6646
aming~~4711
▁oxygen~~612
▁schle~~11801
▁app~~2924
▁glamour~~13342
▁Everglades~~14140
▁elegant~~2836
▁aggressive~~5911
▁security~~6107
odes~~6215
▁protecting~~3148
▁fossil~~4552
▁prototype~~3759
▁feedback~~4884
▁bias~~7272
▁Stern~~12103
▁inventor~~2343
▁Front~~11295
▁stayed~~3798
▁slums~~2591
▁force~~2661
▁Starbucks~~11145
▁animal~~279
▁History~~7539
▁Liber~~7285
▁Besser~~11371
▁intellectual~~7298
▁healthcare~~5936
ett~~5664
▁3-~~7503
▁regional~~5176
▁3.~~6757
▁hors~~6801
▁horr~~5377
7,~~6353
▁living~~969
▁35~~1883
▁34~~3816
▁37~~7404
▁36~~5064
▁31~~10702
▁30~~2610
▁33~~11214
▁sl~~2616
▁Ver~~12416
▁39~~11476
▁38~~11949
ization~~1150
▁nurse~~3035
▁baby~~1126
▁city~~3031
▁grades~~6086
▁returns~~6195
eral~~2931
▁Part~~122
▁hate~~8585
▁legend~~3571
▁Park~~8157
▁disagree~~9382
▁mathematics~~2031
▁incre~~6565
zens~~9233
▁under~~398
▁tends~~6473
▁incl~~2316
',~~11544
▁inch~~589
ramm~~6232
spec~~10133
ulted~~10657
▁when~~188
zent~~12194
ya~~6017
▁return~~930
▁null~~13311
▁serving~~6226
▁crit~~9868
▁ability~~1190
iment~~5754
Č~~14197
▁Poly~~11929
▁ve~~9235
▁hide~~1413
ć~~13763
ete~~11925
Gott~~14175
ā~~13472
▁Poll~~7736
▁bird~~4340
▁Pole~~6705
▁rotate~~11839
ē~~12815
ruption~~10633
ī~~14146
▁punch~~11503
▁Himalay~~6010
imens~~9117
▁presum~~11668
▁Shir~~9350
▁Gary~~10933
▁Palestin~~11289
▁blo~~9410
▁Paris~~8030
▁attractive~~2012
▁instr~~13800
cca~~12020
▁ble~~1393
▁comfort~~8564
▁Jo~~10291
▁lobby~~6802
▁statistical~~9820
angs~~9616
▁support~~582
▁pre~~1181
ch~~2405
▁maneu~~10974
▁pra~~6210
yp~~4360
▁tears~~2684
speed~~4045
▁answer~~1864
▁Wein~~12253
▁Viv~~13713
▁immune~~6680
▁offer~~2500
▁Vir~~11680
▁Vis~~7387
▁rejected~~8534
▁YouTube~~7474
▁functional~~8388
▁Vie~~10079
verse~~7260
▁susp~~7076
▁offen~~9397
▁Vin~~13266
▁tension~~8845
▁amazed~~6354
▁electro~~11217
▁mamm~~7935
ami~~6974
▁night~~4148
▁Clint~~9864
amm~~4900
▁parts~~248
isters~~6328
▁ours~~3826
▁colonies~~583
uild~~8924
amb~~4871
ame~~4940
▁pray~~4769
▁party~~2990
▁prag~~9297
▁strange~~719
psy~~9130
▁Kansas~~11170
reat~~5481
amp~~3009
ams~~8014
▁tragedy~~5256
▁filters~~9697
▁hands~~305
▁Yet~~4509
▁Yes~~858
▁serv~~12141
Show~~13685
▁Spain~~2250
▁situations~~1727
▁fluores~~13104
ynd~~11470
▁something~~207
t~~323
▁IDE~~11972
▁brief~~6951
▁occ~~8186
▁Gem~~13753
▁sand~~6968
▁tattoo~~2846
▁yellow~~2384
▁screen~~2549
▁near~~3720
edom~~8778
▁neat~~792
▁oct~~366
▁invol~~11682
▁econom~~12377
▁Seth~~12402
▁programmers~~7528
▁Gro~~12027
▁Hard~~9898
▁lower~~1893
▁engagement~~2925
▁Harm~~13762
▁Gra~~4776
agern~~8149
▁Angiogen~~14064
▁Hart~~11733
▁Gru~~12585
uch~~8950
▁methane~~2241
▁tumors~~7865
▁once~~1737
▁dream~~3036
▁section~~4009
▁herein~~13477
▁robotics~~10468
▁concept~~907
▁strug~~5929
▁assignment~~7168
▁spiel~~13188
artig~~13998
▁Vagina~~12262
throp~~13807
▁meets~~7197
▁Labor~~8428
▁patri~~12263
▁JH~~12157
▁bene~~13211
▁bend~~7536
itte~~12021
▁Crow~~6896
▁lived~~5517
▁sports~~1327
osph~~12491
intens~~11189
▁Obs~~13113
▁Homosex~~13710
▁Islam~~12460
idden~~9977
rifice~~13781
▁interacting~~4959
▁Son~~8786
▁Som~~9157
▁Sol~~10307
▁comple~~6308
▁levels~~1950
▁Christmas~~2989
▁name~~3815
▁anal~~12618
▁eye~~4837
▁supposed~~1593
▁Expedition~~13067
▁Sor~~9772
▁Sow~~12875
▁Sure~~8584
umented~~12647
ared~~3328
▁characteristics~~6508
Mus~~3692
▁Americans~~7737
▁spring~~745
aren~~11417
▁Flu~~12997
lon~~6592
ician~~11355
icial~~9571
lor~~7965
los~~8448
aret~~11908
ares~~4545
▁Ener~~10308
▁Fle~~11788
▁spec~~6619
▁digit~~7984
▁cocaine~~12933
▁Gates~~5462
▁yet~~178
▁yes~~4229
quate~~8928
▁Kalk~~12667
▁Okay~~3037
J~~2757
▁Initi~~3313
▁curriculum~~7264
▁efficient~~4076
▁targeted~~5427
▁gest~~8351
▁Ess~~13850
▁these~~264
rums~~10311
▁commod~~2692
illing~~1231
▁pharmaceutical~~9905
▁barrier~~8629
cript~~12005
▁common~~2533
hirt~~3387
▁Sn~~8338
They~~11127
▁Exp~~12042
▁Ext~~10970
▁telesc~~14077
▁teams~~8600
600~~10286
ners~~5305
nern~~13550
▁extra~~611
▁Grand~~7379
▁comics~~10742
▁Union~~7708
▁amateur~~7485
esterday~~8272
you~~5839
▁offers~~2881
▁kor~~14160
▁perman~~3645
phys~~13025
▁Kub~~7052
▁proud~~7507
▁auth~~10999
▁Through~~1269
iogen~~11768
▁CNN~~6229
▁shut~~8368
▁consciousness~~2696
▁kom~~11910
▁acid~~802
▁graduated~~8961
▁suspect~~5827
▁custom~~12353
▁scheme~~7013
▁richer~~2701
▁mentioned~~2803
▁winter~~4763
▁unn~~10418
▁melt~~4298
otyp~~12309
▁around~~276
▁Sty~~10457
month~~4390
▁drug~~5926
▁“~~7349
▁drum~~5476
▁negoti~~2935
▁folding~~7651
berry~~6348
▁While~~3456
▁adv~~8650
▁Mes~~12793
▁Mer~~10788
▁Met~~9720
▁equation~~5580
▁spe~~10480
▁Men~~7963
▁Mem~~10760
▁proposition~~6206
▁Italian~~6389
▁Meg~~10600
▁Med~~7086
ucky~~10923
vers~~6685
▁Vi~~3647
vert~~5255
esthesia~~11531
▁visible~~4820
very~~7047
▁epis~~9371
▁epip~~7428
▁grown~~4706
▁Ve~~13124
▁Que~~10890
▁Robert~~5659
▁grows~~726
vere~~12931
minded~~6058
▁great~~133
▁Gulf~~9381
izz~~7235
vern~~2173
▁Dire~~9499
▁anatom~~2380
anas~~11393
--~~7517
-,~~12513
▁Western~~2690
▁Other~~3278
▁beyond~~922
▁Jones~~9151
-1~~4613
▁ingen~~7570
-2~~13629
▁Service~~11042
osm~~12264
▁gorge~~13585
rench~~4775
▁Sometimes~~4770
▁shoot~~4160
▁graphs~~11390
▁density~~6040
▁rule~~3477
osn~~9393
▁crime~~1173
ators~~1771
reci~~11660
▁Marbou~~14215
atory~~6177
▁deciding~~11206
mill~~6366
ails~~644
rator~~7684
▁lux~~9477
▁follows~~10496
onna~~7406
inery~~11161
onne~~9148
▁sequen~~12426
▁grou~~12499
▁technology~~199
▁grow~~853
wning~~5133
▁Anyone~~9598
▁pleased~~12657
▁spacecraft~~7565
▁analyze~~3880
▁frogs~~7467
▁Immun~~13488
▁biom~~8510
▁align~~2101
▁Netherlands~~8690
strong~~5351
▁Buff~~10650
▁nine~~450
ves~~1418
▁Subtitles~~15
▁cycle~~4641
▁assumed~~11526
▁attitude~~2713
▁son~~455
▁som~~8350
▁prote~~6654
▁soc~~1389
▁solving~~7320
▁radio~~4017
▁proto~~6889
▁sod~~8113
▁equipment~~2285
▁Nobody~~1794
▁altru~~9902
▁ten~~2328
▁sor~~11450
▁tem~~3319
▁sow~~11427
▁sou~~10444
ocaust~~10410
▁pig~~7401
▁conference~~7752
▁located~~4625
dire~~1493
▁Aqu~~7581
▁pin~~3473
▁Hop~~8588
▁pil~~2305
▁benefit~~1344
ask~~8455
▁pit~~3973
▁pir~~8184
▁pip~~7295
inational~~14143
▁unac~~11395
▁lud~~11781
▁pix~~7225
▁mating~~11599
▁employment~~5864
▁Hom~~9120
▁remix~~8727
anners~~2390
iverse~~7533
▁maps~~453
▁normal~~3505
uting~~7948
▁ther~~4303
▁Tour~~9726
▁they~~314
▁charges~~10579
Sp~~11918
▁deaf~~9791
St~~898
▁implement~~6657
▁people~~941
Sh~~2827
So~~9114
Sc~~11497
▁them~~296
▁charged~~9433
Se~~11671
▁then~~406
▁Anybody~~10512
▁Dal~~6157
▁semi~~4678
▁character~~3754
SP~~11723
▁publish~~6855
▁real~~337
▁apply~~1085
▁closest~~5069
▁apple~~11118
ning~~6517
SA~~1632
▁prize~~6021
▁elev~~7676
▁Congo~~6442
▁surve~~1522
▁above~~1510
ions~~1571
▁Lebanon~~4196
idges~~12961
bus~~12494
▁colle~~6318
▁poten~~14024
▁shipping~~5067
▁spread~~3133
ione~~7564
▁decline~~5187
▁loans~~9771
▁Rwanda~~2681
▁Dollars~~13375
minist~~13187
▁family~~1050
▁Lord~~9522
▁Basically~~1506
fro~~14016
▁temperature~~651
▁happy~~1460
fr~~2705
fs~~6962
ft~~3420
fu~~2223
▁giving~~1823
▁Her~~5211
▁2005~~4419
▁2006~~2547
▁2007~~6821
▁2000~~6784
▁2001~~6108
▁2002~~11971
odies~~3641
▁Stanford~~4896
▁Hen~~12676
fe~~1462
▁Hel~~5460
velop~~5578
▁Heb~~3223
▁weren~~542
ignt~~12387
a~~791
▁Potential~~14100
▁looks~~403
▁Who~~2769
aughter~~4647
fallen~~13986
▁Graham~~9760
ï~~13179
▁1.~~6457
▁1,~~4426
▁13~~1681
▁12~~3362
▁11~~2194
▁Why~~1009
▁17~~3104
▁16~~4910
▁15~~2201
▁14~~359
▁1:~~11150
▁19~~9412
▁18~~2564
▁hope~~2614
Film~~14073
▁RSW~~13995
▁Ariana~~14187
ielle~~12241
▁Fak~~14103
uring~~1775
▁rapid~~10408
▁have~~148
▁bicy~~10265
▁consult~~4868
▁rituals~~10073
▁aesth~~10904
▁clean~~2820
▁rent~~8235
fined~~3124
▁unem~~12903
▁inex~~11097
systems~~13367
▁rene~~6268
▁Natur~~10132
▁interviews~~10478
ced~~4808
ym~~1818
yl~~4347
yo~~13146
yn~~4497
▁customers~~1458
cen~~12418
cel~~213
ye~~8678
▁composition~~3877
ces~~3076
cer~~1390
▁older~~2645
foot~~2784
▁selling~~4667
ys~~45
yr~~3895
ift~~8035
▁diabetes~~7879
▁pa~~4596
▁cows~~10426
elson~~9960
fully~~379
▁proper~~7541
▁discuss~~4434
▁simpler~~11548
ify~~5086
▁involved~~3480
ife~~4276
iff~~9746
▁nett~~14118
▁involves~~9590
▁pandem~~12934
▁someone~~3474
▁Geb~~12743
asion~~9501
▁whist~~2959
▁IBM~~7724
▁television~~6769
Ent~~13803
keepers~~12041
▁hospitals~~3719
adays~~11985
▁Miner~~12531
ific~~2334
▁hey~~10452
idimension~~10058
▁beautiful~~41
▁her~~2155
miss~~10134
▁reducing~~9010
planes~~12514
▁Schwarz~~11805
7~~1748
▁hem~~2811
ibrary~~13852
▁Aust~~8111
▁list~~1868
▁expedition~~7049
ass~~707
reck~~11871
iot~~1215
▁who~~943
ast~~3971
BC~~9652
asy~~9260
team~~12579
dung~~14091
story~~7105
▁accounts~~6893
▁breathing~~3833
asa~~6464
▁why~~833
▁ineff~~12106
ase~~4846
put~~7719
▁fabric~~9356
ash~~5327
rect~~7282
▁symp~~6497
▁Pur~~2850
▁shrimp~~705
▁Agn~~12154
▁Dan~~3180
▁Put~~3280
▁Dam~~6461
▁fourth~~2408
▁lack~~3867
▁Path~~12810
▁Daf~~14214
▁Dad~~10744
hler~~12797
▁Pin~~11776
▁Day~~4418
▁deals~~9201
▁Dar~~9527
▁Little~~1379
▁favor~~2738
▁Dav~~10877
▁Army~~5607
▁Dat~~14075
▁electromagnet~~11514
ules~~7958
▁Wilson~~4781
▁Serv~~8454
▁egal~~12621
▁anymore~~3092
▁sale~~3695
▁wander~~4617
igaret~~4402
▁belong~~421
▁kept~~3226
▁Steve~~915
▁concrete~~3121
▁bottle~~4364
▁salt~~11136
ighters~~4403
▁coach~~5534
▁swallow~~6856
rus~~6807
▁react~~9149
▁reach~~3144
▁prospect~~7251
station~~9194
▁Knopf~~14050
▁Qatar~~11828
▁Rede~~13962
periment~~12148
▁Klim~~14120
▁Klin~~10629
▁mount~~6737
▁lottery~~11140
asch~~13070
▁1960~~1659
▁Marco~~10558
▁lighting~~7833
▁pandemic~~5362
ste~~7494
▁Institute~~8346
▁intuition~~3366
▁Dre~~10476
▁understand~~2271
▁0,~~13743
▁construct~~1557
▁Rory~~12612
sth~~12474
▁cents~~3297
▁female~~660
▁Larry~~8729
greg~~2018
▁Asia~~1758
▁Pix~~13201
str~~3614
orthern~~11998
▁tiles~~6817
▁education~~935
▁ye~~11198
▁member~~8238
God~~5540
▁equal~~1777
▁police~~7916
▁configur~~3491
▁sixth~~5730
▁entrepreneurial~~10255
▁pieces~~494
▁stream~~4290
lie~~9438
▁Engl~~6944
▁phrase~~5960
lim~~5194
lin~~4002
▁ideas~~1587
▁spreads~~5792
▁ideal~~4695
iber~~6376
arks~~11585
▁feeling~~1443
aired~~7934
▁moved~~1811
▁diseases~~5313
quote~~11586
▁barriers~~11840
elescope~~14000
▁Interviewer~~13292
kam~~1127
kal~~12721
kar~~12044
▁day~~1164
▁showing~~3737
▁Carne~~12692
▁dar~~5056
▁das~~6239
The~~218
▁UCLA~~11945
▁pilot~~2580
▁dat~~9827
▁supplies~~7767
▁beauty~~5836
▁indire~~8001
ining~~1804
clear~~8606
▁Abra~~13711
asters~~7975
▁debate~~1798
astern~~9077
▁playing~~1275
▁patent~~5831
▁Meeting~~14008
▁Meetings~~14066
hips~~7547
▁grocery~~4138
▁SW~~13275
▁Journal~~9461
▁strikes~~5396
▁anten~~7388
▁prices~~6048
▁Interface~~9914
dimension~~13075
▁empir~~11386
▁fig~~10013
▁Sand~~7954
▁Statist~~11987
▁fil~~722
▁fin~~5448
quem~~14006
quen~~10778
▁fit~~3861
▁Graph~~11244
▁Sant~~9056
abend~~13816
ikon~~13969
▁annual~~2196
quez~~10942
▁fix~~4479
▁managers~~8082
ymn~~9058
▁fier~~7789
ikely~~14144
▁addict~~3661
▁kat~~14147
▁kap~~13421
▁vor~~10097
▁currently~~4559
▁competing~~5857
▁guarante~~9220
▁Tony~~5473
sta~~11594
▁terrified~~5276
▁publ~~8965
▁bele~~13627
▁explicit~~7254
▁halfway~~7471
x~~4158
▁investig~~2436
▁small~~1018
rooms~~6334
▁organize~~6300
▁cricket~~13170
▁ment~~1524
▁Cameron~~5451
▁films~~2477
▁Buddh~~10062
▁chip~~8367
ype~~11686
▁agency~~8674
▁appropri~~6175
▁Juan~~9424
▁before~~664
▁rolling~~5430
▁endangered~~7615
ipped~~7791
ictions~~12132
▁Pause~~12867
▁Name~~12737
▁debt~~10695
oppel~~13773
▁Those~~734
▁poverty~~2592
▁disco~~7670
▁array~~9136
▁Tr~~6469
▁♪~~10624
▁Tw~~7330
▁Giussani~~8722
▁Sper~~14101
▁remembered~~3325
ison~~7996
▁Ta~~10064
▁Te~~3722
▁group~~2205
▁Th~~3506
▁To~~1092
▁northern~~5373
▁TR~~12740
▁TV~~6408
▁atom~~10296
▁tests~~7267
anor~~11258
anol~~11160
▁estim~~8660
▁priority~~1997
vitation~~11950
▁Tum~~12567
ifully~~6552
▁Anatom~~13746
▁neutral~~11280
▁Nation~~13207
wen~~13154
▁Congress~~7728
▁barrel~~10694
Was~~12886
War~~10143
▁flights~~12328
▁resc~~9936
▁squee~~3663
▁Jackson~~9770
inct~~11730
▁Origami~~13777
▁rest~~1233
▁cooking~~6296
mentation~~11913
▁Kamen~~10757
▁resp~~7831
▁Columbia~~7578
▁Sudden~~14119
▁Dere~~13279
▁randomly~~10066
▁beach~~125
Women~~11906
imal~~8347
▁huge~~1343
▁Joshua~~9155
▁clothes~~7807
√±~~13269
▁compared~~3368
akthrough~~13028
▁photographer~~12124
▁Deutsch~~13817
▁Sem~~13087
▁correspond~~5887
▁games~~3597
▁animals~~158
▁but~~147
▁Orte~~13261
look~~11146
▁bur~~5518
▁bus~~6277
▁'60~~527
▁desire~~7024
▁Verd~~12375
ropy~~12851
▁buy~~1464
▁obviously~~1210
▁bud~~5609
while~~3295
▁bug~~3182
▁Afghan~~5729
▁bub~~11238
▁bul~~6096
▁signals~~3766
roph~~3087
pack~~3282
▁Alan~~10789
ifth~~8531
ifte~~11287
▁Silicon~~8080
▁Vern~~12421
▁wondered~~3204
ifty~~7211
▁ancient~~4505
ready~~5861
▁oceans~~12
▁writing~~2735
▁transfer~~9676
▁norm~~5106
▁mark~~753
ently~~3646
▁marg~~1482
▁psycholog~~6272
ested~~1739
▁Wright~~12344
▁presen~~13811
▁collapse~~6110
ester~~3054
bol~~7222
▁religions~~9528
▁Gegen~~10968
▁mars~~11037
▁hiding~~2813
▁leadership~~5596
used~~5815
temporary~~4787
▁rub~~4400
▁rul~~9347
▁rum~~11103
▁run~~2118
▁foundation~~5582
▁Terror~~12885
▁rut~~1564
000~~12822
uses~~2128
▁Blog~~6763
onstr~~13183
▁Very~~1895
▁alcohol~~9756
▁minor~~6768
▁Rose~~10080
strö~~14135
▁Ross~~3980
▁Armen~~12625
olden~~13761
ationale~~9224
▁Stein~~11745
▁deploy~~10914
▁housing~~8929
▁trash~~4256
iolet~~12985
iers~~881
▁infectious~~8853
iere~~13927
▁gentle~~6845
ricul~~6358
$~~8069
▁leather~~9470
▁forecast~~10988
▁famine~~6022
▁magazine~~6323
▁psychological~~6327
▁distinction~~8023
...~~3173
iano~~11423
ight~~1374
▁dozens~~2270
stein~~8413
▁artificial~~7947
▁genetics~~8318
▁aren~~962
▁palm~~11031
▁area~~851
▁lowest~~1004
▁retire~~9186
▁hol~~6309
▁Wir~~8809
▁statement~~6540
▁trillion~~10692
▁blocks~~7903
▁Global~~9265
▁hon~~8234
ees~~1134
▁channels~~2410
▁populations~~7323
▁indigenous~~10166
▁70~~3212
▁73~~7481
▁72~~9214
▁75~~113
▁74~~1745
▁encouraging~~1496
▁factories~~4358
▁proportional~~1827
▁Ha~~3179
▁tribe~~9607
heimer~~12293
▁tenden~~9595
▁Hope~~5940
▁occurred~~3111
▁Michel~~9725
▁zones~~5204
▁rely~~2126
▁Magnet~~13097
▁speakers~~9454
▁quest~~2853
ushing~~11282
▁dam~~9689
▁Antarctica~~10155
▁knowing~~2109
▁grandparents~~2647
▁printing~~7685
▁clinics~~8143
▁rele~~2430
▁staring~~8386
▁constraints~~7308
▁Detail~~13306
▁keeping~~5867
ocke~~12057
▁failed~~5707
▁Pest~~8041
sted~~7548
rum~~11300
acht~~10631
osen~~8400
sten~~12853
rug~~8130
▁winds~~6192
achs~~4399
ster~~8214
step~~9182
ockt~~13547
ocks~~5178
▁dad~~2980
stet~~13039
▁humanitarian~~5316
rup~~12872
ateful~~13618
▁sorts~~98
▁publicly~~9759
▁strategies~~6667
▁waters~~862
▁meat~~4525
ids~~6789
▁Nun~~13616
▁no~~149
▁Nur~~13839
kap~~12630
idi~~9384
idd~~8402
ide~~514
▁Gold~~8801
block~~11040
ida~~12397
▁offic~~5748
▁recovery~~9378
▁cycles~~869
ön~~13237
öl~~14131
ources~~12759
ök~~14041
icans~~11249
▁Supp~~7739
kay~~14173
▁guess~~1026
.,~~986
.-~~11006
..~~13260
▁inches~~383
▁Code~~3338
."~~231
ience~~3110
.:~~12796
reprene~~10273
▁limb~~11195
▁empty~~701
mach~~12527
▁Ho~~12840
▁vol~~6102
▁wack~~12445
▁distribution~~4584
▁prey~~320
rees~~1995
▁Ford~~9855
▁unfortunately~~4362
▁pres~~908
▁prep~~3379
▁Form~~11688
▁prev~~6454
▁pret~~13584
▁clusters~~10014
▁decided~~3272
▁prem~~3792
▁prec~~5054
reen~~8484
▁pred~~6046
▁substant~~11175
▁Sweeney~~13801
▁bank~~9758
▁themes~~9836
ute~~2724
▁bang~~3878
uth~~9632
▁band~~282
▁imper~~6587
uts~~9028
▁architectural~~7642
utt~~11948
utz~~11740
▁horizontal~~8089
▁Afrika~~11695
uty~~5109
▁layer~~3145
uber~~7880
ubes~~3779
Ich~~11737
▁emphas~~6214
▁static~~5629
▁,~~7165
▁done~~1563
Th~~6234
▁entertainment~~9080
Te~~12848
uben~~13664
▁ooh~~11868
▁missing~~5405
▁airplanes~~9254
▁includes~~7877
▁extract~~10501
▁leap~~6415
nal~~12786
nam~~12138
▁Have~~4768
▁disturb~~10003
▁lean~~6052
▁lead~~5479
▁leaf~~5840
▁utter~~6748
▁included~~8816
▁Remember~~1881
▁although~~2325
▁Human~~10136
korn~~13064
▁nuc~~11632
▁ritual~~11401
weise~~13942
ases~~1467
aser~~12956
▁surprise~~1027
▁Pepsi~~702
▁nun~~12003
▁1900~~11167
▁nur~~5393
est~~37
▁TEDTalk~~9420
asen~~13695
▁finds~~7014
ased~~5865
▁convert~~5832
Ab~~13444
e~~2447
Ad~~13426
▁convers~~8694
▁unfortunate~~9215
quently~~6329
Am~~12746
▁One~~480
An~~2822
▁Bit~~9920
As~~5991
Ar~~8570
▁washing~~10874
▁histor~~7413
▁algorithm~~7652
cribe~~10405
oop~~4440
▁spin~~8435
gt~~14042
gs~~5399
gr~~688
▁figures~~3748
▁Joe~~10599
gy~~1586
ge~~1581
▁Mike~~6839
ga~~9269
▁mapping~~5406
go~~2172
gn~~13441
▁cult~~6291
gl~~4627
▁figured~~3879
▁Facebook~~3568
▁explaining~~2670
▁solved~~3284
▁neighbor~~8864
ario~~12703
aria~~12501
▁Station~~11134
umble~~6885
▁pushing~~8576
▁ru~~7437
▁mathematical~~7277
▁CAPTCHA~~13286
▁paintings~~2491
▁recycling~~11321
▁terr~~7717
Now~~9453
fly~~4741
▁increasing~~3341
▁got~~79
▁Make~~3509
▁goo~~1335
▁opera~~3596
▁Virgin~~13303
▁Lak~~6830
▁god~~5766
▁sculptures~~11597
▁authoritarian~~12564
▁planning~~6513
▁kilogram~~6037
▁articles~~9463
sych~~12832
gender~~11351
▁mesh~~11662
▁engag~~13358
▁slower~~6298
olar~~11234
olas~~13717
▁Able~~11692
▁view~~420
▁reliable~~6087
▁Univers~~11010
Spe~~12208
▁trivial~~4915
zi~~10223
▁celebrity~~10672
ze~~7209
za~~10912
▁connections~~9124
zy~~3664
zz~~6420
zt~~8761
▁outcomes~~1728
▁leading~~4323
oking~~4258
▁Vict~~13221
▁flog~~13106
▁exhib~~7556
▁ears~~377
aining~~6976
▁150~~254
cell~~3796
▁15.~~10652
ulary~~4812
▁15,~~10053
then~~11491
▁democratic~~11581
▁earn~~3033
;~~963
▁electric~~4023
▁director~~2461
▁shit~~6480
▁Cra~~4175
▁subsid~~2117
▁ship~~4855
▁Reporter~~9441
▁energy~~595
▁Foot~~10732
▁Cro~~9275
▁absolute~~10076
▁shif~~9139
▁academ~~7170
iable~~8903
▁Sec~~12995
▁Leon~~12669
▁Tor~~12804
▁Food~~6287
▁obese~~4561
▁seats~~5623
▁pull~~2415
▁pretend~~5643
fle~~11691
gent~~4738
▁messen~~1575
▁collaborative~~7554
▁Michael~~7635
▁Bible~~3332
gend~~9152
ule~~9834
▁puls~~9123
istence~~10503
▁agric~~13449
▁threw~~10677
wid~~12838
▁extremely~~4718
▁globale~~14238
win~~10135
▁embrace~~2041
▁Balk~~9324
▁floating~~4254
▁tubes~~8501
▁three~~344
wis~~13241
▁larger~~3745
▁organizing~~10736
▁lands~~9678
ötz~~13938
▁consistent~~2107
▁student~~1835
▁Christian~~4055
▁embracing~~4566
▁significance~~9078
stage~~7120
▁Nash~~3922
▁Before~~6558
ithium~~11880
isan~~10733
▁attra~~316
▁However~~6656
▁Zw~~12289
ien~~6462
weeney~~8173
▁separated~~4429
▁gross~~6012
▁corrid~~10222
▁Mahatma~~11435
igur~~12372
▁17,~~7761
▁Ze~~9847
boards~~11262
▁perfe~~11927
▁17.~~11709
▁borders~~10034
▁Jonas~~12321
ied~~2212
▁elephant~~7427
▁zoom~~7436
▁others~~1644
▁magnific~~13305
▁intention~~8300
ricane~~7986
meer~~12632
▁Send~~8220
▁Environ~~10848
▁planet~~115
▁Ethiop~~6109
▁sole~~7971
▁general~~1591
▁interconnected~~9125
hir~~12730
▁icon~~472
▁becomes~~3753
▁Solar~~11783
▁motor~~8627
▁granted~~109
▁kindness~~10427
▁through~~371
eit~~9890
anthrop~~9068
▁creativity~~1079
▁Lake~~6134
▁obstacles~~5268
▁places~~168
▁Spra~~13217
▁poems~~9801
▁detect~~10046
▁tier~~6911
▁ties~~9486
▁characters~~3774
ires~~5340
▁tied~~5587
▁music~~893
rays~~8502
▁Talent~~12845
▁connecting~~6907
▁placed~~7627
▁Laufen~~13645
ired~~1254
▁approached~~7885
uelle~~14137
▁thinks~~5318
▁plane~~2289
▁tax~~1902
▁Materials~~8991
▁toilet~~4974
▁tap~~3670
▁tat~~9893
▁plant~~4318
▁tak~~4425
▁tal~~13621
▁plans~~8939
▁tab~~11878
llen~~1806
▁charity~~9773
▁diagnosis~~5876
▁improve~~1637
▁Franklin~~6271
▁while~~1710
▁approx~~11388
▁narratives~~2540
▁HG~~14151
eins~~12009
▁overhead~~9845
▁tracks~~6122
▁staff~~6345
▁Children~~4895
▁math~~1002
ahen~~11600
▁case~~393
▁gods~~4588
atorium~~13339
▁than~~169
▁mate~~7897
▁cash~~3370
▁that~~82
▁cast~~5044
▁educated~~5870
▁driven~~6289
▁note~~900
▁Stage~~8768
▁Marcus~~11016
▁Daw~~7980
▁minim~~3217
▁700~~521
ically~~2655
▁ultra~~9375
frontal~~1357
▁typically~~2032
▁events~~4849
▁whale~~11703
▁vern~~12972
▁Cou~~8905
▁vers~~5701
▁weigh~~1996
▁Con~~3494
▁Com~~5422
▁vert~~4958
front~~10962
▁Hud~~8626
▁very~~193
▁rewards~~8108
ifest~~10671
▁lung~~5278
▁logo~~4195
▁Rosling~~10584
▁active~~834
▁fate~~5098
▁realizing~~6344
Why~~3216
gely~~9637
▁canopy~~2300
▁beginning~~649
▁poison~~4465
illy~~3962
▁wrote~~2187
mas~~3560
iology~~7219
▁TED~~13
mar~~6860
▁works~~827
illi~~12830
ille~~10350
▁Again~~3303
▁Green~~9005
▁corner~~5463
▁Hil~~9605
▁panc~~10338
▁stabil~~7801
▁Hig~~10302
▁triple~~10373
▁empower~~1552
▁Farm~~11524
▁evolved~~806
wich~~10557
▁forms~~596
cause~~9100
▁His~~5388
acken~~12363
▁horror~~8029
▁molecular~~8515
▁Designs~~13828
▁professionals~~1329
▁Wort~~12505
ect~~6149
▁Austr~~3457
▁curt~~8190
▁57~~8662
▁Zero~~11082
▁55~~7191
▁54~~10217
▁stri~~4818
▁Death~~3492
Ja~~14221
▁50~~2596
▁stadium~~4039
▁stra~~3812
▁59~~13502
keep~~2687
itor~~7698
▁friendly~~8139
▁Orleans~~4414
▁overl~~10502
▁give~~732
▁5,~~6733
eters~~8710
▁architecture~~3896
▁challenges~~1813
mag~~10561
▁wearing~~3388
▁certain~~3799
▁offered~~2529
▁generations~~1691
▁Venezu~~13853
▁challenged~~1944
quality~~7240
▁element~~3375
asi~~14142
▁appreciation~~9364
▁fascinated~~6833
▁microsc~~7673
▁schedule~~1171
▁musicians~~3685
olitan~~11125
▁died~~2802
▁Norm~~6897
▁spiders~~12998
▁wie~~6994
gment~~7690
oice~~8025
▁Nord~~6339
▁diet~~2530
▁testing~~3423
!~~409
▁dies~~4317
urfing~~8076
▁pigeon~~10820
▁Number~~8802
▁broke~~6884
bek~~13222
beh~~12901
bei~~13313
aught~~4474
bel~~10825
▁completed~~1662
▁transformation~~6151
▁Listen~~5593
bed~~2934
bee~~11920
eting~~6950
▁Suddenly~~9535
ber~~2249
ard~~2863
▁Ear~~5265
bet~~9821
▁hin~~13289
▁filmmaker~~2535
▁him~~2971
▁Noah~~13099
otonin~~12391
▁Washington~~2640
▁respond~~1907
▁Sund~~8218
ari~~7364
▁hit~~4631
omed~~11201
▁respons~~1928
▁hip~~4034
▁facility~~4874
▁footprint~~8440
▁wir~~11960
▁painting~~7402
ainer~~4408
▁youngest~~8736
▁weighs~~7695
▁collaboration~~1495
▁Barack~~9863
▁enterpr~~10621
ably~~2510
▁himself~~3697
▁cand~~12382
sequen~~10407
▁rough~~3139
Der~~11593
ained~~4476
sm~~8846
▁shoulder~~3855
▁violent~~39
aws~~2758
▁promote~~1356
ingo~~8775
iscover~~1531
▁Hypoth~~13834
▁specialized~~6957
urd~~13204
ure~~2840
urf~~7659
▁ball~~4046
etball~~4041
urm~~9815
urn~~4788
▁bald~~7022
▁secure~~6761
inde~~2995
uru~~12960
▁deeper~~3743
▁exhaus~~7793
urr~~8931
urs~~3594
gest~~4464
▁Brother~~11013
ury~~3724
urz~~12878
ulator~~8394
▁Somebody~~8597
▁unexpected~~7156
▁bats~~11849
▁Lama~~9242
▁flash~~8587
▁Emotion~~12270
Stud~~13310
▁frank~~11762
▁Team~~13380
▁oil~~3125
▁illustr~~4931
▁hardest~~3504
▁Baby~~7243
▁City~~4689
based~~3067
▁moving~~141
(~~13031
lings~~9168
rast~~7250
rass~~9367
▁Armstrong~~5816
▁Hut~~9027
ylac~~14059
▁poss~~10580
▁opened~~6194
▁odor~~10873
▁mice~~6607
ingt~~13831
▁possibilities~~7680
▁Georg~~13992
▁intim~~8865
▁mathematician~~11845
▁Technology~~2598
▁slight~~9541
immel~~14171
▁turned~~3821
gras~~13079
grat~~3551
ught~~12231
gram~~12092
itra~~13063
ification~~3948
▁continuously~~1341
▁über~~12227
▁evolution~~6638
▁engineer~~6965
▁output~~6080
▁vagina~~12273
▁according~~3570
▁Sup~~8790
▁Sus~~11323
▁Sur~~5872
▁facial~~10463
▁Messer~~10544
▁looking~~413
computer~~7118
▁Sum~~9043
▁Plast~~4285
▁Jord~~13602
▁connects~~4952
▁Sue~~12734
▁Sud~~10506
▁Sug~~13245
▁Suf~~12629
▁faster~~1686
▁generous~~9485
▁sleeping~~11338
▁Katzen~~14112
▁Brooklyn~~8153
tend~~6694
state~~8375
▁Urban~~10550
tte~~12392
▁wise~~5666
▁hated~~3214
tens~~1288
▁wish~~5117
erne~~12988
aron~~8250
tent~~1077
ken~~3361
▁aggreg~~5132
kei~~13727
▁Movember~~12861
▁Mama~~11694
key~~4042
▁nasty~~5783
▁gib~~10120
kes~~6217
ker~~5057
▁Mamm~~8271
▁gif~~8210
abetes~~13396
▁probability~~3290
▁trapped~~7951
▁commit~~3296
▁anxiety~~10059
ternet~~12900
▁North~~1762
▁perform~~1693
▁tissues~~6702
▁Heil~~13493
▁regul~~6176
▁served~~4500
▁welche~~13945
▁breathe~~5279
▁appear~~6676
▁las~~7153
▁simultaneously~~10000
▁lap~~9283
▁issues~~1904
▁challenge~~1559
untary~~9234
aur~~10814
▁evolve~~3897
onomic~~1941
▁mud~~3123
orie~~4556
▁effort~~2036
iny~~5692
▁Ord~~12359
▁Richter~~13081
▁fem~~12720
quis~~5080
▁flag~~4137
▁130~~2297
▁lau~~9421
▁fed~~2800
cent~~2170
quent~~9822
yal~~2352
▁purch~~9445
ulate~~1347
▁13,~~6371
▁trend~~3257
▁13.~~12093
▁smallpox~~5289
▁fer~~7784
▁flat~~3955
esents~~14233
▁few~~2229
oth~~4785
▁immer~~11261
▁Lass~~11402
▁1.5~~7234
▁collection~~9476
oto~~10509
hyth~~870
▁Nicole~~8381
ote~~3083
▁creation~~4062
▁branch~~7602
▁engage~~2912
▁theoret~~8326
▁philosop~~11488
▁Kern~~13970
▁tomorrow~~899
▁reduction~~5360
▁destro~~12023
ots~~2306
ott~~4344
▁immen~~9296
And~~4185
▁firing~~7124
▁January~~7177
▁Once~~2918
▁clar~~8942
▁Ug~~13759
ownt~~13463
▁input~~3850
▁doubt~~5495
▁geschützt~~13944
▁triang~~9138
ini~~7343
▁corals~~12502
▁Virtual~~7451
▁exquis~~5995
▁piss~~9577
▁memes~~12258
You~~3005
ibr~~11678
▁sick~~966
oment~~11276
hlen~~13939
adows~~10829
▁TB~~12422
oons~~8578
▁defe~~5973
▁slow~~1508
urable~~2133
▁shelf~~8233
▁psychologist~~10674
bein~~10870
▁Spir~~12276
ahren~~13836
▁helic~~9686
▁Guatemala~~12860
▁camera~~650
▁Saturn~~8049
▁drinking~~3987
fol~~9387
▁gotta~~8179
ieties~~11135
▁patterns~~9140
▁concentrate~~4456
],~~3605
isco~~7046
▁degree~~556
isch~~5072
rift~~13386
▁chick~~4392
▁cul~~5231
i~~1108
▁piece~~2884
▁cub~~8060
well~~2617
sche~~13718
welt~~13437
▁cup~~8574
▁cur~~2568
ified~~2534
▁cut~~4825
/1~~9895
▁reserv~~5379
pense~~8703
▁partnership~~5290
erve~~10267
▁advances~~6575
▁grab~~627
BA~~12637
▁Pakistan~~5465
▁select~~2060
BM~~12303
▁gram~~6859
BI~~8508
▁cards~~6438
dose~~5548
onds~~2809
▁Times~~7195
▁harder~~4673
▁advanced~~3490
aning~~3165
ensive~~11527
▁narrat~~14124
▁gray~~11044
eline~~7296
Be~~8263
▁Reed~~11824
▁2011~~13145
Bl~~7489
\~~13755
▁circuit~~10943
▁Without~~3163
Br~~11159
▁col~~10881
▁facilities~~7531
▁squid~~357
imes~~4902
imer~~13515
ledge~~10257
▁capable~~2016
▁bump~~3776
▁spoken~~8121
imee~~13700
▁dick~~11352
▁Instrument~~12641
▁charge~~5177
▁smartphone~~7327
▁veh~~12918
alysis~~10287
▁engaged~~3612
▁serious~~1093
▁sus~~8537
▁sur~~5871
rott~~6365
▁orders~~5719
sized~~3977
▁battery~~5746
▁capture~~6201
▁sum~~6303
▁21.~~10191
▁sun~~592
▁suc~~12281
▁sub~~390
rote~~8262
page~~10554
▁sug~~620
▁pot~~3672
▁Ik~~13696
▁pop~~4060
▁Columb~~7715
▁breath~~6734
▁pos~~7303
▁Israel~~2795
▁pedest~~11543
▁effect~~3602
▁modern~~4507
▁calculated~~6112
▁traces~~9071
▁pol~~4359
▁Glass~~7116
▁differently~~1879
ubs~~10438
▁wires~~4941
▁CEOs~~10612
▁autonom~~8378
▁duck~~12817
▁wired~~6970
▁thor~~6589
?~~260
Ach~~13485
▁cotton~~5799
▁hidden~~2773
journal~~13503
rock~~7868
Up~~4417
Um~~9712
▁Rel~~12520
▁astonishing~~3065
Un~~8605
▁alarm~~7088
▁Vol~~10588
▁surpr~~11337
▁patents~~8449
▁particular~~3260
▁late~~4145
▁Its~~2514
▁separate~~4357
▁grace~~378
▁shout~~3928
US~~11462
onder~~10569
▁thinking~~1401
ervat~~13165
oring~~6357
▁Hoff~~7703
py~~11855
▁ignored~~11166
▁clothing~~8470
▁Tests~~13398
IDS~~13133
▁worms~~603
▁cyber~~6840
▁nets~~5367
▁factors~~974
▁prepare~~5641
▁seemed~~4119
▁Sein~~14148
▁interesting~~500
▁arab~~4549
▁letting~~1099
pa~~9009
inner~~7510
▁sacred~~11434
▁tested~~10027
Plan~~10786
hy~~5786
▁finished~~2581
▁Elizabeth~~2909
tter~~13438
hr~~1373
▁running~~1117
▁hero~~2654
ht~~4349
hh~~10511
▁expectations~~6074
hn~~10871
ho~~9737
▁discovering~~5047
▁bridge~~7136
itable~~10170
ha~~1958
▁cellular~~10392
▁Pear~~13775
cting~~317
he~~4126
▁IM~~12388
▁join~~2584
▁therefore~~6043
▁designing~~4827
▁agricultural~~6077
’~~7348
owing~~8094
▁random~~7679
▁Our~~1442
piece~~4676
itiv~~12677
▁nuts~~8724
▁reached~~7758
▁Stre~~13038
▁perspect~~2579
▁Stra~~4487
▁Nigerian~~7140
erin~~13532
▁excited~~3153
erie~~12150
▁overcome~~3926
▁terrain~~11089
▁wind~~3101
▁wine~~3000
arre~~13726
▁Brian~~4494
acle~~2467
vable~~5977
▁essen~~13973
▁standing~~189
▁mult~~5828
▁Wor~~13361
▁wins~~6999
▁Eisen~~10856
▁knock~~5772
▁dign~~11369
▁Gaza~~10173
▁College~~7484
▁belly~~5683
star~~5595
ocol~~12476
▁clients~~4140
ients~~10646
▁frontal~~7824
stag~~13326
▁Note~~13507
iente~~3924
▁Brazilian~~11288
stal~~5592
N~~2994
▁communications~~6940
▁Ther~~12753
hne~~7160
using~~5788
▁They~~268
iode~~13966
▁decades~~5378
▁critic~~1558
▁Zer~~9066
portion~~11376
▁designs~~6874
formance~~12424
▁Them~~6776
▁Then~~3024
▁Val~~8136
▁Diabetes~~12055
▁threats~~9766
▁Research~~4248
▁share~~1611
inning~~5160
▁shark~~10703
▁Millenn~~13008
▁Cartoon~~12651
▁enable~~2073
▁conduct~~3819
▁sharp~~10611
gested~~13425
ansion~~13849
▁Williams~~10935
▁Lewis~~6703
▁morph~~4978
▁prin~~12394
▁prim~~3547
aub~~13317
aud~~9629
aug~~11164
auf~~12808
▁macro~~10299
aum~~11591
▁Sergio~~13557
pped~~4492
▁experimen~~11447
aup~~14128
aus~~6721
usive~~4113
aut~~5055
▁call~~549
▁calm~~7632
pper~~8799
uity~~8155
▁squ~~1073
▁email~~3534
cepted~~8644
▁'50~~10025
▁Matthew~~10817
▁7,~~12780
▁Comic~~12350
▁whoever~~11011
▁pessim~~9432
▁Wurzel~~13680
velas~~2634
▁shap~~9198
▁camps~~7769
▁happened~~3028
▁body~~759
▁income~~10595
▁laid~~2138
technolog~~8291
▁Don~~3512
▁studio~~6224
▁young~~1695
▁Dod~~12144
ups~~7933
upp~~5780
▁Dog~~8305
▁libr~~7576
▁soul~~6852
force~~5245
▁breat~~7103
enth~~10129
▁students~~1720
▁Republicans~~8735
▁bubbles~~1832
ents~~553
▁nein~~12601
▁bread~~7509
▁Tech~~9614
cence~~313
enty~~12183
▁Morgan~~13044
▁break~~949
▁save~~5097
▁soup~~4447
nen~~12648
nel~~5628
asil~~14172
▁trust~~1549
ned~~1899
nee~~8623
▁absence~~6083
▁expressed~~9557
▁useless~~9723
ney~~2721
▁zer~~10966
net~~9982
ner~~1585
▁hopes~~5998
▁2010.~~10594
▁collect~~685
med~~5477
▁rats~~1281
▁summar~~7335
▁cr~~699
mel~~5649
men~~3022
▁cy~~5819
▁catching~~6588
▁surge~~11316
otion~~1538
met~~10975
▁rate~~6456
mer~~8404
▁counts~~2030
▁cl~~711
▁co~~2102
auch~~13994
▁ch~~550
▁Galileo~~11803
▁yesterday~~4320
▁Story~~6258
▁Kong~~10553
artment~~11571
oman~~8762
▁Pent~~12440
▁Bronx~~5485
▁Eric~~3472
▁happier~~1456
omat~~7901
omas~~13901
dro~~10972
▁stands~~7918
dra~~6120
▁Natalie~~9008
▁Pittsburgh~~3390
▁traject~~6595
▁messy~~5822
▁concentration~~7825
▁altern~~11701
▁physiolog~~8302
▁road~~5345
▁Francis~~8764
ippe~~6800
moral~~13128
▁tempor~~9481
org~~11277
▁dialogue~~8769
tels~~9482
▁batteries~~7991
▁rebell~~9315
▁schn~~13892
antage~~1915
ellow~~13612
▁equals~~5581
▁infer~~5489
tell~~10686
▁whenever~~8959
▁fabulous~~9682
Ste~~8780
▁flies~~2295
lungs~~14018
▁dop~~12010
wart~~13096
▁dot~~730
▁dou~~6202
▁cause~~3378
▁illusion~~7702
▁dom~~10240
▁don~~422
V~~6377
ward~~2619
ware~~10998
▁burden~~7979
▁dog~~4701
▁Force~~5625
oler~~13181
oles~~1990
äss~~13951
▁Michigan~~6135
worth~~9917
▁networks~~4705
▁beige~~7399
▁light~~291
▁doors~~4975
▁seek~~11962
ikaner~~11083
▁talks~~2970
▁11.~~9278
▁11-~~10937
▁11,~~10840
▁reflects~~11719
▁110~~3103
rid~~10886
▁caves~~10602
aging~~3175
agement~~12914
▁resistance~~9271
quot~~13549
endent~~1518
▁dealing~~1459
▁marvel~~5260
▁neuroscient~~7841
▁Thomas~~4100
strom~~5079
▁Doll~~14052
▁saying~~861
▁Gig~~12729
▁crow~~9574
▁Internet~~1224
ologist~~5955
▁item~~5795
▁skin~~4845
▁toilets~~8034
▁cases~~465
ove~~1438
▁Andy~~7850
▁applic~~8860
▁potent~~5325
▁crops~~2221
All~~8861
▁trials~~2438
▁Bez~~12516
ativity~~11638
▁interactive~~7551
▁date~~5251
Mein~~13495
▁data~~412
▁Griff~~12341
▁escal~~4529
osaurus~~10802
▁fingers~~3667
▁closely~~5421
iences~~10864
apse~~11644
opes~~8647
▁Hospital~~3725
▁convin~~6557
▁cous~~8268
▁cour~~10284
▁refuge~~13085
▁promised~~4672
▁coun~~6620
▁vivid~~7418
▁Phoenix~~11364
▁luxury~~10609
ructure~~7375
▁choo~~11302
▁heritage~~7392
▁BP~~12536
▁Smart~~12873
▁assumption~~9383
▁correl~~1301
plantation~~8408
▁squares~~9990
▁Vill~~13247
▁avail~~6023
pass~~9830
▁Element~~13424
oole~~12652
ises~~5760
iser~~12098
ona~~11551
▁teeth~~7036
▁speaks~~2636
▁Nik~~9784
school~~12152
ania~~12877
▁digital~~5733
▁Zone~~13527
ised~~7297
one~~3787
isen~~1685
▁fatal~~5913
entle~~11506
▁content~~3452
bons~~10121
wend~~14010
▁counter~~6812
▁tower~~2286
▁cannot~~831
▁Republic~~6451
▁Abst~~14123
▁Anyway~~4628
break~~8004
▁counted~~675
uated~~9057
side~~4649
bone~~8099
▁predator~~7039
▁disgust~~10095
▁These~~280
afel~~13686
Wow~~9400
▁certainly~~3156
▁pointing~~8018
▁example~~972
▁achieved~~1949
▁BM~~13259
▁productive~~4578
▁hind~~12050
▁curiosity~~3450
▁hing~~13489
▁restaurants~~6786
▁assign~~7245
▁since~~1816
▁refugees~~8908
plete~~6642
umul~~5745
▁passes~~1138
▁swe~~3330
city~~7176
utch~~8054
▁things~~259
▁Babbage~~10758
▁Beijing~~9287
▁boards~~7626
▁passed~~3358
▁IDEO~~12373
▁Transition~~11307
▁users~~8097
ightened~~2882
▁unlock~~3588
▁Danny~~12849
▁identify~~5205
▁analyt~~10598
▁divided~~1847
▁Phantom~~12874
▁Rather~~8486
iss~~9640
isp~~2844
▁colleagues~~1410
▁fellow~~5791
ist~~2150
isk~~10524
▁evol~~5694
ish~~4401
▁neural~~1348
ism~~534
isl~~9776
isc~~9518
▁wasted~~1787
▁gold~~8681
isf~~6658
ise~~2395
▁Ushah~~13824
▁Rob~~7778
syche~~12947
▁strangers~~9206
▁partly~~8216
▁pay~~1999
grade~~4283
▁models~~2257
▁par~~2495
▁adjust~~5618
▁pan~~6197
▁pal~~2542
▁daily~~4502
cher~~10716
▁pad~~5782
iling~~657
hood~~5500
agra~~6247
▁beds~~10668
▁damaged~~8624
▁Ment~~4280
▁Modern~~9850
▁planted~~10325
▁smooth~~3142
▁prosper~~12570
▁edges~~7662
▁ambitious~~2051
▁accompan~~5001
▁vent~~506
▁Sich~~9046
uable~~13910
▁Ba~~4334
▁Authent~~13637
▁exposure~~7907
▁Slow~~6284
▁concent~~12401
ference~~6555
▁Rom~~10570
▁pupp~~7411
▁version~~8135
▁advoc~~8551
bits~~9872
▁sees~~3152
▁musical~~1330
▁shows~~1689
▁shown~~1084
▁upset~~9428
▁seem~~3935
etten~~13780
▁seen~~85
▁guide~~5407
▁seed~~10469
▁children~~1786
▁Ireland~~6931
▁symmetry~~9142
▁afr~~13847
▁textbooks~~8963
▁crowd~~9611
▁Rou~~12824
mind~~8785
▁fell~~4913
ming~~9451
▁aff~~8273
▁keep~~3518
▁felt~~3432
▁train~~1115
▁opp~~8823
▁nerv~~12329
▁opt~~6909
▁oven~~11400
▁arch~~326
chem~~9318
▁fence~~10639
▁noticed~~3704
ighten~~11104
▁mammals~~7925
▁invented~~1734
chest~~12442
▁definition~~778
▁dinosaur~~10800
▁over~~439
▁axis~~516
▁brings~~3731
abelle~~7500
▁tune~~8065
▁Diego~~7391
▁girl~~4154
▁effic~~11240
▁Kenya~~9926
▁Rest~~11138
▁ban~~8329
▁Resp~~10072
▁NASA~~7111
▁stroke~~3764
▁99~~5359
▁98~~7326
▁unit~~6921
▁Morton~~2140
dom~~9740
▁ensure~~2106
▁90~~2567
m~~65
▁96~~10990
▁95~~5438
usters~~286
▁joke~~4694
▁unim~~4961
▁unin~~4338
▁spra~~4888
▁escape~~4813
▁Prote~~10900
▁senior~~5734
▁draws~~1667
▁scal~~11445
▁Proto~~12854
ending~~1834
▁focusing~~7838
▁feature~~1892
thirds~~8463
▁cameras~~206
bsites~~13552
▁will~~665
▁Japan~~2023
▁Fil~~9341
▁recess~~1166
▁wild~~4473
▁afford~~1795
athemat~~13382
▁observations~~9172
ctors~~6041
▁Alask~~13784
▁absurd~~901
▁dial~~6170
▁diam~~2808
wers~~11045
▁Marg~~12528
▁Amsterdam~~13062
stop~~8575
▁gene~~1118
▁transported~~4514
▁Hubble~~11817
ston~~4922
▁Marx~~9345
▁Mary~~10209
▁highly~~2000
▁Mart~~8270
quarters~~10388
▁sorry~~1185
▁genu~~6485
▁profession~~1856
child~~11379
bar~~9366
bas~~5052
▁300~~340
▁exceptions~~9230
▁virt~~3593
▁versions~~3245
▁volume~~3925
iety~~11536
ban~~2448
▁pharm~~6467
bal~~7898
▁remind~~3399
▁bombard~~11656
ears~~3752
▁suic~~12127
▁like~~129
▁Indonesia~~11196
▁bodies~~6736
▁suit~~3249
▁Apple~~9487
▁50,000~~3119
▁Problems~~10521
▁Prize~~6669
▁Business~~1003
▁observe~~3772
00~~7694
▁argued~~9744
üssen~~12245
▁reflect~~5695
▁renew~~11988
▁je~~5557
▁Wann~~14035
▁desperate~~6295
▁villages~~7974
0.~~4642
0,~~360
omb~~3806
C~~2182
▁death~~311
▁Did~~3109
▁Die~~12305
▁personal~~1572
anche~~13091
omm~~5964
▁richest~~2573
oms~~2621
▁Dis~~8002
omp~~6076
adian~~9491
▁romantic~~10430
omy~~5303
▁professor~~5849
ometown~~13827
▁spreading~~7842
uns~~10705
unt~~2780
▁myst~~9219
▁Each~~2883
▁universal~~939
▁principle~~2675
▁ultim~~9894
▁mistake~~4405
▁needle~~11204
una~~12045
ulous~~11605
und~~7017
une~~7217
▁Palm~~12767
ung~~8101
unk~~7495
▁stepped~~4797
▁lake~~6724
▁humble~~8087
▁Batter~~11034
▁Bank~~6128
cyclop~~11983
▁entered~~1512
▁employ~~1515
▁Band~~3203
▁poetry~~5983
▁Teen~~8734
▁rural~~2555
▁legs~~3256
▁FO~~14133
ether~~12399
▁reveals~~7025
itions~~1982
▁India~~5374
▁politically~~11341
▁contribute~~6991
▁inten~~6936
ting~~3155
▁inter~~2968
▁lanes~~11813
interest~~8459
▁violin~~12087
▁supern~~11628
▁traff~~11424
▁Wind~~2947
▁ar~~2371
▁ap~~8325
▁aw~~3527
▁av~~6770
▁au~~8194
▁at~~124
CA~~5175
▁ax~~9141
▁medic~~9660
CE~~4916
▁media~~2006
▁ac~~6316
▁exactly~~1869
▁Monster~~11863
▁ag~~1994
▁af~~12149
▁Abed~~12687
▁ad~~5588
▁ak~~10450
▁medit~~9243
▁helps~~5611
▁an~~397
▁am~~1350
▁al~~4378
▁philanthrop~~6674
▁blown~~7777
Ch~~2339
▁Unfortunately~~5213
Dollar~~13402
▁damage~~6240
▁argue~~2119
▁County~~10380
utical~~13228
▁implic~~10932
▁fo~~7031
▁marry~~9394
ix~~5901
▁plan~~4445
ustain~~11935
ip~~2852
is~~2685
ir~~2588
▁innovations~~2084
▁spot~~2385
iv~~1431
▁Berg~~13673
ih~~10920
ik~~8742
ij~~8668
▁play~~919
il~~917
io~~1939
in~~2375
ia~~921
▁rock~~736
ic~~47
ib~~443
ie~~2833
id~~1102
ig~~1161
if~~3347
▁gem~~8607
▁gel~~9631
▁gen~~2518
▁entr~~7994
▁did~~575
▁die~~4224
▁candy~~10637
▁gef~~11542
▁Bush~~7215
▁dil~~5075
▁Colle~~12953
▁dis~~686
▁div~~9546
▁get~~200
▁crows~~9560
▁Instr~~3625
▁ger~~6548
ternal~~5650
▁butt~~11209
elli~~11555
ello~~12229
▁constant~~3823
▁fruit~~10187
elle~~2966
▁sque~~8655
▁GPS~~11190
elly~~4761
keley~~13412
kin~~5779
kil~~5114
▁drivers~~11697
kelet~~12526
aneous~~4927
▁message~~940
▁Pres~~4054
▁Pret~~13327
verage~~4324
rome~~11653
▁Prem~~10879
programm~~11685
800~~10043
▁viol~~6986
▁electron~~9674
agon~~5684
▁Teszler~~14104
frast~~10627
isses~~7003
agog~~2045
▁compos~~1981
▁capability~~9658
psych~~12577
human~~8613
▁claims~~5169
▁figure~~2074
▁seine~~13740
yer~~7637
agos~~13083
▁detail~~1850
amour~~10085
ortun~~1782
▁builds~~2322
▁flew~~2775
▁activ~~2401
▁shoe~~10552
▁fat~~8461
▁influence~~6803
▁flex~~2421
▁far~~733
▁fas~~9957
▁fal~~10362
▁fam~~4612
▁shop~~4511
▁demonstrate~~7265
▁show~~87
▁shot~~2615
antom~~14126
▁George~~5013
▁advent~~10327
▁fac~~7289
opt~~9916
▁circuits~~2416
opp~~8316
ops~~2788
▁goods~~8773
opy~~7397
unting~~6495
▁airport~~4310
ope~~3382
▁club~~8602
▁Original~~13767
▁flower~~9670
▁diving~~6720
ETI~~13868
▁homes~~784
oph~~3693
▁designers~~4169
▁Sym~~3660
bro~~12976
▁Syn~~11178
▁much~~224
▁bigger~~1283
▁maneuver~~2307
▁Square~~9937
Are~~11336
▁Syr~~13049
▁underneath~~6730
▁chap~~2326
▁benef~~8530
▁char~~6424
▁cham~~12785
▁abuse~~5482
▁worry~~6521
▁believe~~1529
▁Evolution~~1255
▁carefully~~9993
▁Qual~~12419
▁Rap~~12485
▁gonna~~4184
▁Absol~~12658
▁Quad~~9792
▁translate~~1712
een~~13734
▁Another~~6055
genda~~13858
genöss~~13932
▁revel~~9369
▁sign~~3334
▁Sche~~13285
burg~~3014
▁Village~~11030
▁Schl~~14022
astic~~958
▁Schn~~13844
▁Niger~~13314
▁biodiversity~~163
▁manifest~~918
▁pays~~5319
▁cables~~6871
▁Schw~~12719
▁traveled~~2794
▁amongst~~2095
▁disappeared~~3355
▁Teller~~10495
▁hierarchy~~10395
▁Montana~~10803
zur~~12689
▁kids~~1061
oren~~4732
ored~~177
▁fluct~~12108
zub~~13465
▁emotion~~3548
▁14.~~10054
oret~~12765
▁kidn~~10230
ores~~4541
▁blindness~~9372
lief~~10780
▁trium~~5930
▁Photosh~~8315
▁irony~~2541
ustrial~~4605
▁inside~~389
lies~~5781
assen~~13895
▁grew~~2571
agger~~10254
esty~~11358
ihad~~13377
▁tick~~2939
wa~~10622
imin~~2703
▁computational~~6914
▁York~~4791
imit~~12605
unters~~9870
▁loads~~7700
▁experiments~~7959
▁slope~~11079
▁sym~~891
bert~~11158
▁syn~~4806
▁tom~~8672
form~~1643
▁too~~828
▁apartments~~8881
uted~~4467
kop~~13877
iture~~4789
ford~~10898
▁expert~~3829
▁toy~~3797
berg~~3655
▁agreement~~9965
▁fantast~~11455
▁Flor~~13347
▁top~~436
▁tor~~4907
▁fantasy~~2734
▁tot~~6882
▁tou~~635
fort~~9307
ique~~10031
▁sometimes~~3933
▁attrib~~7415
▁dense~~600
iqu~~1143
▁Mount~~877
▁Population~~13619
▁evil~~9197
▁transformative~~2577
▁drill~~10807
▁percentage~~1012
▁resolve~~5455
liche~~13196
▁went~~1158
▁shake~~3529
▁Techn~~10536
▁domestic~~6200
ship~~8755
▁Medicine~~9623
▁butter~~8671
▁covers~~3071
▁pleasure~~4088
▁caus~~10887
▁chart~~1749
▁40,000~~433
▁primitive~~9118
▁Mehr~~13866
▁Blind~~12444
▁drought~~11085
▁responsible~~8460
▁whales~~5189
▁regener~~8642
▁sing~~1334
▁charm~~9706
▁harmony~~9319
▁witnessed~~2926
▁langu~~12280
▁SARS~~5364
▁protein~~6653
▁else~~1665
▁experiment~~3273
▁financial~~2116
sterdam~~14122
▁instruments~~1331
▁painful~~3210
itative~~11743
▁Marshall~~8228
▁appro~~6314
▁cre~~5757
▁task~~3277
erves~~9831
▁Nest~~13809
▁experiences~~2445
erved~~7693
▁pulled~~5652
▁idea~~150
▁experienced~~2761
▁Patent~~12842
▁Pilot~~13484
▁tast~~10335
▁dressed~~7790
iously~~1607
▁structure~~2063
▁bottles~~4325
▁might~~1279
▁—~~3487
▁–~~13027
▁ord~~8372
▁add~~3608
▁ade~~9569
▁orb~~8436
▁adj~~4960
▁wrong~~2770
▁adm~~7182
▁journalist~~4181
▁Antar~~5190
▁Hot~~8282
▁doctor~~1440
▁How~~1051
father~~5034
▁hired~~1551
▁Hor~~10799
▁Hol~~7135
0~~5612
▁Hon~~2961
▁countries~~1635
kun~~13745
meister~~11243
▁phenomena~~10781
▁precious~~8117
▁Hob~~8251
▁practice~~1983
▁private~~3417
▁tum~~11657
▁relig~~9309
▁account~~6003
onie~~13457
▁dioxide~~11239
▁bother~~3200
▁angiogenesis~~13570
icted~~5577
prof~~1228
▁Philip~~10474
▁its~~1668
▁problem~~104
▁conservation~~4262
▁Jason~~474
▁4.000~~8858
▁monkeys~~8323
▁precip~~10156
▁Tier~~12668
▁Agr~~8714
itet~~13625
die~~13675
dig~~7981
▁Standard~~7390
iter~~4745
ites~~5081
▁Age~~6413
iten~~13264
anna~~11601
▁distant~~1647
ited~~748
▁embed~~11523
▁fastest~~12091
round~~5200
dis~~6172
riest~~11493
ville~~3923
▁academic~~2916
▁abstract~~3232
▁bra~~5975
▁Harry~~9189
▁tree~~7600
▁Pitts~~8275
▁Give~~1589
▁wherever~~4192
▁vacc~~5321
▁Femin~~11101
heres~~8376
▁Tibet~~7583
addy~~5507
▁stell~~13215
▁Wander~~13319
▁careful~~2058
▁mixed~~10453
▁hipp~~9121
▁Math~~11090
▁extension~~6484
▁adapted~~3800
ummer~~8485
▁convinced~~2008
▁dict~~8904
▁sacrifice~~8560
▁openness~~1421
▁30,000~~10270
▁That~~659
apeut~~12468
▁cheese~~10456
▁Cass~~12000
stel~~12723
erm~~5154
▁mortality~~8549
▁dich~~10322
rue~~1157
▁Matt~~11272
▁detection~~8443
▁fully~~7104
box~~4031
boy~~10910
▁sensing~~7755
▁military~~2304
▁procedure~~8643
▁erzielen~~13959
alth~~10797
bor~~4064
ein~~12012
bot~~8361
bou~~9351
▁Verm~~9843
bow~~4925
▁Vers~~12661
▁phone~~1221
▁specifically~~4033
bon~~770
▁Vert~~14212
▁asleep~~4764
▁Wur~~8583
bod~~11890
▁Wald~~12993
▁lunch~~4639
iana~~11587
ufact~~10479
▁hot~~541
▁Wall~~8752
▁how~~239
When~~4748
▁Walk~~9183
▁hor~~8940
▁Allen~~8227
iant~~2987
▁hom~~1975
▁everywhere~~942
ians~~1030
▁Mö~~3498
▁hob~~8212
▁lies~~152
▁mentally~~5565
▁Jew~~11722
▁wake~~1598
▁Lippen~~12244
pers~~8918
▁trusted~~6985
▁thin~~6933
▁Alexander~~9530
aries~~7577
▁Jes~~13840
ays~~2276
ood~~841
▁Africa~~3938
▁flavor~~5125
oom~~5087
ool~~6866
▁frustr~~5381
oon~~5722
▁analysis~~1519
ook~~4439
▁Hy~~6701
▁holding~~1056
oot~~8286
▁pleasant~~1871
▁nobody~~3323
▁Dollar~~13018
Ber~~13021
▁previously~~5262
apped~~7442
▁altered~~8011
▁Beach~~4316
▁Panz~~12265
▁teenagers~~2799
▁enabled~~4016
▁photograp~~5089
▁southern~~5431
uls~~9131
▁Taliban~~5724
▁mention~~4601
flu~~9663
▁liter~~3883
ult~~6056
ulu~~10718
▁enables~~6161
ull~~8182
making~~1367
ula~~4421
ulf~~513
uld~~14030
▁pass~~2612
▁Bali~~11334
mented~~1971
▁underst~~8512
▁Intuition~~13337
▁Ball~~8430
▁seal~~12681
▁exciting~~102
▁frightening~~6713
uan~~9047
▁Bald~~11559
agent~~13653
▁found~~810
▁image~~4136
▁tele~~5697
aurus~~12825
▁selected~~1256
▁tell~~71
▁rape~~9437
▁size~~1305
▁college~~5004
▁alter~~8301
▁discovered~~2578
▁policies~~1920
▁philosoph~~2520
ping~~738
▁affected~~1088
▁architect~~6873
itamin~~5365
▁Simon~~3769
▁Will~~2831
▁shift~~3862
mat~~13246
ena~~10241
▁interact~~1292
▁Wild~~7618
▁gr~~1595
▁gu~~5850
ioxid~~13821
▁desert~~9091
▁gh~~6531
▁gl~~1395
▁go~~381
▁fantastic~~3632
▁Stat~~12173
▁environment~~350
▁ge~~3502
mal~~505
▁guten~~13678
man~~3055
▁Galax~~11812
omen~~8525
▁Georgia~~10766
geb~~11572
▁Nelson~~9958
q~~9257
▁Golf~~13568
onders~~5126
omes~~6647
▁exter~~4800
▁territory~~9930
omet~~5923
▁Sylvia~~5116
▁Bruce~~5270
immer~~139
▁Mus~~4043
▁units~~7258
erent~~12369
designer~~13066
▁target~~10023
estern~~8397
▁Rad~~1645
▁Like~~5513
▁vertical~~8090
▁Ram~~9261
gen~~579
▁Cyber~~10993
▁Ras~~8556
▁Rat~~13004
gem~~10535
▁sexual~~5492
▁mus~~7440
▁mur~~6778
▁visually~~6147
▁mut~~2798
▁organisms~~6553
▁taught~~2038
▁skills~~1285
▁Toilet~~11529
▁coffee~~4218
beit~~11648
She~~7054
iments~~864
enz~~12453
inity~~12170
isions~~10770
▁activity~~581
▁Trick~~13733
▁breed~~7448
▁für~~13722
olit~~10878
▁acknowled~~5972
beg~~13876
ibly~~7658
ually~~4111
▁most~~38
▁EDI~~14196
▁reduce~~1963
▁crossed~~10822
▁40-~~8518
agin~~7638
▁DNA~~4969
▁partner~~233
▁ende~~7299
▁Imper~~13116
▁motors~~7083
▁addition~~7145
angible~~12202
▁400~~2192
▁pushed~~1932
▁Lego~~11461
▁restore~~3711
▁talent~~1675
ateur~~13799
▁punish~~9900
▁Keith~~11509
▁fish~~293
▁shar~~12165
▁number~~811
auce~~14053
lag~~13355
▁clos~~10643
G~~364
ory~~4332
▁basis~~5203
ort~~2664
▁repeated~~3428
ors~~2797
orp~~10772
▁hometown~~9395
orn~~5560
orm~~7476
ork~~9727
▁basic~~1488
ord~~5663
ore~~3696
orb~~6693
▁hoped~~9456
ora~~2960
▁obsessed~~6231
▁Mich~~4180
ertain~~8862
▁sequences~~11229
▁Lugo~~14189
▁millenn~~6193
thing~~8420
▁relation~~10246
▁Tempest~~10559
think~~6278
▁grateful~~9537
▁genocide~~2682
▁conver~~617
▁BR~~12967
▁dele~~10083
ence~~6515
▁convey~~3858
▁Dave~~66
▁everybody~~1016
▁worth~~2284
▁BF~~8567
▁BG~~5467
▁Somet~~13963
afen~~13281
fast~~11487
▁imagined~~5103
▁BL~~560
.'~~8902
▁BJ~~12800
▁streets~~1709
▁profile~~7776
▁conven~~8028
▁corporations~~4565
▁Br~~6683
▁replaced~~10704
▁guitar~~9745
▁By~~956
▁Sport~~11564
▁Be~~1094
▁disorder~~10630
▁coordin~~5210
▁Britain~~6493
▁Bo~~6137
▁Bl~~6868
las~~7526
▁Bh~~13162
▁Bi~~5436
▁Ven~~11469
▁commercial~~5298
ented~~8171
▁Pentagon~~12247
ighted~~8805
▁cruel~~4758
▁yourselves~~10855
▁airplane~~11087
▁sensitive~~857
ighter~~5006
▁useful~~2843
10~~10179
▁wrist~~2849
12~~11494
▁Hyper~~10546
▁Fusion~~11965
▁abh~~13156
orge~~5020
▁FOXO~~13872
▁chief~~9404
1,~~4204
1.~~5654
lich~~12783
iform~~9492
▁Secondly~~6617
mitte~~5423
DE~~12429
▁September~~3793
DA~~10421
▁ordinary~~2048
▁bought~~3238
▁collaps~~12456
DP~~12761
Do~~5556
▁Licht~~11955
agina~~13647
able~~765
▁reflected~~11345
▁time~~479
ouses~~6174
De~~8871
imon~~7304
▁profitable~~10618
▁essence~~8488
▁magical~~7157
▁elect~~10949
▁Imagine~~1385
▁psychologists~~11301
▁properly~~4560
▁proteins~~4971
201~~7121
200~~7729
▁tip~~628
▁surgeon~~5904
▁tit~~7786
normal~~10010
▁Flag~~10276
▁Grad~~12540
▁Show~~11123
▁tie~~5882
▁typical~~3478
▁tin~~11416
▁apartment~~9469
ering~~5987
▁tim~~6297
▁interview~~6225
▁2008.~~9597
▁sheet~~3274
▁sheer~~7787
▁River~~5411
▁sheep~~4646
▁advertising~~10531
▁Johanna~~13712
stre~~10406
▁delivered~~2075
▁hybrid~~7701
▁drink~~3968
▁Fort~~5603
▁Benjamin~~6270
▁distingu~~11964
▁gang~~8358
▁seawater~~4353
▁Barbara~~10317
▁alph~~10576
▁Banglades~~12334
Test~~13459
▁demonstrated~~7198
We~~2698
▁predators~~5234
▁peaceful~~6747
▁Pist~~10176
▁2008,~~8926
▁this~~130
▁repair~~6639
former~~11451
kilometer~~5146
raising~~9038
▁billion~~3115
ges~~49
ger~~4278
▁starts~~4172
▁optim~~1917
▁concert~~9053
▁fall~~3662
▁trading~~6166
▁acting~~3383
▁decl~~3465
▁activists~~7956
zel~~11976
ged~~4025
▁seat~~4905
▁Foss~~11192
▁Schizophren~~13442
▁concern~~2613
▁seas~~4260
gel~~10791
▁Shang~~13883
▁bask~~4040
▁allow~~3836
▁Hitler~~12481
▁Transcript~~17
▁valuable~~2873
▁base~~4462
▁Bau~~13467
▁event~~4665
▁variation~~1837
▁grain~~4526
▁sold~~4515
▁cattle~~5900
▁destroying~~5094
▁dece~~9680
oven~~12685
fghan~~12846
▁abs~~5770
▁solo~~3051
uana~~13676
▁Norway~~6340
▁accomp~~12623
▁Angeles~~6775
ency~~4999
▁hole~~6964
▁hold~~1378
rade~~5758
▁Organization~~9651
▁Grab~~3515
▁learning~~889
oved~~9018
▁including~~5825
▁commodity~~4708
▁Gras~~11951
rupt~~11027
▁holy~~7848
▁Journalist~~6212
▁fried~~10454
▁cage~~8385
▁carbon~~5061
▁turt~~5122
▁ter~~8047
▁curves~~11477
▁turb~~6514
▁listened~~6740
osphere~~11468
je~~10485
▁generally~~3413
ja~~4335
▁turn~~1965
▁ped~~2044
▁stand~~123
▁lamp~~8092
▁pen~~6832
▁evolving~~8760
▁well~~825
▁per~~587
▁revenue~~10739
▁turns~~249
▁patch~~5073
▁pet~~3369
▁cloth~~5784
▁Greece~~9978
▁colony~~11859
▁conversations~~10675
▁drast~~9092
izer~~6039
izes~~6059
▁Evergl~~14141
▁conne~~13788
▁transform~~1046
▁Joel~~11928
ized~~1194
▁foundations~~2139
▁queen~~11499
ately~~4693
▁spoke~~5896
▁marks~~4656
ision~~2093
mare~~4889
arts~~10266
▁encounter~~10065
▁assum~~8581
▁individuals~~5088
criptions~~6125
ocal~~12107
▁garden~~4683
▁hire~~1022
ueller~~14001
mark~~1700
mart~~7525
▁Three~~6932
arte~~13131
acre~~7450
arth~~3811
▁Derek~~12322
▁Lie~~11773
▁Wend~~11113
▁computing~~10953
▁surgery~~5906
▁measures~~7832
▁manipulate~~8324
▁Ein~~13613
▁Schach~~12164
ocampus~~9122
▁expanding~~12086
▁Eis~~11560
iversity~~13454
▁circumst~~10689
▁million~~2746
▁vehicle~~10931
^~~13818
▁Some~~2751
ivity~~3524
▁cabin~~4809
▁rational~~3307
▁Ost~~12894
ilty~~9823
▁Gross~~4523
▁word~~3218
▁wore~~5818
▁showed~~4146
▁Galapagos~~5207
▁worm~~622
▁work~~904
iolog~~8517
▁getting~~469
▁Switzerland~~8078
▁ethnic~~9799
▁examples~~3377
▁eradic~~1566
ials~~7305
▁network~~3508
▁categories~~6643
▁RB~~13774
par~~10139
pat~~8651
▁kitchen~~6811
▁prot~~7438
▁prov~~2092
s~~35
▁reminds~~6470
▁prom~~1491
▁prol~~4485
▁fundament~~11041
▁recognize~~3706
▁relevant~~8978
bage~~4251
▁wait~~3475
▁prof~~10369
pal~~13111
pan~~12024
▁prob~~7362
▁Arab~~10213
▁Dur~~10103
▁welt~~13899
imeter~~8503
▁individual~~281
hrase~~8977
oid~~4658
appen~~13267
▁parallel~~6578
▁biology~~6618
▁Doha~~11826
olith~~7256
▁Dub~~13531
▁Dun~~9160
aughters~~8555
ois~~11072
oir~~5380
▁mother~~2484
▁mainstream~~6313
▁anecd~~9097
▁eng~~10688
▁end~~447
band~~9886
▁Susan~~8524
▁damn~~6662
▁universes~~11631
▁pursue~~1938
▁features~~6814
▁ens~~1774
▁Music~~3656
▁habe~~11738
▁ent~~3790
▁measure~~1629
uba~~11714
▁regret~~8010
▁exercise~~1380
▁operate~~5338
▁wouldn~~1588
▁eB~~11216
▁quer~~13274
▁tent~~270
▁confirm~~7018
▁tens~~466
stronaut~~13972
▁terrifying~~4886
▁admit~~3001
▁wedding~~9146
▁participants~~11057
▁tend~~334
▁eg~~12558
▁Indep~~1517
▁ec~~6501
▁hundred~~555
▁injuries~~8620
▁Whereas~~6182
▁en~~2361
▁em~~757
▁el~~4924
▁ground~~749
▁neuron~~9128
▁ev~~6535
▁Tut~~8199
▁et~~7000
▁es~~8077
▁er~~570
▁ep~~7458
▁display~~2433
elihood~~6045
▁ey~~8185
▁ex~~1805
▁reasonable~~5244
▁geograph~~7307
▁equality~~5586
mot~~9488
mon~~8330
▁Lesters~~11609
mod~~4980
nost~~10525
▁infrastructure~~5352
▁instance~~3702
▁comprom~~10787
▁switched~~6409
▁Republ~~8728
▁asked~~1481
▁Dick~~10475
anth~~12571
▁pattern~~2402
▁flowers~~4232
ingly~~58
ante~~7224
▁60,000~~8391
▁possibility~~2360
▁laughed~~6331
▁Dro~~10063
▁lions~~9101
▁centers~~4585
▁gap~~1764
▁gas~~6742
▁gar~~4933
▁alive~~3756
▁Ocean~~5164
alem~~12013
▁sidewalk~~8198
▁Schachtel~~13884
▁due~~6095
▁cooperative~~9880
oute~~13737
▁cups~~7915
outh~~5957
▁dum~~10093
▁gam~~3470
▁gal~~8630
▁gan~~13724
▁Prim~~12608
▁Bis~~12114
▁online~~3795
olog~~6502
▁DARPA~~8362
▁Sydney~~11857
▁Call~~10626
▁Priv~~11014
dings~~9842
▁Operations~~10924
▁Lyn~~13077
▁Franz~~9719
▁lessons~~1807
othe~~4027
▁acceler~~6262
▁balance~~8050
AR~~9661
ouble~~10994
▁Nic~~11771
▁nut~~9579
▁criminals~~10930
road~~10498
lands~~7621
▁century~~2511
▁psych~~4995
▁collectively~~5579
▁hills~~10804
▁excit~~9999
▁polar~~9268
▁integrate~~9135
▁Inf~~13614
▁Bal~~8265
▁Ind~~12190
▁Guardian~~11330
▁Fest~~12638
▁Inc~~8592
▁Inn~~8196
▁furniture~~4793
▁clinical~~2437
▁["'~~13765
▁Santa~~7386
▁official~~3554
▁Int~~13143
▁Ins~~10258
▁Coast~~4082
▁pairs~~7314
▁Using~~10562
▁Histor~~11425
▁excellent~~7113
▁clip~~2235
itation~~4388
▁Khal~~13738
▁Khan~~13057
▁insurance~~6001
▁---~~12011
▁Egyptian~~13020
▁anything~~1878
▁eigen~~13748
lder~~11406
▁weapon~~10915
▁Recycling~~12787
▁exponent~~8682
▁clim~~4870
▁clin~~10288
▁swarm~~9809
▁roof~~7520
▁chang~~12948
▁cube~~7654
ctive~~3147
▁fight~~667
▁room~~476
ember~~11294
▁root~~5009
▁dark~~36
Ah~~11853
manuel~~7210
▁mechanisms~~6543
▁Franc~~12999
▁stops~~3135
▁Charlie~~11048
▁interf~~3220
▁Recy~~12788
S~~1679
▁intern~~1702
▁separ~~7926
Al~~9997
▁manage~~906
▁dent~~9105
▁dens~~5336
▁definitely~~5488
▁Quer~~13859
▁following~~3365
▁Thu~~3177
▁Cassini~~7569
▁bere~~13983
▁navigate~~9352
field~~4623
▁The~~90
▁insight~~7041
▁lets~~3680
▁cluster~~11774
▁authority~~1560
▁NO~~12821
▁pigs~~4645
▁phones~~6350
aster~~10342
asten~~13731
▁destroyed~~6652
▁dramatic~~559
asted~~4058
▁denn~~13689
anse~~137
▁Scient~~7096
▁corruption~~9048
nitt~~11713
Yeah~~4231
▁budd~~13591
▁poem~~5759
▁unre~~8910
▁worrying~~10683
u~~571
▁rice~~9342
▁poet~~5984
▁thanks~~3805
▁rich~~545
▁evening~~4771
oral~~3185
▁antib~~10577
dollar~~3351
gu~~9455
€~~14222
zing~~4075
amera~~13404
▁Jordan~~4328
▁Christ~~6466
children~~12569
▁items~~8677
ochem~~3546
istern~~11883
▁polit~~11354
▁amazing~~4228
▁Dutch~~3012
▁compassion~~4213
▁player~~3446
immy~~14234
▁polic~~1817
▁ecosystem~~822
▁eBay~~9915
pless~~11729
▁Extrem~~3681
▁conflict~~4097
▁played~~648
▁polio~~5271
emat~~11643
▁bar~~1866
▁bas~~3521
▁bat~~709
▁your~~641
▁bay~~5165
▁orange~~8322
▁seems~~3730
▁amounts~~4489
▁victim~~5802
▁bab~~1110
▁bad~~1034
fall~~7770
▁Council~~11942
ius~~3499
▁bal~~8425
▁ever~~83
▁cosm~~7557
▁lists~~9787
hyd~~3086
▁disasters~~9024
▁Bangalore~~5801
▁chem~~597
▁Jamie~~11874
iban~~14081
atories~~9662
▁Victor~~11207
▁cost~~3287
unes~~11078
▁frequently~~11380
▁motiv~~1426
▁Within~~5354
▁immense~~9306
▁controls~~1354
▁Master~~7328
▁spectrum~~1947
ritten~~10141
burger~~10847
zero~~8423
▁controll~~3848
▁genial~~7426
▁guarantee~~8962
▁gall~~7988
▁leaves~~5397
aba~~1119
abb~~10435
▁experiencing~~7836
abe~~9950
▁values~~1147
inos~~12089
abl~~12180
▁Cour~~7164
▁Isa~~12666
▁Coun~~13537
abr~~3619
abs~~2933
▁spir~~9931
▁understood~~362
▁clubs~~2562
aby~~10198
gh~~7351
▁Isn~~8290
▁arrow~~8017
itarian~~11924
K~~2563
▁negot~~6900
▁Sier~~13611
▁exagger~~10547
▁South~~5223
free~~5307
▁naked~~7493
arin~~11993
▁Sieg~~12410
▁greatest~~380
▁LOL~~8985
▁taxes~~1024
▁preventing~~7906
▁venture~~2112
▁sle~~4932
▁billions~~826
▁backwards~~1415
▁Berkeley~~4796
aku~~13420
▁Improv~~11050
▁congest~~8840
stelle~~13921
▁either~~461
▁adop~~8827
▁putting~~4211
▁gestures~~6825
▁stereotyp~~11091
▁threshold~~6641
▁competitive~~1267
▁song~~950
ineering~~8424
armen~~12917
rical~~10008
▁test~~1633
▁sons~~5585
obile~~4052
nte~~13491
▁electricity~~3666
iale~~10232
aste~~8554
▁disappear~~6848
asty~~9547
▁Programm~~9913
▁Organ~~12030
brot~~12769
raft~~13166
ickr~~12755
▁still~~1294
▁Almost~~5273
▁Mill~~13662
▁rigid~~6338
▁failure~~5599
ital~~932
Not~~4223
American~~7964
▁relations~~5885
▁20,000~~7731
▁ultimate~~5444
oston~~13473
uation~~10261
▁Ghana~~6953
▁Princeton~~7301
hour~~6336
der~~4059
des~~11885
ility~~4817
▁Act~~8789
▁beaten~~7722
▁autor~~13919
dem~~9277
den~~165
▁Caltech~~11232
▁the~~10
▁Acc~~11854
▁emails~~6359
ded~~3300
▁Zeit~~12249
▁elderly~~9994
▁Mother~~11372
▁swimming~~6712
▁Nicholas~~8118
▁inst~~6727
produ~~4722
▁Well~~1243
▁datab~~11177
▁infection~~4899
▁operating~~1044
▁inse~~7513
▁trag~~5516
▁bom~~9213
▁trad~~6150
▁hits~~3134
angt~~13589
stil~~7936
▁juice~~6960
▁li~~9882
ilosop~~11490
▁archite~~13964
▁burn~~2414
▁wife~~4156
stit~~3143
▁diox~~13190
▁Jesus~~8582
Don~~8885
▁materials~~3068
▁exper~~13646
▁database~~9808
▁Garden~~4688
▁Medical~~7748
▁focused~~7368
▁aging~~6477
▁talked~~5726
▁represents~~7259
▁360~~10701
▁Hang~~11864
▁fashion~~4799
â~~12599
▁ridic~~11961
▁European~~5136
▁Vent~~7073
▁create~~1023
iens~~9096
ient~~2333
▁vulnerable~~5206
▁telephone~~11086
indert~~13677
▁Smith~~2639
alph~~8336
iend~~11862
iene~~13888
What~~3523
cken~~13560
▁Californ~~13203
cked~~4823
▁slightly~~1955
▁philosopher~~11489
▁standards~~1683
▁throwing~~5723
▁Virt~~12409
▁lungs~~7843
▁suck~~6806
cket~~7318
▁such~~1649
▁Work~~7611
cker~~3874
▁RISD~~10492
▁audience~~2335
ement~~2707
▁Software~~13074
arian~~8687
▁fantas~~10838
▁Abraham~~10783
▁each~~2225
▁neighbors~~4152
pend~~11567
▁Third~~8548
▁generation~~2359
2,~~4778
2-~~5700
2.~~6115
▁migration~~9483
▁mathematicians~~11850
▁Arch~~10818
▁phenomenal~~8283
roke~~6754
▁Holl~~2975
▁adoles~~6361
▁bold~~2153
▁check~~3434
▁reality~~3403
▁measuring~~1705
oke~~2782
Å~~14170
▁copy~~1987
▁Guard~~12121
▁Over~~2200
▁lucky~~5308
▁relative~~992
▁mosquit~~13579
▁smaller~~787
ashed~~4162
▁eld~~6902
▁losses~~6141
▁shopping~~2013
▁teaching~~1855
▁Girl~~9418
▁Bu~~9480
inding~~6047
▁hadn~~5291
▁digest~~604
▁push~~5192
önen~~12446
▁continents~~872
▁Dame~~12279
iden~~2848
ideo~~13418
▁fascin~~10483
mental~~2174
▁AR~~7740
ided~~9000
house~~5916
fish~~5182
▁destruction~~9392
▁brilli~~8892
AIDS~~9657
aller~~12366
cture~~6317
orient~~12611
ider~~2869
ides~~146
▁km~~11811
▁kl~~13290
▁ko~~14061
▁binary~~2927
▁Twe~~8024
▁flow~~1439
▁ke~~8754
▁kg~~8696
▁Two~~693
eling~~1463
▁magnificent~~7425
▁nose~~7709
▁Kunst~~13702
▁absorb~~9699
print~~9835
pping~~1055
▁kr~~5172
▁second~~1381
ë~~13323
▁desktop~~9883
ED~~11213
EG~~12686
▁comments~~4171
▁Ground~~12248
EC~~7822
▁songs~~3915
▁Bruno~~8721
▁physician~~8489
ET~~4351
holt~~14190
mma~~13603
ES~~7943
▁Charl~~12203
▁terrorism~~9962
En~~12233
▁economist~~3186
▁redesign~~8997
▁creatures~~308
omin~~9435
Ex~~1450
â~~14004
▁terrorist~~8958
▁extr~~6780
á~~11433
Es~~13505
Er~~14044
..."~~13751
ç~~11071
ulture~~4726
▁Kindergarten~~14056
▁members~~2646
▁Ret~~9779
▁socially~~1293
▁excuse~~9818
Okay~~4179
kol~~13526
▁mix~~1706
▁Transformation~~14162
▁sleep~~4147
▁mit~~6648
▁mis~~4936
▁mir~~2026
▁Rez~~14236
▁durch~~13946
▁Red~~1542
▁min~~8715
▁mim~~7862
▁mil~~6608
▁interest~~3197
▁Puber~~14048
▁Rec~~11541
▁mig~~9440
▁Rem~~9504
▁Ren~~10089
▁mid~~395
▁mic~~4019
lease~~13514
▁enc~~3253
▁dimensions~~4834
park~~13127
▁answered~~7855
▁though~~95
▁started~~573
▁properties~~10775
▁multinational~~4564
▁Trans~~9422
ylinder~~9495
Problem~~14068
b~~623
▁Online~~11208
▁institutional~~1089
▁straightforward~~11443
orgen~~12315
▁At~~2251
lied~~11255
▁mood~~8095
▁moon~~5027
▁enh~~8317
▁states~~5091
▁clock~~5508
▁199~~5357
▁198~~678
▁keyboard~~8126
▁193~~2643
▁associate~~2630
▁191~~9543
▁190~~6569
ages~~3234
ager~~4080
▁195~~2585
▁194~~2791
▁actor~~3385
▁accident~~3950
▁Masse~~12393
▁nonverb~~11772
▁enl~~8170
▁millimeter~~4454
zu~~12156
▁instead~~1083
▁Viol~~11299
▁Ac~~8147
zw~~9014
▁excess~~10642
▁divide~~2754
▁dominant~~8781
ation~~1302
▁Ill~~6133
▁exploration~~5031
acing~~2014
▁leader~~5738
▁momentum~~5461
▁farmer~~6042
▁drunk~~11350
▁shel~~5409
▁Archite~~4501
▁mobil~~9337
essp~~13857
▁prime~~9051
▁honor~~2662
▁State~~4314
▁Tie~~12964
▁blur~~7276
▁sauce~~12400
▁Hur~~7985
▁based~~5997
▁Fund~~7605
esse~~12911
▁Never~~7045
▁Defense~~7734
▁blue~~135
▁Carter~~7523
▁Funk~~14195
▁afternoon~~6436
ka~~8509
▁developed~~209
ke~~4030
▁Hong~~11245
ki~~12702
ko~~1135
kn~~10662
kl~~11482
ks~~3723
▁Bett~~11421
▁kinds~~1903
▁solutions~~1565
▁Am~~6016
kt~~9884
▁unique~~5149
ky~~6779
▁side~~297
▁enorm~~10096
▁chose~~2606
▁Ober~~11403
oots~~3920
▁dreamed~~4659
▁safer~~9667
▁depr~~1290
▁website~~6360
▁cream~~10447
▁bench~~1699
▁University~~3392
ooth~~10372
fine~~5961
▁FG~~13674
▁Plan~~10785
▁London~~2816
▁Fr~~8763
▁Intern~~12888
▁15-~~1651
▁surely~~5426
▁Apart~~11565
being~~983
▁Fi~~10954
▁Play~~1250
▁Cambridge~~2210
▁Fl~~7354
▁unbelie~~8992
▁American~~4779
8~~4203
▁Kiribati~~12728
▁Fa~~7955
▁depression~~1416
▁Fe~~9805
▁flock~~6333
▁imm~~1913
▁kind~~262
▁king~~2532
▁zeit~~9853
▁fluid~~615
▁programming~~7279
▁Biom~~13151
▁anticipate~~1736
▁Sally~~13144
▁challenging~~1561
oster~~401
attle~~7350
▁imp~~2506
▁Although~~814
▁Greenland~~11480
▁informed~~9107
▁athe~~3329
▁stuck~~4050
▁volle~~13202
▁traditions~~9266
▁career~~1132
▁organized~~1503
▁satisf~~9452
▁Kids~~1313
▁defen~~9553
▁leads~~1465
▁newspapers~~11212
ving~~3127
▁Freit~~13750
▁circles~~6088
▁Foundation~~4249
▁theory~~3286
▁Urs~~13931
▁meters~~2299
fang~~11891
▁Health~~8137
▁machines~~8419
atures~~7597
▁enemies~~4176
▁philosophy~~5015
▁produ~~6204
▁spect~~10310
▁Flex~~3807
▁mobile~~1220
ika~~9076
▁ed~~8165
▁displ~~8031
ike~~2144
▁raped~~5569
ozi~~12225
▁Yemen~~12859
▁compete~~5860
▁opportunity~~2903
▁woke~~4149
alog~~6771
▁comp~~2737
anders~~5670
tempor~~12413
▁Tun~~9370
▁come~~331
cyclopedia~~9918
▁comb~~1803
▁ages~~2019
▁comm~~5042
▁Snow~~11446
▁dump~~799
▁Index~~10896
point~~4291
▁Symb~~13370
rad~~5434
▁equations~~11807
▁savings~~5403
andal~~9963
▁dumb~~1240
▁topics~~2209
▁volunteer~~5800
▁Alphabet~~12858
▁dumm~~12455
▁shame~~7337
▁couple~~382
▁Denn~~11107
▁paradigm~~1943
rete~~8003
▁exists~~237
▁Similar~~12980
▁Schwarzen~~4432
▁necess~~9211
rets~~9403
▁submit~~7236
▁Bilder~~14040
perto~~13071
▁enem~~6312
▁Tur~~11256
▁pocket~~3281
ithmet~~11687
▁scared~~5058
4~~2293
▁available~~3078
▁slide~~4700
▁acids~~11230
ason~~11129
gas~~6324
▁mobility~~4826
▁Wen~~13419
gan~~11384
gal~~4245
▁present~~4327
▁voices~~5382
▁bring~~487
▁tumor~~4898
chten~~14034
▁ignorant~~7978
▁condition~~5962
▁Sympt~~13414
▁recycled~~4363
▁tail~~6159
▁introdu~~8990
fense~~11658
▁Natasha~~12348
ful~~1230
▁Sag~~11242
▁Sobule~~13263
▁collabor~~3824
▁Whether~~2489
century~~2608
▁roofs~~11046
▁Adopt~~14088
▁Tower~~10979
▁Idee~~4854
▁Anton~~5985
▁imagine~~1383
▁imaging~~2389
▁Haiti~~9017
engu~~8264
plom~~13090
acher~~2486
aches~~7912
eland~~9554
▁Gren~~13000
▁objective~~7417
▁revealed~~7949
itors~~8166
isted~~5497
▁Greg~~9717
itals~~8039
▁Gree~~9848
▁Grey~~6476
▁dangerous~~2301
▁only~~236
issance~~11946
▁Seattle~~10153
achel~~6765
▁hopeful~~9434
itch~~4068
keys~~11930
arrhea~~11530
esch~~11409
▁replace~~6697
▁integrated~~4864
▁surveillance~~8371
▁Cohen~~10981
laden~~13819
▁communication~~2982
▁Nam~~6487
y~~1322
amps~~10205
▁advers~~10344
▁joined~~2273
▁wide~~2207
▁unhappy~~1033
▁glau~~12741
▁native~~11124
▁necessary~~6084
▁trips~~10253
▁illegal~~10616
▁Kampf~~13496
izations~~10271
▁without~~1384
▁contemporary~~4795
▁controversial~~10367
▁girlfriend~~11779
ultur~~10201
▁deserve~~5404
cus~~8614
iation~~5682
▁Rabb~~11408
▁center~~1905
▁Rus~~14031
source~~10566
▁1998~~9399
uche~~14183
▁Amer~~10163
▁flight~~2159
cul~~7208
▁schizophren~~11553
app~~5567
bin~~12002
ield~~3066
iele~~14167
▁Emb~~12975
inson~~10210
bie~~11442
▁angry~~5537
▁genius~~2033
▁photo~~7691
bit~~7814
▁Emp~~7005
bir~~7894
▁ann~~2553
fron~~9619
▁Norweg~~10339
▁ank~~12147
▁photograph~~4909
▁ang~~6410
▁intensive~~4994
▁anc~~13917
▁Pollen~~13997
▁constructed~~7172
▁Watson~~11704
▁1995~~10368
▁anx~~9718
▁any~~88
▁ant~~1142
▁oxy~~13903
wir~~275
▁globalization~~9439
▁Mont~~9816
▁maybe~~1400
▁glac~~6708
back~~3410
▁Sach~~13169
▁Event~~9332
▁announced~~6117
▁insect~~8359
rimin~~10041
gypt~~12036
scale~~5259
▁attempts~~12515
▁Lern~~13791
per~~1642
pes~~7773
pel~~12556
pen~~10275
Her~~13301
ped~~4194
▁natur~~12639
▁Dig~~10124
▁arrive~~6563
ively~~2377
icro~~11916
▁realize~~2047
▁calcul~~2264
▁infra~~3845
▁cheap~~6447
▁phenomenon~~4930
▁bone~~9098
▁bond~~3544
O~~3426
▁acts~~3064
▁mensch~~13806
▁terms~~1660
uft~~14224
uff~~718
Qa~~13084
okus~~11592
▁searching~~5402
▁err~~9388
▁clever~~6541
▁senten~~11754
am~~723
&~~8998
▁erg~~8563
▁ere~~6400
▁era~~6792
▁compar~~1654
▁Minister~~8713
▁treated~~5170
inea~~10116
▁fortunately~~5238
▁fisheries~~5183
al~~1064
▁despite~~1015
▁conditions~~2771
▁creature~~251
idge~~432
gments~~11210
Speech~~14045
▁iP~~12927
▁Carolina~~3015
▁dress~~9173
▁in~~9
▁im~~4120
▁scale~~298
essions~~10655
▁if~~533
▁travels~~9300
▁id~~1214
▁boys~~5478
eten~~9630
▁is~~54
▁ir~~5370
Come~~9751
▁Daniel~~8568
▁camel~~8312
▁it~~89
gert~~13373
▁Peps~~14084
▁changing~~2120
▁SETI~~12714
▁platform~~6196
ccoli~~10440
emin~~6180
▁travel~~4214
♫~~10280
ines~~26
active~~7109
▁printer~~12029
▁enfor~~9181
chron~~11246
neys~~552
▁anthrop~~9897
▁Geld~~12405
▁pride~~3449
▁authorities~~8923
▁Design~~3171
▁predicted~~10459
▁Parks~~13792
▁Diana~~10020
▁Bert~~11640
engineering~~6636
cure~~7514
▁vision~~2605
MED~~14219
▁division~~7639
▁Pharm~~13072
lyn~~12274
ansen~~7792
Mar~~8389
%~~12074
▁download~~3749
eller~~12058
▁mos~~9298
▁mor~~9196
▁mot~~1452
▁mov~~12235
irty~~3507
▁Saudi~~12749
▁mom~~8071
Mag~~13838
▁mon~~5030
▁accomplished~~9634
irts~~4662
▁mob~~12698
▁mod~~4967
Man~~7139
▁Zu~~13335
Med~~13019
▁600~~520
▁intrins~~11274
▁shifting~~6414
ervation~~909
ynam~~8434
▁press~~429
▁Insulin~~12060
▁dur~~3207
▁sake~~8026
▁Kepler~~12090
▁Titan~~7572
wards~~2094
▁noise~~7077
▁gay~~9240
▁upon~~4865
heim~~11561
▁important~~981
▁Abs~~13707
▁intense~~4168
▁determined~~8462
▁Mosk~~14083
▁Milch~~11095
▁iPods~~8482
▁season~~2637
▁sooner~~5526
▁achieve~~1810
ado~~12881
▁determines~~9112
▁Most~~116
▁guar~~8348
▁ultimately~~1619
▁theater~~1386
mitten~~13300
▁Khalid~~14150
▁our~~325
▁Tattoo~~11088
igens~~8637
▁scientists~~419
atsch~~13510
▁gab~~13720
▁allows~~2397
▁Atlantic~~440
auer~~12210
▁Judith~~12171
moud~~13885
sage~~13451
▁prior~~5108
▁Start~~4887
▁Farmer~~13343
▁Full~~7482
▁devil~~9752
lter~~13907
▁transpar~~12008
▁coastal~~10160
▁rains~~6119
▁experience~~2456
▁sense~~982
TO~~10227
▁upload~~8810
▁De~~2587
▁covering~~4819
▁schaden~~13643
▁Do~~3206
▁Dr~~7050
▁Du~~7380
vely~~9188
▁attempt~~6738
velt~~10607
▁sched~~10678
▁DD~~7940
▁DH~~8565
▁DI~~10728
▁DJ~~4858
▁correctly~~3283
▁DM~~8813
ening~~10659
▁DR~~6444
▁Walter~~11793
▁DV~~12583
▁phen~~11989
▁organ~~756
▁scientist~~7859
igent~~10885
body~~4186
▁cat~~1248
ration~~5950
▁mostly~~174
▁cap~~8038
▁kill~~1109
▁car~~2255
▁visiting~~5848
▁hug~~6850
▁cheaper~~8882
▁video~~21
▁sharing~~3741
▁cam~~10836
▁cal~~4555
▁can~~369
▁obesity~~7878
▁aliens~~11645
▁Namibia~~10259
▁Alle~~12094
▁disabled~~10638
30~~4637
cers~~8104
3,~~7122
▁breakfast~~7231
▁deadly~~8692
▁rect~~9800
▁synchron~~10077
▁archive~~8053
▁planes~~9785
▁colored~~1824
▁recy~~4286
▁rece~~6143
▁first~~338
▁curren~~10735
▁combat~~5653
▁wiped~~5678
▁communic~~6941
▁denial~~5951
▁bed~~2672
▁bee~~8670
▁bef~~12883
▁beg~~7332
che~~4437
acement~~6787
▁bec~~13716
▁bel~~5059
osion~~4551
▁ben~~7993
▁beh~~5574
chn~~13728
cho~~8269
▁bet~~5274
▁abund~~8705
imeters~~4453
▁depressed~~11683
▁comment~~2590
▁house~~2981
Fi~~8124
Fl~~9715
▁bez~~12733
▁human~~838
▁back~~490
▁narrow~~2228
▁delight~~2669
▁period~~3429
▁knife~~2407
▁miner~~10752
▁Intel~~12427
▁smiling~~3530
▁Inter~~2171
▁spider~~11516
▁lens~~8732
▁wealth~~1851
▁resur~~8648
▁speak~~772
▁eval~~7886
▁Famil~~10596
oses~~9675
▁rolled~~5807
f~~1205
alia~~12982
alie~~9987
alif~~6798
▁aside~~10433
ognitive~~12811
▁cook~~4516
▁cool~~1318
▁Pacific~~449
▁paint~~3122
unate~~13035
▁Op~~6880
atives~~3408
▁analyzed~~3886
▁Institut~~13926
▁vort~~14096
bere~~13862
obby~~8718
▁overwhelming~~5999
▁abroad~~5584
afe~~6169
aff~~7192
holds~~5372
,000~~2202
▁picture~~501
▁begin~~324
forest~~11923
aft~~10336
afr~~13011
stock~~9881
▁funny~~782
▁take~~106
▁long~~256
▁Tanz~~10032
▁introduced~~8495
frau~~10978
▁meals~~4499
▁authors~~6853
▁sensit~~13793
▁Tank~~13869
▁Point~~8776
ressed~~9270
ression~~8519
bing~~7147
lines~~2163
ffer~~13536
▁quantum~~8855
▁thing~~568
▁Handel~~14182
▁think~~105
▁becoming~~5868
▁Bombe~~14198
ature~~6767
▁arms~~948
▁Base~~10583
meter~~7099
▁Adam~~3802
ality~~1525
▁feelings~~5528
▁Rog~~13390
▁Supern~~14155
fortunate~~13644
▁Bast~~2141
▁Ok~~12068
▁Bern~~12542
▁supply~~6024
ld~~6282
le~~1262
▁overwhel~~11681
la~~4336
▁personality~~3780
ll~~288
esser~~13494
itar~~14013
▁appreciate~~10331
▁cliff~~458
▁philosophical~~6305
lt~~4626
lu~~11766
ls~~10568
Na~~10278
azine~~14023
ly~~1078
▁'9~~9086
▁'8~~11558
▁habits~~6849
▁funded~~7141
▁OP~~11186
dam~~3030
Ne~~8206
▁vegetables~~4682
▁chemotherapy~~10099
▁positive~~1053
▁beat~~9222
▁bear~~6103
day~~9089
▁Isaac~~11270
▁requ~~8536
ulating~~3734
▁father~~2595
▁pretty~~1308
▁library~~8223
▁calend~~10218
▁federal~~1908
aters~~5228
fare~~10106
▁strateg~~6187
▁uncle~~11799
▁condu~~7148
▁EM~~13107
▁Rover~~10168
▁outer~~5246
▁underest~~6625
▁whatever~~3929
rey~~6475
▁hotel~~6463
▁Gand~~11436
res~~2519
rep~~3063
▁virtually~~5173
▁Zucker~~12035
rew~~3224
ret~~6930
▁highlight~~4832
opard~~7892
ren~~5725
cious~~10393
rel~~2919
rem~~12071
reg~~7889
red~~2028
ree~~2878
▁Carol~~4496
▁Est~~9948
iting~~4752
▁Neu~~13455
▁Nev~~13542
▁New~~3982
▁demonstration~~3106
▁standard~~1151
▁This~~61
▁bike~~2988
▁criter~~13709
▁brush~~11666
que~~4028
▁Neg~~8119
iper~~7847
▁successfully~~6755
▁all~~97
NN~~13913
esented~~11096
▁literacy~~9292
bern~~13631
▁Term~~8788
▁sage~~12357
▁trace~~4365
▁Terr~~10376
▁societies~~1977
▁next~~1245
▁intensity~~3208
▁track~~3041
▁split~~8886
▁shelter~~7999
▁holds~~5007
▁Watt~~12084
▁industries~~12561
▁tricks~~9669
▁Fundament~~6568
▁diplom~~12694
▁talented~~2099
▁accelerating~~11699
▁rising~~4537
▁Club~~7130
▁complex~~2855
▁frustrated~~9427
▁iconic~~2464
▁winner~~7002
▁thick~~3118
▁wash~~5771
▁wasn~~1916
▁adding~~8654
▁util~~10238
▁Romant~~4090
▁hungry~~4539
▁attacked~~2369
ller~~10364
▁Si~~13981
achter~~13435
▁hyper~~3613
ogn~~12483
udd~~10861
ude~~2969
oge~~13210
ammad~~12337
▁false~~5385
▁delivering~~10883
▁nat~~13153
▁TEDTalks~~10585
NS~~13417
▁lawyer~~2005
▁automobile~~4048
izon~~13440
▁exploring~~7062
▁tar~~10038
▁encourage~~1556
▁CEO~~8106
▁Turk~~8070
augh~~12646
▁Turn~~10147
▁looked~~1658
Pat~~12425
iday~~8195
▁represent~~3784
▁happ~~9724
▁Autom~~4051
rache~~13656
▁dreams~~4767
▁roads~~4594
▁drawing~~4257
▁op~~2432
▁or~~126
▁approaches~~5420
iste~~13270
▁ow~~5880
min~~4121
▁oy~~4602
▁ox~~6819
▁Young~~8733
▁Peru~~8680
ists~~1325
▁Oliver~~3690
▁Pers~~9512
▁of~~32
▁oh~~4872
▁shine~~502
▁across~~441
mit~~798
▁on~~157
▁rede~~5499
utan~~12512
▁upd~~3566
omme~~14125
▁Mahmoud~~13567
▁expected~~5535
▁hackers~~12294
▁exploit~~5043
ommy~~10738
▁deaths~~11375
million~~10811
▁Ethiopia~~6007
▁Vul~~13732
▁sudden~~3270
erer~~13216
▁Jim~~2891
▁tag~~2331
▁expl~~5306
ossible~~8591
▁port~~4619
▁Astronom~~11679
▁strategic~~9767
▁stress~~4222
antast~~13120
text~~10782
▁tuna~~6918
▁ELA~~14032
▁rhythm~~888
▁entreprene~~14129
▁longevity~~6616
▁front~~287
▁meditation~~12043
▁Wolfram~~12308
▁minority~~7174
▁Rit~~11886
▁blank~~4856
▁controlled~~1232
▁circle~~7516
controll~~11419
▁Vision~~10767
▁maintain~~4478
▁Rio~~2635
▁tips~~6255
▁keeps~~5466
isha~~10383
akes~~160
aker~~2546
▁reform~~6075
▁tru~~5341
▁Proz~~13224
▁bush~~11168
▁try~~776
▁Prov~~9360
▁Prop~~12480
▁tra~~3873
▁risky~~2158
▁tre~~5230
aked~~6373
▁recorded~~3911
▁Prof~~8281
▁tro~~9681
aken~~7043
▁risks~~5315
▁immers~~8007
▁contrast~~3350
organ~~9927
▁homeless~~8142
rage~~6186
▁gras~~12725
▁discussion~~3831
▁simpl~~7647
oliath~~8364
erem~~10190
▁Learn~~905
▁greater~~463
▁along~~532
▁alone~~1622
▁brain~~1304
▁masses~~3638
▁DVD~~2559
▁partners~~486
▁weird~~1473
vania~~13779
▁actually~~370
ammer~~13140
▁notes~~3954
▁Maria~~4433
blatt~~11639
▁genoc~~11532
▁prostate~~7932
▁1930~~10183
ammed~~6378
yright~~8771
apor~~11184
anium~~7151
vation~~6029
ington~~10747
▁string~~3762
▁type~~563
▁obst~~12168
▁belief~~2015
▁antibiotics~~6581
▁Merk~~13878
▁engineering~~3841
▁moments~~6280
อร่อย~~7138
▁mutations~~6645
▁dare~~10833
▁absolutely~~5005
▁Geist~~13935
▁Archim~~12904
▁nonprofit~~8804
▁Robo~~12441
isible~~9968
▁rout~~4506
▁court~~10069
▁Ryan~~7241
enaissance~~6294
▁Kra~~7042
▁saving~~7799
orfer~~10601
▁buying~~4666
▁Kre~~13040
▁purposes~~416
▁artifacts~~2779
▁indigen~~12828
Design~~13017
▁blink~~5458
▁automat~~11534
▁blind~~6097
▁gentlemen~~5440
vent~~3587
▁interc~~9147
▁tonight~~5925
▁Je~~9722
ohn~~5750
▁Ja~~11080
▁Bio~~9654
▁option~~7274
▁]~~13309
▁Kore~~1862
▁deta~~14152
▁Ju~~11438
▁dete~~8500
▁JL~~14108
iges~~10860
iger~~8313
▁Lesterland~~11607
ounted~~7117
▁JC~~10982
▁JA~~13406
vors~~11761
▁Mode~~13979
▁vegetable~~4704
ah~~2828
rump~~13906
igen~~11068
▁conversation~~5671
▁rates~~803
rition~~6071
▁Yellow~~1753
▁default~~6422
▁humanity~~6028
▁ums~~14191
ancer~~4912
▁metal~~4296
▁design~~3849
▁earth~~4519
▁range~~435
▁chimp~~9113
cor~~3159
▁metap~~13655
▁cybercr~~12452
▁pict~~12916
▁became~~2665
▁argument~~6520
▁unconscious~~11746
▁poor~~708
▁Monterey~~11674
▁friend~~4198
▁orchestra~~3631
How~~5533
imination~~6489
agan~~11070
▁positions~~7181
▁informal~~12586
ograph~~6851
au~~6281
IT~~10872
▁pool~~1676
▁expecting~~8890
uit~~3651
▁single~~1170
eries~~9741
▁movements~~3881
▁aspir~~2593
▁verb~~7034
unction~~4943
▁impacts~~11473
▁survey~~3335
▁Freud~~10002
▁Poet~~11792
▁defin~~5512
▁Rich~~11038
▁reag~~13652
▁read~~3316
▁Rick~~11538
▁myster~~11130
ilities~~10239
)~~3913
▁reveal~~7422
▁helping~~2418
▁Image~~13362
▁companies~~6002
▁Costa~~5197
film~~10761
oint~~1897
▁Cor~~7610
▁desperately~~5401
▁chimpanzee~~9104
atural~~10419
▁Cop~~8770
▁apparently~~7819
iox~~13900
▁vehicles~~7070
▁MIT~~3337
ios~~4866
ior~~4801
▁Pant~~13082
iop~~13024
ion~~2254
▁Titanic~~81
aking~~4150
▁leaders~~1543
▁drive~~478
▁finally~~5048
▁snow~~7587
ferences~~5698
▁consequence~~7175
▁melting~~4292
▁facts~~1035
▁traum~~11646
:"~~12544
ious~~924
▁wood~~7334
▁refriger~~3343
▁coin~~7233
▁Sal~~9924
bral~~3818
usual~~11414
▁believes~~6213
▁2000,~~1891
abad~~12407
▁2000.~~1880
▁preparation~~7768
▁Col~~7667
▁nutrients~~10460
▁Pretty~~8384
▁believed~~5903
▁route~~6388
▁Cost~~5939
▁made~~307
▁remember~~1136
itely~~8479
▁Sau~~10318
adt~~14193
▁multi~~3439
ads~~3751
▁glue~~8098
ady~~6570
add~~991
ade~~2642
▁protect~~5023
ada~~4919
▁towards~~2714
grow~~9106
ought~~9442
▁hack~~12653
▁even~~94
▁speech~~1247
▁attend~~7159
▁boun~~3075
▁visualize~~7944
▁meant~~2599
icit~~6188
▁means~~3600
icip~~11062
▁autistic~~7874
▁Engel~~13889
▁heroes~~5350
like~~6826
▁beaut~~12660
▁LED~~11236
▁Holocaust~~12119
iesen~~13772
▁nam~~12938
bane~~12896
iza~~12493
athy~~7006
soft~~12707
▁worried~~2536
▁Mitchell~~7216
▁Got~~8261
▁voc~~10081
▁performing~~1701
▁von~~10127
▁turning~~6031
▁vom~~6743
ivals~~11437
▁Gor~~13452
▁attacks~~9548
▁warming~~7976
▁man~~3174
▁staying~~6585
▁Desert~~11075
ogram~~8444
▁voy~~220
▁re~~631
ess~~6211
▁ra~~2552
▁ro~~400
▁rh~~5394
ese~~1261
▁platforms~~7067
▁mitt~~13475
esa~~12552
▁gift~~5886
▁multipl~~7601
ogen~~2431
esh~~5435
▁Amt~~13934
▁Ushahidi~~13009
annes~~7179
▁Inner~~14115
ashion~~10619
▁Audio~~13330
▁Amy~~6440
▁mail~~6815
▁shouldn~~1113
▁Amb~~4730
▁musician~~11259
▁appeared~~2815
▁review~~2191
▁legacy~~3755
ateg~~11690
▁field~~1648
andem~~12362
andel~~3758
▁received~~3003
▁taking~~2157
▁agreed~~10071
ander~~5674
▁Stick~~13098
▁space~~346
▁Internets~~8741
!"~~6386
▁officials~~8922
▁streng~~6844
▁Zimmer~~14202
▁Inform~~14079
▁symbol~~6729
eing~~11752
▁march~~5672
▁importance~~2604
▁spezif~~13947
▁resilient~~56
▁opposed~~6696
▁enthus~~5446
▁Science~~7266
bees~~11919
sequent~~9229
▁myth~~5028
▁Gall~~5
▁bes~~8046
▁confused~~9819
glie~~14062
bur~~7461
oug~~912
brand~~9505
▁other~~302
▁pause~~7434
▁helpful~~2905
▁hunting~~10161
▁collecting~~9578
bul~~11939
▁viruses~~5296
▁spirit~~7196
▁pencil~~3367
ially~~6304
▁names~~2582
wise~~6996
▁Long~~4315
j~~5018
▁odd~~10439
▁Sher~~5768
▁named~~3458
▁August~~8925
sein~~12053
▁fra~~6510
▁fre~~6372
▁software~~3676
▁Wars~~3497
pid~~11652
pie~~7383
▁fro~~7813
▁treat~~1195
▁transparency~~1490
▁Warn~~13989
our~~1841
▁Next~~8579
pit~~10349
▁Ware~~8176
eper~~4413
▁providing~~418
▁responsibility~~3834
▁Greek~~3770
▁Lawrence~~8725
40~~4189
4.~~3017
4,~~2983
▁homosex~~9305
illa~~9247
▁wrest~~3468
umbled~~7817
▁uniform~~6571
▁institutions~~6085
otrans~~4955
▁shared~~2451
▁Genome~~10167
▁shares~~2476
ube~~8042
▁critically~~7293
▁StoryCorps~~14158
ubl~~8279
▁teenager~~8074
▁jung~~13117
▁interface~~2386
▁intact~~3918
▁thousands~~467
▁catastrophic~~11969
▁motivation~~7144
▁Jonathan~~9668
▁Somalia~~5343
▁highway~~6390
‘~~13855
”~~7352
“~~14192
▁Albert~~7339
▁species~~676
▁compet~~9892
iddle~~12073
▁trop~~5323
▁She~~1137
▁trou~~9323
▁Cola~~13135
▁encouraged~~6301
▁adults~~1062
inary~~4696
▁produce~~2222
▁contributed~~2156
▁Feynman~~11711
ders~~1487
dern~~6219
▁vocab~~4811
▁Turns~~3321
▁product~~725
usted~~6063
▁vocal~~10006
▁my~~244
▁Inst~~12475
▁spending~~1845
▁mo~~1670
under~~7472
▁transition~~11174
▁me~~696
▁Inse~~8659
▁Trag~~11505
▁ma~~2847
@~~9923
▁worlds~~5021
▁crank~~11574
▁rarely~~4510
omon~~12039
▁implant~~11877
rise~~11557
▁Jerusalem~~9507
▁president~~4451
▁Guten~~13157
rist~~11286
▁Hit~~12506
neur~~13896
▁terrorists~~11007
▁Joh~~7178
▁unbe~~9311
▁Jon~~5288
▁discipl~~3890
▁Optim~~13518
▁continent~~5166
▁Job~~12207
embly~~10216
▁Take~~6752
venue~~10964
▁couldn~~322
▁cle~~12049
Ge~~13218
▁Joy~~11636
uten~~13065
▁growth~~1349
Go~~5632
▁Alber~~11182
Gl~~12510
oming~~5196
▁effects~~3686
▁major~~1957
▁itself~~240
▁Brun~~13336
▁least~~1861
▁domin~~5486
▁Rod~~8280
▁Roh~~14054
▁Ron~~4115
▁neuroscience~~9150
▁Ros~~9986
▁linear~~4956
▁origins~~10117
▁Row~~12182
▁Rot~~3029
▁credit~~7020
▁Roy~~12145
▁participation~~7055
▁gallery~~4086
ansas~~11583
ustainable~~4568
▁manual~~10033
▁Cold~~10909
▁hung~~2282
▁memor~~1149
▁proced~~12105
▁Str~~10186
ain~~5184
esome~~3563
▁hunt~~1295
▁Stef~~11241
ograp~~11032
▁theme~~9020
▁obsession~~8964
▁Hindu~~10104
▁abst~~13198
lers~~11290
▁calories~~4554
▁shy~~3822
▁Kibera~~11905
▁shr~~8013
ochen~~13590
▁filling~~7333
▁football~~1391
▁documentary~~2731
▁Magazine~~4271
▁galaxies~~7559
▁she~~2473
▁anonym~~11051
▁Fried~~11112
▁USA~~4558
▁less~~1717
▁religion~~1316
Ze~~14089
▁benefits~~1008
iminal~~13174
▁torn~~9327
▁topic~~2190
▁lesb~~9274
▁Nobel~~6020
▁gradually~~10140
▁sequencing~~5295
ointed~~8979
▁Venezuela~~13050
offs~~7021
▁emerged~~5905
imme~~13051
▁fought~~5928
ts~~618
▁earthquake~~9032
▁Moon~~7567
▁Fahren~~6717
▁dispar~~1797
▁warmer~~11474
▁banking~~5651
▁Conne~~8546
▁Marke~~14181
▁price~~1799
▁interpretation~~3628
▁shocking~~11381
asses~~11283
asser~~12693
▁sanitation~~10250
▁extreme~~652
▁minds~~2411
▁accepted~~7016
▁sticking~~10354
ifically~~7287
▁succeeded~~5282
▁cognitive~~6700
▁job~~1260
phony~~892
▁method~~3230
phone~~7078
▁lust~~9256
▁joy~~425
▁workplace~~1397
▁53~~9503
▁fuel~~8841
▁52~~8224
me~~6222
▁succeed~~2025
te~~1434
ma~~539
onia~~9312
onic~~2413
mm~~7133
▁profound~~2576
mo~~6218
▁plug~~6929
▁stre~~10581
mp~~10012
ms~~871
▁choices~~2010
▁plus~~4225
ta~~11183
▁enormous~~2256
▁Hu~~8709
▁recht~~13943
▁drawings~~8895
▁genetic~~1371
▁oppos~~9333
▁elsewhere~~1687
▁speed~~2629
▁He~~625
▁past~~2037
▁international~~1653
▁drove~~4660
ium~~6183
▁58~~7478
▁Hi~~2350
▁capitalism~~9459
▁suicide~~9212
end~~3974
ene~~4348
eng~~2242
iance~~2088
enk~~12738
▁birthday~~2597
enn~~3648
▁ceremony~~9004
gets~~9450
ens~~5227
ent~~2103
▁phil~~9691
aching~~959
▁insulin~~10862
ocken~~12398
▁shorter~~6682
▁combined~~3990
▁HI~~12758
▁ridiculous~~1239
▁chicken~~7895
▁Schne~~12843
▁prosth~~10941
▁convicted~~10841
▁ign~~1545
▁campaign~~2274
▁honest~~2986
▁5.~~8599
▁languages~~2517
amil~~195
amin~~4783
▁Computers~~6577
amie~~11881
▁Aristotle~~11273
▁observed~~7322
▁Partner~~11149
▁203~~11936
▁202~~8711
▁201~~9164
▁200~~339
▁20.~~12069
▁electrical~~3248
▁20,~~3607
▁Tam~~13363
▁recyc~~12077
enter~~3240
▁Spanish~~8043
▁healing~~6310
▁cas~~11004
vity~~349
▁maximum~~10150
▁Athe~~13871
over~~3582
oves~~3108
▁Zipcar~~12351
▁Apoll~~13670
▁Development~~9417
▁skill~~3549
▁Symbol~~13985
▁molecule~~2161
▁working~~247
ima~~10228
imb~~5847
ime~~3348
▁hormones~~7931
▁bin~~11383
▁bio~~164
cle~~3164
▁chances~~1778
▁Fall~~10625
imm~~5933
▁cancers~~5917
Here~~9099
▁big~~134
imp~~2894
▁Programme~~13832
▁Neanderth~~10159
issions~~7183
400~~8213
▁bip~~10464
▁Linux~~9909
▁bir~~1372
▁bis~~7908
▁bit~~3195
▁riding~~8044
CHA~~13294
▁anger~~5487
▁Orient~~12814
▁lights~~315
▁eff~~13528
▁farmers~~6008
▁Jill~~11153
▁microb~~10753
▁angel~~11858
▁Social~~1066
▁awe~~2625
utely~~11265
▁amaz~~694
aler~~13572
ales~~1369
▁compassionate~~6992
alen~~3789
▁dirty~~6402
▁Fantast~~12327
aled~~8258
▁Goliath~~11550
▁workers~~1178
▁bubble~~1825
▁2006,~~5105
▁domain~~5869
▁Tal~~8374
▁Comp~~4830
▁litt~~13095
▁ought~~6512
▁Wood~~483
▁Come~~8202
zte~~13158
▁Comm~~3318
▁Winter~~12600
▁encry~~10996
▁graduate~~7193
▁voted~~10203
ancers~~4006
▁assets~~1196
",~~12508
▁sectors~~10199
▁device~~6818
▁Dete~~11751
gor~~12181
▁English~~2973
▁bowl~~3302
▁tags~~11054
▁Spring~~7953
icke~~8653
▁voting~~11588
▁grass~~8702
▁grasp~~2539
▁scary~~8072
▁Ang~~9426
formation~~9877
W~~2861
nie~~12463
▁intriguing~~7162
icks~~4389
▁athle~~1433
▁behav~~1045
▁Kind~~11562
▁King~~9600
▁scenario~~4857
utes~~9081
▁samples~~4446
onte~~8120
▁skeletal~~12610
▁Babies~~1060
onto~~13481
▁necessarily~~6640
rane~~9517
rand~~11641
É~~13486
▁sending~~3532
▁Gut~~11889
▁Ane~~13164
rank~~12766
▁Ster~~13690
▁geomet~~7660
▁Orig~~10488
▁accept~~1801
rans~~10884
nis~~11539
▁Premier~~9952
▁achiev~~12250
▁eastern~~4632
▁Virginia~~9613
▁pl~~842
ê~~2964
é~~6209
▁po~~3846
▁ph~~5171
í~~11431
▁during~~2996
▁odds~~8594
▁pe~~387
top~~4677
à~~12950
▁namely~~6482
▁race~~1315
▁matched~~8812
ä~~13908
ú~~13928
▁Psych~~10005
ø~~13149
ton~~2899
▁comfortable~~6127
▁sal~~4550
auber~~9714
▁independence~~2652
ñ~~2213
▁pr~~1160
ô~~13842
▁beer~~1583
▁bees~~9677
▁beet~~8365
▁contra~~8930
▁climbed~~9961
▁studying~~3227
▁pressure~~584
▁beef~~8306
▁asks~~3900
▁been~~84
▁islands~~12496
essor~~11624
▁farming~~4681
▁choosing~~2679
▁district~~9034
titles~~13576
▁BMW~~8830
ology~~4814
▁compare~~8872
▁incent~~7294
▁sap~~9095
rag~~3140
▁tragic~~5092
rab~~10816
▁neurons~~6698
ran~~4125
ths~~51
ral~~3953
ram~~9710
▁aerodynam~~12812
rat~~8284
ible~~5740
ras~~3623
▁Sun~~3464
▁Small~~4455
ray~~4794
▁Nad~~7588
▁products~~4270
▁Nag~~9033
▁significant~~5111
▁Association~~5891
▁Nan~~12826
-~~299
▁Nat~~11902
▁individ~~7262
▁1999~~10208
▁significantly~~7962
▁Nar~~11897
▁Chor~~13298
▁1991~~7464
▁1990~~1678
▁epidemic~~5583
▁Naz~~2837
▁magazines~~8175
▁Yves~~8066
though~~13672
bst~~10094
▁Egypt~~4595
▁97~~9780
äum~~13949
▁different~~258
▁phosphorus~~12488
illance~~13914
▁bizarre~~55
▁stones~~11194
▁local~~4986
▁Ist~~12376
▁noisy~~4005
ully~~10721
▁achievement~~2917
flow~~12169
▁fract~~11842
▁Date~~13372
▁soft~~9423
R~~761
▁recession~~10710
▁off~~739
▁fold~~7648
▁prefer~~6795
rupted~~2566
▁boundaries~~2516
▁gains~~11357
▁Cous~~13861
▁1,2~~13930
▁scenes~~2465
▁CIA~~10902
▁health~~979
▁formation~~10976
ever~~8221
▁seemingly~~5943
▁Tai~~13177
▁Soviet~~7707
▁assembly~~9447
▁knowledge~~1087
och~~3460
ock~~2702
▁Vancouver~~9163
oca~~13318
▁crash~~6692
▁Kö~~13823
▁networking~~9648
opter~~10819
habilitation~~7606
▁Right~~5948
▁Should~~7143
▁businesses~~1014
▁Polit~~11069
▁etc~~3949
▁fathers~~12268
uate~~7887
▁eth~~10719
▁Democ~~6450
▁half~~438
▁Only~~4284
ben~~3288
▁patients~~2442
▁Polio~~5272
▁hall~~3934
▁Kid~~2449
angers~~10530
▁trip~~6804
▁triv~~11991
▁considered~~5035
▁Kim~~9705
▁Kil~~12403
▁inform~~8438
▁Beck~~7794
▁trib~~9594
titudes~~10323
▁trig~~10867
▁Kir~~9039
▁diagram~~6631
▁engines~~10541
oenix~~13810
▁popul~~10429
▁Se~~4242
ducing~~11309
▁Sa~~12378
▁Sc~~3965
▁Sm~~2248
▁Sl~~8158
▁So~~524
▁inject~~2366
▁nah~~13283
▁Sh~~2663
▁Sk~~9583
▁finance~~9781
▁Su~~9953
▁St~~3500
▁Sw~~6973
▁nap~~5778
▁Sp~~1833
▁nar~~9639
inu~~12935
▁devoted~~3591
▁Sy~~13501
▁disrupt~~8480
habil~~6419
mut~~7682
▁Lagos~~13119
▁SA~~12895
mus~~6428
▁SB~~12682
▁SO~~11219
▁SI~~11226
▁Stephen~~6969
▁SJ~~11520
▁ST~~11346
▁attract~~2097
▁SP~~7269
▁SS~~11953
▁SR~~12518
ishn~~12046
mun~~12986
▁pale~~9072
▁toward~~3255
▁Definition~~13108
▁situation~~3266
▁usual~~6263
▁recognized~~5155
bes~~11399
istine~~10067
▁Normal~~12683
▁Norman~~11163
umen~~10882
▁actual~~3525
▁Redwood~~13497
▁logging~~11941
▁200,000~~5145
orte~~13703
▁clouds~~7470
▁mat~~10145
▁Virus~~12937
▁mar~~6093
▁map~~4606
▁Zealand~~5185
▁woods~~11732
▁may~~819
▁mag~~538
▁mad~~5536
▁consumption~~2011
stens~~12889
▁translation~~11444
▁setting~~558
▁mam~~13248
▁mal~~6069
▁mak~~13037
▁nerve~~4951
▁inequality~~11331
▁chunk~~6228
cohol~~12582
▁observ~~11822
▁completely~~849
▁rubber~~8127
▁NA~~10226
▁dating~~6891
▁balloon~~10980
▁backyard~~7521
▁buff~~8307
board~~2766
▁parasite~~12336
▁prediction~~9679
isabeth~~13324
appiness~~6014
▁laund~~10620
iums~~12529
hythm~~12339
▁together~~283
▁Route~~10749
craft~~12198
▁constantly~~5247
▁reputation~~10751
▁democ~~13411
▁gasoline~~11700
kton~~4442
▁senses~~10007
▁agre~~8826
▁Bono~~8787
▁tort~~3431
▁Volk~~13030
▁Detroit~~10533
▁Bond~~13055
n~~2732
▁forest~~4070
▁gorgeous~~10180
anten~~12679
▁Jung~~10769
▁elements~~4964
▁June~~5428
▁stored~~8056
▁Less~~8726
▁Misch~~13558
▁enough~~698
▁explosion~~6293
▁stores~~7989
▁conclude~~9638
▁Hipp~~10039
▁dropping~~10157
▁Hund~~4394
▁legislation~~8829
▁symmetrical~~8114
▁Stone~~6788
▁locations~~5702
▁awkward~~2656
▁believing~~4838
▁his~~372
"]~~10628
▁Anti~~11618
▁Anth~~5553
▁Ide~~10945
▁sculpt~~7657
▁Spiegel~~11001
▁Arthur~~11415
▁outc~~6168
▁bathroom~~5521
"-~~12844
".~~3694
schen~~8572
▁called~~475
legen~~12259
▁frog~~7620
scher~~10486
"?~~8417
▁meaning~~1621
":~~11312
▁bitten~~13608
▁kidding~~7093
▁pollen~~9671
▁organic~~2232
mother~~11373
▁bitter~~1886
▁orth~~8615
iche~~8295
▁graphic~~3885
▁interior~~4802
▁Nu~~12791
▁whereas~~10042
▁weight~~2234
▁involve~~6637
▁launch~~5152
▁Cambod~~7579
▁Italy~~5918
▁Na~~11108
▁historic~~9525
▁Ne~~1601
ption~~572
▁Free~~8203
ontroll~~1213
▁No~~860
▁chemical~~497
▁Lester~~11608
▁lion~~8314
eli~~10967
ell~~329
▁outs~~10895
ela~~11693
elf~~6026
eld~~8341
ele~~10281
rien~~13405
ely~~3682
▁NG~~10165
els~~2224
▁NI~~10963
▁acres~~11934
elt~~4295
▁meter~~3116
D~~2227
▁Hung~~1972
unter~~9844
▁Ath~~7797
owntown~~13297
▁Att~~13129
▁western~~7595
▁engaging~~8966
vir~~7453
▁sta~~10526
▁comes~~885
▁eure~~12324
▁naive~~4230
▁summ~~1603
50~~4729
5,~~6406
▁Russia~~5300
▁Johnson~~7079
▁cann~~8062
▁bibl~~11413
hung~~14209
▁spend~~1592
ushed~~2818
▁politics~~6877
vit~~10664
▁Catholic~~9036
▁Server~~12450
▁efficiency~~6160
▁powered~~6155
▁opportunities~~1792
▁surviv~~2845
▁December~~9001
HO~~2246
HC~~14076
▁renewables~~12503
adies~~12908
ick~~1447
ich~~4215
▁execut~~8205
▁bow~~5821
▁bot~~8360
imulation~~13416
▁box~~99
▁boy~~2759
ice~~2422
umer~~12299
icy~~6797
5.~~6562
▁particle~~9811
ics~~3914
▁invisible~~7085
cially~~8542
▁boo~~11102
▁landscapes~~227
He~~1172
iled~~2718
core~~3679
▁Bergen~~14069
corn~~10681
▁Olympic~~11830
ilet~~13535
▁population~~601
iler~~4780
iles~~4144
iley~~12892
▁Whenever~~8596
▁schol~~5883
▁Ident~~12626
▁golden~~10341
▁aug~~7430
▁Wikipedia~~8746
▁aud~~7697
ights~~180
▁inhabit~~8303
▁Lust~~14102
plus~~2193
▁value~~978
▁medicine~~1441
▁aut~~1402
▁undergra~~3344
abet~~12063
aha~~11141
▁nucle~~8353
▁Vietnam~~5665
▁Southern~~5163
▁viral~~8972
▁irrit~~2985
▁2004,~~6158
ahn~~12615
▁glasses~~5881
ahl~~2835
two~~10597
ahr~~12179
▁Francisco~~2204
fert~~12237
aben~~13534
abel~~8226
▁live~~343
▁depend~~6474
▁Murray~~11039
▁master~~1424
ension~~10830
▁oblig~~8848
▁sticks~~5529
▁appl~~9413
▁Taylor~~8883
▁Avenue~~7997
▁Jacqu~~11504
opus~~11665
gie~~6793
awa~~9061
▁double~~1951
lage~~2725
Amer~~12541
▁correct~~3011
head~~5159
▁sensor~~8433
▁bags~~4438
otal~~12139
▁launched~~5232
▁adopted~~6824
hear~~3043
▁imple~~2108
▁Stewart~~2678
▁Katrina~~12122
ura~~3642
atts~~11152
▁Vegas~~8877
osystem~~12240
▁Andre~~1623
atte~~10370
▁recogn~~10011
▁silk~~11084
▁percept~~11291
▁cutting~~3170
▁que~~9314
▁reactor~~12070
Com~~13575
▁Rivers~~7483
▁unbelievable~~800
▁concepts~~8896
▁peers~~9582
uri~~11992
▁wants~~3746
▁188~~11126
▁realm~~7558
▁heavily~~10417
urt~~9159
▁vo~~4102
▁tackle~~2522
no~~8795
tit~~2729
na~~9858
nd~~8110
ne~~2823
whel~~12574
ng~~7982
▁glimpse~~2151
ny~~4116
▁International~~4782
▁185~~7475
▁wheels~~7518
techn~~12764
nt~~4862
–~~11836
tic~~8960
iction~~5157
▁bor~~8255
▁Air~~5624
▁adopt~~5218
▁Check~~8968
▁panel~~7389
aceutical~~13073
▁sensors~~498
▁ton~~11396
ico~~11725
▁candidates~~9862
▁sensory~~4968
▁surfaces~~7649
▁Prime~~9049
▁democracy~~2638
▁Neander~~12664
▁Kevin~~4716
▁intervention~~6556
▁Moore~~4241
▁18.~~13005
▁overall~~7672
▁Ray~~10748
itat~~12417
cellent~~3520
ica~~1054
lly~~9946
rok~~3713
rol~~7938
rom~~3461
ron~~2450
▁station~~6916
▁journey~~2768
▁wireless~~11867
rog~~4731
▁arrang~~5809
umes~~9684
▁reconstruct~~7369
rop~~4361
▁waves~~143
lla~~3074
ros~~3160
rot~~8240
lle~~4734
row~~4073
▁Non~~10204
▁settle~~4576
▁Eur~~10119
Hi~~6838
▁client~~4141
Das~~14116
▁Nov~~10743
▁Now~~629
▁Not~~578
▁Nor~~12028
Saharan~~7575
▁recommen~~8456
▁stages~~5148
kle~~12059
▁illusions~~10821
pected~~8538
▁label~~4670
▁limit~~2137
▁nations~~6343
fahr~~13941
▁Canada~~1761
▁CRISPR~~14136
▁safely~~11500
▁technolog~~10538
▁Stanley~~5589
level~~9465
▁tool~~4698
▁bon~~8697
▁Text~~11974
▁Lady~~7284
▁took~~1715
▁devices~~5415
▁Beethoven~~11596
▁down~~269
▁sail~~2796
▁Sarah~~12126
ict~~6861
▁said~~216
▁Tumor~~12978
▁representative~~5890
▁trees~~1141
▁Animation~~13239
det~~11903
ymph~~8529
▁autom~~8836
▁Pearl~~7726
▁thousand~~2188
▁propose~~3052
port~~4962
▁autism~~7873
▁Dys~~12285
▁loose~~7725
▁Ach~~8632
erstand~~9363
▁narr~~8006
▁doll~~9407
ollen~~10425
▁fighting~~5982
▁concerns~~11023
▁special~~198
arb~~13881
▁simplicity~~10795
▁nano~~3069
▁deepest~~8052
water~~5235
▁classroom~~2100
▁earthqu~~159
▁hand~~655
▁hang~~7128
tention~~1323
▁Nacht~~12751
▁vote~~4103
▁Fot~~14179
pecially~~10035
▁For~~1345
▁Produ~~9006
ivalent~~6626
▁consumers~~10700
ple~~7599
▁Fox~~11556
▁Rand~~12283
▁activate~~4972
▁gotten~~593
▁Beat~~3668
▁non~~2332
▁Qa~~12695
▁follow~~1218
hst~~12711
▁Hillis~~12850
▁nob~~5981
▁jihad~~13376
▁site~~818
▁Tyr~~7856
▁hanging~~5546
▁Typ~~10289
▁Qu~~1446
iveness~~6948
▁now~~495
▁not~~86
▁nor~~2932
urally~~6062
▁nowadays~~10340
ande~~11073
anda~~6971
celand~~12469
▁worldwide~~5358
▁Christop~~14177
▁Industrial~~1186
▁management~~4893
pret~~4937
ands~~3624
▁Until~~9576
rior~~9170
▁decrease~~2441
▁electrodes~~2388
erson~~11018
▁connectivity~~7998
▁synth~~3740
▁gravity~~10398
▁insp~~6148
▁Seine~~11563
▁coming~~457
ceed~~2057
▁myself~~3050
▁Zimb~~13229
▁depends~~2035
▁years~~821
▁burned~~3199
▁v~~43
▁u~~3604
▁t~~145
▁s~~179
▁r~~155
stream~~2368
▁p~~789
illed~~1183
▁article~~6253
▁Demonstr~~13581
▁z~~1216
▁compromise~~1809
▁x~~7292
▁g~~608
▁f~~2345
<pad>~~0
▁d~~272
▁c~~2787
▁b~~1179
▁a~~192
▁o~~1504
▁n~~2472
▁m~~318
▁l~~266
▁k~~1104
▁j~~328
▁starting~~1013
▁h~~2817
▁W~~1128
▁V~~751
▁U~~1626
▁T~~1156
▁S~~1476
▁R~~1277
▁Q~~8916
▁their~~385
▁bro~~2620
▁pathways~~2066
▁[~~2976
▁Z~~9304
▁Y~~3616
▁X~~309
▁G~~518
▁F~~522
▁E~~984
▁D~~363
▁C~~567
▁B~~2290
▁A~~590
▁cares~~8944
▁O~~874
▁N~~883
▁M~~2641
▁L~~1578
▁K~~1286
▁J~~4001
▁I~~64
▁H~~484
▁7~~2747
▁6~~1028
▁5~~6561
▁4~~2147
▁3~~2419
▁2~~5699
▁folks~~5522
▁0~~12282
▁?~~12304
▁recognition~~7027
▁stunning~~7530
▁:~~4483
▁9~~6459
▁8~~1747
▁'~~2700
▁"~~217
▁/~~12654
▁.~~3191
▁-~~10019
▁performance~~1750
▁July~~6116
▁mess~~3951
▁circumstances~~5395
cod~~11193
inners~~8751
▁buildings~~5542
▁White~~7663
uters~~2260
kel~~13825
opic~~7674
▁passion~~2868
▁Half~~4302
▁Hall~~3899
▁sexually~~11342
▁disaster~~887
esen~~6943
▁Pandem~~14092
▁unten~~8285
▁Che~~4608
orter~~5474
orten~~12659
▁system~~606
orted~~3405
▁Chr~~2412
ech~~8981
▁nearby~~7990
aper~~9743
▁9/1~~7727
ppe~~10162
▁blow~~2243
▁fand~~13990
▁tongue~~8608
▁revolution~~947
▁appar~~4657
▁Survey~~11589
▁little~~290
▁blog~~8987
▁'90~~1680
▁sculpture~~8844
apel~~13517
oted~~5051
▁Peter~~2374
▁please~~6762
▁surrounding~~4461
▁Hollywood~~2526
▁must~~1412
▁loud~~2842
▁globe~~5293
▁Enceladus~~11784
▁hydro~~503
▁disor~~10906
fern~~13257
▁deliver~~1773
tern~~6283
term~~3658
▁structures~~610
▁impact~~1779
▁oxytocin~~3542
▁Methan~~13069
▁mushroom~~12085
tery~~10197
▁strength~~2114
▁hallucinations~~9984
tert~~12915
ters~~2327
▁Personal~~7319
▁Ly~~11997
▁disorders~~7875
▁currency~~9474
▁Lu~~9075
▁Shanghai~~1756
▁couples~~6332
▁Lo~~9187
▁La~~3964
▁Le~~3419
▁slides~~3488
▁click~~7310
▁cin~~2600
▁ice~~3158
profit~~6111
▁employees~~1521
▁Eleanor~~9348
ruct~~9252
ruck~~9016
▁sitting~~794
stell~~9849
▁civ~~12026
unch~~1579
▁LG~~9317
▁beautifully~~10414
▁Arm~~10913
▁soldier~~4210
▁Darwin~~8292
▁stood~~3384
▁Are~~6396
▁Papa~~14107
▁Mat~~4522
One~~9472
▁institution~~7253
▁Art~~6834
ptions~~746
▁good~~1259
▁producers~~10442
▁exped~~7091
grad~~7167
▁west~~4084
amma~~8498
place~~5161
▁manufacturing~~8133
▁inhib~~6633
▁scri~~12645
▁causing~~5376
▁Cont~~10614
▁conqu~~5986
mor~~12116
▁Johnny~~5544
iffen~~12587
coming~~10110
con~~4728
acity~~12590
▁chimpanzees~~9082
▁choose~~2572
▁Pool~~12841
▁smile~~9302
▁Cy~~12081
ial~~278
ian~~1200
▁layers~~7353
iac~~8496
oids~~7805
▁devast~~8936
▁educational~~2121
mosph~~13214
cted~~6401
▁Benj~~11430
iat~~4890
ias~~5447
iar~~196
▁lady~~7409
▁cogn~~1360
▁6,000~~9473
▁color~~953
▁colon~~277
▁bridges~~10516
gin~~6094
▁about~~111
▁lovely~~8356
▁landed~~5648
▁protection~~5068
▁ask~~1884
▁Boom~~5640
▁labeled~~11215
▁Under~~11251
▁textbook~~8937
▁Mak~~12343
▁Book~~8217
▁finding~~6207
r~~1405
▁asp~~4911
▁ass~~2217
▁efforts~~7527
▁ast~~6887
and~~1961
ane~~2872
▁strands~~11407
ang~~273
rene~~2231
ana~~7074
reng~~13634
anc~~4591
▁newsp~~11410
pro~~4917
▁nearly~~2744
▁began~~1906
ani~~9282
ank~~2889
ant~~20
▁scales~~903
▁harbor~~11019
▁culture~~977
▁depending~~6955
▁combine~~8689
ans~~876
▁antibiot~~11789
▁Nathan~~12082
▁Mutter~~12511
any~~5813
anz~~5756
▁November~~10844
▁Sub~~9653
▁annoy~~2984
quarium~~12500
druck~~13976
▁memory~~3735
▁parachute~~5602
▁hasn~~1980
▁Singapore~~1757
▁deeply~~6306
▁would~~544
▁RNG~~14206
▁brothers~~5387
▁paper~~2162
▁tact~~5424
▁seeing~~507
▁tack~~2728
Good~~9193
arot~~13854
▁hast~~9542
▁milit~~4600
icon~~10528
▁continued~~1677
▁trigger~~7092
▁tries~~6632
▁rivers~~5137
▁projects~~3246
▁divers~~10737
▁authentic~~4108
▁tried~~774
▁gives~~3887
▁bacterium~~8947
▁vir~~8593
▁vis~~7671
▁mouse~~6611
▁vacation~~2314
▁training~~5604
▁intro~~10564
▁Whatever~~1532
▁vie~~10084
▁via~~6942
▁given~~235
umines~~11664
▁tr~~4821
▁accum~~4307
▁tw~~5496
▁Tes~~11313
▁Philosop~~11739
gevity~~6593
▁ta~~12584
▁Real~~8850
wood~~1140
▁te~~7094
▁Nature~~1268
▁th~~3471
osse~~13325
▁records~~101
▁metals~~12075
▁Regel~~13950
▁delay~~5642
▁to~~30
▁Malaria~~12174
heast~~3016
▁trajectory~~5093
▁lifel~~7336
▁enjoying~~8669
H~~1168
▁machine~~2660
▁Oak~~7973
ervice~~13391
▁regularly~~10251
pendence~~9111
▁Tim~~10936
▁file~~10997
▁lifes~~6690
brit~~12957
▁lifet~~12447
▁Sahara~~10158
PT~~13176
▁engineers~~6959
▁course~~1985
▁Word~~8274
▁curve~~4836
▁Prior~~11492
▁Knie~~14156
▁RO~~7080
▁optical~~7066
▁disc~~4026
▁gro~~1437
▁disg~~11428
▁dise~~13893
▁gre~~10573
▁dish~~4976
▁gra~~2123
ables~~2265
▁application~~7431
▁diss~~2851
▁metaphor~~3847
ablen~~12778
▁dist~~3404
▁Mandela~~9959
▁occasion~~2594
▁there~~142
▁pills~~2406
▁advantage~~1264
ways~~4274
▁therm~~7373
amen~~11137
▁hierarch~~10465
▁table~~3298
▁likelihood~~11298
roots~~11621
▁consequences~~4410
▁bag~~9471
▁teenage~~2609
▁compelling~~9359
▁RS~~13092
▁renewable~~11314
▁public~~1900
▁closed~~3483
▁obl~~9992
comp~~2259
▁suggesting~~5216
▁obt~~10358
▁reading~~1001
▁closer~~785
▁obs~~8472
▁moment~~289
20~~2185
come~~7206
istry~~8716
▁Feld~~13410
▁largest~~2198
▁Kurz~~12909
▁estimates~~11285
▁Video~~3732
▁manuscript~~8533
▁green~~1755
▁ahead~~1663
▁estimated~~4531
▁artific~~11958
▁communicate~~3657
▁fly~~431
▁flu~~5363
6,~~2294
pos~~4047
6.~~3966
▁flo~~6958
▁kne~~12004
pol~~1725
awi~~11191
▁Char~~10467
ambia~~12831
▁fle~~6949
▁wra~~10888
▁Think~~3364
ivers~~3865
▁agnost~~12620
▁judgment~~9259
But~~7492
▁gig~~10351
▁nutrition~~5899
▁Bulgar~~920
▁Ty~~8934
500~~7762
engine~~7361
ltra~~3061
▁astronaut~~2890
▁Jean~~10832
▁exc~~2127
▁signed~~7810
▁impossible~~2945
tential~~14184
iders~~10507
▁Department~~7609
▁Mitt~~13122
minister~~10412
▁exp~~136
▁quarter~~2745
▁lethal~~10928
▁ext~~11635
case~~7377
▁conceptual~~4697
▁stories~~73
cast~~6906
abytes~~10352
ament~~6123
▁poorest~~5322
▁Dylan~~3996
▁helium~~11786
▁Wi~~8123
▁Wh~~713
vest~~5976
▁deliber~~4692
▁funds~~5824
▁Wa~~12617
▁We~~77
▁replicate~~10045
▁expensive~~1842
▁glamorous~~11816
▁jungle~~11197
▁humans~~1257
▁incredible~~80
▁Geomet~~12994
▁marker~~9134
▁market~~3265
▁Mumbai~~6967
▁chairs~~8193
▁GP~~13268
▁incredibly~~404
▁feels~~4815
uhl~~13902
elesc~~13776
ween~~8852
▁combination~~5441
IP~~11755
IS~~5416
orph~~6903
▁speaking~~1376
ness~~1116
driven~~7312
eless~~6511
▁towns~~6299
IN~~12829
▁Myth~~9851
changing~~9622
▁childhood~~1934
ID~~12317
▁whe~~12958
▁eliminate~~1570
▁frankly~~4984
▁Jay~~5502
▁Society~~10889
▁witness~~9158
▁sustainable~~5269
Is~~1599
▁Train~~10765
▁liked~~3427
It~~5538
▁psycho~~12197
▁treatments~~5920
▁areas~~677
▁Jan~~8345
In~~2611
uhr~~14199
▁Jac~~7501
If~~3002
▁bind~~5082
▁striking~~5353
▁mer~~6098
odie~~12792
▁met~~3820
unclear~~11077
▁planets~~10921
▁men~~4481
▁suddenly~~3579
▁mel~~3640
▁linked~~2022
▁meg~~8913
▁med~~1802
til~~12215
▁being~~647
▁forces~~2310
▁sne~~3791
vious~~8516
▁discipline~~7447
blog~~12252
▁educ~~1820
▁penal~~10842
▁forced~~5743
▁princip~~2089
lett~~9701
▁priv~~13359
▁Holz~~8561
▁Women~~5562
▁challen~~13563
ross~~4379
▁average~~118
▁pile~~4702
ogan~~10274
▁pill~~741
▁meme~~925
▁develop~~1363
iosity~~9310
walk~~11188
Mann~~11718
▁visited~~4319
▁1.2~~12863
dete~~9144
▁Hans~~7636
▁entrepreneur~~8695
▁Hand~~6491
▁boost~~5627
▁blowing~~7779
▁Os~~12782
▁Gil~~11157
▁klug~~13533
▁dollars~~2283
▁project~~2558
▁entry~~9464
▁clinic~~4918
ibility~~6481
▁grains~~10423
▁send~~3674
isation~~12097
▁Brown~~9933
aust~~12799
▁Tokyo~~3027
▁189~~11319
▁Gh~~12120
▁calls~~929
redit~~12696
▁appeal~~10021
▁sent~~1930
▁loving~~11327
ause~~8464
▁sens~~8016
porter~~5342
▁cuts~~11454
▁pollin~~8665
▁fast~~3875
▁discussions~~2551
▁lose~~5459
ocation~~11856
▁jaw~~10971
▁cute~~8310
▁fash~~12467
▁horizon~~5921
▁loss~~6644
▁lost~~3010
_~~13479
▁brother~~5514
oo~~1129
on~~2357
om~~4883
ol~~1180
ok~~3021
▁46~~5658
▁Please~~4904
oh~~10279
og~~2166
of~~3056
oe~~5974
od~~368
oc~~1202
ob~~3088
▁beans~~11043
idence~~2479
▁fifth~~6613
owder~~13580
stand~~1669
oy~~2879
ox~~6494
ow~~2948
ov~~5884
ou~~2955
ot~~4311
os~~598
or~~1615
op~~367
▁announ~~4272
▁provide~~1007
▁hearts~~9945
igma~~7321
▁repar~~13522
▁paid~~1875
▁strip~~8636
▁pain~~2348
▁Ble~~11260
▁sugar~~11911
▁Wol~~8287
▁host~~5532
▁heir~~12635
▁flood~~6446
▁hosp~~5978
▁assumptions~~5046
▁Nike~~11898
yan~~12217
▁uncertain~~12912
▁Wow~~8586
▁facilit~~11590
▁Wass~~14067
▁floor~~517
▁comic~~10754
▁App~~11584
▁issue~~7867
▁punishment~~3292
ilien~~13820
▁discover~~2904
▁stup~~11603
▁key~~1425
▁stun~~1898
ended~~9281
▁evolutionary~~4087
▁goals~~2134
▁stud~~8342
▁jewel~~6963
▁nights~~4756
▁goal~~2086
▁contribution~~8663
uster~~2528
▁missed~~6472
▁Experiment~~3359
▁miserable~~1594
▁Hab~~13054
▁interestingly~~8817
▁blueprint~~8953
▁tissue~~8445
▁Theater~~11052
▁sound~~454
▁membrane~~10950
▁const~~11879
▁Veter~~13620
▁bist~~12662
▁West~~3941
▁created~~724
liches~~12118
aced~~8032
▁hier~~13278
▁disturbing~~8492
▁Krist~~5016
▁wings~~8366
aces~~945
▁creates~~1620
▁monitor~~4977
azz~~7359
igr~~1914
▁2.~~7604
▁2,~~7477
▁purple~~11715
▁26~~5320
▁27~~5606
▁24~~4928
▁25~~2561
5~~3105
▁23~~5843
▁20~~1597
▁21~~2238
ign~~6993
igm~~11343
▁2:~~7127
▁28~~6732
igh~~5040
▁fragile~~859
▁Eben~~12557
▁coat~~10529
▁Taschen~~12962
▁kn~~5714
ilar~~5931
▁'80~~11893
▁coal~~10324
orien~~11705
▁words~~2349
▁aqu~~4411
▁interventions~~7268
▁environmental~~7972
▁drops~~5334
ments~~2330
▁portion~~7834
▁largely~~5330
▁contrad~~11894
▁four~~2979
ories~~2494
▁woo~~12533
▁won~~1169
aring~~3331
▁wol~~8344
alk~~7396
ali~~10277
▁weekend~~6351
ale~~1991
▁Amaz~~12857
ala~~1353
▁TEDsters~~11267
▁onstage~~3455
▁representation~~9861
abin~~11464
abil~~11116
▁willing~~3435
▁carries~~6689
alt~~9768
pts~~6146
als~~2090
▁Europa~~11785
▁algae~~10960
▁traditional~~3462
▁sequ~~10379
lining~~7607
obel~~14009
▁jail~~11333
▁Serge~~7115
▁Pre~~8453
▁Pass~~11453
▁labs~~2358
▁sciences~~7288
▁Pro~~7270
▁smart~~3775
esthes~~4891
▁anybody~~3531
▁tolerance~~9496
ured~~7212
▁Renaissance~~7446
far~~9074
▁worked~~1613
▁consume~~4557
uren~~13540
▁privileged~~9022
▁initially~~6167
urer~~5852
ures~~267
▁sphere~~3869
▁Phil~~6799
▁Veget~~13822
opath~~12578
heid~~7173
▁balls~~8675
▁playful~~1398
▁indo~~7008
icking~~9673
list~~10665
▁resource~~6269
▁achieving~~1952
▁themselves~~2776
eration~~9532
▁rein~~1614
akers~~1819
▁transformed~~1921
▁indu~~11496
▁visit~~4174
▁movies~~8237
tel~~2680
tem~~8832
ten~~2876
iances~~12083
▁stere~~8483
▁centuries~~7423
ted~~1235
▁Agnes~~12272
▁rethink~~3079
rate~~5267
design~~8304
▁traveling~~4859
ter~~2372
tes~~10555
▁owners~~10729
ror~~10491
flict~~9308
what~~10684
▁slavery~~9955
▁worthy~~5992
▁Saturday~~7580
sun~~7051
▁panic~~5277
▁Brain~~3634
▁applied~~3085
acent~~2129
version~~5735
▁mill~~2394
▁breaking~~96
▁underground~~7735
▁Oct~~7462
lier~~12314
▁David~~4
▁ze~~6773
▁mild~~11827
▁mile~~437
▁pur~~4294
odynam~~13445
▁Metall~~11647
▁Genom~~11179
▁put~~295
EA~~13379
▁sentence~~5685
▁Thailand~~6416
▁white~~561
▁suppose~~6559
▁enter~~2446
▁Coke~~3349
▁sure~~3514
▁surf~~144
▁surg~~8522
▁Krab~~14111
▁cake~~4669
▁surround~~6878
▁Moment~~12955
▁male~~661
▁surv~~9567
graph~~12386
▁mall~~11363
▁intimate~~5808
ough~~4065
▁fears~~10992
▁statist~~11418
apan~~13178
▁contact~~537
▁negle~~1927
▁confident~~6661
avy~~10755
illion~~895
▁1970~~1671
▁mainly~~1815
▁built~~3626
weil~~12910
▁Cartoons~~13112
▁XL~~13434
▁--~~93
▁ecology~~8756
imate~~2178
▁build~~1628
▁fundamental~~4685
tember~~13407
▁magician~~10493
▁dose~~5025
▁same~~715
▁old~~1339
aves~~5621
▁controlling~~1403
stick~~426
known~~7689
▁spiral~~12340
▁powers~~10449
▁threat~~8063
▁mankind~~7403
▁tear~~4844
▁selection~~6686
▁hospital~~3198
▁Earth~~33
▁thread~~9354
ense~~9911
▁truly~~1312
▁Metap~~12991
v~~1107
Ind~~12384
▁team~~1502
▁column~~5236
edes~~10587
▁Hass~~13052
▁Nair~~13657
▁Coll~~10680
▁writ~~3981
▁underlying~~1923
▁ways~~2039
▁warning~~5626
▁freak~~7152
▁scans~~9806
▁vibr~~19
▁Around~~3978
▁picked~~3263
ū~~14145
▁Olympics~~8604
breaking~~11221
▁privat~~12942
▁minimum~~8927
▁interven~~6549
▁threatened~~7921
▁easier~~3511
▁Spr~~10260
w~~1253
▁visualization~~7529
▁7.~~12713
▁interaction~~5673
volution~~8299
▁Spe~~6101
▁Madag~~5037
▁unfold~~5346
▁ingredient~~10436
▁Spl~~13016
▁Kos~~13795
▁medication~~10114
▁Kop~~14003
asant~~11281
▁Lux~~1839
▁Protein~~13508
▁journal~~8539
▁Panthe~~14058
ardo~~10540
▁Carnegie~~3389
ards~~2125
▁encou~~11767
▁16.~~4879
▁chamber~~10293
▁16,~~8075
▁16-~~5547
▁Luc~~4372
▁Kom~~14021
▁Kol~~13600
▁ingredients~~5494
▁Ter~~4851
▁Ur~~4581
▁dramatically~~1910
▁remote~~4330
mission~~7311
▁markets~~3421
▁Motor~~9620
▁Trib~~9592
▁provided~~2752
▁remaining~~6586
▁Ten~~3317
▁Un~~1207
▁Um~~5386
▁Tem~~10551
▁weather~~2216
▁möglich~~13960
▁pockets~~4720
▁UV~~7408
▁quit~~3034
▁US~~9609
Fre~~13830
▁physicist~~8490
▁plenty~~3251
▁verd~~13965
▁invent~~2091
▁perce~~4207
zure~~13338
▁UC~~10876
▁Dist~~11317
▁UN~~10224
▁identif~~10691
alter~~9398
schild~~11806
▁Multi~~11892
▁depress~~9484
▁landscape~~744
L~~2474
▁ring~~5804
inch~~12095
▁Public~~9389
wege~~12266
▁surrounded~~4577
▁immediately~~3006
▁makes~~964
▁honey~~11420
▁Doug~~7596
▁maker~~8712
cean~~396
▁Hawking~~11264
▁lives~~624
▁liver~~12065
▁ticket~~6387
▁circa~~12404
▁perspective~~839
▁improvement~~1698
weight~~4804
generation~~6603
▁sophisticated~~2740
▁laugh~~6238
▁bill~~3354
iologist~~4892
unker~~10663
▁surgeons~~5907
▁Information~~12479
▁immun~~8403
▁visions~~9996
▁frequen~~9698
mates~~7591
anke~~12146
▁eaten~~4517
▁sperm~~7957
▁spr~~10725
ize~~933
gur~~11540
▁branches~~2168
▁laughing~~1411
▁images~~128
▁tells~~1697
▁jobs~~1713
▁transportation~~4792
▁pregn~~7930
▁appropriate~~3397
▁spo~~8948
▁spl~~4654
▁subur~~9581
▁Nations~~5101
▁Interpretation~~13813
pert~~13172
▁cere~~3817
▁pink~~8416
impse~~13845
▁analog~~8984
▁welfare~~9956
▁cert~~4470
▁border~~5464
▁opens~~5555
▁release~~3543
▁Sweden~~6341
▁fuck~~8893
▁sweat~~5679
▁dead~~7246
▁Dach~~8415
illas~~10122
▁deal~~3599
▁Res~~11315
▁author~~5180
eday~~10843
▁Indus~~13277
▁prosperity~~9967
iolumines~~11659
▁dear~~5559
▁verm~~13046
▁funding~~3247
▁integr~~2268
ding~~3360
▁farms~~6142
icked~~8256
atson~~14163
ilde~~13875
icken~~10801
inent~~8458
▁SMS~~9928
icket~~11931
▁variations~~7653
▁Studio~~8277
▁until~~2743
▁sell~~4472
"~~926
▁gener~~5470
▁genes~~6688
▁self~~1080
▁Pil~~14072
▁sele~~1266
▁impress~~3311
▁throughout~~5142
▁Reg~~11151
▁Pir~~8187
▁generates~~7928
storm~~9825
▁Diesen~~13975
▁wildlife~~7968
passen~~11978
▁March~~4133
▁curr~~5130
▁dinner~~2997
▁structural~~4963
▁singing~~3710
▁ethn~~13161
60~~7378
▁could~~797
▁rainforest~~855
▁cure~~5280
▁stake~~1485
▁kle~~12239
▁policy~~1935
▁search~~1223
king~~3522
kind~~12054
▁tradition~~1925
idesp~~9093
▁decisions~~1461
▁epidem~~9659
▁originally~~3235
?",~~13147
stall~~12643
kins~~5853
▁tools~~2952
▁residents~~9985
▁reactions~~7732
zym~~11181
▁tanks~~7785
▁October~~4850
▁innovate~~6671
▁paste~~1988
▁variable~~10717
▁stable~~823
▁should~~1042
▁Temperatur~~14216
▁record~~866
alence~~6455
▁removed~~3371
▁Wik~~13492
▁grave~~10745
▁context~~1090
▁Wil~~9944
▁Win~~3561
ungs~~10396
▁Wie~~14138
▁Wid~~7038
▁Treat~~11882
▁Phys~~12521
▁ster~~7804
▁receiving~~6460
▁chapter~~5457
ety~~8545
unge~~11675
eff~~11142
▁volunte~~11994
▁Anderson~~3169
7.~~8976
▁especially~~4237
▁stock~~3264
iful~~8628
▁notice~~3479
▁stays~~8868
adder~~11517
amas~~9192
70~~7360
▁Chance~~12209
uert~~8141
▁cockt~~9564
▁unable~~1291
stands~~12246
▁remarkable~~2589
▁stability~~9529
schm~~10545
▁Flickr~~12163
eed~~13022
▁Bauer~~12256
▁mask~~5008
▁mass~~3445
part~~11222
▁Anim~~9988
gramm~~14168
▁remarkably~~3909
▁Geruch~~13282
lying~~7129
▁high~~777
▁indic~~6655
▁2030~~12781
▁Euro~~11566
▁resources~~2096
▁ecosystems~~11026
▁synthetic~~7911
▁MBA~~5845
umor~~6709
▁parent~~2135
▁rocks~~865
▁0.~~7891
▁loved~~3705
▁marrow~~12580
▁liber~~4275
ies~~330
ier~~2723
ieu~~12195
iet~~3991
▁amazingly~~9137
▁incor~~13191
▁hitting~~6735
▁loves~~1435
iel~~3620
▁plate~~783
ymmet~~7646
ieb~~13628
▁Hawai~~4383
ieg~~13723
ief~~9647
hip~~2364
▁civilization~~4354
▁driver~~6265
▁drives~~1859
rian~~8112
▁difference~~1767
▁telling~~2113
▁happening~~767
▁begins~~4297
▁Audience~~6675
hib~~6418
▁cock~~10348
▁Sens~~12809
▁Arabic~~10927
▁Arabia~~12750
▁coca~~13243
▁Narrator~~4482
hin~~6005
▁conscious~~9202
nut~~6070
▁grat~~6235
▁Individ~~13487
▁synthes~~4970
▁mimic~~2353
▁cosmic~~11626
▁Iceland~~9966
▁third~~3357
▁Sorry~~3045
▁drone~~12984
▁globally~~4528
▁convenient~~10397
iness~~4773
arr~~2733
ars~~621
art~~2507
bart~~13890
uments~~3615
▁win~~304
ary~~1604
allel~~6260
▁wid~~3120
bara~~12801
ara~~8879
▁solve~~1735
▁♫~~4754
▁struggling~~2062
are~~3466
arf~~7765
arg~~5131
▁wip~~850
arily~~6519
ark~~7065
arm~~2340
arn~~4540
▁Has~~12395
▁results~~1498
▁Bot~~11720
▁affordable~~6810
▁faith~~2658
inge~~11349
▁Paul~~7226
ution~~5076
▁garbage~~5071
▁Phot~~10891
▁ownership~~8800
ingu~~12312
▁Box~~12890
ER~~12451
ings~~1513
urch~~9064
▁Regen~~12056
▁happens~~1011
▁Hosp~~5979
uum~~9205
fgh~~12865
▁miles~~121
▁universe~~7015
▁happen~~1052
▁Cooper~~6937
▁Bob~~3995
c~~2267
▁Had~~9294
▁development~~1359
▁Stud~~1876
▁infl~~2512
▁trial~~5429
▁Inspir~~13698
flies~~9687
▁budget~~4488
▁reward~~6435
▁mind~~1175
▁mine~~2628
▁limitations~~7019
▁ver~~5085
▁mini~~9656
▁battle~~5680
▁ethic~~4263
▁addiction~~7505
▁flying~~2298
▁Hof~~13125
▁ven~~3902
▁appe~~9448
▁tunnel~~11815
[~~7497
pr~~5264
ps~~464
pp~~1781
▁Broad~~11033
▁guard~~11549
pt~~6144
▁Canyon~~8878
▁Bon~~9981
duc~~7291
▁fuels~~4553
▁temporary~~9015
ishing~~5449
▁secret~~6872
▁Hier~~13555
▁scene~~3268
pf~~10837
▁Bol~~10763
pe~~301
ph~~2830
▁Juli~~11432
po~~6431
pl~~176
▁harness~~6054
▁exchange~~6006
▁organizations~~5193
▁exch~~3363
cept~~1600
▁Radi~~14110
▁excl~~4112
asing~~3340
▁describing~~11753
▁196~~6783
▁Experimen~~11448
▁Beam~~12031
asure~~10670
▁Roosevelt~~8758
geted~~11634
ften~~12554
▁immediate~~2575
▁crack~~9580
▁guerr~~11577
▁many~~971
▁junk~~8744
▁Delhi~~8021
▁Feuer~~13130
agen~~8635
feren~~4807
abol~~11266
▁Valley~~8081
▁enormously~~8685
abor~~13141
▁videos~~7237
ahar~~12847
▁impressive~~1887
▁supp~~8128
▁mand~~5253
▁19.~~10441
▁Mahl~~3994
▁precision~~3838
▁School~~8146
▁Version~~13422
rix~~12604
rit~~8200
▁Renn~~12310
ris~~6286
rip~~3501
rin~~7966
rif~~5572
rig~~6035
▁resist~~9707
rie~~1602
rib~~4877
ric~~1234
▁paradox~~3736
ria~~5989
ermann~~12432
ancing~~6468
aged~~4493
▁Scratch~~13870
▁differences~~8513
▁Nin~~8544
▁reports~~8747
▁fairly~~7280
9~~4614
▁Nie~~12242
▁historically~~9023
▁primary~~4013
▁block~~2527
▁labor~~6050
ctus~~12996
▁badly~~1849
iated~~2043
sell~~11769
Cor~~11619
obil~~8837
▁simplest~~808
rö~~10313
▁Security~~10236
▁one~~243
cement~~8144
▁bacteria~~564
ession~~1229
▁bicycle~~10593
.]~~7488
▁Fol~~5571
▁MT~~10831
▁separation~~9200
▁liberal~~6060
▁roots~~3940
eks~~3503
▁thro~~11809
forestation~~12007
▁path~~2427
edge~~10654
▁tech~~12187
▁Finan~~9796
▁Alaska~~12530
▁previous~~4636
▁Haus~~12318
▁Haut~~14057
self~~10455
itary~~5777
know~~10768
▁Uganda~~7969
abilities~~3727
precedented~~13559
▁Wert~~13516
▁boundary~~9132
▁defend~~3018
▁letters~~6842
isely~~12776
▁types~~342
▁watched~~5749
▁nom~~8740
▁evapor~~10693
▁struck~~7983
▁Disney~~3932
▁chest~~5619
▁Vari~~14007
▁chess~~3559
ipping~~3211
▁Ignor~~13458
▁Polar~~10929
polit~~11064
uals~~9246
▁darkness~~8975
▁shed~~3598
imen~~10347
▁emer~~8370
▁scaling~~12898
▁1000~~12347
▁Boston~~3721
▁Manip~~14204
▁Fib~~13393
▁signal~~6919
▁harm~~5112
▁Fin~~1759
▁Jessica~~12951
▁Arizona~~10934
▁Mex~~11248
▁100%~~13322
▁Fir~~12945
▁Indeed~~2521
▁Sri~~8920
▁harn~~2311
▁100-~~5862
▁100,~~6597
▁Röntgen~~13929
▁140~~10989
▁yourself~~1885
shaped~~752
▁Kat~~9357
▁steps~~1526
tein~~13659
▁Kap~~11508
▁Kas~~11954
▁Kar~~10687
▁Kam~~7747
▁Kal~~11712
▁Kan~~12735
▁submar~~25
▁Blitz~~13320
fraid~~13687
▁14,~~4134
▁14-~~12271
▁somewhere~~523
▁Kab~~10233
▁But~~187
▁attention~~3576
▁gigant~~3757
▁diplomacy~~10903
▁Bur~~7795
▁majority~~5158
▁nit~~12818
empl~~10428
▁pulling~~5141
▁theoretical~~5657
▁Bud~~8040
▁shadow~~7487
▁~~3583
▁sink~~4352
▁regard~~6537
▁sinn~~13735
▁sits~~6250
▁Bul~~10534
▁nie~~12869
▁nic~~3931
▁cra~~535
▁normally~~630
▁Hell~~10812
▁continue~~2749
anny~~8559
ried~~6267
prov~~9489
rief~~6750
medi~~2501
▁kick~~1475
rieb~~13509
▁cro~~4436
▁economics~~3415
prom~~9344
▁Oscar~~10207
▁zone~~4377
▁cru~~4760
▁screens~~6879
▁cry~~4157
anne~~10759
prob~~9316
rier~~10403
ries~~8683
▁Galois~~13666
▁compl~~2087
▁Skype~~7457
▁Jed~~10919
▁Fair~~4790
lose~~5803
weis~~9602
▁came~~805
orld~~5221
▁signs~~6756
▁Jet~~6794
urb~~11356
▁needed~~3840
▁thrilled~~11808
▁Jer~~14099
▁["~~7496
most~~10669
▁Same~~4010
▁Problem~~13704
Rob~~13184
▁Zoo~~12680
▁independent~~8387
▁easy~~1451
Point~~14094
yle~~9264
▁broader~~3688
yll~~7466
▁east~~4422
▁bell~~10082
▁Woman~~7126
▁Elect~~10477
▁gather~~3671
▁infin~~9860
▁Brett~~12803
▁science~~692
▁Twenty~~5281
▁Hast~~13648
▁Jupiter~~8048
▁Strat~~12907
▁revers~~7820
▁overwhelmed~~10101
▁por~~10466
jo~~9586
▁refer~~1480
▁exception~~5356
▁transmission~~6920
▁walking~~1375
long~~5335
▁plain~~8022
▁subst~~12390
▁represented~~6894
▁invite~~3643
Every~~2865
▁fiber~~6908
leist~~13223
▁mosquito~~12333
etch~~10673
ixt~~2622
▁physicists~~8442
▁Christians~~9550
▁contains~~7661
▁faced~~7811
▁Banjo~~13617
▁status~~3569
▁smallest~~8012
▁faces~~2623
▁pipe~~9998
iques~~10712
▁embarrassed~~5947
▁foods~~8676
▁Super~~3094
▁deck~~11362
▁whether~~1719
▁Mull~~10574
arter~~8174
▁Indian~~6015
▁Mult~~12624
▁fulfill~~7023
▁office~~100
▁classes~~1865
z~~2471
called~~7370
▁Male~~13596
▁"]~~13766
cin~~5329
▁smells~~9685
▁Dean~~10756
▁Kennedy~~10901
famil~~10897
▁'70~~528
▁blew~~7782
▁highest~~6051
inely~~6486
▁museum~~3649
▁quickly~~1740
▁sprang~~11060
▁Brad~~11750
kr~~13284
▁strongly~~5949
▁spill~~4957
▁Bras~~13609
▁Roll~~11115
gra~~348
▁jet~~284
gro~~11382
len~~13134
▁count~~1894
chester~~11937
cil~~9430
▁allgemeinen~~13953
athed~~10947
▁Blogs~~13539
▁peace~~2686
▁additional~~5630
▁Table~~2785
▁dynamics~~1276
ather~~4903
▁straw~~11308
▁rush~~6392
cts~~7149
▁extend~~3592
ckets~~7970
▁Ruf~~13474
▁whis~~4022
▁repe~~10571
▁Rub~~7555
zies~~10384
gression~~6573
▁Rum~~12628
▁various~~5765
▁repl~~3231
▁extent~~4061
▁repr~~9519
▁extens~~3856
▁World~~2957
tete~~13430
gans~~10458
eda~~9846
gant~~11391
ede~~1979
▁Ellen~~9338
▁conservative~~8661
arten~~9419
alien~~9644
eds~~8201
▁450~~10184
gang~~9730
▁building~~2950
ardino~~13691
edy~~8612
▁women~~1926
▁within~~391
▁Buddha~~12047
▁stations~~9951
▁cor~~3161
▁unle~~4161
▁cop~~6529
▁cow~~5994
▁cou~~2404
hle~~11533
▁con~~1039
▁com~~4205
▁become~~184
▁ratio~~7655
cip~~12134
▁hinter~~4604
▁cod~~3854
▁Min~~8717
▁acknowledge~~10004
▁800~~5468
▁Gramm~~11463
▁seeking~~225
ague~~5915
▁schizophrenia~~3717
ging~~5226
itness~~10726
P~~2245
uge~~11999
▁stagn~~6073
▁stage~~3032
▁goes~~886
▁acquired~~10591
▁breast~~6753
▁falls~~3336
estic~~13280
itre~~12048
▁touched~~5797
▁estate~~8912
▁obser~~3699
▁Mess~~13186
ittle~~8907
eding~~10916
▁Good~~638
▁belie~~8753
oche~~13242
▁1~~10290
▁didn~~547
giene~~6580
ounding~~4831
fold~~7872
▁Venus~~9704
▁Tamiflu~~13546
▁appreci~~8986
makers~~2856
ctor~~7452
gress~~5317
krit~~10090
▁After~~2676
▁6.~~6758
▁6,~~13061
▁extinct~~9087
▁Oben~~14229
▁portrait~~10473
▁reserves~~4597
▁explos~~2252
▁68~~10727
▁committed~~6857
▁Eigen~~14033
▁60~~3447
▁64~~2440
▁65~~2399
▁Commun~~6939
▁parents~~1870
▁locked~~7435
▁twice~~4532
iest~~3575
▁Stirling~~13432
▁Standards~~10029
▁reaching~~3486
▁prisoner~~9888
ober~~12566
▁Generation~~11360
ikas~~13684
▁Muslims~~9549
▁privile~~13236
▁climb~~4774
▁therapies~~6311
▁windows~~7372
▁chronic~~2423
▁2050~~4530
▁touch~~3639
▁Luke~~8084
▁Finally~~5284
orial~~5168
▁Everything~~668
reds~~4395
▁w~~2277
bare~~13786
▁shrink~~2365
▁affecting~~5147
▁dys~~10195
aps~~4609
▁mystery~~4881
▁Technolog~~12562
apt~~9288
▁glad~~6251
▁decent~~3916
▁Videos~~13879
motor~~13392
].~~6189
▁glam~~13668
▁Bus~~8782
▁picks~~2691
ape~~8254
▁birth~~1338
▁Colorado~~11367
use~~3946
inen~~12946
▁Patient~~11970
iced~~7455
fen~~2834
▁married~~5894
Min~~6256
gern~~12757
▁land~~4491
ined~~3891
ush~~700
ices~~7688
gers~~1576
▁victims~~5810
ust~~1209
fer~~6560
▁going~~70
▁album~~10177
▁precisely~~6139
iner~~10543
▁contamin~~4300
▁every~~844
▁fault~~8973
▁cooper~~10202
assion~~7010
▁crisis~~4810
▁texting~~12602
▁trick~~4721
heit~~6718
usions~~9804
ibera~~13295
▁programs~~7590
▁money~~1829
▁y~~2434
▁FDA~~8328
ural~~3993
▁eat~~3967
▁eas~~3574
▁ear~~4021
udden~~13752
orning~~9795
▁questions~~2007
▁Expl~~5509
▁Bhutan~~6011
▁greenhouse~~4715
▁horse~~8340
▁e~~5134
▁programm~~11502
▁recent~~6707
▁biologist~~11844
irn~~13601
proof~~3080
▁fest~~9513
▁rain~~170
▁rail~~4650
asha~~9764
▁moral~~2504
▁Light~~6915
▁underwater~~6744
▁best~~1514
▁High~~2040
▁WHO~~10036
▁Berlin~~11573
▁Buch~~6835
▁source~~4490
▁medical~~3176
▁Windows~~9011
▁mathemat~~11098
▁researcher~~6478
▁i~~10869
▁intr~~13705
▁Buck~~12607
▁Keller~~13139
▁Ooh~~7097
▁bre~~6216
▁exam~~3233
ourcing~~9904
▁exposed~~5324
▁Restaurants~~13980
▁compute~~10944
ruction~~13543
,"~~1058
▁numbers~~2748
▁asteroid~~11485
▁absol~~12406
bergen~~13461
▁abundant~~59
light~~5261
▁P~~2143
▁behave~~961
▁ladies~~9688
▁5,000~~6928
▁line~~3778
▁grandmother~~5549
▁hacking~~11615
▁link~~6956
▁unend~~14027
▁absor~~3091
otton~~11940
▁autonomous~~12345
▁Auto~~14039
▁environments~~7628
elig~~14114
▁meeting~~2199
▁storytelling~~8073
▁bri~~11065
ocus~~1499
▁kidney~~5909
▁bust~~5573
▁busy~~5504
1~~2292
▁screw~~8765
▁creat~~6379
▁watching~~2426
gled~~3008
▁factor~~1120
▁Hello~~3814
▁inte~~14230
▁successful~~2055
▁beneath~~4757
bye~~5937
gler~~8573
▁coinc~~7960
imore~~14169
▁mothers~~7522
▁abstra~~10774
▁numer~~9826
▁door~~2951
atively~~3958
▁eyes~~230
material~~11764
▁Koch~~14005
▁dood~~10519
▁refuse~~5823
Can~~8941
▁California~~4313
▁Hammer~~13304
▁bottom~~162
▁relationship~~3866
▁ready~~3565
▁classical~~8691
Pro~~12943
▁mission~~5708
▁monument~~6809
▁accomplish~~11254
▁Goo~~3007
▁maxim~~8774
▁request~~9167
▁teen~~2711
▁Warren~~10645
▁God~~2538
▁Bosn~~9313
edia~~8743
edic~~8616
8.~~6678
oun~~3921
8,~~2792
oul~~3803
ommen~~13592
▁resistant~~6664
▁2008~~3026
related~~6602
oud~~7460
▁Emily~~11794
dy~~5610
▁Systems~~8427
▁Sierra~~9969
ous~~1265
▁celebr~~1444
80~~4615
oup~~3396
out~~1270
emble~~7306
oked~~2435
▁Cyrus~~9494
▁2009~~11056
▁whistle~~2956
▁Anas~~13105
▁texts~~9526
okes~~2463
▁Gele~~13633
▁Empire~~4598
▁geography~~4652
▁indeed~~4513
▁DAR~~12428
▁factory~~8954
▁pump~~5888
▁hopefully~~5120
▁cholera~~9210
▁Nigeria~~5375
▁retro~~8085
This~~5347
▁Neil~~8150
▁whole~~646
▁days~~1858
▁Beij~~13708
▁river~~4003
▁systematically~~9615
▁neurosc~~13574
▁Beis~~13692
▁Secret~~12153
van~~11546
▁imagery~~690
▁Ste~~1121
▁cancer~~5902
▁nurses~~3202
▁cooperation~~9221
appy~~10542
g~~1351
▁ele~~9974
▁120~~2296
▁rights~~8797
▁125~~11028
▁12.~~5503
▁dopamine~~10955
▁12,~~10193
▁12-~~2860
teor~~11654
▁with~~186
▁pursuit~~2160
ungen~~13957
▁Tax~~10792
▁Tay~~14080
atever~~11405
▁Tar~~11519
▁Tas~~11595
▁existed~~531
▁Tat~~12330
▁periods~~2105
▁Tan~~8231
▁artists~~2515
▁dominated~~1901
▁result~~1010
▁Tab~~12408
▁traffic~~6302
unger~~12616
▁Tag~~5225
ected~~4094
ser~~923
▁imagin~~6612
elled~~8894
▁Planet~~7546
▁YR~~14070
▁economies~~1021
▁eggs~~5151
▁supermass~~13213
▁zero~~1478
▁Friday~~4635
▁reminded~~5732
▁contro~~10366
▁YouT~~13331
▁walked~~3342
▁penguins~~12790
▁Hunger~~13615
Die~~14085
▁emerge~~6863
▁sight~~4648
▁stolen~~10381
▁emissions~~2220
▁handle~~8847
▁investing~~1854
elines~~5511
▁Korea~~1688
▁decre~~1466
▁Dec~~8999
vie~~12458
▁knee~~5506
▁Hotel~~11778
▁framework~~4723
▁reefs~~11649
▁Hadron~~12524
▁knew~~525
▁mache~~14019
▁directly~~1714
ergarten~~14225
▁responded~~4128
▁muscles~~2355
irds~~9563
▁connect~~3442
▁Anthrop~~10905
▁silver~~3146
▁bull~~5337
elta~~11797
▁bureauc~~2067
▁Toyota~~9906
sen~~754
▁climate~~2145
▁connection~~3540
▁bulb~~4944
▁explored~~353
sel~~6621
angle~~9778
▁entertain~~8439
▁healthy~~5024
▁str~~9328
eter~~2496
rous~~3539
▁spent~~1830
▁explores~~3907
▁Der~~11000
▁emotional~~1364
=~~12754
▁Nepal~~7582
▁ste~~3299
▁cent~~6715
▁society~~936
▁cens~~10049
▁mechanical~~11495
▁sweet~~5874
▁Darfur~~12706
▁Since~~3930
class~~2021
▁potentially~~5199
▁projection~~2602
▁thrown~~2765
▁RNA~~6554
▁between~~1303
▁buses~~10849
▁Mund~~13999
▁visual~~3882
.000~~13699
▁extraordinarily~~5762
unken~~13115
hi~~11848
▁Laptops~~11579
▁deep~~11
▁uncertainty~~10057
▁rapidly~~5355
▁ethical~~8377
▁Roger~~11749
▁vict~~5970
▁concentrated~~8215
hl~~7102
ulations~~3552
CH~~11002
hm~~13219
gles~~8161
▁pages~~2189
▁bright~~1954
▁belongs~~8429
▁commission~~4847
utter~~6124
▁usually~~1656
▁gesture~~3637
▁Nano~~13029
ear~~1568
▁Interview~~14159
▁artistic~~2603
▁filled~~3137
ender~~4746
▁immort~~5958
▁calling~~768
▁written~~2184
▁Brazil~~4524
▁brains~~1251
▁Rachel~~2142
itiven~~13234
▁celebrated~~2712
▁Museum~~7537
▁Sing~~10282
▁Brothers~~8557
oned~~6627
▁killer~~5188
▁Student~~11851
onen~~10984
▁asking~~4182
▁fortunate~~7504
ones~~3046
▁equivalent~~4548
oney~~4495
▁cared~~2777
▁killed~~2763
qu~~1784
temp~~12066
▁daughter~~2485
Re~~6448
▁nice~~4219
▁reve~~5239
▁Lat~~13519
▁scre~~7090
▁Ding~~13790
▁scra~~737
▁websites~~12185
▁atoms~~3112
vier~~13344
otte~~12204
▁baseball~~9063
view~~2459
ogra~~8622
▁reproduce~~1722
▁February~~5144
▁exotic~~5717
▁basically~~410
arett~~12550
▁Zimbabwe~~9949
▁exact~~7316
▁hour~~3213
▁hous~~4861
▁Party~~11293
▁Education~~11578
▁Golden~~11074
▁Out~~7816
▁robot~~473
▁strong~~1780
▁Wes~~13626
▁notion~~5060
▁Wel~~7205
▁Ott~~12627
▁dignity~~11977
▁Wei~~9405
▁crimes~~6027
▁Weg~~13978
▁Web~~9178
▁spark~~937
▁inhab~~747
jor~~11838
▁TEDx~~9621
ability~~1189
avor~~7300
▁Rwand~~9975
joy~~9765
▁ple~~6363
amed~~7119
▁spare~~9225
entin~~13714
▁Educ~~1770
lem~~9067
▁recipe~~11133
eses~~10734
ames~~1610
amer~~3469
▁card~~4824
▁care~~980
▁seconds~~3372
itis~~5304
▁Moses~~11759
▁total~~7190
awater~~13636
▁cart~~8401
▁Meme~~13865
▁clearly~~3386
▁carp~~3239
▁cars~~4655
▁kills~~6492
▁otherwise~~2699
▁easily~~3830
▁Sputnik~~7704
▁session~~6665
wald~~6836
▁...~~3222
▁explo~~8514
▁diff~~6566
wall~~8989
▁magnetic~~11515
▁index~~12472
▁better~~1047
▁opinions~~8873
▁below~~1752
▁kingdom~~1271
▁cha~~11821
▁obsolete~~7329
▁occurs~~11661
▁substance~~5798
▁40~~2186
▁commun~~1069
▁42~~11035
▁43~~7204
▁44~~2439
▁45~~1067
▁taken~~1946
▁47~~10939
▁48~~9646
iko~~13460
▁4:~~7134
▁Massachusetts~~8276
▁Eff~~11348
▁conducted~~5601
▁Queen~~9231
▁orbit~~7566
aped~~9524
▁takes~~28
▁4,~~7710
▁silly~~6904
▁4.~~8857
RA~~11479
▁forward~~430
▁terribly~~1729
isten~~8945
ilos~~7696
▁mycelium~~12559
▁trans~~5250
▁exist~~697
▁eighth~~9732
owitz~~11735
▁out~~132
ister~~7890
▁perception~~1005
▁news~~1414
▁mirror~~3309
▁Obviously~~3975
▁GDP~~993
▁terrible~~2992
▁industry~~1511
▁Fisch~~13413
▁Ele~~8839
▁Fast~~9408
will~~10214
▁1,000~~5361
▁mental~~3726
atter~~2764
ography~~7374
▁Islands~~4384
▁ocean~~107
▁wet~~4863
othing~~11404
thur~~8571
▁James~~3788
▁wel~~6411
▁wen~~13683
ave~~5835
▁Four~~5594
▁genet~~14065
▁headlines~~2154
ava~~9777
▁web~~8239
▁change~~960
▁Glamour~~13667
cing~~3884
▁rose~~8009
▁explan~~3308
▁ruin~~8980
▁Alzheimer~~3703
ince~~3621
▁Reagan~~8739
icher~~10592
itting~~758
▁wrapped~~4762
▁jack~~7759
▁require~~5712
▁Gisela~~14164
▁ego~~10713
▁Their~~653
▁instruct~~7203
App~~12434
urop~~13387
▁egg~~4668
▁tables~~8192
▁wing~~6423
▁Interest~~7876
▁FBI~~10707
Yes~~5243
▁chemistry~~2315
ARS~~12433
▁aspects~~2444
▁afterwards~~8311
▁listening~~3603
▁professional~~1432
arsh~~11810
▁posted~~4135
acks~~3691
▁poster~~4124
▁multip~~12110
▁literature~~2911
▁raises~~1984
onial~~12200
▁delic~~8656
▁raised~~1911
hrough~~10956
▁Rein~~11066
oting~~1492
▁affects~~2215
▁Monday~~7721
now~~10256
▁Edward~~9248
▁changed~~1145
▁promise~~1617
▁sch~~11320
sky~~7229
▁eight~~1163
other~~7812
▁extended~~5636
▁perfect~~3943
▁gravit~~10399
▁elegan~~11717
▁supporting~~9782
▁Eastern~~4373
▁changes~~4012
▁winning~~6205
▁Ganz~~13846
▁Actually~~3040
urance~~9239
▁sends~~9377
etra~~11984
▁translated~~2750
▁Appar~~7808
▁Ol~~9940
▁aggress~~4227
T~~2708
press~~6369
▁Obama~~9608
▁button~~3684
▁Gene~~10211
ject~~8086
▁unless~~2866
agram~~13642
ietal~~10640
▁Camer~~6954
▁camp~~6749
loser~~14086
▁caused~~4934
▁ongoing~~6629
▁sulf~~546
▁hydrogen~~512
▁answers~~6525
▁aber~~13235
▁desper~~9176
▁struggle~~6496
ropri~~5568
▁blood~~2367
▁gets~~252
▁embod~~12211
▁Econom~~11763
stat~~12763
aptop~~14047
▁elephants~~9090
▁iPad~~9444
▁unprecedented~~7169
▁Line~~10730
▁Lind~~7061
▁Link~~7549
▁Mall~~9325
iod~~7029
▁aufger~~13948
▁oper~~3906
lear~~6534
▁civic~~8096
▁open~~3376
▁insane~~8207
▁Latin~~4011
▁civil~~6507
▁ub~~12230
▁Lank~~8921
▁dedic~~8107
▁fert~~4570
mitt~~13661
▁Land~~11022
▁Lang~~9255
racies~~13118
▁rang~~10206
▁toes~~5119
etheless~~6275
▁officer~~9335
▁fern~~13500
▁Stadium~~14011
▁anticip~~7783
▁val~~1070
▁van~~8708
▁rand~~12551
gerin~~13315
nde~~7371
▁physics~~9250
▁vac~~5328
▁Bach~~3956
▁define~~954
▁Back~~8152
▁papers~~2321
▁scanning~~6252
rary~~10615
▁Jefferson~~9534
▁Central~~445
▁Gib~~12715
▁var~~2211
▁avoid~~4236
own~~5728
▁brands~~6471
▁intelligence~~5703
▁falling~~3927
osphor~~12819
brush~~7594
▁reverse~~4089
▁sovere~~11922
▁citizens~~2009
▁Cur~~11199
ows~~3763
▁mining~~10030
▁sensitivity~~5693
▁vari~~1964
val~~6315
▁however~~5286
*~~13371
▁furn~~12223
▁adventure~~7114
NC~~12981
▁tsunami~~2774
▁script~~9493
vas~~2376
appe~~14235
▁McDon~~12739
uss~~7977
▁Fel~~10329
▁Tele~~12385
▁Fen~~13101
▁temple~~4580
▁10,~~1937
▁10-~~6922
▁natural~~3636
rett~~7355
▁Fed~~1449
▁Klein~~9559
▁Ken~~7746
▁Josh~~9162
▁Ker~~10269
▁100~~1146
▁facing~~5952
▁Par~~6504
▁Fer~~12486
▁Jose~~7232
▁Comput~~10316
made~~7420
▁emergence~~10635
▁acquire~~6025
▁capacity~~4269
▁probably~~577
▁Natural~~7538
▁Color~~11670
▁mountain~~154
▁wird~~13940
▁wire~~6886
▁About~~9065
Mach~~12301
insel~~5806
▁24-~~12354
▁obsole~~13785
▁vary~~8706
fra~~11284
atten~~11389
▁receive~~6583
▁puff~~10815
▁Visual~~13195
▁gun~~10706
▁peculiar~~6089
▁psychopath~~12921
▁later~~1945
▁severe~~5002
▁With~~18
▁further~~470
▁assemble~~10345
▁longer~~1298
▁requires~~6190
percent~~4288
▁required~~2054
oen~~13265
book~~6843
▁almost~~890
▁Result~~12278
▁afraid~~3136
gling~~6104
rial~~6782
▁productivity~~1429
▁longest~~153
▁logic~~1731
▁recently~~2272
▁Ego~~13564
▁dissol~~11914
▁offices~~8191
▁biomass~~306
▁April~~7511
▁Dann~~14227
union~~12597
▁grant~~8523
lessly~~6524
▁fing~~642
▁fine~~5550
▁find~~576
▁ich~~13721
▁Mik~~10983
